{"0": "", "1": "<v>", "2": "</v>", "3": "<t>", "4": "</t>", "5": "<v1>", "6": "<v2>", "7": "<v3>", "8": "</v1>", "9": "</v2>", "10": "</v3>", "11": "a", "12": "e", "13": "i", "14": "o", "15": "u", "16": "\u00e8", "17": "\u00e9", "18": "\u00ef", "19": "\u00f2", "20": "\u00fc", "21": "ab", "22": "ac", "23": "ad", "24": "ae", "25": "af", "26": "ag", "27": "al", "28": "am", "29": "an", "30": "ap", "31": "ar", "32": "as", "33": "at", "34": "au", "35": "av", "36": "az", "37": "ba", "38": "be", "39": "bi", "40": "bo", "41": "bu", "42": "b\u00eb", "43": "b\u00ef", "44": "ca", "45": "ce", "46": "ci", "47": "co", "48": "cu", "49": "c\u00eb", "50": "c\u00ec", "51": "c\u00ef", "52": "c\u00f9", "53": "c\u00fc", "54": "da", "55": "de", "56": "di", "57": "do", "58": "du", "59": "d\u00e9", "60": "d\u00eb", "61": "d\u00ef", "62": "d\u00fc", "63": "eb", "64": "ec", "65": "ef", "66": "el", "67": "em", "68": "en", "69": "er", "70": "es", "71": "et", "72": "eu", "73": "ex", "74": "fa", "75": "fe", "76": "fi", "77": "fo", "78": "fu", "79": "f\u00e9", "80": "f\u00eb", "81": "f\u00ef", "82": "f\u00f3", "83": "ga", "84": "ge", "85": "gi", "86": "go", "87": "gu", "88": "g\u00e8", "89": "g\u00eb", "90": "g\u00ef", "91": "g\u00f3", "92": "g\u00fc", "93": "ha", "94": "ho", "95": "ia", "96": "id", "97": "ie", "98": "il", "99": "im", "100": "in", "101": "io", "102": "ir", "103": "is", "104": "iu", "105": "la", "106": "le", "107": "li", "108": "lo", "109": "lu", "110": "l\u00e0", "111": "l\u00e8", "112": "l\u00eb", "113": "l\u00ec", "114": "l\u00ef", "115": "l\u00f2", "116": "l\u00f6", "117": "l\u00fc", "118": "ma", "119": "me", "120": "mi", "121": "mo", "122": "mu", "123": "m\u00e4", "124": "m\u00e8", "125": "m\u00eb", "126": "m\u00ec", "127": "m\u00ef", "128": "na", "129": "ne", "130": "ni", "131": "no", "132": "nu", "133": "n\u00e8", "134": "n\u00eb", "135": "n\u00ef", "136": "n\u00f2", "137": "n\u00fc", "138": "ob", "139": "oc", "140": "of", "141": "og", "142": "ol", "143": "om", "144": "on", "145": "op", "146": "or", "147": "os", "148": "ot", "149": "ov", "150": "pa", "151": "pe", "152": "pi", "153": "po", "154": "pu", "155": "p\u00e8", "156": "p\u00eb", "157": "p\u00ec", "158": "p\u00ef", "159": "p\u00f2", "160": "p\u00fc", "161": "ra", "162": "re", "163": "ri", "164": "ro", "165": "ru", "166": "r\u00e0", "167": "r\u00e8", "168": "r\u00eb", "169": "r\u00ef", "170": "r\u00f3", "171": "sa", "172": "se", "173": "si", "174": "so", "175": "su", "176": "s\u00e0", "177": "s\u00e9", "178": "s\u00eb", "179": "s\u00ef", "180": "s\u00f2", "181": "s\u00f9", "182": "s\u00fc", "183": "ta", "184": "te", "185": "ti", "186": "to", "187": "tu", "188": "t\u00e4", "189": "t\u00e8", "190": "t\u00eb", "191": "t\u00ec", "192": "t\u00ef", "193": "t\u00f2", "194": "t\u00fc", "195": "uc", "196": "ul", "197": "un", "198": "uo", "199": "ur", "200": "va", "201": "ve", "202": "vi", "203": "vo", "204": "vu", "205": "v\u00e4", "206": "v\u00e8", "207": "v\u00e9", "208": "v\u00eb", "209": "v\u00ef", "210": "v\u00f2", "211": "xi", "212": "za", "213": "ze", "214": "zi", "215": "zo", "216": "z\u00ef", "217": "\u00e8n", "218": "\u00e8v", "219": "\u00f2s", "220": "a a", "221": "a u", "222": "ahi", "223": "bab", "224": "bac", "225": "bai", "226": "bal", "227": "ban", "228": "bar", "229": "bas", "230": "bat", "231": "bea", "232": "bec", "233": "bef", "234": "bel", "235": "ben", "236": "ber", "237": "bet", "238": "bev", "239": "bia", "240": "bie", "241": "bil", "242": "bin", "243": "bio", "244": "bis", "245": "biz", "246": "bli", "247": "bl\u00ef", "248": "boc", "249": "bol", "250": "bom", "251": "bon", "252": "bor", "253": "bot", "254": "boz", "255": "bra", "256": "bre", "257": "bri", "258": "bro", "259": "bru", "260": "br\u00ef", "261": "buc", "262": "buf", "263": "bug", "264": "bui", "265": "bul", "266": "bun", "267": "buo", "268": "bur", "269": "but", "270": "cac", "271": "cad", "272": "caf", "273": "cag", "274": "cal", "275": "cam", "276": "can", "277": "cap", "278": "car", "279": "cas", "280": "cat", "281": "cau", "282": "cea", "283": "cef", "284": "cel", "285": "cem", "286": "cen", "287": "cep", "288": "cer", "289": "ces", "290": "cet", "291": "cez", "292": "che", "293": "chi", "294": "ch\u00ec", "295": "ch\u00ef", "296": "cia", "297": "cic", "298": "cie", "299": "cil", "300": "cin", "301": "cio", "302": "cir", "303": "cis", "304": "cit", "305": "ciu", "306": "cla", "307": "cle", "308": "cli", "309": "clo", "310": "clu", "311": "cl\u00ef", "312": "cob", "313": "coc", "314": "col", "315": "com", "316": "con", "317": "cop", "318": "cor", "319": "cos", "320": "cot", "321": "cov", "322": "coz", "323": "cra", "324": "cre", "325": "cri", "326": "cro", "327": "cru", "328": "cr\u00e0", "329": "cuc", "330": "cui", "331": "cul", "332": "cum", "333": "cun", "334": "cuo", "335": "cur", "336": "c\u00e9r", "337": "c\u00f3l", "338": "dal", "339": "dam", "340": "dan", "341": "dar", "342": "das", "343": "dat", "344": "dau", "345": "dea", "346": "deb", "347": "dec", "348": "deg", "349": "dei", "350": "del", "351": "dem", "352": "den", "353": "der", "354": "des", "355": "det", "356": "dez", "357": "dia", "358": "dic", "359": "die", "360": "dif", "361": "dil", "362": "dim", "363": "din", "364": "dio", "365": "dir", "366": "dis", "367": "dit", "368": "diz", "369": "dob", "370": "doc", "371": "dol", "372": "dom", "373": "don", "374": "dop", "375": "dor", "376": "dos", "377": "dot", "378": "dov", "379": "dra", "380": "dre", "381": "dri", "382": "dro", "383": "dru", "384": "dr\u00e4", "385": "dr\u00ef", "386": "dub", "387": "dug", "388": "dul", "389": "dun", "390": "duo", "391": "dur", "392": "dus", "393": "dut", "394": "e a", "395": "fab", "396": "fac", "397": "fal", "398": "fam", "399": "fan", "400": "far", "401": "fas", "402": "fat", "403": "fau", "404": "feb", "405": "feg", "406": "fel", "407": "fem", "408": "fen", "409": "fer", "410": "fes", "411": "fet", "412": "fia", "413": "fib", "414": "fic", "415": "fie", "416": "fig", "417": "fin", "418": "fio", "419": "fis", "420": "fit", "421": "fiu", "422": "fla", "423": "fle", "424": "flu", "425": "fog", "426": "fol", "427": "fom", "428": "fon", "429": "for", "430": "fos", "431": "fra", "432": "fre", "433": "fri", "434": "fro", "435": "fru", "436": "fuc", "437": "fug", "438": "ful", "439": "fum", "440": "fun", "441": "fuo", "442": "fur", "443": "f\u00e0c", "444": "f\u00e9l", "445": "gab", "446": "gad", "447": "gag", "448": "gal", "449": "gam", "450": "gan", "451": "gar", "452": "gas", "453": "gat", "454": "gau", "455": "gaz", "456": "gea", "457": "gel", "458": "gem", "459": "gen", "460": "geo", "461": "ger", "462": "ges", "463": "get", "464": "ghe", "465": "ghi", "466": "gia", "467": "gib", "468": "gie", "469": "gil", "470": "gim", "471": "gio", "472": "gir", "473": "gis", "474": "git", "475": "giu", "476": "giz", "477": "gli", "478": "glo", "479": "gna", "480": "gne", "481": "gni", "482": "gno", "483": "gnu", "484": "gob", "485": "goc", "486": "gol", "487": "gom", "488": "gon", "489": "gor", "490": "got", "491": "goz", "492": "gra", "493": "gre", "494": "gri", "495": "gru", "496": "gua", "497": "guc", "498": "gue", "499": "gui", "500": "guo", "501": "gur", "502": "guz", "503": "han", "504": "hon", "505": "ian", "506": "iar", "507": "iat", "508": "iep", "509": "ier", "510": "ior", "511": "jau", "512": "lab", "513": "lac", "514": "lai", "515": "lam", "516": "lan", "517": "lap", "518": "lar", "519": "las", "520": "lat", "521": "lau", "522": "lav", "523": "laz", "524": "lea", "525": "leb", "526": "lec", "527": "leg", "528": "lel", "529": "lem", "530": "len", "531": "lep", "532": "ler", "533": "les", "534": "let", "535": "lez", "536": "lia", "537": "lic", "538": "lie", "539": "lil", "540": "lim", "541": "lin", "542": "lip", "543": "lir", "544": "lis", "545": "lit", "546": "loc", "547": "lom", "548": "lon", "549": "lop", "550": "lor", "551": "lot", "552": "luc", "553": "lui", "554": "lul", "555": "lun", "556": "luo", "557": "lup", "558": "lur", "559": "lus", "560": "lut", "561": "luz", "562": "mac", "563": "mag", "564": "mai", "565": "mal", "566": "mam", "567": "man", "568": "mar", "569": "mas", "570": "mat", "571": "maz", "572": "meg", "573": "mel", "574": "mem", "575": "men", "576": "mer", "577": "mes", "578": "met", "579": "mez", "580": "mia", "581": "mic", "582": "mie", "583": "mil", "584": "min", "585": "mir", "586": "mol", "587": "mon", "588": "mor", "589": "mos", "590": "mot", "591": "moz", "592": "muc", "593": "muf", "594": "mug", "595": "mul", "596": "mun", "597": "muo", "598": "mur", "599": "m\u00e8c", "600": "m\u00e9z", "601": "nac", "602": "nag", "603": "nai", "604": "nal", "605": "nan", "606": "nar", "607": "nas", "608": "nat", "609": "neb", "610": "nec", "611": "nef", "612": "neg", "613": "nel", "614": "nem", "615": "nen", "616": "ner", "617": "nes", "618": "net", "619": "nev", "620": "nez", "621": "nia", "622": "nic", "623": "nie", "624": "nig", "625": "nil", "626": "nim", "627": "nin", "628": "nio", "629": "nir", "630": "nis", "631": "niz", "632": "nob", "633": "noc", "634": "nol", "635": "nom", "636": "non", "637": "nor", "638": "not", "639": "noz", "640": "nuc", "641": "nul", "642": "nun", "643": "nuo", "644": "nur", "645": "o a", "646": "o e", "647": "o u", "648": "pac", "649": "pai", "650": "pal", "651": "pan", "652": "pap", "653": "par", "654": "pas", "655": "pat", "656": "pau", "657": "paz", "658": "pec", "659": "peg", "660": "pel", "661": "pen", "662": "per", "663": "pes", "664": "pet", "665": "pia", "666": "pic", "667": "pie", "668": "pig", "669": "pil", "670": "pin", "671": "pio", "672": "pir", "673": "pis", "674": "pit", "675": "piu", "676": "piz", "677": "pi\u00e9", "678": "pla", "679": "ple", "680": "pli", "681": "plo", "682": "plu", "683": "pl\u00ec", "684": "poc", "685": "pog", "686": "pol", "687": "pom", "688": "pon", "689": "pop", "690": "por", "691": "pos", "692": "pot", "693": "poz", "694": "pra", "695": "pre", "696": "pri", "697": "pro", "698": "pru", "699": "pub", "700": "puc", "701": "pul", "702": "pun", "703": "puo", "704": "pur", "705": "put", "706": "puz", "707": "p\u00e0r", "708": "p\u00f2s", "709": "qua", "710": "que", "711": "qui", "712": "quo", "713": "qu\u00ef", "714": "rab", "715": "rac", "716": "raf", "717": "rag", "718": "ral", "719": "ram", "720": "ran", "721": "rap", "722": "rar", "723": "ras", "724": "rat", "725": "rav", "726": "raz", "727": "rea", "728": "reb", "729": "rec", "730": "red", "731": "reg", "732": "rel", "733": "rem", "734": "ren", "735": "res", "736": "ret", "737": "rez", "738": "ria", "739": "ric", "740": "rid", "741": "rie", "742": "rig", "743": "ril", "744": "rim", "745": "rin", "746": "rio", "747": "rir", "748": "ris", "749": "rit", "750": "riz", "751": "rob", "752": "roc", "753": "rof", "754": "rog", "755": "rol", "756": "rom", "757": "ron", "758": "ros", "759": "rot", "760": "roz", "761": "ruc", "762": "ruf", "763": "rug", "764": "run", "765": "ruo", "766": "rup", "767": "rut", "768": "r\u00e8g", "769": "sab", "770": "sac", "771": "saf", "772": "sag", "773": "sal", "774": "sam", "775": "san", "776": "sap", "777": "sar", "778": "sas", "779": "sat", "780": "sau", "781": "sba", "782": "sbi", "783": "sca", "784": "sce", "785": "sci", "786": "sco", "787": "scu", "788": "sc\u00ef", "789": "sde", "790": "sec", "791": "seg", "792": "sel", "793": "sem", "794": "sen", "795": "sep", "796": "ser", "797": "ses", "798": "set", "799": "sev", "800": "sez", "801": "sfa", "802": "sfe", "803": "sfo", "804": "sga", "805": "sgo", "806": "sia", "807": "sic", "808": "sie", "809": "sil", "810": "sin", "811": "sio", "812": "sis", "813": "sit", "814": "sla", "815": "sle", "816": "sma", "817": "sme", "818": "smi", "819": "smo", "820": "smu", "821": "sna", "822": "sno", "823": "sob", "824": "soc", "825": "sod", "826": "sof", "827": "sog", "828": "sol", "829": "som", "830": "son", "831": "sop", "832": "sor", "833": "sos", "834": "sot", "835": "sov", "836": "soz", "837": "spa", "838": "spe", "839": "spi", "840": "spo", "841": "spu", "842": "sp\u00ef", "843": "sra", "844": "sr\u00e4", "845": "sta", "846": "ste", "847": "sti", "848": "sto", "849": "stu", "850": "st\u00ef", "851": "sub", "852": "suc", "853": "sud", "854": "suf", "855": "sug", "856": "sum", "857": "sun", "858": "suo", "859": "sup", "860": "sur", "861": "sus", "862": "sve", "863": "svi", "864": "svo", "865": "sv\u00ef", "866": "tac", "867": "tad", "868": "tag", "869": "tal", "870": "tam", "871": "tan", "872": "tar", "873": "tas", "874": "tat", "875": "tau", "876": "tea", "877": "tec", "878": "teg", "879": "tel", "880": "tem", "881": "ten", "882": "ter", "883": "tes", "884": "tet", "885": "tez", "886": "tho", "887": "tic", "888": "tie", "889": "til", "890": "tim", "891": "tin", "892": "tir", "893": "tis", "894": "tle", "895": "toc", "896": "tol", "897": "tom", "898": "ton", "899": "top", "900": "tor", "901": "tos", "902": "tra", "903": "tre", "904": "tri", "905": "tro", "906": "tru", "907": "tr\u00ef", "908": "tuc", "909": "tuf", "910": "tun", "911": "tuo", "912": "tur", "913": "tut", "914": "t\u00f2m", "915": "t\u00f2r", "916": "vac", "917": "vag", "918": "val", "919": "vam", "920": "van", "921": "var", "922": "vas", "923": "vat", "924": "vec", "925": "veg", "926": "vel", "927": "vem", "928": "ven", "929": "ver", "930": "ves", "931": "vet", "932": "vez", "933": "vid", "934": "vie", "935": "vil", "936": "vin", "937": "vir", "938": "vis", "939": "vit", "940": "viz", "941": "voi", "942": "vol", "943": "vom", "944": "von", "945": "vor", "946": "vul", "947": "vuo", "948": "v\u00f2l", "949": "xil", "950": "zac", "951": "zaf", "952": "zan", "953": "zar", "954": "zel", "955": "zia", "956": "zio", "957": "zon", "958": "zuc", "959": "zuf", "960": "zur", "961": "\u2018be", "962": "\u2018la", "963": "\u2018ne", "964": "a ac", "965": "a al", "966": "a am", "967": "a ef", "968": "a es", "969": "a in", "970": "be a", "971": "be e", "972": "be i", "973": "be o", "974": "be u", "975": "bi a", "976": "biac", "977": "bian", "978": "bias", "979": "biet", "980": "bion", "981": "blan", "982": "bo a", "983": "bo e", "984": "bo i", "985": "brac", "986": "bran", "987": "bren", "988": "brez", "989": "brie", "990": "bris", "991": "broc", "992": "brol", "993": "bron", "994": "brot", "995": "brug", "996": "brul", "997": "brut", "998": "buon", "999": "ca a", "1000": "ca e", "1001": "ca o", "1002": "ca u", "1003": "ce a", "1004": "ce e", "1005": "ce o", "1006": "ce u", "1007": "cheg", "1008": "cher", "1009": "chet", "1010": "chez", "1011": "chia", "1012": "chie", "1013": "chil", "1014": "chio", "1015": "chis", "1016": "chiu", "1017": "ci a", "1018": "ci e", "1019": "ci o", "1020": "ci u", "1021": "ciac", "1022": "cian", "1023": "ciap", "1024": "ciar", "1025": "cias", "1026": "ciel", "1027": "cien", "1028": "cioc", "1029": "ciom", "1030": "cion", "1031": "ciot", "1032": "ciuf", "1033": "ciul", "1034": "ciuo", "1035": "clas", "1036": "clau", "1037": "clis", "1038": "clug", "1039": "co a", "1040": "co e", "1041": "co o", "1042": "co u", "1043": "cras", "1044": "crea", "1045": "creb", "1046": "cric", "1047": "crol", "1048": "cruc", "1049": "c\u2019 e", "1050": "c\u2019 o", "1051": "c\u2019 \u00ef", "1052": "da a", "1053": "da e", "1054": "da o", "1055": "da u", "1056": "de a", "1057": "de e", "1058": "de i", "1059": "de o", "1060": "de u", "1061": "dhae", "1062": "di a", "1063": "di e", "1064": "di i", "1065": "di o", "1066": "di u", "1067": "dian", "1068": "dien", "1069": "dier", "1070": "dies", "1071": "do a", "1072": "do e", "1073": "do i", "1074": "do o", "1075": "do u", "1076": "dram", "1077": "dran", "1078": "drap", "1079": "dras", "1080": "drit", "1081": "driz", "1082": "d\u2019 a", "1083": "d\u2019 e", "1084": "d\u2019 i", "1085": "d\u2019 o", "1086": "d\u2019 u", "1087": "d\u2019 \u00eb", "1088": "d\u2019 \u00ef", "1089": "e ar", "1090": "e in", "1091": "e \u2019n", "1092": "egyp", "1093": "fiac", "1094": "fiam", "1095": "fian", "1096": "fioc", "1097": "fior", "1098": "fiot", "1099": "fles", "1100": "flet", "1101": "flig", "1102": "flit", "1103": "fran", "1104": "frat", "1105": "fred", "1106": "fret", "1107": "fron", "1108": "frut", "1109": "ga e", "1110": "ga o", "1111": "ge a", "1112": "ge o", "1113": "gheg", "1114": "ghel", "1115": "gher", "1116": "ghes", "1117": "ghet", "1118": "ghez", "1119": "ghia", "1120": "ghie", "1121": "ghil", "1122": "ghio", "1123": "ghir", "1124": "gi e", "1125": "gi u", "1126": "giac", "1127": "gial", "1128": "giam", "1129": "gian", "1130": "giar", "1131": "gias", "1132": "gien", "1133": "gior", "1134": "giot", "1135": "giug", "1136": "giun", "1137": "giuo", "1138": "glau", "1139": "glet", "1140": "glia", "1141": "glie", "1142": "glio", "1143": "gnan", "1144": "gnar", "1145": "gnas", "1146": "gnaz", "1147": "gnel", "1148": "gnem", "1149": "gnen", "1150": "gner", "1151": "gnie", "1152": "gnon", "1153": "gnor", "1154": "gnuo", "1155": "go a", "1156": "go e", "1157": "graf", "1158": "gram", "1159": "gran", "1160": "grap", "1161": "gras", "1162": "grat", "1163": "greg", "1164": "grem", "1165": "grep", "1166": "gres", "1167": "grez", "1168": "grie", "1169": "grom", "1170": "gron", "1171": "grop", "1172": "gros", "1173": "grot", "1174": "guag", "1175": "gual", "1176": "guan", "1177": "guar", "1178": "guaz", "1179": "guef", "1180": "guel", "1181": "guen", "1182": "guer", "1183": "guet", "1184": "guic", "1185": "guil", "1186": "guir", "1187": "guit", "1188": "guiz", "1189": "g\u2019 \u00ef", "1190": "ie a", "1191": "la a", "1192": "la e", "1193": "la i", "1194": "la o", "1195": "la u", "1196": "le a", "1197": "le e", "1198": "le i", "1199": "le o", "1200": "le u", "1201": "li a", "1202": "li e", "1203": "li o", "1204": "li u", "1205": "li \u2019", "1206": "liev", "1207": "lo a", "1208": "lo e", "1209": "lo o", "1210": "lo u", "1211": "l\u00ec a", "1212": "l\u00ec e", "1213": "l\u2019 a", "1214": "l\u2019 e", "1215": "l\u2019 i", "1216": "l\u2019 o", "1217": "l\u2019 u", "1218": "l\u2019 \u00f2", "1219": "ma a", "1220": "ma e", "1221": "ma o", "1222": "ma u", "1223": "me a", "1224": "me e", "1225": "me i", "1226": "me o", "1227": "me u", "1228": "mi e", "1229": "mi o", "1230": "mi u", "1231": "mian", "1232": "mo a", "1233": "mo e", "1234": "mo i", "1235": "mo o", "1236": "mo u", "1237": "m\u2019 a", "1238": "m\u2019 e", "1239": "m\u2019 i", "1240": "m\u2019 o", "1241": "na a", "1242": "na e", "1243": "na i", "1244": "na o", "1245": "na u", "1246": "ne a", "1247": "ne e", "1248": "ne o", "1249": "ne u", "1250": "ni a", "1251": "ni e", "1252": "ni o", "1253": "ni u", "1254": "nian", "1255": "no a", "1256": "no e", "1257": "no i", "1258": "no o", "1259": "no u", "1260": "n\u2019 a", "1261": "n\u2019 e", "1262": "n\u2019 o", "1263": "n\u2019 u", "1264": "o al", "1265": "o ar", "1266": "o av", "1267": "pa e", "1268": "pa u", "1269": "pe e", "1270": "pe i", "1271": "pi a", "1272": "pi e", "1273": "pi i", "1274": "piac", "1275": "piag", "1276": "pian", "1277": "piat", "1278": "pien", "1279": "pier", "1280": "piez", "1281": "piog", "1282": "piom", "1283": "piov", "1284": "plan", "1285": "plau", "1286": "ples", "1287": "po a", "1288": "po e", "1289": "po o", "1290": "po u", "1291": "pran", "1292": "pren", "1293": "pres", "1294": "prez", "1295": "pric", "1296": "prie", "1297": "prin", "1298": "prir", "1299": "pris", "1300": "proc", "1301": "pron", "1302": "pros", "1303": "pruo", "1304": "puol", "1305": "puom", "1306": "puos", "1307": "p\u2019 e", "1308": "qual", "1309": "quan", "1310": "quar", "1311": "quat", "1312": "quel", "1313": "quen", "1314": "quer", "1315": "quil", "1316": "quin", "1317": "quis", "1318": "ra a", "1319": "ra e", "1320": "ra i", "1321": "ra o", "1322": "ra u", "1323": "re a", "1324": "re e", "1325": "re i", "1326": "re o", "1327": "re u", "1328": "ri e", "1329": "ri u", "1330": "ro a", "1331": "ro e", "1332": "ro i", "1333": "ro o", "1334": "ro u", "1335": "r\u00ec u", "1336": "r\u2019 o", "1337": "r\u2019 u", "1338": "sa a", "1339": "sa e", "1340": "sa o", "1341": "sa u", "1342": "sanc", "1343": "sban", "1344": "sbar", "1345": "sber", "1346": "sbra", "1347": "sbri", "1348": "scab", "1349": "scac", "1350": "scal", "1351": "scam", "1352": "scan", "1353": "scar", "1354": "scaz", "1355": "scel", "1356": "scem", "1357": "scen", "1358": "scer", "1359": "scet", "1360": "scev", "1361": "sche", "1362": "schi", "1363": "scia", "1364": "scic", "1365": "scie", "1366": "scim", "1367": "scin", "1368": "scio", "1369": "scir", "1370": "scis", "1371": "sciu", "1372": "scoc", "1373": "scol", "1374": "scom", "1375": "scon", "1376": "scop", "1377": "scor", "1378": "scos", "1379": "scot", "1380": "scov", "1381": "scre", "1382": "scri", "1383": "scro", "1384": "scuf", "1385": "scuo", "1386": "sdeg", "1387": "sden", "1388": "sdet", "1389": "sdru", "1390": "se a", "1391": "se e", "1392": "se i", "1393": "se o", "1394": "se u", "1395": "se \u00eb", "1396": "sfac", "1397": "sfam", "1398": "sfan", "1399": "sfar", "1400": "sfat", "1401": "sfer", "1402": "sfin", "1403": "sfio", "1404": "sfor", "1405": "sfre", "1406": "sgan", "1407": "sgom", "1408": "sgor", "1409": "sgra", "1410": "sgri", "1411": "si a", "1412": "si e", "1413": "si i", "1414": "si o", "1415": "si u", "1416": "slac", "1417": "smal", "1418": "sman", "1419": "smar", "1420": "smen", "1421": "smon", "1422": "smor", "1423": "smoz", "1424": "sneb", "1425": "snel", "1426": "so a", "1427": "so e", "1428": "so i", "1429": "so o", "1430": "so u", "1431": "spal", "1432": "span", "1433": "spar", "1434": "spaz", "1435": "spec", "1436": "spel", "1437": "spen", "1438": "sper", "1439": "spes", "1440": "spet", "1441": "spez", "1442": "spia", "1443": "spic", "1444": "spie", "1445": "spin", "1446": "spir", "1447": "spit", "1448": "spol", "1449": "spon", "1450": "spor", "1451": "spre", "1452": "spro", "1453": "spun", "1454": "spuo", "1455": "squa", "1456": "squi", "1457": "stal", "1458": "stam", "1459": "stan", "1460": "star", "1461": "stas", "1462": "stav", "1463": "stec", "1464": "stel", "1465": "stem", "1466": "sten", "1467": "ster", "1468": "stes", "1469": "stet", "1470": "stia", "1471": "stie", "1472": "stig", "1473": "stil", "1474": "stin", "1475": "stio", "1476": "stis", "1477": "stiz", "1478": "stol", "1479": "stop", "1480": "stor", "1481": "stra", "1482": "stre", "1483": "stri", "1484": "stro", "1485": "stru", "1486": "str\u00e0", "1487": "stuc", "1488": "stul", "1489": "stuo", "1490": "svel", "1491": "sven", "1492": "sver", "1493": "s\u00ec a", "1494": "s\u00ec i", "1495": "s\u2019 a", "1496": "s\u2019 e", "1497": "s\u2019 i", "1498": "s\u2019 o", "1499": "s\u2019 u", "1500": "s\u2019 \u00ef", "1501": "ta a", "1502": "ta e", "1503": "ta i", "1504": "ta o", "1505": "ta u", "1506": "te a", "1507": "te e", "1508": "te i", "1509": "te o", "1510": "te u", "1511": "ti a", "1512": "ti e", "1513": "ti i", "1514": "ti o", "1515": "ti u", "1516": "tiem", "1517": "tien", "1518": "tier", "1519": "to a", "1520": "to e", "1521": "to i", "1522": "to o", "1523": "to u", "1524": "trac", "1525": "trag", "1526": "trai", "1527": "tram", "1528": "tran", "1529": "trap", "1530": "trar", "1531": "tras", "1532": "trat", "1533": "treb", "1534": "trec", "1535": "tren", "1536": "tret", "1537": "trie", "1538": "troc", "1539": "trom", "1540": "tron", "1541": "trop", "1542": "tror", "1543": "trot", "1544": "trul", "1545": "truo", "1546": "t\u2019 a", "1547": "t\u2019 e", "1548": "t\u2019 o", "1549": "t\u2019 u", "1550": "va a", "1551": "va e", "1552": "va i", "1553": "va o", "1554": "va u", "1555": "ve a", "1556": "ve i", "1557": "ve u", "1558": "vi a", "1559": "vi e", "1560": "vi o", "1561": "viem", "1562": "vien", "1563": "vo o", "1564": "vuol", "1565": "v\u2019 a", "1566": "v\u2019 e", "1567": "v\u2019 o", "1568": "za a", "1569": "za i", "1570": "za o", "1571": "za u", "1572": "ze e", "1573": "ze o", "1574": "zi e", "1575": "zi o", "1576": "zi u", "1577": "zian", "1578": "ziar", "1579": "zo a", "1580": "zo e", "1581": "z\u2019 a", "1582": "z\u2019 i", "1583": "z\u2019 o", "1584": "\u00e8 im", "1585": "\u00e8 in", "1586": "\u2018glo", "1587": "\u2019vun", "1588": "ba in", "1589": "ba un", "1590": "be al", "1591": "be ar", "1592": "be as", "1593": "be av", "1594": "be on", "1595": "bi al", "1596": "bo al", "1597": "bo av", "1598": "bo on", "1599": "bra a", "1600": "bra e", "1601": "bra u", "1602": "bre a", "1603": "bre o", "1604": "b\u2019 es", "1605": "ca an", "1606": "ca en", "1607": "ca er", "1608": "ca in", "1609": "ca on", "1610": "ce ac", "1611": "ce af", "1612": "ce al", "1613": "ce an", "1614": "ce ar", "1615": "ce as", "1616": "ce at", "1617": "ce au", "1618": "ce av", "1619": "ce es", "1620": "ce et", "1621": "ce eu", "1622": "ce im", "1623": "ce in", "1624": "ce on", "1625": "cea u", "1626": "che a", "1627": "che e", "1628": "che u", "1629": "chi a", "1630": "chi e", "1631": "chi o", "1632": "chi u", "1633": "chian", "1634": "chiap", "1635": "chiar", "1636": "chias", "1637": "chiet", "1638": "chioc", "1639": "ch\u2019 a", "1640": "ch\u2019 e", "1641": "ch\u2019 i", "1642": "ch\u2019 o", "1643": "ch\u2019 u", "1644": "ch\u2019 \u00ef", "1645": "ci ad", "1646": "ci af", "1647": "ci al", "1648": "ci am", "1649": "ci an", "1650": "ci ap", "1651": "ci ar", "1652": "ci as", "1653": "ci at", "1654": "ci av", "1655": "ci in", "1656": "ci or", "1657": "ci \u2019n", "1658": "cia a", "1659": "cia e", "1660": "cia o", "1661": "cio a", "1662": "cio e", "1663": "co ac", "1664": "co ad", "1665": "co al", "1666": "co an", "1667": "co ap", "1668": "co ar", "1669": "co at", "1670": "co av", "1671": "co eb", "1672": "co er", "1673": "co et", "1674": "co in", "1675": "co on", "1676": "cro a", "1677": "c\u2019 en", "1678": "c\u2019 im", "1679": "da an", "1680": "da in", "1681": "de ac", "1682": "de af", "1683": "de ag", "1684": "de al", "1685": "de am", "1686": "de an", "1687": "de ap", "1688": "de ar", "1689": "de as", "1690": "de au", "1691": "de er", "1692": "de eu", "1693": "de in", "1694": "de of", "1695": "de om", "1696": "de on", "1697": "de or", "1698": "de \u2019n", "1699": "dea u", "1700": "di ab", "1701": "di ac", "1702": "di ad", "1703": "di af", "1704": "di al", "1705": "di an", "1706": "di av", "1707": "di az", "1708": "di es", "1709": "di im", "1710": "di in", "1711": "di of", "1712": "di og", "1713": "di ol", "1714": "di om", "1715": "di on", "1716": "di or", "1717": "dio i", "1718": "do ac", "1719": "do af", "1720": "do al", "1721": "do am", "1722": "do an", "1723": "do ap", "1724": "do ar", "1725": "do as", "1726": "do at", "1727": "do eb", "1728": "do ec", "1729": "do el", "1730": "do er", "1731": "do es", "1732": "do im", "1733": "do in", "1734": "do oc", "1735": "do ol", "1736": "do on", "1737": "do or", "1738": "dre e", "1739": "d\u2019 ab", "1740": "d\u2019 ac", "1741": "d\u2019 af", "1742": "d\u2019 al", "1743": "d\u2019 am", "1744": "d\u2019 an", "1745": "d\u2019 ap", "1746": "d\u2019 ar", "1747": "d\u2019 as", "1748": "d\u2019 at", "1749": "d\u2019 au", "1750": "d\u2019 az", "1751": "d\u2019 eb", "1752": "d\u2019 el", "1753": "d\u2019 en", "1754": "d\u2019 er", "1755": "d\u2019 es", "1756": "d\u2019 et", "1757": "d\u2019 eu", "1758": "d\u2019 im", "1759": "d\u2019 in", "1760": "d\u2019 oc", "1761": "d\u2019 of", "1762": "d\u2019 og", "1763": "d\u2019 ol", "1764": "d\u2019 om", "1765": "d\u2019 on", "1766": "d\u2019 or", "1767": "d\u2019 os", "1768": "d\u2019 ot", "1769": "d\u2019 ur", "1770": "fa az", "1771": "fe et", "1772": "fo et", "1773": "fo im", "1774": "fu ap", "1775": "fu el", "1776": "fu im", "1777": "fu in", "1778": "f\u00e9 in", "1779": "ga an", "1780": "ga as", "1781": "ga in", "1782": "ge an", "1783": "ge et", "1784": "ge in", "1785": "ge un", "1786": "ghiac", "1787": "ghian", "1788": "ghien", "1789": "ghiot", "1790": "gi an", "1791": "gi ar", "1792": "gia e", "1793": "gia o", "1794": "gli u", "1795": "gliam", "1796": "glian", "1797": "gliar", "1798": "gliel", "1799": "glien", "1800": "glies", "1801": "gliet", "1802": "gliuo", "1803": "gna a", "1804": "gne a", "1805": "gne o", "1806": "gne u", "1807": "gni e", "1808": "gno a", "1809": "gno u", "1810": "go al", "1811": "go es", "1812": "go in", "1813": "ha \u2019n", "1814": "hi om", "1815": "ia al", "1816": "ia an", "1817": "la al", "1818": "la an", "1819": "la ap", "1820": "la au", "1821": "la av", "1822": "la el", "1823": "la en", "1824": "la es", "1825": "la in", "1826": "la of", "1827": "la ol", "1828": "la on", "1829": "la or", "1830": "la \u2019m", "1831": "la \u2019n", "1832": "le ad", "1833": "le al", "1834": "le am", "1835": "le an", "1836": "le ap", "1837": "le ar", "1838": "le as", "1839": "le at", "1840": "le av", "1841": "le es", "1842": "le id", "1843": "le in", "1844": "le oc", "1845": "le of", "1846": "le ol", "1847": "le on", "1848": "le or", "1849": "le uc", "1850": "le \u2019m", "1851": "le \u2019n", "1852": "li ab", "1853": "li ac", "1854": "li ad", "1855": "li af", "1856": "li ag", "1857": "li al", "1858": "li am", "1859": "li an", "1860": "li ap", "1861": "li ar", "1862": "li as", "1863": "li at", "1864": "li au", "1865": "li av", "1866": "li eb", "1867": "li em", "1868": "li er", "1869": "li es", "1870": "li et", "1871": "li im", "1872": "li in", "1873": "li oc", "1874": "li of", "1875": "li om", "1876": "li on", "1877": "li or", "1878": "li uc", "1879": "li ul", "1880": "li un", "1881": "li uo", "1882": "li \u2019m", "1883": "li \u2019n", "1884": "lia a", "1885": "lo ac", "1886": "lo af", "1887": "lo al", "1888": "lo an", "1889": "lo ar", "1890": "lo as", "1891": "lo at", "1892": "lo av", "1893": "lo eb", "1894": "lo ef", "1895": "lo er", "1896": "lo es", "1897": "lo il", "1898": "lo im", "1899": "lo in", "1900": "lo of", "1901": "lo on", "1902": "lo \u2019m", "1903": "lo \u2019n", "1904": "l\u00ec en", "1905": "l\u2019 ab", "1906": "l\u2019 ac", "1907": "l\u2019 ad", "1908": "l\u2019 ae", "1909": "l\u2019 af", "1910": "l\u2019 ag", "1911": "l\u2019 ai", "1912": "l\u2019 al", "1913": "l\u2019 am", "1914": "l\u2019 an", "1915": "l\u2019 ap", "1916": "l\u2019 ar", "1917": "l\u2019 as", "1918": "l\u2019 at", "1919": "l\u2019 au", "1920": "l\u2019 av", "1921": "l\u2019 eb", "1922": "l\u2019 ec", "1923": "l\u2019 ef", "1924": "l\u2019 el", "1925": "l\u2019 em", "1926": "l\u2019 en", "1927": "l\u2019 er", "1928": "l\u2019 es", "1929": "l\u2019 et", "1930": "l\u2019 im", "1931": "l\u2019 in", "1932": "l\u2019 oc", "1933": "l\u2019 of", "1934": "l\u2019 ol", "1935": "l\u2019 om", "1936": "l\u2019 on", "1937": "l\u2019 op", "1938": "l\u2019 or", "1939": "l\u2019 os", "1940": "l\u2019 ot", "1941": "l\u2019 ov", "1942": "l\u2019 uc", "1943": "l\u2019 ul", "1944": "l\u2019 um", "1945": "l\u2019 un", "1946": "l\u2019 uo", "1947": "l\u2019 \u00e0n", "1948": "ma ac", "1949": "ma al", "1950": "ma an", "1951": "ma ap", "1952": "ma es", "1953": "ma in", "1954": "ma of", "1955": "ma on", "1956": "ma or", "1957": "ma \u2019n", "1958": "me ac", "1959": "me af", "1960": "me al", "1961": "me am", "1962": "me an", "1963": "me ap", "1964": "me ar", "1965": "me as", "1966": "me at", "1967": "me au", "1968": "me ef", "1969": "me in", "1970": "me of", "1971": "me on", "1972": "mi ac", "1973": "mi ad", "1974": "mi al", "1975": "mi am", "1976": "mi an", "1977": "mi ap", "1978": "mi ef", "1979": "mi er", "1980": "mi in", "1981": "mi \u2019n", "1982": "mo ac", "1983": "mo af", "1984": "mo al", "1985": "mo an", "1986": "mo ar", "1987": "mo at", "1988": "mo eb", "1989": "mo ec", "1990": "mo es", "1991": "mo im", "1992": "mo in", "1993": "mo of", "1994": "mo ol", "1995": "mo on", "1996": "mo or", "1997": "m\u2019 ab", "1998": "m\u2019 ac", "1999": "m\u2019 ad", "2000": "m\u2019 af", "2001": "m\u2019 ag", "2002": "m\u2019 al", "2003": "m\u2019 an", "2004": "m\u2019 ap", "2005": "m\u2019 ar", "2006": "m\u2019 as", "2007": "m\u2019 at", "2008": "m\u2019 av", "2009": "m\u2019 eb", "2010": "m\u2019 es", "2011": "m\u2019 im", "2012": "m\u2019 in", "2013": "m\u2019 of", "2014": "m\u2019 ol", "2015": "m\u2019 om", "2016": "na ab", "2017": "na ac", "2018": "na af", "2019": "na ap", "2020": "na ar", "2021": "na at", "2022": "na av", "2023": "na eb", "2024": "na es", "2025": "na in", "2026": "na of", "2027": "na on", "2028": "na or", "2029": "na \u2019n", "2030": "ne ac", "2031": "ne af", "2032": "ne ag", "2033": "ne al", "2034": "ne an", "2035": "ne ap", "2036": "ne ar", "2037": "ne as", "2038": "ne av", "2039": "ne em", "2040": "ne es", "2041": "ne et", "2042": "ne im", "2043": "ne in", "2044": "ne on", "2045": "ne ov", "2046": "ne \u2019m", "2047": "ne \u2019n", "2048": "ni al", "2049": "ni am", "2050": "ni an", "2051": "ni ap", "2052": "ni as", "2053": "ni av", "2054": "ni en", "2055": "ni es", "2056": "ni in", "2057": "ni on", "2058": "no ab", "2059": "no ac", "2060": "no ad", "2061": "no af", "2062": "no ag", "2063": "no al", "2064": "no am", "2065": "no an", "2066": "no ap", "2067": "no ar", "2068": "no as", "2069": "no at", "2070": "no au", "2071": "no av", "2072": "no ec", "2073": "no er", "2074": "no es", "2075": "no et", "2076": "no im", "2077": "no in", "2078": "no om", "2079": "no or", "2080": "no \u2019n", "2081": "n\u2019 ab", "2082": "n\u2019 ac", "2083": "n\u2019 ag", "2084": "n\u2019 al", "2085": "n\u2019 am", "2086": "n\u2019 an", "2087": "n\u2019 ap", "2088": "n\u2019 ar", "2089": "n\u2019 at", "2090": "n\u2019 au", "2091": "n\u2019 av", "2092": "n\u2019 eb", "2093": "n\u2019 er", "2094": "n\u2019 in", "2095": "n\u2019 ol", "2096": "n\u2019 om", "2097": "n\u2019 on", "2098": "n\u2019 uo", "2099": "pa es", "2100": "pa in", "2101": "pi ap", "2102": "pi in", "2103": "pi or", "2104": "pie e", "2105": "pi\u00f9 a", "2106": "po al", "2107": "po an", "2108": "po ar", "2109": "po av", "2110": "po in", "2111": "po on", "2112": "pra a", "2113": "pre a", "2114": "pre e", "2115": "pr\u2019 e", "2116": "qua e", "2117": "que o", "2118": "que u", "2119": "qu\u2019 e", "2120": "qu\u2019 o", "2121": "ra ab", "2122": "ra ac", "2123": "ra ad", "2124": "ra al", "2125": "ra am", "2126": "ra an", "2127": "ra ap", "2128": "ra as", "2129": "ra at", "2130": "ra av", "2131": "ra eb", "2132": "ra ec", "2133": "ra el", "2134": "ra es", "2135": "ra et", "2136": "ra im", "2137": "ra in", "2138": "ra of", "2139": "ra on", "2140": "ra ot", "2141": "ra uc", "2142": "re ab", "2143": "re ac", "2144": "re ad", "2145": "re af", "2146": "re ag", "2147": "re al", "2148": "re am", "2149": "re an", "2150": "re ap", "2151": "re ar", "2152": "re as", "2153": "re at", "2154": "re au", "2155": "re av", "2156": "re eb", "2157": "re em", "2158": "re en", "2159": "re es", "2160": "re et", "2161": "re il", "2162": "re im", "2163": "re in", "2164": "re oc", "2165": "re ol", "2166": "re om", "2167": "re on", "2168": "re ot", "2169": "ri ac", "2170": "ri al", "2171": "ri an", "2172": "ri ap", "2173": "ri ar", "2174": "ri in", "2175": "ri on", "2176": "rio a", "2177": "ro ab", "2178": "ro ac", "2179": "ro al", "2180": "ro am", "2181": "ro an", "2182": "ro ap", "2183": "ro ar", "2184": "ro as", "2185": "ro at", "2186": "ro au", "2187": "ro av", "2188": "ro eb", "2189": "ro es", "2190": "ro im", "2191": "ro in", "2192": "ro oc", "2193": "ro of", "2194": "ro on", "2195": "ro or", "2196": "ro um", "2197": "r\u2019 al", "2198": "r\u2019 an", "2199": "r\u2019 el", "2200": "r\u2019 es", "2201": "sa ac", "2202": "sa an", "2203": "sa ap", "2204": "sa es", "2205": "sa im", "2206": "sa in", "2207": "sa og", "2208": "sa ol", "2209": "sa on", "2210": "sbe a", "2211": "sce a", "2212": "scheg", "2213": "schem", "2214": "scher", "2215": "schet", "2216": "schia", "2217": "schic", "2218": "schie", "2219": "schio", "2220": "schiu", "2221": "scial", "2222": "sciam", "2223": "scian", "2224": "sciar", "2225": "scias", "2226": "sciau", "2227": "scioc", "2228": "sciol", "2229": "sciom", "2230": "sciut", "2231": "sci\u00e0n", "2232": "sco o", "2233": "sco u", "2234": "scran", "2235": "scrip", "2236": "scris", "2237": "scrit", "2238": "se ac", "2239": "se af", "2240": "se al", "2241": "se an", "2242": "se ap", "2243": "se as", "2244": "se at", "2245": "se ec", "2246": "se es", "2247": "se in", "2248": "se on", "2249": "se op", "2250": "se un", "2251": "se \u2019n", "2252": "sfran", "2253": "sgher", "2254": "sgiun", "2255": "sgrie", "2256": "sguar", "2257": "si ac", "2258": "si ad", "2259": "si al", "2260": "si am", "2261": "si an", "2262": "si ar", "2263": "si as", "2264": "si at", "2265": "si av", "2266": "si el", "2267": "si en", "2268": "si er", "2269": "si im", "2270": "si in", "2271": "si of", "2272": "si og", "2273": "si ol", "2274": "si or", "2275": "si \u2019m", "2276": "si \u2019n", "2277": "smo a", "2278": "so ab", "2279": "so ad", "2280": "so al", "2281": "so am", "2282": "so an", "2283": "so ap", "2284": "so ar", "2285": "so as", "2286": "so at", "2287": "so eb", "2288": "so en", "2289": "so es", "2290": "so et", "2291": "so in", "2292": "so of", "2293": "so on", "2294": "so \u2019n", "2295": "spiac", "2296": "splen", "2297": "spran", "2298": "spraz", "2299": "spres", "2300": "squar", "2301": "squil", "2302": "sta a", "2303": "sta e", "2304": "sta i", "2305": "sta o", "2306": "sta u", "2307": "ste a", "2308": "ste i", "2309": "sti a", "2310": "sti o", "2311": "sto a", "2312": "sto e", "2313": "sto o", "2314": "strac", "2315": "stram", "2316": "stran", "2317": "strar", "2318": "stras", "2319": "strat", "2320": "streg", "2321": "strel", "2322": "stren", "2323": "stret", "2324": "stric", "2325": "strin", "2326": "stroc", "2327": "strom", "2328": "stroz", "2329": "strug", "2330": "strut", "2331": "st\u2019 a", "2332": "st\u2019 o", "2333": "st\u2019 u", "2334": "suo a", "2335": "s\u00ec in", "2336": "s\u00ec \u2019m", "2337": "s\u00ec \u2019n", "2338": "s\u2019 ab", "2339": "s\u2019 ac", "2340": "s\u2019 ad", "2341": "s\u2019 af", "2342": "s\u2019 ag", "2343": "s\u2019 al", "2344": "s\u2019 am", "2345": "s\u2019 an", "2346": "s\u2019 ap", "2347": "s\u2019 ar", "2348": "s\u2019 as", "2349": "s\u2019 at", "2350": "s\u2019 av", "2351": "s\u2019 eb", "2352": "s\u2019 el", "2353": "s\u2019 em", "2354": "s\u2019 en", "2355": "s\u2019 er", "2356": "s\u2019 es", "2357": "s\u2019 et", "2358": "s\u2019 im", "2359": "s\u2019 in", "2360": "s\u2019 of", "2361": "s\u2019 op", "2362": "s\u2019 os", "2363": "ta ab", "2364": "ta ac", "2365": "ta ad", "2366": "ta al", "2367": "ta am", "2368": "ta an", "2369": "ta ar", "2370": "ta as", "2371": "ta at", "2372": "ta el", "2373": "ta es", "2374": "ta et", "2375": "ta eu", "2376": "ta im", "2377": "ta in", "2378": "ta of", "2379": "ta om", "2380": "ta on", "2381": "ta op", "2382": "ta un", "2383": "te ab", "2384": "te ac", "2385": "te ad", "2386": "te af", "2387": "te ag", "2388": "te al", "2389": "te an", "2390": "te ap", "2391": "te ar", "2392": "te as", "2393": "te at", "2394": "te au", "2395": "te em", "2396": "te en", "2397": "te er", "2398": "te es", "2399": "te im", "2400": "te in", "2401": "te is", "2402": "te of", "2403": "te ol", "2404": "te om", "2405": "te on", "2406": "te or", "2407": "te os", "2408": "te \u2019n", "2409": "ti ac", "2410": "ti ad", "2411": "ti al", "2412": "ti am", "2413": "ti an", "2414": "ti ar", "2415": "ti as", "2416": "ti at", "2417": "ti av", "2418": "ti en", "2419": "ti et", "2420": "ti im", "2421": "ti in", "2422": "ti oc", "2423": "ti of", "2424": "ti or", "2425": "ti \u2019m", "2426": "ti \u2019n", "2427": "to ab", "2428": "to ac", "2429": "to ad", "2430": "to af", "2431": "to ag", "2432": "to al", "2433": "to an", "2434": "to ap", "2435": "to ar", "2436": "to as", "2437": "to at", "2438": "to av", "2439": "to eb", "2440": "to ec", "2441": "to ef", "2442": "to es", "2443": "to et", "2444": "to im", "2445": "to in", "2446": "to oc", "2447": "to of", "2448": "to ol", "2449": "to on", "2450": "to or", "2451": "to ov", "2452": "to uc", "2453": "tra a", "2454": "tra e", "2455": "tra i", "2456": "tra u", "2457": "tri a", "2458": "tri e", "2459": "tri o", "2460": "tro a", "2461": "tro e", "2462": "tro i", "2463": "tro o", "2464": "tro u", "2465": "tr\u2019 a", "2466": "tr\u2019 e", "2467": "tu ha", "2468": "t\u00e0 in", "2469": "t\u2019 ab", "2470": "t\u2019 ac", "2471": "t\u2019 af", "2472": "t\u2019 ag", "2473": "t\u2019 al", "2474": "t\u2019 am", "2475": "t\u2019 an", "2476": "t\u2019 ap", "2477": "t\u2019 ar", "2478": "t\u2019 as", "2479": "t\u2019 at", "2480": "t\u2019 av", "2481": "t\u2019 el", "2482": "t\u2019 em", "2483": "t\u2019 es", "2484": "t\u2019 im", "2485": "t\u2019 in", "2486": "t\u2019 om", "2487": "t\u2019 or", "2488": "va al", "2489": "va an", "2490": "va ar", "2491": "va at", "2492": "va eb", "2493": "va id", "2494": "va im", "2495": "va in", "2496": "va \u2019n", "2497": "ve al", "2498": "ve an", "2499": "ve ap", "2500": "ve ar", "2501": "ve at", "2502": "ve es", "2503": "ve oc", "2504": "vi ac", "2505": "vi al", "2506": "vi am", "2507": "vi an", "2508": "vi ar", "2509": "vi as", "2510": "vi av", "2511": "vi en", "2512": "vi in", "2513": "vi of", "2514": "vi on", "2515": "vi \u2019m", "2516": "vo ac", "2517": "vo al", "2518": "vo an", "2519": "vo as", "2520": "vo at", "2521": "vo au", "2522": "v\u2019 ab", "2523": "v\u2019 ac", "2524": "v\u2019 al", "2525": "v\u2019 am", "2526": "v\u2019 an", "2527": "v\u2019 ap", "2528": "v\u2019 ar", "2529": "v\u2019 eb", "2530": "v\u2019 el", "2531": "v\u2019 er", "2532": "v\u2019 es", "2533": "v\u2019 et", "2534": "v\u2019 in", "2535": "v\u2019 of", "2536": "za al", "2537": "za am", "2538": "za an", "2539": "za er", "2540": "za et", "2541": "za im", "2542": "za in", "2543": "za on", "2544": "za \u2019n", "2545": "ze es", "2546": "ze et", "2547": "ze or", "2548": "zi ag", "2549": "zi al", "2550": "zi ap", "2551": "zi as", "2552": "zi at", "2553": "zi \u2019m", "2554": "zia e", "2555": "zia o", "2556": "zie o", "2557": "zio a", "2558": "zio e", "2559": "zio u", "2560": "zo an", "2561": "zo ar", "2562": "zo as", "2563": "zo in", "2564": "z\u2019 al", "2565": "z\u2019 ar", "2566": "z\u2019 es", "2567": "\u2019ve o", "2568": "\u2019v\u2019 e", "2569": "\u2019v\u2019 u", "2570": "bia an", "2571": "bia in", "2572": "bra av", "2573": "bra in", "2574": "bre an", "2575": "bre et", "2576": "bre in", "2577": "bri ap", "2578": "che an", "2579": "che ar", "2580": "che ha", "2581": "che in", "2582": "che om", "2583": "che op", "2584": "che \u2019m", "2585": "che \u2019n", "2586": "chi ac", "2587": "chi af", "2588": "chi al", "2589": "chi am", "2590": "chi an", "2591": "chi ap", "2592": "chi ar", "2593": "chi in", "2594": "chi on", "2595": "chio a", "2596": "chio o", "2597": "chio u", "2598": "ch\u00e9 ap", "2599": "ch\u00e9 as", "2600": "ch\u00e9 in", "2601": "ch\u2019 ab", "2602": "ch\u2019 ac", "2603": "ch\u2019 ad", "2604": "ch\u2019 ag", "2605": "ch\u2019 al", "2606": "ch\u2019 am", "2607": "ch\u2019 an", "2608": "ch\u2019 ap", "2609": "ch\u2019 ar", "2610": "ch\u2019 as", "2611": "ch\u2019 at", "2612": "ch\u2019 av", "2613": "ch\u2019 eb", "2614": "ch\u2019 el", "2615": "ch\u2019 en", "2616": "ch\u2019 er", "2617": "ch\u2019 es", "2618": "ch\u2019 et", "2619": "ch\u2019 in", "2620": "ch\u2019 og", "2621": "ch\u2019 or", "2622": "cia ar", "2623": "cia im", "2624": "cia on", "2625": "cie in", "2626": "cio al", "2627": "cio an", "2628": "cio ap", "2629": "cio as", "2630": "cio et", "2631": "co e i", "2632": "c\u2019 han", "2633": "dia as", "2634": "dre al", "2635": "dre an", "2636": "dre as", "2637": "dre eb", "2638": "dre es", "2639": "d\u2019 han", "2640": "ghe on", "2641": "gh\u2019 es", "2642": "gia al", "2643": "gia ar", "2644": "gia in", "2645": "gio et", "2646": "gio in", "2647": "gio ol", "2648": "gio on", "2649": "gio uc", "2650": "gi\u00e0 in", "2651": "glia a", "2652": "glia o", "2653": "glia u", "2654": "glio e", "2655": "glio o", "2656": "glio u", "2657": "gna as", "2658": "gna in", "2659": "gne ac", "2660": "gne al", "2661": "gne ef", "2662": "gne er", "2663": "gne im", "2664": "gne in", "2665": "gne uo", "2666": "gni al", "2667": "gni an", "2668": "gno ae", "2669": "gno af", "2670": "gno al", "2671": "gno am", "2672": "gno in", "2673": "go han", "2674": "gue an", "2675": "gue on", "2676": "gue or", "2677": "li han", "2678": "lia an", "2679": "lio an", "2680": "lio as", "2681": "lio in", "2682": "l\u2019 han", "2683": "l\u2019 \u00e8 u", "2684": "mia in", "2685": "mia \u2019n", "2686": "mio in", "2687": "mio \u2019n", "2688": "m\u2019 han", "2689": "ne han", "2690": "nio im", "2691": "n\u2019 han", "2692": "pie or", "2693": "pio on", "2694": "pi\u00f9 ap", "2695": "pi\u00f9 in", "2696": "pi\u00f9 \u2019n", "2697": "pre ac", "2698": "pre al", "2699": "pre ar", "2700": "pre at", "2701": "pre es", "2702": "pre in", "2703": "pr\u2019 ar", "2704": "qua im", "2705": "qua in", "2706": "qua of", "2707": "qua on", "2708": "que al", "2709": "que es", "2710": "qu\u2019 an", "2711": "re e a", "2712": "ri han", "2713": "ria in", "2714": "ria of", "2715": "ria on", "2716": "rio an", "2717": "sce al", "2718": "sce an", "2719": "sce as", "2720": "sce el", "2721": "schian", "2722": "schiat", "2723": "schiet", "2724": "scia e", "2725": "scio e", "2726": "sco al", "2727": "sco an", "2728": "sio in", "2729": "sma in", "2730": "sta ai", "2731": "sta al", "2732": "sta an", "2733": "sta im", "2734": "sta in", "2735": "sta og", "2736": "sta ol", "2737": "ste an", "2738": "ste in", "2739": "sti al", "2740": "sti an", "2741": "sti av", "2742": "sti el", "2743": "sti er", "2744": "sti es", "2745": "sti in", "2746": "sti oc", "2747": "sti on", "2748": "sti or", "2749": "sti un", "2750": "sto ac", "2751": "sto al", "2752": "sto an", "2753": "sto ap", "2754": "sto ar", "2755": "sto at", "2756": "sto es", "2757": "sto im", "2758": "sto in", "2759": "sto of", "2760": "sto on", "2761": "sto \u2019m", "2762": "sto \u2019n", "2763": "stra a", "2764": "stra e", "2765": "stra i", "2766": "stra u", "2767": "stri a", "2768": "stri o", "2769": "stro a", "2770": "stro e", "2771": "stro o", "2772": "stro u", "2773": "str\u2019 u", "2774": "st\u2019 ac", "2775": "st\u2019 al", "2776": "st\u2019 an", "2777": "st\u2019 ar", "2778": "st\u2019 es", "2779": "st\u2019 in", "2780": "st\u2019 of", "2781": "st\u2019 ot", "2782": "st\u2019 ul", "2783": "suo im", "2784": "te han", "2785": "ti han", "2786": "tra an", "2787": "tra av", "2788": "tra ef", "2789": "tra op", "2790": "tra \u2019m", "2791": "tre an", "2792": "tre in", "2793": "tre os", "2794": "tri af", "2795": "tri ap", "2796": "tri as", "2797": "tri es", "2798": "tri in", "2799": "tri of", "2800": "tro ab", "2801": "tro ac", "2802": "tro al", "2803": "tro an", "2804": "tro ap", "2805": "tro ar", "2806": "tro as", "2807": "tro av", "2808": "tro et", "2809": "tro im", "2810": "tro in", "2811": "tro of", "2812": "tro on", "2813": "tro \u2019m", "2814": "tr\u2019 al", "2815": "tr\u2019 am", "2816": "tr\u2019 ar", "2817": "tr\u2019 om", "2818": "t\u2019 han", "2819": "vea \u2019m", "2820": "vi \u00e8 a", "2821": "vio in", "2822": "zia il", "2823": "zia on", "2824": "zia or", "2825": "zie ec", "2826": "chia an", "2827": "chia of", "2828": "chie et", "2829": "chio an", "2830": "chio at", "2831": "chio in", "2832": "dio han", "2833": "d\u2019 i\u2019 a", "2834": "glia ac", "2835": "glia al", "2836": "glia as", "2837": "glia es", "2838": "glia in", "2839": "glie al", "2840": "glie an", "2841": "glie eb", "2842": "glio an", "2843": "glio as", "2844": "glio es", "2845": "glio in", "2846": "glio on", "2847": "li \u00e8 in", "2848": "lo e \u2019n", "2849": "mi smar", "2850": "n\u2019 \u00e8 im", "2851": "re a \u2019n", "2852": "sche ab", "2853": "sche er", "2854": "scia al", "2855": "scia an", "2856": "si e \u2019n", "2857": "stra ap", "2858": "stra ef", "2859": "stra in", "2860": "stre in", "2861": "stri af", "2862": "stri al", "2863": "stri an", "2864": "stri at", "2865": "stri av", "2866": "stri ef", "2867": "stro ac", "2868": "stro al", "2869": "stro an", "2870": "stro as", "2871": "stro av", "2872": "stro eb", "2873": "stro es", "2874": "stro im", "2875": "stro in", "2876": "stro oc", "2877": "stro uc", "2878": "str\u2019 ar", "2879": "str\u2019 or", "2880": "ti e ar", "2881": "ti e \u2019n", "2882": "trio al", "2883": "za e in", "2884": "sti a \u2019n", "2885": "t\u2019 ho in", "2886": "ch\u2019 e\u2019 \u2019n", "2887": "ch\u2019 io \u2019n", "2888": "a ", "2889": "d ", "2890": "e ", "2891": "i ", "2892": "l ", "2893": "o ", "2894": "p ", "2895": "\u00e8 ", "2896": "\u00ec ", "2897": "\u00ef ", "2898": "\u00f2 ", "2899": "\u00f9 ", "2900": "ab ", "2901": "ad ", "2902": "ae ", "2903": "ai ", "2904": "al ", "2905": "am ", "2906": "an ", "2907": "ar ", "2908": "as ", "2909": "a\u2019 ", "2910": "ba ", "2911": "be ", "2912": "bi ", "2913": "bo ", "2914": "b\u00e8 ", "2915": "b\u00ec ", "2916": "b\u00f2 ", "2917": "b\u00f9 ", "2918": "ca ", "2919": "ce ", "2920": "ci ", "2921": "co ", "2922": "c\u00e8 ", "2923": "c\u00e9 ", "2924": "c\u00f2 ", "2925": "da ", "2926": "de ", "2927": "di ", "2928": "do ", "2929": "d\u00e0 ", "2930": "d\u00e9 ", "2931": "d\u00ec ", "2932": "d\u00f2 ", "2933": "ed ", "2934": "ei ", "2935": "el ", "2936": "et ", "2937": "e\u2019 ", "2938": "fa ", "2939": "fe ", "2940": "fi ", "2941": "fo ", "2942": "fu ", "2943": "f\u00e0 ", "2944": "f\u00e9 ", "2945": "f\u00f2 ", "2946": "ga ", "2947": "ge ", "2948": "gi ", "2949": "go ", "2950": "g\u00ec ", "2951": "g\u00f2 ", "2952": "ha ", "2953": "hi ", "2954": "ho ", "2955": "ia ", "2956": "ie ", "2957": "il ", "2958": "in ", "2959": "io ", "2960": "ir ", "2961": "i\u2019 ", "2962": "la ", "2963": "le ", "2964": "li ", "2965": "lo ", "2966": "l\u00e0 ", "2967": "l\u00e8 ", "2968": "l\u00ec ", "2969": "l\u00f2 ", "2970": "ma ", "2971": "me ", "2972": "mi ", "2973": "mo ", "2974": "m\u00e8 ", "2975": "m\u00f2 ", "2976": "na ", "2977": "ne ", "2978": "ni ", "2979": "no ", "2980": "n\u00e0 ", "2981": "n\u00e8 ", "2982": "n\u00e9 ", "2983": "n\u00ec ", "2984": "n\u00f2 ", "2985": "od ", "2986": "oh ", "2987": "om ", "2988": "on ", "2989": "or ", "2990": "os ", "2991": "pa ", "2992": "pe ", "2993": "pi ", "2994": "po ", "2995": "p\u00e8 ", "2996": "p\u00f2 ", "2997": "ra ", "2998": "re ", "2999": "ri ", "3000": "ro ", "3001": "r\u00e0 ", "3002": "r\u00ec ", "3003": "r\u00f2 ", "3004": "sa ", "3005": "se ", "3006": "si ", "3007": "so ", "3008": "su ", "3009": "s\u00e8 ", "3010": "s\u00e9 ", "3011": "s\u00ec ", "3012": "s\u00f2 ", "3013": "s\u00f9 ", "3014": "ta ", "3015": "te ", "3016": "ti ", "3017": "to ", "3018": "tu ", "3019": "t\u00e0 ", "3020": "t\u00e8 ", "3021": "t\u00e9 ", "3022": "t\u00ec ", "3023": "t\u00f2 ", "3024": "t\u00f9 ", "3025": "um ", "3026": "un ", "3027": "us ", "3028": "u\u2019 ", "3029": "va ", "3030": "ve ", "3031": "vi ", "3032": "vo ", "3033": "v\u00ec ", "3034": "v\u00f2 ", "3035": "za ", "3036": "ze ", "3037": "zi ", "3038": "zo ", "3039": "z\u00f2 ", "3040": "\u00e0m ", "3041": "\u00e0r ", "3042": "\u00e0s ", "3043": "\u00e8e ", "3044": "\u00e8l ", "3045": "\u00e9n ", "3046": "\u00ecs ", "3047": "\u00f2n ", "3048": "\u00f2s ", "3049": "\u00f3n ", "3050": "\u00f9l ", "3051": "a a ", "3052": "a e ", "3053": "a i ", "3054": "ahi ", "3055": "ban ", "3056": "bar ", "3057": "bee ", "3058": "bei ", "3059": "bel ", "3060": "ben ", "3061": "beo ", "3062": "ber ", "3063": "bia ", "3064": "bil ", "3065": "bin ", "3066": "bio ", "3067": "bir ", "3068": "bis ", "3069": "bi\u00f2 ", "3070": "bol ", "3071": "bon ", "3072": "bor ", "3073": "bra ", "3074": "bre ", "3075": "bri ", "3076": "bro ", "3077": "bue ", "3078": "bui ", "3079": "bus ", "3080": "b\u00e0l ", "3081": "b\u00e8l ", "3082": "b\u00eca ", "3083": "cai ", "3084": "cal ", "3085": "can ", "3086": "car ", "3087": "cea ", "3088": "cei ", "3089": "cel ", "3090": "cem ", "3091": "cen ", "3092": "ceo ", "3093": "cer ", "3094": "ces ", "3095": "che ", "3096": "chi ", "3097": "ch\u00e9 ", "3098": "cia ", "3099": "cie ", "3100": "cil ", "3101": "cin ", "3102": "cio ", "3103": "cis ", "3104": "ci\u00f2 ", "3105": "cle ", "3106": "clo ", "3107": "coi ", "3108": "col ", "3109": "con ", "3110": "cor ", "3111": "co\u2019 ", "3112": "cra ", "3113": "cre ", "3114": "cri ", "3115": "cro ", "3116": "cui ", "3117": "cul ", "3118": "cum ", "3119": "cun ", "3120": "cur ", "3121": "cut ", "3122": "cu\u2019 ", "3123": "c\u00e0n ", "3124": "c\u00f2b ", "3125": "c\u00f2l ", "3126": "dai ", "3127": "dal ", "3128": "dan ", "3129": "dar ", "3130": "da\u2019 ", "3131": "dea ", "3132": "dee ", "3133": "deh ", "3134": "dei ", "3135": "del ", "3136": "dem ", "3137": "deo ", "3138": "der ", "3139": "des ", "3140": "de\u2019 ", "3141": "dia ", "3142": "die ", "3143": "dii ", "3144": "dil ", "3145": "din ", "3146": "dio ", "3147": "dir ", "3148": "di\u00e8 ", "3149": "di\u2019 ", "3150": "don ", "3151": "dor ", "3152": "dra ", "3153": "dre ", "3154": "dri ", "3155": "dro ", "3156": "dr\u00e0 ", "3157": "dr\u00ec ", "3158": "dr\u00f2 ", "3159": "dua ", "3160": "due ", "3161": "dui ", "3162": "duo ", "3163": "dur ", "3164": "du\u2019 ", "3165": "d\u00e8i ", "3166": "d\u00eca ", "3167": "d\u00ece ", "3168": "d\u00ect ", "3169": "e i ", "3170": "e \u2019 ", "3171": "ean ", "3172": "est ", "3173": "fai ", "3174": "fal ", "3175": "fan ", "3176": "far ", "3177": "fei ", "3178": "feo ", "3179": "fer ", "3180": "fe\u2019 ", "3181": "fia ", "3182": "fie ", "3183": "fil ", "3184": "fin ", "3185": "fio ", "3186": "fi\u00f2 ", "3187": "fi\u2019 ", "3188": "fon ", "3189": "for ", "3190": "fra ", "3191": "fue ", "3192": "fui ", "3193": "fur ", "3194": "fu\u2019 ", "3195": "f\u00e0s ", "3196": "f\u00e0t ", "3197": "f\u00e8l ", "3198": "f\u00e9e ", "3199": "f\u00f3n ", "3200": "gai ", "3201": "gal ", "3202": "gan ", "3203": "gar ", "3204": "ga\u2019 ", "3205": "gea ", "3206": "gei ", "3207": "gel ", "3208": "ger ", "3209": "ges ", "3210": "ghe ", "3211": "ghi ", "3212": "gia ", "3213": "gin ", "3214": "gio ", "3215": "gir ", "3216": "gis ", "3217": "gi\u00e0 ", "3218": "gi\u00f2 ", "3219": "gi\u00f9 ", "3220": "gi\u2019 ", "3221": "gli ", "3222": "gna ", "3223": "gne ", "3224": "gni ", "3225": "gno ", "3226": "gol ", "3227": "gon ", "3228": "gor ", "3229": "gra ", "3230": "gre ", "3231": "gri ", "3232": "gro ", "3233": "gru ", "3234": "gua ", "3235": "gue ", "3236": "gui ", "3237": "gu\u00ec ", "3238": "gu\u00f2 ", "3239": "g\u00f3n ", "3240": "g\u00f3r ", "3241": "hai ", "3242": "han ", "3243": "ian ", "3244": "ier ", "3245": "ieu ", "3246": "ion ", "3247": "joi ", "3248": "lai ", "3249": "lan ", "3250": "lar ", "3251": "la\u2019 ", "3252": "lea ", "3253": "lee ", "3254": "lei ", "3255": "lem ", "3256": "len ", "3257": "leo ", "3258": "ler ", "3259": "lia ", "3260": "lie ", "3261": "lin ", "3262": "lio ", "3263": "lir ", "3264": "lis ", "3265": "lon ", "3266": "lor ", "3267": "lui ", "3268": "lu\u2019 ", "3269": "l\u00e8m ", "3270": "l\u00eca ", "3271": "l\u00eco ", "3272": "l\u00f2n ", "3273": "mae ", "3274": "mai ", "3275": "mal ", "3276": "man ", "3277": "mar ", "3278": "mas ", "3279": "ma\u2019 ", "3280": "mea ", "3281": "mee ", "3282": "mei ", "3283": "men ", "3284": "meo ", "3285": "mer ", "3286": "me\u2019 ", "3287": "mia ", "3288": "mie ", "3289": "mii ", "3290": "mil ", "3291": "min ", "3292": "mio ", "3293": "mi\u2019 ", "3294": "mon ", "3295": "mor ", "3296": "mul ", "3297": "mum ", "3298": "mun ", "3299": "mus ", "3300": "m\u00eca ", "3301": "m\u00ecs ", "3302": "nai ", "3303": "nal ", "3304": "nan ", "3305": "nar ", "3306": "na\u2019 ", "3307": "nea ", "3308": "nei ", "3309": "nel ", "3310": "nem ", "3311": "neo ", "3312": "ner ", "3313": "ne\u2019 ", "3314": "nha ", "3315": "nia ", "3316": "nie ", "3317": "nii ", "3318": "nil ", "3319": "nin ", "3320": "nio ", "3321": "nir ", "3322": "nis ", "3323": "ni\u2019 ", "3324": "noi ", "3325": "nol ", "3326": "non ", "3327": "nor ", "3328": "no\u2019 ", "3329": "num ", "3330": "n\u00e8s ", "3331": "n\u00eca ", "3332": "n\u00ece ", "3333": "n\u00ect ", "3334": "n\u00f2i ", "3335": "n\u00f2s ", "3336": "o a ", "3337": "o e ", "3338": "pal ", "3339": "pan ", "3340": "par ", "3341": "pea ", "3342": "pei ", "3343": "pel ", "3344": "pem ", "3345": "peo ", "3346": "per ", "3347": "pia ", "3348": "pie ", "3349": "pii ", "3350": "pin ", "3351": "pio ", "3352": "pir ", "3353": "pi\u00e8 ", "3354": "pi\u00e9 ", "3355": "pi\u00f9 ", "3356": "plo ", "3357": "poi ", "3358": "pol ", "3359": "pon ", "3360": "por ", "3361": "pra ", "3362": "pre ", "3363": "pri ", "3364": "pro ", "3365": "pr\u00e0 ", "3366": "pr\u00ec ", "3367": "pur ", "3368": "pu\u00f2 ", "3369": "p\u00eca ", "3370": "p\u00f2s ", "3371": "qua ", "3372": "que ", "3373": "qui ", "3374": "rai ", "3375": "ral ", "3376": "ram ", "3377": "ran ", "3378": "rao ", "3379": "rar ", "3380": "ra\u2019 ", "3381": "rea ", "3382": "ree ", "3383": "rei ", "3384": "rel ", "3385": "rem ", "3386": "ren ", "3387": "reo ", "3388": "rer ", "3389": "res ", "3390": "re\u2019 ", "3391": "ria ", "3392": "rie ", "3393": "rii ", "3394": "ril ", "3395": "rin ", "3396": "rio ", "3397": "rir ", "3398": "ri\u2019 ", "3399": "ron ", "3400": "ror ", "3401": "ros ", "3402": "rua ", "3403": "rui ", "3404": "rum ", "3405": "r\u00ecb ", "3406": "r\u00ece ", "3407": "r\u00ecs ", "3408": "r\u00f2l ", "3409": "r\u00f3n ", "3410": "sai ", "3411": "sal ", "3412": "san ", "3413": "sar ", "3414": "sa\u2019 ", "3415": "sca ", "3416": "sce ", "3417": "sci ", "3418": "sco ", "3419": "sc\u00ec ", "3420": "sei ", "3421": "sel ", "3422": "sem ", "3423": "sen ", "3424": "seo ", "3425": "ser ", "3426": "se\u2019 ", "3427": "sia ", "3428": "sie ", "3429": "sii ", "3430": "sin ", "3431": "sio ", "3432": "sir ", "3433": "sis ", "3434": "sit ", "3435": "sma ", "3436": "smi ", "3437": "smo ", "3438": "sol ", "3439": "som ", "3440": "son ", "3441": "sor ", "3442": "spa ", "3443": "spe ", "3444": "sta ", "3445": "ste ", "3446": "sti ", "3447": "sto ", "3448": "st\u00e0 ", "3449": "st\u00e9 ", "3450": "st\u00ec ", "3451": "st\u00f2 ", "3452": "st\u00f9 ", "3453": "sua ", "3454": "sub ", "3455": "sue ", "3456": "sui ", "3457": "sul ", "3458": "sun ", "3459": "suo ", "3460": "su\u2019 ", "3461": "s\u00ece ", "3462": "s\u00f3n ", "3463": "s\u00f9e ", "3464": "tai ", "3465": "tal ", "3466": "tan ", "3467": "tar ", "3468": "ta\u2019 ", "3469": "tea ", "3470": "tei ", "3471": "tel ", "3472": "tem ", "3473": "ten ", "3474": "teo ", "3475": "ter ", "3476": "tes ", "3477": "te\u2019 ", "3478": "tia ", "3479": "tii ", "3480": "til ", "3481": "tin ", "3482": "tio ", "3483": "tir ", "3484": "tis ", "3485": "ti\u2019 ", "3486": "tol ", "3487": "ton ", "3488": "tor ", "3489": "tra ", "3490": "tre ", "3491": "tri ", "3492": "tro ", "3493": "tr\u00e0 ", "3494": "tr\u00f2 ", "3495": "tua ", "3496": "tue ", "3497": "tui ", "3498": "tum ", "3499": "tun ", "3500": "tuo ", "3501": "tus ", "3502": "t\u00e0n ", "3503": "t\u00e8s ", "3504": "t\u00e9r ", "3505": "t\u00f2n ", "3506": "t\u00f2r ", "3507": "t\u00f3n ", "3508": "unt ", "3509": "uom ", "3510": "uo\u2019 ", "3511": "vai ", "3512": "val ", "3513": "vam ", "3514": "van ", "3515": "var ", "3516": "vas ", "3517": "vau ", "3518": "va\u2019 ", "3519": "vea ", "3520": "vei ", "3521": "vel ", "3522": "vem ", "3523": "ven ", "3524": "ver ", "3525": "ve\u2019 ", "3526": "via ", "3527": "vie ", "3528": "vii ", "3529": "vil ", "3530": "vin ", "3531": "vio ", "3532": "voi ", "3533": "vol ", "3534": "von ", "3535": "vos ", "3536": "vo\u2019 ", "3537": "vra ", "3538": "v\u00ecd ", "3539": "zai ", "3540": "zan ", "3541": "zar ", "3542": "za\u2019 ", "3543": "zia ", "3544": "zie ", "3545": "zii ", "3546": "zio ", "3547": "zon ", "3548": "zul ", "3549": "z\u00f2n ", "3550": "\u00f2th ", "3551": "\u2018te ", "3552": "\u2019ve ", "3553": "a al ", "3554": "a il ", "3555": "a in ", "3556": "a \u2019l ", "3557": "ba e ", "3558": "be a ", "3559": "be e ", "3560": "be i ", "3561": "bent ", "3562": "bi a ", "3563": "bi e ", "3564": "bi i ", "3565": "bian ", "3566": "biar ", "3567": "bia\u2019 ", "3568": "bion ", "3569": "blia ", "3570": "blio ", "3571": "bo a ", "3572": "bo e ", "3573": "bran ", "3574": "brar ", "3575": "bree ", "3576": "brei ", "3577": "breo ", "3578": "bria ", "3579": "brio ", "3580": "br\u00f2t ", "3581": "buoi ", "3582": "buon ", "3583": "ca a ", "3584": "ca e ", "3585": "ca o ", "3586": "ca \u00e8 ", "3587": "caio ", "3588": "ce a ", "3589": "ce e ", "3590": "ce i ", "3591": "ce o ", "3592": "ce \u00e8 ", "3593": "cean ", "3594": "ched ", "3595": "chel ", "3596": "cheo ", "3597": "chia ", "3598": "chie ", "3599": "chin ", "3600": "chio ", "3601": "chi\u00f2 ", "3602": "ci a ", "3603": "ci e ", "3604": "ci o ", "3605": "ci \u00e8 ", "3606": "ciai ", "3607": "ciam ", "3608": "cian ", "3609": "ciar ", "3610": "cia\u2019 ", "3611": "ciel ", "3612": "ciol ", "3613": "cion ", "3614": "ciul ", "3615": "ci\u00f2l ", "3616": "cl\u00e8s ", "3617": "co a ", "3618": "co e ", "3619": "co i ", "3620": "co o ", "3621": "co \u00e8 ", "3622": "com\u2019 ", "3623": "cral ", "3624": "crea ", "3625": "cria ", "3626": "crin ", "3627": "cuor ", "3628": "c\u00f2th ", "3629": "c\u2019 \u00e8 ", "3630": "da a ", "3631": "da e ", "3632": "da i ", "3633": "da o ", "3634": "dail ", "3635": "de a ", "3636": "de e ", "3637": "de i ", "3638": "de o ", "3639": "de \u00e8 ", "3640": "dean ", "3641": "di a ", "3642": "di e ", "3643": "di i ", "3644": "di o ", "3645": "diam ", "3646": "dien ", "3647": "dier ", "3648": "die\u2019 ", "3649": "do a ", "3650": "do e ", "3651": "do i ", "3652": "do o ", "3653": "do \u00e8 ", "3654": "drai ", "3655": "dra\u2019 ", "3656": "drea ", "3657": "drel ", "3658": "dria ", "3659": "drir ", "3660": "dron ", "3661": "duol ", "3662": "d\u00e8ch ", "3663": "d\u00ec i ", "3664": "d\u2019 i ", "3665": "d\u2019 \u00e8 ", "3666": "e in ", "3667": "e or ", "3668": "e \u2019l ", "3669": "e \u2019n ", "3670": "fe e ", "3671": "fi e ", "3672": "fian ", "3673": "fiar ", "3674": "fien ", "3675": "fier ", "3676": "fior ", "3677": "fo \u00e8 ", "3678": "fren ", "3679": "frir ", "3680": "frui ", "3681": "fu a ", "3682": "fuor ", "3683": "f\u00e9 i ", "3684": "ga a ", "3685": "ga e ", "3686": "ga o ", "3687": "gaio ", "3688": "ge a ", "3689": "ge e ", "3690": "ge \u00e8 ", "3691": "gean ", "3692": "ghia ", "3693": "ghie ", "3694": "ghin ", "3695": "ghio ", "3696": "ghi\u00f2 ", "3697": "gi a ", "3698": "gi e ", "3699": "giai ", "3700": "giam ", "3701": "gian ", "3702": "giar ", "3703": "gien ", "3704": "gier ", "3705": "gioi ", "3706": "gion ", "3707": "gior ", "3708": "giun ", "3709": "gi\u00f9e ", "3710": "glia ", "3711": "glie ", "3712": "glio ", "3713": "gli\u00f2 ", "3714": "gnan ", "3715": "gnar ", "3716": "gnel ", "3717": "gner ", "3718": "gnes ", "3719": "gnia ", "3720": "gnin ", "3721": "gnon ", "3722": "gnor ", "3723": "gnum ", "3724": "gnun ", "3725": "gnus ", "3726": "go a ", "3727": "go e ", "3728": "go o ", "3729": "go \u00e8 ", "3730": "gran ", "3731": "grin ", "3732": "grue ", "3733": "guai ", "3734": "gual ", "3735": "guan ", "3736": "guia ", "3737": "guio ", "3738": "guir ", "3739": "guis ", "3740": "guon ", "3741": "i il ", "3742": "i in ", "3743": "io e ", "3744": "la a ", "3745": "la e ", "3746": "la i ", "3747": "la o ", "3748": "la \u00e8 ", "3749": "laia ", "3750": "laio ", "3751": "le a ", "3752": "le e ", "3753": "le i ", "3754": "le o ", "3755": "le \u00e8 ", "3756": "li a ", "3757": "li e ", "3758": "li i ", "3759": "li o ", "3760": "li \u00e8 ", "3761": "lian ", "3762": "lien ", "3763": "lier ", "3764": "lo a ", "3765": "lo e ", "3766": "lo i ", "3767": "lo \u00e8 ", "3768": "luia ", "3769": "l\u00e0 i ", "3770": "l\u00ec \u00e8 ", "3771": "l\u2019 \u00e8 ", "3772": "ma a ", "3773": "ma e ", "3774": "ma i ", "3775": "ma o ", "3776": "ma \u00e8 ", "3777": "maia ", "3778": "maio ", "3779": "me a ", "3780": "me e ", "3781": "me i ", "3782": "me \u00e8 ", "3783": "mi a ", "3784": "mi e ", "3785": "mi i ", "3786": "mian ", "3787": "miei ", "3788": "mie\u2019 ", "3789": "mo a ", "3790": "mo e ", "3791": "mo i ", "3792": "mo \u00e8 ", "3793": "muoi ", "3794": "muor ", "3795": "m\u2019 \u00e8 ", "3796": "na a ", "3797": "na e ", "3798": "na o ", "3799": "na \u00e8 ", "3800": "nail ", "3801": "naio ", "3802": "naut ", "3803": "ne a ", "3804": "ne e ", "3805": "ne i ", "3806": "ne o ", "3807": "ne \u00e8 ", "3808": "nean ", "3809": "ni a ", "3810": "ni e ", "3811": "ni o ", "3812": "ni \u00e8 ", "3813": "niam ", "3814": "nian ", "3815": "nien ", "3816": "nier ", "3817": "no a ", "3818": "no e ", "3819": "no i ", "3820": "no o ", "3821": "no \u00e8 ", "3822": "n\u2019 \u00e8 ", "3823": "o al ", "3824": "o il ", "3825": "o in ", "3826": "o un ", "3827": "o \u2019n ", "3828": "pa a ", "3829": "pa e ", "3830": "pa \u00e8 ", "3831": "pe e ", "3832": "pe i ", "3833": "ph\u00e8l ", "3834": "pi e ", "3835": "pian ", "3836": "piar ", "3837": "pia\u2019 ", "3838": "pien ", "3839": "pier ", "3840": "pion ", "3841": "pi\u00e9r ", "3842": "pi\u00f9e ", "3843": "plar ", "3844": "plor ", "3845": "pluo ", "3846": "po a ", "3847": "po e ", "3848": "po i ", "3849": "po o ", "3850": "po \u00e8 ", "3851": "prai ", "3852": "prec ", "3853": "prei ", "3854": "pria ", "3855": "prie ", "3856": "prio ", "3857": "prir ", "3858": "pri\u2019 ", "3859": "pron ", "3860": "prun ", "3861": "puoi ", "3862": "quae ", "3863": "quai ", "3864": "qual ", "3865": "quam ", "3866": "quar ", "3867": "quei ", "3868": "quel ", "3869": "que\u2019 ", "3870": "quia ", "3871": "quie ", "3872": "quod ", "3873": "quor ", "3874": "ra a ", "3875": "ra e ", "3876": "ra i ", "3877": "ra o ", "3878": "ra \u00e8 ", "3879": "re a ", "3880": "re e ", "3881": "re i ", "3882": "re o ", "3883": "re \u00e8 ", "3884": "rean ", "3885": "rent ", "3886": "ri a ", "3887": "ri e ", "3888": "ri o ", "3889": "riai ", "3890": "rian ", "3891": "rien ", "3892": "ro a ", "3893": "ro e ", "3894": "ro i ", "3895": "ro o ", "3896": "ro \u00e8 ", "3897": "runt ", "3898": "r\u2019 a ", "3899": "sa a ", "3900": "sa e ", "3901": "sa i ", "3902": "sa o ", "3903": "sa \u00e8 ", "3904": "saia ", "3905": "scar ", "3906": "scea ", "3907": "scel ", "3908": "scer ", "3909": "sche ", "3910": "schi ", "3911": "scia ", "3912": "scie ", "3913": "scio ", "3914": "scir ", "3915": "sci\u00f2 ", "3916": "sci\u2019 ", "3917": "scon ", "3918": "scun ", "3919": "sc\u00eco ", "3920": "se a ", "3921": "se e ", "3922": "se i ", "3923": "se o ", "3924": "se \u00e8 ", "3925": "sfar ", "3926": "si a ", "3927": "si e ", "3928": "si i ", "3929": "si o ", "3930": "si \u00e8 ", "3931": "siam ", "3932": "sian ", "3933": "sien ", "3934": "sier ", "3935": "sie\u2019 ", "3936": "sion ", "3937": "slao ", "3938": "so a ", "3939": "so e ", "3940": "so i ", "3941": "so o ", "3942": "so \u00e8 ", "3943": "sper ", "3944": "spia ", "3945": "spir ", "3946": "spri ", "3947": "spro ", "3948": "stai ", "3949": "stan ", "3950": "star ", "3951": "stea ", "3952": "stei ", "3953": "stel ", "3954": "steo ", "3955": "stia ", "3956": "stie ", "3957": "stil ", "3958": "stin ", "3959": "sti\u00f2 ", "3960": "stor ", "3961": "stra ", "3962": "stre ", "3963": "stri ", "3964": "stro ", "3965": "str\u00f2 ", "3966": "stui ", "3967": "st\u00e8r ", "3968": "st\u00f2r ", "3969": "su i ", "3970": "sunt ", "3971": "suoi ", "3972": "suol ", "3973": "suon ", "3974": "suo\u2019 ", "3975": "svia ", "3976": "s\u00e9 i ", "3977": "s\u2019 a ", "3978": "s\u2019 \u00e8 ", "3979": "ta a ", "3980": "ta e ", "3981": "ta i ", "3982": "ta o ", "3983": "ta \u00e8 ", "3984": "te a ", "3985": "te e ", "3986": "te i ", "3987": "te o ", "3988": "te \u00e8 ", "3989": "tean ", "3990": "ti a ", "3991": "ti e ", "3992": "ti i ", "3993": "ti o ", "3994": "ti \u00e8 ", "3995": "tiam ", "3996": "tien ", "3997": "tier ", "3998": "to a ", "3999": "to e ", "4000": "to i ", "4001": "to o ", "4002": "to \u00e8 ", "4003": "toio ", "4004": "trae ", "4005": "trai ", "4006": "tram ", "4007": "tran ", "4008": "trar ", "4009": "tra\u2019 ", "4010": "trea ", "4011": "tree ", "4012": "trei ", "4013": "tria ", "4014": "trio ", "4015": "tris ", "4016": "trui ", "4017": "tr\u00e0s ", "4018": "tu i ", "4019": "tu \u2019 ", "4020": "tuoi ", "4021": "tuon ", "4022": "tuo\u2019 ", "4023": "t\u2019 i ", "4024": "t\u2019 \u00e8 ", "4025": "va a ", "4026": "va e ", "4027": "va i ", "4028": "va o ", "4029": "vaio ", "4030": "ve a ", "4031": "ve e ", "4032": "ve i ", "4033": "ve o ", "4034": "vean ", "4035": "ver\u2019 ", "4036": "vi a ", "4037": "vi e ", "4038": "vi o ", "4039": "vi \u00e8 ", "4040": "viam ", "4041": "vian ", "4042": "vien ", "4043": "vier ", "4044": "vo a ", "4045": "vo e ", "4046": "vria ", "4047": "vuoi ", "4048": "vuol ", "4049": "vuo\u2019 ", "4050": "v\u2019 a ", "4051": "v\u2019 \u00e8 ", "4052": "za a ", "4053": "za e ", "4054": "za i ", "4055": "za o ", "4056": "za \u00e8 ", "4057": "ze e ", "4058": "ze o ", "4059": "zi a ", "4060": "zi e ", "4061": "zi \u00e8 ", "4062": "zian ", "4063": "ziar ", "4064": "zion ", "4065": "zo a ", "4066": "zo e ", "4067": "\u00e8 il ", "4068": "\u00e8 in ", "4069": "\u00e8 \u2019l ", "4070": "\u00e8 \u2019n ", "4071": "\u2018qui ", "4072": "ba il ", "4073": "ba in ", "4074": "be al ", "4075": "be ed ", "4076": "be il ", "4077": "be in ", "4078": "be i\u2019 ", "4079": "be or ", "4080": "be un ", "4081": "be \u2019l ", "4082": "bi il ", "4083": "bi in ", "4084": "bi un ", "4085": "bi \u2019l ", "4086": "bia e ", "4087": "bio e ", "4088": "bo a\u2019 ", "4089": "bo in ", "4090": "bra a ", "4091": "bra e ", "4092": "bra o ", "4093": "bre a ", "4094": "bre e ", "4095": "bro e ", "4096": "bro \u00e8 ", "4097": "b\u00f2 il ", "4098": "b\u2019 io ", "4099": "ca al ", "4100": "ca il ", "4101": "ca in ", "4102": "ca io ", "4103": "ce al ", "4104": "ce a\u2019 ", "4105": "ce ed ", "4106": "ce ha ", "4107": "ce il ", "4108": "ce in ", "4109": "ce un ", "4110": "ce u\u2019 ", "4111": "che a ", "4112": "che e ", "4113": "che i ", "4114": "che \u2019 ", "4115": "chi a ", "4116": "chi e ", "4117": "chi \u00e8 ", "4118": "chiai ", "4119": "chian ", "4120": "chiar ", "4121": "chier ", "4122": "chion ", "4123": "ch\u00e9 a ", "4124": "ch\u00e9 i ", "4125": "ch\u2019 a ", "4126": "ch\u2019 \u00e8 ", "4127": "ci al ", "4128": "ci a\u2019 ", "4129": "ci ha ", "4130": "ci il ", "4131": "ci in ", "4132": "ci io ", "4133": "ci or ", "4134": "ci \u2019l ", "4135": "cia a ", "4136": "cia e ", "4137": "cia i ", "4138": "cia o ", "4139": "cio a ", "4140": "cio e ", "4141": "co ad ", "4142": "co ai ", "4143": "co al ", "4144": "co a\u2019 ", "4145": "co il ", "4146": "co in ", "4147": "co io ", "4148": "co i\u2019 ", "4149": "co or ", "4150": "co un ", "4151": "co u\u2019 ", "4152": "co \u2019l ", "4153": "c\u2019 ha ", "4154": "c\u2019 ho ", "4155": "c\u2019 io ", "4156": "da al ", "4157": "da il ", "4158": "da in ", "4159": "da io ", "4160": "da i\u2019 ", "4161": "da or ", "4162": "da un ", "4163": "da \u2019l ", "4164": "de ad ", "4165": "de al ", "4166": "de ed ", "4167": "de il ", "4168": "de in ", "4169": "de un ", "4170": "de \u2019l ", "4171": "di ad ", "4172": "di al ", "4173": "di a\u2019 ", "4174": "di ed ", "4175": "di ha ", "4176": "di il ", "4177": "di in ", "4178": "di io ", "4179": "di or ", "4180": "di un ", "4181": "di \u00e8e ", "4182": "di \u2019l ", "4183": "di \u2019n ", "4184": "dia e ", "4185": "dia i ", "4186": "dio a ", "4187": "dio e ", "4188": "do ad ", "4189": "do al ", "4190": "do a\u2019 ", "4191": "do ed ", "4192": "do ha ", "4193": "do il ", "4194": "do in ", "4195": "do io ", "4196": "do or ", "4197": "do un ", "4198": "do \u2019l ", "4199": "dre a ", "4200": "dre e ", "4201": "dri e ", "4202": "dro a ", "4203": "dro e ", "4204": "dro o ", "4205": "d\u00f2 \u2019l ", "4206": "d\u2019 ei ", "4207": "d\u2019 el ", "4208": "d\u2019 e\u2019 ", "4209": "d\u2019 io ", "4210": "d\u2019 ir ", "4211": "d\u2019 i\u2019 ", "4212": "d\u2019 un ", "4213": "fa \u2019l ", "4214": "fo or ", "4215": "fu al ", "4216": "fu il ", "4217": "fu \u2019l ", "4218": "f\u00e9 \u2019l ", "4219": "ga il ", "4220": "ga in ", "4221": "ge ad ", "4222": "ge ai ", "4223": "ge al ", "4224": "ge il ", "4225": "ge in ", "4226": "ge or ", "4227": "ge un ", "4228": "ghe a ", "4229": "ghe e ", "4230": "ghi e ", "4231": "ghiai ", "4232": "ghiar ", "4233": "gi al ", "4234": "gi il ", "4235": "gi un ", "4236": "gi \u2019l ", "4237": "gia a ", "4238": "gia e ", "4239": "gia o ", "4240": "gia \u00e8 ", "4241": "gio a ", "4242": "gio e ", "4243": "gio o ", "4244": "gi\u00e0 i ", "4245": "gli a ", "4246": "gli e ", "4247": "gliai ", "4248": "glian ", "4249": "gliar ", "4250": "gliea ", "4251": "gliel ", "4252": "glien ", "4253": "glier ", "4254": "glion ", "4255": "glior ", "4256": "gluol ", "4257": "gna a ", "4258": "gna e ", "4259": "gna i ", "4260": "gna o ", "4261": "gna \u00e8 ", "4262": "gnaio ", "4263": "gni a ", "4264": "gni e ", "4265": "gno a ", "4266": "gno e ", "4267": "gno i ", "4268": "gno \u00e8 ", "4269": "go al ", "4270": "go il ", "4271": "go \u2019l ", "4272": "gra o ", "4273": "gri e ", "4274": "gua a ", "4275": "gua e ", "4276": "gue a ", "4277": "gue e ", "4278": "gue \u00e8 ", "4279": "gui e ", "4280": "gui i ", "4281": "g\u00ec \u2019l ", "4282": "g\u00f2 \u2019l ", "4283": "g\u2019 io ", "4284": "ha in ", "4285": "ha \u2019l ", "4286": "ia ed ", "4287": "ia il ", "4288": "ia in ", "4289": "ia oh ", "4290": "la al ", "4291": "la a\u2019 ", "4292": "la ed ", "4293": "la il ", "4294": "la in ", "4295": "la io ", "4296": "la un ", "4297": "la \u2019l ", "4298": "le ab ", "4299": "le ad ", "4300": "le al ", "4301": "le ha ", "4302": "le il ", "4303": "le in ", "4304": "le io ", "4305": "le ir ", "4306": "le i\u2019 ", "4307": "le or ", "4308": "le un ", "4309": "le \u2019l ", "4310": "li ad ", "4311": "li al ", "4312": "li ei ", "4313": "li ha ", "4314": "li il ", "4315": "li in ", "4316": "li io ", "4317": "li i\u2019 ", "4318": "li oh ", "4319": "li or ", "4320": "li un ", "4321": "li \u2019l ", "4322": "lia e ", "4323": "lio a ", "4324": "lio e ", "4325": "lio \u00e8 ", "4326": "lo ad ", "4327": "lo ai ", "4328": "lo al ", "4329": "lo a\u2019 ", "4330": "lo ed ", "4331": "lo ha ", "4332": "lo il ", "4333": "lo in ", "4334": "lo or ", "4335": "lo un ", "4336": "l\u00e0 il ", "4337": "l\u00e0 \u2019l ", "4338": "l\u2019 ha ", "4339": "l\u2019 ho ", "4340": "l\u2019 om ", "4341": "l\u2019 un ", "4342": "ma a\u2019 ", "4343": "ma il ", "4344": "ma in ", "4345": "ma io ", "4346": "ma un ", "4347": "ma \u2019l ", "4348": "ma \u2019n ", "4349": "me ad ", "4350": "me ai ", "4351": "me al ", "4352": "me a\u2019 ", "4353": "me ed ", "4354": "me il ", "4355": "me in ", "4356": "me io ", "4357": "me un ", "4358": "me \u2019l ", "4359": "me \u2019n ", "4360": "mi ad ", "4361": "mi al ", "4362": "mi a\u2019 ", "4363": "mi ed ", "4364": "mi il ", "4365": "mi in ", "4366": "mi un ", "4367": "mi \u2019l ", "4368": "mia e ", "4369": "mo ad ", "4370": "mo al ", "4371": "mo ed ", "4372": "mo ei ", "4373": "mo ha ", "4374": "mo il ", "4375": "mo in ", "4376": "mo un ", "4377": "mo \u2019l ", "4378": "m\u2019 ha ", "4379": "m\u2019 io ", "4380": "na ad ", "4381": "na al ", "4382": "na ed ", "4383": "na ei ", "4384": "na ha ", "4385": "na il ", "4386": "na in ", "4387": "na or ", "4388": "na un ", "4389": "na \u2019n ", "4390": "ne ad ", "4391": "ne ai ", "4392": "ne al ", "4393": "ne a\u2019 ", "4394": "ne ed ", "4395": "ne ha ", "4396": "ne il ", "4397": "ne in ", "4398": "ne io ", "4399": "ne or ", "4400": "ne un ", "4401": "ne \u2019l ", "4402": "ni al ", "4403": "ni ed ", "4404": "ni il ", "4405": "ni in ", "4406": "ni or ", "4407": "ni \u2019l ", "4408": "no ad ", "4409": "no ai ", "4410": "no al ", "4411": "no a\u2019 ", "4412": "no ed ", "4413": "no ei ", "4414": "no ha ", "4415": "no il ", "4416": "no in ", "4417": "no io ", "4418": "no i\u2019 ", "4419": "no un ", "4420": "no u\u2019 ", "4421": "no \u2019l ", "4422": "n\u00e9 \u2019l ", "4423": "n\u00f2 in ", "4424": "n\u00f2 \u2019l ", "4425": "n\u2019 ei ", "4426": "n\u2019 ha ", "4427": "n\u2019 io ", "4428": "pa ed ", "4429": "pa ho ", "4430": "pa in ", "4431": "pa or ", "4432": "pa \u2019l ", "4433": "pe ad ", "4434": "pe il ", "4435": "pe \u2019l ", "4436": "pi in ", "4437": "pi un ", "4438": "pie a ", "4439": "pio a ", "4440": "pio e ", "4441": "po al ", "4442": "po ed ", "4443": "po ha ", "4444": "po il ", "4445": "po in ", "4446": "po io ", "4447": "po \u2019l ", "4448": "pra e ", "4449": "praia ", "4450": "pre a ", "4451": "pre e ", "4452": "pre i ", "4453": "pri a ", "4454": "pri e ", "4455": "pr\u2019 a ", "4456": "puesc ", "4457": "p\u2019 io ", "4458": "qua a ", "4459": "qua e ", "4460": "qua o ", "4461": "qua \u00e8 ", "4462": "que a ", "4463": "que e ", "4464": "que \u00e8 ", "4465": "qui e ", "4466": "ra ad ", "4467": "ra al ", "4468": "ra a\u2019 ", "4469": "ra ed ", "4470": "ra ha ", "4471": "ra il ", "4472": "ra in ", "4473": "ra io ", "4474": "ra or ", "4475": "ra un ", "4476": "ra \u2019l ", "4477": "ra \u2019n ", "4478": "re ad ", "4479": "re al ", "4480": "re a\u2019 ", "4481": "re ed ", "4482": "re ha ", "4483": "re ho ", "4484": "re il ", "4485": "re in ", "4486": "re io ", "4487": "re ir ", "4488": "re i\u2019 ", "4489": "re or ", "4490": "re un ", "4491": "re \u2019n ", "4492": "ri al ", "4493": "ri a\u2019 ", "4494": "ri in ", "4495": "ri \u2019l ", "4496": "ria a ", "4497": "ria e ", "4498": "ria i ", "4499": "ria o ", "4500": "ria \u00e8 ", "4501": "ria \u2019 ", "4502": "rio a ", "4503": "rio e ", "4504": "ro ad ", "4505": "ro al ", "4506": "ro a\u2019 ", "4507": "ro ed ", "4508": "ro il ", "4509": "ro in ", "4510": "ro i\u2019 ", "4511": "ro od ", "4512": "ro or ", "4513": "ro un ", "4514": "r\u00ec \u2019l ", "4515": "r\u00f2 il ", "4516": "r\u00f2 \u2019l ", "4517": "r\u2019 al ", "4518": "r\u2019 io ", "4519": "sa ad ", "4520": "sa il ", "4521": "sa in ", "4522": "sa un ", "4523": "sa \u2019l ", "4524": "sca i ", "4525": "sce a ", "4526": "sce e ", "4527": "sce i ", "4528": "schio ", "4529": "sci a ", "4530": "sciai ", "4531": "scian ", "4532": "sciar ", "4533": "scion ", "4534": "sco e ", "4535": "sco i ", "4536": "scuoi ", "4537": "se ad ", "4538": "se ai ", "4539": "se al ", "4540": "se a\u2019 ", "4541": "se e\u2019 ", "4542": "se ho ", "4543": "se il ", "4544": "se in ", "4545": "se io ", "4546": "se ir ", "4547": "se i\u2019 ", "4548": "se or ", "4549": "se un ", "4550": "se \u2019l ", "4551": "se \u2019n ", "4552": "si ad ", "4553": "si al ", "4554": "si el ", "4555": "si il ", "4556": "si in ", "4557": "si or ", "4558": "si un ", "4559": "si u\u2019 ", "4560": "si \u2019l ", "4561": "si \u2019n ", "4562": "sia e ", "4563": "sio e ", "4564": "sme e ", "4565": "smo a ", "4566": "so ad ", "4567": "so al ", "4568": "so a\u2019 ", "4569": "so il ", "4570": "so in ", "4571": "so un ", "4572": "so \u00e8e ", "4573": "so \u2019l ", "4574": "sta a ", "4575": "sta e ", "4576": "sta o ", "4577": "sta \u00e8 ", "4578": "staio ", "4579": "ste a ", "4580": "ste e ", "4581": "ste i ", "4582": "sti a ", "4583": "sti e ", "4584": "sti o ", "4585": "sti \u00e8 ", "4586": "stial ", "4587": "stiam ", "4588": "stian ", "4589": "stier ", "4590": "stion ", "4591": "sto a ", "4592": "sto e ", "4593": "sto \u00e8 ", "4594": "strai ", "4595": "stral ", "4596": "stran ", "4597": "strar ", "4598": "st\u2019 \u00e8 ", "4599": "su in ", "4600": "su \u2019l ", "4601": "svuol ", "4602": "s\u00e9 il ", "4603": "s\u00e9 in ", "4604": "s\u00ec \u2019l ", "4605": "s\u2019 ei ", "4606": "s\u2019 el ", "4607": "s\u2019 e\u2019 ", "4608": "s\u2019 ha ", "4609": "s\u2019 io ", "4610": "s\u2019 i\u2019 ", "4611": "s\u2019 un ", "4612": "ta ad ", "4613": "ta al ", "4614": "ta ed ", "4615": "ta ha ", "4616": "ta ho ", "4617": "ta il ", "4618": "ta in ", "4619": "ta io ", "4620": "ta or ", "4621": "ta un ", "4622": "ta \u2019l ", "4623": "te ad ", "4624": "te ai ", "4625": "te al ", "4626": "te a\u2019 ", "4627": "te ed ", "4628": "te ha ", "4629": "te ho ", "4630": "te il ", "4631": "te in ", "4632": "te io ", "4633": "te i\u2019 ", "4634": "te or ", "4635": "te un ", "4636": "te u\u2019 ", "4637": "te \u2019l ", "4638": "te \u2019n ", "4639": "temps ", "4640": "ti ad ", "4641": "ti ai ", "4642": "ti al ", "4643": "ti a\u2019 ", "4644": "ti ed ", "4645": "ti ei ", "4646": "ti ha ", "4647": "ti il ", "4648": "ti in ", "4649": "ti io ", "4650": "ti un ", "4651": "ti \u2019l ", "4652": "ti \u2019n ", "4653": "to ad ", "4654": "to ai ", "4655": "to al ", "4656": "to a\u2019 ", "4657": "to ed ", "4658": "to ha ", "4659": "to il ", "4660": "to in ", "4661": "to io ", "4662": "to ir ", "4663": "to i\u2019 ", "4664": "to or ", "4665": "to un ", "4666": "to \u2019l ", "4667": "to \u2019n ", "4668": "tra a ", "4669": "tra e ", "4670": "tra i ", "4671": "tra \u00e8 ", "4672": "tra \u2019 ", "4673": "tre e ", "4674": "tri a ", "4675": "tri e ", "4676": "tri o ", "4677": "tri \u00e8 ", "4678": "tro a ", "4679": "tro e ", "4680": "tro i ", "4681": "tro \u00e8 ", "4682": "tr\u2019 a ", "4683": "tr\u2019 \u00e8 ", "4684": "tu \u2019l ", "4685": "t\u00e0 \u2019l ", "4686": "t\u00e9 \u2019l ", "4687": "t\u00ec \u2019l ", "4688": "t\u00f2 un ", "4689": "t\u00f2 \u2019l ", "4690": "t\u2019 el ", "4691": "t\u2019 ha ", "4692": "t\u2019 ho ", "4693": "t\u2019 il ", "4694": "t\u2019 io ", "4695": "t\u2019 i\u2019 ", "4696": "t\u2019 om ", "4697": "va ad ", "4698": "va ai ", "4699": "va al ", "4700": "va a\u2019 ", "4701": "va ed ", "4702": "va il ", "4703": "va in ", "4704": "va io ", "4705": "va or ", "4706": "va un ", "4707": "va \u2019l ", "4708": "va \u2019n ", "4709": "ve ad ", "4710": "ve al ", "4711": "ve a\u2019 ", "4712": "ve il ", "4713": "ve in ", "4714": "ve un ", "4715": "ve \u2019l ", "4716": "vi il ", "4717": "vi in ", "4718": "vi un ", "4719": "vi \u2019l ", "4720": "vo in ", "4721": "voill ", "4722": "vra i ", "4723": "vrien ", "4724": "v\u00f2 \u2019l ", "4725": "v\u2019 ei ", "4726": "v\u2019 el ", "4727": "v\u2019 e\u2019 ", "4728": "v\u2019 ha ", "4729": "v\u2019 ho ", "4730": "v\u2019 io ", "4731": "v\u2019 i\u2019 ", "4732": "v\u2019 or ", "4733": "v\u2019 \u00e8n ", "4734": "za al ", "4735": "za ed ", "4736": "za ha ", "4737": "za il ", "4738": "za in ", "4739": "za i\u2019 ", "4740": "za oh ", "4741": "za or ", "4742": "za un ", "4743": "za \u2019l ", "4744": "zi ad ", "4745": "zi ai ", "4746": "zi al ", "4747": "zi il ", "4748": "zi or ", "4749": "zi un ", "4750": "zi \u2019l ", "4751": "zia a ", "4752": "zia e ", "4753": "zia o ", "4754": "zia \u00e8 ", "4755": "zio a ", "4756": "zio e ", "4757": "zio \u00e8 ", "4758": "zo al ", "4759": "zo il ", "4760": "zo in ", "4761": "zo \u2019l ", "4762": "z\u00f2 il ", "4763": "z\u00f2 \u2019l ", "4764": "\u2019v\u2019 \u00e8 ", "4765": "ba e \u2019 ", "4766": "bia in ", "4767": "bia \u2019l ", "4768": "bio ed ", "4769": "bra ad ", "4770": "bra in ", "4771": "bra od ", "4772": "bre a\u2019 ", "4773": "cea il ", "4774": "che al ", "4775": "che a\u2019 ", "4776": "che il ", "4777": "che in ", "4778": "che io ", "4779": "che un ", "4780": "che \u2019l ", "4781": "che \u2019n ", "4782": "chi al ", "4783": "chi a\u2019 ", "4784": "chi ei ", "4785": "chi ha ", "4786": "chi il ", "4787": "chi in ", "4788": "chi \u2019l ", "4789": "chi \u2019n ", "4790": "chia e ", "4791": "chio a ", "4792": "chio e ", "4793": "chio \u00e8 ", "4794": "ch\u00e9 il ", "4795": "ch\u00e9 \u2019l ", "4796": "ch\u00e9 \u2019n ", "4797": "ch\u2019 ad ", "4798": "ch\u2019 ai ", "4799": "ch\u2019 al ", "4800": "ch\u2019 a\u2019 ", "4801": "ch\u2019 ei ", "4802": "ch\u2019 el ", "4803": "ch\u2019 e\u2019 ", "4804": "ch\u2019 in ", "4805": "ch\u2019 io ", "4806": "ch\u2019 i\u2019 ", "4807": "ch\u2019 om ", "4808": "ch\u2019 or ", "4809": "ch\u2019 un ", "4810": "ch\u2019 \u00e8i ", "4811": "ci e \u2019 ", "4812": "cia ad ", "4813": "cia al ", "4814": "cia il ", "4815": "cia in ", "4816": "cia ir ", "4817": "cia un ", "4818": "cio ed ", "4819": "ci\u00f2 il ", "4820": "ci\u00f2 \u2019l ", "4821": "c\u2019 hai ", "4822": "c\u2019 han ", "4823": "c\u2019 ha\u2019 ", "4824": "di e \u2019 ", "4825": "dia in ", "4826": "dia \u2019l ", "4827": "dio in ", "4828": "di\u2019 \u2019l ", "4829": "do hai ", "4830": "dre al ", "4831": "dri ai ", "4832": "dria e ", "4833": "dro in ", "4834": "due \u2019l ", "4835": "d\u2019 uom ", "4836": "fia il ", "4837": "fra \u2019l ", "4838": "ghi al ", "4839": "ghi in ", "4840": "ghi \u2019l ", "4841": "ghia a ", "4842": "ghiaio ", "4843": "ghio e ", "4844": "gia il ", "4845": "gia or ", "4846": "gia un ", "4847": "gia \u2019l ", "4848": "gio ad ", "4849": "gio al ", "4850": "gio ha ", "4851": "gio il ", "4852": "gio in ", "4853": "gi\u00e0 il ", "4854": "gi\u00e0 \u2019l ", "4855": "gi\u00f9 \u2019l ", "4856": "gli al ", "4857": "gli un ", "4858": "glia a ", "4859": "glia e ", "4860": "glia o ", "4861": "glia \u00e8 ", "4862": "gliaio ", "4863": "glie e ", "4864": "glio a ", "4865": "glio e ", "4866": "glio o ", "4867": "gliuoi ", "4868": "gliuol ", "4869": "gli\u00f2 i ", "4870": "gl\u2019 io ", "4871": "gna a\u2019 ", "4872": "gna il ", "4873": "gna in ", "4874": "gna un ", "4875": "gna \u2019l ", "4876": "gne al ", "4877": "gne \u2019l ", "4878": "gni in ", "4879": "gno ad ", "4880": "gno al ", "4881": "gno a\u2019 ", "4882": "gno ed ", "4883": "gno ha ", "4884": "gno il ", "4885": "gno in ", "4886": "gno or ", "4887": "gro un ", "4888": "gua in ", "4889": "gue il ", "4890": "gue in ", "4891": "gu\u00ec \u2019l ", "4892": "li han ", "4893": "li ha\u2019 ", "4894": "lia il ", "4895": "lio ed ", "4896": "l\u2019 hai ", "4897": "l\u2019 uom ", "4898": "me e \u2019 ", "4899": "mia al ", "4900": "m\u2019 hai ", "4901": "m\u2019 han ", "4902": "na\u2019 il ", "4903": "ne e i ", "4904": "ne e \u2019 ", "4905": "ne han ", "4906": "ni e i ", "4907": "ni e \u2019 ", "4908": "nia il ", "4909": "nio al ", "4910": "n\u2019 uom ", "4911": "pa e \u2019 ", "4912": "pia in ", "4913": "pi\u00e9 \u2019l ", "4914": "pi\u00f9 \u2019l ", "4915": "po e \u2019 ", "4916": "pra al ", "4917": "pra ed ", "4918": "pra in ", "4919": "pra \u2019l ", "4920": "pre al ", "4921": "pre a\u2019 ", "4922": "pre ha ", "4923": "pre in ", "4924": "pre \u2019l ", "4925": "pria e ", "4926": "pria o ", "4927": "pu\u00f2 \u2019l ", "4928": "qua al ", "4929": "qua il ", "4930": "qua in ", "4931": "qua io ", "4932": "que ad ", "4933": "que al ", "4934": "que a\u2019 ", "4935": "que il ", "4936": "que in ", "4937": "que io ", "4938": "que i\u2019 ", "4939": "que or ", "4940": "qui un ", "4941": "qui \u2019l ", "4942": "qu\u2019 io ", "4943": "ra hai ", "4944": "ra han ", "4945": "ri e \u2019 ", "4946": "ria al ", "4947": "ria il ", "4948": "rio ha ", "4949": "rio ho ", "4950": "rio il ", "4951": "rio in ", "4952": "ro e \u2019 ", "4953": "ro hai ", "4954": "sa e \u2019 ", "4955": "sce il ", "4956": "sce in ", "4957": "sche o ", "4958": "schi a ", "4959": "schi o ", "4960": "schiar ", "4961": "scia a ", "4962": "scia e ", "4963": "scia o ", "4964": "scio a ", "4965": "sco il ", "4966": "sc\u00ec \u2019l ", "4967": "sc\u2019 io ", "4968": "se uom ", "4969": "se\u2019 in ", "4970": "si e \u2019 ", "4971": "sia \u2019l ", "4972": "smo al ", "4973": "smo in ", "4974": "so hai ", "4975": "so\u2019 \u2019n ", "4976": "spra e ", "4977": "sta al ", "4978": "sta il ", "4979": "sta in ", "4980": "sta un ", "4981": "sta \u2019n ", "4982": "ste il ", "4983": "ste in ", "4984": "sti ha ", "4985": "sti il ", "4986": "sti in ", "4987": "sti \u2019l ", "4988": "stia e ", "4989": "stie e ", "4990": "stio e ", "4991": "sto ad ", "4992": "sto al ", "4993": "sto ha ", "4994": "sto il ", "4995": "sto in ", "4996": "sto io ", "4997": "stra a ", "4998": "stra e ", "4999": "stra \u00e8 ", "5000": "strans ", "5001": "stri e ", "5002": "stro a ", "5003": "stro e ", "5004": "stro i ", "5005": "stro o ", "5006": "stro \u00e8 ", "5007": "st\u2019 ho ", "5008": "s\u2019 hai ", "5009": "te han ", "5010": "ti e i ", "5011": "ti e \u2019 ", "5012": "ti han ", "5013": "to hai ", "5014": "tra al ", "5015": "tra il ", "5016": "tra in ", "5017": "tra i\u2019 ", "5018": "tra \u2019l ", "5019": "tre al ", "5020": "tre il ", "5021": "tre in ", "5022": "tre i\u2019 ", "5023": "tre un ", "5024": "tri ad ", "5025": "tri il ", "5026": "tri or ", "5027": "tri \u2019l ", "5028": "trio e ", "5029": "tro ad ", "5030": "tro ai ", "5031": "tro al ", "5032": "tro a\u2019 ", "5033": "tro ed ", "5034": "tro ha ", "5035": "tro il ", "5036": "tro in ", "5037": "tro io ", "5038": "tro i\u2019 ", "5039": "tro un ", "5040": "tro \u2019l ", "5041": "tr\u2019 al ", "5042": "tr\u2019 a\u2019 ", "5043": "tr\u2019 io ", "5044": "t\u2019 hai ", "5045": "t\u2019 ha\u2019 ", "5046": "va e i ", "5047": "vea \u2019l ", "5048": "vra \u2019l ", "5049": "zia il ", "5050": "zia in ", "5051": "zie al ", "5052": "zio al ", "5053": "\u2019ve \u2019l ", "5054": "be e \u2019l ", "5055": "bo e \u2019l ", "5056": "bre e \u2019 ", "5057": "ca e \u2019l ", "5058": "ce e \u2019l ", "5059": "che e \u2019 ", "5060": "chia al ", "5061": "chio al ", "5062": "chio ha ", "5063": "chio il ", "5064": "chio in ", "5065": "ch\u2019 uom ", "5066": "ci e \u2019l ", "5067": "co e \u2019l ", "5068": "de e \u2019l ", "5069": "de e \u2019n ", "5070": "dia e i ", "5071": "do e \u2019n ", "5072": "dre e \u2019 ", "5073": "ga e \u2019l ", "5074": "glia al ", "5075": "glia il ", "5076": "glia in ", "5077": "glia un ", "5078": "glie in ", "5079": "glie \u2019l ", "5080": "glio ai ", "5081": "glio in ", "5082": "glio or ", "5083": "gne uom ", "5084": "go e \u2019l ", "5085": "go \u00e8 in ", "5086": "la e \u2019l ", "5087": "le e il ", "5088": "le e \u2019l ", "5089": "lio e i ", "5090": "lo \u00e8 in ", "5091": "l\u2019 \u00e8 \u2019l ", "5092": "ma e \u2019l ", "5093": "me e \u2019l ", "5094": "me e \u2019n ", "5095": "mi e \u2019l ", "5096": "mo e \u2019l ", "5097": "m\u2019 \u00e8 il ", "5098": "m\u2019 \u00e8 \u2019l ", "5099": "na e \u2019l ", "5100": "ne e \u2019l ", "5101": "no e \u2019l ", "5102": "po e \u2019l ", "5103": "qu\u2019 ieu ", "5104": "ra e \u2019l ", "5105": "re e in ", "5106": "re e \u2019l ", "5107": "ro e \u2019l ", "5108": "sa e \u2019l ", "5109": "schia e ", "5110": "schio e ", "5111": "scia il ", "5112": "sci\u00f2 il ", "5113": "se e \u2019l ", "5114": "si e \u2019l ", "5115": "so e \u2019l ", "5116": "stia ad ", "5117": "stra il ", "5118": "stra \u2019l ", "5119": "stri in ", "5120": "stro ed ", "5121": "stro il ", "5122": "stro in ", "5123": "stro or ", "5124": "ta e \u2019l ", "5125": "ta e \u2019n ", "5126": "te e \u2019l ", "5127": "te e \u2019n ", "5128": "ti e \u2019l ", "5129": "to e \u2019l ", "5130": "to o al ", "5131": "to \u00e8 \u2019l ", "5132": "tra e \u2019 ", "5133": "tr\u2019 ier ", "5134": "va e \u2019l ", "5135": "va e \u2019n ", "5136": "vo e \u2019l ", "5137": "v\u2019 \u00e8 in ", "5138": "v\u2019 \u00e8 \u2019l ", "5139": "za e \u2019l ", "5140": "zo e \u2019l ", "5141": "bia e \u2019l ", "5142": "bra e \u2019l ", "5143": "chi e \u2019l ", "5144": "ch\u2019 \u00e8 in ", "5145": "cia e \u2019l ", "5146": "c\u2019 ha \u2019l ", "5147": "dio e \u2019l ", "5148": "dio \u00e8 \u2019l ", "5149": "dre e \u2019l ", "5150": "d\u2019 io \u2019l ", "5151": "gio e \u2019l ", "5152": "gli e in ", "5153": "l\u2019 ha in ", "5154": "pra e \u2019l ", "5155": "que e \u2019l ", "5156": "ria e \u2019l ", "5157": "ria \u00e8 \u2019l ", "5158": "schi uom ", "5159": "so ha \u2019l ", "5160": "sta e \u2019l ", "5161": "sta \u00e8 in ", "5162": "sti \u00e8 \u2019l ", "5163": "stie hai ", "5164": "st\u2019 \u00e8 \u2019l ", "5165": "s\u2019 i\u2019 \u2019l ", "5166": "te ha in ", "5167": "to ha \u2019l ", "5168": "tra e \u2019l ", "5169": "tre e \u2019l ", "5170": "tri e \u2019l ", "5171": "tro e \u2019l ", "5172": "tr\u2019 \u00e8 \u2019l ", "5173": "v\u2019 ha \u2019l ", "5174": "zie e \u2019l ", "5175": "zio e \u2019l ", "5176": "chie e \u2019n ", "5177": "chio e \u2019l ", "5178": "chio o \u2019l ", "5179": "ch\u2019 io \u2019l ", "5180": "ch\u2019 i\u2019 \u2019l ", "5181": "glio e \u2019l ", "5182": "scia e \u2019l ", "5183": "stro e \u2019l "}