{"0": "", "1": "<v>", "2": "</v>", "3": "<t>", "4": "</t>", "5": "a", "6": "e", "7": "i", "8": "o", "9": "u", "10": "\u00e8", "11": "\u00e9", "12": "\u00ef", "13": "\u00f2", "14": "\u00fc", "15": "ab", "16": "ac", "17": "ad", "18": "ae", "19": "af", "20": "ag", "21": "al", "22": "am", "23": "an", "24": "ap", "25": "ar", "26": "as", "27": "at", "28": "au", "29": "av", "30": "az", "31": "ba", "32": "be", "33": "bi", "34": "bo", "35": "bu", "36": "b\u00eb", "37": "b\u00ef", "38": "ca", "39": "ce", "40": "ci", "41": "co", "42": "cu", "43": "c\u00eb", "44": "c\u00ec", "45": "c\u00ef", "46": "c\u00f9", "47": "c\u00fc", "48": "da", "49": "de", "50": "di", "51": "do", "52": "du", "53": "d\u00e9", "54": "d\u00eb", "55": "d\u00ef", "56": "d\u00fc", "57": "eb", "58": "ec", "59": "ef", "60": "el", "61": "em", "62": "en", "63": "er", "64": "es", "65": "et", "66": "eu", "67": "ex", "68": "fa", "69": "fe", "70": "fi", "71": "fo", "72": "fu", "73": "f\u00e9", "74": "f\u00eb", "75": "f\u00ef", "76": "f\u00f3", "77": "ga", "78": "ge", "79": "gi", "80": "go", "81": "gu", "82": "g\u00e8", "83": "g\u00eb", "84": "g\u00ef", "85": "g\u00f3", "86": "g\u00fc", "87": "ha", "88": "ho", "89": "ia", "90": "id", "91": "ie", "92": "il", "93": "im", "94": "in", "95": "io", "96": "ir", "97": "is", "98": "iu", "99": "la", "100": "le", "101": "li", "102": "lo", "103": "lu", "104": "l\u00e0", "105": "l\u00e8", "106": "l\u00eb", "107": "l\u00ec", "108": "l\u00ef", "109": "l\u00f2", "110": "l\u00f6", "111": "l\u00fc", "112": "ma", "113": "me", "114": "mi", "115": "mo", "116": "mu", "117": "m\u00e4", "118": "m\u00e8", "119": "m\u00eb", "120": "m\u00ec", "121": "m\u00ef", "122": "na", "123": "ne", "124": "ni", "125": "no", "126": "nu", "127": "n\u00e8", "128": "n\u00eb", "129": "n\u00ef", "130": "n\u00f2", "131": "n\u00fc", "132": "ob", "133": "oc", "134": "of", "135": "og", "136": "ol", "137": "om", "138": "on", "139": "op", "140": "or", "141": "os", "142": "ot", "143": "ov", "144": "pa", "145": "pe", "146": "pi", "147": "po", "148": "pu", "149": "p\u00e8", "150": "p\u00eb", "151": "p\u00ec", "152": "p\u00ef", "153": "p\u00f2", "154": "p\u00fc", "155": "ra", "156": "re", "157": "ri", "158": "ro", "159": "ru", "160": "r\u00e0", "161": "r\u00e8", "162": "r\u00eb", "163": "r\u00ef", "164": "r\u00f3", "165": "sa", "166": "se", "167": "si", "168": "so", "169": "su", "170": "s\u00e0", "171": "s\u00e9", "172": "s\u00eb", "173": "s\u00ef", "174": "s\u00f2", "175": "s\u00f9", "176": "s\u00fc", "177": "ta", "178": "te", "179": "ti", "180": "to", "181": "tu", "182": "t\u00e4", "183": "t\u00e8", "184": "t\u00eb", "185": "t\u00ec", "186": "t\u00ef", "187": "t\u00f2", "188": "t\u00fc", "189": "uc", "190": "ul", "191": "un", "192": "uo", "193": "ur", "194": "va", "195": "ve", "196": "vi", "197": "vo", "198": "vu", "199": "v\u00e4", "200": "v\u00e8", "201": "v\u00e9", "202": "v\u00eb", "203": "v\u00ef", "204": "v\u00f2", "205": "xi", "206": "za", "207": "ze", "208": "zi", "209": "zo", "210": "z\u00ef", "211": "\u00e8n", "212": "\u00e8v", "213": "\u00f2s", "214": "a a", "215": "a u", "216": "ahi", "217": "bab", "218": "bac", "219": "bai", "220": "bal", "221": "ban", "222": "bar", "223": "bas", "224": "bat", "225": "bea", "226": "bec", "227": "bef", "228": "bel", "229": "ben", "230": "ber", "231": "bet", "232": "bev", "233": "bia", "234": "bie", "235": "bil", "236": "bin", "237": "bio", "238": "bis", "239": "biz", "240": "bli", "241": "bl\u00ef", "242": "boc", "243": "bol", "244": "bom", "245": "bon", "246": "bor", "247": "bot", "248": "boz", "249": "bra", "250": "bre", "251": "bri", "252": "bro", "253": "bru", "254": "br\u00ef", "255": "buc", "256": "buf", "257": "bug", "258": "bui", "259": "bul", "260": "bun", "261": "buo", "262": "bur", "263": "but", "264": "cac", "265": "cad", "266": "caf", "267": "cag", "268": "cal", "269": "cam", "270": "can", "271": "cap", "272": "car", "273": "cas", "274": "cat", "275": "cau", "276": "cea", "277": "cef", "278": "cel", "279": "cem", "280": "cen", "281": "cep", "282": "cer", "283": "ces", "284": "cet", "285": "cez", "286": "che", "287": "chi", "288": "ch\u00ec", "289": "ch\u00ef", "290": "cia", "291": "cic", "292": "cie", "293": "cil", "294": "cin", "295": "cio", "296": "cir", "297": "cis", "298": "cit", "299": "ciu", "300": "cla", "301": "cle", "302": "cli", "303": "clo", "304": "clu", "305": "cl\u00ef", "306": "cob", "307": "coc", "308": "col", "309": "com", "310": "con", "311": "cop", "312": "cor", "313": "cos", "314": "cot", "315": "cov", "316": "coz", "317": "cra", "318": "cre", "319": "cri", "320": "cro", "321": "cru", "322": "cr\u00e0", "323": "cuc", "324": "cui", "325": "cul", "326": "cum", "327": "cun", "328": "cuo", "329": "cur", "330": "c\u00e9r", "331": "c\u00f3l", "332": "dal", "333": "dam", "334": "dan", "335": "dar", "336": "das", "337": "dat", "338": "dau", "339": "dea", "340": "deb", "341": "dec", "342": "deg", "343": "dei", "344": "del", "345": "dem", "346": "den", "347": "der", "348": "des", "349": "det", "350": "dez", "351": "dia", "352": "dic", "353": "die", "354": "dif", "355": "dil", "356": "dim", "357": "din", "358": "dio", "359": "dir", "360": "dis", "361": "dit", "362": "diz", "363": "dob", "364": "doc", "365": "dol", "366": "dom", "367": "don", "368": "dop", "369": "dor", "370": "dos", "371": "dot", "372": "dov", "373": "dra", "374": "dre", "375": "dri", "376": "dro", "377": "dru", "378": "dr\u00e4", "379": "dr\u00ef", "380": "dub", "381": "dug", "382": "dul", "383": "dun", "384": "duo", "385": "dur", "386": "dus", "387": "dut", "388": "e a", "389": "fab", "390": "fac", "391": "fal", "392": "fam", "393": "fan", "394": "far", "395": "fas", "396": "fat", "397": "fau", "398": "feb", "399": "feg", "400": "fel", "401": "fem", "402": "fen", "403": "fer", "404": "fes", "405": "fet", "406": "fia", "407": "fib", "408": "fic", "409": "fie", "410": "fig", "411": "fin", "412": "fio", "413": "fis", "414": "fit", "415": "fiu", "416": "fla", "417": "fle", "418": "flu", "419": "fog", "420": "fol", "421": "fom", "422": "fon", "423": "for", "424": "fos", "425": "fra", "426": "fre", "427": "fri", "428": "fro", "429": "fru", "430": "fuc", "431": "fug", "432": "ful", "433": "fum", "434": "fun", "435": "fuo", "436": "fur", "437": "f\u00e0c", "438": "f\u00e9l", "439": "gab", "440": "gad", "441": "gag", "442": "gal", "443": "gam", "444": "gan", "445": "gar", "446": "gas", "447": "gat", "448": "gau", "449": "gaz", "450": "gea", "451": "gel", "452": "gem", "453": "gen", "454": "geo", "455": "ger", "456": "ges", "457": "get", "458": "ghe", "459": "ghi", "460": "gia", "461": "gib", "462": "gie", "463": "gil", "464": "gim", "465": "gio", "466": "gir", "467": "gis", "468": "git", "469": "giu", "470": "giz", "471": "gli", "472": "glo", "473": "gna", "474": "gne", "475": "gni", "476": "gno", "477": "gnu", "478": "gob", "479": "goc", "480": "gol", "481": "gom", "482": "gon", "483": "gor", "484": "got", "485": "goz", "486": "gra", "487": "gre", "488": "gri", "489": "gru", "490": "gua", "491": "guc", "492": "gue", "493": "gui", "494": "guo", "495": "gur", "496": "guz", "497": "han", "498": "hon", "499": "ian", "500": "iar", "501": "iat", "502": "iep", "503": "ier", "504": "ior", "505": "jau", "506": "lab", "507": "lac", "508": "lai", "509": "lam", "510": "lan", "511": "lap", "512": "lar", "513": "las", "514": "lat", "515": "lau", "516": "lav", "517": "laz", "518": "lea", "519": "leb", "520": "lec", "521": "leg", "522": "lel", "523": "lem", "524": "len", "525": "lep", "526": "ler", "527": "les", "528": "let", "529": "lez", "530": "lia", "531": "lic", "532": "lie", "533": "lil", "534": "lim", "535": "lin", "536": "lip", "537": "lir", "538": "lis", "539": "lit", "540": "loc", "541": "lom", "542": "lon", "543": "lop", "544": "lor", "545": "lot", "546": "luc", "547": "lui", "548": "lul", "549": "lun", "550": "luo", "551": "lup", "552": "lur", "553": "lus", "554": "lut", "555": "luz", "556": "mac", "557": "mag", "558": "mai", "559": "mal", "560": "mam", "561": "man", "562": "mar", "563": "mas", "564": "mat", "565": "maz", "566": "meg", "567": "mel", "568": "mem", "569": "men", "570": "mer", "571": "mes", "572": "met", "573": "mez", "574": "mia", "575": "mic", "576": "mie", "577": "mil", "578": "min", "579": "mir", "580": "mol", "581": "mon", "582": "mor", "583": "mos", "584": "mot", "585": "moz", "586": "muc", "587": "muf", "588": "mug", "589": "mul", "590": "mun", "591": "muo", "592": "mur", "593": "m\u00e8c", "594": "m\u00e9z", "595": "nac", "596": "nag", "597": "nai", "598": "nal", "599": "nan", "600": "nar", "601": "nas", "602": "nat", "603": "neb", "604": "nec", "605": "nef", "606": "neg", "607": "nel", "608": "nem", "609": "nen", "610": "ner", "611": "nes", "612": "net", "613": "nev", "614": "nez", "615": "nia", "616": "nic", "617": "nie", "618": "nig", "619": "nil", "620": "nim", "621": "nin", "622": "nio", "623": "nir", "624": "nis", "625": "niz", "626": "nob", "627": "noc", "628": "nol", "629": "nom", "630": "non", "631": "nor", "632": "not", "633": "noz", "634": "nuc", "635": "nul", "636": "nun", "637": "nuo", "638": "nur", "639": "o a", "640": "o e", "641": "o u", "642": "pac", "643": "pai", "644": "pal", "645": "pan", "646": "pap", "647": "par", "648": "pas", "649": "pat", "650": "pau", "651": "paz", "652": "pec", "653": "peg", "654": "pel", "655": "pen", "656": "per", "657": "pes", "658": "pet", "659": "pia", "660": "pic", "661": "pie", "662": "pig", "663": "pil", "664": "pin", "665": "pio", "666": "pir", "667": "pis", "668": "pit", "669": "piu", "670": "piz", "671": "pi\u00e9", "672": "pla", "673": "ple", "674": "pli", "675": "plo", "676": "plu", "677": "pl\u00ec", "678": "poc", "679": "pog", "680": "pol", "681": "pom", "682": "pon", "683": "pop", "684": "por", "685": "pos", "686": "pot", "687": "poz", "688": "pra", "689": "pre", "690": "pri", "691": "pro", "692": "pru", "693": "pub", "694": "puc", "695": "pul", "696": "pun", "697": "puo", "698": "pur", "699": "put", "700": "puz", "701": "p\u00e0r", "702": "p\u00f2s", "703": "qua", "704": "que", "705": "qui", "706": "quo", "707": "qu\u00ef", "708": "rab", "709": "rac", "710": "raf", "711": "rag", "712": "ral", "713": "ram", "714": "ran", "715": "rap", "716": "rar", "717": "ras", "718": "rat", "719": "rav", "720": "raz", "721": "rea", "722": "reb", "723": "rec", "724": "red", "725": "reg", "726": "rel", "727": "rem", "728": "ren", "729": "res", "730": "ret", "731": "rez", "732": "ria", "733": "ric", "734": "rid", "735": "rie", "736": "rig", "737": "ril", "738": "rim", "739": "rin", "740": "rio", "741": "rir", "742": "ris", "743": "rit", "744": "riz", "745": "rob", "746": "roc", "747": "rof", "748": "rog", "749": "rol", "750": "rom", "751": "ron", "752": "ros", "753": "rot", "754": "roz", "755": "ruc", "756": "ruf", "757": "rug", "758": "run", "759": "ruo", "760": "rup", "761": "rut", "762": "r\u00e8g", "763": "sab", "764": "sac", "765": "saf", "766": "sag", "767": "sal", "768": "sam", "769": "san", "770": "sap", "771": "sar", "772": "sas", "773": "sat", "774": "sau", "775": "sba", "776": "sbi", "777": "sca", "778": "sce", "779": "sci", "780": "sco", "781": "scu", "782": "sc\u00ef", "783": "sde", "784": "sec", "785": "seg", "786": "sel", "787": "sem", "788": "sen", "789": "sep", "790": "ser", "791": "ses", "792": "set", "793": "sev", "794": "sez", "795": "sfa", "796": "sfe", "797": "sfo", "798": "sga", "799": "sgo", "800": "sia", "801": "sic", "802": "sie", "803": "sil", "804": "sin", "805": "sio", "806": "sis", "807": "sit", "808": "sla", "809": "sle", "810": "sma", "811": "sme", "812": "smi", "813": "smo", "814": "smu", "815": "sna", "816": "sno", "817": "sob", "818": "soc", "819": "sod", "820": "sof", "821": "sog", "822": "sol", "823": "som", "824": "son", "825": "sop", "826": "sor", "827": "sos", "828": "sot", "829": "sov", "830": "soz", "831": "spa", "832": "spe", "833": "spi", "834": "spo", "835": "spu", "836": "sp\u00ef", "837": "sra", "838": "sr\u00e4", "839": "sta", "840": "ste", "841": "sti", "842": "sto", "843": "stu", "844": "st\u00ef", "845": "sub", "846": "suc", "847": "sud", "848": "suf", "849": "sug", "850": "sum", "851": "sun", "852": "suo", "853": "sup", "854": "sur", "855": "sus", "856": "sve", "857": "svi", "858": "svo", "859": "sv\u00ef", "860": "tac", "861": "tad", "862": "tag", "863": "tal", "864": "tam", "865": "tan", "866": "tar", "867": "tas", "868": "tat", "869": "tau", "870": "tea", "871": "tec", "872": "teg", "873": "tel", "874": "tem", "875": "ten", "876": "ter", "877": "tes", "878": "tet", "879": "tez", "880": "tho", "881": "tic", "882": "tie", "883": "til", "884": "tim", "885": "tin", "886": "tir", "887": "tis", "888": "tle", "889": "toc", "890": "tol", "891": "tom", "892": "ton", "893": "top", "894": "tor", "895": "tos", "896": "tra", "897": "tre", "898": "tri", "899": "tro", "900": "tru", "901": "tr\u00ef", "902": "tuc", "903": "tuf", "904": "tun", "905": "tuo", "906": "tur", "907": "tut", "908": "t\u00f2m", "909": "t\u00f2r", "910": "vac", "911": "vag", "912": "val", "913": "vam", "914": "van", "915": "var", "916": "vas", "917": "vat", "918": "vec", "919": "veg", "920": "vel", "921": "vem", "922": "ven", "923": "ver", "924": "ves", "925": "vet", "926": "vez", "927": "vid", "928": "vie", "929": "vil", "930": "vin", "931": "vir", "932": "vis", "933": "vit", "934": "viz", "935": "voi", "936": "vol", "937": "vom", "938": "von", "939": "vor", "940": "vul", "941": "vuo", "942": "v\u00f2l", "943": "xil", "944": "zac", "945": "zaf", "946": "zan", "947": "zar", "948": "zel", "949": "zia", "950": "zio", "951": "zon", "952": "zuc", "953": "zuf", "954": "zur", "955": "\u2018be", "956": "\u2018la", "957": "\u2018ne", "958": "a ac", "959": "a al", "960": "a am", "961": "a ef", "962": "a es", "963": "a in", "964": "be a", "965": "be e", "966": "be i", "967": "be o", "968": "be u", "969": "bi a", "970": "biac", "971": "bian", "972": "bias", "973": "biet", "974": "bion", "975": "blan", "976": "bo a", "977": "bo e", "978": "bo i", "979": "brac", "980": "bran", "981": "bren", "982": "brez", "983": "brie", "984": "bris", "985": "broc", "986": "brol", "987": "bron", "988": "brot", "989": "brug", "990": "brul", "991": "brut", "992": "buon", "993": "ca a", "994": "ca e", "995": "ca o", "996": "ca u", "997": "ce a", "998": "ce e", "999": "ce o", "1000": "ce u", "1001": "cheg", "1002": "cher", "1003": "chet", "1004": "chez", "1005": "chia", "1006": "chie", "1007": "chil", "1008": "chio", "1009": "chis", "1010": "chiu", "1011": "ci a", "1012": "ci e", "1013": "ci o", "1014": "ci u", "1015": "ciac", "1016": "cian", "1017": "ciap", "1018": "ciar", "1019": "cias", "1020": "ciel", "1021": "cien", "1022": "cioc", "1023": "ciom", "1024": "cion", "1025": "ciot", "1026": "ciuf", "1027": "ciul", "1028": "ciuo", "1029": "clas", "1030": "clau", "1031": "clis", "1032": "clug", "1033": "co a", "1034": "co e", "1035": "co o", "1036": "co u", "1037": "cras", "1038": "crea", "1039": "creb", "1040": "cric", "1041": "crol", "1042": "cruc", "1043": "c\u2019 e", "1044": "c\u2019 o", "1045": "c\u2019 \u00ef", "1046": "da a", "1047": "da e", "1048": "da o", "1049": "da u", "1050": "de a", "1051": "de e", "1052": "de i", "1053": "de o", "1054": "de u", "1055": "dhae", "1056": "di a", "1057": "di e", "1058": "di i", "1059": "di o", "1060": "di u", "1061": "dian", "1062": "dien", "1063": "dier", "1064": "dies", "1065": "do a", "1066": "do e", "1067": "do i", "1068": "do o", "1069": "do u", "1070": "dram", "1071": "dran", "1072": "drap", "1073": "dras", "1074": "drit", "1075": "driz", "1076": "d\u2019 a", "1077": "d\u2019 e", "1078": "d\u2019 i", "1079": "d\u2019 o", "1080": "d\u2019 u", "1081": "d\u2019 \u00eb", "1082": "d\u2019 \u00ef", "1083": "e ar", "1084": "e in", "1085": "e \u2019n", "1086": "egyp", "1087": "fiac", "1088": "fiam", "1089": "fian", "1090": "fioc", "1091": "fior", "1092": "fiot", "1093": "fles", "1094": "flet", "1095": "flig", "1096": "flit", "1097": "fran", "1098": "frat", "1099": "fred", "1100": "fret", "1101": "fron", "1102": "frut", "1103": "ga e", "1104": "ga o", "1105": "ge a", "1106": "ge o", "1107": "gheg", "1108": "ghel", "1109": "gher", "1110": "ghes", "1111": "ghet", "1112": "ghez", "1113": "ghia", "1114": "ghie", "1115": "ghil", "1116": "ghio", "1117": "ghir", "1118": "gi e", "1119": "gi u", "1120": "giac", "1121": "gial", "1122": "giam", "1123": "gian", "1124": "giar", "1125": "gias", "1126": "gien", "1127": "gior", "1128": "giot", "1129": "giug", "1130": "giun", "1131": "giuo", "1132": "glau", "1133": "glet", "1134": "glia", "1135": "glie", "1136": "glio", "1137": "gnan", "1138": "gnar", "1139": "gnas", "1140": "gnaz", "1141": "gnel", "1142": "gnem", "1143": "gnen", "1144": "gner", "1145": "gnie", "1146": "gnon", "1147": "gnor", "1148": "gnuo", "1149": "go a", "1150": "go e", "1151": "graf", "1152": "gram", "1153": "gran", "1154": "grap", "1155": "gras", "1156": "grat", "1157": "greg", "1158": "grem", "1159": "grep", "1160": "gres", "1161": "grez", "1162": "grie", "1163": "grom", "1164": "gron", "1165": "grop", "1166": "gros", "1167": "grot", "1168": "guag", "1169": "gual", "1170": "guan", "1171": "guar", "1172": "guaz", "1173": "guef", "1174": "guel", "1175": "guen", "1176": "guer", "1177": "guet", "1178": "guic", "1179": "guil", "1180": "guir", "1181": "guit", "1182": "guiz", "1183": "g\u2019 \u00ef", "1184": "ie a", "1185": "la a", "1186": "la e", "1187": "la i", "1188": "la o", "1189": "la u", "1190": "le a", "1191": "le e", "1192": "le i", "1193": "le o", "1194": "le u", "1195": "li a", "1196": "li e", "1197": "li o", "1198": "li u", "1199": "li \u2019", "1200": "liev", "1201": "lo a", "1202": "lo e", "1203": "lo o", "1204": "lo u", "1205": "l\u00ec a", "1206": "l\u00ec e", "1207": "l\u2019 a", "1208": "l\u2019 e", "1209": "l\u2019 i", "1210": "l\u2019 o", "1211": "l\u2019 u", "1212": "l\u2019 \u00f2", "1213": "ma a", "1214": "ma e", "1215": "ma o", "1216": "ma u", "1217": "me a", "1218": "me e", "1219": "me i", "1220": "me o", "1221": "me u", "1222": "mi e", "1223": "mi o", "1224": "mi u", "1225": "mian", "1226": "mo a", "1227": "mo e", "1228": "mo i", "1229": "mo o", "1230": "mo u", "1231": "m\u2019 a", "1232": "m\u2019 e", "1233": "m\u2019 i", "1234": "m\u2019 o", "1235": "na a", "1236": "na e", "1237": "na i", "1238": "na o", "1239": "na u", "1240": "ne a", "1241": "ne e", "1242": "ne o", "1243": "ne u", "1244": "ni a", "1245": "ni e", "1246": "ni o", "1247": "ni u", "1248": "nian", "1249": "no a", "1250": "no e", "1251": "no i", "1252": "no o", "1253": "no u", "1254": "n\u2019 a", "1255": "n\u2019 e", "1256": "n\u2019 o", "1257": "n\u2019 u", "1258": "o al", "1259": "o ar", "1260": "o av", "1261": "pa e", "1262": "pa u", "1263": "pe e", "1264": "pe i", "1265": "pi a", "1266": "pi e", "1267": "pi i", "1268": "piac", "1269": "piag", "1270": "pian", "1271": "piat", "1272": "pien", "1273": "pier", "1274": "piez", "1275": "piog", "1276": "piom", "1277": "piov", "1278": "plan", "1279": "plau", "1280": "ples", "1281": "po a", "1282": "po e", "1283": "po o", "1284": "po u", "1285": "pran", "1286": "pren", "1287": "pres", "1288": "prez", "1289": "pric", "1290": "prie", "1291": "prin", "1292": "prir", "1293": "pris", "1294": "proc", "1295": "pron", "1296": "pros", "1297": "pruo", "1298": "puol", "1299": "puom", "1300": "puos", "1301": "p\u2019 e", "1302": "qual", "1303": "quan", "1304": "quar", "1305": "quat", "1306": "quel", "1307": "quen", "1308": "quer", "1309": "quil", "1310": "quin", "1311": "quis", "1312": "ra a", "1313": "ra e", "1314": "ra i", "1315": "ra o", "1316": "ra u", "1317": "re a", "1318": "re e", "1319": "re i", "1320": "re o", "1321": "re u", "1322": "ri e", "1323": "ri u", "1324": "ro a", "1325": "ro e", "1326": "ro i", "1327": "ro o", "1328": "ro u", "1329": "r\u00ec u", "1330": "r\u2019 o", "1331": "r\u2019 u", "1332": "sa a", "1333": "sa e", "1334": "sa o", "1335": "sa u", "1336": "sanc", "1337": "sban", "1338": "sbar", "1339": "sber", "1340": "sbra", "1341": "sbri", "1342": "scab", "1343": "scac", "1344": "scal", "1345": "scam", "1346": "scan", "1347": "scar", "1348": "scaz", "1349": "scel", "1350": "scem", "1351": "scen", "1352": "scer", "1353": "scet", "1354": "scev", "1355": "sche", "1356": "schi", "1357": "scia", "1358": "scic", "1359": "scie", "1360": "scim", "1361": "scin", "1362": "scio", "1363": "scir", "1364": "scis", "1365": "sciu", "1366": "scoc", "1367": "scol", "1368": "scom", "1369": "scon", "1370": "scop", "1371": "scor", "1372": "scos", "1373": "scot", "1374": "scov", "1375": "scre", "1376": "scri", "1377": "scro", "1378": "scuf", "1379": "scuo", "1380": "sdeg", "1381": "sden", "1382": "sdet", "1383": "sdru", "1384": "se a", "1385": "se e", "1386": "se i", "1387": "se o", "1388": "se u", "1389": "se \u00eb", "1390": "sfac", "1391": "sfam", "1392": "sfan", "1393": "sfar", "1394": "sfat", "1395": "sfer", "1396": "sfin", "1397": "sfio", "1398": "sfor", "1399": "sfre", "1400": "sgan", "1401": "sgom", "1402": "sgor", "1403": "sgra", "1404": "sgri", "1405": "si a", "1406": "si e", "1407": "si i", "1408": "si o", "1409": "si u", "1410": "slac", "1411": "smal", "1412": "sman", "1413": "smar", "1414": "smen", "1415": "smon", "1416": "smor", "1417": "smoz", "1418": "sneb", "1419": "snel", "1420": "so a", "1421": "so e", "1422": "so i", "1423": "so o", "1424": "so u", "1425": "spal", "1426": "span", "1427": "spar", "1428": "spaz", "1429": "spec", "1430": "spel", "1431": "spen", "1432": "sper", "1433": "spes", "1434": "spet", "1435": "spez", "1436": "spia", "1437": "spic", "1438": "spie", "1439": "spin", "1440": "spir", "1441": "spit", "1442": "spol", "1443": "spon", "1444": "spor", "1445": "spre", "1446": "spro", "1447": "spun", "1448": "spuo", "1449": "squa", "1450": "squi", "1451": "stal", "1452": "stam", "1453": "stan", "1454": "star", "1455": "stas", "1456": "stav", "1457": "stec", "1458": "stel", "1459": "stem", "1460": "sten", "1461": "ster", "1462": "stes", "1463": "stet", "1464": "stia", "1465": "stie", "1466": "stig", "1467": "stil", "1468": "stin", "1469": "stio", "1470": "stis", "1471": "stiz", "1472": "stol", "1473": "stop", "1474": "stor", "1475": "stra", "1476": "stre", "1477": "stri", "1478": "stro", "1479": "stru", "1480": "str\u00e0", "1481": "stuc", "1482": "stul", "1483": "stuo", "1484": "svel", "1485": "sven", "1486": "sver", "1487": "s\u00ec a", "1488": "s\u00ec i", "1489": "s\u2019 a", "1490": "s\u2019 e", "1491": "s\u2019 i", "1492": "s\u2019 o", "1493": "s\u2019 u", "1494": "s\u2019 \u00ef", "1495": "ta a", "1496": "ta e", "1497": "ta i", "1498": "ta o", "1499": "ta u", "1500": "te a", "1501": "te e", "1502": "te i", "1503": "te o", "1504": "te u", "1505": "ti a", "1506": "ti e", "1507": "ti i", "1508": "ti o", "1509": "ti u", "1510": "tiem", "1511": "tien", "1512": "tier", "1513": "to a", "1514": "to e", "1515": "to i", "1516": "to o", "1517": "to u", "1518": "trac", "1519": "trag", "1520": "trai", "1521": "tram", "1522": "tran", "1523": "trap", "1524": "trar", "1525": "tras", "1526": "trat", "1527": "treb", "1528": "trec", "1529": "tren", "1530": "tret", "1531": "trie", "1532": "troc", "1533": "trom", "1534": "tron", "1535": "trop", "1536": "tror", "1537": "trot", "1538": "trul", "1539": "truo", "1540": "t\u2019 a", "1541": "t\u2019 e", "1542": "t\u2019 o", "1543": "t\u2019 u", "1544": "va a", "1545": "va e", "1546": "va i", "1547": "va o", "1548": "va u", "1549": "ve a", "1550": "ve i", "1551": "ve u", "1552": "vi a", "1553": "vi e", "1554": "vi o", "1555": "viem", "1556": "vien", "1557": "vo o", "1558": "vuol", "1559": "v\u2019 a", "1560": "v\u2019 e", "1561": "v\u2019 o", "1562": "za a", "1563": "za i", "1564": "za o", "1565": "za u", "1566": "ze e", "1567": "ze o", "1568": "zi e", "1569": "zi o", "1570": "zi u", "1571": "zian", "1572": "ziar", "1573": "zo a", "1574": "zo e", "1575": "z\u2019 a", "1576": "z\u2019 i", "1577": "z\u2019 o", "1578": "\u00e8 im", "1579": "\u00e8 in", "1580": "\u2018glo", "1581": "\u2019vun", "1582": "ba in", "1583": "ba un", "1584": "be al", "1585": "be ar", "1586": "be as", "1587": "be av", "1588": "be on", "1589": "bi al", "1590": "bo al", "1591": "bo av", "1592": "bo on", "1593": "bra a", "1594": "bra e", "1595": "bra u", "1596": "bre a", "1597": "bre o", "1598": "b\u2019 es", "1599": "ca an", "1600": "ca en", "1601": "ca er", "1602": "ca in", "1603": "ca on", "1604": "ce ac", "1605": "ce af", "1606": "ce al", "1607": "ce an", "1608": "ce ar", "1609": "ce as", "1610": "ce at", "1611": "ce au", "1612": "ce av", "1613": "ce es", "1614": "ce et", "1615": "ce eu", "1616": "ce im", "1617": "ce in", "1618": "ce on", "1619": "cea u", "1620": "che a", "1621": "che e", "1622": "che u", "1623": "chi a", "1624": "chi e", "1625": "chi o", "1626": "chi u", "1627": "chian", "1628": "chiap", "1629": "chiar", "1630": "chias", "1631": "chiet", "1632": "chioc", "1633": "ch\u2019 a", "1634": "ch\u2019 e", "1635": "ch\u2019 i", "1636": "ch\u2019 o", "1637": "ch\u2019 u", "1638": "ch\u2019 \u00ef", "1639": "ci ad", "1640": "ci af", "1641": "ci al", "1642": "ci am", "1643": "ci an", "1644": "ci ap", "1645": "ci ar", "1646": "ci as", "1647": "ci at", "1648": "ci av", "1649": "ci in", "1650": "ci or", "1651": "ci \u2019n", "1652": "cia a", "1653": "cia e", "1654": "cia o", "1655": "cio a", "1656": "cio e", "1657": "co ac", "1658": "co ad", "1659": "co al", "1660": "co an", "1661": "co ap", "1662": "co ar", "1663": "co at", "1664": "co av", "1665": "co eb", "1666": "co er", "1667": "co et", "1668": "co in", "1669": "co on", "1670": "cro a", "1671": "c\u2019 en", "1672": "c\u2019 im", "1673": "da an", "1674": "da in", "1675": "de ac", "1676": "de af", "1677": "de ag", "1678": "de al", "1679": "de am", "1680": "de an", "1681": "de ap", "1682": "de ar", "1683": "de as", "1684": "de au", "1685": "de er", "1686": "de eu", "1687": "de in", "1688": "de of", "1689": "de om", "1690": "de on", "1691": "de or", "1692": "de \u2019n", "1693": "dea u", "1694": "di ab", "1695": "di ac", "1696": "di ad", "1697": "di af", "1698": "di al", "1699": "di an", "1700": "di av", "1701": "di az", "1702": "di es", "1703": "di im", "1704": "di in", "1705": "di of", "1706": "di og", "1707": "di ol", "1708": "di om", "1709": "di on", "1710": "di or", "1711": "dio i", "1712": "do ac", "1713": "do af", "1714": "do al", "1715": "do am", "1716": "do an", "1717": "do ap", "1718": "do ar", "1719": "do as", "1720": "do at", "1721": "do eb", "1722": "do ec", "1723": "do el", "1724": "do er", "1725": "do es", "1726": "do im", "1727": "do in", "1728": "do oc", "1729": "do ol", "1730": "do on", "1731": "do or", "1732": "dre e", "1733": "d\u2019 ab", "1734": "d\u2019 ac", "1735": "d\u2019 af", "1736": "d\u2019 al", "1737": "d\u2019 am", "1738": "d\u2019 an", "1739": "d\u2019 ap", "1740": "d\u2019 ar", "1741": "d\u2019 as", "1742": "d\u2019 at", "1743": "d\u2019 au", "1744": "d\u2019 az", "1745": "d\u2019 eb", "1746": "d\u2019 el", "1747": "d\u2019 en", "1748": "d\u2019 er", "1749": "d\u2019 es", "1750": "d\u2019 et", "1751": "d\u2019 eu", "1752": "d\u2019 im", "1753": "d\u2019 in", "1754": "d\u2019 oc", "1755": "d\u2019 of", "1756": "d\u2019 og", "1757": "d\u2019 ol", "1758": "d\u2019 om", "1759": "d\u2019 on", "1760": "d\u2019 or", "1761": "d\u2019 os", "1762": "d\u2019 ot", "1763": "d\u2019 ur", "1764": "fa az", "1765": "fe et", "1766": "fo et", "1767": "fo im", "1768": "fu ap", "1769": "fu el", "1770": "fu im", "1771": "fu in", "1772": "f\u00e9 in", "1773": "ga an", "1774": "ga as", "1775": "ga in", "1776": "ge an", "1777": "ge et", "1778": "ge in", "1779": "ge un", "1780": "ghiac", "1781": "ghian", "1782": "ghien", "1783": "ghiot", "1784": "gi an", "1785": "gi ar", "1786": "gia e", "1787": "gia o", "1788": "gli u", "1789": "gliam", "1790": "glian", "1791": "gliar", "1792": "gliel", "1793": "glien", "1794": "glies", "1795": "gliet", "1796": "gliuo", "1797": "gna a", "1798": "gne a", "1799": "gne o", "1800": "gne u", "1801": "gni e", "1802": "gno a", "1803": "gno u", "1804": "go al", "1805": "go es", "1806": "go in", "1807": "ha \u2019n", "1808": "hi om", "1809": "ia al", "1810": "ia an", "1811": "la al", "1812": "la an", "1813": "la ap", "1814": "la au", "1815": "la av", "1816": "la el", "1817": "la en", "1818": "la es", "1819": "la in", "1820": "la of", "1821": "la ol", "1822": "la on", "1823": "la or", "1824": "la \u2019m", "1825": "la \u2019n", "1826": "le ad", "1827": "le al", "1828": "le am", "1829": "le an", "1830": "le ap", "1831": "le ar", "1832": "le as", "1833": "le at", "1834": "le av", "1835": "le es", "1836": "le id", "1837": "le in", "1838": "le oc", "1839": "le of", "1840": "le ol", "1841": "le on", "1842": "le or", "1843": "le uc", "1844": "le \u2019m", "1845": "le \u2019n", "1846": "li ab", "1847": "li ac", "1848": "li ad", "1849": "li af", "1850": "li ag", "1851": "li al", "1852": "li am", "1853": "li an", "1854": "li ap", "1855": "li ar", "1856": "li as", "1857": "li at", "1858": "li au", "1859": "li av", "1860": "li eb", "1861": "li em", "1862": "li er", "1863": "li es", "1864": "li et", "1865": "li im", "1866": "li in", "1867": "li oc", "1868": "li of", "1869": "li om", "1870": "li on", "1871": "li or", "1872": "li uc", "1873": "li ul", "1874": "li un", "1875": "li uo", "1876": "li \u2019m", "1877": "li \u2019n", "1878": "lia a", "1879": "lo ac", "1880": "lo af", "1881": "lo al", "1882": "lo an", "1883": "lo ar", "1884": "lo as", "1885": "lo at", "1886": "lo av", "1887": "lo eb", "1888": "lo ef", "1889": "lo er", "1890": "lo es", "1891": "lo il", "1892": "lo im", "1893": "lo in", "1894": "lo of", "1895": "lo on", "1896": "lo \u2019m", "1897": "lo \u2019n", "1898": "l\u00ec en", "1899": "l\u2019 ab", "1900": "l\u2019 ac", "1901": "l\u2019 ad", "1902": "l\u2019 ae", "1903": "l\u2019 af", "1904": "l\u2019 ag", "1905": "l\u2019 ai", "1906": "l\u2019 al", "1907": "l\u2019 am", "1908": "l\u2019 an", "1909": "l\u2019 ap", "1910": "l\u2019 ar", "1911": "l\u2019 as", "1912": "l\u2019 at", "1913": "l\u2019 au", "1914": "l\u2019 av", "1915": "l\u2019 eb", "1916": "l\u2019 ec", "1917": "l\u2019 ef", "1918": "l\u2019 el", "1919": "l\u2019 em", "1920": "l\u2019 en", "1921": "l\u2019 er", "1922": "l\u2019 es", "1923": "l\u2019 et", "1924": "l\u2019 im", "1925": "l\u2019 in", "1926": "l\u2019 oc", "1927": "l\u2019 of", "1928": "l\u2019 ol", "1929": "l\u2019 om", "1930": "l\u2019 on", "1931": "l\u2019 op", "1932": "l\u2019 or", "1933": "l\u2019 os", "1934": "l\u2019 ot", "1935": "l\u2019 ov", "1936": "l\u2019 uc", "1937": "l\u2019 ul", "1938": "l\u2019 um", "1939": "l\u2019 un", "1940": "l\u2019 uo", "1941": "l\u2019 \u00e0n", "1942": "ma ac", "1943": "ma al", "1944": "ma an", "1945": "ma ap", "1946": "ma es", "1947": "ma in", "1948": "ma of", "1949": "ma on", "1950": "ma or", "1951": "ma \u2019n", "1952": "me ac", "1953": "me af", "1954": "me al", "1955": "me am", "1956": "me an", "1957": "me ap", "1958": "me ar", "1959": "me as", "1960": "me at", "1961": "me au", "1962": "me ef", "1963": "me in", "1964": "me of", "1965": "me on", "1966": "mi ac", "1967": "mi ad", "1968": "mi al", "1969": "mi am", "1970": "mi an", "1971": "mi ap", "1972": "mi ef", "1973": "mi er", "1974": "mi in", "1975": "mi \u2019n", "1976": "mo ac", "1977": "mo af", "1978": "mo al", "1979": "mo an", "1980": "mo ar", "1981": "mo at", "1982": "mo eb", "1983": "mo ec", "1984": "mo es", "1985": "mo im", "1986": "mo in", "1987": "mo of", "1988": "mo ol", "1989": "mo on", "1990": "mo or", "1991": "m\u2019 ab", "1992": "m\u2019 ac", "1993": "m\u2019 ad", "1994": "m\u2019 af", "1995": "m\u2019 ag", "1996": "m\u2019 al", "1997": "m\u2019 an", "1998": "m\u2019 ap", "1999": "m\u2019 ar", "2000": "m\u2019 as", "2001": "m\u2019 at", "2002": "m\u2019 av", "2003": "m\u2019 eb", "2004": "m\u2019 es", "2005": "m\u2019 im", "2006": "m\u2019 in", "2007": "m\u2019 of", "2008": "m\u2019 ol", "2009": "m\u2019 om", "2010": "na ab", "2011": "na ac", "2012": "na af", "2013": "na ap", "2014": "na ar", "2015": "na at", "2016": "na av", "2017": "na eb", "2018": "na es", "2019": "na in", "2020": "na of", "2021": "na on", "2022": "na or", "2023": "na \u2019n", "2024": "ne ac", "2025": "ne af", "2026": "ne ag", "2027": "ne al", "2028": "ne an", "2029": "ne ap", "2030": "ne ar", "2031": "ne as", "2032": "ne av", "2033": "ne em", "2034": "ne es", "2035": "ne et", "2036": "ne im", "2037": "ne in", "2038": "ne on", "2039": "ne ov", "2040": "ne \u2019m", "2041": "ne \u2019n", "2042": "ni al", "2043": "ni am", "2044": "ni an", "2045": "ni ap", "2046": "ni as", "2047": "ni av", "2048": "ni en", "2049": "ni es", "2050": "ni in", "2051": "ni on", "2052": "no ab", "2053": "no ac", "2054": "no ad", "2055": "no af", "2056": "no ag", "2057": "no al", "2058": "no am", "2059": "no an", "2060": "no ap", "2061": "no ar", "2062": "no as", "2063": "no at", "2064": "no au", "2065": "no av", "2066": "no ec", "2067": "no er", "2068": "no es", "2069": "no et", "2070": "no im", "2071": "no in", "2072": "no om", "2073": "no or", "2074": "no \u2019n", "2075": "n\u2019 ab", "2076": "n\u2019 ac", "2077": "n\u2019 ag", "2078": "n\u2019 al", "2079": "n\u2019 am", "2080": "n\u2019 an", "2081": "n\u2019 ap", "2082": "n\u2019 ar", "2083": "n\u2019 at", "2084": "n\u2019 au", "2085": "n\u2019 av", "2086": "n\u2019 eb", "2087": "n\u2019 er", "2088": "n\u2019 in", "2089": "n\u2019 ol", "2090": "n\u2019 om", "2091": "n\u2019 on", "2092": "n\u2019 uo", "2093": "pa es", "2094": "pa in", "2095": "pi ap", "2096": "pi in", "2097": "pi or", "2098": "pie e", "2099": "pi\u00f9 a", "2100": "po al", "2101": "po an", "2102": "po ar", "2103": "po av", "2104": "po in", "2105": "po on", "2106": "pra a", "2107": "pre a", "2108": "pre e", "2109": "pr\u2019 e", "2110": "qua e", "2111": "que o", "2112": "que u", "2113": "qu\u2019 e", "2114": "qu\u2019 o", "2115": "ra ab", "2116": "ra ac", "2117": "ra ad", "2118": "ra al", "2119": "ra am", "2120": "ra an", "2121": "ra ap", "2122": "ra as", "2123": "ra at", "2124": "ra av", "2125": "ra eb", "2126": "ra ec", "2127": "ra el", "2128": "ra es", "2129": "ra et", "2130": "ra im", "2131": "ra in", "2132": "ra of", "2133": "ra on", "2134": "ra ot", "2135": "ra uc", "2136": "re ab", "2137": "re ac", "2138": "re ad", "2139": "re af", "2140": "re ag", "2141": "re al", "2142": "re am", "2143": "re an", "2144": "re ap", "2145": "re ar", "2146": "re as", "2147": "re at", "2148": "re au", "2149": "re av", "2150": "re eb", "2151": "re em", "2152": "re en", "2153": "re es", "2154": "re et", "2155": "re il", "2156": "re im", "2157": "re in", "2158": "re oc", "2159": "re ol", "2160": "re om", "2161": "re on", "2162": "re ot", "2163": "ri ac", "2164": "ri al", "2165": "ri an", "2166": "ri ap", "2167": "ri ar", "2168": "ri in", "2169": "ri on", "2170": "rio a", "2171": "ro ab", "2172": "ro ac", "2173": "ro al", "2174": "ro am", "2175": "ro an", "2176": "ro ap", "2177": "ro ar", "2178": "ro as", "2179": "ro at", "2180": "ro au", "2181": "ro av", "2182": "ro eb", "2183": "ro es", "2184": "ro im", "2185": "ro in", "2186": "ro oc", "2187": "ro of", "2188": "ro on", "2189": "ro or", "2190": "ro um", "2191": "r\u2019 al", "2192": "r\u2019 an", "2193": "r\u2019 el", "2194": "r\u2019 es", "2195": "sa ac", "2196": "sa an", "2197": "sa ap", "2198": "sa es", "2199": "sa im", "2200": "sa in", "2201": "sa og", "2202": "sa ol", "2203": "sa on", "2204": "sbe a", "2205": "sce a", "2206": "scheg", "2207": "schem", "2208": "scher", "2209": "schet", "2210": "schia", "2211": "schic", "2212": "schie", "2213": "schio", "2214": "schiu", "2215": "scial", "2216": "sciam", "2217": "scian", "2218": "sciar", "2219": "scias", "2220": "sciau", "2221": "scioc", "2222": "sciol", "2223": "sciom", "2224": "sciut", "2225": "sci\u00e0n", "2226": "sco o", "2227": "sco u", "2228": "scran", "2229": "scrip", "2230": "scris", "2231": "scrit", "2232": "se ac", "2233": "se af", "2234": "se al", "2235": "se an", "2236": "se ap", "2237": "se as", "2238": "se at", "2239": "se ec", "2240": "se es", "2241": "se in", "2242": "se on", "2243": "se op", "2244": "se un", "2245": "se \u2019n", "2246": "sfran", "2247": "sgher", "2248": "sgiun", "2249": "sgrie", "2250": "sguar", "2251": "si ac", "2252": "si ad", "2253": "si al", "2254": "si am", "2255": "si an", "2256": "si ar", "2257": "si as", "2258": "si at", "2259": "si av", "2260": "si el", "2261": "si en", "2262": "si er", "2263": "si im", "2264": "si in", "2265": "si of", "2266": "si og", "2267": "si ol", "2268": "si or", "2269": "si \u2019m", "2270": "si \u2019n", "2271": "smo a", "2272": "so ab", "2273": "so ad", "2274": "so al", "2275": "so am", "2276": "so an", "2277": "so ap", "2278": "so ar", "2279": "so as", "2280": "so at", "2281": "so eb", "2282": "so en", "2283": "so es", "2284": "so et", "2285": "so in", "2286": "so of", "2287": "so on", "2288": "so \u2019n", "2289": "spiac", "2290": "splen", "2291": "spran", "2292": "spraz", "2293": "spres", "2294": "squar", "2295": "squil", "2296": "sta a", "2297": "sta e", "2298": "sta i", "2299": "sta o", "2300": "sta u", "2301": "ste a", "2302": "ste i", "2303": "sti a", "2304": "sti o", "2305": "sto a", "2306": "sto e", "2307": "sto o", "2308": "strac", "2309": "stram", "2310": "stran", "2311": "strar", "2312": "stras", "2313": "strat", "2314": "streg", "2315": "strel", "2316": "stren", "2317": "stret", "2318": "stric", "2319": "strin", "2320": "stroc", "2321": "strom", "2322": "stroz", "2323": "strug", "2324": "strut", "2325": "st\u2019 a", "2326": "st\u2019 o", "2327": "st\u2019 u", "2328": "suo a", "2329": "s\u00ec in", "2330": "s\u00ec \u2019m", "2331": "s\u00ec \u2019n", "2332": "s\u2019 ab", "2333": "s\u2019 ac", "2334": "s\u2019 ad", "2335": "s\u2019 af", "2336": "s\u2019 ag", "2337": "s\u2019 al", "2338": "s\u2019 am", "2339": "s\u2019 an", "2340": "s\u2019 ap", "2341": "s\u2019 ar", "2342": "s\u2019 as", "2343": "s\u2019 at", "2344": "s\u2019 av", "2345": "s\u2019 eb", "2346": "s\u2019 el", "2347": "s\u2019 em", "2348": "s\u2019 en", "2349": "s\u2019 er", "2350": "s\u2019 es", "2351": "s\u2019 et", "2352": "s\u2019 im", "2353": "s\u2019 in", "2354": "s\u2019 of", "2355": "s\u2019 op", "2356": "s\u2019 os", "2357": "ta ab", "2358": "ta ac", "2359": "ta ad", "2360": "ta al", "2361": "ta am", "2362": "ta an", "2363": "ta ar", "2364": "ta as", "2365": "ta at", "2366": "ta el", "2367": "ta es", "2368": "ta et", "2369": "ta eu", "2370": "ta im", "2371": "ta in", "2372": "ta of", "2373": "ta om", "2374": "ta on", "2375": "ta op", "2376": "ta un", "2377": "te ab", "2378": "te ac", "2379": "te ad", "2380": "te af", "2381": "te ag", "2382": "te al", "2383": "te an", "2384": "te ap", "2385": "te ar", "2386": "te as", "2387": "te at", "2388": "te au", "2389": "te em", "2390": "te en", "2391": "te er", "2392": "te es", "2393": "te im", "2394": "te in", "2395": "te is", "2396": "te of", "2397": "te ol", "2398": "te om", "2399": "te on", "2400": "te or", "2401": "te os", "2402": "te \u2019n", "2403": "ti ac", "2404": "ti ad", "2405": "ti al", "2406": "ti am", "2407": "ti an", "2408": "ti ar", "2409": "ti as", "2410": "ti at", "2411": "ti av", "2412": "ti en", "2413": "ti et", "2414": "ti im", "2415": "ti in", "2416": "ti oc", "2417": "ti of", "2418": "ti or", "2419": "ti \u2019m", "2420": "ti \u2019n", "2421": "to ab", "2422": "to ac", "2423": "to ad", "2424": "to af", "2425": "to ag", "2426": "to al", "2427": "to an", "2428": "to ap", "2429": "to ar", "2430": "to as", "2431": "to at", "2432": "to av", "2433": "to eb", "2434": "to ec", "2435": "to ef", "2436": "to es", "2437": "to et", "2438": "to im", "2439": "to in", "2440": "to oc", "2441": "to of", "2442": "to ol", "2443": "to on", "2444": "to or", "2445": "to ov", "2446": "to uc", "2447": "tra a", "2448": "tra e", "2449": "tra i", "2450": "tra u", "2451": "tri a", "2452": "tri e", "2453": "tri o", "2454": "tro a", "2455": "tro e", "2456": "tro i", "2457": "tro o", "2458": "tro u", "2459": "tr\u2019 a", "2460": "tr\u2019 e", "2461": "tu ha", "2462": "t\u00e0 in", "2463": "t\u2019 ab", "2464": "t\u2019 ac", "2465": "t\u2019 af", "2466": "t\u2019 ag", "2467": "t\u2019 al", "2468": "t\u2019 am", "2469": "t\u2019 an", "2470": "t\u2019 ap", "2471": "t\u2019 ar", "2472": "t\u2019 as", "2473": "t\u2019 at", "2474": "t\u2019 av", "2475": "t\u2019 el", "2476": "t\u2019 em", "2477": "t\u2019 es", "2478": "t\u2019 im", "2479": "t\u2019 in", "2480": "t\u2019 om", "2481": "t\u2019 or", "2482": "va al", "2483": "va an", "2484": "va ar", "2485": "va at", "2486": "va eb", "2487": "va id", "2488": "va im", "2489": "va in", "2490": "va \u2019n", "2491": "ve al", "2492": "ve an", "2493": "ve ap", "2494": "ve ar", "2495": "ve at", "2496": "ve es", "2497": "ve oc", "2498": "vi ac", "2499": "vi al", "2500": "vi am", "2501": "vi an", "2502": "vi ar", "2503": "vi as", "2504": "vi av", "2505": "vi en", "2506": "vi in", "2507": "vi of", "2508": "vi on", "2509": "vi \u2019m", "2510": "vo ac", "2511": "vo al", "2512": "vo an", "2513": "vo as", "2514": "vo at", "2515": "vo au", "2516": "v\u2019 ab", "2517": "v\u2019 ac", "2518": "v\u2019 al", "2519": "v\u2019 am", "2520": "v\u2019 an", "2521": "v\u2019 ap", "2522": "v\u2019 ar", "2523": "v\u2019 eb", "2524": "v\u2019 el", "2525": "v\u2019 er", "2526": "v\u2019 es", "2527": "v\u2019 et", "2528": "v\u2019 in", "2529": "v\u2019 of", "2530": "za al", "2531": "za am", "2532": "za an", "2533": "za er", "2534": "za et", "2535": "za im", "2536": "za in", "2537": "za on", "2538": "za \u2019n", "2539": "ze es", "2540": "ze et", "2541": "ze or", "2542": "zi ag", "2543": "zi al", "2544": "zi ap", "2545": "zi as", "2546": "zi at", "2547": "zi \u2019m", "2548": "zia e", "2549": "zia o", "2550": "zie o", "2551": "zio a", "2552": "zio e", "2553": "zio u", "2554": "zo an", "2555": "zo ar", "2556": "zo as", "2557": "zo in", "2558": "z\u2019 al", "2559": "z\u2019 ar", "2560": "z\u2019 es", "2561": "\u2019ve o", "2562": "\u2019v\u2019 e", "2563": "\u2019v\u2019 u", "2564": "bia an", "2565": "bia in", "2566": "bra av", "2567": "bra in", "2568": "bre an", "2569": "bre et", "2570": "bre in", "2571": "bri ap", "2572": "che an", "2573": "che ar", "2574": "che ha", "2575": "che in", "2576": "che om", "2577": "che op", "2578": "che \u2019m", "2579": "che \u2019n", "2580": "chi ac", "2581": "chi af", "2582": "chi al", "2583": "chi am", "2584": "chi an", "2585": "chi ap", "2586": "chi ar", "2587": "chi in", "2588": "chi on", "2589": "chio a", "2590": "chio o", "2591": "chio u", "2592": "ch\u00e9 ap", "2593": "ch\u00e9 as", "2594": "ch\u00e9 in", "2595": "ch\u2019 ab", "2596": "ch\u2019 ac", "2597": "ch\u2019 ad", "2598": "ch\u2019 ag", "2599": "ch\u2019 al", "2600": "ch\u2019 am", "2601": "ch\u2019 an", "2602": "ch\u2019 ap", "2603": "ch\u2019 ar", "2604": "ch\u2019 as", "2605": "ch\u2019 at", "2606": "ch\u2019 av", "2607": "ch\u2019 eb", "2608": "ch\u2019 el", "2609": "ch\u2019 en", "2610": "ch\u2019 er", "2611": "ch\u2019 es", "2612": "ch\u2019 et", "2613": "ch\u2019 in", "2614": "ch\u2019 og", "2615": "ch\u2019 or", "2616": "cia ar", "2617": "cia im", "2618": "cia on", "2619": "cie in", "2620": "cio al", "2621": "cio an", "2622": "cio ap", "2623": "cio as", "2624": "cio et", "2625": "co e i", "2626": "c\u2019 han", "2627": "dia as", "2628": "dre al", "2629": "dre an", "2630": "dre as", "2631": "dre eb", "2632": "dre es", "2633": "d\u2019 han", "2634": "ghe on", "2635": "gh\u2019 es", "2636": "gia al", "2637": "gia ar", "2638": "gia in", "2639": "gio et", "2640": "gio in", "2641": "gio ol", "2642": "gio on", "2643": "gio uc", "2644": "gi\u00e0 in", "2645": "glia a", "2646": "glia o", "2647": "glia u", "2648": "glio e", "2649": "glio o", "2650": "glio u", "2651": "gna as", "2652": "gna in", "2653": "gne ac", "2654": "gne al", "2655": "gne ef", "2656": "gne er", "2657": "gne im", "2658": "gne in", "2659": "gne uo", "2660": "gni al", "2661": "gni an", "2662": "gno ae", "2663": "gno af", "2664": "gno al", "2665": "gno am", "2666": "gno in", "2667": "go han", "2668": "gue an", "2669": "gue on", "2670": "gue or", "2671": "li han", "2672": "lia an", "2673": "lio an", "2674": "lio as", "2675": "lio in", "2676": "l\u2019 han", "2677": "l\u2019 \u00e8 u", "2678": "mia in", "2679": "mia \u2019n", "2680": "mio in", "2681": "mio \u2019n", "2682": "m\u2019 han", "2683": "ne han", "2684": "nio im", "2685": "n\u2019 han", "2686": "pie or", "2687": "pio on", "2688": "pi\u00f9 ap", "2689": "pi\u00f9 in", "2690": "pi\u00f9 \u2019n", "2691": "pre ac", "2692": "pre al", "2693": "pre ar", "2694": "pre at", "2695": "pre es", "2696": "pre in", "2697": "pr\u2019 ar", "2698": "qua im", "2699": "qua in", "2700": "qua of", "2701": "qua on", "2702": "que al", "2703": "que es", "2704": "qu\u2019 an", "2705": "re e a", "2706": "ri han", "2707": "ria in", "2708": "ria of", "2709": "ria on", "2710": "rio an", "2711": "sce al", "2712": "sce an", "2713": "sce as", "2714": "sce el", "2715": "schian", "2716": "schiat", "2717": "schiet", "2718": "scia e", "2719": "scio e", "2720": "sco al", "2721": "sco an", "2722": "sio in", "2723": "sma in", "2724": "sta ai", "2725": "sta al", "2726": "sta an", "2727": "sta im", "2728": "sta in", "2729": "sta og", "2730": "sta ol", "2731": "ste an", "2732": "ste in", "2733": "sti al", "2734": "sti an", "2735": "sti av", "2736": "sti el", "2737": "sti er", "2738": "sti es", "2739": "sti in", "2740": "sti oc", "2741": "sti on", "2742": "sti or", "2743": "sti un", "2744": "sto ac", "2745": "sto al", "2746": "sto an", "2747": "sto ap", "2748": "sto ar", "2749": "sto at", "2750": "sto es", "2751": "sto im", "2752": "sto in", "2753": "sto of", "2754": "sto on", "2755": "sto \u2019m", "2756": "sto \u2019n", "2757": "stra a", "2758": "stra e", "2759": "stra i", "2760": "stra u", "2761": "stri a", "2762": "stri o", "2763": "stro a", "2764": "stro e", "2765": "stro o", "2766": "stro u", "2767": "str\u2019 u", "2768": "st\u2019 ac", "2769": "st\u2019 al", "2770": "st\u2019 an", "2771": "st\u2019 ar", "2772": "st\u2019 es", "2773": "st\u2019 in", "2774": "st\u2019 of", "2775": "st\u2019 ot", "2776": "st\u2019 ul", "2777": "suo im", "2778": "te han", "2779": "ti han", "2780": "tra an", "2781": "tra av", "2782": "tra ef", "2783": "tra op", "2784": "tra \u2019m", "2785": "tre an", "2786": "tre in", "2787": "tre os", "2788": "tri af", "2789": "tri ap", "2790": "tri as", "2791": "tri es", "2792": "tri in", "2793": "tri of", "2794": "tro ab", "2795": "tro ac", "2796": "tro al", "2797": "tro an", "2798": "tro ap", "2799": "tro ar", "2800": "tro as", "2801": "tro av", "2802": "tro et", "2803": "tro im", "2804": "tro in", "2805": "tro of", "2806": "tro on", "2807": "tro \u2019m", "2808": "tr\u2019 al", "2809": "tr\u2019 am", "2810": "tr\u2019 ar", "2811": "tr\u2019 om", "2812": "t\u2019 han", "2813": "vea \u2019m", "2814": "vi \u00e8 a", "2815": "vio in", "2816": "zia il", "2817": "zia on", "2818": "zia or", "2819": "zie ec", "2820": "chia an", "2821": "chia of", "2822": "chie et", "2823": "chio an", "2824": "chio at", "2825": "chio in", "2826": "dio han", "2827": "d\u2019 i\u2019 a", "2828": "glia ac", "2829": "glia al", "2830": "glia as", "2831": "glia es", "2832": "glia in", "2833": "glie al", "2834": "glie an", "2835": "glie eb", "2836": "glio an", "2837": "glio as", "2838": "glio es", "2839": "glio in", "2840": "glio on", "2841": "li \u00e8 in", "2842": "lo e \u2019n", "2843": "mi smar", "2844": "n\u2019 \u00e8 im", "2845": "re a \u2019n", "2846": "sche ab", "2847": "sche er", "2848": "scia al", "2849": "scia an", "2850": "si e \u2019n", "2851": "stra ap", "2852": "stra ef", "2853": "stra in", "2854": "stre in", "2855": "stri af", "2856": "stri al", "2857": "stri an", "2858": "stri at", "2859": "stri av", "2860": "stri ef", "2861": "stro ac", "2862": "stro al", "2863": "stro an", "2864": "stro as", "2865": "stro av", "2866": "stro eb", "2867": "stro es", "2868": "stro im", "2869": "stro in", "2870": "stro oc", "2871": "stro uc", "2872": "str\u2019 ar", "2873": "str\u2019 or", "2874": "ti e ar", "2875": "ti e \u2019n", "2876": "trio al", "2877": "za e in", "2878": "sti a \u2019n", "2879": "t\u2019 ho in", "2880": "ch\u2019 e\u2019 \u2019n", "2881": "ch\u2019 io \u2019n", "2882": "a ", "2883": "d ", "2884": "e ", "2885": "i ", "2886": "l ", "2887": "o ", "2888": "p ", "2889": "\u00e8 ", "2890": "\u00ec ", "2891": "\u00ef ", "2892": "\u00f2 ", "2893": "\u00f9 ", "2894": "ab ", "2895": "ad ", "2896": "ae ", "2897": "ai ", "2898": "al ", "2899": "am ", "2900": "an ", "2901": "ar ", "2902": "as ", "2903": "a\u2019 ", "2904": "ba ", "2905": "be ", "2906": "bi ", "2907": "bo ", "2908": "b\u00e8 ", "2909": "b\u00ec ", "2910": "b\u00f2 ", "2911": "b\u00f9 ", "2912": "ca ", "2913": "ce ", "2914": "ci ", "2915": "co ", "2916": "c\u00e8 ", "2917": "c\u00e9 ", "2918": "c\u00f2 ", "2919": "da ", "2920": "de ", "2921": "di ", "2922": "do ", "2923": "d\u00e0 ", "2924": "d\u00e9 ", "2925": "d\u00ec ", "2926": "d\u00f2 ", "2927": "ed ", "2928": "ei ", "2929": "el ", "2930": "et ", "2931": "e\u2019 ", "2932": "fa ", "2933": "fe ", "2934": "fi ", "2935": "fo ", "2936": "fu ", "2937": "f\u00e0 ", "2938": "f\u00e9 ", "2939": "f\u00f2 ", "2940": "ga ", "2941": "ge ", "2942": "gi ", "2943": "go ", "2944": "g\u00ec ", "2945": "g\u00f2 ", "2946": "ha ", "2947": "hi ", "2948": "ho ", "2949": "ia ", "2950": "ie ", "2951": "il ", "2952": "in ", "2953": "io ", "2954": "ir ", "2955": "i\u2019 ", "2956": "la ", "2957": "le ", "2958": "li ", "2959": "lo ", "2960": "l\u00e0 ", "2961": "l\u00e8 ", "2962": "l\u00ec ", "2963": "l\u00f2 ", "2964": "ma ", "2965": "me ", "2966": "mi ", "2967": "mo ", "2968": "m\u00e8 ", "2969": "m\u00f2 ", "2970": "na ", "2971": "ne ", "2972": "ni ", "2973": "no ", "2974": "n\u00e0 ", "2975": "n\u00e8 ", "2976": "n\u00e9 ", "2977": "n\u00ec ", "2978": "n\u00f2 ", "2979": "od ", "2980": "oh ", "2981": "om ", "2982": "on ", "2983": "or ", "2984": "os ", "2985": "pa ", "2986": "pe ", "2987": "pi ", "2988": "po ", "2989": "p\u00e8 ", "2990": "p\u00f2 ", "2991": "ra ", "2992": "re ", "2993": "ri ", "2994": "ro ", "2995": "r\u00e0 ", "2996": "r\u00ec ", "2997": "r\u00f2 ", "2998": "sa ", "2999": "se ", "3000": "si ", "3001": "so ", "3002": "su ", "3003": "s\u00e8 ", "3004": "s\u00e9 ", "3005": "s\u00ec ", "3006": "s\u00f2 ", "3007": "s\u00f9 ", "3008": "ta ", "3009": "te ", "3010": "ti ", "3011": "to ", "3012": "tu ", "3013": "t\u00e0 ", "3014": "t\u00e8 ", "3015": "t\u00e9 ", "3016": "t\u00ec ", "3017": "t\u00f2 ", "3018": "t\u00f9 ", "3019": "um ", "3020": "un ", "3021": "us ", "3022": "u\u2019 ", "3023": "va ", "3024": "ve ", "3025": "vi ", "3026": "vo ", "3027": "v\u00ec ", "3028": "v\u00f2 ", "3029": "za ", "3030": "ze ", "3031": "zi ", "3032": "zo ", "3033": "z\u00f2 ", "3034": "\u00e0m ", "3035": "\u00e0r ", "3036": "\u00e0s ", "3037": "\u00e8e ", "3038": "\u00e8l ", "3039": "\u00e9n ", "3040": "\u00ecs ", "3041": "\u00f2n ", "3042": "\u00f2s ", "3043": "\u00f3n ", "3044": "\u00f9l ", "3045": "a a ", "3046": "a e ", "3047": "a i ", "3048": "ahi ", "3049": "ban ", "3050": "bar ", "3051": "bee ", "3052": "bei ", "3053": "bel ", "3054": "ben ", "3055": "beo ", "3056": "ber ", "3057": "bia ", "3058": "bil ", "3059": "bin ", "3060": "bio ", "3061": "bir ", "3062": "bis ", "3063": "bi\u00f2 ", "3064": "bol ", "3065": "bon ", "3066": "bor ", "3067": "bra ", "3068": "bre ", "3069": "bri ", "3070": "bro ", "3071": "bue ", "3072": "bui ", "3073": "bus ", "3074": "b\u00e0l ", "3075": "b\u00e8l ", "3076": "b\u00eca ", "3077": "cai ", "3078": "cal ", "3079": "can ", "3080": "car ", "3081": "cea ", "3082": "cei ", "3083": "cel ", "3084": "cem ", "3085": "cen ", "3086": "ceo ", "3087": "cer ", "3088": "ces ", "3089": "che ", "3090": "chi ", "3091": "ch\u00e9 ", "3092": "cia ", "3093": "cie ", "3094": "cil ", "3095": "cin ", "3096": "cio ", "3097": "cis ", "3098": "ci\u00f2 ", "3099": "cle ", "3100": "clo ", "3101": "coi ", "3102": "col ", "3103": "con ", "3104": "cor ", "3105": "co\u2019 ", "3106": "cra ", "3107": "cre ", "3108": "cri ", "3109": "cro ", "3110": "cui ", "3111": "cul ", "3112": "cum ", "3113": "cun ", "3114": "cur ", "3115": "cut ", "3116": "cu\u2019 ", "3117": "c\u00e0n ", "3118": "c\u00f2b ", "3119": "c\u00f2l ", "3120": "dai ", "3121": "dal ", "3122": "dan ", "3123": "dar ", "3124": "da\u2019 ", "3125": "dea ", "3126": "dee ", "3127": "deh ", "3128": "dei ", "3129": "del ", "3130": "dem ", "3131": "deo ", "3132": "der ", "3133": "des ", "3134": "de\u2019 ", "3135": "dia ", "3136": "die ", "3137": "dii ", "3138": "dil ", "3139": "din ", "3140": "dio ", "3141": "dir ", "3142": "di\u00e8 ", "3143": "di\u2019 ", "3144": "don ", "3145": "dor ", "3146": "dra ", "3147": "dre ", "3148": "dri ", "3149": "dro ", "3150": "dr\u00e0 ", "3151": "dr\u00ec ", "3152": "dr\u00f2 ", "3153": "dua ", "3154": "due ", "3155": "dui ", "3156": "duo ", "3157": "dur ", "3158": "du\u2019 ", "3159": "d\u00e8i ", "3160": "d\u00eca ", "3161": "d\u00ece ", "3162": "d\u00ect ", "3163": "e i ", "3164": "e \u2019 ", "3165": "ean ", "3166": "est ", "3167": "fai ", "3168": "fal ", "3169": "fan ", "3170": "far ", "3171": "fei ", "3172": "feo ", "3173": "fer ", "3174": "fe\u2019 ", "3175": "fia ", "3176": "fie ", "3177": "fil ", "3178": "fin ", "3179": "fio ", "3180": "fi\u00f2 ", "3181": "fi\u2019 ", "3182": "fon ", "3183": "for ", "3184": "fra ", "3185": "fue ", "3186": "fui ", "3187": "fur ", "3188": "fu\u2019 ", "3189": "f\u00e0s ", "3190": "f\u00e0t ", "3191": "f\u00e8l ", "3192": "f\u00e9e ", "3193": "f\u00f3n ", "3194": "gai ", "3195": "gal ", "3196": "gan ", "3197": "gar ", "3198": "ga\u2019 ", "3199": "gea ", "3200": "gei ", "3201": "gel ", "3202": "ger ", "3203": "ges ", "3204": "ghe ", "3205": "ghi ", "3206": "gia ", "3207": "gin ", "3208": "gio ", "3209": "gir ", "3210": "gis ", "3211": "gi\u00e0 ", "3212": "gi\u00f2 ", "3213": "gi\u00f9 ", "3214": "gi\u2019 ", "3215": "gli ", "3216": "gna ", "3217": "gne ", "3218": "gni ", "3219": "gno ", "3220": "gol ", "3221": "gon ", "3222": "gor ", "3223": "gra ", "3224": "gre ", "3225": "gri ", "3226": "gro ", "3227": "gru ", "3228": "gua ", "3229": "gue ", "3230": "gui ", "3231": "gu\u00ec ", "3232": "gu\u00f2 ", "3233": "g\u00f3n ", "3234": "g\u00f3r ", "3235": "hai ", "3236": "han ", "3237": "ian ", "3238": "ier ", "3239": "ieu ", "3240": "ion ", "3241": "joi ", "3242": "lai ", "3243": "lan ", "3244": "lar ", "3245": "la\u2019 ", "3246": "lea ", "3247": "lee ", "3248": "lei ", "3249": "lem ", "3250": "len ", "3251": "leo ", "3252": "ler ", "3253": "lia ", "3254": "lie ", "3255": "lin ", "3256": "lio ", "3257": "lir ", "3258": "lis ", "3259": "lon ", "3260": "lor ", "3261": "lui ", "3262": "lu\u2019 ", "3263": "l\u00e8m ", "3264": "l\u00eca ", "3265": "l\u00eco ", "3266": "l\u00f2n ", "3267": "mae ", "3268": "mai ", "3269": "mal ", "3270": "man ", "3271": "mar ", "3272": "mas ", "3273": "ma\u2019 ", "3274": "mea ", "3275": "mee ", "3276": "mei ", "3277": "men ", "3278": "meo ", "3279": "mer ", "3280": "me\u2019 ", "3281": "mia ", "3282": "mie ", "3283": "mii ", "3284": "mil ", "3285": "min ", "3286": "mio ", "3287": "mi\u2019 ", "3288": "mon ", "3289": "mor ", "3290": "mul ", "3291": "mum ", "3292": "mun ", "3293": "mus ", "3294": "m\u00eca ", "3295": "m\u00ecs ", "3296": "nai ", "3297": "nal ", "3298": "nan ", "3299": "nar ", "3300": "na\u2019 ", "3301": "nea ", "3302": "nei ", "3303": "nel ", "3304": "nem ", "3305": "neo ", "3306": "ner ", "3307": "ne\u2019 ", "3308": "nha ", "3309": "nia ", "3310": "nie ", "3311": "nii ", "3312": "nil ", "3313": "nin ", "3314": "nio ", "3315": "nir ", "3316": "nis ", "3317": "ni\u2019 ", "3318": "noi ", "3319": "nol ", "3320": "non ", "3321": "nor ", "3322": "no\u2019 ", "3323": "num ", "3324": "n\u00e8s ", "3325": "n\u00eca ", "3326": "n\u00ece ", "3327": "n\u00ect ", "3328": "n\u00f2i ", "3329": "n\u00f2s ", "3330": "o a ", "3331": "o e ", "3332": "pal ", "3333": "pan ", "3334": "par ", "3335": "pea ", "3336": "pei ", "3337": "pel ", "3338": "pem ", "3339": "peo ", "3340": "per ", "3341": "pia ", "3342": "pie ", "3343": "pii ", "3344": "pin ", "3345": "pio ", "3346": "pir ", "3347": "pi\u00e8 ", "3348": "pi\u00e9 ", "3349": "pi\u00f9 ", "3350": "plo ", "3351": "poi ", "3352": "pol ", "3353": "pon ", "3354": "por ", "3355": "pra ", "3356": "pre ", "3357": "pri ", "3358": "pro ", "3359": "pr\u00e0 ", "3360": "pr\u00ec ", "3361": "pur ", "3362": "pu\u00f2 ", "3363": "p\u00eca ", "3364": "p\u00f2s ", "3365": "qua ", "3366": "que ", "3367": "qui ", "3368": "rai ", "3369": "ral ", "3370": "ram ", "3371": "ran ", "3372": "rao ", "3373": "rar ", "3374": "ra\u2019 ", "3375": "rea ", "3376": "ree ", "3377": "rei ", "3378": "rel ", "3379": "rem ", "3380": "ren ", "3381": "reo ", "3382": "rer ", "3383": "res ", "3384": "re\u2019 ", "3385": "ria ", "3386": "rie ", "3387": "rii ", "3388": "ril ", "3389": "rin ", "3390": "rio ", "3391": "rir ", "3392": "ri\u2019 ", "3393": "ron ", "3394": "ror ", "3395": "ros ", "3396": "rua ", "3397": "rui ", "3398": "rum ", "3399": "r\u00ecb ", "3400": "r\u00ece ", "3401": "r\u00ecs ", "3402": "r\u00f2l ", "3403": "r\u00f3n ", "3404": "sai ", "3405": "sal ", "3406": "san ", "3407": "sar ", "3408": "sa\u2019 ", "3409": "sca ", "3410": "sce ", "3411": "sci ", "3412": "sco ", "3413": "sc\u00ec ", "3414": "sei ", "3415": "sel ", "3416": "sem ", "3417": "sen ", "3418": "seo ", "3419": "ser ", "3420": "se\u2019 ", "3421": "sia ", "3422": "sie ", "3423": "sii ", "3424": "sin ", "3425": "sio ", "3426": "sir ", "3427": "sis ", "3428": "sit ", "3429": "sma ", "3430": "smi ", "3431": "smo ", "3432": "sol ", "3433": "som ", "3434": "son ", "3435": "sor ", "3436": "spa ", "3437": "spe ", "3438": "sta ", "3439": "ste ", "3440": "sti ", "3441": "sto ", "3442": "st\u00e0 ", "3443": "st\u00e9 ", "3444": "st\u00ec ", "3445": "st\u00f2 ", "3446": "st\u00f9 ", "3447": "sua ", "3448": "sub ", "3449": "sue ", "3450": "sui ", "3451": "sul ", "3452": "sun ", "3453": "suo ", "3454": "su\u2019 ", "3455": "s\u00ece ", "3456": "s\u00f3n ", "3457": "s\u00f9e ", "3458": "tai ", "3459": "tal ", "3460": "tan ", "3461": "tar ", "3462": "ta\u2019 ", "3463": "tea ", "3464": "tei ", "3465": "tel ", "3466": "tem ", "3467": "ten ", "3468": "teo ", "3469": "ter ", "3470": "tes ", "3471": "te\u2019 ", "3472": "tia ", "3473": "tii ", "3474": "til ", "3475": "tin ", "3476": "tio ", "3477": "tir ", "3478": "tis ", "3479": "ti\u2019 ", "3480": "tol ", "3481": "ton ", "3482": "tor ", "3483": "tra ", "3484": "tre ", "3485": "tri ", "3486": "tro ", "3487": "tr\u00e0 ", "3488": "tr\u00f2 ", "3489": "tua ", "3490": "tue ", "3491": "tui ", "3492": "tum ", "3493": "tun ", "3494": "tuo ", "3495": "tus ", "3496": "t\u00e0n ", "3497": "t\u00e8s ", "3498": "t\u00e9r ", "3499": "t\u00f2n ", "3500": "t\u00f2r ", "3501": "t\u00f3n ", "3502": "unt ", "3503": "uom ", "3504": "uo\u2019 ", "3505": "vai ", "3506": "val ", "3507": "vam ", "3508": "van ", "3509": "var ", "3510": "vas ", "3511": "vau ", "3512": "va\u2019 ", "3513": "vea ", "3514": "vei ", "3515": "vel ", "3516": "vem ", "3517": "ven ", "3518": "ver ", "3519": "ve\u2019 ", "3520": "via ", "3521": "vie ", "3522": "vii ", "3523": "vil ", "3524": "vin ", "3525": "vio ", "3526": "voi ", "3527": "vol ", "3528": "von ", "3529": "vos ", "3530": "vo\u2019 ", "3531": "vra ", "3532": "v\u00ecd ", "3533": "zai ", "3534": "zan ", "3535": "zar ", "3536": "za\u2019 ", "3537": "zia ", "3538": "zie ", "3539": "zii ", "3540": "zio ", "3541": "zon ", "3542": "zul ", "3543": "z\u00f2n ", "3544": "\u00f2th ", "3545": "\u2018te ", "3546": "\u2019ve ", "3547": "a al ", "3548": "a il ", "3549": "a in ", "3550": "a \u2019l ", "3551": "ba e ", "3552": "be a ", "3553": "be e ", "3554": "be i ", "3555": "bent ", "3556": "bi a ", "3557": "bi e ", "3558": "bi i ", "3559": "bian ", "3560": "biar ", "3561": "bia\u2019 ", "3562": "bion ", "3563": "blia ", "3564": "blio ", "3565": "bo a ", "3566": "bo e ", "3567": "bran ", "3568": "brar ", "3569": "bree ", "3570": "brei ", "3571": "breo ", "3572": "bria ", "3573": "brio ", "3574": "br\u00f2t ", "3575": "buoi ", "3576": "buon ", "3577": "ca a ", "3578": "ca e ", "3579": "ca o ", "3580": "ca \u00e8 ", "3581": "caio ", "3582": "ce a ", "3583": "ce e ", "3584": "ce i ", "3585": "ce o ", "3586": "ce \u00e8 ", "3587": "cean ", "3588": "ched ", "3589": "chel ", "3590": "cheo ", "3591": "chia ", "3592": "chie ", "3593": "chin ", "3594": "chio ", "3595": "chi\u00f2 ", "3596": "ci a ", "3597": "ci e ", "3598": "ci o ", "3599": "ci \u00e8 ", "3600": "ciai ", "3601": "ciam ", "3602": "cian ", "3603": "ciar ", "3604": "cia\u2019 ", "3605": "ciel ", "3606": "ciol ", "3607": "cion ", "3608": "ciul ", "3609": "ci\u00f2l ", "3610": "cl\u00e8s ", "3611": "co a ", "3612": "co e ", "3613": "co i ", "3614": "co o ", "3615": "co \u00e8 ", "3616": "com\u2019 ", "3617": "cral ", "3618": "crea ", "3619": "cria ", "3620": "crin ", "3621": "cuor ", "3622": "c\u00f2th ", "3623": "c\u2019 \u00e8 ", "3624": "da a ", "3625": "da e ", "3626": "da i ", "3627": "da o ", "3628": "dail ", "3629": "de a ", "3630": "de e ", "3631": "de i ", "3632": "de o ", "3633": "de \u00e8 ", "3634": "dean ", "3635": "di a ", "3636": "di e ", "3637": "di i ", "3638": "di o ", "3639": "diam ", "3640": "dien ", "3641": "dier ", "3642": "die\u2019 ", "3643": "do a ", "3644": "do e ", "3645": "do i ", "3646": "do o ", "3647": "do \u00e8 ", "3648": "drai ", "3649": "dra\u2019 ", "3650": "drea ", "3651": "drel ", "3652": "dria ", "3653": "drir ", "3654": "dron ", "3655": "duol ", "3656": "d\u00e8ch ", "3657": "d\u00ec i ", "3658": "d\u2019 i ", "3659": "d\u2019 \u00e8 ", "3660": "e in ", "3661": "e or ", "3662": "e \u2019l ", "3663": "e \u2019n ", "3664": "fe e ", "3665": "fi e ", "3666": "fian ", "3667": "fiar ", "3668": "fien ", "3669": "fier ", "3670": "fior ", "3671": "fo \u00e8 ", "3672": "fren ", "3673": "frir ", "3674": "frui ", "3675": "fu a ", "3676": "fuor ", "3677": "f\u00e9 i ", "3678": "ga a ", "3679": "ga e ", "3680": "ga o ", "3681": "gaio ", "3682": "ge a ", "3683": "ge e ", "3684": "ge \u00e8 ", "3685": "gean ", "3686": "ghia ", "3687": "ghie ", "3688": "ghin ", "3689": "ghio ", "3690": "ghi\u00f2 ", "3691": "gi a ", "3692": "gi e ", "3693": "giai ", "3694": "giam ", "3695": "gian ", "3696": "giar ", "3697": "gien ", "3698": "gier ", "3699": "gioi ", "3700": "gion ", "3701": "gior ", "3702": "giun ", "3703": "gi\u00f9e ", "3704": "glia ", "3705": "glie ", "3706": "glio ", "3707": "gli\u00f2 ", "3708": "gnan ", "3709": "gnar ", "3710": "gnel ", "3711": "gner ", "3712": "gnes ", "3713": "gnia ", "3714": "gnin ", "3715": "gnon ", "3716": "gnor ", "3717": "gnum ", "3718": "gnun ", "3719": "gnus ", "3720": "go a ", "3721": "go e ", "3722": "go o ", "3723": "go \u00e8 ", "3724": "gran ", "3725": "grin ", "3726": "grue ", "3727": "guai ", "3728": "gual ", "3729": "guan ", "3730": "guia ", "3731": "guio ", "3732": "guir ", "3733": "guis ", "3734": "guon ", "3735": "i il ", "3736": "i in ", "3737": "io e ", "3738": "la a ", "3739": "la e ", "3740": "la i ", "3741": "la o ", "3742": "la \u00e8 ", "3743": "laia ", "3744": "laio ", "3745": "le a ", "3746": "le e ", "3747": "le i ", "3748": "le o ", "3749": "le \u00e8 ", "3750": "li a ", "3751": "li e ", "3752": "li i ", "3753": "li o ", "3754": "li \u00e8 ", "3755": "lian ", "3756": "lien ", "3757": "lier ", "3758": "lo a ", "3759": "lo e ", "3760": "lo i ", "3761": "lo \u00e8 ", "3762": "luia ", "3763": "l\u00e0 i ", "3764": "l\u00ec \u00e8 ", "3765": "l\u2019 \u00e8 ", "3766": "ma a ", "3767": "ma e ", "3768": "ma i ", "3769": "ma o ", "3770": "ma \u00e8 ", "3771": "maia ", "3772": "maio ", "3773": "me a ", "3774": "me e ", "3775": "me i ", "3776": "me \u00e8 ", "3777": "mi a ", "3778": "mi e ", "3779": "mi i ", "3780": "mian ", "3781": "miei ", "3782": "mie\u2019 ", "3783": "mo a ", "3784": "mo e ", "3785": "mo i ", "3786": "mo \u00e8 ", "3787": "muoi ", "3788": "muor ", "3789": "m\u2019 \u00e8 ", "3790": "na a ", "3791": "na e ", "3792": "na o ", "3793": "na \u00e8 ", "3794": "nail ", "3795": "naio ", "3796": "naut ", "3797": "ne a ", "3798": "ne e ", "3799": "ne i ", "3800": "ne o ", "3801": "ne \u00e8 ", "3802": "nean ", "3803": "ni a ", "3804": "ni e ", "3805": "ni o ", "3806": "ni \u00e8 ", "3807": "niam ", "3808": "nian ", "3809": "nien ", "3810": "nier ", "3811": "no a ", "3812": "no e ", "3813": "no i ", "3814": "no o ", "3815": "no \u00e8 ", "3816": "n\u2019 \u00e8 ", "3817": "o al ", "3818": "o il ", "3819": "o in ", "3820": "o un ", "3821": "o \u2019n ", "3822": "pa a ", "3823": "pa e ", "3824": "pa \u00e8 ", "3825": "pe e ", "3826": "pe i ", "3827": "ph\u00e8l ", "3828": "pi e ", "3829": "pian ", "3830": "piar ", "3831": "pia\u2019 ", "3832": "pien ", "3833": "pier ", "3834": "pion ", "3835": "pi\u00e9r ", "3836": "pi\u00f9e ", "3837": "plar ", "3838": "plor ", "3839": "pluo ", "3840": "po a ", "3841": "po e ", "3842": "po i ", "3843": "po o ", "3844": "po \u00e8 ", "3845": "prai ", "3846": "prec ", "3847": "prei ", "3848": "pria ", "3849": "prie ", "3850": "prio ", "3851": "prir ", "3852": "pri\u2019 ", "3853": "pron ", "3854": "prun ", "3855": "puoi ", "3856": "quae ", "3857": "quai ", "3858": "qual ", "3859": "quam ", "3860": "quar ", "3861": "quei ", "3862": "quel ", "3863": "que\u2019 ", "3864": "quia ", "3865": "quie ", "3866": "quod ", "3867": "quor ", "3868": "ra a ", "3869": "ra e ", "3870": "ra i ", "3871": "ra o ", "3872": "ra \u00e8 ", "3873": "re a ", "3874": "re e ", "3875": "re i ", "3876": "re o ", "3877": "re \u00e8 ", "3878": "rean ", "3879": "rent ", "3880": "ri a ", "3881": "ri e ", "3882": "ri o ", "3883": "riai ", "3884": "rian ", "3885": "rien ", "3886": "ro a ", "3887": "ro e ", "3888": "ro i ", "3889": "ro o ", "3890": "ro \u00e8 ", "3891": "runt ", "3892": "r\u2019 a ", "3893": "sa a ", "3894": "sa e ", "3895": "sa i ", "3896": "sa o ", "3897": "sa \u00e8 ", "3898": "saia ", "3899": "scar ", "3900": "scea ", "3901": "scel ", "3902": "scer ", "3903": "sche ", "3904": "schi ", "3905": "scia ", "3906": "scie ", "3907": "scio ", "3908": "scir ", "3909": "sci\u00f2 ", "3910": "sci\u2019 ", "3911": "scon ", "3912": "scun ", "3913": "sc\u00eco ", "3914": "se a ", "3915": "se e ", "3916": "se i ", "3917": "se o ", "3918": "se \u00e8 ", "3919": "sfar ", "3920": "si a ", "3921": "si e ", "3922": "si i ", "3923": "si o ", "3924": "si \u00e8 ", "3925": "siam ", "3926": "sian ", "3927": "sien ", "3928": "sier ", "3929": "sie\u2019 ", "3930": "sion ", "3931": "slao ", "3932": "so a ", "3933": "so e ", "3934": "so i ", "3935": "so o ", "3936": "so \u00e8 ", "3937": "sper ", "3938": "spia ", "3939": "spir ", "3940": "spri ", "3941": "spro ", "3942": "stai ", "3943": "stan ", "3944": "star ", "3945": "stea ", "3946": "stei ", "3947": "stel ", "3948": "steo ", "3949": "stia ", "3950": "stie ", "3951": "stil ", "3952": "stin ", "3953": "sti\u00f2 ", "3954": "stor ", "3955": "stra ", "3956": "stre ", "3957": "stri ", "3958": "stro ", "3959": "str\u00f2 ", "3960": "stui ", "3961": "st\u00e8r ", "3962": "st\u00f2r ", "3963": "su i ", "3964": "sunt ", "3965": "suoi ", "3966": "suol ", "3967": "suon ", "3968": "suo\u2019 ", "3969": "svia ", "3970": "s\u00e9 i ", "3971": "s\u2019 a ", "3972": "s\u2019 \u00e8 ", "3973": "ta a ", "3974": "ta e ", "3975": "ta i ", "3976": "ta o ", "3977": "ta \u00e8 ", "3978": "te a ", "3979": "te e ", "3980": "te i ", "3981": "te o ", "3982": "te \u00e8 ", "3983": "tean ", "3984": "ti a ", "3985": "ti e ", "3986": "ti i ", "3987": "ti o ", "3988": "ti \u00e8 ", "3989": "tiam ", "3990": "tien ", "3991": "tier ", "3992": "to a ", "3993": "to e ", "3994": "to i ", "3995": "to o ", "3996": "to \u00e8 ", "3997": "toio ", "3998": "trae ", "3999": "trai ", "4000": "tram ", "4001": "tran ", "4002": "trar ", "4003": "tra\u2019 ", "4004": "trea ", "4005": "tree ", "4006": "trei ", "4007": "tria ", "4008": "trio ", "4009": "tris ", "4010": "trui ", "4011": "tr\u00e0s ", "4012": "tu i ", "4013": "tu \u2019 ", "4014": "tuoi ", "4015": "tuon ", "4016": "tuo\u2019 ", "4017": "t\u2019 i ", "4018": "t\u2019 \u00e8 ", "4019": "va a ", "4020": "va e ", "4021": "va i ", "4022": "va o ", "4023": "vaio ", "4024": "ve a ", "4025": "ve e ", "4026": "ve i ", "4027": "ve o ", "4028": "vean ", "4029": "ver\u2019 ", "4030": "vi a ", "4031": "vi e ", "4032": "vi o ", "4033": "vi \u00e8 ", "4034": "viam ", "4035": "vian ", "4036": "vien ", "4037": "vier ", "4038": "vo a ", "4039": "vo e ", "4040": "vria ", "4041": "vuoi ", "4042": "vuol ", "4043": "vuo\u2019 ", "4044": "v\u2019 a ", "4045": "v\u2019 \u00e8 ", "4046": "za a ", "4047": "za e ", "4048": "za i ", "4049": "za o ", "4050": "za \u00e8 ", "4051": "ze e ", "4052": "ze o ", "4053": "zi a ", "4054": "zi e ", "4055": "zi \u00e8 ", "4056": "zian ", "4057": "ziar ", "4058": "zion ", "4059": "zo a ", "4060": "zo e ", "4061": "\u00e8 il ", "4062": "\u00e8 in ", "4063": "\u00e8 \u2019l ", "4064": "\u00e8 \u2019n ", "4065": "\u2018qui ", "4066": "ba il ", "4067": "ba in ", "4068": "be al ", "4069": "be ed ", "4070": "be il ", "4071": "be in ", "4072": "be i\u2019 ", "4073": "be or ", "4074": "be un ", "4075": "be \u2019l ", "4076": "bi il ", "4077": "bi in ", "4078": "bi un ", "4079": "bi \u2019l ", "4080": "bia e ", "4081": "bio e ", "4082": "bo a\u2019 ", "4083": "bo in ", "4084": "bra a ", "4085": "bra e ", "4086": "bra o ", "4087": "bre a ", "4088": "bre e ", "4089": "bro e ", "4090": "bro \u00e8 ", "4091": "b\u00f2 il ", "4092": "b\u2019 io ", "4093": "ca al ", "4094": "ca il ", "4095": "ca in ", "4096": "ca io ", "4097": "ce al ", "4098": "ce a\u2019 ", "4099": "ce ed ", "4100": "ce ha ", "4101": "ce il ", "4102": "ce in ", "4103": "ce un ", "4104": "ce u\u2019 ", "4105": "che a ", "4106": "che e ", "4107": "che i ", "4108": "che \u2019 ", "4109": "chi a ", "4110": "chi e ", "4111": "chi \u00e8 ", "4112": "chiai ", "4113": "chian ", "4114": "chiar ", "4115": "chier ", "4116": "chion ", "4117": "ch\u00e9 a ", "4118": "ch\u00e9 i ", "4119": "ch\u2019 a ", "4120": "ch\u2019 \u00e8 ", "4121": "ci al ", "4122": "ci a\u2019 ", "4123": "ci ha ", "4124": "ci il ", "4125": "ci in ", "4126": "ci io ", "4127": "ci or ", "4128": "ci \u2019l ", "4129": "cia a ", "4130": "cia e ", "4131": "cia i ", "4132": "cia o ", "4133": "cio a ", "4134": "cio e ", "4135": "co ad ", "4136": "co ai ", "4137": "co al ", "4138": "co a\u2019 ", "4139": "co il ", "4140": "co in ", "4141": "co io ", "4142": "co i\u2019 ", "4143": "co or ", "4144": "co un ", "4145": "co u\u2019 ", "4146": "co \u2019l ", "4147": "c\u2019 ha ", "4148": "c\u2019 ho ", "4149": "c\u2019 io ", "4150": "da al ", "4151": "da il ", "4152": "da in ", "4153": "da io ", "4154": "da i\u2019 ", "4155": "da or ", "4156": "da un ", "4157": "da \u2019l ", "4158": "de ad ", "4159": "de al ", "4160": "de ed ", "4161": "de il ", "4162": "de in ", "4163": "de un ", "4164": "de \u2019l ", "4165": "di ad ", "4166": "di al ", "4167": "di a\u2019 ", "4168": "di ed ", "4169": "di ha ", "4170": "di il ", "4171": "di in ", "4172": "di io ", "4173": "di or ", "4174": "di un ", "4175": "di \u00e8e ", "4176": "di \u2019l ", "4177": "di \u2019n ", "4178": "dia e ", "4179": "dia i ", "4180": "dio a ", "4181": "dio e ", "4182": "do ad ", "4183": "do al ", "4184": "do a\u2019 ", "4185": "do ed ", "4186": "do ha ", "4187": "do il ", "4188": "do in ", "4189": "do io ", "4190": "do or ", "4191": "do un ", "4192": "do \u2019l ", "4193": "dre a ", "4194": "dre e ", "4195": "dri e ", "4196": "dro a ", "4197": "dro e ", "4198": "dro o ", "4199": "d\u00f2 \u2019l ", "4200": "d\u2019 ei ", "4201": "d\u2019 el ", "4202": "d\u2019 e\u2019 ", "4203": "d\u2019 io ", "4204": "d\u2019 ir ", "4205": "d\u2019 i\u2019 ", "4206": "d\u2019 un ", "4207": "fa \u2019l ", "4208": "fo or ", "4209": "fu al ", "4210": "fu il ", "4211": "fu \u2019l ", "4212": "f\u00e9 \u2019l ", "4213": "ga il ", "4214": "ga in ", "4215": "ge ad ", "4216": "ge ai ", "4217": "ge al ", "4218": "ge il ", "4219": "ge in ", "4220": "ge or ", "4221": "ge un ", "4222": "ghe a ", "4223": "ghe e ", "4224": "ghi e ", "4225": "ghiai ", "4226": "ghiar ", "4227": "gi al ", "4228": "gi il ", "4229": "gi un ", "4230": "gi \u2019l ", "4231": "gia a ", "4232": "gia e ", "4233": "gia o ", "4234": "gia \u00e8 ", "4235": "gio a ", "4236": "gio e ", "4237": "gio o ", "4238": "gi\u00e0 i ", "4239": "gli a ", "4240": "gli e ", "4241": "gliai ", "4242": "glian ", "4243": "gliar ", "4244": "gliea ", "4245": "gliel ", "4246": "glien ", "4247": "glier ", "4248": "glion ", "4249": "glior ", "4250": "gluol ", "4251": "gna a ", "4252": "gna e ", "4253": "gna i ", "4254": "gna o ", "4255": "gna \u00e8 ", "4256": "gnaio ", "4257": "gni a ", "4258": "gni e ", "4259": "gno a ", "4260": "gno e ", "4261": "gno i ", "4262": "gno \u00e8 ", "4263": "go al ", "4264": "go il ", "4265": "go \u2019l ", "4266": "gra o ", "4267": "gri e ", "4268": "gua a ", "4269": "gua e ", "4270": "gue a ", "4271": "gue e ", "4272": "gue \u00e8 ", "4273": "gui e ", "4274": "gui i ", "4275": "g\u00ec \u2019l ", "4276": "g\u00f2 \u2019l ", "4277": "g\u2019 io ", "4278": "ha in ", "4279": "ha \u2019l ", "4280": "ia ed ", "4281": "ia il ", "4282": "ia in ", "4283": "ia oh ", "4284": "la al ", "4285": "la a\u2019 ", "4286": "la ed ", "4287": "la il ", "4288": "la in ", "4289": "la io ", "4290": "la un ", "4291": "la \u2019l ", "4292": "le ab ", "4293": "le ad ", "4294": "le al ", "4295": "le ha ", "4296": "le il ", "4297": "le in ", "4298": "le io ", "4299": "le ir ", "4300": "le i\u2019 ", "4301": "le or ", "4302": "le un ", "4303": "le \u2019l ", "4304": "li ad ", "4305": "li al ", "4306": "li ei ", "4307": "li ha ", "4308": "li il ", "4309": "li in ", "4310": "li io ", "4311": "li i\u2019 ", "4312": "li oh ", "4313": "li or ", "4314": "li un ", "4315": "li \u2019l ", "4316": "lia e ", "4317": "lio a ", "4318": "lio e ", "4319": "lio \u00e8 ", "4320": "lo ad ", "4321": "lo ai ", "4322": "lo al ", "4323": "lo a\u2019 ", "4324": "lo ed ", "4325": "lo ha ", "4326": "lo il ", "4327": "lo in ", "4328": "lo or ", "4329": "lo un ", "4330": "l\u00e0 il ", "4331": "l\u00e0 \u2019l ", "4332": "l\u2019 ha ", "4333": "l\u2019 ho ", "4334": "l\u2019 om ", "4335": "l\u2019 un ", "4336": "ma a\u2019 ", "4337": "ma il ", "4338": "ma in ", "4339": "ma io ", "4340": "ma un ", "4341": "ma \u2019l ", "4342": "ma \u2019n ", "4343": "me ad ", "4344": "me ai ", "4345": "me al ", "4346": "me a\u2019 ", "4347": "me ed ", "4348": "me il ", "4349": "me in ", "4350": "me io ", "4351": "me un ", "4352": "me \u2019l ", "4353": "me \u2019n ", "4354": "mi ad ", "4355": "mi al ", "4356": "mi a\u2019 ", "4357": "mi ed ", "4358": "mi il ", "4359": "mi in ", "4360": "mi un ", "4361": "mi \u2019l ", "4362": "mia e ", "4363": "mo ad ", "4364": "mo al ", "4365": "mo ed ", "4366": "mo ei ", "4367": "mo ha ", "4368": "mo il ", "4369": "mo in ", "4370": "mo un ", "4371": "mo \u2019l ", "4372": "m\u2019 ha ", "4373": "m\u2019 io ", "4374": "na ad ", "4375": "na al ", "4376": "na ed ", "4377": "na ei ", "4378": "na ha ", "4379": "na il ", "4380": "na in ", "4381": "na or ", "4382": "na un ", "4383": "na \u2019n ", "4384": "ne ad ", "4385": "ne ai ", "4386": "ne al ", "4387": "ne a\u2019 ", "4388": "ne ed ", "4389": "ne ha ", "4390": "ne il ", "4391": "ne in ", "4392": "ne io ", "4393": "ne or ", "4394": "ne un ", "4395": "ne \u2019l ", "4396": "ni al ", "4397": "ni ed ", "4398": "ni il ", "4399": "ni in ", "4400": "ni or ", "4401": "ni \u2019l ", "4402": "no ad ", "4403": "no ai ", "4404": "no al ", "4405": "no a\u2019 ", "4406": "no ed ", "4407": "no ei ", "4408": "no ha ", "4409": "no il ", "4410": "no in ", "4411": "no io ", "4412": "no i\u2019 ", "4413": "no un ", "4414": "no u\u2019 ", "4415": "no \u2019l ", "4416": "n\u00e9 \u2019l ", "4417": "n\u00f2 in ", "4418": "n\u00f2 \u2019l ", "4419": "n\u2019 ei ", "4420": "n\u2019 ha ", "4421": "n\u2019 io ", "4422": "pa ed ", "4423": "pa ho ", "4424": "pa in ", "4425": "pa or ", "4426": "pa \u2019l ", "4427": "pe ad ", "4428": "pe il ", "4429": "pe \u2019l ", "4430": "pi in ", "4431": "pi un ", "4432": "pie a ", "4433": "pio a ", "4434": "pio e ", "4435": "po al ", "4436": "po ed ", "4437": "po ha ", "4438": "po il ", "4439": "po in ", "4440": "po io ", "4441": "po \u2019l ", "4442": "pra e ", "4443": "praia ", "4444": "pre a ", "4445": "pre e ", "4446": "pre i ", "4447": "pri a ", "4448": "pri e ", "4449": "pr\u2019 a ", "4450": "puesc ", "4451": "p\u2019 io ", "4452": "qua a ", "4453": "qua e ", "4454": "qua o ", "4455": "qua \u00e8 ", "4456": "que a ", "4457": "que e ", "4458": "que \u00e8 ", "4459": "qui e ", "4460": "ra ad ", "4461": "ra al ", "4462": "ra a\u2019 ", "4463": "ra ed ", "4464": "ra ha ", "4465": "ra il ", "4466": "ra in ", "4467": "ra io ", "4468": "ra or ", "4469": "ra un ", "4470": "ra \u2019l ", "4471": "ra \u2019n ", "4472": "re ad ", "4473": "re al ", "4474": "re a\u2019 ", "4475": "re ed ", "4476": "re ha ", "4477": "re ho ", "4478": "re il ", "4479": "re in ", "4480": "re io ", "4481": "re ir ", "4482": "re i\u2019 ", "4483": "re or ", "4484": "re un ", "4485": "re \u2019n ", "4486": "ri al ", "4487": "ri a\u2019 ", "4488": "ri in ", "4489": "ri \u2019l ", "4490": "ria a ", "4491": "ria e ", "4492": "ria i ", "4493": "ria o ", "4494": "ria \u00e8 ", "4495": "ria \u2019 ", "4496": "rio a ", "4497": "rio e ", "4498": "ro ad ", "4499": "ro al ", "4500": "ro a\u2019 ", "4501": "ro ed ", "4502": "ro il ", "4503": "ro in ", "4504": "ro i\u2019 ", "4505": "ro od ", "4506": "ro or ", "4507": "ro un ", "4508": "r\u00ec \u2019l ", "4509": "r\u00f2 il ", "4510": "r\u00f2 \u2019l ", "4511": "r\u2019 al ", "4512": "r\u2019 io ", "4513": "sa ad ", "4514": "sa il ", "4515": "sa in ", "4516": "sa un ", "4517": "sa \u2019l ", "4518": "sca i ", "4519": "sce a ", "4520": "sce e ", "4521": "sce i ", "4522": "schio ", "4523": "sci a ", "4524": "sciai ", "4525": "scian ", "4526": "sciar ", "4527": "scion ", "4528": "sco e ", "4529": "sco i ", "4530": "scuoi ", "4531": "se ad ", "4532": "se ai ", "4533": "se al ", "4534": "se a\u2019 ", "4535": "se e\u2019 ", "4536": "se ho ", "4537": "se il ", "4538": "se in ", "4539": "se io ", "4540": "se ir ", "4541": "se i\u2019 ", "4542": "se or ", "4543": "se un ", "4544": "se \u2019l ", "4545": "se \u2019n ", "4546": "si ad ", "4547": "si al ", "4548": "si el ", "4549": "si il ", "4550": "si in ", "4551": "si or ", "4552": "si un ", "4553": "si u\u2019 ", "4554": "si \u2019l ", "4555": "si \u2019n ", "4556": "sia e ", "4557": "sio e ", "4558": "sme e ", "4559": "smo a ", "4560": "so ad ", "4561": "so al ", "4562": "so a\u2019 ", "4563": "so il ", "4564": "so in ", "4565": "so un ", "4566": "so \u00e8e ", "4567": "so \u2019l ", "4568": "sta a ", "4569": "sta e ", "4570": "sta o ", "4571": "sta \u00e8 ", "4572": "staio ", "4573": "ste a ", "4574": "ste e ", "4575": "ste i ", "4576": "sti a ", "4577": "sti e ", "4578": "sti o ", "4579": "sti \u00e8 ", "4580": "stial ", "4581": "stiam ", "4582": "stian ", "4583": "stier ", "4584": "stion ", "4585": "sto a ", "4586": "sto e ", "4587": "sto \u00e8 ", "4588": "strai ", "4589": "stral ", "4590": "stran ", "4591": "strar ", "4592": "st\u2019 \u00e8 ", "4593": "su in ", "4594": "su \u2019l ", "4595": "svuol ", "4596": "s\u00e9 il ", "4597": "s\u00e9 in ", "4598": "s\u00ec \u2019l ", "4599": "s\u2019 ei ", "4600": "s\u2019 el ", "4601": "s\u2019 e\u2019 ", "4602": "s\u2019 ha ", "4603": "s\u2019 io ", "4604": "s\u2019 i\u2019 ", "4605": "s\u2019 un ", "4606": "ta ad ", "4607": "ta al ", "4608": "ta ed ", "4609": "ta ha ", "4610": "ta ho ", "4611": "ta il ", "4612": "ta in ", "4613": "ta io ", "4614": "ta or ", "4615": "ta un ", "4616": "ta \u2019l ", "4617": "te ad ", "4618": "te ai ", "4619": "te al ", "4620": "te a\u2019 ", "4621": "te ed ", "4622": "te ha ", "4623": "te ho ", "4624": "te il ", "4625": "te in ", "4626": "te io ", "4627": "te i\u2019 ", "4628": "te or ", "4629": "te un ", "4630": "te u\u2019 ", "4631": "te \u2019l ", "4632": "te \u2019n ", "4633": "temps ", "4634": "ti ad ", "4635": "ti ai ", "4636": "ti al ", "4637": "ti a\u2019 ", "4638": "ti ed ", "4639": "ti ei ", "4640": "ti ha ", "4641": "ti il ", "4642": "ti in ", "4643": "ti io ", "4644": "ti un ", "4645": "ti \u2019l ", "4646": "ti \u2019n ", "4647": "to ad ", "4648": "to ai ", "4649": "to al ", "4650": "to a\u2019 ", "4651": "to ed ", "4652": "to ha ", "4653": "to il ", "4654": "to in ", "4655": "to io ", "4656": "to ir ", "4657": "to i\u2019 ", "4658": "to or ", "4659": "to un ", "4660": "to \u2019l ", "4661": "to \u2019n ", "4662": "tra a ", "4663": "tra e ", "4664": "tra i ", "4665": "tra \u00e8 ", "4666": "tra \u2019 ", "4667": "tre e ", "4668": "tri a ", "4669": "tri e ", "4670": "tri o ", "4671": "tri \u00e8 ", "4672": "tro a ", "4673": "tro e ", "4674": "tro i ", "4675": "tro \u00e8 ", "4676": "tr\u2019 a ", "4677": "tr\u2019 \u00e8 ", "4678": "tu \u2019l ", "4679": "t\u00e0 \u2019l ", "4680": "t\u00e9 \u2019l ", "4681": "t\u00ec \u2019l ", "4682": "t\u00f2 un ", "4683": "t\u00f2 \u2019l ", "4684": "t\u2019 el ", "4685": "t\u2019 ha ", "4686": "t\u2019 ho ", "4687": "t\u2019 il ", "4688": "t\u2019 io ", "4689": "t\u2019 i\u2019 ", "4690": "t\u2019 om ", "4691": "va ad ", "4692": "va ai ", "4693": "va al ", "4694": "va a\u2019 ", "4695": "va ed ", "4696": "va il ", "4697": "va in ", "4698": "va io ", "4699": "va or ", "4700": "va un ", "4701": "va \u2019l ", "4702": "va \u2019n ", "4703": "ve ad ", "4704": "ve al ", "4705": "ve a\u2019 ", "4706": "ve il ", "4707": "ve in ", "4708": "ve un ", "4709": "ve \u2019l ", "4710": "vi il ", "4711": "vi in ", "4712": "vi un ", "4713": "vi \u2019l ", "4714": "vo in ", "4715": "voill ", "4716": "vra i ", "4717": "vrien ", "4718": "v\u00f2 \u2019l ", "4719": "v\u2019 ei ", "4720": "v\u2019 el ", "4721": "v\u2019 e\u2019 ", "4722": "v\u2019 ha ", "4723": "v\u2019 ho ", "4724": "v\u2019 io ", "4725": "v\u2019 i\u2019 ", "4726": "v\u2019 or ", "4727": "v\u2019 \u00e8n ", "4728": "za al ", "4729": "za ed ", "4730": "za ha ", "4731": "za il ", "4732": "za in ", "4733": "za i\u2019 ", "4734": "za oh ", "4735": "za or ", "4736": "za un ", "4737": "za \u2019l ", "4738": "zi ad ", "4739": "zi ai ", "4740": "zi al ", "4741": "zi il ", "4742": "zi or ", "4743": "zi un ", "4744": "zi \u2019l ", "4745": "zia a ", "4746": "zia e ", "4747": "zia o ", "4748": "zia \u00e8 ", "4749": "zio a ", "4750": "zio e ", "4751": "zio \u00e8 ", "4752": "zo al ", "4753": "zo il ", "4754": "zo in ", "4755": "zo \u2019l ", "4756": "z\u00f2 il ", "4757": "z\u00f2 \u2019l ", "4758": "\u2019v\u2019 \u00e8 ", "4759": "ba e \u2019 ", "4760": "bia in ", "4761": "bia \u2019l ", "4762": "bio ed ", "4763": "bra ad ", "4764": "bra in ", "4765": "bra od ", "4766": "bre a\u2019 ", "4767": "cea il ", "4768": "che al ", "4769": "che a\u2019 ", "4770": "che il ", "4771": "che in ", "4772": "che io ", "4773": "che un ", "4774": "che \u2019l ", "4775": "che \u2019n ", "4776": "chi al ", "4777": "chi a\u2019 ", "4778": "chi ei ", "4779": "chi ha ", "4780": "chi il ", "4781": "chi in ", "4782": "chi \u2019l ", "4783": "chi \u2019n ", "4784": "chia e ", "4785": "chio a ", "4786": "chio e ", "4787": "chio \u00e8 ", "4788": "ch\u00e9 il ", "4789": "ch\u00e9 \u2019l ", "4790": "ch\u00e9 \u2019n ", "4791": "ch\u2019 ad ", "4792": "ch\u2019 ai ", "4793": "ch\u2019 al ", "4794": "ch\u2019 a\u2019 ", "4795": "ch\u2019 ei ", "4796": "ch\u2019 el ", "4797": "ch\u2019 e\u2019 ", "4798": "ch\u2019 in ", "4799": "ch\u2019 io ", "4800": "ch\u2019 i\u2019 ", "4801": "ch\u2019 om ", "4802": "ch\u2019 or ", "4803": "ch\u2019 un ", "4804": "ch\u2019 \u00e8i ", "4805": "ci e \u2019 ", "4806": "cia ad ", "4807": "cia al ", "4808": "cia il ", "4809": "cia in ", "4810": "cia ir ", "4811": "cia un ", "4812": "cio ed ", "4813": "ci\u00f2 il ", "4814": "ci\u00f2 \u2019l ", "4815": "c\u2019 hai ", "4816": "c\u2019 han ", "4817": "c\u2019 ha\u2019 ", "4818": "di e \u2019 ", "4819": "dia in ", "4820": "dia \u2019l ", "4821": "dio in ", "4822": "di\u2019 \u2019l ", "4823": "do hai ", "4824": "dre al ", "4825": "dri ai ", "4826": "dria e ", "4827": "dro in ", "4828": "due \u2019l ", "4829": "d\u2019 uom ", "4830": "fia il ", "4831": "fra \u2019l ", "4832": "ghi al ", "4833": "ghi in ", "4834": "ghi \u2019l ", "4835": "ghia a ", "4836": "ghiaio ", "4837": "ghio e ", "4838": "gia il ", "4839": "gia or ", "4840": "gia un ", "4841": "gia \u2019l ", "4842": "gio ad ", "4843": "gio al ", "4844": "gio ha ", "4845": "gio il ", "4846": "gio in ", "4847": "gi\u00e0 il ", "4848": "gi\u00e0 \u2019l ", "4849": "gi\u00f9 \u2019l ", "4850": "gli al ", "4851": "gli un ", "4852": "glia a ", "4853": "glia e ", "4854": "glia o ", "4855": "glia \u00e8 ", "4856": "gliaio ", "4857": "glie e ", "4858": "glio a ", "4859": "glio e ", "4860": "glio o ", "4861": "gliuoi ", "4862": "gliuol ", "4863": "gli\u00f2 i ", "4864": "gl\u2019 io ", "4865": "gna a\u2019 ", "4866": "gna il ", "4867": "gna in ", "4868": "gna un ", "4869": "gna \u2019l ", "4870": "gne al ", "4871": "gne \u2019l ", "4872": "gni in ", "4873": "gno ad ", "4874": "gno al ", "4875": "gno a\u2019 ", "4876": "gno ed ", "4877": "gno ha ", "4878": "gno il ", "4879": "gno in ", "4880": "gno or ", "4881": "gro un ", "4882": "gua in ", "4883": "gue il ", "4884": "gue in ", "4885": "gu\u00ec \u2019l ", "4886": "li han ", "4887": "li ha\u2019 ", "4888": "lia il ", "4889": "lio ed ", "4890": "l\u2019 hai ", "4891": "l\u2019 uom ", "4892": "me e \u2019 ", "4893": "mia al ", "4894": "m\u2019 hai ", "4895": "m\u2019 han ", "4896": "na\u2019 il ", "4897": "ne e i ", "4898": "ne e \u2019 ", "4899": "ne han ", "4900": "ni e i ", "4901": "ni e \u2019 ", "4902": "nia il ", "4903": "nio al ", "4904": "n\u2019 uom ", "4905": "pa e \u2019 ", "4906": "pia in ", "4907": "pi\u00e9 \u2019l ", "4908": "pi\u00f9 \u2019l ", "4909": "po e \u2019 ", "4910": "pra al ", "4911": "pra ed ", "4912": "pra in ", "4913": "pra \u2019l ", "4914": "pre al ", "4915": "pre a\u2019 ", "4916": "pre ha ", "4917": "pre in ", "4918": "pre \u2019l ", "4919": "pria e ", "4920": "pria o ", "4921": "pu\u00f2 \u2019l ", "4922": "qua al ", "4923": "qua il ", "4924": "qua in ", "4925": "qua io ", "4926": "que ad ", "4927": "que al ", "4928": "que a\u2019 ", "4929": "que il ", "4930": "que in ", "4931": "que io ", "4932": "que i\u2019 ", "4933": "que or ", "4934": "qui un ", "4935": "qui \u2019l ", "4936": "qu\u2019 io ", "4937": "ra hai ", "4938": "ra han ", "4939": "ri e \u2019 ", "4940": "ria al ", "4941": "ria il ", "4942": "rio ha ", "4943": "rio ho ", "4944": "rio il ", "4945": "rio in ", "4946": "ro e \u2019 ", "4947": "ro hai ", "4948": "sa e \u2019 ", "4949": "sce il ", "4950": "sce in ", "4951": "sche o ", "4952": "schi a ", "4953": "schi o ", "4954": "schiar ", "4955": "scia a ", "4956": "scia e ", "4957": "scia o ", "4958": "scio a ", "4959": "sco il ", "4960": "sc\u00ec \u2019l ", "4961": "sc\u2019 io ", "4962": "se uom ", "4963": "se\u2019 in ", "4964": "si e \u2019 ", "4965": "sia \u2019l ", "4966": "smo al ", "4967": "smo in ", "4968": "so hai ", "4969": "so\u2019 \u2019n ", "4970": "spra e ", "4971": "sta al ", "4972": "sta il ", "4973": "sta in ", "4974": "sta un ", "4975": "sta \u2019n ", "4976": "ste il ", "4977": "ste in ", "4978": "sti ha ", "4979": "sti il ", "4980": "sti in ", "4981": "sti \u2019l ", "4982": "stia e ", "4983": "stie e ", "4984": "stio e ", "4985": "sto ad ", "4986": "sto al ", "4987": "sto ha ", "4988": "sto il ", "4989": "sto in ", "4990": "sto io ", "4991": "stra a ", "4992": "stra e ", "4993": "stra \u00e8 ", "4994": "strans ", "4995": "stri e ", "4996": "stro a ", "4997": "stro e ", "4998": "stro i ", "4999": "stro o ", "5000": "stro \u00e8 ", "5001": "st\u2019 ho ", "5002": "s\u2019 hai ", "5003": "te han ", "5004": "ti e i ", "5005": "ti e \u2019 ", "5006": "ti han ", "5007": "to hai ", "5008": "tra al ", "5009": "tra il ", "5010": "tra in ", "5011": "tra i\u2019 ", "5012": "tra \u2019l ", "5013": "tre al ", "5014": "tre il ", "5015": "tre in ", "5016": "tre i\u2019 ", "5017": "tre un ", "5018": "tri ad ", "5019": "tri il ", "5020": "tri or ", "5021": "tri \u2019l ", "5022": "trio e ", "5023": "tro ad ", "5024": "tro ai ", "5025": "tro al ", "5026": "tro a\u2019 ", "5027": "tro ed ", "5028": "tro ha ", "5029": "tro il ", "5030": "tro in ", "5031": "tro io ", "5032": "tro i\u2019 ", "5033": "tro un ", "5034": "tro \u2019l ", "5035": "tr\u2019 al ", "5036": "tr\u2019 a\u2019 ", "5037": "tr\u2019 io ", "5038": "t\u2019 hai ", "5039": "t\u2019 ha\u2019 ", "5040": "va e i ", "5041": "vea \u2019l ", "5042": "vra \u2019l ", "5043": "zia il ", "5044": "zia in ", "5045": "zie al ", "5046": "zio al ", "5047": "\u2019ve \u2019l ", "5048": "be e \u2019l ", "5049": "bo e \u2019l ", "5050": "bre e \u2019 ", "5051": "ca e \u2019l ", "5052": "ce e \u2019l ", "5053": "che e \u2019 ", "5054": "chia al ", "5055": "chio al ", "5056": "chio ha ", "5057": "chio il ", "5058": "chio in ", "5059": "ch\u2019 uom ", "5060": "ci e \u2019l ", "5061": "co e \u2019l ", "5062": "de e \u2019l ", "5063": "de e \u2019n ", "5064": "dia e i ", "5065": "do e \u2019n ", "5066": "dre e \u2019 ", "5067": "ga e \u2019l ", "5068": "glia al ", "5069": "glia il ", "5070": "glia in ", "5071": "glia un ", "5072": "glie in ", "5073": "glie \u2019l ", "5074": "glio ai ", "5075": "glio in ", "5076": "glio or ", "5077": "gne uom ", "5078": "go e \u2019l ", "5079": "go \u00e8 in ", "5080": "la e \u2019l ", "5081": "le e il ", "5082": "le e \u2019l ", "5083": "lio e i ", "5084": "lo \u00e8 in ", "5085": "l\u2019 \u00e8 \u2019l ", "5086": "ma e \u2019l ", "5087": "me e \u2019l ", "5088": "me e \u2019n ", "5089": "mi e \u2019l ", "5090": "mo e \u2019l ", "5091": "m\u2019 \u00e8 il ", "5092": "m\u2019 \u00e8 \u2019l ", "5093": "na e \u2019l ", "5094": "ne e \u2019l ", "5095": "no e \u2019l ", "5096": "po e \u2019l ", "5097": "qu\u2019 ieu ", "5098": "ra e \u2019l ", "5099": "re e in ", "5100": "re e \u2019l ", "5101": "ro e \u2019l ", "5102": "sa e \u2019l ", "5103": "schia e ", "5104": "schio e ", "5105": "scia il ", "5106": "sci\u00f2 il ", "5107": "se e \u2019l ", "5108": "si e \u2019l ", "5109": "so e \u2019l ", "5110": "stia ad ", "5111": "stra il ", "5112": "stra \u2019l ", "5113": "stri in ", "5114": "stro ed ", "5115": "stro il ", "5116": "stro in ", "5117": "stro or ", "5118": "ta e \u2019l ", "5119": "ta e \u2019n ", "5120": "te e \u2019l ", "5121": "te e \u2019n ", "5122": "ti e \u2019l ", "5123": "to e \u2019l ", "5124": "to o al ", "5125": "to \u00e8 \u2019l ", "5126": "tra e \u2019 ", "5127": "tr\u2019 ier ", "5128": "va e \u2019l ", "5129": "va e \u2019n ", "5130": "vo e \u2019l ", "5131": "v\u2019 \u00e8 in ", "5132": "v\u2019 \u00e8 \u2019l ", "5133": "za e \u2019l ", "5134": "zo e \u2019l ", "5135": "bia e \u2019l ", "5136": "bra e \u2019l ", "5137": "chi e \u2019l ", "5138": "ch\u2019 \u00e8 in ", "5139": "cia e \u2019l ", "5140": "c\u2019 ha \u2019l ", "5141": "dio e \u2019l ", "5142": "dio \u00e8 \u2019l ", "5143": "dre e \u2019l ", "5144": "d\u2019 io \u2019l ", "5145": "gio e \u2019l ", "5146": "gli e in ", "5147": "l\u2019 ha in ", "5148": "pra e \u2019l ", "5149": "que e \u2019l ", "5150": "ria e \u2019l ", "5151": "ria \u00e8 \u2019l ", "5152": "schi uom ", "5153": "so ha \u2019l ", "5154": "sta e \u2019l ", "5155": "sta \u00e8 in ", "5156": "sti \u00e8 \u2019l ", "5157": "stie hai ", "5158": "st\u2019 \u00e8 \u2019l ", "5159": "s\u2019 i\u2019 \u2019l ", "5160": "te ha in ", "5161": "to ha \u2019l ", "5162": "tra e \u2019l ", "5163": "tre e \u2019l ", "5164": "tri e \u2019l ", "5165": "tro e \u2019l ", "5166": "tr\u2019 \u00e8 \u2019l ", "5167": "v\u2019 ha \u2019l ", "5168": "zie e \u2019l ", "5169": "zio e \u2019l ", "5170": "chie e \u2019n ", "5171": "chio e \u2019l ", "5172": "chio o \u2019l ", "5173": "ch\u2019 io \u2019l ", "5174": "ch\u2019 i\u2019 \u2019l ", "5175": "glio e \u2019l ", "5176": "scia e \u2019l ", "5177": "stro e \u2019l "}