{"0": "", "1": "<t>", "2": "<s>", "3": "<v>", "4": "</v>", "5": "\u2018", "6": "\u2019", "7": "u", "8": "p", "9": "\u00ec", "10": "\u00eb", "11": "\u00e9", "12": "l", "13": "\u00fc", "14": "\u00e8", "15": "v", "16": "s", "17": "e", "18": "\u00ef", "19": "i", "20": "o", "21": "g", "22": "c", "23": "\u00f2", "24": "a", "25": "\u00f9", "26": "d", "27": "bu", "28": "\u00e8e", "29": "un", "30": "e\u2019", "31": "go", "32": "qu", "33": "su", "34": "vo", "35": "ra", "36": "eb", "37": "b\u00e8", "38": "\u00e8l", "39": "b\u00ec", "40": "c\u00ef", "41": "am", "42": "on", "43": "g\u2019", "44": "t\u00f9", "45": "n\u00ec", "46": "ge", "47": "v\u00f2", "48": "c\u00f2", "49": "li", "50": "\u00e0s", "51": "re", "52": "ex", "53": "il", "54": "d\u00ef", "55": "d\u00e0", "56": "l\u00eb", "57": "ia", "58": "of", "59": "v\u00e8", "60": "b\u00eb", "61": "g\u00e8", "62": "af", "63": "pi", "64": "p\u2019", "65": "p\u00fc", "66": "s\u00e8", "67": "ti", "68": "oc", "69": "b\u00ef", "70": "ai", "71": "\u2019n", "72": "\u00e0r", "73": "fo", "74": "za", "75": "fu", "76": "vi", "77": "m\u00e4", "78": "g\u00ec", "79": "em", "80": "ru", "81": "ul", "82": "s\u00fc", "83": "zi", "84": "d\u00fc", "85": "r\u00f3", "86": "ae", "87": "ca", "88": "m\u00f2", "89": "at", "90": "um", "91": "\u00f2n", "92": "d\u00e8", "93": "r\u00ef", "94": "as", "95": "l\u00ec", "96": "\u2019l", "97": "is", "98": "ri", "99": "na", "100": "ut", "101": "du", "102": "m\u00eb", "103": "z\u00ef", "104": "co", "105": "v\u00ef", "106": "n\u00e8", "107": "os", "108": "f\u00e0", "109": "m\u00ef", "110": "og", "111": "ol", "112": "t\u2019", "113": "ag", "114": "op", "115": "ci", "116": "t\u00f2", "117": "eu", "118": "ne", "119": "d\u00e9", "120": "ch", "121": "so", "122": "v\u00e9", "123": "c\u00fc", "124": "m\u00ec", "125": "ur", "126": "t\u00e8", "127": "fe", "128": "l\u00e8", "129": "hi", "130": "s\u00ef", "131": "in", "132": "om", "133": "g\u00f2", "134": "p\u00eb", "135": "mo", "136": "\u00e8n", "137": "c\u00f9", "138": "z\u2019", "139": "et", "140": "ei", "141": "r\u00eb", "142": "t\u00ec", "143": "ap", "144": "no", "145": "n\u00ef", "146": "te", "147": "t\u00fc", "148": "f\u00f3", "149": "se", "150": "pe", "151": "th", "152": "pa", "153": "b\u00f2", "154": "l\u2019", "155": "v\u2019", "156": "uc", "157": "d\u00ec", "158": "c\u00ec", "159": "fi", "160": "g\u00fc", "161": "ta", "162": "t\u00eb", "163": "ze", "164": "iu", "165": "a\u2019", "166": "g\u00f3", "167": "l\u00f2", "168": "xi", "169": "pu", "170": "si", "171": "es", "172": "\u00e0n", "173": "\u00e0m", "174": "v\u00ec", "175": "l\u00ef", "176": "d\u00f2", "177": "r\u2019", "178": "\u00e8v", "179": "zo", "180": "l\u00f6", "181": "\u00e9n", "182": "r\u00e0", "183": "uo", "184": "c\u00eb", "185": "io", "186": "ad", "187": "t\u00e9", "188": "t\u00ef", "189": "f\u00ef", "190": "r\u00f2", "191": "al", "192": "to", "193": "an", "194": "b\u00f9", "195": "or", "196": "n\u00fc", "197": "p\u00ec", "198": "s\u00f2", "199": "p\u00ef", "200": "u\u2019", "201": "n\u00f2", "202": "lo", "203": "nu", "204": "ir", "205": "n\u00eb", "206": "ve", "207": "z\u00f2", "208": "sc", "209": "ab", "210": "s\u2019", "211": "de", "212": "t\u00e0", "213": "s\u00e9", "214": "p\u00f2", "215": "oh", "216": "r\u00e8", "217": "ov", "218": "bo", "219": "ed", "220": "\u2019m", "221": "er", "222": "l\u00e0", "223": "ma", "224": "\u00f3n", "225": "g\u00eb", "226": "ec", "227": "fa", "228": "us", "229": "st", "230": "t\u00e4", "231": "s\u00ec", "232": "da", "233": "ot", "234": "p\u00e8", "235": "m\u00e8", "236": "n\u00e9", "237": "do", "238": "me", "239": "cu", "240": "au", "241": "be", "242": "b\u2019", "243": "c\u00e8", "244": "m\u2019", "245": "n\u2019", "246": "ga", "247": "s\u00eb", "248": "vu", "249": "ie", "250": "el", "251": "ho", "252": "va", "253": "\u00f9l", "254": "mi", "255": "ro", "256": "gu", "257": "ha", "258": "im", "259": "s\u00e0", "260": "ce", "261": "r\u00ec", "262": "az", "263": "l\u00fc", "264": "ac", "265": "ar", "266": "ef", "267": "en", "268": "di", "269": "gi", "270": "ob", "271": "n\u00e0", "272": "sa", "273": "od", "274": "le", "275": "v\u00eb", "276": "la", "277": "f\u00e9", "278": "mu", "279": "i\u2019", "280": "lu", "281": "d\u2019", "282": "c\u2019", "283": "c\u00e9", "284": "s\u00f9", "285": "ba", "286": "bi", "287": "\u00e8i", "288": "tu", "289": "id", "290": "d\u00eb", "291": "av", "292": "\u00ecs", "293": "\u00f2s", "294": "po", "295": "g\u00ef", "296": "ni", "297": "f\u00f2", "298": "f\u00eb", "299": "bia", "300": "sep", "301": "che", "302": "nal", "303": "ric", "304": "ros", "305": "sor", "306": "dit", "307": "chi", "308": "rio", "309": "sua", "310": "gob", "311": "lu\u2019", "312": "cov", "313": "flu", "314": "er\u2019", "315": "cin", "316": "tar", "317": "bom", "318": "tr\u2019", "319": "cu\u2019", "320": "mie", "321": "dub", "322": "fon", "323": "bli", "324": "din", "325": "zul", "326": "sud", "327": "zio", "328": "qu\u2019", "329": "dee", "330": "gar", "331": "fiu", "332": "vam", "333": "nor", "334": "ten", "335": "pr\u00ec", "336": "uom", "337": "del", "338": "pin", "339": "dif", "340": "sol", "341": "teg", "342": "com", "343": "ch\u00ec", "344": "bro", "345": "fei", "346": "run", "347": "fes", "348": "cer", "349": "pol", "350": "gru", "351": "gni", "352": "lac", "353": "ta\u2019", "354": "car", "355": "fis", "356": "rer", "357": "te\u2019", "358": "bi\u00f2", "359": "rui", "360": "bri", "361": "sve", "362": "pi\u00e9", "363": "ree", "364": "noz", "365": "cla", "366": "feb", "367": "van", "368": "s\u00ece", "369": "sra", "370": "par", "371": "bie", "372": "neo", "373": "ion", "374": "pro", "375": "fol", "376": "lee", "377": "gh\u2019", "378": "bea", "379": "lio", "380": "noi", "381": "giu", "382": "seg", "383": "suc", "384": "poc", "385": "ve\u2019", "386": "sc\u00ec", "387": "lez", "388": "zai", "389": "det", "390": "su\u2019", "391": "gi\u00e0", "392": "vir", "393": "r\u00ece", "394": "tue", "395": "man", "396": "cac", "397": "lit", "398": "con", "399": "reo", "400": "mus", "401": "t\u00e9r", "402": "pio", "403": "rid", "404": "ron", "405": "nie", "406": "cep", "407": "sia", "408": "la\u2019", "409": "sic", "410": "fan", "411": "rol", "412": "cra", "413": "smo", "414": "leo", "415": "rit", "416": "lei", "417": "mer", "418": "mee", "419": "tad", "420": "fom", "421": "per", "422": "pil", "423": "zon", "424": "st\u00f9", "425": "doc", "426": "gna", "427": "sug", "428": "plu", "429": "p\u00eca", "430": "pac", "431": "dos", "432": "ne\u2019", "433": "muc", "434": "lun", "435": "vac", "436": "tom", "437": "sla", "438": "vio", "439": "nei", "440": "rug", "441": "dun", "442": "met", "443": "meo", "444": "dru", "445": "ves", "446": "das", "447": "rei", "448": "dar", "449": "rua", "450": "bir", "451": "ler", "452": "zac", "453": "pi\u00e8", "454": "gi\u00f2", "455": "lin", "456": "set", "457": "far", "458": "cui", "459": "peg", "460": "pap", "461": "tac", "462": "rum", "463": "mii", "464": "dop", "465": "fe\u2019", "466": "fin", "467": "lap", "468": "cur", "469": "fue", "470": "st\u00ec", "471": "ghe", "472": "pom", "473": "dob", "474": "tuo", "475": "tet", "476": "mes", "477": "bab", "478": "pub", "479": "nea", "480": "cit", "481": "pon", "482": "tra", "483": "ti\u2019", "484": "cul", "485": "dri", "486": "r\u00f2l", "487": "gu\u00f2", "488": "bl\u00ef", "489": "nio", "490": "pr\u2019", "491": "pea", "492": "lul", "493": "sil", "494": "rac", "495": "sfe", "496": "vid", "497": "coz", "498": "dil", "499": "bar", "500": "riz", "501": "sal", "502": "pog", "503": "ram", "504": "lim", "505": "ghi", "506": "zuf", "507": "ior", "508": "dui", "509": "vie", "510": "pri", "511": "lil", "512": "ieu", "513": "ian", "514": "sur", "515": "v\u00ecd", "516": "ras", "517": "fic", "518": "gri", "519": "biz", "520": "nim", "521": "ha\u2019", "522": "fug", "523": "pir", "524": "sc\u00ef", "525": "sin", "526": "sgo", "527": "ceo", "528": "sag", "529": "gue", "530": "bas", "531": "fi\u00f2", "532": "sei", "533": "pau", "534": "mor", "535": "pu\u00f2", "536": "vel", "537": "cos", "538": "cle", "539": "cor", "540": "peo", "541": "ria", "542": "num", "543": "pal", "544": "t\u00e0n", "545": "lia", "546": "dot", "547": "gil", "548": "reb", "549": "mat", "550": "di\u2019", "551": "guc", "552": "fos", "553": "lel", "554": "d\u00eca", "555": "gin", "556": "tan", "557": "tag", "558": "gai", "559": "vuo", "560": "bui", "561": "mac", "562": "uhi", "563": "gis", "564": "gom", "565": "gag", "566": "bef", "567": "ver", "568": "vol", "569": "nig", "570": "leg", "571": "rec", "572": "lui", "573": "tut", "574": "d\u00e8i", "575": "hai", "576": "dua", "577": "tau", "578": "sap", "579": "p\u00e0r", "580": "dei", "581": "sio", "582": "deo", "583": "rea", "584": "ral", "585": "pul", "586": "pr\u00e0", "587": "rat", "588": "tri", "589": "nol", "590": "dio", "591": "nul", "592": "fu\u2019", "593": "vos", "594": "pie", "595": "gnu", "596": "nai", "597": "lop", "598": "ton", "599": "nez", "600": "ple", "601": "dez", "602": "roz", "603": "sun", "604": "b\u00eca", "605": "mos", "606": "cap", "607": "gem", "608": "mel", "609": "nas", "610": "sup", "611": "co\u2019", "612": "de\u2019", "613": "sue", "614": "vit", "615": "fib", "616": "pos", "617": "bul", "618": "m\u00e8c", "619": "rir", "620": "da\u2019", "621": "sop", "622": "ren", "623": "der", "624": "lar", "625": "pia", "626": "mag", "627": "sma", "628": "gad", "629": "leb", "630": "bre", "631": "lor", "632": "sv\u00ef", "633": "sam", "634": "gel", "635": "toc", "636": "lur", "637": "lab", "638": "vis", "639": "rof", "640": "poi", "641": "guz", "642": "dr\u00ec", "643": "luo", "644": "nic", "645": "cis", "646": "bin", "647": "mum", "648": "mur", "649": "puc", "650": "gal", "651": "nac", "652": "tii", "653": "fie", "654": "sul", "655": "gei", "656": "fog", "657": "sc\u2019", "658": "cen", "659": "c\u00f2b", "660": "ma\u2019", "661": "bev", "662": "guo", "663": "nom", "664": "vei", "665": "tia", "666": "deh", "667": "r\u00f3n", "668": "dr\u00ef", "669": "s\u00f3n", "670": "du\u2019", "671": "luc", "672": "gra", "673": "dr\u00e0", "674": "sir", "675": "mil", "676": "neb", "677": "pes", "678": "zaf", "679": "bor", "680": "dur", "681": "dic", "682": "gib", "683": "l\u00eco", "684": "tuf", "685": "bol", "686": "tol", "687": "t\u00f2n", "688": "unt", "689": "qu\u00ef", "690": "tui", "691": "rot", "692": "nat", "693": "xil", "694": "gen", "695": "sta", "696": "t\u00f3n", "697": "dre", "698": "laz", "699": "sfo", "700": "clo", "701": "tec", "702": "noc", "703": "pra", "704": "lat", "705": "nii", "706": "dut", "707": "moz", "708": "v\u00f2l", "709": "top", "710": "ran", "711": "fuo", "712": "vor", "713": "sca", "714": "gua", "715": "gie", "716": "fur", "717": "rao", "718": "lan", "719": "tun", "720": "gor", "721": "tos", "722": "di\u00e8", "723": "gas", "724": "feo", "725": "sr\u00e4", "726": "ra\u2019", "727": "roc", "728": "sez", "729": "rap", "730": "l\u00eca", "731": "tum", "732": "loc", "733": "ch\u00e9", "734": "spi", "735": "muf", "736": "sec", "737": "via", "738": "von", "739": "diz", "740": "got", "741": "sfa", "742": "mai", "743": "ial", "744": "vai", "745": "t\u00f2m", "746": "poz", "747": "fro", "748": "suo", "749": "ni\u2019", "750": "f\u00e0c", "751": "dra", "752": "spo", "753": "sof", "754": "buf", "755": "rez", "756": "mas", "757": "paz", "758": "gat", "759": "n\u00f2i", "760": "ch\u00ef", "761": "var", "762": "soz", "763": "pur", "764": "bot", "765": "nil", "766": "spu", "767": "cie", "768": "svi", "769": "maz", "770": "c\u00f2l", "771": "dov", "772": "cel", "773": "tal", "774": "st\u00ef", "775": "iep", "776": "nha", "777": "buc", "778": "fra", "779": "cil", "780": "dan", "781": "nur", "782": "ciu", "783": "sod", "784": "tru", "785": "gim", "786": "mir", "787": "gol", "788": "f\u00f3n", "789": "l\u00e8m", "790": "rel", "791": "vii", "792": "sai", "793": "bue", "794": "dol", "795": "pig", "796": "cot", "797": "dea", "798": "ber", "799": "joi", "800": "sit", "801": "mal", "802": "mi\u2019", "803": "t\u00f2r", "804": "gab", "805": "fio", "806": "vet", "807": "sno", "808": "giz", "809": "fet", "810": "d\u00ece", "811": "tr\u00e0", "812": "cio", "813": "ste", "814": "ful", "815": "can", "816": "gur", "817": "mio", "818": "deg", "819": "sme", "820": "ahi", "821": "tir", "822": "sbi", "823": "\u2018ne", "824": "sos", "825": "plo", "826": "gau", "827": "p\u00f2s", "828": "gan", "829": "fel", "830": "zie", "831": "ga\u2019", "832": "cia", "833": "tr\u00ef", "834": "nuc", "835": "cir", "836": "ser", "837": "nar", "838": "pec", "839": "lus", "840": "buo", "841": "fab", "842": "sna", "843": "vas", "844": "deb", "845": "sus", "846": "meg", "847": "\u2018la", "848": "cl\u00ef", "849": "caf", "850": "mul", "851": "mug", "852": "dug", "853": "mun", "854": "cea", "855": "nev", "856": "lav", "857": "m\u00e9z", "858": "tam", "859": "get", "860": "st\u00e9", "861": "tin", "862": "vom", "863": "sco", "864": "pis", "865": "rob", "866": "rig", "867": "me\u2019", "868": "cli", "869": "cei", "870": "don", "871": "n\u00eca", "872": "r\u00ecb", "873": "bus", "874": "dal", "875": "gio", "876": "cuc", "877": "bac", "878": "gi\u2019", "879": "rog", "880": "cri", "881": "tre", "882": "fam", "883": "sui", "884": "nun", "885": "beo", "886": "rom", "887": "pop", "888": "za\u2019", "889": "sp\u00ef", "890": "pan", "891": "fia", "892": "hon", "893": "sen", "894": "lep", "895": "nen", "896": "dau", "897": "pli", "898": "rav", "899": "sot", "900": "ges", "901": "lic", "902": "bel", "903": "vea", "904": "bei", "905": "pen", "906": "dat", "907": "mon", "908": "gea", "909": "sto", "910": "bug", "911": "cad", "912": "for", "913": "tel", "914": "col", "915": "z\u00f2n", "916": "cas", "917": "fuc", "918": "gu\u00ec", "919": "cez", "920": "puo", "921": "gon", "922": "dec", "923": "geo", "924": "pii", "925": "gre", "926": "dia", "927": "sar", "928": "dro", "929": "ret", "930": "pot", "931": "pl\u00ec", "932": "clu", "933": "sel", "934": "cob", "935": "red", "936": "iat", "937": "mar", "938": "pun", "939": "ril", "940": "cat", "941": "voi", "942": "sii", "943": "lip", "944": "saf", "945": "re\u2019", "946": "f\u00e0s", "947": "dor", "948": "pla", "949": "niz", "950": "ri\u2019", "951": "raz", "952": "zuc", "953": "nis", "954": "st\u2019", "955": "dii", "956": "rai", "957": "fla", "958": "fum", "959": "\u2019ve", "960": "gui", "961": "die", "962": "boc", "963": "sde", "964": "gno", "965": "d\u00ect", "966": "min", "967": "sga", "968": "rie", "969": "cop", "970": "fri", "971": "fi\u2019", "972": "fit", "973": "vil", "974": "f\u00e8l", "975": "m\u00eca", "976": "n\u00ect", "977": "spa", "978": "rup", "979": "dir", "980": "ban", "981": "cag", "982": "bis", "983": "cr\u00e0", "984": "tr\u00f2", "985": "piu", "986": "vem", "987": "tim", "988": "mot", "989": "n\u00ece", "990": "bil", "991": "raf", "992": "pre", "993": "br\u00ef", "994": "dam", "995": "dai", "996": "f\u00e9e", "997": "mol", "998": "tus", "999": "tic", "1000": "rar", "1001": "cre", "1002": "nag", "1003": "lis", "1004": "lir", "1005": "pic", "1006": "gam", "1007": "stu", "1008": "sa\u2019", "1009": "dom", "1010": "so\u2019", "1011": "tur", "1012": "g\u00f3r", "1013": "son", "1014": "goc", "1015": "coc", "1016": "fig", "1017": "nan", "1018": "pei", "1019": "lot", "1020": "puz", "1021": "bet", "1022": "ses", "1023": "zar", "1024": "sat", "1025": "ven", "1026": "rim", "1027": "som", "1028": "luz", "1029": "mia", "1030": "tei", "1031": "se\u2019", "1032": "tie", "1033": "gne", "1034": "fil", "1035": "nir", "1036": "lut", "1037": "soc", "1038": "f\u00e9l", "1039": "st\u00e0", "1040": "sis", "1041": "vat", "1042": "glo", "1043": "sbe", "1044": "cet", "1045": "por", "1046": "sog", "1047": "feg", "1048": "vul", "1049": "cun", "1050": "mam", "1051": "coi", "1052": "ean", "1053": "smu", "1054": "sem", "1055": "dis", "1056": "fem", "1057": "sac", "1058": "cic", "1059": "zel", "1060": "fre", "1061": "ter", "1062": "va\u2019", "1063": "sti", "1064": "pru", "1065": "g\u00f3n", "1066": "sub", "1067": "tem", "1068": "nia", "1069": "tez", "1070": "tes", "1071": "r\u00e8g", "1072": "non", "1073": "gir", "1074": "b\u00e0l", "1075": "tuc", "1076": "lam", "1077": "neg", "1078": "nin", "1079": "st\u00f2", "1080": "l\u00f2n", "1081": "rem", "1082": "sie", "1083": "pet", "1084": "duo", "1085": "rut", "1086": "val", "1087": "git", "1088": "bec", "1089": "n\u00f2s", "1090": "han", "1091": "goz", "1092": "fal", "1093": "lem", "1094": "ch\u2019", "1095": "gi\u00f9", "1096": "pat", "1097": "pi\u00f9", "1098": "mei", "1099": "cau", "1100": "ruc", "1101": "nes", "1102": "cut", "1103": "vau", "1104": "fen", "1105": "tro", "1106": "bat", "1107": "sle", "1108": "nob", "1109": "men", "1110": "vra", "1111": "bee", "1112": "ris", "1113": "zan", "1114": "cum", "1115": "vo\u2019", "1116": "rii", "1117": "gaz", "1118": "fui", "1119": "fru", "1120": "fas", "1121": "na\u2019", "1122": "spe", "1123": "lom", "1124": "sob", "1125": "m\u00ecs", "1126": "lai", "1127": "cuo", "1128": "reg", "1129": "uo\u2019", "1130": "but", "1131": "lon", "1132": "bru", "1133": "veg", "1134": "den", "1135": "fai", "1136": "zia", "1137": "cro", "1138": "tea", "1139": "bur", "1140": "fac", "1141": "fun", "1142": "ror", "1143": "rin", "1144": "ces", "1145": "dus", "1146": "pit", "1147": "dr\u00e4", "1148": "c\u00f3l", "1149": "fat", "1150": "n\u00e8s", "1151": "nuo", "1152": "tat", "1153": "sas", "1154": "ruf", "1155": "zur", "1156": "las", "1157": "lie", "1158": "mez", "1159": "tai", "1160": "mae", "1161": "zii", "1162": "pel", "1163": "til", "1164": "bal", "1165": "fer", "1166": "ruo", "1167": "sce", "1168": "lup", "1169": "tle", "1170": "sov", "1171": "cam", "1172": "\u2019v\u2019", "1173": "seo", "1174": "gn\u00ec", "1175": "cru", "1176": "mea", "1177": "ier", "1178": "due", "1179": "cem", "1180": "tis", "1181": "f\u00e0t", "1182": "vag", "1183": "gl\u2019", "1184": "tua", "1185": "bra", "1186": "rab", "1187": "gli", "1188": "teo", "1189": "sum", "1190": "fle", "1191": "smi", "1192": "sab", "1193": "quo", "1194": "bon", "1195": "tho", "1196": "let", "1197": "r\u00ecs", "1198": "\u2018te", "1199": "lec", "1200": "pem", "1201": "dim", "1202": "les", "1203": "des", "1204": "net", "1205": "vin", "1206": "nef", "1207": "ner", "1208": "tor", "1209": "ger", "1210": "not", "1211": "gia", "1212": "qui", "1213": "cai", "1214": "scu", "1215": "vec", "1216": "su\u00e8", "1217": "nec", "1218": "ci\u00f2", "1219": "dem", "1220": "san", "1221": "suf", "1222": "lea", "1223": "len", "1224": "b\u00e8l", "1225": "piz", "1226": "lau", "1227": "boz", "1228": "dul", "1229": "vez", "1230": "tas", "1231": "sci", "1232": "cal", "1233": "no\u2019", "1234": "bun", "1235": "gro", "1236": "jau", "1237": "cef", "1238": "c\u00e9r", "1239": "que", "1240": "res", "1241": "viz", "1242": "qua", "1243": "sba", "1244": "mic", "1245": "c\u00e0n", "1246": "pas", "1247": "svo", "1248": "muo", "1249": "bio", "1250": "rag", "1251": "tio", "1252": "s\u00f9e", "1253": "nem", "1254": "put", "1255": "dr\u00f2", "1256": "iar", "1257": "ben", "1258": "nel", "1259": "pue", "1260": "mem", "1261": "trea", "1262": "tror", "1263": "quam", "1264": "giun", "1265": "smon", "1266": "plau", "1267": "gnen", "1268": "muel", "1269": "trot", "1270": "cias", "1271": "pruo", "1272": "pres", "1273": "grap", "1274": "gnem", "1275": "biet", "1276": "brio", "1277": "grez", "1278": "plar", "1279": "sion", "1280": "sfer", "1281": "scom", "1282": "scuf", "1283": "spar", "1284": "giac", "1285": "gnan", "1286": "ciai", "1287": "pien", "1288": "stet", "1289": "quan", "1290": "dies", "1291": "gior", "1292": "scis", "1293": "bria", "1294": "plor", "1295": "stie", "1296": "blan", "1297": "piag", "1298": "puol", "1299": "duol", "1300": "bent", "1301": "rien", "1302": "scun", "1303": "gnel", "1304": "guen", "1305": "miei", "1306": "cruc", "1307": "snel", "1308": "stop", "1309": "flig", "1310": "stan", "1311": "sti\u00f2", "1312": "ciuf", "1313": "chie", "1314": "gier", "1315": "spin", "1316": "chin", "1317": "scia", "1318": "ghi\u00f2", "1319": "gias", "1320": "chez", "1321": "sfar", "1322": "trei", "1323": "sdet", "1324": "prez", "1325": "dean", "1326": "zion", "1327": "cher", "1328": "scem", "1329": "gnaz", "1330": "biac", "1331": "stor", "1332": "frat", "1333": "com\u2019", "1334": "fiar", "1335": "bias", "1336": "vier", "1337": "spon", "1338": "fred", "1339": "gran", "1340": "spic", "1341": "pia\u2019", "1342": "bion", "1343": "mian", "1344": "scon", "1345": "puos", "1346": "siam", "1347": "ciam", "1348": "dian", "1349": "sden", "1350": "clas", "1351": "piac", "1352": "trul", "1353": "cion", "1354": "viam", "1355": "scie", "1356": "scre", "1357": "sbra", "1358": "pren", "1359": "trec", "1360": "scaz", "1361": "egyp", "1362": "greg", "1363": "guia", "1364": "scab", "1365": "ciom", "1366": "scot", "1367": "gras", "1368": "stes", "1369": "stis", "1370": "flet", "1371": "stem", "1372": "crin", "1373": "tris", "1374": "gher", "1375": "scic", "1376": "guit", "1377": "suon", "1378": "pros", "1379": "cras", "1380": "st\u00e8r", "1381": "cia\u2019", "1382": "quae", "1383": "bian", "1384": "brol", "1385": "tron", "1386": "drit", "1387": "scan", "1388": "mie\u2019", "1389": "stol", "1390": "pi\u00f9e", "1391": "dra\u2019", "1392": "laio", "1393": "glia", "1394": "prie", "1395": "lier", "1396": "brie", "1397": "fior", "1398": "guaz", "1399": "sci\u00f2", "1400": "giai", "1401": "gnum", "1402": "ghie", "1403": "buon", "1404": "spol", "1405": "rean", "1406": "vuol", "1407": "trac", "1408": "giug", "1409": "ples", "1410": "trio", "1411": "spro", "1412": "naio", "1413": "scea", "1414": "ghin", "1415": "gnes", "1416": "giar", "1417": "ghia", "1418": "guir", "1419": "fioc", "1420": "qual", "1421": "riai", "1422": "trag", "1423": "glio", "1424": "brar", "1425": "chet", "1426": "quin", "1427": "trar", "1428": "driz", "1429": "sc\u00eco", "1430": "glau", "1431": "dier", "1432": "cioc", "1433": "scar", "1434": "chi\u00f2", "1435": "quai", "1436": "spuo", "1437": "grop", "1438": "trom", "1439": "bran", "1440": "ph\u00e8l", "1441": "spaz", "1442": "dram", "1443": "chel", "1444": "tean", "1445": "grem", "1446": "pris", "1447": "gien", "1448": "stec", "1449": "ci\u00f2l", "1450": "bia\u2019", "1451": "drea", "1452": "svia", "1453": "giuo", "1454": "muor", "1455": "scet", "1456": "stai", "1457": "fuor", "1458": "stiz", "1459": "\u2018glo", "1460": "blio", "1461": "drai", "1462": "ciul", "1463": "sfam", "1464": "bree", "1465": "trap", "1466": "sfre", "1467": "glet", "1468": "sie\u2019", "1469": "quel", "1470": "prin", "1471": "stas", "1472": "gion", "1473": "grue", "1474": "gnas", "1475": "sfan", "1476": "vria", "1477": "ghil", "1478": "scri", "1479": "\u2019vun", "1480": "nian", "1481": "sgri", "1482": "str\u00f2", "1483": "giam", "1484": "spen", "1485": "creb", "1486": "sciu", "1487": "ghir", "1488": "dail", "1489": "trop", "1490": "gnon", "1491": "gioi", "1492": "spre", "1493": "cuor", "1494": "spec", "1495": "scim", "1496": "cian", "1497": "dron", "1498": "fian", "1499": "sbar", "1500": "gres", "1501": "tret", "1502": "squa", "1503": "smoz", "1504": "deum", "1505": "diam", "1506": "gli\u00f2", "1507": "guar", "1508": "ver\u2019", "1509": "trat", "1510": "piar", "1511": "spia", "1512": "tiam", "1513": "scac", "1514": "plan", "1515": "c\u00f2th", "1516": "ciel", "1517": "gheg", "1518": "scir", "1519": "bris", "1520": "steo", "1521": "spir", "1522": "sfio", "1523": "trai", "1524": "stui", "1525": "stei", "1526": "prei", "1527": "trui", "1528": "ghel", "1529": "tren", "1530": "stru", "1531": "spri", "1532": "ciac", "1533": "prec", "1534": "gnus", "1535": "smen", "1536": "smar", "1537": "scol", "1538": "tiem", "1539": "tien", "1540": "broc", "1541": "quar", "1542": "stuc", "1543": "tier", "1544": "sfat", "1545": "sten", "1546": "piat", "1547": "stav", "1548": "ghet", "1549": "crol", "1550": "chiu", "1551": "sfin", "1552": "rent", "1553": "drel", "1554": "grie", "1555": "ghio", "1556": "pran", "1557": "stam", "1558": "spra", "1559": "que\u2019", "1560": "dien", "1561": "pric", "1562": "pian", "1563": "spel", "1564": "gaio", "1565": "gean", "1566": "spes", "1567": "fiot", "1568": "dras", "1569": "spez", "1570": "guiz", "1571": "quie", "1572": "cria", "1573": "st\u00f2r", "1574": "pi\u00e9r", "1575": "span", "1576": "sman", "1577": "brot", "1578": "sgor", "1579": "gron", "1580": "biar", "1581": "brul", "1582": "ched", "1583": "fret", "1584": "guag", "1585": "scov", "1586": "muoi", "1587": "guai", "1588": "str\u00e0", "1589": "sver", "1590": "nier", "1591": "slac", "1592": "scoc", "1593": "guic", "1594": "sier", "1595": "tran", "1596": "frut", "1597": "sbri", "1598": "quat", "1599": "bren", "1600": "flit", "1601": "fles", "1602": "breo", "1603": "piog", "1604": "gram", "1605": "sgra", "1606": "scos", "1607": "scel", "1608": "scev", "1609": "ciap", "1610": "pria", "1611": "fren", "1612": "star", "1613": "trae", "1614": "brac", "1615": "brei", "1616": "nean", "1617": "guef", "1618": "suol", "1619": "rian", "1620": "chia", "1621": "vian", "1622": "ghes", "1623": "ciuo", "1624": "fien", "1625": "bron", "1626": "squi", "1627": "piez", "1628": "prun", "1629": "gner", "1630": "trie", "1631": "tras", "1632": "spun", "1633": "lian", "1634": "gi\u00f9e", "1635": "spie", "1636": "suo\u2019", "1637": "vuoi", "1638": "dria", "1639": "smal", "1640": "guon", "1641": "quen", "1642": "guan", "1643": "sien", "1644": "sgom", "1645": "puom", "1646": "ciot", "1647": "dhae", "1648": "ber\u2019", "1649": "quis", "1650": "scal", "1651": "puoi", "1652": "scor", "1653": "grot", "1654": "sper", "1655": "svel", "1656": "gial", "1657": "scuo", "1658": "guel", "1659": "tr\u00e0s", "1660": "chio", "1661": "prio", "1662": "zian", "1663": "nien", "1664": "cral", "1665": "doan", "1666": "maio", "1667": "tuoi", "1668": "sci\u2019", "1669": "tree", "1670": "gual", "1671": "stro", "1672": "sgan", "1673": "lien", "1674": "pion", "1675": "cean", "1676": "fran", "1677": "saia", "1678": "die\u2019", "1679": "guet", "1680": "vean", "1681": "quod", "1682": "scam", "1683": "fier", "1684": "guer", "1685": "pier", "1686": "tuo\u2019", "1687": "niam", "1688": "piom", "1689": "clis", "1690": "treb", "1691": "stre", "1692": "sfac", "1693": "liev", "1694": "slao", "1695": "brut", "1696": "cheo", "1697": "gian", "1698": "quor", "1699": "sdru", "1700": "gnia", "1701": "stin", "1702": "grat", "1703": "brug", "1704": "troc", "1705": "sber", "1706": "gros", "1707": "giot", "1708": "schi", "1709": "quer", "1710": "dran", "1711": "proc", "1712": "tria", "1713": "pri\u2019", "1714": "spit", "1715": "grep", "1716": "truo", "1717": "suoi", "1718": "sneb", "1719": "sche", "1720": "sban", "1721": "clau", "1722": "ciol", "1723": "crea", "1724": "cain", "1725": "fiam", "1726": "brez", "1727": "gnuo", "1728": "pluo", "1729": "gnar", "1730": "stra", "1731": "sunt", "1732": "vuo\u2019", "1733": "nail", "1734": "scer", "1735": "scen", "1736": "glie", "1737": "piov", "1738": "chis", "1739": "smor", "1740": "ziar", "1741": "tuon", "1742": "frui", "1743": "runt", "1744": "cheg", "1745": "gnor", "1746": "chil", "1747": "gnin", "1748": "gnie", "1749": "spal", "1750": "quei", "1751": "tra\u2019", "1752": "sfor", "1753": "drir", "1754": "cien", "1755": "graf", "1756": "scop", "1757": "guil", "1758": "stia", "1759": "scin", "1760": "grom", "1761": "stig", "1762": "blia", "1763": "lev\u00e4", "1764": "prir", "1765": "cl\u00e8s", "1766": "pron", "1767": "ghez", "1768": "stal", "1769": "fiac", "1770": "stri", "1771": "scro", "1772": "fron", "1773": "scio", "1774": "sven", "1775": "frir", "1776": "tram", "1777": "spet", "1778": "buoi", "1779": "ciar", "1780": "gnun", "1781": "stel", "1782": "stuo", "1783": "vien", "1784": "quil", "1785": "br\u00f2t", "1786": "prai", "1787": "cric", "1788": "ster", "1789": "spor", "1790": "laia", "1791": "drap", "1792": "viem", "1793": "stea", "1794": "str\u2019", "1795": "stil", "1796": "stio", "1797": "sian", "1798": "grin", "1799": "stul", "1800": "gluol", "1801": "sguar", "1802": "gliea", "1803": "ghiac", "1804": "sciam", "1805": "spran", "1806": "segn\u00f2", "1807": "stroz", "1808": "glior", "1809": "stram", "1810": "ghian", "1811": "schic", "1812": "schiu", "1813": "stret", "1814": "sciol", "1815": "spres", "1816": "glian", "1817": "stras", "1818": "schet", "1819": "splen", "1820": "schie", "1821": "ghiot", "1822": "sciar", "1823": "stier", "1824": "sciai", "1825": "schia", "1826": "strai", "1827": "gliet", "1828": "strom", "1829": "glien", "1830": "chier", "1831": "sci\u00e0n", "1832": "gliai", "1833": "schio", "1834": "stric", "1835": "chiet", "1836": "chiun", "1837": "scias", "1838": "ghiar", "1839": "chian", "1840": "scrit", "1841": "strut", "1842": "scheg", "1843": "sgiun", "1844": "glion", "1845": "squar", "1846": "spraz", "1847": "stroc", "1848": "scian", "1849": "glies", "1850": "ghiai", "1851": "scial", "1852": "sgher", "1853": "gliar", "1854": "stian", "1855": "strug", "1856": "stiam", "1857": "strar", "1858": "r\u00e0tro", "1859": "sfran", "1860": "schem", "1861": "squil", "1862": "sgrie", "1863": "ghien", "1864": "scris", "1865": "sciut", "1866": "stran", "1867": "stren", "1868": "chiar", "1869": "gioir", "1870": "scion", "1871": "triar", "1872": "gliel", "1873": "vrien", "1874": "scuoi", "1875": "staio", "1876": "chion", "1877": "stral", "1878": "strat", "1879": "chias", "1880": "streg", "1881": "sevra", "1882": "scran", "1883": "strin", "1884": "stial", "1885": "avria", "1886": "voill", "1887": "spiac", "1888": "gnaio", "1889": "stion", "1890": "gliam", "1891": "chiap", "1892": "svuol", "1893": "chioc", "1894": "gliuo", "1895": "glier", "1896": "strac", "1897": "sciau", "1898": "scrip", "1899": "temps", "1900": "scioc", "1901": "scher", "1902": "sciom", "1903": "chiai", "1904": "strel", "1905": "schiar", "1906": "avrian", "1907": "gliuoi", "1908": "schiet", "1909": "gliuol", "1910": "strans", "1911": "schian", "1912": "sdegn\u00f2", "1913": "schiat", "1914": "ghiaio"}