{"0": "", "1": "<v>", "2": "</v>", "3": "<t><v>", "4": "o", "5": "\u00ef", "6": "a", "7": "\u00e8", "8": "\u00fc", "9": "e", "10": "\u00f2", "11": "s", "12": "\u00e9", "13": "u", "14": "i", "15": "uo", "16": "at", "17": "va", "18": "az", "19": "d\u00eb", "20": "zi", "21": "bo", "22": "on", "23": "d\u00e8", "24": "go", "25": "gu", "26": "ne", "27": "ef", "28": "bi", "29": "di", "30": "vu", "31": "eb", "32": "gi", "33": "da", "34": "de", "35": "f\u00f3", "36": "ae", "37": "do", "38": "ru", "39": "ze", "40": "t\u00ef", "41": "l\u00f6", "42": "am", "43": "ob", "44": "be", "45": "un", "46": "mo", "47": "te", "48": "fo", "49": "d\u00e9", "50": "ur", "51": "ad", "52": "po", "53": "fe", "54": "oc", "55": "se", "56": "l\u00ec", "57": "em", "58": "ro", "59": "l\u00f2", "60": "so", "61": "v\u00ef", "62": "ga", "63": "\u00e8v", "64": "m\u00e8", "65": "ve", "66": "m\u00e4", "67": "d\u00fc", "68": "d\u00ef", "69": "os", "70": "ia", "71": "ca", "72": "v\u00f2", "73": "su", "74": "l\u00eb", "75": "g\u00f3", "76": "m\u00eb", "77": "ba", "78": "s\u00e9", "79": "na", "80": "f\u00e9", "81": "si", "82": "ce", "83": "ag", "84": "op", "85": "fu", "86": "le", "87": "ri", "88": "b\u00ef", "89": "lo", "90": "el", "91": "re", "92": "vi", "93": "pu", "94": "an", "95": "v\u00e8", "96": "f\u00eb", "97": "s\u00f2", "98": "sa", "99": "ta", "100": "al", "101": "et", "102": "ar", "103": "za", "104": "t\u00e8", "105": "r\u00ef", "106": "s\u00eb", "107": "il", "108": "du", "109": "p\u00fc", "110": "ha", "111": "l\u00fc", "112": "of", "113": "ge", "114": "ot", "115": "l\u00e0", "116": "c\u00f9", "117": "nu", "118": "io", "119": "pi", "120": "r\u00e8", "121": "g\u00e8", "122": "ra", "123": "t\u00f2", "124": "ni", "125": "og", "126": "pa", "127": "l\u00ef", "128": "m\u00ef", "129": "eu", "130": "co", "131": "b\u00eb", "132": "af", "133": "v\u00eb", "134": "f\u00ef", "135": "g\u00eb", "136": "r\u00f3", "137": "om", "138": "c\u00ef", "139": "ci", "140": "ie", "141": "id", "142": "ec", "143": "lu", "144": "n\u00fc", "145": "is", "146": "ap", "147": "fa", "148": "no", "149": "ac", "150": "g\u00ef", "151": "au", "152": "c\u00fc", "153": "pe", "154": "av", "155": "es", "156": "uc", "157": "c\u00ec", "158": "m\u00ec", "159": "me", "160": "s\u00e0", "161": "mi", "162": "p\u00ec", "163": "iu", "164": "l\u00e8", "165": "ab", "166": "r\u00e0", "167": "t\u00e4", "168": "fi", "169": "t\u00eb", "170": "n\u00ef", "171": "la", "172": "p\u00ef", "173": "n\u00eb", "174": "to", "175": "as", "176": "im", "177": "mu", "178": "li", "179": "ov", "180": "bu", "181": "n\u00f2", "182": "ma", "183": "c\u00eb", "184": "s\u00fc", "185": "t\u00fc", "186": "vo", "187": "n\u00e8", "188": "zo", "189": "ti", "190": "p\u00e8", "191": "p\u00eb", "192": "qu", "193": "or", "194": "ol", "195": "t\u00ec", "196": "r\u00eb", "197": "s\u00ef", "198": "er", "199": "z\u00ef", "200": "en", "201": "tu", "202": "cu", "203": "ul", "204": "\u00e8n", "205": "\u00f2s", "206": "in", "207": "s\u00f9", "208": "ger", "209": "rat", "210": "pir", "211": "meg", "212": "sna", "213": "pac", "214": "lec", "215": "suf", "216": "fre", "217": "sog", "218": "nie", "219": "pil", "220": "fuc", "221": "fig", "222": "gob", "223": "nis", "224": "gar", "225": "buo", "226": "coc", "227": "zan", "228": "met", "229": "tir", "230": "cap", "231": "vit", "232": "sci", "233": "a u", "234": "cac", "235": "fol", "236": "tag", "237": "cen", "238": "bet", "239": "fen", "240": "cel", "241": "ler", "242": "gad", "243": "hon", "244": "lon", "245": "vam", "246": "dub", "247": "pi\u00e9", "248": "sio", "249": "cez", "250": "nar", "251": "men", "252": "nez", "253": "bat", "254": "fra", "255": "bie", "256": "piu", "257": "cui", "258": "fib", "259": "por", "260": "plo", "261": "bul", "262": "qui", "263": "pie", "264": "iar", "265": "col", "266": "dea", "267": "peg", "268": "lot", "269": "sar", "270": "fum", "271": "vor", "272": "tas", "273": "puz", "274": "cob", "275": "pin", "276": "nul", "277": "fiu", "278": "pap", "279": "pat", "280": "svo", "281": "ras", "282": "mug", "283": "nur", "284": "lis", "285": "vel", "286": "nev", "287": "lin", "288": "gra", "289": "paz", "290": "for", "291": "bra", "292": "deg", "293": "fin", "294": "gne", "295": "ter", "296": "dio", "297": "suo", "298": "neb", "299": "vat", "300": "luz", "301": "pen", "302": "gat", "303": "lop", "304": "run", "305": "noc", "306": "rav", "307": "gio", "308": "dun", "309": "cia", "310": "mic", "311": "rob", "312": "tal", "313": "sce", "314": "cat", "315": "res", "316": "gie", "317": "cau", "318": "nol", "319": "len", "320": "o a", "321": "tat", "322": "feg", "323": "vet", "324": "ser", "325": "ian", "326": "nel", "327": "nef", "328": "cag", "329": "pol", "330": "pia", "331": "les", "332": "giz", "333": "til", "334": "sud", "335": "san", "336": "buc", "337": "rie", "338": "lit", "339": "fer", "340": "tle", "341": "cam", "342": "min", "343": "tie", "344": "scu", "345": "che", "346": "bal", "347": "tru", "348": "bl\u00ef", "349": "rag", "350": "fan", "351": "maz", "352": "man", "353": "tom", "354": "tur", "355": "nic", "356": "dez", "357": "nil", "358": "pis", "359": "loc", "360": "tet", "361": "dus", "362": "mol", "363": "gia", "364": "dal", "365": "sla", "366": "mam", "367": "sod", "368": "nig", "369": "ria", "370": "ch\u00ef", "371": "mil", "372": "fal", "373": "gui", "374": "dan", "375": "cea", "376": "ris", "377": "cov", "378": "gim", "379": "sun", "380": "bis", "381": "nag", "382": "zia", "383": "pot", "384": "tre", "385": "dru", "386": "don", "387": "dri", "388": "lac", "389": "lom", "390": "nat", "391": "\u2018la", "392": "rec", "393": "tic", "394": "ner", "395": "guz", "396": "dir", "397": "rol", "398": "vag", "399": "tuf", "400": "tel", "401": "gem", "402": "sot", "403": "fie", "404": "rid", "405": "dem", "406": "sum", "407": "rup", "408": "cio", "409": "sle", "410": "nem", "411": "pro", "412": "quo", "413": "dif", "414": "vir", "415": "suc", "416": "mia", "417": "got", "418": "bru", "419": "cer", "420": "cuc", "421": "per", "422": "ron", "423": "mes", "424": "gag", "425": "mur", "426": "tor", "427": "pon", "428": "rea", "429": "pom", "430": "com", "431": "mai", "432": "rog", "433": "sgo", "434": "rug", "435": "feb", "436": "mar", "437": "las", "438": "top", "439": "gib", "440": "fun", "441": "sve", "442": "sba", "443": "fic", "444": "tim", "445": "muo", "446": "not", "447": "cun", "448": "nim", "449": "cuo", "450": "ges", "451": "far", "452": "giu", "453": "cal", "454": "mas", "455": "cem", "456": "seg", "457": "sac", "458": "gab", "459": "p\u00f2s", "460": "rar", "461": "sfo", "462": "sep", "463": "gaz", "464": "rem", "465": "nun", "466": "gno", "467": "cul", "468": "mir", "469": "vie", "470": "viz", "471": "gua", "472": "fog", "473": "vas", "474": "zur", "475": "van", "476": "vis", "477": "pla", "478": "rac", "479": "cl\u00ef", "480": "fur", "481": "lut", "482": "der", "483": "ghe", "484": "lir", "485": "mot", "486": "duo", "487": "dil", "488": "zuf", "489": "bur", "490": "lab", "491": "ruc", "492": "v\u00f2l", "493": "mac", "494": "car", "495": "tun", "496": "ren", "497": "pli", "498": "vez", "499": "f\u00e0c", "500": "lic", "501": "lan", "502": "fug", "503": "leb", "504": "gri", "505": "roz", "506": "cru", "507": "lau", "508": "get", "509": "bel", "510": "sto", "511": "tro", "512": "rez", "513": "bas", "514": "let", "515": "sca", "516": "mun", "517": "von", "518": "bil", "519": "pri", "520": "niz", "521": "pau", "522": "mon", "523": "set", "524": "dot", "525": "teg", "526": "f\u00e9l", "527": "pre", "528": "lip", "529": "sap", "530": "put", "531": "pas", "532": "tea", "533": "tes", "534": "smo", "535": "clo", "536": "tis", "537": "nor", "538": "sec", "539": "sbi", "540": "qu\u00ef", "541": "rab", "542": "dre", "543": "ruf", "544": "vol", "545": "dec", "546": "son", "547": "muf", "548": "dug", "549": "tuo", "550": "pes", "551": "pel", "552": "glo", "553": "gal", "554": "biz", "555": "rof", "556": "fro", "557": "rel", "558": "cla", "559": "lor", "560": "tec", "561": "bia", "562": "ban", "563": "bro", "564": "nal", "565": "lur", "566": "sma", "567": "tem", "568": "dol", "569": "sag", "570": "xil", "571": "ram", "572": "val", "573": "vil", "574": "cet", "575": "rig", "576": "tut", "577": "bea", "578": "lep", "579": "sup", "580": "gue", "581": "den", "582": "lia", "583": "dis", "584": "nuc", "585": "raz", "586": "zel", "587": "c\u00f3l", "588": "bun", "589": "sol", "590": "soz", "591": "gas", "592": "sem", "593": "sug", "594": "dr\u00e4", "595": "rin", "596": "han", "597": "sof", "598": "gam", "599": "poz", "600": "lam", "601": "gir", "602": "ruo", "603": "pan", "604": "plu", "605": "lar", "606": "spu", "607": "mal", "608": "ghi", "609": "gli", "610": "lat", "611": "tho", "612": "dor", "613": "st\u00ef", "614": "ver", "615": "det", "616": "roc", "617": "bac", "618": "sie", "619": "din", "620": "rom", "621": "nin", "622": "sez", "623": "nob", "624": "puo", "625": "sno", "626": "dau", "627": "cad", "628": "mem", "629": "rio", "630": "nir", "631": "som", "632": "tra", "633": "rit", "634": "bev", "635": "ial", "636": "sti", "637": "fam", "638": "can", "639": "ten", "640": "nes", "641": "tol", "642": "ior", "643": "sra", "644": "sc\u00ef", "645": "dra", "646": "fru", "647": "sal", "648": "chi", "649": "lav", "650": "net", "651": "r\u00e8g", "652": "ful", "653": "mer", "654": "dob", "655": "dos", "656": "lem", "657": "nec", "658": "neg", "659": "cep", "660": "muc", "661": "cos", "662": "zaf", "663": "bot", "664": "ch\u00ec", "665": "pun", "666": "dov", "667": "ros", "668": "diz", "669": "cit", "670": "raf", "671": "dom", "672": "ben", "673": "vom", "674": "gen", "675": "fia", "676": "que", "677": "riz", "678": "tau", "679": "con", "680": "goz", "681": "nan", "682": "sov", "683": "sia", "684": "die", "685": "ves", "686": "ric", "687": "non", "688": "fem", "689": "zar", "690": "sat", "691": "sas", "692": "gea", "693": "dar", "694": "var", "695": "but", "696": "tam", "697": "vuo", "698": "nuo", "699": "fet", "700": "bli", "701": "lim", "702": "tac", "703": "leg", "704": "nac", "705": "dul", "706": "vid", "707": "git", "708": "pl\u00ec", "709": "rap", "710": "cis", "711": "dia", "712": "pub", "713": "bom", "714": "dam", "715": "fat", "716": "smi", "717": "sme", "718": "smu", "719": "pit", "720": "bab", "721": "lun", "722": "sfe", "723": "ber", "724": "ran", "725": "sin", "726": "fas", "727": "boz", "728": "pio", "729": "fos", "730": "soc", "731": "qua", "732": "ste", "733": "dop", "734": "fon", "735": "bef", "736": "gni", "737": "zuc", "738": "cie", "739": "sic", "740": "fla", "741": "iat", "742": "zac", "743": "pop", "744": "pos", "745": "tri", "746": "p\u00e0r", "747": "rot", "748": "cur", "749": "stu", "750": "cir", "751": "gna", "752": "flu", "753": "dat", "754": "nen", "755": "sfa", "756": "cor", "757": "fuo", "758": "c\u00e9r", "759": "ple", "760": "vin", "761": "moz", "762": "caf", "763": "luc", "764": "clu", "765": "bio", "766": "fac", "767": "cas", "768": "cro", "769": "bec", "770": "lea", "771": "sub", "772": "tan", "773": "puc", "774": "sen", "775": "mos", "776": "sga", "777": "pru", "778": "vul", "779": "sit", "780": "fis", "781": "gor", "782": "cri", "783": "deb", "784": "tez", "785": "bol", "786": "veg", "787": "bor", "788": "mor", "789": "gom", "790": "t\u00f2r", "791": "sis", "792": "laz", "793": "sco", "794": "spi", "795": "tar", "796": "nia", "797": "sta", "798": "vem", "799": "mag", "800": "poc", "801": "lup", "802": "dic", "803": "gan", "804": "spo", "805": "sam", "806": "pul", "807": "dim", "808": "ier", "809": "fio", "810": "saf", "811": "pal", "812": "red", "813": "goc", "814": "noz", "815": "luo", "816": "guc", "817": "m\u00e9z", "818": "lie", "819": "par", "820": "coz", "821": "lap", "822": "rim", "823": "lil", "824": "sel", "825": "vac", "826": "ces", "827": "tr\u00ef", "828": "sos", "829": "rut", "830": "cli", "831": "reg", "832": "zio", "833": "lel", "834": "sur", "835": "lus", "836": "zon", "837": "cra", "838": "rir", "839": "pec", "840": "pog", "841": "svi", "842": "bri", "843": "gol", "844": "fab", "845": "nas", "846": "fel", "847": "guo", "848": "t\u00f2m", "849": "o u", "850": "des", "851": "gru", "852": "br\u00ef", "853": "mel", "854": "cef", "855": "bin", "856": "mie", "857": "gil", "858": "geo", "859": "sv\u00ef", "860": "mez", "861": "fes", "862": "dut", "863": "nom", "864": "tuc", "865": "spa", "866": "boc", "867": "cin", "868": "bre", "869": "sop", "870": "pig", "871": "vec", "872": "ret", "873": "piz", "874": "cle", "875": "fit", "876": "ses", "877": "lez", "878": "gre", "879": "sor", "880": "doc", "881": "sus", "882": "ven", "883": "fle", "884": "pur", "885": "toc", "886": "sab", "887": "dit", "888": "ton", "889": "gel", "890": "reb", "891": "mul", "892": "cr\u00e0", "893": "del", "894": "ral", "895": "buf", "896": "gis", "897": "cre", "898": "pet", "899": "gnu", "900": "dur", "901": "gon", "902": "cot", "903": "sde", "904": "sob", "905": "cum", "906": "das", "907": "mat", "908": "spe", "909": "sil", "910": "sp\u00ef", "911": "pic", "912": "bar", "913": "a a", "914": "gur", "915": "lai", "916": "tin", "917": "fri", "918": "dr\u00ef", "919": "bon", "920": "lul", "921": "o e", "922": "pra", "923": "cop", "924": "cic", "925": "dro", "926": "fom", "927": "ciu", "928": "gau", "929": "ciap", "930": "do i", "931": "vi e", "932": "te o", "933": "c\u2019 e", "934": "na o", "935": "gior", "936": "puom", "937": "stas", "938": "za o", "939": "drit", "940": "viem", "941": "guic", "942": "l\u2019 e", "943": "po o", "944": "ca a", "945": "greg", "946": "li e", "947": "grap", "948": "di o", "949": "spes", "950": "zi u", "951": "slac", "952": "re e", "953": "da u", "954": "trop", "955": "fioc", "956": "me a", "957": "gher", "958": "svel", "959": "snel", "960": "cruc", "961": "gual", "962": "creb", "963": "l\u2019 u", "964": "mian", "965": "clis", "966": "le i", "967": "re u", "968": "te i", "969": "gnaz", "970": "spit", "971": "d\u2019 \u00eb", "972": "chet", "973": "li o", "974": "stra", "975": "proc", "976": "dram", "977": "spar", "978": "t\u2019 u", "979": "si u", "980": "scop", "981": "si i", "982": "a al", "983": "gnem", "984": "pron", "985": "ples", "986": "ta u", "987": "spon", "988": "ti u", "989": "e in", "990": "ma u", "991": "guan", "992": "drap", "993": "stri", "994": "re o", "995": "brut", "996": "l\u2019 o", "997": "fran", "998": "stin", "999": "c\u2019 \u00ef", "1000": "tras", "1001": "ve u", "1002": "crol", "1003": "\u00e8 in", "1004": "flig", "1005": "sciu", "1006": "clau", "1007": "spre", "1008": "ra u", "1009": "scer", "1010": "spia", "1011": "a ef", "1012": "di e", "1013": "bion", "1014": "va e", "1015": "chis", "1016": "stor", "1017": "scel", "1018": "cher", "1019": "stil", "1020": "troc", "1021": "no u", "1022": "spro", "1023": "te u", "1024": "o av", "1025": "flet", "1026": "o al", "1027": "gheg", "1028": "tron", "1029": "m\u2019 o", "1030": "ra e", "1031": "sver", "1032": "so o", "1033": "li \u2019", "1034": "mo u", "1035": "vi a", "1036": "a in", "1037": "spor", "1038": "trar", "1039": "trag", "1040": "scab", "1041": "trie", "1042": "ti o", "1043": "puos", "1044": "bron", "1045": "ce u", "1046": "ti a", "1047": "scir", "1048": "re a", "1049": "guiz", "1050": "pren", "1051": "bi a", "1052": "fles", "1053": "t\u2019 o", "1054": "da a", "1055": "buon", "1056": "la e", "1057": "sfre", "1058": "prez", "1059": "stam", "1060": "fret", "1061": "be u", "1062": "scia", "1063": "grom", "1064": "brie", "1065": "giug", "1066": "l\u2019 a", "1067": "n\u2019 u", "1068": "ciom", "1069": "da o", "1070": "piov", "1071": "to a", "1072": "la a", "1073": "se e", "1074": "stec", "1075": "ga o", "1076": "graf", "1077": "spel", "1078": "mo i", "1079": "va o", "1080": "pi i", "1081": "l\u2019 \u00f2", "1082": "pa e", "1083": "a ac", "1084": "nian", "1085": "to i", "1086": "broc", "1087": "dian", "1088": "no o", "1089": "de a", "1090": "scov", "1091": "tren", "1092": "scor", "1093": "scri", "1094": "na i", "1095": "spal", "1096": "gi e", "1097": "de i", "1098": "bias", "1099": "trom", "1100": "tiem", "1101": "giam", "1102": "piez", "1103": "di i", "1104": "guef", "1105": "smen", "1106": "dien", "1107": "stis", "1108": "s\u2019 \u00ef", "1109": "stio", "1110": "dran", "1111": "quel", "1112": "pien", "1113": "sa u", "1114": "ne u", "1115": "dras", "1116": "vo o", "1117": "de o", "1118": "truo", "1119": "ciul", "1120": "vuol", "1121": "di a", "1122": "scro", "1123": "bren", "1124": "sfin", "1125": "stro", "1126": "go a", "1127": "li a", "1128": "r\u2019 u", "1129": "sper", "1130": "cias", "1131": "ro a", "1132": "fiot", "1133": "trap", "1134": "frut", "1135": "biet", "1136": "zi e", "1137": "scis", "1138": "ro o", "1139": "be a", "1140": "ni o", "1141": "blan", "1142": "ri u", "1143": "ci u", "1144": "ti i", "1145": "ro u", "1146": "ghez", "1147": "z\u2019 i", "1148": "scet", "1149": "stes", "1150": "spun", "1151": "scom", "1152": "piac", "1153": "stia", "1154": "g\u2019 \u00ef", "1155": "ma o", "1156": "te a", "1157": "s\u2019 a", "1158": "sfio", "1159": "stie", "1160": "gian", "1161": "stal", "1162": "va u", "1163": "tien", "1164": "ga e", "1165": "gnan", "1166": "li u", "1167": "grat", "1168": "guaz", "1169": "me o", "1170": "to u", "1171": "piom", "1172": "spic", "1173": "cion", "1174": "ze o", "1175": "ciar", "1176": "do u", "1177": "trac", "1178": "brot", "1179": "liev", "1180": "ne a", "1181": "grot", "1182": "pe i", "1183": "si e", "1184": "guil", "1185": "quer", "1186": "gi u", "1187": "ta a", "1188": "za a", "1189": "chia", "1190": "s\u2019 o", "1191": "glie", "1192": "sfor", "1193": "spec", "1194": "stet", "1195": "scim", "1196": "ci o", "1197": "ziar", "1198": "tror", "1199": "guel", "1200": "vi o", "1201": "gnar", "1202": "de e", "1203": "spaz", "1204": "ghes", "1205": "frat", "1206": "qual", "1207": "vien", "1208": "m\u2019 a", "1209": "ne e", "1210": "gras", "1211": "spie", "1212": "sdet", "1213": "no e", "1214": "zi o", "1215": "flit", "1216": "gial", "1217": "guar", "1218": "scam", "1219": "ve i", "1220": "bris", "1221": "ciac", "1222": "quis", "1223": "la i", "1224": "bo e", "1225": "ta i", "1226": "spet", "1227": "ci e", "1228": "be i", "1229": "grie", "1230": "clas", "1231": "gron", "1232": "fiam", "1233": "spol", "1234": "tret", "1235": "ce a", "1236": "po a", "1237": "stuc", "1238": "ni e", "1239": "fiac", "1240": "sfat", "1241": "sgor", "1242": "sbra", "1243": "scos", "1244": "stop", "1245": "plan", "1246": "guet", "1247": "ma a", "1248": "guag", "1249": "stre", "1250": "guir", "1251": "spen", "1252": "pris", "1253": "se i", "1254": "plau", "1255": "ciuo", "1256": "do o", "1257": "mo o", "1258": "giar", "1259": "scac", "1260": "s\u2019 e", "1261": "scen", "1262": "be o", "1263": "d\u2019 o", "1264": "so e", "1265": "chie", "1266": "n\u2019 o", "1267": "ci a", "1268": "scio", "1269": "te e", "1270": "sneb", "1271": "no i", "1272": "e \u2019n", "1273": "quen", "1274": "scie", "1275": "smon", "1276": "brul", "1277": "biac", "1278": "zian", "1279": "mi e", "1280": "ghie", "1281": "d\u2019 i", "1282": "scon", "1283": "t\u2019 a", "1284": "le e", "1285": "gran", "1286": "ti e", "1287": "ri e", "1288": "driz", "1289": "scar", "1290": "de u", "1291": "bian", "1292": "le a", "1293": "no a", "1294": "mo a", "1295": "ciuf", "1296": "dier", "1297": "tram", "1298": "pran", "1299": "stuo", "1300": "scoc", "1301": "gnie", "1302": "co o", "1303": "fior", "1304": "ghir", "1305": "piog", "1306": "gnuo", "1307": "mi o", "1308": "cian", "1309": "do e", "1310": "s\u2019 i", "1311": "sbri", "1312": "ghet", "1313": "gner", "1314": "d\u2019 u", "1315": "n\u2019 a", "1316": "to e", "1317": "quil", "1318": "so i", "1319": "z\u2019 o", "1320": "gres", "1321": "stel", "1322": "go e", "1323": "gias", "1324": "d\u2019 e", "1325": "trat", "1326": "cien", "1327": "scin", "1328": "lo o", "1329": "me e", "1330": "bo a", "1331": "s\u00ec a", "1332": "spir", "1333": "o ar", "1334": "sa a", "1335": "le o", "1336": "chio", "1337": "sfer", "1338": "str\u00e0", "1339": "ro e", "1340": "puol", "1341": "lo u", "1342": "piat", "1343": "fred", "1344": "brac", "1345": "a am", "1346": "mi u", "1347": "quan", "1348": "pros", "1349": "si o", "1350": "r\u00ec u", "1351": "r\u2019 o", "1352": "stol", "1353": "pi e", "1354": "smoz", "1355": "se o", "1356": "cras", "1357": "fron", "1358": "bo i", "1359": "m\u2019 i", "1360": "t\u2019 e", "1361": "po e", "1362": "cheg", "1363": "ta o", "1364": "stig", "1365": "scuf", "1366": "sgan", "1367": "trec", "1368": "scem", "1369": "squa", "1370": "stav", "1371": "quar", "1372": "prin", "1373": "gram", "1374": "va i", "1375": "scan", "1376": "smor", "1377": "d\u2019 \u00ef", "1378": "ne o", "1379": "scol", "1380": "trul", "1381": "ghil", "1382": "po u", "1383": "da e", "1384": "schi", "1385": "v\u2019 o", "1386": "piag", "1387": "di u", "1388": "c\u2019 o", "1389": "ni u", "1390": "lo e", "1391": "pian", "1392": "brol", "1393": "ra a", "1394": "chiu", "1395": "sfac", "1396": "stul", "1397": "scaz", "1398": "co a", "1399": "ghel", "1400": "stem", "1401": "me u", "1402": "co e", "1403": "prir", "1404": "ciot", "1405": "quin", "1406": "quat", "1407": "v\u2019 a", "1408": "gnen", "1409": "gnas", "1410": "chil", "1411": "glio", "1412": "scal", "1413": "glet", "1414": "grez", "1415": "cioc", "1416": "z\u2019 a", "1417": "giuo", "1418": "ghio", "1419": "\u00e8 im", "1420": "ster", "1421": "re i", "1422": "ra o", "1423": "so u", "1424": "giun", "1425": "la u", "1426": "pi a", "1427": "ze e", "1428": "sfam", "1429": "ghia", "1430": "v\u2019 e", "1431": "s\u2019 u", "1432": "trot", "1433": "spez", "1434": "grep", "1435": "guen", "1436": "gien", "1437": "treb", "1438": "spin", "1439": "sfar", "1440": "sban", "1441": "smar", "1442": "ca u", "1443": "za i", "1444": "bran", "1445": "ie a", "1446": "giac", "1447": "spuo", "1448": "fian", "1449": "sgri", "1450": "scot", "1451": "pres", "1452": "ca o", "1453": "guer", "1454": "brug", "1455": "l\u2019 i", "1456": "sgom", "1457": "le u", "1458": "gnel", "1459": "a es", "1460": "squi", "1461": "mo e", "1462": "gnon", "1463": "tran", "1464": "chez", "1465": "scre", "1466": "sman", "1467": "prie", "1468": "giot", "1469": "co u", "1470": "p\u2019 e", "1471": "na u", "1472": "lo a", "1473": "sa o", "1474": "sven", "1475": "guit", "1476": "so a", "1477": "ge o", "1478": "glau", "1479": "ma e", "1480": "se u", "1481": "na e", "1482": "scic", "1483": "ve a", "1484": "n\u2019 e", "1485": "zo e", "1486": "gnor", "1487": "s\u00ec i", "1488": "ca e", "1489": "sbar", "1490": "tier", "1491": "stiz", "1492": "star", "1493": "sden", "1494": "ce o", "1495": "ra i", "1496": "do a", "1497": "pric", "1498": "glia", "1499": "\u2018glo", "1500": "smal", "1501": "sfan", "1502": "sten", "1503": "ge a", "1504": "pruo", "1505": "m\u2019 e", "1506": "ni a", "1507": "na a", "1508": "l\u00ec e", "1509": "stan", "1510": "stru", "1511": "sche", "1512": "ciel", "1513": "brez", "1514": "grop", "1515": "se a", "1516": "sgra", "1517": "grem", "1518": "ta e", "1519": "sber", "1520": "to o", "1521": "la o", "1522": "zo a", "1523": "d\u2019 a", "1524": "pe e", "1525": "si a", "1526": "crea", "1527": "gros", "1528": "ro i", "1529": "me i", "1530": "span", "1531": "scuo", "1532": "ro um", "1533": "ne in", "1534": "de au", "1535": "to ef", "1536": "ro al", "1537": "se as", "1538": "la on", "1539": "za et", "1540": "schia", "1541": "ca er", "1542": "li \u2019m", "1543": "d\u2019 en", "1544": "re es", "1545": "mi in", "1546": "li es", "1547": "n\u2019 an", "1548": "ce av", "1549": "ra as", "1550": "do el", "1551": "de in", "1552": "hi om", "1553": "sfran", "1554": "t\u2019 el", "1555": "na ab", "1556": "ta in", "1557": "re av", "1558": "d\u2019 au", "1559": "spiac", "1560": "dea u", "1561": "cia e", "1562": "s\u00ec \u2019n", "1563": "so et", "1564": "vo an", "1565": "lo im", "1566": "c\u2019 en", "1567": "si ad", "1568": "so in", "1569": "vi an", "1570": "si as", "1571": "sa on", "1572": "li at", "1573": "cro a", "1574": "re in", "1575": "lo \u2019n", "1576": "ra ot", "1577": "se ac", "1578": "ni an", "1579": "me ap", "1580": "splen", "1581": "me as", "1582": "v\u2019 er", "1583": "to eb", "1584": "re ab", "1585": "t\u2019 ar", "1586": "l\u2019 am", "1587": "to on", "1588": "di om", "1589": "d\u2019 el", "1590": "gi ar", "1591": "lo ar", "1592": "s\u2019 ar", "1593": "ti am", "1594": "li af", "1595": "l\u2019 uo", "1596": "va al", "1597": "te on", "1598": "ta as", "1599": "t\u2019 al", "1600": "do am", "1601": "sgrie", "1602": "to ac", "1603": "ci at", "1604": "ve oc", "1605": "no ar", "1606": "ga as", "1607": "gliet", "1608": "cia a", "1609": "mi ad", "1610": "n\u2019 am", "1611": "me ar", "1612": "li er", "1613": "t\u2019 as", "1614": "fe et", "1615": "s\u2019 in", "1616": "li ar", "1617": "l\u2019 es", "1618": "v\u2019 et", "1619": "sa ac", "1620": "se on", "1621": "ne on", "1622": "tro u", "1623": "co an", "1624": "si an", "1625": "ha \u2019n", "1626": "si im", "1627": "pie e", "1628": "no at", "1629": "d\u2019 on", "1630": "le \u2019m", "1631": "so al", "1632": "to at", "1633": "tro i", "1634": "me al", "1635": "l\u2019 im", "1636": "co er", "1637": "so at", "1638": "squar", "1639": "sbe a", "1640": "mi ap", "1641": "si in", "1642": "li ad", "1643": "st\u2019 o", "1644": "chi u", "1645": "de ag", "1646": "bre a", "1647": "li uc", "1648": "vi of", "1649": "re om", "1650": "ti en", "1651": "lo af", "1652": "to uc", "1653": "do ol", "1654": "li un", "1655": "do ar", "1656": "ni as", "1657": "gliar", "1658": "chian", "1659": "gne o", "1660": "sta e", "1661": "s\u2019 al", "1662": "no as", "1663": "chiap", "1664": "se \u2019n", "1665": "ro ap", "1666": "ta un", "1667": "le of", "1668": "spres", "1669": "mo or", "1670": "so ar", "1671": "se an", "1672": "\u2019v\u2019 e", "1673": "no al", "1674": "gna a", "1675": "ti of", "1676": "di es", "1677": "to oc", "1678": "za \u2019n", "1679": "sa ol", "1680": "li oc", "1681": "le ar", "1682": "si ol", "1683": "s\u2019 er", "1684": "ti or", "1685": "m\u2019 ad", "1686": "que o", "1687": "ne ov", "1688": "cio e", "1689": "to ag", "1690": "sgiun", "1691": "d\u2019 af", "1692": "ro au", "1693": "schio", "1694": "s\u2019 av", "1695": "ta eu", "1696": "ta el", "1697": "mo ec", "1698": "la ap", "1699": "t\u2019 or", "1700": "glian", "1701": "l\u2019 \u00e0n", "1702": "de an", "1703": "pr\u2019 e", "1704": "t\u2019 am", "1705": "ca en", "1706": "dre e", "1707": "d\u2019 in", "1708": "sciom", "1709": "tri o", "1710": "li ul", "1711": "re ot", "1712": "ce et", "1713": "le in", "1714": "ch\u2019 u", "1715": "m\u2019 ar", "1716": "chi e", "1717": "si am", "1718": "d\u2019 et", "1719": "m\u2019 ap", "1720": "ga in", "1721": "na ac", "1722": "scial", "1723": "li in", "1724": "co ap", "1725": "di ol", "1726": "re oc", "1727": "di im", "1728": "se es", "1729": "qu\u2019 o", "1730": "l\u2019 au", "1731": "ri in", "1732": "l\u2019 or", "1733": "ri on", "1734": "so eb", "1735": "re au", "1736": "vi en", "1737": "l\u2019 ov", "1738": "ri ap", "1739": "sta i", "1740": "di an", "1741": "te at", "1742": "scian", "1743": "l\u2019 as", "1744": "sta o", "1745": "co ac", "1746": "ce on", "1747": "zo in", "1748": "strel", "1749": "va at", "1750": "s\u2019 os", "1751": "lo at", "1752": "ta on", "1753": "na es", "1754": "lo er", "1755": "l\u2019 op", "1756": "be ar", "1757": "spraz", "1758": "si of", "1759": "ne af", "1760": "so ad", "1761": "ni av", "1762": "na av", "1763": "che e", "1764": "zi ag", "1765": "mi \u2019n", "1766": "ro oc", "1767": "ta et", "1768": "d\u2019 az", "1769": "lo of", "1770": "de on", "1771": "ra im", "1772": "vi in", "1773": "ze or", "1774": "l\u2019 ap", "1775": "ca on", "1776": "ne ag", "1777": "r\u2019 es", "1778": "d\u2019 er", "1779": "li of", "1780": "l\u2019 in", "1781": "li on", "1782": "strut", "1783": "te ab", "1784": "d\u2019 es", "1785": "st\u2019 u", "1786": "sta a", "1787": "di of", "1788": "bre o", "1789": "d\u2019 ap", "1790": "l\u2019 uc", "1791": "mo on", "1792": "le ad", "1793": "l\u2019 un", "1794": "ce es", "1795": "m\u2019 as", "1796": "v\u2019 am", "1797": "dio i", "1798": "se op", "1799": "ce im", "1800": "si \u2019m", "1801": "ma in", "1802": "ch\u2019 \u00ef", "1803": "za on", "1804": "pa in", "1805": "d\u2019 oc", "1806": "di ad", "1807": "li et", "1808": "ce al", "1809": "sci\u00e0n", "1810": "le at", "1811": "vi al", "1812": "li uo", "1813": "za in", "1814": "d\u2019 or", "1815": "l\u2019 ef", "1816": "n\u2019 ag", "1817": "te en", "1818": "s\u2019 am", "1819": "n\u2019 au", "1820": "se af", "1821": "scrit", "1822": "li as", "1823": "re ol", "1824": "ta am", "1825": "to ap", "1826": "pra a", "1827": "di ab", "1828": "di ac", "1829": "de am", "1830": "te om", "1831": "la in", "1832": "te of", "1833": "s\u00ec \u2019m", "1834": "ro as", "1835": "l\u2019 ol", "1836": "ne \u2019n", "1837": "ri an", "1838": "to al", "1839": "ge an", "1840": "ci ar", "1841": "ghian", "1842": "s\u2019 ap", "1843": "t\u2019 af", "1844": "ch\u2019 e", "1845": "co al", "1846": "n\u2019 uo", "1847": "si av", "1848": "te es", "1849": "ti in", "1850": "d\u2019 an", "1851": "va \u2019n", "1852": "sce a", "1853": "li em", "1854": "tra i", "1855": "chias", "1856": "ne \u2019m", "1857": "go al", "1858": "cea u", "1859": "to es", "1860": "ce au", "1861": "n\u2019 eb", "1862": "no ac", "1863": "m\u2019 ab", "1864": "zo as", "1865": "la or", "1866": "sti o", "1867": "be av", "1868": "do oc", "1869": "d\u2019 ar", "1870": "l\u2019 ar", "1871": "ce eu", "1872": "za an", "1873": "ni am", "1874": "ta an", "1875": "t\u2019 em", "1876": "n\u2019 er", "1877": "to ad", "1878": "s\u2019 et", "1879": "l\u2019 em", "1880": "scheg", "1881": "fu el", "1882": "la al", "1883": "m\u2019 an", "1884": "ro on", "1885": "stram", "1886": "zia o", "1887": "de eu", "1888": "re ap", "1889": "mo ol", "1890": "to ec", "1891": "te or", "1892": "li ab", "1893": "vi \u2019m", "1894": "l\u2019 ae", "1895": "li av", "1896": "l\u2019 en", "1897": "mi al", "1898": "me ef", "1899": "li \u2019n", "1900": "de om", "1901": "si ac", "1902": "ci or", "1903": "m\u2019 at", "1904": "re at", "1905": "l\u2019 eb", "1906": "li ap", "1907": "re il", "1908": "ve es", "1909": "re am", "1910": "do ac", "1911": "ma al", "1912": "to as", "1913": "lo es", "1914": "pi in", "1915": "mo an", "1916": "strac", "1917": "ste i", "1918": "sa og", "1919": "v\u2019 ap", "1920": "no er", "1921": "la el", "1922": "ro in", "1923": "te in", "1924": "mi an", "1925": "di og", "1926": "no \u2019n", "1927": "so of", "1928": "ra am", "1929": "la of", "1930": "ni es", "1931": "mo es", "1932": "va ar", "1933": "mo in", "1934": "spran", "1935": "ne av", "1936": "ra ap", "1937": "ma ac", "1938": "strar", "1939": "ma \u2019n", "1940": "ci in", "1941": "ra in", "1942": "ro or", "1943": "c\u2019 im", "1944": "le ap", "1945": "ma or", "1946": "gliuo", "1947": "pi or", "1948": "mo eb", "1949": "ca in", "1950": "s\u2019 eb", "1951": "ch\u2019 i", "1952": "scher", "1953": "te \u2019n", "1954": "v\u2019 ar", "1955": "li im", "1956": "na of", "1957": "n\u2019 al", "1958": "so es", "1959": "ce af", "1960": "ne et", "1961": "v\u2019 of", "1962": "ro at", "1963": "m\u2019 eb", "1964": "se ap", "1965": "te an", "1966": "sco o", "1967": "ta es", "1968": "n\u2019 at", "1969": "si og", "1970": "no af", "1971": "bi al", "1972": "di al", "1973": "n\u2019 ap", "1974": "so ab", "1975": "l\u2019 om", "1976": "te af", "1977": "ta im", "1978": "mo ar", "1979": "sta u", "1980": "mi ac", "1981": "l\u00ec en", "1982": "le oc", "1983": "d\u2019 ab", "1984": "ro ac", "1985": "ti ac", "1986": "na \u2019n", "1987": "s\u2019 em", "1988": "sa ap", "1989": "be al", "1990": "n\u2019 ab", "1991": "stras", "1992": "bra a", "1993": "ze et", "1994": "s\u2019 at", "1995": "m\u2019 in", "1996": "zi al", "1997": "m\u2019 ag", "1998": "ti an", "1999": "l\u2019 et", "2000": "ra es", "2001": "do or", "2002": "d\u2019 og", "2003": "glies", "2004": "gni e", "2005": "sciau", "2006": "stret", "2007": "so on", "2008": "te ol", "2009": "strin", "2010": "ra on", "2011": "m\u2019 of", "2012": "ni en", "2013": "te as", "2014": "ne ap", "2015": "tr\u2019 e", "2016": "mi er", "2017": "te os", "2018": "ti ar", "2019": "pre a", "2020": "ne ar", "2021": "ghiac", "2022": "ra ac", "2023": "ne es", "2024": "ch\u2019 o", "2025": "l\u2019 el", "2026": "gno u", "2027": "me of", "2028": "d\u2019 os", "2029": "ci as", "2030": "lo on", "2031": "sa an", "2032": "m\u2019 es", "2033": "fa az", "2034": "ri al", "2035": "ta ar", "2036": "re af", "2037": "tu ha", "2038": "m\u2019 ac", "2039": "te ap", "2040": "to or", "2041": "ce ac", "2042": "zio a", "2043": "sto a", "2044": "le al", "2045": "ti ad", "2046": "re im", "2047": "ma an", "2048": "si en", "2049": "na on", "2050": "st\u2019 a", "2051": "vo au", "2052": "z\u2019 al", "2053": "ci af", "2054": "ta ac", "2055": "scias", "2056": "za im", "2057": "ve at", "2058": "li om", "2059": "le as", "2060": "ma of", "2061": "z\u2019 es", "2062": "sco u", "2063": "tro e", "2064": "gliel", "2065": "no an", "2066": "zi \u2019m", "2067": "tra u", "2068": "ri ac", "2069": "l\u2019 ai", "2070": "s\u2019 ag", "2071": "v\u2019 ac", "2072": "se al", "2073": "v\u2019 el", "2074": "l\u2019 er", "2075": "ve an", "2076": "tra e", "2077": "gne u", "2078": "te is", "2079": "t\u2019 ap", "2080": "ce at", "2081": "ra ec", "2082": "lo il", "2083": "no et", "2084": "za am", "2085": "zo ar", "2086": "so am", "2087": "ti \u2019n", "2088": "t\u2019 ag", "2089": "scris", "2090": "gi an", "2091": "mo im", "2092": "mio a", "2093": "s\u2019 en", "2094": "po av", "2095": "l\u2019 um", "2096": "po in", "2097": "re et", "2098": "so as", "2099": "stroc", "2100": "t\u2019 an", "2101": "co at", "2102": "d\u2019 eb", "2103": "do er", "2104": "co on", "2105": "te ad", "2106": "do af", "2107": "chiar", "2108": "sa im", "2109": "ro an", "2110": "ti im", "2111": "ce in", "2112": "to im", "2113": "s\u2019 ac", "2114": "cio a", "2115": "so en", "2116": "cia o", "2117": "ra of", "2118": "zio e", "2119": "l\u2019 ab", "2120": "scioc", "2121": "ne im", "2122": "ce ar", "2123": "t\u2019 in", "2124": "ci al", "2125": "do as", "2126": "so ap", "2127": "scrip", "2128": "che u", "2129": "to ol", "2130": "scran", "2131": "na eb", "2132": "ta of", "2133": "sciar", "2134": "na ar", "2135": "ci ad", "2136": "ghiot", "2137": "d\u2019 at", "2138": "di av", "2139": "se in", "2140": "v\u2019 al", "2141": "ca an", "2142": "ra eb", "2143": "gno a", "2144": "tr\u2019 a", "2145": "gne a", "2146": "zia e", "2147": "ro av", "2148": "le \u2019n", "2149": "sciol", "2150": "ro ab", "2151": "na af", "2152": "gia e", "2153": "m\u2019 av", "2154": "s\u00ec in", "2155": "me an", "2156": "le am", "2157": "r\u2019 al", "2158": "t\u2019 av", "2159": "r\u2019 an", "2160": "qua e", "2161": "d\u2019 al", "2162": "ro im", "2163": "l\u2019 ag", "2164": "n\u2019 ac", "2165": "do in", "2166": "li al", "2167": "glien", "2168": "re ac", "2169": "to ov", "2170": "mo of", "2171": "vi av", "2172": "te ar", "2173": "ni ap", "2174": "ti \u2019m", "2175": "co et", "2176": "l\u2019 on", "2177": "s\u2019 ad", "2178": "be on", "2179": "le ol", "2180": "li ac", "2181": "l\u2019 oc", "2182": "re en", "2183": "de \u2019n", "2184": "ra et", "2185": "t\u2019 im", "2186": "la ol", "2187": "ve ap", "2188": "ci \u2019n", "2189": "pre e", "2190": "s\u2019 of", "2191": "fu im", "2192": "be as", "2193": "de af", "2194": "schet", "2195": "ra an", "2196": "d\u2019 ac", "2197": "co av", "2198": "ne al", "2199": "d\u2019 ot", "2200": "po al", "2201": "ro ar", "2202": "na in", "2203": "ve al", "2204": "re ag", "2205": "ta op", "2206": "si el", "2207": "na ap", "2208": "ce as", "2209": "ti as", "2210": "ti oc", "2211": "te er", "2212": "va in", "2213": "d\u2019 am", "2214": "do im", "2215": "do at", "2216": "mo ac", "2217": "fu in", "2218": "si at", "2219": "co ar", "2220": "s\u2019 as", "2221": "la \u2019m", "2222": "l\u2019 ot", "2223": "no ab", "2224": "bo av", "2225": "no au", "2226": "stric", "2227": "te ac", "2228": "lo av", "2229": "no in", "2230": "mo at", "2231": "de ar", "2232": "t\u2019 ab", "2233": "gli u", "2234": "fo et", "2235": "do al", "2236": "schic", "2237": "no es", "2238": "s\u2019 op", "2239": "ci ap", "2240": "no am", "2241": "ra ad", "2242": "rio a", "2243": "vi ar", "2244": "l\u2019 ad", "2245": "va eb", "2246": "ma es", "2247": "no ad", "2248": "v\u2019 an", "2249": "sto o", "2250": "po on", "2251": "tri a", "2252": "to av", "2253": "ne em", "2254": "chiet", "2255": "l\u2019 of", "2256": "te ag", "2257": "d\u2019 im", "2258": "re al", "2259": "sciut", "2260": "di in", "2261": "ge un", "2262": "v\u2019 eb", "2263": "li ag", "2264": "strug", "2265": "stroz", "2266": "to af", "2267": "no ap", "2268": "li or", "2269": "ra uc", "2270": "sa in", "2271": "re on", "2272": "co in", "2273": "so \u2019n", "2274": "m\u2019 af", "2275": "n\u2019 om", "2276": "l\u2019 ac", "2277": "n\u2019 av", "2278": "to ar", "2279": "de al", "2280": "l\u2019 ec", "2281": "do ap", "2282": "l\u2019 al", "2283": "go es", "2284": "t\u2019 ac", "2285": "li an", "2286": "me ac", "2287": "li eb", "2288": "ia al", "2289": "v\u2019 es", "2290": "te au", "2291": "vo at", "2292": "sguar", "2293": "m\u2019 al", "2294": "vi ac", "2295": "za er", "2296": "stren", "2297": "t\u2019 om", "2298": "di af", "2299": "ge et", "2300": "chi a", "2301": "le or", "2302": "ti et", "2303": "to et", "2304": "sto e", "2305": "de or", "2306": "le an", "2307": "sti a", "2308": "no om", "2309": "no ag", "2310": "si al", "2311": "strom", "2312": "li am", "2313": "l\u2019 an", "2314": "ci av", "2315": "la es", "2316": "ta ad", "2317": "n\u2019 ar", "2318": "n\u2019 in", "2319": "ro es", "2320": "ne an", "2321": "si er", "2322": "ta at", "2323": "le uc", "2324": "ra av", "2325": "n\u2019 on", "2326": "ve ar", "2327": "streg", "2328": "di on", "2329": "re an", "2330": "le es", "2331": "la au", "2332": "re as", "2333": "ti at", "2334": "se un", "2335": "l\u2019 av", "2336": "lo ac", "2337": "bo on", "2338": "s\u2019 el", "2339": "gliam", "2340": "io al", "2341": "lia a", "2342": "strat", "2343": "no im", "2344": "t\u2019 at", "2345": "la en", "2346": "de er", "2347": "la \u2019n", "2348": "zo an", "2349": "s\u2019 es", "2350": "mo al", "2351": "schem", "2352": "tro o", "2353": "sciam", "2354": "bra u", "2355": "d\u2019 ur", "2356": "mi am", "2357": "ni in", "2358": "ma ap", "2359": "le on", "2360": "me at", "2361": "ro of", "2362": "ta al", "2363": "d\u2019 of", "2364": "ni on", "2365": "me au", "2366": "lo \u2019m", "2367": "me am", "2368": "zio u", "2369": "co ad", "2370": "stran", "2371": "za al", "2372": "ti al", "2373": "ro eb", "2374": "tro a", "2375": "to ab", "2376": "ge in", "2377": "zie o", "2378": "ne as", "2379": "d\u2019 ol", "2380": "lo al", "2381": "lo as", "2382": "schie", "2383": "ci an", "2384": "po ar", "2385": "vi on", "2386": "l\u2019 os", "2387": "s\u2019 an", "2388": "se at", "2389": "re ar", "2390": "ghien", "2391": "do eb", "2392": "po an", "2393": "chioc", "2394": "si ar", "2395": "suo a", "2396": "co eb", "2397": "no or", "2398": "squil", "2399": "te em", "2400": "l\u2019 at", "2401": "tri e", "2402": "ta ab", "2403": "go in", "2404": "ci am", "2405": "do on", "2406": "di az", "2407": "le av", "2408": "pa es", "2409": "t\u2019 es", "2410": "gia o", "2411": "me in", "2412": "d\u2019 eu", "2413": "ch\u2019 a", "2414": "t\u00e0 in", "2415": "m\u2019 om", "2416": "no ec", "2417": "l\u2019 ul", "2418": "ri ar", "2419": "to in", "2420": "ni al", "2421": "si \u2019n", "2422": "schiu", "2423": "sa es", "2424": "so an", "2425": "la av", "2426": "ra el", "2427": "che a", "2428": "lo eb", "2429": "bo al", "2430": "ro am", "2431": "do es", "2432": "l\u2019 af", "2433": "to of", "2434": "do an", "2435": "ra al", "2436": "te im", "2437": "zi at", "2438": "li au", "2439": "ti av", "2440": "vo ac", "2441": "te al", "2442": "va an", "2443": "to an", "2444": "no av", "2445": "v\u2019 in", "2446": "re ad", "2447": "re eb", "2448": "d\u2019 om", "2449": "ne ac", "2450": "z\u2019 ar", "2451": "ze es", "2452": "ste a", "2453": "s\u2019 af", "2454": "ma on", "2455": "ba un", "2456": "lo an", "2457": "vo as", "2458": "tra a", "2459": "s\u2019 im", "2460": "mo af", "2461": "m\u2019 im", "2462": "s\u2019 ab", "2463": "pi ap", "2464": "si or", "2465": "va id", "2466": "lo in", "2467": "de as", "2468": "va im", "2469": "chi o", "2470": "de of", "2471": "v\u2019 ab", "2472": "sco an", "2473": "gne al", "2474": "ste an", "2475": "tri es", "2476": "sta an", "2477": "ch\u2019 at", "2478": "chi ap", "2479": "stra i", "2480": "che om", "2481": "ch\u2019 av", "2482": "ne han", "2483": "tro ac", "2484": "glio u", "2485": "sti es", "2486": "lio in", "2487": "stro u", "2488": "st\u2019 es", "2489": "tr\u2019 ar", "2490": "l\u2019 han", "2491": "gia ar", "2492": "tro on", "2493": "ria of", "2494": "pr\u2019 ar", "2495": "sto an", "2496": "sto es", "2497": "gia al", "2498": "tro ap", "2499": "glia a", "2500": "vio in", "2501": "sto \u2019n", "2502": "scia e", "2503": "tra av", "2504": "tri ap", "2505": "gni an", "2506": "sta og", "2507": "tr\u2019 om", "2508": "ch\u2019 an", "2509": "stra a", "2510": "st\u2019 ot", "2511": "ch\u2019 in", "2512": "ch\u2019 ad", "2513": "sti oc", "2514": "nio im", "2515": "che \u2019m", "2516": "ch\u2019 eb", "2517": "ch\u2019 ar", "2518": "tro al", "2519": "tri of", "2520": "pie or", "2521": "chi ac", "2522": "cio et", "2523": "gno al", "2524": "ch\u2019 es", "2525": "che an", "2526": "gue on", "2527": "stra u", "2528": "chi ar", "2529": "ria on", "2530": "m\u2019 han", "2531": "gna in", "2532": "che \u2019n", "2533": "ch\u2019 al", "2534": "ria in", "2535": "che ar", "2536": "stra e", "2537": "sce an", "2538": "bia an", "2539": "zie ec", "2540": "ghe on", "2541": "cia im", "2542": "sto \u2019m", "2543": "st\u2019 an", "2544": "schian", "2545": "sti av", "2546": "gno af", "2547": "d\u2019 han", "2548": "ch\u2019 ag", "2549": "sti an", "2550": "tro av", "2551": "che in", "2552": "qua in", "2553": "gne in", "2554": "che ha", "2555": "pre in", "2556": "tro as", "2557": "tra an", "2558": "ch\u2019 en", "2559": "stri o", "2560": "bre an", "2561": "tro et", "2562": "chi in", "2563": "c\u2019 han", "2564": "qua of", "2565": "bri ap", "2566": "bre et", "2567": "gio in", "2568": "chi am", "2569": "sma in", "2570": "gno am", "2571": "gue or", "2572": "pre ac", "2573": "sti on", "2574": "ti han", "2575": "ch\u2019 as", "2576": "t\u2019 han", "2577": "st\u2019 of", "2578": "chi al", "2579": "st\u2019 ar", "2580": "gne uo", "2581": "st\u2019 ul", "2582": "sto on", "2583": "chio o", "2584": "tro in", "2585": "zia on", "2586": "dia as", "2587": "gia in", "2588": "go han", "2589": "rio an", "2590": "ch\u2019 et", "2591": "dre eb", "2592": "sto im", "2593": "cio as", "2594": "schiat", "2595": "sta al", "2596": "tra ef", "2597": "tro of", "2598": "tr\u2019 am", "2599": "te han", "2600": "gue an", "2601": "schiet", "2602": "ch\u2019 ap", "2603": "sti al", "2604": "stro e", "2605": "que al", "2606": "sco al", "2607": "gno in", "2608": "bia in", "2609": "tri in", "2610": "pre at", "2611": "lio as", "2612": "pi\u00f9 \u2019n", "2613": "zia il", "2614": "gne ef", "2615": "chio a", "2616": "chi an", "2617": "ch\u2019 or", "2618": "ch\u2019 am", "2619": "cie in", "2620": "sto at", "2621": "sto of", "2622": "stri a", "2623": "n\u2019 han", "2624": "bre in", "2625": "gh\u2019 es", "2626": "tre an", "2627": "dre as", "2628": "chi on", "2629": "sta ol", "2630": "sti or", "2631": "ch\u2019 og", "2632": "dre es", "2633": "gne im", "2634": "pio on", "2635": "cio ap", "2636": "mio in", "2637": "li han", "2638": "stro a", "2639": "tri as", "2640": "tro an", "2641": "glio o", "2642": "bra in", "2643": "ch\u2019 ab", "2644": "zia or", "2645": "glia u", "2646": "ch\u2019 er", "2647": "sti in", "2648": "sto in", "2649": "gio on", "2650": "st\u2019 al", "2651": "tro ab", "2652": "sce al", "2653": "tro ar", "2654": "sto al", "2655": "st\u2019 in", "2656": "st\u2019 ac", "2657": "pi\u00f9 in", "2658": "pre ar", "2659": "gio uc", "2660": "cia on", "2661": "str\u2019 u", "2662": "ste in", "2663": "cio al", "2664": "cia ar", "2665": "lio an", "2666": "sta in", "2667": "ch\u2019 ac", "2668": "vea \u2019m", "2669": "dre an", "2670": "tre in", "2671": "sto ar", "2672": "tre os", "2673": "tri af", "2674": "tro \u2019m", "2675": "tr\u2019 al", "2676": "sti er", "2677": "mio \u2019n", "2678": "dre al", "2679": "sto ap", "2680": "ri han", "2681": "lia an", "2682": "pre al", "2683": "qua im", "2684": "mia \u2019n", "2685": "gne ac", "2686": "gno ae", "2687": "sce as", "2688": "sto ac", "2689": "gne er", "2690": "glio e", "2691": "stro o", "2692": "que es", "2693": "pre es", "2694": "chio u", "2695": "ch\u2019 el", "2696": "sti el", "2697": "sce el", "2698": "sti un", "2699": "tra op", "2700": "sta im", "2701": "qua on", "2702": "co e i", "2703": "glia o", "2704": "li \u00e8 in", "2705": "stra ef", "2706": "stro al", "2707": "stro eb", "2708": "stra ap", "2709": "stri av", "2710": "dio han", "2711": "stri an", "2712": "glia as", "2713": "stri al", "2714": "glio an", "2715": "d\u2019 i\u2019 a", "2716": "ti e \u2019n", "2717": "glia in", "2718": "glia es", "2719": "stro an", "2720": "stri ef", "2721": "trio al", "2722": "glie al", "2723": "stro as", "2724": "sche er", "2725": "glio on", "2726": "stro in", "2727": "chio at", "2728": "lo e \u2019n", "2729": "scia an", "2730": "sche ab", "2731": "chio an", "2732": "chia of", "2733": "stro es", "2734": "chia an", "2735": "stro im", "2736": "glio in", "2737": "stro oc", "2738": "stra in", "2739": "glia ac", "2740": "stre in", "2741": "str\u2019 ar", "2742": "n\u2019 \u00e8 im", "2743": "chie et", "2744": "si e \u2019n", "2745": "str\u2019 or", "2746": "re a \u2019n", "2747": "chio in", "2748": "glie eb", "2749": "stro ac", "2750": "glio es", "2751": "stro av", "2752": "glia al", "2753": "glie an", "2754": "glio as", "2755": "stri af", "2756": "sti a \u2019n", "2757": "t\u2019 ho in", "2758": "ch\u2019 e\u2019 \u2019n", "2759": "ch\u2019 io \u2019n", "2760": "a ", "2761": "s ", "2762": "e ", "2763": "\u00f9 ", "2764": "\u00ef ", "2765": "i ", "2766": "o ", "2767": "\u00f2 ", "2768": "\u00e8 ", "2769": "fa ", "2770": "fi ", "2771": "ed ", "2772": "v\u00f2 ", "2773": "t\u00f2 ", "2774": "la ", "2775": "\u00e0s ", "2776": "bi ", "2777": "go ", "2778": "va ", "2779": "do ", "2780": "di ", "2781": "ir ", "2782": "on ", "2783": "to ", "2784": "ai ", "2785": "c\u00e9 ", "2786": "fu ", "2787": "b\u00f9 ", "2788": "s\u00e8 ", "2789": "n\u00e9 ", "2790": "v\u00ec ", "2791": "ad ", "2792": "ei ", "2793": "ve ", "2794": "pi ", "2795": "d\u00e0 ", "2796": "t\u00ec ", "2797": "vi ", "2798": "\u00e0r ", "2799": "ce ", "2800": "re ", "2801": "ci ", "2802": "zo ", "2803": "f\u00e0 ", "2804": "so ", "2805": "bo ", "2806": "ta ", "2807": "r\u00f2 ", "2808": "\u00e9n ", "2809": "pe ", "2810": "s\u00e9 ", "2811": "ia ", "2812": "l\u00e0 ", "2813": "ti ", "2814": "zi ", "2815": "ae ", "2816": "t\u00e0 ", "2817": "l\u00f2 ", "2818": "fe ", "2819": "fo ", "2820": "l\u00ec ", "2821": "be ", "2822": "za ", "2823": "al ", "2824": "ba ", "2825": "vo ", "2826": "ga ", "2827": "ie ", "2828": "ha ", "2829": "ne ", "2830": "b\u00f2 ", "2831": "po ", "2832": "co ", "2833": "d\u00e9 ", "2834": "in ", "2835": "il ", "2836": "t\u00f9 ", "2837": "t\u00e8 ", "2838": "n\u00ec ", "2839": "pa ", "2840": "tu ", "2841": "s\u00ec ", "2842": "ge ", "2843": "ri ", "2844": "ho ", "2845": "ab ", "2846": "e\u2019 ", "2847": "or ", "2848": "na ", "2849": "mo ", "2850": "ro ", "2851": "n\u00f2 ", "2852": "r\u00ec ", "2853": "te ", "2854": "el ", "2855": "de ", "2856": "p\u00e8 ", "2857": "se ", "2858": "os ", "2859": "om ", "2860": "d\u00ec ", "2861": "d\u00f2 ", "2862": "ni ", "2863": "\u00f2s ", "2864": "i\u2019 ", "2865": "m\u00f2 ", "2866": "f\u00e9 ", "2867": "ar ", "2868": "ca ", "2869": "an ", "2870": "as ", "2871": "n\u00e8 ", "2872": "u\u2019 ", "2873": "ze ", "2874": "l\u00e8 ", "2875": "et ", "2876": "sa ", "2877": "li ", "2878": "g\u00f2 ", "2879": "un ", "2880": "a\u2019 ", "2881": "\u00f3n ", "2882": "t\u00e9 ", "2883": "\u00e0m ", "2884": "ra ", "2885": "ma ", "2886": "le ", "2887": "si ", "2888": "p\u00f2 ", "2889": "g\u00ec ", "2890": "f\u00f2 ", "2891": "s\u00f2 ", "2892": "\u00f9l ", "2893": "lo ", "2894": "z\u00f2 ", "2895": "s\u00f9 ", "2896": "me ", "2897": "c\u00f2 ", "2898": "n\u00e0 ", "2899": "su ", "2900": "oh ", "2901": "r\u00e0 ", "2902": "no ", "2903": "ut ", "2904": "mi ", "2905": "gi ", "2906": "m\u00e8 ", "2907": "da ", "2908": "io ", "2909": "od ", "2910": "b\u00e8 ", "2911": "\u00e8l ", "2912": "us ", "2913": "gui ", "2914": "vol ", "2915": "nis ", "2916": "sca ", "2917": "cur ", "2918": "sio ", "2919": "ria ", "2920": "ci\u00f2 ", "2921": "van ", "2922": "pi\u00f9 ", "2923": "car ", "2924": "rar ", "2925": "von ", "2926": "r\u00ecs ", "2927": "die ", "2928": "bi\u00f2 ", "2929": "fia ", "2930": "bir ", "2931": "fin ", "2932": "fe\u2019 ", "2933": "deo ", "2934": "dar ", "2935": "nai ", "2936": "pea ", "2937": "ta\u2019 ", "2938": "vai ", "2939": "tri ", "2940": "gir ", "2941": "st\u00f9 ", "2942": "vem ", "2943": "\u2018te ", "2944": "smi ", "2945": "gon ", "2946": "rum ", "2947": "te\u2019 ", "2948": "lor ", "2949": "tr\u00f2 ", "2950": "st\u00ec ", "2951": "cre ", "2952": "cin ", "2953": "dro ", "2954": "zai ", "2955": "ler ", "2956": "sii ", "2957": "ch\u00e9 ", "2958": "tin ", "2959": "dri ", "2960": "ban ", "2961": "mun ", "2962": "r\u00f3n ", "2963": "gre ", "2964": "dra ", "2965": "b\u00eca ", "2966": "bil ", "2967": "plo ", "2968": "lin ", "2969": "gi\u00e0 ", "2970": "rel ", "2971": "coi ", "2972": "gri ", "2973": "mio ", "2974": "d\u00eca ", "2975": "ner ", "2976": "fur ", "2977": "que ", "2978": "sie ", "2979": "clo ", "2980": "lui ", "2981": "fra ", "2982": "dia ", "2983": "lia ", "2984": "vei ", "2985": "zar ", "2986": "o a ", "2987": "ean ", "2988": "sin ", "2989": "a e ", "2990": "bri ", "2991": "man ", "2992": "lon ", "2993": "ten ", "2994": "sia ", "2995": "bar ", "2996": "tus ", "2997": "v\u00ecd ", "2998": "gi\u2019 ", "2999": "leo ", "3000": "tra ", "3001": "cle ", "3002": "ri\u2019 ", "3003": "num ", "3004": "tai ", "3005": "san ", "3006": "sor ", "3007": "pi\u00e9 ", "3008": "len ", "3009": "cer ", "3010": "gli ", "3011": "ti\u2019 ", "3012": "vra ", "3013": "l\u00e8m ", "3014": "fei ", "3015": "c\u00e0n ", "3016": "tel ", "3017": "g\u00f3n ", "3018": "cil ", "3019": "fer ", "3020": "gu\u00ec ", "3021": "mon ", "3022": "del ", "3023": "teo ", "3024": "cei ", "3025": "nha ", "3026": "e \u2019 ", "3027": "val ", "3028": "bel ", "3029": "peo ", "3030": "va\u2019 ", "3031": "gol ", "3032": "a a ", "3033": "rin ", "3034": "ron ", "3035": "cun ", "3036": "gno ", "3037": "nol ", "3038": "mul ", "3039": "spa ", "3040": "nio ", "3041": "nem ", "3042": "meo ", "3043": "bol ", "3044": "no\u2019 ", "3045": "bon ", "3046": "suo ", "3047": "sir ", "3048": "unt ", "3049": "rao ", "3050": "per ", "3051": "gan ", "3052": "sar ", "3053": "ma\u2019 ", "3054": "gue ", "3055": "d\u00e8i ", "3056": "pel ", "3057": "dr\u00e0 ", "3058": "ghe ", "3059": "gar ", "3060": "dur ", "3061": "tir ", "3062": "sis ", "3063": "non ", "3064": "dai ", "3065": "poi ", "3066": "sol ", "3067": "st\u00e0 ", "3068": "gai ", "3069": "dei ", "3070": "zie ", "3071": "vo\u2019 ", "3072": "fan ", "3073": "ram ", "3074": "cea ", "3075": "chi ", "3076": "sma ", "3077": "ril ", "3078": "lu\u2019 ", "3079": "mer ", "3080": "zon ", "3081": "m\u00ecs ", "3082": "vau ", "3083": "lee ", "3084": "tor ", "3085": "su\u2019 ", "3086": "b\u00e0l ", "3087": "tre ", "3088": "ror ", "3089": "tem ", "3090": "dir ", "3091": "ier ", "3092": "f\u00e8l ", "3093": "cem ", "3094": "tue ", "3095": "ga\u2019 ", "3096": "cui ", "3097": "nar ", "3098": "gel ", "3099": "uo\u2019 ", "3100": "cul ", "3101": "ste ", "3102": "can ", "3103": "cia ", "3104": "cai ", "3105": "gne ", "3106": "par ", "3107": "mil ", "3108": "m\u00eca ", "3109": "tol ", "3110": "rem ", "3111": "bre ", "3112": "tan ", "3113": "dee ", "3114": "bee ", "3115": "men ", "3116": "gia ", "3117": "con ", "3118": "mal ", "3119": "mei ", "3120": "n\u00f2s ", "3121": "ne\u2019 ", "3122": "ben ", "3123": "e i ", "3124": "hai ", "3125": "gin ", "3126": "pur ", "3127": "gea ", "3128": "gna ", "3129": "pin ", "3130": "gro ", "3131": "tr\u00e0 ", "3132": "tua ", "3133": "g\u00f3r ", "3134": "cri ", "3135": "me\u2019 ", "3136": "nea ", "3137": "dor ", "3138": "st\u00f2 ", "3139": "sui ", "3140": "de\u2019 ", "3141": "gei ", "3142": "lir ", "3143": "ran ", "3144": "ter ", "3145": "neo ", "3146": "tuo ", "3147": "pro ", "3148": "son ", "3149": "t\u00f3n ", "3150": "ve\u2019 ", "3151": "ver ", "3152": "gn\u00ec ", "3153": "ra\u2019 ", "3154": "\u2019ve ", "3155": "gua ", "3156": "reo ", "3157": "n\u00eca ", "3158": "t\u00e9r ", "3159": "sc\u00ec ", "3160": "han ", "3161": "feo ", "3162": "rei ", "3163": "noi ", "3164": "s\u00f3n ", "3165": "sul ", "3166": "don ", "3167": "cis ", "3168": "duo ", "3169": "bro ", "3170": "nia ", "3171": "mar ", "3172": "re\u2019 ", "3173": "dio ", "3174": "fon ", "3175": "nir ", "3176": "ton ", "3177": "ger ", "3178": "cio ", "3179": "pie ", "3180": "gal ", "3181": "ser ", "3182": "bis ", "3183": "dil ", "3184": "pir ", "3185": "lio ", "3186": "a i ", "3187": "qua ", "3188": "pol ", "3189": "mor ", "3190": "mae ", "3191": "lei ", "3192": "der ", "3193": "pr\u00ec ", "3194": "fai ", "3195": "nel ", "3196": "ian ", "3197": "nie ", "3198": "sal ", "3199": "ghi ", "3200": "via ", "3201": "gu\u00f2 ", "3202": "uom ", "3203": "bor ", "3204": "tio ", "3205": "rio ", "3206": "fil ", "3207": "pal ", "3208": "f\u00f3n ", "3209": "dem ", "3210": "vil ", "3211": "du\u2019 ", "3212": "vio ", "3213": "pia ", "3214": "sel ", "3215": "dre ", "3216": "ren ", "3217": "mai ", "3218": "ion ", "3219": "far ", "3220": "nei ", "3221": "qui ", "3222": "gra ", "3223": "pu\u00f2 ", "3224": "fui ", "3225": "pem ", "3226": "mie ", "3227": "l\u00eco ", "3228": "da\u2019 ", "3229": "cal ", "3230": "lan ", "3231": "fu\u2019 ", "3232": "pei ", "3233": "co\u2019 ", "3234": "tia ", "3235": "za\u2019 ", "3236": "for ", "3237": "c\u00f2b ", "3238": "sce ", "3239": "c\u00f2l ", "3240": "min ", "3241": "dr\u00f2 ", "3242": "r\u00f2l ", "3243": "ges ", "3244": "col ", "3245": "cu\u2019 ", "3246": "pr\u00e0 ", "3247": "tar ", "3248": "lea ", "3249": "tes ", "3250": "vel ", "3251": "bei ", "3252": "f\u00e0t ", "3253": "vam ", "3254": "pio ", "3255": "dan ", "3256": "bia ", "3257": "gis ", "3258": "gi\u00f9 ", "3259": "n\u00e8s ", "3260": "sto ", "3261": "gi\u00f2 ", "3262": "mas ", "3263": "cum ", "3264": "lar ", "3265": "sue ", "3266": "nan ", "3267": "na\u2019 ", "3268": "n\u00ect ", "3269": "voi ", "3270": "bio ", "3271": "pon ", "3272": "sti ", "3273": "sta ", "3274": "o e ", "3275": "cel ", "3276": "ber ", "3277": "sem ", "3278": "cen ", "3279": "nal ", "3280": "se\u2019 ", "3281": "bus ", "3282": "tro ", "3283": "des ", "3284": "r\u00ecb ", "3285": "pi\u00e8 ", "3286": "bue ", "3287": "sa\u2019 ", "3288": "tun ", "3289": "pre ", "3290": "mia ", "3291": "dal ", "3292": "lai ", "3293": "st\u00e9 ", "3294": "che ", "3295": "sen ", "3296": "cor ", "3297": "sei ", "3298": "zul ", "3299": "sai ", "3300": "rea ", "3301": "ral ", "3302": "sci ", "3303": "zia ", "3304": "por ", "3305": "sub ", "3306": "gni ", "3307": "t\u00e0n ", "3308": "sua ", "3309": "cra ", "3310": "cie ", "3311": "sco ", "3312": "vea ", "3313": "gor ", "3314": "din ", "3315": "lie ", "3316": "til ", "3317": "ahi ", "3318": "nil ", "3319": "deh ", "3320": "spe ", "3321": "sun ", "3322": "tei ", "3323": "f\u00e0s ", "3324": "l\u00f2n ", "3325": "pan ", "3326": "di\u00e8 ", "3327": "rer ", "3328": "tea ", "3329": "smo ", "3330": "rie ", "3331": "pri ", "3332": "nor ", "3333": "tis ", "3334": "cro ", "3335": "vin ", "3336": "ieu ", "3337": "zio ", "3338": "vie ", "3339": "tal ", "3340": "vas ", "3341": "var ", "3342": "dea ", "3343": "rai ", "3344": "gio ", "3345": "pra ", "3346": "nin ", "3347": "zan ", "3348": "ven ", "3349": "rir ", "3350": "due ", "3351": "fi\u2019 ", "3352": "di\u2019 ", "3353": "bra ", "3354": "s\u2019 a ", "3355": "fian ", "3356": "gi e ", "3357": "trui ", "3358": "gli\u00f2 ", "3359": "suol ", "3360": "te e ", "3361": "gien ", "3362": "no \u00e8 ", "3363": "di a ", "3364": "brio ", "3365": "la o ", "3366": "ghie ", "3367": "guan ", "3368": "muor ", "3369": "li \u00e8 ", "3370": "gnar ", "3371": "fe e ", "3372": "\u00e8 \u2019l ", "3373": "se a ", "3374": "vi a ", "3375": "spri ", "3376": "ti i ", "3377": "so o ", "3378": "tiam ", "3379": "brar ", "3380": "zi e ", "3381": "de o ", "3382": "ni e ", "3383": "quam ", "3384": "ro \u00e8 ", "3385": "glia ", "3386": "do i ", "3387": "si a ", "3388": "trio ", "3389": "tran ", "3390": "t\u2019 i ", "3391": "be a ", "3392": "buon ", "3393": "ni o ", "3394": "prun ", "3395": "bi e ", "3396": "prai ", "3397": "ghi\u00f2 ", "3398": "o al ", "3399": "no e ", "3400": "pia\u2019 ", "3401": "s\u2019 \u00e8 ", "3402": "a \u2019l ", "3403": "stro ", "3404": "ve i ", "3405": "le e ", "3406": "gior ", "3407": "ra a ", "3408": "ra \u00e8 ", "3409": "quel ", "3410": "ziar ", "3411": "brei ", "3412": "ri a ", "3413": "gnia ", "3414": "se i ", "3415": "ve o ", "3416": "va a ", "3417": "vi o ", "3418": "co i ", "3419": "gier ", "3420": "za \u00e8 ", "3421": "giar ", "3422": "mi i ", "3423": "re o ", "3424": "pian ", "3425": "star ", "3426": "la a ", "3427": "siam ", "3428": "i in ", "3429": "ro a ", "3430": "ciar ", "3431": "fi e ", "3432": "ce i ", "3433": "l\u00e0 i ", "3434": "ne a ", "3435": "cean ", "3436": "sc\u00eco ", "3437": "com\u2019 ", "3438": "stil ", "3439": "prir ", "3440": "bo a ", "3441": "di e ", "3442": "pa \u00e8 ", "3443": "ciol ", "3444": "si \u00e8 ", "3445": "do e ", "3446": "pe i ", "3447": "vian ", "3448": "le i ", "3449": "te i ", "3450": "io e ", "3451": "pi\u00e9r ", "3452": "quei ", "3453": "gnel ", "3454": "tuoi ", "3455": "nier ", "3456": "cl\u00e8s ", "3457": "cuor ", "3458": "tram ", "3459": "to e ", "3460": "ni \u00e8 ", "3461": "bian ", "3462": "chin ", "3463": "na \u00e8 ", "3464": "lien ", "3465": "ze e ", "3466": "ghio ", "3467": "te a ", "3468": "ro o ", "3469": "sche ", "3470": "scea ", "3471": "mo \u00e8 ", "3472": "bi a ", "3473": "te o ", "3474": "bi i ", "3475": "re a ", "3476": "dean ", "3477": "guai ", "3478": "go e ", "3479": "grin ", "3480": "vuol ", "3481": "ne e ", "3482": "ri o ", "3483": "guon ", "3484": "guir ", "3485": "zo e ", "3486": "schi ", "3487": "tier ", "3488": "ca e ", "3489": "sunt ", "3490": "dron ", "3491": "co e ", "3492": "ro i ", "3493": "fier ", "3494": "te \u00e8 ", "3495": "lo e ", "3496": "zo a ", "3497": "o \u2019n ", "3498": "spre ", "3499": "ge \u00e8 ", "3500": "stai ", "3501": "rean ", "3502": "stra ", "3503": "vo a ", "3504": "pi e ", "3505": "v\u2019 a ", "3506": "ma i ", "3507": "mi e ", "3508": "le a ", "3509": "na a ", "3510": "ciam ", "3511": "vria ", "3512": "ma \u00e8 ", "3513": "bia\u2019 ", "3514": "slao ", "3515": "f\u00e9 i ", "3516": "cia\u2019 ", "3517": "no o ", "3518": "re i ", "3519": "stan ", "3520": "tr\u00e0s ", "3521": "be i ", "3522": "str\u00f2 ", "3523": "ne o ", "3524": "o in ", "3525": "fior ", "3526": "o un ", "3527": "a al ", "3528": "ta \u00e8 ", "3529": "re e ", "3530": "go \u00e8 ", "3531": "dail ", "3532": "to a ", "3533": "pien ", "3534": "so e ", "3535": "pa e ", "3536": "stui ", "3537": "ta o ", "3538": "la e ", "3539": "po a ", "3540": "ci \u00e8 ", "3541": "co o ", "3542": "vien ", "3543": "mo i ", "3544": "plar ", "3545": "d\u2019 i ", "3546": "giam ", "3547": "po o ", "3548": "stie ", "3549": "chel ", "3550": "gnun ", "3551": "sfar ", "3552": "scia ", "3553": "ti e ", "3554": "ga e ", "3555": "sion ", "3556": "drir ", "3557": "be e ", "3558": "tra\u2019 ", "3559": "ci o ", "3560": "li a ", "3561": "stea ", "3562": "gnan ", "3563": "laio ", "3564": "sa \u00e8 ", "3565": "no a ", "3566": "ce \u00e8 ", "3567": "naio ", "3568": "na e ", "3569": "gian ", "3570": "spro ", "3571": "ca o ", "3572": "ciul ", "3573": "sa i ", "3574": "vi \u00e8 ", "3575": "pri\u2019 ", "3576": "gual ", "3577": "scon ", "3578": "la i ", "3579": "gion ", "3580": "t\u2019 \u00e8 ", "3581": "da i ", "3582": "que\u2019 ", "3583": "ri e ", "3584": "ci a ", "3585": "za e ", "3586": "de \u00e8 ", "3587": "e \u2019l ", "3588": "ve e ", "3589": "li e ", "3590": "ver\u2019 ", "3591": "me a ", "3592": "drai ", "3593": "mian ", "3594": "fiar ", "3595": "ch e ", "3596": "trai ", "3597": "rian ", "3598": "runt ", "3599": "va e ", "3600": "a in ", "3601": "vi e ", "3602": "sti\u00f2 ", "3603": "za a ", "3604": "ne i ", "3605": "gner ", "3606": "qual ", "3607": "quai ", "3608": "ma o ", "3609": "scio ", "3610": "zion ", "3611": "scel ", "3612": "miei ", "3613": "vier ", "3614": "di i ", "3615": "guia ", "3616": "ce o ", "3617": "bo e ", "3618": "ra o ", "3619": "da a ", "3620": "plor ", "3621": "ni a ", "3622": "tien ", "3623": "cria ", "3624": "pa a ", "3625": "quor ", "3626": "sa a ", "3627": "ta e ", "3628": "di o ", "3629": "nean ", "3630": "sci\u2019 ", "3631": "ched ", "3632": "cion ", "3633": "zi a ", "3634": "fuor ", "3635": "ca \u00e8 ", "3636": "za i ", "3637": "se o ", "3638": "trei ", "3639": "pier ", "3640": "trae ", "3641": "quar ", "3642": "die\u2019 ", "3643": "niam ", "3644": "tuon ", "3645": "vuo\u2019 ", "3646": "le o ", "3647": "gnon ", "3648": "chio ", "3649": "d\u2019 \u00e8 ", "3650": "ci e ", "3651": "prei ", "3652": "sa e ", "3653": "viam ", "3654": "scar ", "3655": "lo a ", "3656": "stel ", "3657": "dier ", "3658": "fren ", "3659": "va i ", "3660": "scun ", "3661": "ro e ", "3662": "pron ", "3663": "so \u00e8 ", "3664": "ga a ", "3665": "stei ", "3666": "ne \u00e8 ", "3667": "tria ", "3668": "pion ", "3669": "scir ", "3670": "ta a ", "3671": "do a ", "3672": "dra\u2019 ", "3673": "maio ", "3674": "se e ", "3675": "chia ", "3676": "go o ", "3677": "quod ", "3678": "ge e ", "3679": "bran ", "3680": "gnin ", "3681": "stre ", "3682": "ra e ", "3683": "to i ", "3684": "drel ", "3685": "sien ", "3686": "chi\u00f2 ", "3687": "o il ", "3688": "nail ", "3689": "ti a ", "3690": "go a ", "3691": "breo ", "3692": "stri ", "3693": "do \u00e8 ", "3694": "diam ", "3695": "la \u00e8 ", "3696": "zi \u00e8 ", "3697": "re \u00e8 ", "3698": "stia ", "3699": "su i ", "3700": "ci\u00f2l ", "3701": "cral ", "3702": "stor ", "3703": "sci\u00f2 ", "3704": "da e ", "3705": "de a ", "3706": "lian ", "3707": "gnor ", "3708": "v\u2019 \u00e8 ", "3709": "nien ", "3710": "bent ", "3711": "li o ", "3712": "ca a ", "3713": "gran ", "3714": "s\u00e9 i ", "3715": "gi a ", "3716": "le \u00e8 ", "3717": "vean ", "3718": "to o ", "3719": "prie ", "3720": "me i ", "3721": "i il ", "3722": "r\u2019 a ", "3723": "sie\u2019 ", "3724": "tean ", "3725": "chie ", "3726": "sian ", "3727": "br\u00f2t ", "3728": "lo \u00e8 ", "3729": "na o ", "3730": "po e ", "3731": "gean ", "3732": "sier ", "3733": "ce e ", "3734": "ve a ", "3735": "ma a ", "3736": "si o ", "3737": "do o ", "3738": "glie ", "3739": "n\u2019 \u00e8 ", "3740": "no i ", "3741": "suon ", "3742": "a il ", "3743": "vuoi ", "3744": "glio ", "3745": "ciai ", "3746": "suo\u2019 ", "3747": "ga o ", "3748": "lo i ", "3749": "ce a ", "3750": "trar ", "3751": "ti o ", "3752": "zian ", "3753": "co \u00e8 ", "3754": "sa o ", "3755": "piar ", "3756": "st\u00f2r ", "3757": "de e ", "3758": "ghia ", "3759": "ma e ", "3760": "cian ", "3761": "stin ", "3762": "mi a ", "3763": "crin ", "3764": "mie\u2019 ", "3765": "biar ", "3766": "se \u00e8 ", "3767": "mo a ", "3768": "co a ", "3769": "si i ", "3770": "po \u00e8 ", "3771": "duol ", "3772": "rien ", "3773": "l\u2019 \u00e8 ", "3774": "ti \u00e8 ", "3775": "frir ", "3776": "pria ", "3777": "va o ", "3778": "ge a ", "3779": "mo e ", "3780": "prio ", "3781": "suoi ", "3782": "ta i ", "3783": "e \u2019n ", "3784": "so i ", "3785": "pe e ", "3786": "za o ", "3787": "li i ", "3788": "po i ", "3789": "scer ", "3790": "d\u00ec i ", "3791": "ghin ", "3792": "dien ", "3793": "ciel ", "3794": "puoi ", "3795": "tu i ", "3796": "gnum ", "3797": "lier ", "3798": "quie ", "3799": "bion ", "3800": "l\u00ec \u00e8 ", "3801": "gnus ", "3802": "so a ", "3803": "ra i ", "3804": "si e ", "3805": "m\u2019 \u00e8 ", "3806": "buoi ", "3807": "ba e ", "3808": "\u00e8 \u2019n ", "3809": "nian ", "3810": "c\u2019 \u00e8 ", "3811": "vo e ", "3812": "fo \u00e8 ", "3813": "\u00e8 il ", "3814": "me e ", "3815": "me \u00e8 ", "3816": "to \u00e8 ", "3817": "ze o ", "3818": "giun ", "3819": "spir ", "3820": "grue ", "3821": "de i ", "3822": "fien ", "3823": "co un ", "3824": "zia o ", "3825": "dre a ", "3826": "ri al ", "3827": "co al ", "3828": "ro al ", "3829": "le ad ", "3830": "gni e ", "3831": "stial ", "3832": "gia o ", "3833": "ni in ", "3834": "gni a ", "3835": "mi \u2019l ", "3836": "tra e ", "3837": "za or ", "3838": "s\u00ec \u2019l ", "3839": "da i\u2019 ", "3840": "lo ha ", "3841": "na in ", "3842": "v\u2019 ha ", "3843": "ma un ", "3844": "fu \u2019l ", "3845": "mo il ", "3846": "bra a ", "3847": "ne un ", "3848": "m\u2019 ha ", "3849": "t\u2019 om ", "3850": "cio a ", "3851": "pe \u2019l ", "3852": "ria o ", "3853": "pra e ", "3854": "mi al ", "3855": "tro a ", "3856": "le in ", "3857": "rio a ", "3858": "le il ", "3859": "de al ", "3860": "me ed ", "3861": "li ad ", "3862": "mo \u2019l ", "3863": "g\u2019 io ", "3864": "ti ed ", "3865": "te ai ", "3866": "di ha ", "3867": "ta io ", "3868": "te io ", "3869": "gui e ", "3870": "go \u2019l ", "3871": "sta \u00e8 ", "3872": "su \u2019l ", "3873": "re i\u2019 ", "3874": "na al ", "3875": "n\u00f2 \u2019l ", "3876": "va ad ", "3877": "cia o ", "3878": "me in ", "3879": "so a\u2019 ", "3880": "li al ", "3881": "do io ", "3882": "sto e ", "3883": "sti o ", "3884": "co in ", "3885": "co il ", "3886": "se al ", "3887": "te ad ", "3888": "sto a ", "3889": "d\u2019 io ", "3890": "be ed ", "3891": "f\u00e9 \u2019l ", "3892": "chi \u00e8 ", "3893": "gli e ", "3894": "ca io ", "3895": "bra o ", "3896": "te ho ", "3897": "zia e ", "3898": "to il ", "3899": "ti ad ", "3900": "pi in ", "3901": "to ed ", "3902": "ro od ", "3903": "r\u00ec \u2019l ", "3904": "tre e ", "3905": "m\u2019 io ", "3906": "sco e ", "3907": "ce al ", "3908": "va ai ", "3909": "chi a ", "3910": "co io ", "3911": "l\u00e0 \u2019l ", "3912": "ge ai ", "3913": "t\u00e0 \u2019l ", "3914": "mi ed ", "3915": "pa \u2019l ", "3916": "sti a ", "3917": "svuol ", "3918": "li or ", "3919": "ra \u2019n ", "3920": "la in ", "3921": "glier ", "3922": "me ad ", "3923": "ca al ", "3924": "li in ", "3925": "g\u00ec \u2019l ", "3926": "lo un ", "3927": "c\u2019 io ", "3928": "ti \u2019l ", "3929": "che a ", "3930": "sci a ", "3931": "za in ", "3932": "se io ", "3933": "ha \u2019l ", "3934": "na un ", "3935": "gno i ", "3936": "gi il ", "3937": "le un ", "3938": "lo a\u2019 ", "3939": "v\u2019 io ", "3940": "c\u2019 ha ", "3941": "l\u2019 un ", "3942": "tro \u00e8 ", "3943": "gue \u00e8 ", "3944": "se ir ", "3945": "stier ", "3946": "co ad ", "3947": "ghe e ", "3948": "sco i ", "3949": "va un ", "3950": "ra ha ", "3951": "s\u2019 io ", "3952": "glian ", "3953": "glion ", "3954": "tra i ", "3955": "bro e ", "3956": "d\u2019 el ", "3957": "si in ", "3958": "la un ", "3959": "ia in ", "3960": "ta ed ", "3961": "za il ", "3962": "lio a ", "3963": "ra al ", "3964": "gno a ", "3965": "re in ", "3966": "de il ", "3967": "si un ", "3968": "c\u2019 ho ", "3969": "va \u2019l ", "3970": "d\u00f2 \u2019l ", "3971": "gna e ", "3972": "za \u2019l ", "3973": "me al ", "3974": "za ha ", "3975": "lo ad ", "3976": "va in ", "3977": "do in ", "3978": "si \u2019n ", "3979": "ti un ", "3980": "vi il ", "3981": "gia \u00e8 ", "3982": "gliea ", "3983": "gui i ", "3984": "dio e ", "3985": "mo ed ", "3986": "tri o ", "3987": "de in ", "3988": "ne ad ", "3989": "lo ai ", "3990": "l\u2019 ho ", "3991": "re ir ", "3992": "zo in ", "3993": "scion ", "3994": "che e ", "3995": "pe il ", "3996": "n\u2019 io ", "3997": "va ed ", "3998": "do ha ", "3999": "bro \u00e8 ", "4000": "gno e ", "4001": "ti il ", "4002": "ia il ", "4003": "se or ", "4004": "pre e ", "4005": "te il ", "4006": "ti ai ", "4007": "so ad ", "4008": "ro il ", "4009": "na ed ", "4010": "d\u2019 i\u2019 ", "4011": "si or ", "4012": "tro i ", "4013": "r\u00f2 \u2019l ", "4014": "le io ", "4015": "dro o ", "4016": "le ha ", "4017": "ve al ", "4018": "lo in ", "4019": "ve \u2019l ", "4020": "sa un ", "4021": "so il ", "4022": "da al ", "4023": "que \u00e8 ", "4024": "fo or ", "4025": "ra un ", "4026": "li oh ", "4027": "ci or ", "4028": "ro ed ", "4029": "gna \u00e8 ", "4030": "t\u2019 el ", "4031": "mi in ", "4032": "ria \u2019 ", "4033": "stiam ", "4034": "r\u00f2 il ", "4035": "t\u2019 i\u2019 ", "4036": "ta il ", "4037": "vi \u2019l ", "4038": "la a\u2019 ", "4039": "re ho ", "4040": "ria \u00e8 ", "4041": "pre a ", "4042": "tro e ", "4043": "tra \u00e8 ", "4044": "na ha ", "4045": "glior ", "4046": "gi un ", "4047": "ria a ", "4048": "dia i ", "4049": "va \u2019n ", "4050": "gliar ", "4051": "ce un ", "4052": "schio ", "4053": "po \u2019l ", "4054": "ne ha ", "4055": "re il ", "4056": "po in ", "4057": "chian ", "4058": "lo or ", "4059": "gia e ", "4060": "ta ad ", "4061": "le or ", "4062": "pre i ", "4063": "ste i ", "4064": "to \u2019l ", "4065": "ma \u2019l ", "4066": "pio e ", "4067": "cio e ", "4068": "stral ", "4069": "bra e ", "4070": "di \u2019n ", "4071": "lio \u00e8 ", "4072": "va or ", "4073": "te ha ", "4074": "s\u00e9 il ", "4075": "vra i ", "4076": "zia a ", "4077": "to un ", "4078": "gliel ", "4079": "zia \u00e8 ", "4080": "s\u2019 i\u2019 ", "4081": "n\u00f2 in ", "4082": "d\u2019 e\u2019 ", "4083": "se il ", "4084": "se un ", "4085": "bi in ", "4086": "ci in ", "4087": "che i ", "4088": "gno \u00e8 ", "4089": "cia e ", "4090": "ne a\u2019 ", "4091": "ra in ", "4092": "no io ", "4093": "be al ", "4094": "na ad ", "4095": "sa in ", "4096": "ga il ", "4097": "ti in ", "4098": "s\u2019 el ", "4099": "da il ", "4100": "no al ", "4101": "ra il ", "4102": "se in ", "4103": "bre a ", "4104": "no \u2019l ", "4105": "co u\u2019 ", "4106": "pe ad ", "4107": "pa ed ", "4108": "ghe a ", "4109": "de ad ", "4110": "r\u2019 al ", "4111": "di or ", "4112": "zi al ", "4113": "z\u00f2 il ", "4114": "de ed ", "4115": "ti ei ", "4116": "sti \u00e8 ", "4117": "dio a ", "4118": "b\u2019 io ", "4119": "di io ", "4120": "so un ", "4121": "me a\u2019 ", "4122": "ce u\u2019 ", "4123": "ha in ", "4124": "gua a ", "4125": "re \u2019n ", "4126": "strar ", "4127": "strai ", "4128": "lo al ", "4129": "di ed ", "4130": "zio \u00e8 ", "4131": "sia e ", "4132": "re or ", "4133": "ci il ", "4134": "mi a\u2019 ", "4135": "que e ", "4136": "zi il ", "4137": "sce e ", "4138": "za oh ", "4139": "si u\u2019 ", "4140": "do il ", "4141": "za i\u2019 ", "4142": "ce ha ", "4143": "no ed ", "4144": "do un ", "4145": "tu \u2019l ", "4146": "d\u2019 ei ", "4147": "zi or ", "4148": "gia a ", "4149": "tr\u2019 \u00e8 ", "4150": "to a\u2019 ", "4151": "be in ", "4152": "zi ad ", "4153": "che \u2019 ", "4154": "si al ", "4155": "gio e ", "4156": "po ed ", "4157": "to ha ", "4158": "ni il ", "4159": "la \u2019l ", "4160": "chion ", "4161": "da un ", "4162": "ta in ", "4163": "ne io ", "4164": "li io ", "4165": "ghi e ", "4166": "di in ", "4167": "l\u00e0 il ", "4168": "bia e ", "4169": "dri e ", "4170": "se \u2019n ", "4171": "vi un ", "4172": "ta ha ", "4173": "sti e ", "4174": "po io ", "4175": "ri \u2019l ", "4176": "le ir ", "4177": "da \u2019l ", "4178": "fa \u2019l ", "4179": "ra ad ", "4180": "ti ha ", "4181": "la io ", "4182": "chier ", "4183": "no ha ", "4184": "ne \u2019l ", "4185": "do \u2019l ", "4186": "si ad ", "4187": "ste e ", "4188": "li un ", "4189": "na il ", "4190": "lio e ", "4191": "da in ", "4192": "ghiar ", "4193": "bio e ", "4194": "se e\u2019 ", "4195": "te or ", "4196": "tra a ", "4197": "ro i\u2019 ", "4198": "s\u2019 ha ", "4199": "ne il ", "4200": "ch\u00e9 a ", "4201": "t\u2019 ho ", "4202": "ra \u2019l ", "4203": "tri a ", "4204": "re un ", "4205": "si el ", "4206": "se \u2019l ", "4207": "fu il ", "4208": "t\u00f2 \u2019l ", "4209": "si il ", "4210": "ro ad ", "4211": "to or ", "4212": "co ai ", "4213": "zo \u2019l ", "4214": "vrien ", "4215": "gue a ", "4216": "chiai ", "4217": "sciai ", "4218": "l\u2019 ha ", "4219": "be \u2019l ", "4220": "stian ", "4221": "temps ", "4222": "gua e ", "4223": "zi un ", "4224": "le al ", "4225": "no ad ", "4226": "ch\u00e9 i ", "4227": "ch\u2019 \u00e8 ", "4228": "mi il ", "4229": "do ad ", "4230": "di ad ", "4231": "t\u00f2 un ", "4232": "qua a ", "4233": "be or ", "4234": "do or ", "4235": "co \u2019l ", "4236": "ra a\u2019 ", "4237": "to \u2019n ", "4238": "to io ", "4239": "bo a\u2019 ", "4240": "t\u2019 il ", "4241": "smo a ", "4242": "ne or ", "4243": "ve un ", "4244": "se i\u2019 ", "4245": "ne ai ", "4246": "tra \u2019 ", "4247": "d\u2019 un ", "4248": "na ei ", "4249": "te ed ", "4250": "te in ", "4251": "ta al ", "4252": "be un ", "4253": "bi \u2019l ", "4254": "ti io ", "4255": "\u2019v\u2019 \u00e8 ", "4256": "di a\u2019 ", "4257": "que a ", "4258": "sta a ", "4259": "ne al ", "4260": "ste a ", "4261": "ne ed ", "4262": "sta o ", "4263": "s\u2019 ei ", "4264": "gi \u2019l ", "4265": "zo il ", "4266": "d\u2019 ir ", "4267": "gi al ", "4268": "st\u2019 \u00e8 ", "4269": "cia a ", "4270": "qua e ", "4271": "gli a ", "4272": "la al ", "4273": "v\u2019 ho ", "4274": "v\u2019 ei ", "4275": "zii e ", "4276": "sce a ", "4277": "te un ", "4278": "le i\u2019 ", "4279": "go il ", "4280": "me un ", "4281": "po ha ", "4282": "no i\u2019 ", "4283": "gna a ", "4284": "di un ", "4285": "lo ed ", "4286": "gri e ", "4287": "de un ", "4288": "t\u00ec \u2019l ", "4289": "pr\u2019 a ", "4290": "re ad ", "4291": "bo in ", "4292": "ra or ", "4293": "me ai ", "4294": "s\u2019 un ", "4295": "se ad ", "4296": "to al ", "4297": "sta e ", "4298": "bi il ", "4299": "do al ", "4300": "dro e ", "4301": "vi in ", "4302": "se a\u2019 ", "4303": "me \u2019l ", "4304": "pa in ", "4305": "ria i ", "4306": "re ed ", "4307": "vo in ", "4308": "v\u2019 \u00e8n ", "4309": "rio e ", "4310": "ia ed ", "4311": "mo un ", "4312": "ci al ", "4313": "pio a ", "4314": "v\u00f2 \u2019l ", "4315": "to i\u2019 ", "4316": "l\u2019 om ", "4317": "s\u2019 e\u2019 ", "4318": "lia e ", "4319": "gna i ", "4320": "t\u2019 ha ", "4321": "so al ", "4322": "to in ", "4323": "va io ", "4324": "me \u2019n ", "4325": "la il ", "4326": "ca in ", "4327": "b\u00f2 il ", "4328": "ch\u2019 a ", "4329": "dre e ", "4330": "ro or ", "4331": "si \u2019l ", "4332": "ca il ", "4333": "n\u2019 ei ", "4334": "no un ", "4335": "chiar ", "4336": "ra ed ", "4337": "do ed ", "4338": "ba il ", "4339": "mi ad ", "4340": "zi ai ", "4341": "mo ad ", "4342": "po al ", "4343": "li \u2019l ", "4344": "pa or ", "4345": "mi un ", "4346": "za un ", "4347": "scian ", "4348": "to ad ", "4349": "va al ", "4350": "qua \u00e8 ", "4351": "di il ", "4352": "chi e ", "4353": "t\u2019 io ", "4354": "gna o ", "4355": "stran ", "4356": "stion ", "4357": "ci \u2019l ", "4358": "ge al ", "4359": "me il ", "4360": "te al ", "4361": "li ha ", "4362": "ga in ", "4363": "na \u2019n ", "4364": "sme e ", "4365": "ci a\u2019 ", "4366": "sa \u2019l ", "4367": "se ho ", "4368": "li ei ", "4369": "tri \u00e8 ", "4370": "ria e ", "4371": "sa ad ", "4372": "no il ", "4373": "v\u2019 i\u2019 ", "4374": "ri in ", "4375": "ti a\u2019 ", "4376": "no in ", "4377": "no ai ", "4378": "ta un ", "4379": "ti \u2019n ", "4380": "do a\u2019 ", "4381": "v\u2019 e\u2019 ", "4382": "za al ", "4383": "sce i ", "4384": "ro un ", "4385": "de \u2019l ", "4386": "ro a\u2019 ", "4387": "su in ", "4388": "no u\u2019 ", "4389": "dro a ", "4390": "p\u2019 io ", "4391": "t\u00e9 \u2019l ", "4392": "le ab ", "4393": "ma \u2019n ", "4394": "ge il ", "4395": "ci ha ", "4396": "re al ", "4397": "ia oh ", "4398": "za ed ", "4399": "sciar ", "4400": "re a\u2019 ", "4401": "va a\u2019 ", "4402": "sa il ", "4403": "ni \u2019l ", "4404": "to ir ", "4405": "zi \u2019l ", "4406": "mia e ", "4407": "ta \u2019l ", "4408": "po il ", "4409": "ri a\u2019 ", "4410": "ne in ", "4411": "dia e ", "4412": "tr\u2019 a ", "4413": "mo in ", "4414": "ma il ", "4415": "zo al ", "4416": "go al ", "4417": "bre e ", "4418": "g\u00f2 \u2019l ", "4419": "pie a ", "4420": "ma a\u2019 ", "4421": "te a\u2019 ", "4422": "mo al ", "4423": "le \u2019l ", "4424": "ma in ", "4425": "zio a ", "4426": "zio e ", "4427": "ra io ", "4428": "ti al ", "4429": "tri e ", "4430": "ce il ", "4431": "gra o ", "4432": "n\u2019 ha ", "4433": "v\u2019 el ", "4434": "te u\u2019 ", "4435": "glien ", "4436": "qua o ", "4437": "ce in ", "4438": "gluol ", "4439": "da io ", "4440": "qui e ", "4441": "so in ", "4442": "v\u2019 or ", "4443": "re ha ", "4444": "pri a ", "4445": "ge ad ", "4446": "n\u00e9 \u2019l ", "4447": "ge or ", "4448": "ve in ", "4449": "va il ", "4450": "ve ad ", "4451": "da or ", "4452": "co a\u2019 ", "4453": "sto \u00e8 ", "4454": "ni or ", "4455": "li il ", "4456": "no a\u2019 ", "4457": "ge un ", "4458": "ve il ", "4459": "ba in ", "4460": "mo ha ", "4461": "ge in ", "4462": "ni al ", "4463": "te \u2019n ", "4464": "gio a ", "4465": "sca i ", "4466": "di al ", "4467": "be i\u2019 ", "4468": "so \u2019l ", "4469": "lo il ", "4470": "di \u2019l ", "4471": "be il ", "4472": "gue e ", "4473": "te \u2019l ", "4474": "la ed ", "4475": "ro in ", "4476": "cia ir ", "4477": "ch\u2019 al ", "4478": "che in ", "4479": "dre al ", "4480": "tre al ", "4481": "che il ", "4482": "gno in ", "4483": "qua il ", "4484": "gue in ", "4485": "che \u2019n ", "4486": "to hai ", "4487": "gne \u2019l ", "4488": "tra al ", "4489": "spra e ", "4490": "gli al ", "4491": "bia in ", "4492": "tre in ", "4493": "bra od ", "4494": "stio e ", "4495": "ghia a ", "4496": "ci e \u2019 ", "4497": "nio al ", "4498": "tra il ", "4499": "gna un ", "4500": "ri e \u2019 ", "4501": "pre ha ", "4502": "sto il ", "4503": "rio ha ", "4504": "que al ", "4505": "so hai ", "4506": "bia \u2019l ", "4507": "che a\u2019 ", "4508": "qua in ", "4509": "gi\u00e0 \u2019l ", "4510": "tro a\u2019 ", "4511": "mia al ", "4512": "cia il ", "4513": "ne han ", "4514": "pu\u00f2 \u2019l ", "4515": "gna a\u2019 ", "4516": "due \u2019l ", "4517": "gliuol ", "4518": "zia il ", "4519": "chi in ", "4520": "gno or ", "4521": "\u2019ve \u2019l ", "4522": "glio e ", "4523": "gliuoi ", "4524": "te han ", "4525": "gi\u2019 or ", "4526": "me e \u2019 ", "4527": "pa e \u2019 ", "4528": "rio ho ", "4529": "ch\u2019 a\u2019 ", "4530": "cia in ", "4531": "sta un ", "4532": "que in ", "4533": "gna \u2019l ", "4534": "sc\u2019 io ", "4535": "tro un ", "4536": "ria al ", "4537": "ghi \u2019l ", "4538": "ch\u2019 ai ", "4539": "schi a ", "4540": "sti il ", "4541": "l\u2019 uom ", "4542": "gni in ", "4543": "cio ed ", "4544": "che un ", "4545": "stra \u00e8 ", "4546": "stro e ", "4547": "stie e ", "4548": "tr\u2019 io ", "4549": "scio a ", "4550": "gna il ", "4551": "tra \u2019l ", "4552": "ni e i ", "4553": "pra in ", "4554": "tri or ", "4555": "gi\u00e0 il ", "4556": "sce il ", "4557": "tri \u2019l ", "4558": "ro e \u2019 ", "4559": "pi\u00f9 \u2019l ", "4560": "m\u2019 han ", "4561": "qui \u2019l ", "4562": "tri il ", "4563": "que i\u2019 ", "4564": "gua in ", "4565": "sti ha ", "4566": "sc\u00ec \u2019l ", "4567": "vra \u2019l ", "4568": "smo al ", "4569": "n\u2019 uom ", "4570": "que ad ", "4571": "che \u2019l ", "4572": "glio a ", "4573": "ste in ", "4574": "ch\u2019 ei ", "4575": "cia un ", "4576": "sti \u2019l ", "4577": "pre al ", "4578": "tro ed ", "4579": "tro i\u2019 ", "4580": "ch\u2019 e\u2019 ", "4581": "sto ad ", "4582": "s\u2019 hai ", "4583": "na\u2019 il ", "4584": "qua al ", "4585": "ne e \u2019 ", "4586": "zie al ", "4587": "ch\u00e9 \u2019n ", "4588": "tro al ", "4589": "gi\u00f9 il ", "4590": "que a\u2019 ", "4591": "l\u2019 hai ", "4592": "stri e ", "4593": "chio e ", "4594": "stro a ", "4595": "dia in ", "4596": "tri ad ", "4597": "sta il ", "4598": "pia in ", "4599": "tro il ", "4600": "tr\u2019 al ", "4601": "gno il ", "4602": "glia a ", "4603": "tra i\u2019 ", "4604": "st\u2019 ho ", "4605": "bra ad ", "4606": "vea \u2019l ", "4607": "chio a ", "4608": "cia ad ", "4609": "gno ad ", "4610": "glia e ", "4611": "sta in ", "4612": "tre il ", "4613": "chio \u00e8 ", "4614": "ra han ", "4615": "ci\u00f2 \u2019l ", "4616": "glie e ", "4617": "chi ha ", "4618": "tro \u2019l ", "4619": "schi o ", "4620": "ch\u2019 ad ", "4621": "ro hai ", "4622": "gia \u2019l ", "4623": "di e \u2019 ", "4624": "stro o ", "4625": "che al ", "4626": "tra in ", "4627": "pra \u2019l ", "4628": "chi \u2019l ", "4629": "dio in ", "4630": "ba e \u2019 ", "4631": "ni e \u2019 ", "4632": "gue il ", "4633": "ch\u2019 in ", "4634": "gno al ", "4635": "dro in ", "4636": "ch\u2019 io ", "4637": "ste il ", "4638": "se uom ", "4639": "tro ai ", "4640": "que il ", "4641": "li ha\u2019 ", "4642": "glia o ", "4643": "ti han ", "4644": "di\u2019 \u2019l ", "4645": "ria il ", "4646": "ch\u00e9 \u2019l ", "4647": "gu\u00ec \u2019l ", "4648": "sa e \u2019 ", "4649": "glia \u00e8 ", "4650": "glio o ", "4651": "sia \u2019l ", "4652": "sco il ", "4653": "dri ai ", "4654": "lia il ", "4655": "t\u2019 ha\u2019 ", "4656": "ch\u2019 \u00e8i ", "4657": "scia o ", "4658": "tr\u2019 a\u2019 ", "4659": "chia e ", "4660": "gia un ", "4661": "ti e i ", "4662": "bio ed ", "4663": "stro \u00e8 ", "4664": "chi \u2019n ", "4665": "pra ed ", "4666": "pria e ", "4667": "gno a\u2019 ", "4668": "chi il ", "4669": "sta al ", "4670": "m\u2019 hai ", "4671": "ch\u2019 i\u2019 ", "4672": "ch\u2019 om ", "4673": "li han ", "4674": "ghi in ", "4675": "va e i ", "4676": "ghio e ", "4677": "ch\u2019 or ", "4678": "dria e ", "4679": "sta \u2019n ", "4680": "lio ed ", "4681": "chi ei ", "4682": "sce in ", "4683": "tre i\u2019 ", "4684": "stia e ", "4685": "c\u2019 ha\u2019 ", "4686": "t\u2019 hai ", "4687": "c\u2019 hai ", "4688": "stra a ", "4689": "gl\u2019 io ", "4690": "fra \u2019l ", "4691": "ch\u2019 un ", "4692": "ch\u2019 el ", "4693": "trio e ", "4694": "scia a ", "4695": "pre a\u2019 ", "4696": "pi\u00e9 \u2019l ", "4697": "chi al ", "4698": "tre un ", "4699": "gio ad ", "4700": "fia il ", "4701": "gne al ", "4702": "stro i ", "4703": "sto io ", "4704": "ne e i ", "4705": "sti in ", "4706": "rio il ", "4707": "gio il ", "4708": "gia or ", "4709": "tro ad ", "4710": "gio al ", "4711": "nia il ", "4712": "ti e \u2019 ", "4713": "ghi al ", "4714": "se\u2019 in ", "4715": "gi\u00f9 \u2019l ", "4716": "zio al ", "4717": "zia in ", "4718": "gio in ", "4719": "gna in ", "4720": "cia al ", "4721": "gro un ", "4722": "stra e ", "4723": "so\u2019 \u2019n ", "4724": "tro in ", "4725": "gli un ", "4726": "gia il ", "4727": "sto in ", "4728": "tro ha ", "4729": "pria o ", "4730": "sche o ", "4731": "po e \u2019 ", "4732": "sto al ", "4733": "ghiaio ", "4734": "gno ed ", "4735": "cea il ", "4736": "gno ha ", "4737": "pre in ", "4738": "tro io ", "4739": "ch\u00e9 il ", "4740": "d\u2019 uom ", "4741": "schiar ", "4742": "ci e \u2019l ", "4743": "lio e i ", "4744": "m\u2019 \u00e8 il ", "4745": "to o al ", "4746": "glio ai ", "4747": "chio al ", "4748": "che e \u2019 ", "4749": "go e \u2019l ", "4750": "glie in ", "4751": "ta e \u2019n ", "4752": "stro il ", "4753": "ne e \u2019l ", "4754": "va e \u2019n ", "4755": "to e \u2019l ", "4756": "la e \u2019l ", "4757": "va e \u2019l ", "4758": "bre e \u2019 ", "4759": "lo \u00e8 in ", "4760": "ce e \u2019l ", "4761": "glia al ", "4762": "za e \u2019l ", "4763": "stra il ", "4764": "gne uom ", "4765": "l\u2019 \u00e8 \u2019l ", "4766": "no e \u2019l ", "4767": "si e \u2019l ", "4768": "dia e i ", "4769": "ga e \u2019l ", "4770": "glio in ", "4771": "to \u00e8 \u2019l ", "4772": "tra e \u2019 ", "4773": "stra \u2019l ", "4774": "chio ha ", "4775": "ch\u2019 uom ", "4776": "me e \u2019l ", "4777": "mi e \u2019l ", "4778": "m\u2019 \u00e8 \u2019l ", "4779": "stro or ", "4780": "stia ad ", "4781": "de e \u2019n ", "4782": "glia il ", "4783": "ra e \u2019l ", "4784": "te e \u2019l ", "4785": "me e \u2019n ", "4786": "ca e \u2019l ", "4787": "go \u00e8 in ", "4788": "ta e \u2019l ", "4789": "ma e \u2019l ", "4790": "po e \u2019l ", "4791": "co e \u2019l ", "4792": "ro e \u2019l ", "4793": "so e \u2019l ", "4794": "glio or ", "4795": "le e \u2019l ", "4796": "se e \u2019l ", "4797": "zo e \u2019l ", "4798": "chio il ", "4799": "chio in ", "4800": "v\u2019 \u00e8 \u2019l ", "4801": "vo e \u2019l ", "4802": "dre e \u2019 ", "4803": "re e \u2019l ", "4804": "glia in ", "4805": "bo e \u2019l ", "4806": "do e \u2019n ", "4807": "ti e \u2019l ", "4808": "stri in ", "4809": "na e \u2019l ", "4810": "scia il ", "4811": "chia al ", "4812": "glie \u2019l ", "4813": "mo e \u2019l ", "4814": "schia e ", "4815": "glia un ", "4816": "sci\u00f2 il ", "4817": "schio e ", "4818": "de e \u2019l ", "4819": "stro ed ", "4820": "be e \u2019l ", "4821": "sa e \u2019l ", "4822": "stro in ", "4823": "cia e \u2019l ", "4824": "bra e \u2019l ", "4825": "tre e \u2019l ", "4826": "so ha \u2019l ", "4827": "tra e \u2019l ", "4828": "s\u2019 i\u2019 \u2019l ", "4829": "pra e \u2019l ", "4830": "te ha in ", "4831": "sta e \u2019l ", "4832": "gio e \u2019l ", "4833": "dre e \u2019l ", "4834": "chi e \u2019l ", "4835": "v\u2019 ha \u2019l ", "4836": "schi uom ", "4837": "c\u2019 ha \u2019l ", "4838": "zio e \u2019l ", "4839": "sti \u00e8 \u2019l ", "4840": "d\u2019 io \u2019l ", "4841": "zie e \u2019l ", "4842": "st\u2019 \u00e8 \u2019l ", "4843": "ria e \u2019l ", "4844": "to ha \u2019l ", "4845": "ria \u00e8 \u2019l ", "4846": "dio e \u2019l ", "4847": "bia e \u2019l ", "4848": "tr\u2019 \u00e8 \u2019l ", "4849": "chie e \u2019n ", "4850": "chio o \u2019l ", "4851": "chio e \u2019l ", "4852": "ch\u2019 i\u2019 \u2019l ", "4853": "glio e \u2019l ", "4854": "stro e \u2019l ", "4855": "scia e \u2019l ", "4856": "ch\u2019 io \u2019l "}