{"0": "", "1": "<v>", "2": "</v>", "3": "<t>", "4": "</t>", "5": "\u00f2", "6": "a", "7": "\u00e8", "8": "i", "9": "\u00ef", "10": "\u00e9", "11": "\u00fc", "12": "e", "13": "u", "14": "o", "15": "da", "16": "ge", "17": "tu", "18": "oc", "19": "t\u00ec", "20": "on", "21": "v\u00ef", "22": "ta", "23": "b\u00eb", "24": "uo", "25": "ab", "26": "es", "27": "ti", "28": "f\u00ef", "29": "d\u00ef", "30": "bi", "31": "ob", "32": "l\u00f6", "33": "l\u00ec", "34": "s\u00e0", "35": "lu", "36": "pu", "37": "la", "38": "va", "39": "s\u00ef", "40": "is", "41": "ia", "42": "bo", "43": "ap", "44": "be", "45": "il", "46": "m\u00ef", "47": "un", "48": "ro", "49": "ol", "50": "n\u00fc", "51": "ef", "52": "fi", "53": "al", "54": "do", "55": "im", "56": "no", "57": "p\u00fc", "58": "og", "59": "t\u00e4", "60": "gi", "61": "ri", "62": "ac", "63": "l\u00e8", "64": "em", "65": "sa", "66": "ie", "67": "t\u00e8", "68": "mo", "69": "io", "70": "ce", "71": "se", "72": "ci", "73": "mi", "74": "d\u00e9", "75": "fe", "76": "ca", "77": "ad", "78": "et", "79": "so", "80": "ze", "81": "ur", "82": "n\u00eb", "83": "\u00f2s", "84": "in", "85": "ne", "86": "m\u00e8", "87": "s\u00f2", "88": "c\u00f9", "89": "iu", "90": "ot", "91": "p\u00f2", "92": "le", "93": "re", "94": "t\u00ef", "95": "p\u00ec", "96": "en", "97": "er", "98": "ra", "99": "n\u00f2", "100": "f\u00f3", "101": "d\u00eb", "102": "du", "103": "s\u00fc", "104": "vi", "105": "zo", "106": "go", "107": "p\u00ef", "108": "v\u00eb", "109": "c\u00ef", "110": "po", "111": "s\u00eb", "112": "l\u00eb", "113": "lo", "114": "vo", "115": "id", "116": "de", "117": "an", "118": "at", "119": "d\u00fc", "120": "co", "121": "t\u00f2", "122": "uc", "123": "l\u00f2", "124": "xi", "125": "si", "126": "ni", "127": "v\u00e9", "128": "s\u00f9", "129": "ru", "130": "ga", "131": "eb", "132": "c\u00eb", "133": "l\u00ef", "134": "to", "135": "\u00e8n", "136": "ha", "137": "g\u00fc", "138": "av", "139": "mu", "140": "pi", "141": "vu", "142": "ba", "143": "r\u00e0", "144": "l\u00e0", "145": "g\u00f3", "146": "cu", "147": "f\u00eb", "148": "t\u00fc", "149": "su", "150": "of", "151": "m\u00ec", "152": "b\u00ef", "153": "ae", "154": "ir", "155": "as", "156": "ag", "157": "s\u00e9", "158": "om", "159": "pa", "160": "ov", "161": "nu", "162": "ma", "163": "di", "164": "au", "165": "zi", "166": "ex", "167": "fa", "168": "v\u00e8", "169": "pe", "170": "li", "171": "me", "172": "p\u00eb", "173": "op", "174": "g\u00ef", "175": "v\u00f2", "176": "na", "177": "m\u00eb", "178": "ve", "179": "ul", "180": "c\u00fc", "181": "n\u00e8", "182": "el", "183": "g\u00eb", "184": "ar", "185": "fo", "186": "f\u00e9", "187": "v\u00e4", "188": "or", "189": "am", "190": "n\u00ef", "191": "ec", "192": "ho", "193": "fu", "194": "r\u00ef", "195": "r\u00e8", "196": "z\u00ef", "197": "m\u00e4", "198": "za", "199": "az", "200": "r\u00eb", "201": "r\u00f3", "202": "\u00e8v", "203": "l\u00fc", "204": "t\u00eb", "205": "g\u00e8", "206": "bu", "207": "af", "208": "eu", "209": "gu", "210": "os", "211": "c\u00ec", "212": "te", "213": "p\u00e8", "214": "zia", "215": "sr\u00e4", "216": "o a", "217": "lez", "218": "vid", "219": "ren", "220": "mia", "221": "svo", "222": "sde", "223": "tat", "224": "tic", "225": "dio", "226": "mes", "227": "pub", "228": "qui", "229": "das", "230": "rog", "231": "dos", "232": "dil", "233": "zon", "234": "mat", "235": "bal", "236": "nob", "237": "fas", "238": "gaz", "239": "pic", "240": "puc", "241": "cez", "242": "dug", "243": "nin", "244": "nan", "245": "sor", "246": "fos", "247": "gan", "248": "pau", "249": "put", "250": "pre", "251": "ruc", "252": "ple", "253": "\u2018ne", "254": "t\u00f2r", "255": "vul", "256": "den", "257": "nig", "258": "bro", "259": "san", "260": "som", "261": "tru", "262": "sac", "263": "ch\u00ec", "264": "dul", "265": "nia", "266": "tez", "267": "gli", "268": "toc", "269": "pro", "270": "m\u00e9z", "271": "sfo", "272": "nes", "273": "pli", "274": "ges", "275": "t\u00f2m", "276": "cap", "277": "bil", "278": "duo", "279": "dea", "280": "gel", "281": "tos", "282": "nor", "283": "fan", "284": "bri", "285": "lun", "286": "gom", "287": "son", "288": "lip", "289": "cre", "290": "tad", "291": "ruf", "292": "sov", "293": "a u", "294": "sam", "295": "tau", "296": "lut", "297": "gea", "298": "clo", "299": "sc\u00ef", "300": "sie", "301": "dia", "302": "iep", "303": "cor", "304": "nec", "305": "tin", "306": "mas", "307": "p\u00e0r", "308": "svi", "309": "pen", "310": "dat", "311": "von", "312": "vec", "313": "gna", "314": "cot", "315": "dal", "316": "feb", "317": "sap", "318": "mol", "319": "sve", "320": "a a", "321": "neb", "322": "guc", "323": "gio", "324": "chi", "325": "fro", "326": "mem", "327": "tem", "328": "sab", "329": "gue", "330": "fra", "331": "f\u00e9l", "332": "lic", "333": "vuo", "334": "pop", "335": "neg", "336": "rab", "337": "dau", "338": "sti", "339": "ghe", "340": "zio", "341": "cov", "342": "rim", "343": "m\u00e8c", "344": "tim", "345": "pie", "346": "rup", "347": "nev", "348": "pan", "349": "deg", "350": "des", "351": "gon", "352": "guz", "353": "bom", "354": "sug", "355": "cad", "356": "zuc", "357": "ton", "358": "cla", "359": "luo", "360": "r\u00e8g", "361": "pel", "362": "cis", "363": "soc", "364": "goz", "365": "gas", "366": "bar", "367": "sog", "368": "fit", "369": "nuo", "370": "reg", "371": "rob", "372": "fen", "373": "mac", "374": "ghi", "375": "lur", "376": "sob", "377": "o u", "378": "dis", "379": "cul", "380": "v\u00f2l", "381": "dim", "382": "gib", "383": "die", "384": "lop", "385": "dot", "386": "ria", "387": "dic", "388": "gem", "389": "iar", "390": "ram", "391": "gie", "392": "lon", "393": "rem", "394": "ger", "395": "cio", "396": "rav", "397": "gob", "398": "tom", "399": "vez", "400": "sat", "401": "bet", "402": "fal", "403": "fab", "404": "sia", "405": "sno", "406": "nem", "407": "buf", "408": "ves", "409": "fie", "410": "ber", "411": "lup", "412": "nef", "413": "mez", "414": "dut", "415": "col", "416": "rom", "417": "e a", "418": "dif", "419": "tea", "420": "det", "421": "pia", "422": "zur", "423": "gad", "424": "cle", "425": "val", "426": "ril", "427": "fon", "428": "sba", "429": "dec", "430": "nom", "431": "leb", "432": "hon", "433": "rea", "434": "soz", "435": "cia", "436": "nul", "437": "dei", "438": "bli", "439": "cat", "440": "dem", "441": "sv\u00ef", "442": "dun", "443": "rac", "444": "fur", "445": "pai", "446": "muf", "447": "rat", "448": "gis", "449": "dro", "450": "nel", "451": "coz", "452": "sgo", "453": "rio", "454": "lai", "455": "fom", "456": "fel", "457": "sla", "458": "piz", "459": "mul", "460": "cru", "461": "sce", "462": "poz", "463": "tan", "464": "ruo", "465": "bru", "466": "zar", "467": "net", "468": "buc", "469": "not", "470": "gnu", "471": "red", "472": "fib", "473": "bun", "474": "nic", "475": "bre", "476": "st\u00ef", "477": "zuf", "478": "ven", "479": "laz", "480": "bab", "481": "dom", "482": "vet", "483": "sto", "484": "rol", "485": "pur", "486": "tro", "487": "lem", "488": "stu", "489": "nis", "490": "gim", "491": "tec", "492": "vom", "493": "gur", "494": "tac", "495": "nal", "496": "voi", "497": "guo", "498": "tet", "499": "glo", "500": "nat", "501": "smi", "502": "lie", "503": "pis", "504": "vil", "505": "nir", "506": "pri", "507": "cal", "508": "ral", "509": "dit", "510": "cau", "511": "per", "512": "tut", "513": "fam", "514": "sfe", "515": "tur", "516": "tor", "517": "sag", "518": "nim", "519": "dur", "520": "tr\u00ef", "521": "sup", "522": "pin", "523": "smo", "524": "ros", "525": "tie", "526": "cum", "527": "pit", "528": "bef", "529": "feg", "530": "gir", "531": "sot", "532": "qu\u00ef", "533": "sec", "534": "lec", "535": "leg", "536": "fet", "537": "gru", "538": "boc", "539": "paz", "540": "ste", "541": "sit", "542": "far", "543": "tar", "544": "fum", "545": "zaf", "546": "p\u00f2s", "547": "spu", "548": "nie", "549": "tho", "550": "rec", "551": "spa", "552": "veg", "553": "sis", "554": "riz", "555": "fla", "556": "tra", "557": "pl\u00ec", "558": "noc", "559": "gag", "560": "lor", "561": "muo", "562": "mie", "563": "pla", "564": "nio", "565": "ser", "566": "car", "567": "gui", "568": "ian", "569": "cas", "570": "bia", "571": "gal", "572": "cem", "573": "plu", "574": "fun", "575": "puz", "576": "cef", "577": "rie", "578": "cri", "579": "nar", "580": "coc", "581": "dr\u00ef", "582": "rid", "583": "rig", "584": "lus", "585": "niz", "586": "pos", "587": "fer", "588": "fiu", "589": "res", "590": "sal", "591": "ior", "592": "mor", "593": "rin", "594": "poc", "595": "ter", "596": "let", "597": "gni", "598": "cra", "599": "lab", "600": "set", "601": "sem", "602": "lat", "603": "cer", "604": "peg", "605": "tis", "606": "vir", "607": "fog", "608": "giu", "609": "bon", "610": "rag", "611": "cel", "612": "qua", "613": "flu", "614": "dar", "615": "lan", "616": "spi", "617": "sra", "618": "cep", "619": "lac", "620": "git", "621": "sen", "622": "cuo", "623": "bug", "624": "mic", "625": "saf", "626": "vag", "627": "fuo", "628": "vol", "629": "sur", "630": "tal", "631": "bol", "632": "tel", "633": "pra", "634": "cet", "635": "bas", "636": "ron", "637": "ces", "638": "dam", "639": "pom", "640": "spo", "641": "tuo", "642": "fle", "643": "gar", "644": "fau", "645": "moz", "646": "del", "647": "got", "648": "smu", "649": "mar", "650": "loc", "651": "meg", "652": "sna", "653": "raf", "654": "luz", "655": "dir", "656": "cl\u00ef", "657": "lit", "658": "plo", "659": "tun", "660": "vem", "661": "pru", "662": "fis", "663": "nen", "664": "gor", "665": "bin", "666": "lea", "667": "nur", "668": "reb", "669": "rut", "670": "mal", "671": "quo", "672": "sta", "673": "nol", "674": "seg", "675": "nac", "676": "lis", "677": "sga", "678": "pul", "679": "lot", "680": "par", "681": "sun", "682": "lul", "683": "gam", "684": "c\u00e9r", "685": "fia", "686": "sle", "687": "pal", "688": "fuc", "689": "sod", "690": "rap", "691": "sic", "692": "roc", "693": "pas", "694": "fol", "695": "lep", "696": "met", "697": "gen", "698": "piu", "699": "lil", "700": "tes", "701": "sub", "702": "fin", "703": "mel", "704": "pio", "705": "fes", "706": "ahi", "707": "vin", "708": "mon", "709": "van", "710": "pir", "711": "tuf", "712": "pog", "713": "tir", "714": "fio", "715": "diz", "716": "pac", "717": "sol", "718": "pet", "719": "ris", "720": "gua", "721": "ler", "722": "dri", "723": "com", "724": "ch\u00ef", "725": "zac", "726": "suf", "727": "top", "728": "por", "729": "sum", "730": "der", "731": "f\u00e0c", "732": "sep", "733": "tag", "734": "vas", "735": "sus", "736": "rir", "737": "pi\u00e9", "738": "dru", "739": "las", "740": "sma", "741": "tol", "742": "fac", "743": "\u2018be", "744": "bea", "745": "ner", "746": "pec", "747": "run", "748": "geo", "749": "sp\u00ef", "750": "fat", "751": "lim", "752": "luc", "753": "men", "754": "lom", "755": "vat", "756": "mun", "757": "bl\u00ef", "758": "tas", "759": "cop", "760": "pil", "761": "zan", "762": "pap", "763": "giz", "764": "gil", "765": "sfa", "766": "bat", "767": "mir", "768": "lir", "769": "dra", "770": "vam", "771": "dre", "772": "maz", "773": "sev", "774": "fic", "775": "sof", "776": "nuc", "777": "cen", "778": "lia", "779": "ver", "780": "han", "781": "sin", "782": "get", "783": "ran", "784": "tre", "785": "nas", "786": "ciu", "787": "bec", "788": "raz", "789": "bui", "790": "biz", "791": "sos", "792": "tuc", "793": "muc", "794": "spe", "795": "gab", "796": "pes", "797": "lar", "798": "rit", "799": "for", "800": "pon", "801": "gne", "802": "caf", "803": "suc", "804": "\u2018la", "805": "sio", "806": "c\u00f3l", "807": "vit", "808": "min", "809": "cir", "810": "gre", "811": "iat", "812": "bul", "813": "nun", "814": "lap", "815": "tri", "816": "mam", "817": "zel", "818": "sau", "819": "ful", "820": "rel", "821": "sca", "822": "mil", "823": "nez", "824": "roz", "825": "dez", "826": "ban", "827": "sci", "828": "cob", "829": "lel", "830": "non", "831": "fre", "832": "dop", "833": "lau", "834": "vac", "835": "br\u00ef", "836": "les", "837": "fig", "838": "cac", "839": "ric", "840": "fem", "841": "goc", "842": "xil", "843": "cli", "844": "doc", "845": "rar", "846": "nil", "847": "mos", "848": "rug", "849": "scu", "850": "gol", "851": "dob", "852": "bie", "853": "puo", "854": "sel", "855": "vel", "856": "jau", "857": "cic", "858": "rof", "859": "mur", "860": "pun", "861": "dov", "862": "con", "863": "pot", "864": "lui", "865": "gat", "866": "sbi", "867": "dor", "868": "noz", "869": "ras", "870": "mot", "871": "bor", "872": "cea", "873": "sez", "874": "mer", "875": "sop", "876": "gno", "877": "que", "878": "cuc", "879": "len", "880": "che", "881": "bac", "882": "sas", "883": "lin", "884": "cro", "885": "din", "886": "rot", "887": "cie", "888": "cil", "889": "sme", "890": "can", "891": "nag", "892": "gra", "893": "don", "894": "sar", "895": "viz", "896": "cui", "897": "suo", "898": "vis", "899": "cag", "900": "clu", "901": "nai", "902": "vor", "903": "dus", "904": "lav", "905": "man", "906": "pat", "907": "gia", "908": "til", "909": "mag", "910": "var", "911": "fri", "912": "sud", "913": "gri", "914": "teg", "915": "cur", "916": "bra", "917": "mug", "918": "sco", "919": "bev", "920": "cin", "921": "lam", "922": "sil", "923": "fru", "924": "ier", "925": "gau", "926": "ses", "927": "tle", "928": "deb", "929": "cit", "930": "dub", "931": "boz", "932": "cam", "933": "dr\u00e4", "934": "fug", "935": "pol", "936": "o e", "937": "rez", "938": "cos", "939": "buo", "940": "ben", "941": "bio", "942": "cr\u00e0", "943": "bai", "944": "tam", "945": "dan", "946": "cun", "947": "pig", "948": "ten", "949": "mai", "950": "ret", "951": "bot", "952": "dol", "953": "vie", "954": "bur", "955": "bis", "956": "but", "957": "bel", "958": "d\u2019 \u00ef", "959": "si a", "960": "ce a", "961": "scaz", "962": "spro", "963": "gien", "964": "grep", "965": "cras", "966": "ghel", "967": "s\u2019 u", "968": "ra u", "969": "stuc", "970": "na a", "971": "vuol", "972": "dian", "973": "mo e", "974": "dier", "975": "d\u2019 o", "976": "giot", "977": "to i", "978": "o av", "979": "me a", "980": "gnuo", "981": "ta e", "982": "gheg", "983": "guar", "984": "ci e", "985": "t\u2019 a", "986": "glau", "987": "l\u2019 e", "988": "se o", "989": "brul", "990": "d\u2019 e", "991": "sa u", "992": "blan", "993": "sche", "994": "di a", "995": "pron", "996": "svel", "997": "piag", "998": "guan", "999": "quil", "1000": "le i", "1001": "spen", "1002": "spec", "1003": "sa o", "1004": "pe e", "1005": "trai", "1006": "to u", "1007": "se e", "1008": "treb", "1009": "se a", "1010": "spic", "1011": "a am", "1012": "e in", "1013": "scen", "1014": "sa e", "1015": "le o", "1016": "tras", "1017": "smon", "1018": "la a", "1019": "scro", "1020": "ta u", "1021": "scel", "1022": "str\u00e0", "1023": "li o", "1024": "ghie", "1025": "piac", "1026": "egyp", "1027": "z\u2019 a", "1028": "scon", "1029": "ge o", "1030": "fiot", "1031": "t\u2019 o", "1032": "quar", "1033": "s\u2019 i", "1034": "sfan", "1035": "cien", "1036": "li a", "1037": "stil", "1038": "giar", "1039": "to e", "1040": "no a", "1041": "plan", "1042": "sfin", "1043": "stul", "1044": "go a", "1045": "ze o", "1046": "clis", "1047": "nian", "1048": "gnar", "1049": "zi u", "1050": "gnen", "1051": "mo i", "1052": "vi a", "1053": "ziar", "1054": "gnon", "1055": "sden", "1056": "spes", "1057": "fles", "1058": "s\u00ec a", "1059": "ra a", "1060": "\u00e8 im", "1061": "giug", "1062": "tror", "1063": "gran", "1064": "buon", "1065": "te a", "1066": "ghez", "1067": "bo i", "1068": "ve a", "1069": "gnor", "1070": "schi", "1071": "dien", "1072": "scem", "1073": "chie", "1074": "po a", "1075": "guil", "1076": "sban", "1077": "spit", "1078": "be u", "1079": "so u", "1080": "pa e", "1081": "ci o", "1082": "be e", "1083": "si e", "1084": "r\u2019 u", "1085": "scan", "1086": "puos", "1087": "dras", "1088": "vien", "1089": "ie a", "1090": "sfio", "1091": "co u", "1092": "stri", "1093": "o al", "1094": "scal", "1095": "ti i", "1096": "sver", "1097": "sfar", "1098": "grez", "1099": "tran", "1100": "pres", "1101": "spet", "1102": "gian", "1103": "flet", "1104": "sfac", "1105": "ma a", "1106": "ga o", "1107": "ma o", "1108": "piog", "1109": "qual", "1110": "gnaz", "1111": "biac", "1112": "ni u", "1113": "be i", "1114": "so e", "1115": "chiu", "1116": "bron", "1117": "\u2019vun", "1118": "guer", "1119": "cion", "1120": "se i", "1121": "\u00e8 in", "1122": "trie", "1123": "scuo", "1124": "me i", "1125": "si i", "1126": "l\u00ec a", "1127": "brug", "1128": "stas", "1129": "na o", "1130": "grop", "1131": "so o", "1132": "quen", "1133": "lo a", "1134": "ciom", "1135": "mi o", "1136": "fred", "1137": "l\u2019 o", "1138": "de e", "1139": "spal", "1140": "viem", "1141": "trec", "1142": "dram", "1143": "ni o", "1144": "scin", "1145": "puom", "1146": "chet", "1147": "spir", "1148": "vo o", "1149": "be o", "1150": "stec", "1151": "spel", "1152": "stol", "1153": "prin", "1154": "z\u2019 i", "1155": "puol", "1156": "va i", "1157": "mo u", "1158": "cher", "1159": "scim", "1160": "fian", "1161": "piom", "1162": "ve i", "1163": "la u", "1164": "ti o", "1165": "truo", "1166": "fran", "1167": "glio", "1168": "re o", "1169": "ra i", "1170": "d\u2019 a", "1171": "no e", "1172": "giac", "1173": "s\u2019 \u00ef", "1174": "smor", "1175": "guaz", "1176": "ti e", "1177": "creb", "1178": "stro", "1179": "squa", "1180": "bris", "1181": "gnie", "1182": "stet", "1183": "do u", "1184": "no o", "1185": "re a", "1186": "piez", "1187": "gias", "1188": "c\u2019 e", "1189": "biet", "1190": "sdeg", "1191": "ta a", "1192": "de o", "1193": "clug", "1194": "gnas", "1195": "p\u2019 e", "1196": "zo e", "1197": "mo a", "1198": "va o", "1199": "d\u2019 \u00eb", "1200": "r\u00ec u", "1201": "ni e", "1202": "crol", "1203": "ce o", "1204": "ve u", "1205": "da a", "1206": "stem", "1207": "l\u2019 u", "1208": "t\u2019 e", "1209": "s\u2019 o", "1210": "scic", "1211": "guag", "1212": "bo a", "1213": "a in", "1214": "flit", "1215": "guic", "1216": "sgom", "1217": "stiz", "1218": "pian", "1219": "ze e", "1220": "n\u2019 o", "1221": "scie", "1222": "giuo", "1223": "sten", "1224": "scac", "1225": "v\u2019 o", "1226": "gras", "1227": "chis", "1228": "guiz", "1229": "fioc", "1230": "me u", "1231": "sven", "1232": "sman", "1233": "stop", "1234": "sgor", "1235": "za a", "1236": "piov", "1237": "ma u", "1238": "sber", "1239": "plau", "1240": "fior", "1241": "r\u2019 o", "1242": "scis", "1243": "na e", "1244": "prie", "1245": "ciul", "1246": "zo a", "1247": "giun", "1248": "trop", "1249": "te u", "1250": "quat", "1251": "grem", "1252": "mi u", "1253": "a es", "1254": "gner", "1255": "ta o", "1256": "pran", "1257": "drap", "1258": "grie", "1259": "va a", "1260": "clau", "1261": "s\u2019 e", "1262": "te e", "1263": "ti a", "1264": "da o", "1265": "spre", "1266": "stru", "1267": "spol", "1268": "so i", "1269": "glia", "1270": "si o", "1271": "tram", "1272": "la o", "1273": "scet", "1274": "broc", "1275": "li u", "1276": "gram", "1277": "proc", "1278": "sneb", "1279": "me e", "1280": "sbar", "1281": "na u", "1282": "e ar", "1283": "scom", "1284": "tren", "1285": "clas", "1286": "co o", "1287": "ne a", "1288": "brut", "1289": "ciap", "1290": "s\u00ec i", "1291": "n\u2019 e", "1292": "scer", "1293": "ri e", "1294": "spia", "1295": "guir", "1296": "lo u", "1297": "gros", "1298": "scot", "1299": "tien", "1300": "ciuf", "1301": "sdet", "1302": "te o", "1303": "re u", "1304": "te i", "1305": "guef", "1306": "sfre", "1307": "ciuo", "1308": "za o", "1309": "sanc", "1310": "di o", "1311": "spun", "1312": "stra", "1313": "sgan", "1314": "stam", "1315": "la e", "1316": "to o", "1317": "sgri", "1318": "sbra", "1319": "ri u", "1320": "grap", "1321": "gual", "1322": "gnan", "1323": "trap", "1324": "mi e", "1325": "m\u2019 e", "1326": "pi i", "1327": "ga e", "1328": "po e", "1329": "m\u2019 o", "1330": "chez", "1331": "bian", "1332": "pros", "1333": "quel", "1334": "scri", "1335": "de i", "1336": "ti u", "1337": "stes", "1338": "drit", "1339": "t\u2019 u", "1340": "scev", "1341": "ni a", "1342": "chia", "1343": "so a", "1344": "gron", "1345": "ne e", "1346": "ma e", "1347": "quer", "1348": "bran", "1349": "re e", "1350": "sper", "1351": "ne o", "1352": "stis", "1353": "e \u2019n", "1354": "li \u2019", "1355": "ghil", "1356": "greg", "1357": "sgra", "1358": "z\u2019 o", "1359": "ciot", "1360": "ro u", "1361": "guel", "1362": "scop", "1363": "spon", "1364": "zi e", "1365": "trag", "1366": "po o", "1367": "va u", "1368": "dran", "1369": "pa u", "1370": "za u", "1371": "glie", "1372": "ca o", "1373": "snel", "1374": "ster", "1375": "ce u", "1376": "scir", "1377": "brol", "1378": "squi", "1379": "driz", "1380": "le a", "1381": "co a", "1382": "ro a", "1383": "gnel", "1384": "bion", "1385": "quan", "1386": "gher", "1387": "ra o", "1388": "de a", "1389": "di i", "1390": "pris", "1391": "brac", "1392": "la i", "1393": "prir", "1394": "chil", "1395": "cruc", "1396": "pi e", "1397": "brie", "1398": "stig", "1399": "cian", "1400": "stav", "1401": "guet", "1402": "spez", "1403": "trul", "1404": "stal", "1405": "vi o", "1406": "gi e", "1407": "ghes", "1408": "fiac", "1409": "no i", "1410": "scre", "1411": "smen", "1412": "liev", "1413": "to a", "1414": "scoc", "1415": "pien", "1416": "m\u2019 i", "1417": "tret", "1418": "graf", "1419": "frat", "1420": "dhae", "1421": "ce e", "1422": "ne u", "1423": "ci u", "1424": "sbri", "1425": "ghia", "1426": "star", "1427": "gior", "1428": "a ac", "1429": "stin", "1430": "ciar", "1431": "scar", "1432": "re i", "1433": "sfam", "1434": "scia", "1435": "trar", "1436": "se u", "1437": "a ef", "1438": "ro i", "1439": "stel", "1440": "gial", "1441": "lo e", "1442": "ghet", "1443": "a al", "1444": "slac", "1445": "trom", "1446": "sfor", "1447": "po u", "1448": "crea", "1449": "pe i", "1450": "spaz", "1451": "trot", "1452": "pren", "1453": "glet", "1454": "ciel", "1455": "dies", "1456": "grot", "1457": "zian", "1458": "l\u2019 \u00f2", "1459": "scor", "1460": "fiam", "1461": "scam", "1462": "li e", "1463": "frut", "1464": "do o", "1465": "scov", "1466": "sciu", "1467": "lo o", "1468": "ples", "1469": "ciac", "1470": "prez", "1471": "spie", "1472": "cric", "1473": "tiem", "1474": "cheg", "1475": "l\u2019 a", "1476": "quin", "1477": "gnem", "1478": "l\u00ec e", "1479": "sfer", "1480": "do a", "1481": "gres", "1482": "quis", "1483": "pi a", "1484": "fron", "1485": "v\u2019 e", "1486": "sa a", "1487": "pruo", "1488": "brot", "1489": "brez", "1490": "n\u2019 a", "1491": "guit", "1492": "ta i", "1493": "piat", "1494": "pric", "1495": "do i", "1496": "bi a", "1497": "vi e", "1498": "stor", "1499": "ghio", "1500": "ca e", "1501": "smar", "1502": "d\u2019 i", "1503": "m\u2019 a", "1504": "tier", "1505": "bias", "1506": "ro o", "1507": "sdru", "1508": "da e", "1509": "ra e", "1510": "ge a", "1511": "smoz", "1512": "de u", "1513": "spor", "1514": "s\u2019 a", "1515": "go e", "1516": "no u", "1517": "do e", "1518": "g\u2019 \u00ef", "1519": "o ar", "1520": "sfat", "1521": "c\u2019 o", "1522": "scio", "1523": "l\u2019 i", "1524": "ca a", "1525": "scol", "1526": "ci a", "1527": "n\u2019 u", "1528": "flig", "1529": "ghir", "1530": "zi o", "1531": "troc", "1532": "grom", "1533": "na i", "1534": "be a", "1535": "d\u2019 u", "1536": "trat", "1537": "za i", "1538": "di e", "1539": "cias", "1540": "stan", "1541": "stie", "1542": "scuf", "1543": "le u", "1544": "da u", "1545": "\u2018glo", "1546": "bo e", "1547": "scab", "1548": "tron", "1549": "fret", "1550": "stia", "1551": "span", "1552": "spin", "1553": "smal", "1554": "stre", "1555": "ca u", "1556": "va e", "1557": "v\u2019 a", "1558": "le e", "1559": "pier", "1560": "mian", "1561": "se \u00eb", "1562": "di u", "1563": "mo o", "1564": "c\u2019 \u00ef", "1565": "chio", "1566": "spuo", "1567": "stuo", "1568": "stio", "1569": "bren", "1570": "cioc", "1571": "ro e", "1572": "guen", "1573": "trac", "1574": "gi u", "1575": "si u", "1576": "grat", "1577": "giam", "1578": "spar", "1579": "co e", "1580": "scos", "1581": "me o", "1582": "no av", "1583": "to es", "1584": "ti al", "1585": "va an", "1586": "me as", "1587": "na av", "1588": "to of", "1589": "de eu", "1590": "chian", "1591": "ma al", "1592": "ma of", "1593": "d\u2019 im", "1594": "ve es", "1595": "ve an", "1596": "ia an", "1597": "na in", "1598": "s\u2019 ap", "1599": "ta as", "1600": "l\u2019 er", "1601": "la ap", "1602": "ga an", "1603": "ve at", "1604": "m\u2019 ad", "1605": "ne im", "1606": "tri o", "1607": "stric", "1608": "va eb", "1609": "vo ac", "1610": "schie", "1611": "ma an", "1612": "di es", "1613": "strel", "1614": "te ap", "1615": "na ap", "1616": "di or", "1617": "se op", "1618": "n\u2019 at", "1619": "r\u2019 es", "1620": "strom", "1621": "mo ec", "1622": "d\u2019 en", "1623": "bre a", "1624": "ghien", "1625": "t\u2019 el", "1626": "v\u2019 ap", "1627": "do in", "1628": "ch\u2019 u", "1629": "ra ec", "1630": "r\u2019 al", "1631": "so as", "1632": "ro eb", "1633": "squar", "1634": "lo an", "1635": "mo im", "1636": "v\u2019 es", "1637": "mi ap", "1638": "l\u2019 ul", "1639": "strar", "1640": "za in", "1641": "vi en", "1642": "m\u2019 eb", "1643": "za am", "1644": "to as", "1645": "te is", "1646": "se ap", "1647": "no al", "1648": "do er", "1649": "to an", "1650": "lo at", "1651": "lo on", "1652": "d\u2019 el", "1653": "ri ar", "1654": "li ar", "1655": "te ol", "1656": "ti ad", "1657": "si el", "1658": "to al", "1659": "ro am", "1660": "mo ar", "1661": "sa ol", "1662": "si am", "1663": "qu\u2019 e", "1664": "s\u00ec \u2019n", "1665": "vi al", "1666": "so en", "1667": "l\u2019 ov", "1668": "lo eb", "1669": "ro at", "1670": "mo on", "1671": "re en", "1672": "ro al", "1673": "li un", "1674": "pie e", "1675": "pi or", "1676": "te ac", "1677": "tro e", "1678": "t\u2019 ab", "1679": "spraz", "1680": "scran", "1681": "spres", "1682": "di on", "1683": "v\u2019 eb", "1684": "re ot", "1685": "li er", "1686": "cio a", "1687": "se ac", "1688": "co av", "1689": "de ar", "1690": "ri on", "1691": "vi ac", "1692": "do ac", "1693": "ra ac", "1694": "na \u2019n", "1695": "spiac", "1696": "tu ha", "1697": "cia o", "1698": "si of", "1699": "co ap", "1700": "li an", "1701": "ra eb", "1702": "ni ap", "1703": "na eb", "1704": "gi an", "1705": "strug", "1706": "li \u2019m", "1707": "d\u2019 ar", "1708": "no ap", "1709": "gia e", "1710": "ne in", "1711": "do eb", "1712": "za im", "1713": "do ol", "1714": "le in", "1715": "se es", "1716": "te es", "1717": "bo on", "1718": "ve ap", "1719": "strac", "1720": "mi ad", "1721": "so \u2019n", "1722": "do al", "1723": "za er", "1724": "va in", "1725": "de af", "1726": "gne u", "1727": "me am", "1728": "le at", "1729": "no af", "1730": "lia a", "1731": "pa es", "1732": "de in", "1733": "me au", "1734": "na of", "1735": "sgher", "1736": "la or", "1737": "co ad", "1738": "m\u2019 im", "1739": "glies", "1740": "strat", "1741": "s\u2019 im", "1742": "s\u2019 os", "1743": "mo ac", "1744": "do es", "1745": "vi on", "1746": "mo af", "1747": "sciar", "1748": "ca an", "1749": "se af", "1750": "na at", "1751": "to et", "1752": "re ar", "1753": "di of", "1754": "li av", "1755": "to ad", "1756": "no ad", "1757": "ni en", "1758": "che u", "1759": "t\u2019 or", "1760": "do ar", "1761": "m\u2019 at", "1762": "ta in", "1763": "bo av", "1764": "li es", "1765": "ne es", "1766": "sco u", "1767": "lo ar", "1768": "d\u2019 eb", "1769": "ra ad", "1770": "zia o", "1771": "sa ac", "1772": "re at", "1773": "li al", "1774": "ra ap", "1775": "ti av", "1776": "sa on", "1777": "lo in", "1778": "splen", "1779": "scrit", "1780": "ta an", "1781": "s\u00ec in", "1782": "no es", "1783": "gli u", "1784": "ro au", "1785": "d\u2019 af", "1786": "to ag", "1787": "n\u2019 om", "1788": "no ec", "1789": "t\u2019 af", "1790": "la an", "1791": "ha \u2019n", "1792": "po ar", "1793": "me an", "1794": "ra el", "1795": "le ap", "1796": "ch\u2019 i", "1797": "d\u2019 as", "1798": "ca en", "1799": "gliel", "1800": "re em", "1801": "stroc", "1802": "l\u2019 ot", "1803": "chias", "1804": "ni an", "1805": "n\u2019 ar", "1806": "d\u2019 os", "1807": "no au", "1808": "ro ar", "1809": "mo ol", "1810": "tro o", "1811": "l\u2019 at", "1812": "na ar", "1813": "le av", "1814": "so eb", "1815": "ma es", "1816": "chiet", "1817": "b\u2019 es", "1818": "scioc", "1819": "tri e", "1820": "ca er", "1821": "chi a", "1822": "n\u2019 uo", "1823": "li eb", "1824": "la en", "1825": "ro av", "1826": "chiap", "1827": "me in", "1828": "ce as", "1829": "la in", "1830": "stram", "1831": "v\u2019 ab", "1832": "ti ar", "1833": "l\u2019 ec", "1834": "di in", "1835": "zo an", "1836": "di om", "1837": "no et", "1838": "me ac", "1839": "v\u2019 of", "1840": "me ap", "1841": "sfran", "1842": "scheg", "1843": "bo al", "1844": "sciol", "1845": "te in", "1846": "ci al", "1847": "l\u2019 um", "1848": "l\u2019 ae", "1849": "vi an", "1850": "vo an", "1851": "fo et", "1852": "l\u2019 an", "1853": "no ab", "1854": "na ab", "1855": "to in", "1856": "ti in", "1857": "sta u", "1858": "ne ac", "1859": "l\u2019 uc", "1860": "d\u2019 at", "1861": "li em", "1862": "di af", "1863": "no om", "1864": "pre e", "1865": "si og", "1866": "cia e", "1867": "de er", "1868": "d\u2019 ac", "1869": "to on", "1870": "m\u2019 ac", "1871": "re au", "1872": "ch\u2019 e", "1873": "ro of", "1874": "mi al", "1875": "ra et", "1876": "ni in", "1877": "l\u2019 ef", "1878": "l\u2019 ol", "1879": "ne ap", "1880": "sa og", "1881": "re av", "1882": "cio e", "1883": "te on", "1884": "v\u2019 ar", "1885": "so et", "1886": "ma ac", "1887": "s\u2019 as", "1888": "ro ap", "1889": "l\u2019 op", "1890": "n\u2019 am", "1891": "ra on", "1892": "strut", "1893": "di al", "1894": "si in", "1895": "sta e", "1896": "hi om", "1897": "ta am", "1898": "d\u2019 ap", "1899": "s\u2019 in", "1900": "le es", "1901": "ce au", "1902": "ci \u2019n", "1903": "ghiac", "1904": "si av", "1905": "pre a", "1906": "re ap", "1907": "chioc", "1908": "li uo", "1909": "ni al", "1910": "no at", "1911": "mi in", "1912": "ta ad", "1913": "mo of", "1914": "li ap", "1915": "d\u2019 es", "1916": "d\u2019 ab", "1917": "ce at", "1918": "li ag", "1919": "ce ar", "1920": "li as", "1921": "ghian", "1922": "ta op", "1923": "ra uc", "1924": "sti a", "1925": "ti et", "1926": "ze or", "1927": "de on", "1928": "s\u2019 em", "1929": "re ol", "1930": "tro i", "1931": "si ac", "1932": "va \u2019n", "1933": "gliet", "1934": "po an", "1935": "d\u2019 az", "1936": "\u2019v\u2019 e", "1937": "l\u00ec en", "1938": "lo \u2019m", "1939": "vo at", "1940": "li on", "1941": "so es", "1942": "glien", "1943": "l\u2019 au", "1944": "ro or", "1945": "s\u00ec \u2019m", "1946": "zie o", "1947": "s\u2019 of", "1948": "ste i", "1949": "l\u2019 et", "1950": "so am", "1951": "v\u2019 et", "1952": "l\u2019 in", "1953": "te er", "1954": "ni as", "1955": "de om", "1956": "ta eu", "1957": "mi am", "1958": "ce av", "1959": "gna a", "1960": "s\u2019 at", "1961": "sto o", "1962": "ta on", "1963": "ci in", "1964": "re es", "1965": "re in", "1966": "la \u2019n", "1967": "si en", "1968": "m\u2019 in", "1969": "la al", "1970": "s\u2019 ac", "1971": "te or", "1972": "se at", "1973": "ti or", "1974": "v\u2019 el", "1975": "z\u2019 es", "1976": "s\u2019 eb", "1977": "t\u2019 ar", "1978": "lo as", "1979": "te os", "1980": "l\u2019 es", "1981": "le or", "1982": "ti of", "1983": "vo as", "1984": "di az", "1985": "ri al", "1986": "gi ar", "1987": "ci ap", "1988": "co ar", "1989": "ma \u2019n", "1990": "ri ap", "1991": "ce an", "1992": "to eb", "1993": "ra as", "1994": "lo al", "1995": "rio a", "1996": "m\u2019 af", "1997": "scrip", "1998": "scris", "1999": "l\u2019 el", "2000": "fa az", "2001": "mo eb", "2002": "ne et", "2003": "ra al", "2004": "s\u2019 af", "2005": "v\u2019 er", "2006": "ia al", "2007": "l\u2019 oc", "2008": "so ab", "2009": "di ad", "2010": "z\u2019 ar", "2011": "n\u2019 eb", "2012": "le id", "2013": "tra e", "2014": "mo or", "2015": "l\u2019 ar", "2016": "sciam", "2017": "sta i", "2018": "le oc", "2019": "t\u2019 em", "2020": "be as", "2021": "me on", "2022": "po on", "2023": "do on", "2024": "va id", "2025": "ti \u2019n", "2026": "de am", "2027": "s\u2019 er", "2028": "ta ar", "2029": "po in", "2030": "n\u2019 au", "2031": "ga as", "2032": "di og", "2033": "no as", "2034": "za on", "2035": "squil", "2036": "t\u2019 av", "2037": "de \u2019n", "2038": "te ag", "2039": "so ar", "2040": "sciau", "2041": "scian", "2042": "tra a", "2043": "mo an", "2044": "chiar", "2045": "se on", "2046": "vi am", "2047": "zio a", "2048": "t\u2019 ac", "2049": "vo al", "2050": "be on", "2051": "streg", "2052": "ne \u2019m", "2053": "lo il", "2054": "ne ov", "2055": "v\u2019 in", "2056": "v\u2019 am", "2057": "ci at", "2058": "de an", "2059": "lo ac", "2060": "co in", "2061": "schiu", "2062": "ste a", "2063": "ro an", "2064": "te as", "2065": "to ab", "2066": "ca on", "2067": "mo al", "2068": "vi \u2019m", "2069": "co al", "2070": "m\u2019 ag", "2071": "te ar", "2072": "sciut", "2073": "m\u2019 om", "2074": "na ac", "2075": "fu el", "2076": "m\u2019 ar", "2077": "to ar", "2078": "t\u2019 im", "2079": "ta ab", "2080": "te \u2019n", "2081": "do im", "2082": "se an", "2083": "s\u2019 es", "2084": "ra am", "2085": "s\u2019 ar", "2086": "si \u2019m", "2087": "zo ar", "2088": "ra an", "2089": "l\u2019 am", "2090": "lo er", "2091": "ne ar", "2092": "bi al", "2093": "t\u2019 om", "2094": "de ag", "2095": "n\u2019 ab", "2096": "ve oc", "2097": "f\u00e9 in", "2098": "ci af", "2099": "li or", "2100": "re ac", "2101": "no an", "2102": "m\u2019 ap", "2103": "d\u2019 ol", "2104": "so al", "2105": "re et", "2106": "ta at", "2107": "l\u2019 em", "2108": "sta a", "2109": "d\u2019 an", "2110": "n\u2019 ac", "2111": "no or", "2112": "sa im", "2113": "de ac", "2114": "le ad", "2115": "d\u2019 al", "2116": "se in", "2117": "si an", "2118": "s\u2019 an", "2119": "m\u2019 es", "2120": "ti an", "2121": "l\u2019 en", "2122": "se \u2019n", "2123": "si im", "2124": "ti ac", "2125": "ne on", "2126": "d\u2019 oc", "2127": "zi ag", "2128": "re il", "2129": "re oc", "2130": "la \u2019m", "2131": "lo av", "2132": "to at", "2133": "ne av", "2134": "sgiun", "2135": "l\u2019 as", "2136": "st\u2019 u", "2137": "no in", "2138": "ta al", "2139": "ba un", "2140": "ce im", "2141": "la el", "2142": "qu\u2019 o", "2143": "tri a", "2144": "se al", "2145": "bra u", "2146": "ta im", "2147": "m\u2019 av", "2148": "ti oc", "2149": "l\u2019 om", "2150": "ma ap", "2151": "to ap", "2152": "mo es", "2153": "pra a", "2154": "d\u2019 am", "2155": "me ef", "2156": "l\u2019 ag", "2157": "ch\u2019 o", "2158": "ni es", "2159": "mo in", "2160": "sci\u00e0n", "2161": "mi ef", "2162": "to im", "2163": "n\u2019 al", "2164": "re im", "2165": "l\u2019 eb", "2166": "n\u2019 ap", "2167": "r\u2019 an", "2168": "tro u", "2169": "ni am", "2170": "ro ac", "2171": "lo ef", "2172": "li im", "2173": "to ef", "2174": "ci as", "2175": "n\u2019 av", "2176": "\u2019v\u2019 u", "2177": "ga in", "2178": "so on", "2179": "be al", "2180": "ce es", "2181": "to av", "2182": "li \u2019n", "2183": "t\u2019 as", "2184": "za et", "2185": "va im", "2186": "sto a", "2187": "scias", "2188": "do as", "2189": "ce in", "2190": "to ac", "2191": "te en", "2192": "di im", "2193": "t\u00e0 in", "2194": "do ec", "2195": "l\u2019 ap", "2196": "d\u2019 or", "2197": "me at", "2198": "co ac", "2199": "ba in", "2200": "co on", "2201": "mi ac", "2202": "cro a", "2203": "l\u2019 av", "2204": "ge et", "2205": "do am", "2206": "va al", "2207": "te ad", "2208": "do or", "2209": "be ar", "2210": "la es", "2211": "m\u2019 ab", "2212": "ra ot", "2213": "do el", "2214": "chi e", "2215": "ne as", "2216": "na on", "2217": "le of", "2218": "n\u2019 on", "2219": "sto e", "2220": "so ad", "2221": "sti o", "2222": "ta om", "2223": "ti at", "2224": "ve al", "2225": "te im", "2226": "ra in", "2227": "t\u2019 ag", "2228": "l\u2019 of", "2229": "ra ab", "2230": "tr\u2019 e", "2231": "da in", "2232": "ro es", "2233": "t\u2019 al", "2234": "sciom", "2235": "ce af", "2236": "d\u2019 au", "2237": "ri ac", "2238": "ch\u2019 a", "2239": "ve ar", "2240": "ta et", "2241": "\u2019ve o", "2242": "pi\u00f9 a", "2243": "l\u2019 ai", "2244": "n\u2019 ol", "2245": "vi of", "2246": "te af", "2247": "lo im", "2248": "cia a", "2249": "re eb", "2250": "me ar", "2251": "stras", "2252": "smo a", "2253": "ni on", "2254": "zi as", "2255": "bra a", "2256": "to or", "2257": "ra im", "2258": "so in", "2259": "se ec", "2260": "li ab", "2261": "si er", "2262": "re ad", "2263": "sa an", "2264": "si at", "2265": "ma on", "2266": "re ab", "2267": "li at", "2268": "schic", "2269": "no ac", "2270": "s\u2019 am", "2271": "vo au", "2272": "bra e", "2273": "ci av", "2274": "te of", "2275": "to oc", "2276": "le ar", "2277": "do ap", "2278": "ne an", "2279": "so ap", "2280": "stroz", "2281": "co at", "2282": "to ov", "2283": "cea u", "2284": "la av", "2285": "go al", "2286": "sguar", "2287": "t\u2019 es", "2288": "ch\u2019 \u00ef", "2289": "ro as", "2290": "ra of", "2291": "lo af", "2292": "sco o", "2293": "t\u2019 in", "2294": "li ul", "2295": "co et", "2296": "d\u2019 et", "2297": "d\u2019 er", "2298": "lo es", "2299": "di ac", "2300": "zo as", "2301": "l\u2019 ab", "2302": "pi ap", "2303": "sa in", "2304": "na af", "2305": "ce ac", "2306": "mi \u2019n", "2307": "no am", "2308": "pr\u2019 e", "2309": "le uc", "2310": "le \u2019n", "2311": "schem", "2312": "do oc", "2313": "tra i", "2314": "ra es", "2315": "te an", "2316": "tro a", "2317": "la of", "2318": "l\u2019 uo", "2319": "li au", "2320": "ta un", "2321": "li ac", "2322": "po al", "2323": "ci ad", "2324": "ti im", "2325": "l\u2019 on", "2326": "d\u2019 on", "2327": "m\u2019 al", "2328": "no er", "2329": "ce et", "2330": "to ec", "2331": "gne o", "2332": "lo of", "2333": "d\u2019 in", "2334": "ta ac", "2335": "vi as", "2336": "co er", "2337": "sta o", "2338": "sce a", "2339": "le as", "2340": "l\u2019 im", "2341": "s\u2019 op", "2342": "st\u2019 a", "2343": "te al", "2344": "sgrie", "2345": "ze et", "2346": "ne ag", "2347": "c\u2019 en", "2348": "me al", "2349": "ro on", "2350": "ra at", "2351": "de al", "2352": "s\u2019 ab", "2353": "ro in", "2354": "chi u", "2355": "le al", "2356": "so at", "2357": "que u", "2358": "do an", "2359": "ca in", "2360": "di ab", "2361": "te om", "2362": "no \u2019n", "2363": "so of", "2364": "l\u2019 \u00e0n", "2365": "gno u", "2366": "n\u2019 ag", "2367": "go in", "2368": "d\u2019 of", "2369": "stren", "2370": "vi ar", "2371": "d\u2019 eu", "2372": "re ag", "2373": "spran", "2374": "s\u2019 av", "2375": "dea u", "2376": "te em", "2377": "li am", "2378": "de ap", "2379": "s\u2019 et", "2380": "li om", "2381": "ne \u2019n", "2382": "pi in", "2383": "zio e", "2384": "ge in", "2385": "zo in", "2386": "ne af", "2387": "va at", "2388": "de as", "2389": "sa ap", "2390": "ri in", "2391": "te ab", "2392": "ro ab", "2393": "si ad", "2394": "do at", "2395": "ci am", "2396": "qua e", "2397": "ci an", "2398": "re an", "2399": "ci ar", "2400": "t\u2019 an", "2401": "ni av", "2402": "l\u2019 un", "2403": "gliar", "2404": "sbe a", "2405": "za al", "2406": "gliuo", "2407": "d\u2019 ur", "2408": "strin", "2409": "sa es", "2410": "n\u2019 an", "2411": "ze es", "2412": "dio i", "2413": "m\u2019 of", "2414": "ta of", "2415": "to uc", "2416": "le ol", "2417": "se as", "2418": "si ol", "2419": "zi at", "2420": "d\u2019 og", "2421": "re on", "2422": "no ag", "2423": "schet", "2424": "co an", "2425": "vi in", "2426": "r\u2019 el", "2427": "gne a", "2428": "na or", "2429": "que o", "2430": "so an", "2431": "li oc", "2432": "mi an", "2433": "m\u2019 as", "2434": "suo a", "2435": "do af", "2436": "la ol", "2437": "s\u2019 al", "2438": "st\u2019 o", "2439": "zi al", "2440": "re am", "2441": "t\u2019 at", "2442": "pa in", "2443": "di av", "2444": "se un", "2445": "d\u2019 ot", "2446": "l\u2019 af", "2447": "go es", "2448": "za an", "2449": "v\u2019 an", "2450": "co eb", "2451": "va ar", "2452": "che a", "2453": "l\u2019 or", "2454": "ti \u2019m", "2455": "si al", "2456": "ro im", "2457": "schio", "2458": "si as", "2459": "s\u2019 en", "2460": "te at", "2461": "scial", "2462": "na es", "2463": "d\u2019 om", "2464": "li ad", "2465": "n\u2019 er", "2466": "ti as", "2467": "gno a", "2468": "re as", "2469": "l\u2019 os", "2470": "ti am", "2471": "de or", "2472": "ma or", "2473": "me af", "2474": "re al", "2475": "ge un", "2476": "ghiot", "2477": "che e", "2478": "n\u2019 in", "2479": "li in", "2480": "fe et", "2481": "mi er", "2482": "fu ap", "2483": "be av", "2484": "s\u2019 ad", "2485": "zi \u2019m", "2486": "za \u2019n", "2487": "le \u2019m", "2488": "ta es", "2489": "di ol", "2490": "glian", "2491": "li uc", "2492": "c\u2019 im", "2493": "zio u", "2494": "le on", "2495": "no im", "2496": "po av", "2497": "di an", "2498": "stran", "2499": "li et", "2500": "re om", "2501": "to af", "2502": "chi o", "2503": "scher", "2504": "ce on", "2505": "re af", "2506": "to ol", "2507": "ra av", "2508": "v\u2019 al", "2509": "t\u2019 am", "2510": "s\u2019 ag", "2511": "tra u", "2512": "ce eu", "2513": "si \u2019n", "2514": "ta el", "2515": "dre e", "2516": "s\u2019 el", "2517": "ci or", "2518": "l\u2019 al", "2519": "z\u2019 al", "2520": "ne em", "2521": "gia o", "2522": "le an", "2523": "lo \u2019n", "2524": "ro um", "2525": "stret", "2526": "le am", "2527": "la au", "2528": "ri an", "2529": "fu in", "2530": "la on", "2531": "da an", "2532": "gni e", "2533": "fu im", "2534": "me of", "2535": "l\u2019 ac", "2536": "ge an", "2537": "te au", "2538": "li af", "2539": "mo at", "2540": "fo im", "2541": "schia", "2542": "t\u2019 ap", "2543": "gliam", "2544": "bre o", "2545": "zia e", "2546": "de of", "2547": "l\u2019 ad", "2548": "ma in", "2549": "si or", "2550": "si ar", "2551": "ro oc", "2552": "li of", "2553": "ce al", "2554": "v\u2019 ac", "2555": "m\u2019 ol", "2556": "ti en", "2557": "vi av", "2558": "no ar", "2559": "m\u2019 an", "2560": "zi ap", "2561": "de au", "2562": "tr\u2019 a", "2563": "ne al", "2564": "glia o", "2565": "schiet", "2566": "lio as", "2567": "sto \u2019m", "2568": "tri af", "2569": "sto im", "2570": "st\u2019 es", "2571": "st\u2019 an", "2572": "ch\u2019 as", "2573": "ch\u2019 eb", "2574": "chi in", "2575": "glio o", "2576": "pi\u00f9 \u2019n", "2577": "gue on", "2578": "tro an", "2579": "tr\u2019 am", "2580": "vi \u00e8 a", "2581": "sto in", "2582": "st\u2019 ac", "2583": "gio ol", "2584": "sti in", "2585": "pre in", "2586": "sta an", "2587": "m\u2019 han", "2588": "tra \u2019m", "2589": "gue an", "2590": "stro u", "2591": "sti el", "2592": "chi ar", "2593": "pi\u00f9 in", "2594": "lio an", "2595": "sma in", "2596": "st\u2019 of", "2597": "stra a", "2598": "ch\u2019 al", "2599": "chi af", "2600": "gne uo", "2601": "sta ai", "2602": "gne in", "2603": "te han", "2604": "sti on", "2605": "sti un", "2606": "dre eb", "2607": "sce el", "2608": "qua in", "2609": "che ha", "2610": "d\u2019 han", "2611": "cie in", "2612": "gne ef", "2613": "tre in", "2614": "sto of", "2615": "pie or", "2616": "tro ac", "2617": "sto ap", "2618": "ch\u2019 ar", "2619": "sco al", "2620": "mia \u2019n", "2621": "tri es", "2622": "ch\u2019 er", "2623": "tra op", "2624": "gue or", "2625": "nio im", "2626": "sco an", "2627": "stra u", "2628": "dre es", "2629": "tri in", "2630": "gno af", "2631": "dre as", "2632": "ch\u2019 og", "2633": "sto an", "2634": "schiat", "2635": "st\u2019 ar", "2636": "gio uc", "2637": "vio in", "2638": "que es", "2639": "chi an", "2640": "chi ap", "2641": "tr\u2019 ar", "2642": "che \u2019n", "2643": "mio \u2019n", "2644": "ch\u00e9 ap", "2645": "cio an", "2646": "cio ap", "2647": "ch\u2019 at", "2648": "pi\u00f9 ap", "2649": "cio al", "2650": "qua im", "2651": "l\u2019 \u00e8 u", "2652": "t\u2019 han", "2653": "ch\u00e9 in", "2654": "chi ac", "2655": "tro in", "2656": "gne ac", "2657": "str\u2019 u", "2658": "sce as", "2659": "tro ap", "2660": "bra av", "2661": "qu\u2019 an", "2662": "ch\u2019 et", "2663": "ria of", "2664": "sti an", "2665": "tra ef", "2666": "c\u2019 han", "2667": "mio in", "2668": "tre an", "2669": "zia il", "2670": "gno ae", "2671": "gi\u00e0 in", "2672": "gno in", "2673": "tro et", "2674": "pre ac", "2675": "mia in", "2676": "chio o", "2677": "sta al", "2678": "che \u2019m", "2679": "bre in", "2680": "ghe on", "2681": "gno al", "2682": "cia on", "2683": "gio on", "2684": "gh\u2019 es", "2685": "ch\u2019 an", "2686": "cio as", "2687": "bia in", "2688": "gni an", "2689": "cia im", "2690": "ch\u2019 es", "2691": "che an", "2692": "tro av", "2693": "bre an", "2694": "co e i", "2695": "ch\u2019 el", "2696": "ste an", "2697": "cio et", "2698": "che om", "2699": "sto on", "2700": "gia in", "2701": "gne er", "2702": "tro im", "2703": "sio in", "2704": "tro as", "2705": "tr\u2019 al", "2706": "ch\u2019 ad", "2707": "glia u", "2708": "scio e", "2709": "zie ec", "2710": "sta im", "2711": "tro of", "2712": "tro on", "2713": "stri o", "2714": "ch\u2019 ag", "2715": "gno am", "2716": "tro ab", "2717": "gia al", "2718": "sce an", "2719": "tra av", "2720": "sti al", "2721": "ch\u00e9 as", "2722": "chi am", "2723": "tri of", "2724": "gna as", "2725": "l\u2019 han", "2726": "bia an", "2727": "lio in", "2728": "st\u2019 al", "2729": "stra i", "2730": "ch\u2019 ab", "2731": "ch\u2019 av", "2732": "st\u2019 ul", "2733": "ch\u2019 ac", "2734": "gia ar", "2735": "qua of", "2736": "sce al", "2737": "li han", "2738": "che op", "2739": "pre ar", "2740": "ne han", "2741": "ch\u2019 en", "2742": "rio an", "2743": "pr\u2019 ar", "2744": "ri han", "2745": "qua on", "2746": "gio et", "2747": "ch\u2019 or", "2748": "ria on", "2749": "ch\u2019 am", "2750": "gna in", "2751": "sto es", "2752": "dre al", "2753": "cia ar", "2754": "sto ar", "2755": "tro \u2019m", "2756": "tr\u2019 om", "2757": "sto at", "2758": "st\u2019 ot", "2759": "go han", "2760": "stro e", "2761": "st\u2019 in", "2762": "gni al", "2763": "tra an", "2764": "vea \u2019m", "2765": "ria in", "2766": "suo im", "2767": "zia or", "2768": "sto al", "2769": "zia on", "2770": "bre et", "2771": "tro ar", "2772": "che in", "2773": "sta og", "2774": "tre os", "2775": "ch\u2019 ap", "2776": "gio in", "2777": "glia a", "2778": "dre an", "2779": "pre at", "2780": "sti er", "2781": "lia an", "2782": "stro a", "2783": "bra in", "2784": "stro o", "2785": "sto \u2019n", "2786": "ti han", "2787": "ch\u2019 in", "2788": "sti oc", "2789": "che ar", "2790": "gne al", "2791": "sta ol", "2792": "chi al", "2793": "chi on", "2794": "bri ap", "2795": "gne im", "2796": "stri a", "2797": "stra e", "2798": "glio u", "2799": "glio e", "2800": "tri as", "2801": "chio u", "2802": "tro al", "2803": "tri ap", "2804": "n\u2019 han", "2805": "sti or", "2806": "pre es", "2807": "sti es", "2808": "sti av", "2809": "que al", "2810": "sto ac", "2811": "scia e", "2812": "chio a", "2813": "re e a", "2814": "sta in", "2815": "schian", "2816": "ste in", "2817": "dia as", "2818": "pre al", "2819": "pio on", "2820": "dio han", "2821": "stra ap", "2822": "chio in", "2823": "mi smar", "2824": "stri av", "2825": "si e \u2019n", "2826": "li \u00e8 in", "2827": "scia an", "2828": "sche ab", "2829": "str\u2019 ar", "2830": "stre in", "2831": "stro ac", "2832": "stri al", "2833": "stro av", "2834": "stro as", "2835": "stra ef", "2836": "chia an", "2837": "ti e ar", "2838": "str\u2019 or", "2839": "glio in", "2840": "chie et", "2841": "glie an", "2842": "glia al", "2843": "glia as", "2844": "glie eb", "2845": "stro al", "2846": "chia of", "2847": "stri ef", "2848": "d\u2019 i\u2019 a", "2849": "glia in", "2850": "stri an", "2851": "scia al", "2852": "glia ac", "2853": "glio on", "2854": "n\u2019 \u00e8 im", "2855": "stro im", "2856": "stra in", "2857": "chio at", "2858": "stro eb", "2859": "glio an", "2860": "glio es", "2861": "sche er", "2862": "lo e \u2019n", "2863": "stro oc", "2864": "stro uc", "2865": "stro es", "2866": "za e in", "2867": "stri af", "2868": "trio al", "2869": "glie al", "2870": "ti e \u2019n", "2871": "stri at", "2872": "re a \u2019n", "2873": "glia es", "2874": "stro an", "2875": "chio an", "2876": "stro in", "2877": "glio as", "2878": "sti a \u2019n", "2879": "t\u2019 ho in", "2880": "ch\u2019 io \u2019n", "2881": "ch\u2019 e\u2019 \u2019n", "2882": "\u00f9 ", "2883": "i ", "2884": "a ", "2885": "o ", "2886": "\u00ef ", "2887": "\u00f2 ", "2888": "p ", "2889": "l ", "2890": "\u00ec ", "2891": "d ", "2892": "e ", "2893": "\u00e8 ", "2894": "s\u00ec ", "2895": "la ", "2896": "ba ", "2897": "mi ", "2898": "ve ", "2899": "go ", "2900": "c\u00e8 ", "2901": "ce ", "2902": "ae ", "2903": "p\u00f2 ", "2904": "v\u00f2 ", "2905": "r\u00e0 ", "2906": "be ", "2907": "tu ", "2908": "mo ", "2909": "\u00f2n ", "2910": "bi ", "2911": "me ", "2912": "pa ", "2913": "pe ", "2914": "b\u00f9 ", "2915": "u\u2019 ", "2916": "ma ", "2917": "d\u00e9 ", "2918": "ge ", "2919": "se ", "2920": "g\u00f2 ", "2921": "in ", "2922": "od ", "2923": "v\u00ec ", "2924": "ed ", "2925": "za ", "2926": "so ", "2927": "ei ", "2928": "\u00f3n ", "2929": "gi ", "2930": "p\u00e8 ", "2931": "oh ", "2932": "ze ", "2933": "n\u00e0 ", "2934": "ar ", "2935": "d\u00e0 ", "2936": "li ", "2937": "n\u00f2 ", "2938": "l\u00ec ", "2939": "t\u00ec ", "2940": "b\u00f2 ", "2941": "il ", "2942": "os ", "2943": "di ", "2944": "fo ", "2945": "no ", "2946": "c\u00e9 ", "2947": "t\u00f9 ", "2948": "de ", "2949": "vo ", "2950": "f\u00e0 ", "2951": "ne ", "2952": "t\u00e9 ", "2953": "d\u00ec ", "2954": "as ", "2955": "l\u00e0 ", "2956": "ca ", "2957": "zo ", "2958": "lo ", "2959": "or ", "2960": "co ", "2961": "on ", "2962": "e\u2019 ", "2963": "el ", "2964": "ab ", "2965": "d\u00f2 ", "2966": "i\u2019 ", "2967": "al ", "2968": "g\u00ec ", "2969": "fa ", "2970": "ia ", "2971": "\u00f9l ", "2972": "le ", "2973": "\u00e8e ", "2974": "\u00e0r ", "2975": "\u00e9n ", "2976": "si ", "2977": "z\u00f2 ", "2978": "su ", "2979": "vi ", "2980": "ni ", "2981": "f\u00e9 ", "2982": "s\u00e8 ", "2983": "r\u00f2 ", "2984": "\u00f2s ", "2985": "io ", "2986": "ri ", "2987": "pi ", "2988": "am ", "2989": "s\u00f2 ", "2990": "fe ", "2991": "b\u00e8 ", "2992": "ta ", "2993": "c\u00f2 ", "2994": "\u00e0m ", "2995": "om ", "2996": "ci ", "2997": "\u00e8l ", "2998": "hi ", "2999": "an ", "3000": "do ", "3001": "t\u00e8 ", "3002": "n\u00e8 ", "3003": "ai ", "3004": "fi ", "3005": "b\u00ec ", "3006": "l\u00e8 ", "3007": "n\u00ec ", "3008": "a\u2019 ", "3009": "va ", "3010": "ga ", "3011": "r\u00ec ", "3012": "ro ", "3013": "s\u00e9 ", "3014": "m\u00e8 ", "3015": "da ", "3016": "fu ", "3017": "t\u00f2 ", "3018": "l\u00f2 ", "3019": "ra ", "3020": "te ", "3021": "us ", "3022": "t\u00e0 ", "3023": "ho ", "3024": "et ", "3025": "m\u00f2 ", "3026": "ha ", "3027": "ti ", "3028": "um ", "3029": "to ", "3030": "ie ", "3031": "\u00ecs ", "3032": "po ", "3033": "s\u00f9 ", "3034": "sa ", "3035": "un ", "3036": "na ", "3037": "bo ", "3038": "ad ", "3039": "re ", "3040": "f\u00f2 ", "3041": "zi ", "3042": "n\u00e9 ", "3043": "\u00e0s ", "3044": "ir ", "3045": "bei ", "3046": "bir ", "3047": "sue ", "3048": "gel ", "3049": "bra ", "3050": "pie ", "3051": "for ", "3052": "sub ", "3053": "cie ", "3054": "se\u2019 ", "3055": "fe\u2019 ", "3056": "smi ", "3057": "uo\u2019 ", "3058": "ges ", "3059": "non ", "3060": "bus ", "3061": "sei ", "3062": "bin ", "3063": "del ", "3064": "n\u00ect ", "3065": "d\u00ece ", "3066": "\u00f2th ", "3067": "ean ", "3068": "san ", "3069": "o a ", "3070": "dr\u00f2 ", "3071": "nir ", "3072": "ian ", "3073": "fui ", "3074": "val ", "3075": "t\u00f2r ", "3076": "bor ", "3077": "cil ", "3078": "vra ", "3079": "ti\u2019 ", "3080": "cor ", "3081": "rem ", "3082": "sma ", "3083": "bon ", "3084": "fer ", "3085": "rie ", "3086": "lan ", "3087": "ber ", "3088": "za\u2019 ", "3089": "f\u00e8l ", "3090": "tir ", "3091": "neo ", "3092": "mal ", "3093": "vei ", "3094": "d\u00e8i ", "3095": "lem ", "3096": "pr\u00e0 ", "3097": "duo ", "3098": "qua ", "3099": "mie ", "3100": "fi\u00f2 ", "3101": "mun ", "3102": "p\u00eca ", "3103": "bis ", "3104": "cal ", "3105": "ren ", "3106": "sui ", "3107": "tio ", "3108": "dr\u00ec ", "3109": "cem ", "3110": "n\u00ece ", "3111": "gon ", "3112": "tus ", "3113": "zai ", "3114": "du\u2019 ", "3115": "sio ", "3116": "ver ", "3117": "lu\u2019 ", "3118": "tua ", "3119": "tuo ", "3120": "mei ", "3121": "gua ", "3122": "van ", "3123": "ri\u2019 ", "3124": "na\u2019 ", "3125": "sis ", "3126": "mee ", "3127": "vos ", "3128": "pur ", "3129": "son ", "3130": "lin ", "3131": "ten ", "3132": "sen ", "3133": "gru ", "3134": "cin ", "3135": "dur ", "3136": "des ", "3137": "di\u2019 ", "3138": "tre ", "3139": "min ", "3140": "tes ", "3141": "mi\u2019 ", "3142": "ghi ", "3143": "sca ", "3144": "sc\u00ec ", "3145": "mil ", "3146": "ser ", "3147": "sor ", "3148": "tui ", "3149": "fi\u2019 ", "3150": "vam ", "3151": "pan ", "3152": "ner ", "3153": "dir ", "3154": "zio ", "3155": "dea ", "3156": "sem ", "3157": "fan ", "3158": "gre ", "3159": "nha ", "3160": "rer ", "3161": "pio ", "3162": "don ", "3163": "tra ", "3164": "sun ", "3165": "spe ", "3166": "e i ", "3167": "dre ", "3168": "cri ", "3169": "e \u2019 ", "3170": "que ", "3171": "n\u00eca ", "3172": "nii ", "3173": "vel ", "3174": "bar ", "3175": "pi\u00e8 ", "3176": "cer ", "3177": "sti ", "3178": "cia ", "3179": "nan ", "3180": "fon ", "3181": "lai ", "3182": "lir ", "3183": "cum ", "3184": "ter ", "3185": "rio ", "3186": "ieu ", "3187": "ga\u2019 ", "3188": "gis ", "3189": "rao ", "3190": "r\u00f3n ", "3191": "fur ", "3192": "fia ", "3193": "gro ", "3194": "reo ", "3195": "gar ", "3196": "bue ", "3197": "spa ", "3198": "num ", "3199": "g\u00f3r ", "3200": "sto ", "3201": "cre ", "3202": "ta\u2019 ", "3203": "pea ", "3204": "rel ", "3205": "f\u00e0t ", "3206": "res ", "3207": "no\u2019 ", "3208": "ton ", "3209": "mor ", "3210": "bel ", "3211": "f\u00e0s ", "3212": "tai ", "3213": "pia ", "3214": "voi ", "3215": "tei ", "3216": "sar ", "3217": "som ", "3218": "cei ", "3219": "che ", "3220": "meo ", "3221": "n\u00f2i ", "3222": "gra ", "3223": "fue ", "3224": "uom ", "3225": "nio ", "3226": "re\u2019 ", "3227": "vin ", "3228": "a e ", "3229": "pro ", "3230": "nar ", "3231": "dr\u00e0 ", "3232": "lia ", "3233": "gia ", "3234": "cai ", "3235": "con ", "3236": "s\u00f9e ", "3237": "va\u2019 ", "3238": "pri ", "3239": "sel ", "3240": "gir ", "3241": "t\u00e9r ", "3242": "gno ", "3243": "fio ", "3244": "zar ", "3245": "ne\u2019 ", "3246": "fin ", "3247": "ror ", "3248": "tal ", "3249": "sin ", "3250": "l\u00eca ", "3251": "vem ", "3252": "vas ", "3253": "sia ", "3254": "t\u00f3n ", "3255": "ven ", "3256": "men ", "3257": "dio ", "3258": "sta ", "3259": "dil ", "3260": "rin ", "3261": "qui ", "3262": "ger ", "3263": "zon ", "3264": "lee ", "3265": "g\u00f3n ", "3266": "r\u00ecb ", "3267": "pi\u00f9 ", "3268": "ion ", "3269": "gna ", "3270": "mon ", "3271": "mii ", "3272": "sal ", "3273": "gor ", "3274": "fei ", "3275": "pra ", "3276": "gal ", "3277": "tii ", "3278": "da\u2019 ", "3279": "ran ", "3280": "pol ", "3281": "bui ", "3282": "cro ", "3283": "vio ", "3284": "bil ", "3285": "gin ", "3286": "cut ", "3287": "cen ", "3288": "han ", "3289": "par ", "3290": "gi\u00f9 ", "3291": "ra\u2019 ", "3292": "n\u00f2s ", "3293": "chi ", "3294": "por ", "3295": "c\u00f2l ", "3296": "pre ", "3297": "p\u00f2s ", "3298": "de\u2019 ", "3299": "vai ", "3300": "dii ", "3301": "dai ", "3302": "ler ", "3303": "nis ", "3304": "nei ", "3305": "von ", "3306": "lis ", "3307": "\u2018te ", "3308": "ceo ", "3309": "nea ", "3310": "deo ", "3311": "ben ", "3312": "feo ", "3313": "rea ", "3314": "nin ", "3315": "f\u00f3n ", "3316": "zie ", "3317": "gea ", "3318": "dra ", "3319": "dui ", "3320": "gu\u00ec ", "3321": "lor ", "3322": "noi ", "3323": "\u2019ve ", "3324": "mae ", "3325": "cun ", "3326": "rei ", "3327": "due ", "3328": "deh ", "3329": "r\u00f2l ", "3330": "ban ", "3331": "ste ", "3332": "di\u00e8 ", "3333": "dan ", "3334": "vo\u2019 ", "3335": "nie ", "3336": "tin ", "3337": "cio ", "3338": "mul ", "3339": "v\u00ecd ", "3340": "m\u00eca ", "3341": "die ", "3342": "t\u00f2n ", "3343": "joi ", "3344": "pon ", "3345": "teo ", "3346": "s\u00f3n ", "3347": "fal ", "3348": "pem ", "3349": "ni\u2019 ", "3350": "sce ", "3351": "cea ", "3352": "gio ", "3353": "sir ", "3354": "zul ", "3355": "tr\u00f2 ", "3356": "gli ", "3357": "poi ", "3358": "rii ", "3359": "zii ", "3360": "rir ", "3361": "can ", "3362": "unt ", "3363": "sa\u2019 ", "3364": "fu\u2019 ", "3365": "bre ", "3366": "cu\u2019 ", "3367": "sco ", "3368": "su\u2019 ", "3369": "ros ", "3370": "ci\u00f2 ", "3371": "var ", "3372": "sai ", "3373": "b\u00e0l ", "3374": "b\u00e8l ", "3375": "c\u00f2b ", "3376": "per ", "3377": "smo ", "3378": "tue ", "3379": "te\u2019 ", "3380": "len ", "3381": "pr\u00ec ", "3382": "sua ", "3383": "beo ", "3384": "dei ", "3385": "tan ", "3386": "peo ", "3387": "cle ", "3388": "fra ", "3389": "bi\u00f2 ", "3390": "lar ", "3391": "coi ", "3392": "mai ", "3393": "vie ", "3394": "vii ", "3395": "nal ", "3396": "ron ", "3397": "b\u00eca ", "3398": "l\u00eco ", "3399": "vea ", "3400": "hai ", "3401": "fie ", "3402": "tis ", "3403": "fai ", "3404": "nol ", "3405": "gne ", "3406": "pi\u00e9 ", "3407": "tri ", "3408": "mus ", "3409": "tia ", "3410": "l\u00f2n ", "3411": "dor ", "3412": "r\u00ecs ", "3413": "zan ", "3414": "ram ", "3415": "t\u00e8s ", "3416": "pin ", "3417": "sii ", "3418": "gu\u00f2 ", "3419": "la\u2019 ", "3420": "dia ", "3421": "lio ", "3422": "gol ", "3423": "tem ", "3424": "me\u2019 ", "3425": "ve\u2019 ", "3426": "cui ", "3427": "n\u00e8s ", "3428": "lei ", "3429": "cis ", "3430": "sit ", "3431": "nai ", "3432": "c\u00e0n ", "3433": "suo ", "3434": "tro ", "3435": "d\u00eca ", "3436": "cul ", "3437": "sol ", "3438": "vau ", "3439": "pei ", "3440": "l\u00e8m ", "3441": "est ", "3442": "m\u00ecs ", "3443": "dro ", "3444": "nor ", "3445": "mas ", "3446": "rua ", "3447": "lea ", "3448": "seo ", "3449": "bee ", "3450": "bro ", "3451": "bri ", "3452": "tum ", "3453": "gue ", "3454": "st\u00f2 ", "3455": "pii ", "3456": "gni ", "3457": "nem ", "3458": "z\u00f2n ", "3459": "ghe ", "3460": "tol ", "3461": "man ", "3462": "gan ", "3463": "bol ", "3464": "a a ", "3465": "rui ", "3466": "fil ", "3467": "ier ", "3468": "mia ", "3469": "ria ", "3470": "pal ", "3471": "s\u00ece ", "3472": "gri ", "3473": "dal ", "3474": "ral ", "3475": "cur ", "3476": "til ", "3477": "ces ", "3478": "sci ", "3479": "din ", "3480": "mar ", "3481": "ree ", "3482": "car ", "3483": "dem ", "3484": "dee ", "3485": "f\u00e9e ", "3486": "bio ", "3487": "nel ", "3488": "lon ", "3489": "st\u00e0 ", "3490": "o e ", "3491": "rai ", "3492": "dri ", "3493": "plo ", "3494": "t\u00e0n ", "3495": "nil ", "3496": "vol ", "3497": "gi\u00e0 ", "3498": "st\u00ec ", "3499": "co\u2019 ", "3500": "vil ", "3501": "rar ", "3502": "ch\u00e9 ", "3503": "tel ", "3504": "tar ", "3505": "sie ", "3506": "pir ", "3507": "tun ", "3508": "tor ", "3509": "dar ", "3510": "ril ", "3511": "sul ", "3512": "gei ", "3513": "zia ", "3514": "mer ", "3515": "bia ", "3516": "a i ", "3517": "lui ", "3518": "st\u00e9 ", "3519": "der ", "3520": "clo ", "3521": "leo ", "3522": "st\u00f9 ", "3523": "rum ", "3524": "ahi ", "3525": "pu\u00f2 ", "3526": "cel ", "3527": "mio ", "3528": "lie ", "3529": "cra ", "3530": "r\u00ece ", "3531": "gi\u2019 ", "3532": "tea ", "3533": "tr\u00e0 ", "3534": "far ", "3535": "pel ", "3536": "mum ", "3537": "d\u00ect ", "3538": "nia ", "3539": "gui ", "3540": "ma\u2019 ", "3541": "gai ", "3542": "via ", "3543": "col ", "3544": "gi\u00f2 ", "3545": "dua ", "3546": "mea ", "3547": "re o ", "3548": "br\u00f2t ", "3549": "stri ", "3550": "blia ", "3551": "guia ", "3552": "ca \u00e8 ", "3553": "o in ", "3554": "i in ", "3555": "buon ", "3556": "go \u00e8 ", "3557": "di e ", "3558": "te e ", "3559": "svia ", "3560": "trae ", "3561": "rent ", "3562": "ce o ", "3563": "ve a ", "3564": "die\u2019 ", "3565": "s\u2019 \u00e8 ", "3566": "ge a ", "3567": "ma o ", "3568": "prie ", "3569": "steo ", "3570": "vo a ", "3571": "te o ", "3572": "ti a ", "3573": "ci e ", "3574": "ne e ", "3575": "fe e ", "3576": "gaio ", "3577": "chi\u00f2 ", "3578": "se \u00e8 ", "3579": "mo a ", "3580": "ci a ", "3581": "stre ", "3582": "gioi ", "3583": "la e ", "3584": "de o ", "3585": "breo ", "3586": "le \u00e8 ", "3587": "po a ", "3588": "nail ", "3589": "di a ", "3590": "plor ", "3591": "te a ", "3592": "m\u2019 \u00e8 ", "3593": "gnan ", "3594": "pia\u2019 ", "3595": "l\u2019 \u00e8 ", "3596": "gner ", "3597": "po i ", "3598": "la o ", "3599": "be a ", "3600": "vi o ", "3601": "ti e ", "3602": "pron ", "3603": "drel ", "3604": "so o ", "3605": "za o ", "3606": "c\u00f2th ", "3607": "ciul ", "3608": "spia ", "3609": "za a ", "3610": "ce \u00e8 ", "3611": "va e ", "3612": "prai ", "3613": "maia ", "3614": "ti o ", "3615": "bi a ", "3616": "stel ", "3617": "bian ", "3618": "pa a ", "3619": "miei ", "3620": "le i ", "3621": "vi \u00e8 ", "3622": "sa o ", "3623": "vuoi ", "3624": "so a ", "3625": "do e ", "3626": "pi\u00e9r ", "3627": "muor ", "3628": "ghia ", "3629": "cian ", "3630": "io e ", "3631": "ne o ", "3632": "grin ", "3633": "ghio ", "3634": "ri a ", "3635": "l\u00e0 i ", "3636": "me e ", "3637": "gi e ", "3638": "bria ", "3639": "\u00e8 \u2019n ", "3640": "luia ", "3641": "za \u00e8 ", "3642": "po e ", "3643": "va o ", "3644": "zi a ", "3645": "fuor ", "3646": "dier ", "3647": "t\u2019 \u00e8 ", "3648": "lo a ", "3649": "rian ", "3650": "gnon ", "3651": "lien ", "3652": "quae ", "3653": "zion ", "3654": "tiam ", "3655": "runt ", "3656": "gnun ", "3657": "gnum ", "3658": "drea ", "3659": "drir ", "3660": "ziar ", "3661": "ze o ", "3662": "ga e ", "3663": "se o ", "3664": "so \u00e8 ", "3665": "saia ", "3666": "si \u00e8 ", "3667": "viam ", "3668": "stui ", "3669": "d\u00ec i ", "3670": "fian ", "3671": "lo i ", "3672": "ne \u00e8 ", "3673": "biar ", "3674": "qual ", "3675": "a al ", "3676": "re \u00e8 ", "3677": "tree ", "3678": "r\u2019 a ", "3679": "de i ", "3680": "pluo ", "3681": "trio ", "3682": "sier ", "3683": "ca a ", "3684": "laio ", "3685": "niam ", "3686": "glie ", "3687": "e or ", "3688": "vi a ", "3689": "a in ", "3690": "guon ", "3691": "stil ", "3692": "to a ", "3693": "ro e ", "3694": "tuon ", "3695": "pria ", "3696": "brio ", "3697": "co i ", "3698": "se a ", "3699": "trar ", "3700": "ze e ", "3701": "te \u00e8 ", "3702": "ma i ", "3703": "sa \u00e8 ", "3704": "brei ", "3705": "crea ", "3706": "di o ", "3707": "bia\u2019 ", "3708": "da e ", "3709": "st\u00f2r ", "3710": "bi e ", "3711": "gnin ", "3712": "trea ", "3713": "ta \u00e8 ", "3714": "stie ", "3715": "e \u2019l ", "3716": "mi i ", "3717": "za e ", "3718": "be e ", "3719": "go a ", "3720": "no e ", "3721": "ph\u00e8l ", "3722": "sa i ", "3723": "ni e ", "3724": "o un ", "3725": "v\u2019 \u00e8 ", "3726": "ve e ", "3727": "to i ", "3728": "quel ", "3729": "de e ", "3730": "na o ", "3731": "ma a ", "3732": "gli\u00f2 ", "3733": "gier ", "3734": "do \u00e8 ", "3735": "t\u2019 i ", "3736": "ni a ", "3737": "scia ", "3738": "ro o ", "3739": "ta e ", "3740": "diam ", "3741": "ra e ", "3742": "o il ", "3743": "ghi\u00f2 ", "3744": "lier ", "3745": "ghin ", "3746": "d\u00e8ch ", "3747": "d\u2019 i ", "3748": "stei ", "3749": "sfar ", "3750": "zi \u00e8 ", "3751": "e in ", "3752": "ra o ", "3753": "na e ", "3754": "gnes ", "3755": "ci\u00f2l ", "3756": "scar ", "3757": "guan ", "3758": "va i ", "3759": "dria ", "3760": "scir ", "3761": "me i ", "3762": "gi\u00f9e ", "3763": "do o ", "3764": "ri e ", "3765": "slao ", "3766": "ni \u00e8 ", "3767": "quod ", "3768": "tris ", "3769": "ti \u00e8 ", "3770": "ga a ", "3771": "re i ", "3772": "f\u00e9 i ", "3773": "go o ", "3774": "gion ", "3775": "ci o ", "3776": "no a ", "3777": "bent ", "3778": "quai ", "3779": "ciar ", "3780": "se e ", "3781": "pi\u00f9e ", "3782": "piar ", "3783": "ro \u00e8 ", "3784": "le e ", "3785": "sc\u00eco ", "3786": "caio ", "3787": "dra\u2019 ", "3788": "ge \u00e8 ", "3789": "chin ", "3790": "chie ", "3791": "ba e ", "3792": "rien ", "3793": "go e ", "3794": "\u00e8 \u2019l ", "3795": "ro i ", "3796": "bo a ", "3797": "na a ", "3798": "stor ", "3799": "tram ", "3800": "ra a ", "3801": "la \u00e8 ", "3802": "cia\u2019 ", "3803": "glia ", "3804": "giam ", "3805": "puoi ", "3806": "o al ", "3807": "dien ", "3808": "bree ", "3809": "st\u00e8r ", "3810": "spro ", "3811": "gean ", "3812": "gnor ", "3813": "pi e ", "3814": "ca o ", "3815": "mo i ", "3816": "e \u2019n ", "3817": "mian ", "3818": "vean ", "3819": "quie ", "3820": "di i ", "3821": "gian ", "3822": "laia ", "3823": "zo e ", "3824": "la a ", "3825": "c\u2019 \u00e8 ", "3826": "\u00e8 in ", "3827": "brar ", "3828": "tuo\u2019 ", "3829": "prec ", "3830": "tu i ", "3831": "stra ", "3832": "ce e ", "3833": "re e ", "3834": "duol ", "3835": "sien ", "3836": "naut ", "3837": "sper ", "3838": "ghie ", "3839": "quor ", "3840": "s\u00e9 i ", "3841": "pe i ", "3842": "giai ", "3843": "sa a ", "3844": "vian ", "3845": "su i ", "3846": "que\u2019 ", "3847": "a \u2019l ", "3848": "v\u2019 a ", "3849": "dron ", "3850": "scel ", "3851": "to o ", "3852": "bran ", "3853": "tier ", "3854": "sa e ", "3855": "fien ", "3856": "gnus ", "3857": "li e ", "3858": "da i ", "3859": "suo\u2019 ", "3860": "ca e ", "3861": "co a ", "3862": "za i ", "3863": "gual ", "3864": "pa e ", "3865": "rean ", "3866": "gnia ", "3867": "si i ", "3868": "fior ", "3869": "ne a ", "3870": "trai ", "3871": "giun ", "3872": "do i ", "3873": "naio ", "3874": "gnar ", "3875": "ce i ", "3876": "si o ", "3877": "stea ", "3878": "chel ", "3879": "li o ", "3880": "drai ", "3881": "tu \u2019 ", "3882": "li i ", "3883": "me \u00e8 ", "3884": "vuol ", "3885": "scun ", "3886": "stai ", "3887": "cuor ", "3888": "me a ", "3889": "trui ", "3890": "pian ", "3891": "co o ", "3892": "to e ", "3893": "da a ", "3894": "tran ", "3895": "le o ", "3896": "chio ", "3897": "tien ", "3898": "le a ", "3899": "sche ", "3900": "tuoi ", "3901": "guio ", "3902": "mo e ", "3903": "vuo\u2019 ", "3904": "\u2018qui ", "3905": "pa \u00e8 ", "3906": "sci\u2019 ", "3907": "ti i ", "3908": "mo \u00e8 ", "3909": "zian ", "3910": "ro a ", "3911": "scie ", "3912": "cria ", "3913": "vi e ", "3914": "crin ", "3915": "tean ", "3916": "dail ", "3917": "ma e ", "3918": "gran ", "3919": "tr\u00e0s ", "3920": "guir ", "3921": "stia ", "3922": "da o ", "3923": "s\u2019 a ", "3924": "vier ", "3925": "maio ", "3926": "so i ", "3927": "gi a ", "3928": "lo e ", "3929": "ne i ", "3930": "mi a ", "3931": "fiar ", "3932": "sci\u00f2 ", "3933": "schi ", "3934": "quia ", "3935": "lian ", "3936": "nean ", "3937": "na \u00e8 ", "3938": "stan ", "3939": "spir ", "3940": "cral ", "3941": "riai ", "3942": "pion ", "3943": "fi e ", "3944": "ge e ", "3945": "ta o ", "3946": "gien ", "3947": "ra \u00e8 ", "3948": "nian ", "3949": "\u00e8 il ", "3950": "pe e ", "3951": "lo \u00e8 ", "3952": "sunt ", "3953": "scea ", "3954": "mie\u2019 ", "3955": "toio ", "3956": "gior ", "3957": "ri o ", "3958": "pri\u2019 ", "3959": "ciam ", "3960": "grue ", "3961": "pier ", "3962": "i il ", "3963": "sti\u00f2 ", "3964": "be i ", "3965": "quar ", "3966": "o \u2019n ", "3967": "tria ", "3968": "guai ", "3969": "guis ", "3970": "prei ", "3971": "nien ", "3972": "do a ", "3973": "zi e ", "3974": "no o ", "3975": "suoi ", "3976": "to \u00e8 ", "3977": "po \u00e8 ", "3978": "quei ", "3979": "ra i ", "3980": "si a ", "3981": "de \u00e8 ", "3982": "bion ", "3983": "no \u00e8 ", "3984": "glio ", "3985": "te i ", "3986": "muoi ", "3987": "co \u00e8 ", "3988": "re a ", "3989": "com\u2019 ", "3990": "n\u2019 \u00e8 ", "3991": "vaio ", "3992": "gnel ", "3993": "fier ", "3994": "prir ", "3995": "cion ", "3996": "stro ", "3997": "ciai ", "3998": "scio ", "3999": "vien ", "4000": "li a ", "4001": "cheo ", "4002": "siam ", "4003": "scon ", "4004": "frir ", "4005": "dean ", "4006": "frui ", "4007": "suol ", "4008": "de a ", "4009": "li \u00e8 ", "4010": "fren ", "4011": "si e ", "4012": "cl\u00e8s ", "4013": "bi i ", "4014": "zo a ", "4015": "cean ", "4016": "str\u00f2 ", "4017": "sian ", "4018": "prun ", "4019": "ta a ", "4020": "se i ", "4021": "tra\u2019 ", "4022": "sion ", "4023": "scer ", "4024": "ve i ", "4025": "ce a ", "4026": "ched ", "4027": "ciol ", "4028": "va a ", "4029": "plar ", "4030": "sie\u2019 ", "4031": "so e ", "4032": "buoi ", "4033": "po o ", "4034": "ver\u2019 ", "4035": "nier ", "4036": "chia ", "4037": "ci \u00e8 ", "4038": "blio ", "4039": "fu a ", "4040": "giar ", "4041": "co e ", "4042": "ma \u00e8 ", "4043": "ga o ", "4044": "trei ", "4045": "ta i ", "4046": "pien ", "4047": "star ", "4048": "no i ", "4049": "prio ", "4050": "quam ", "4051": "vria ", "4052": "suon ", "4053": "la i ", "4054": "stin ", "4055": "mi e ", "4056": "ve o ", "4057": "l\u00ec \u00e8 ", "4058": "spri ", "4059": "fo \u00e8 ", "4060": "bo e ", "4061": "ciel ", "4062": "d\u2019 \u00e8 ", "4063": "a il ", "4064": "vo e ", "4065": "ni o ", "4066": "le al ", "4067": "chi a ", "4068": "gnaio ", "4069": "sto e ", "4070": "zi \u2019l ", "4071": "pa in ", "4072": "gui e ", "4073": "so in ", "4074": "re ho ", "4075": "t\u2019 i\u2019 ", "4076": "mo ad ", "4077": "ce al ", "4078": "g\u00ec \u2019l ", "4079": "s\u2019 un ", "4080": "pre a ", "4081": "go il ", "4082": "n\u2019 io ", "4083": "l\u2019 ha ", "4084": "le ha ", "4085": "me \u2019l ", "4086": "me a\u2019 ", "4087": "mo un ", "4088": "to ir ", "4089": "s\u2019 io ", "4090": "tre e ", "4091": "g\u00f2 \u2019l ", "4092": "ni al ", "4093": "ri a\u2019 ", "4094": "to il ", "4095": "so al ", "4096": "pe il ", "4097": "ci a\u2019 ", "4098": "t\u2019 io ", "4099": "ti il ", "4100": "ra \u2019l ", "4101": "tr\u2019 \u00e8 ", "4102": "qua o ", "4103": "gliel ", "4104": "te \u2019n ", "4105": "ti in ", "4106": "fu il ", "4107": "se \u2019l ", "4108": "stion ", "4109": "me ad ", "4110": "pra e ", "4111": "da al ", "4112": "m\u2019 ha ", "4113": "pio e ", "4114": "ro ad ", "4115": "ti \u2019n ", "4116": "na ad ", "4117": "li un ", "4118": "glion ", "4119": "t\u00ec \u2019l ", "4120": "gi un ", "4121": "zi ai ", "4122": "co ai ", "4123": "se \u2019n ", "4124": "ria a ", "4125": "ria \u00e8 ", "4126": "se ai ", "4127": "to io ", "4128": "le or ", "4129": "re ir ", "4130": "de un ", "4131": "sa in ", "4132": "le ad ", "4133": "ne io ", "4134": "tri e ", "4135": "v\u00f2 \u2019l ", "4136": "se or ", "4137": "r\u2019 io ", "4138": "voill ", "4139": "no i\u2019 ", "4140": "dia i ", "4141": "ti ad ", "4142": "ne a\u2019 ", "4143": "sa ad ", "4144": "tri a ", "4145": "zia o ", "4146": "za un ", "4147": "ria o ", "4148": "de ad ", "4149": "dio e ", "4150": "zo il ", "4151": "zia \u00e8 ", "4152": "bra a ", "4153": "do ed ", "4154": "gi il ", "4155": "sci a ", "4156": "tro i ", "4157": "di ha ", "4158": "f\u00e9 \u2019l ", "4159": "s\u2019 ha ", "4160": "ra \u2019n ", "4161": "ve a\u2019 ", "4162": "to ed ", "4163": "mia e ", "4164": "ra al ", "4165": "ci in ", "4166": "t\u2019 om ", "4167": "ti io ", "4168": "la in ", "4169": "li \u2019l ", "4170": "d\u2019 el ", "4171": "do al ", "4172": "za ed ", "4173": "ge ad ", "4174": "ma il ", "4175": "ve \u2019l ", "4176": "ga in ", "4177": "lo il ", "4178": "dro e ", "4179": "be al ", "4180": "lo ad ", "4181": "ne il ", "4182": "zo \u2019l ", "4183": "ni il ", "4184": "ci il ", "4185": "ni or ", "4186": "za or ", "4187": "si u\u2019 ", "4188": "que \u00e8 ", "4189": "le ab ", "4190": "scion ", "4191": "gio e ", "4192": "se ho ", "4193": "ha in ", "4194": "sto a ", "4195": "r\u00ec \u2019l ", "4196": "dro a ", "4197": "re ha ", "4198": "lio a ", "4199": "do or ", "4200": "ci io ", "4201": "r\u00f2 il ", "4202": "ra a\u2019 ", "4203": "gna e ", "4204": "qui e ", "4205": "gui i ", "4206": "que a ", "4207": "v\u2019 ho ", "4208": "bi \u2019l ", "4209": "chion ", "4210": "to \u2019n ", "4211": "gno a ", "4212": "qua a ", "4213": "te ho ", "4214": "no il ", "4215": "l\u2019 om ", "4216": "ghe a ", "4217": "si el ", "4218": "re ed ", "4219": "ma in ", "4220": "to ad ", "4221": "to \u2019l ", "4222": "ti \u2019l ", "4223": "z\u00f2 il ", "4224": "si un ", "4225": "zia e ", "4226": "te il ", "4227": "po ha ", "4228": "co ad ", "4229": "ia ed ", "4230": "vi \u2019l ", "4231": "sti e ", "4232": "fu al ", "4233": "se ad ", "4234": "scian ", "4235": "ria e ", "4236": "co u\u2019 ", "4237": "ria i ", "4238": "n\u2019 ei ", "4239": "so \u00e8e ", "4240": "gio o ", "4241": "qua e ", "4242": "qua \u00e8 ", "4243": "z\u00f2 \u2019l ", "4244": "gue e ", "4245": "v\u2019 i\u2019 ", "4246": "na al ", "4247": "di ad ", "4248": "te or ", "4249": "be or ", "4250": "gue \u00e8 ", "4251": "strai ", "4252": "che e ", "4253": "ta ed ", "4254": "sta e ", "4255": "v\u2019 io ", "4256": "no \u2019l ", "4257": "mi ed ", "4258": "si al ", "4259": "di or ", "4260": "gna o ", "4261": "si in ", "4262": "va in ", "4263": "me in ", "4264": "di un ", "4265": "to i\u2019 ", "4266": "ti al ", "4267": "t\u00f2 un ", "4268": "da in ", "4269": "di al ", "4270": "puesc ", "4271": "gno i ", "4272": "bra e ", "4273": "co al ", "4274": "da \u2019l ", "4275": "tra \u00e8 ", "4276": "glier ", "4277": "s\u00e9 in ", "4278": "c\u2019 io ", "4279": "li ei ", "4280": "bre a ", "4281": "re \u2019n ", "4282": "si \u2019l ", "4283": "re i\u2019 ", "4284": "vo in ", "4285": "tra i ", "4286": "za oh ", "4287": "ro il ", "4288": "sta a ", "4289": "ce a\u2019 ", "4290": "se i\u2019 ", "4291": "ra or ", "4292": "ta ho ", "4293": "pre e ", "4294": "t\u2019 ha ", "4295": "li io ", "4296": "g\u2019 io ", "4297": "na in ", "4298": "cia o ", "4299": "ia il ", "4300": "ne in ", "4301": "ve in ", "4302": "ra io ", "4303": "staio ", "4304": "stiam ", "4305": "t\u2019 il ", "4306": "de il ", "4307": "dre a ", "4308": "po \u2019l ", "4309": "da or ", "4310": "gna i ", "4311": "dia e ", "4312": "me ed ", "4313": "gna a ", "4314": "zi or ", "4315": "la a\u2019 ", "4316": "gua e ", "4317": "smo a ", "4318": "ghe e ", "4319": "ve il ", "4320": "gi \u2019l ", "4321": "za \u2019l ", "4322": "na ha ", "4323": "so ad ", "4324": "bro e ", "4325": "sto \u00e8 ", "4326": "na ed ", "4327": "ta al ", "4328": "v\u2019 ei ", "4329": "di ed ", "4330": "ra un ", "4331": "le ir ", "4332": "ti ed ", "4333": "pa \u2019l ", "4334": "za al ", "4335": "ra in ", "4336": "mo in ", "4337": "l\u2019 un ", "4338": "p\u2019 io ", "4339": "ca in ", "4340": "la ed ", "4341": "d\u2019 i\u2019 ", "4342": "ro in ", "4343": "tra e ", "4344": "la io ", "4345": "to un ", "4346": "ce un ", "4347": "gliea ", "4348": "pa ho ", "4349": "so un ", "4350": "gni e ", "4351": "s\u00ec \u2019l ", "4352": "lo ed ", "4353": "ro al ", "4354": "dri e ", "4355": "m\u2019 io ", "4356": "ste e ", "4357": "lo un ", "4358": "rio e ", "4359": "za il ", "4360": "li in ", "4361": "ta un ", "4362": "d\u2019 ir ", "4363": "za in ", "4364": "de ed ", "4365": "te ad ", "4366": "gri e ", "4367": "lo in ", "4368": "si ad ", "4369": "le i\u2019 ", "4370": "ci ha ", "4371": "se in ", "4372": "sa \u2019l ", "4373": "li or ", "4374": "co a\u2019 ", "4375": "gia o ", "4376": "c\u2019 ha ", "4377": "sti a ", "4378": "ce il ", "4379": "cia e ", "4380": "so il ", "4381": "be il ", "4382": "scuoi ", "4383": "t\u2019 ho ", "4384": "ge ai ", "4385": "re al ", "4386": "dre e ", "4387": "ta ad ", "4388": "mi a\u2019 ", "4389": "st\u2019 \u00e8 ", "4390": "tri o ", "4391": "re in ", "4392": "ta il ", "4393": "sce e ", "4394": "lo al ", "4395": "gni a ", "4396": "co il ", "4397": "bo in ", "4398": "ma un ", "4399": "ne un ", "4400": "te in ", "4401": "tra a ", "4402": "za i\u2019 ", "4403": "la il ", "4404": "sti \u00e8 ", "4405": "b\u00f2 il ", "4406": "lo ha ", "4407": "di in ", "4408": "to ha ", "4409": "no ai ", "4410": "zia a ", "4411": "co un ", "4412": "ma \u2019l ", "4413": "no ad ", "4414": "ti ha ", "4415": "po io ", "4416": "po ed ", "4417": "ne or ", "4418": "ro i\u2019 ", "4419": "t\u00e9 \u2019l ", "4420": "vi il ", "4421": "ga il ", "4422": "sco i ", "4423": "po in ", "4424": "gli a ", "4425": "ge al ", "4426": "do io ", "4427": "n\u00f2 in ", "4428": "ia oh ", "4429": "gi\u00e0 i ", "4430": "te ha ", "4431": "zi al ", "4432": "pa ed ", "4433": "lo ai ", "4434": "pi un ", "4435": "su \u2019l ", "4436": "ha \u2019l ", "4437": "s\u2019 e\u2019 ", "4438": "te al ", "4439": "te i\u2019 ", "4440": "ma a\u2019 ", "4441": "da un ", "4442": "cia i ", "4443": "tro e ", "4444": "ba in ", "4445": "te un ", "4446": "di io ", "4447": "ve al ", "4448": "za ha ", "4449": "ghi e ", "4450": "ci or ", "4451": "pi in ", "4452": "ia in ", "4453": "va io ", "4454": "no ed ", "4455": "ce u\u2019 ", "4456": "di \u2019n ", "4457": "c\u2019 ho ", "4458": "va or ", "4459": "ri al ", "4460": "pe ad ", "4461": "ch\u2019 a ", "4462": "le io ", "4463": "ma io ", "4464": "no u\u2019 ", "4465": "do in ", "4466": "do \u2019l ", "4467": "me al ", "4468": "ti a\u2019 ", "4469": "bi un ", "4470": "di \u00e8e ", "4471": "ce ed ", "4472": "po al ", "4473": "sti o ", "4474": "pe \u2019l ", "4475": "na or ", "4476": "glian ", "4477": "strar ", "4478": "la un ", "4479": "glior ", "4480": "v\u2019 \u00e8n ", "4481": "ni \u2019l ", "4482": "sco e ", "4483": "la al ", "4484": "li ad ", "4485": "li oh ", "4486": "s\u2019 i\u2019 ", "4487": "che \u2019 ", "4488": "di a\u2019 ", "4489": "se a\u2019 ", "4490": "stian ", "4491": "na un ", "4492": "be in ", "4493": "zio a ", "4494": "ca il ", "4495": "sta o ", "4496": "gue a ", "4497": "di il ", "4498": "che i ", "4499": "d\u2019 ei ", "4500": "mo ed ", "4501": "pre i ", "4502": "gia a ", "4503": "ro un ", "4504": "va ai ", "4505": "ra ad ", "4506": "no a\u2019 ", "4507": "di \u2019l ", "4508": "se io ", "4509": "li al ", "4510": "ca al ", "4511": "ta in ", "4512": "mo ha ", "4513": "ce ha ", "4514": "ge or ", "4515": "tro \u00e8 ", "4516": "se il ", "4517": "be ed ", "4518": "ri in ", "4519": "sce i ", "4520": "s\u00e9 il ", "4521": "gna \u00e8 ", "4522": "ni ed ", "4523": "v\u2019 or ", "4524": "chi \u00e8 ", "4525": "tu \u2019l ", "4526": "si \u2019n ", "4527": "do a\u2019 ", "4528": "ghiar ", "4529": "pri e ", "4530": "co i\u2019 ", "4531": "le un ", "4532": "be \u2019l ", "4533": "l\u00e0 \u2019l ", "4534": "va \u2019n ", "4535": "te io ", "4536": "va il ", "4537": "mi un ", "4538": "to al ", "4539": "le il ", "4540": "si il ", "4541": "to in ", "4542": "no al ", "4543": "re il ", "4544": "ne ai ", "4545": "mo \u2019l ", "4546": "re io ", "4547": "va ad ", "4548": "n\u00f2 \u2019l ", "4549": "ghiai ", "4550": "ba il ", "4551": "va ed ", "4552": "zi un ", "4553": "ch\u2019 \u00e8 ", "4554": "v\u2019 el ", "4555": "ri \u2019l ", "4556": "t\u00e0 \u2019l ", "4557": "gli e ", "4558": "re or ", "4559": "me io ", "4560": "chier ", "4561": "sciai ", "4562": "gno e ", "4563": "ca io ", "4564": "lo or ", "4565": "ne al ", "4566": "mi \u2019l ", "4567": "go \u2019l ", "4568": "de in ", "4569": "que e ", "4570": "ve ad ", "4571": "li ha ", "4572": "na il ", "4573": "d\u2019 e\u2019 ", "4574": "tri \u00e8 ", "4575": "pa or ", "4576": "gi al ", "4577": "ta io ", "4578": "stral ", "4579": "ste i ", "4580": "svuol ", "4581": "do un ", "4582": "te ai ", "4583": "do ha ", "4584": "fa \u2019l ", "4585": "stier ", "4586": "pri a ", "4587": "go al ", "4588": "se e\u2019 ", "4589": "stran ", "4590": "mi ad ", "4591": "de al ", "4592": "zi ad ", "4593": "le in ", "4594": "gliar ", "4595": "la \u2019l ", "4596": "sa un ", "4597": "ra il ", "4598": "ce in ", "4599": "me ai ", "4600": "r\u2019 al ", "4601": "che a ", "4602": "v\u2019 e\u2019 ", "4603": "d\u2019 io ", "4604": "da io ", "4605": "bo a\u2019 ", "4606": "se ir ", "4607": "praia ", "4608": "re ad ", "4609": "pr\u2019 a ", "4610": "re un ", "4611": "bi in ", "4612": "zo in ", "4613": "sme e ", "4614": "no un ", "4615": "mi in ", "4616": "mo il ", "4617": "to a\u2019 ", "4618": "ria \u2019 ", "4619": "tr\u2019 a ", "4620": "ta ha ", "4621": "te \u2019l ", "4622": "su in ", "4623": "vrien ", "4624": "ta or ", "4625": "me \u2019n ", "4626": "sciar ", "4627": "ro od ", "4628": "va al ", "4629": "cia a ", "4630": "da i\u2019 ", "4631": "ti ei ", "4632": "fu \u2019l ", "4633": "va un ", "4634": "co or ", "4635": "ti un ", "4636": "po il ", "4637": "r\u00f2 \u2019l ", "4638": "na ei ", "4639": "bro \u00e8 ", "4640": "te a\u2019 ", "4641": "ch\u00e9 a ", "4642": "ve un ", "4643": "re a\u2019 ", "4644": "ma \u2019n ", "4645": "ro ed ", "4646": "ni in ", "4647": "ne ed ", "4648": "co in ", "4649": "be un ", "4650": "bra o ", "4651": "chian ", "4652": "do il ", "4653": "sca i ", "4654": "se un ", "4655": "no ei ", "4656": "ci al ", "4657": "ra ed ", "4658": "mo ei ", "4659": "gio a ", "4660": "v\u2019 ha ", "4661": "vra i ", "4662": "va \u2019l ", "4663": "ne ha ", "4664": "sia e ", "4665": "co \u2019l ", "4666": "lio e ", "4667": "da il ", "4668": "bre e ", "4669": "si or ", "4670": "do ad ", "4671": "cio e ", "4672": "gua a ", "4673": "me un ", "4674": "se al ", "4675": "ste a ", "4676": "chiai ", "4677": "dio a ", "4678": "gluol ", "4679": "zio \u00e8 ", "4680": "na \u2019n ", "4681": "zo al ", "4682": "bio e ", "4683": "le \u2019l ", "4684": "lo a\u2019 ", "4685": "no ha ", "4686": "d\u2019 un ", "4687": "l\u2019 ho ", "4688": "bi il ", "4689": "rio a ", "4690": "ge il ", "4691": "sce a ", "4692": "ne ad ", "4693": "gra o ", "4694": "s\u2019 el ", "4695": "be i\u2019 ", "4696": "no io ", "4697": "pio a ", "4698": "mo al ", "4699": "ci \u2019l ", "4700": "sio e ", "4701": "ro or ", "4702": "me il ", "4703": "\u2019v\u2019 \u00e8 ", "4704": "d\u00f2 \u2019l ", "4705": "lia e ", "4706": "ge un ", "4707": "to ai ", "4708": "ne \u2019l ", "4709": "n\u00e9 \u2019l ", "4710": "bia e ", "4711": "li i\u2019 ", "4712": "ti ai ", "4713": "n\u2019 ha ", "4714": "no in ", "4715": "li il ", "4716": "te u\u2019 ", "4717": "ch\u00e9 i ", "4718": "l\u00e0 il ", "4719": "s\u2019 ei ", "4720": "stial ", "4721": "t\u00f2 \u2019l ", "4722": "gia e ", "4723": "fo or ", "4724": "chiar ", "4725": "lio \u00e8 ", "4726": "so \u2019l ", "4727": "co io ", "4728": "pie a ", "4729": "mi il ", "4730": "ro a\u2019 ", "4731": "mi al ", "4732": "ta \u2019l ", "4733": "vi in ", "4734": "t\u2019 el ", "4735": "vi un ", "4736": "gno \u00e8 ", "4737": "so a\u2019 ", "4738": "tra \u2019 ", "4739": "ra ha ", "4740": "temps ", "4741": "dro o ", "4742": "ge in ", "4743": "sa il ", "4744": "to or ", "4745": "b\u2019 io ", "4746": "zio e ", "4747": "tro a ", "4748": "schio ", "4749": "va a\u2019 ", "4750": "cio a ", "4751": "gliai ", "4752": "sta \u00e8 ", "4753": "te ed ", "4754": "de \u2019l ", "4755": "zi il ", "4756": "glien ", "4757": "chi e ", "4758": "gia \u00e8 ", "4759": "cia al ", "4760": "gno in ", "4761": "ch\u2019 e\u2019 ", "4762": "bia \u2019l ", "4763": "ti e i ", "4764": "glie e ", "4765": "ghi al ", "4766": "sta un ", "4767": "nio al ", "4768": "ch\u2019 ai ", "4769": "ste in ", "4770": "stie e ", "4771": "si e \u2019 ", "4772": "\u2019ve \u2019l ", "4773": "sto al ", "4774": "gna \u2019l ", "4775": "chio a ", "4776": "stra a ", "4777": "gliaio ", "4778": "pia in ", "4779": "ch\u2019 in ", "4780": "tra il ", "4781": "ba e \u2019 ", "4782": "sia \u2019l ", "4783": "tro i\u2019 ", "4784": "gno ad ", "4785": "scia o ", "4786": "t\u2019 ha\u2019 ", "4787": "tro a\u2019 ", "4788": "ci\u00f2 \u2019l ", "4789": "que or ", "4790": "cia in ", "4791": "gia \u2019l ", "4792": "sc\u2019 io ", "4793": "tre in ", "4794": "gno a\u2019 ", "4795": "rio ho ", "4796": "se\u2019 in ", "4797": "li ha\u2019 ", "4798": "gue il ", "4799": "sti ha ", "4800": "ro e \u2019 ", "4801": "tra al ", "4802": "tre al ", "4803": "pa e \u2019 ", "4804": "gi\u00f9 \u2019l ", "4805": "gia or ", "4806": "dri ai ", "4807": "ch\u2019 el ", "4808": "qua il ", "4809": "ch\u2019 un ", "4810": "tro \u2019l ", "4811": "gia il ", "4812": "c\u2019 hai ", "4813": "glio a ", "4814": "pria o ", "4815": "tri \u2019l ", "4816": "ci\u00f2 il ", "4817": "pi\u00f9 \u2019l ", "4818": "pi\u00e9 \u2019l ", "4819": "pre \u2019l ", "4820": "bra ad ", "4821": "stia e ", "4822": "tro un ", "4823": "gno ha ", "4824": "ch\u2019 ei ", "4825": "pu\u00f2 \u2019l ", "4826": "due \u2019l ", "4827": "c\u2019 ha\u2019 ", "4828": "ghio e ", "4829": "qui \u2019l ", "4830": "stio e ", "4831": "smo in ", "4832": "pre ha ", "4833": "qui un ", "4834": "di e \u2019 ", "4835": "ghi in ", "4836": "chi a\u2019 ", "4837": "chi in ", "4838": "gliuol ", "4839": "sta al ", "4840": "tra in ", "4841": "li han ", "4842": "ri e \u2019 ", "4843": "chia e ", "4844": "sta il ", "4845": "gio ha ", "4846": "tra \u2019l ", "4847": "che io ", "4848": "que ad ", "4849": "sti in ", "4850": "bra in ", "4851": "tr\u2019 io ", "4852": "chi \u2019l ", "4853": "gno or ", "4854": "gliuoi ", "4855": "tr\u2019 al ", "4856": "m\u2019 han ", "4857": "chio \u00e8 ", "4858": "ghia a ", "4859": "pria e ", "4860": "tro il ", "4861": "glia o ", "4862": "rio il ", "4863": "ch\u2019 io ", "4864": "ci e \u2019 ", "4865": "gli un ", "4866": "stro a ", "4867": "bra od ", "4868": "che al ", "4869": "na\u2019 il ", "4870": "chi ei ", "4871": "smo al ", "4872": "pra al ", "4873": "cio ed ", "4874": "zio al ", "4875": "que io ", "4876": "spra e ", "4877": "stra e ", "4878": "rio in ", "4879": "ch\u00e9 \u2019l ", "4880": "tre i\u2019 ", "4881": "tro al ", "4882": "ne e \u2019 ", "4883": "ch\u2019 or ", "4884": "glia a ", "4885": "gio il ", "4886": "sto il ", "4887": "ni e \u2019 ", "4888": "po e \u2019 ", "4889": "gio in ", "4890": "tre un ", "4891": "tre il ", "4892": "gio al ", "4893": "tro in ", "4894": "pre a\u2019 ", "4895": "gne al ", "4896": "gio ad ", "4897": "schiar ", "4898": "glia \u00e8 ", "4899": "qu\u2019 io ", "4900": "ch\u00e9 \u2019n ", "4901": "trio e ", "4902": "sco il ", "4903": "zia in ", "4904": "sta in ", "4905": "sto ha ", "4906": "gro un ", "4907": "ghiaio ", "4908": "cia ir ", "4909": "do hai ", "4910": "sa e \u2019 ", "4911": "bre a\u2019 ", "4912": "stri e ", "4913": "chio e ", "4914": "gi\u00e0 il ", "4915": "sce il ", "4916": "ne e i ", "4917": "l\u2019 uom ", "4918": "pre in ", "4919": "gno al ", "4920": "gia un ", "4921": "zie al ", "4922": "ch\u2019 al ", "4923": "rio ha ", "4924": "te han ", "4925": "cia il ", "4926": "gli al ", "4927": "sti \u2019l ", "4928": "tri ad ", "4929": "che \u2019n ", "4930": "ch\u2019 i\u2019 ", "4931": "gne \u2019l ", "4932": "qua io ", "4933": "m\u2019 hai ", "4934": "fra \u2019l ", "4935": "zia il ", "4936": "tra i\u2019 ", "4937": "bia in ", "4938": "stro \u00e8 ", "4939": "gua in ", "4940": "gue in ", "4941": "scia a ", "4942": "s\u2019 hai ", "4943": "chi \u2019n ", "4944": "sto in ", "4945": "st\u2019 ho ", "4946": "sc\u00ec \u2019l ", "4947": "lia il ", "4948": "gi\u00e0 \u2019l ", "4949": "vra \u2019l ", "4950": "dia \u2019l ", "4951": "glia e ", "4952": "sto io ", "4953": "dria e ", "4954": "dro in ", "4955": "ch\u2019 a\u2019 ", "4956": "stro i ", "4957": "che il ", "4958": "ti e \u2019 ", "4959": "ch\u2019 \u00e8i ", "4960": "che in ", "4961": "dre al ", "4962": "cia ad ", "4963": "ch\u00e9 il ", "4964": "ne han ", "4965": "tro ad ", "4966": "nia il ", "4967": "chi il ", "4968": "gno il ", "4969": "ro hai ", "4970": "scio a ", "4971": "tri or ", "4972": "ria al ", "4973": "ste il ", "4974": "chi ha ", "4975": "fia il ", "4976": "c\u2019 han ", "4977": "tr\u2019 a\u2019 ", "4978": "que i\u2019 ", "4979": "gli\u00f2 i ", "4980": "che a\u2019 ", "4981": "glio o ", "4982": "so\u2019 \u2019n ", "4983": "ch\u2019 ad ", "4984": "gna un ", "4985": "gl\u2019 io ", "4986": "vea \u2019l ", "4987": "sta \u2019n ", "4988": "gu\u00ec \u2019l ", "4989": "che \u2019l ", "4990": "que in ", "4991": "tro ha ", "4992": "di\u2019 \u2019l ", "4993": "che un ", "4994": "strans ", "4995": "tro ed ", "4996": "tri il ", "4997": "ria il ", "4998": "gno ed ", "4999": "que a\u2019 ", "5000": "qua al ", "5001": "ra hai ", "5002": "me e \u2019 ", "5003": "gna a\u2019 ", "5004": "tro io ", "5005": "scia e ", "5006": "gna in ", "5007": "pre al ", "5008": "que al ", "5009": "sti il ", "5010": "to hai ", "5011": "pra ed ", "5012": "bio ed ", "5013": "gna il ", "5014": "schi o ", "5015": "sto ad ", "5016": "so hai ", "5017": "cea il ", "5018": "que il ", "5019": "cia un ", "5020": "dio in ", "5021": "schi a ", "5022": "gni in ", "5023": "lio ed ", "5024": "glio e ", "5025": "l\u2019 hai ", "5026": "d\u2019 uom ", "5027": "sce in ", "5028": "stra \u00e8 ", "5029": "t\u2019 hai ", "5030": "chi al ", "5031": "sche o ", "5032": "mia al ", "5033": "stro o ", "5034": "ra han ", "5035": "ghi \u2019l ", "5036": "tro ai ", "5037": "va e i ", "5038": "n\u2019 uom ", "5039": "qua in ", "5040": "stro e ", "5041": "ni e i ", "5042": "se uom ", "5043": "pra \u2019l ", "5044": "ti han ", "5045": "ch\u2019 om ", "5046": "pra in ", "5047": "dia in ", "5048": "chio ha ", "5049": "lio e i ", "5050": "me e \u2019n ", "5051": "tr\u2019 ier ", "5052": "mo e \u2019l ", "5053": "bo e \u2019l ", "5054": "lo \u00e8 in ", "5055": "po e \u2019l ", "5056": "te e \u2019n ", "5057": "glio in ", "5058": "stri in ", "5059": "schia e ", "5060": "chio al ", "5061": "chio in ", "5062": "chia al ", "5063": "do e \u2019n ", "5064": "le e \u2019l ", "5065": "che e \u2019 ", "5066": "ce e \u2019l ", "5067": "la e \u2019l ", "5068": "vo e \u2019l ", "5069": "ga e \u2019l ", "5070": "glie in ", "5071": "stra \u2019l ", "5072": "tra e \u2019 ", "5073": "se e \u2019l ", "5074": "va e \u2019n ", "5075": "glio ai ", "5076": "gne uom ", "5077": "go e \u2019l ", "5078": "to \u00e8 \u2019l ", "5079": "bre e \u2019 ", "5080": "ro e \u2019l ", "5081": "qu\u2019 ieu ", "5082": "ta e \u2019n ", "5083": "ca e \u2019l ", "5084": "glia un ", "5085": "ma e \u2019l ", "5086": "de e \u2019l ", "5087": "glie \u2019l ", "5088": "zo e \u2019l ", "5089": "re e in ", "5090": "ti e \u2019l ", "5091": "v\u2019 \u00e8 in ", "5092": "stia ad ", "5093": "mi e \u2019l ", "5094": "to e \u2019l ", "5095": "co e \u2019l ", "5096": "me e \u2019l ", "5097": "ne e \u2019l ", "5098": "stro ed ", "5099": "ra e \u2019l ", "5100": "de e \u2019n ", "5101": "ta e \u2019l ", "5102": "m\u2019 \u00e8 \u2019l ", "5103": "va e \u2019l ", "5104": "l\u2019 \u00e8 \u2019l ", "5105": "so e \u2019l ", "5106": "glia in ", "5107": "sa e \u2019l ", "5108": "re e \u2019l ", "5109": "te e \u2019l ", "5110": "chio il ", "5111": "be e \u2019l ", "5112": "dre e \u2019 ", "5113": "glia al ", "5114": "no e \u2019l ", "5115": "ch\u2019 uom ", "5116": "go \u00e8 in ", "5117": "na e \u2019l ", "5118": "stro in ", "5119": "glia il ", "5120": "sci\u00f2 il ", "5121": "le e il ", "5122": "to o al ", "5123": "scia il ", "5124": "stro or ", "5125": "m\u2019 \u00e8 il ", "5126": "ci e \u2019l ", "5127": "si e \u2019l ", "5128": "v\u2019 \u00e8 \u2019l ", "5129": "za e \u2019l ", "5130": "stro il ", "5131": "glio or ", "5132": "schio e ", "5133": "stra il ", "5134": "dia e i ", "5135": "s\u2019 i\u2019 \u2019l ", "5136": "pra e \u2019l ", "5137": "tro e \u2019l ", "5138": "sta \u00e8 in ", "5139": "zie e \u2019l ", "5140": "sti \u00e8 \u2019l ", "5141": "tra e \u2019l ", "5142": "st\u2019 \u00e8 \u2019l ", "5143": "tre e \u2019l ", "5144": "bra e \u2019l ", "5145": "tri e \u2019l ", "5146": "zio e \u2019l ", "5147": "tr\u2019 \u00e8 \u2019l ", "5148": "stie hai ", "5149": "schi uom ", "5150": "bia e \u2019l ", "5151": "chi e \u2019l ", "5152": "so ha \u2019l ", "5153": "ria \u00e8 \u2019l ", "5154": "c\u2019 ha \u2019l ", "5155": "dio e \u2019l ", "5156": "ch\u2019 \u00e8 in ", "5157": "sta e \u2019l ", "5158": "v\u2019 ha \u2019l ", "5159": "dre e \u2019l ", "5160": "que e \u2019l ", "5161": "gli e in ", "5162": "d\u2019 io \u2019l ", "5163": "gio e \u2019l ", "5164": "dio \u00e8 \u2019l ", "5165": "l\u2019 ha in ", "5166": "to ha \u2019l ", "5167": "cia e \u2019l ", "5168": "ria e \u2019l ", "5169": "te ha in ", "5170": "chie e \u2019n ", "5171": "ch\u2019 io \u2019l ", "5172": "glio e \u2019l ", "5173": "stro e \u2019l ", "5174": "chio e \u2019l ", "5175": "chio o \u2019l ", "5176": "scia e \u2019l ", "5177": "ch\u2019 i\u2019 \u2019l "}