{"0": "", "1": "<v>", "2": "</v>", "3": "<t>", "4": "</t>", "5": "\u00fc", "6": "a", "7": "i", "8": "\u00e9", "9": "o", "10": "\u00f2", "11": "\u00e8", "12": "u", "13": "\u00ef", "14": "e", "15": "id", "16": "ex", "17": "om", "18": "d\u00e9", "19": "ov", "20": "ri", "21": "to", "22": "l\u00eb", "23": "fi", "24": "pu", "25": "t\u00eb", "26": "r\u00f3", "27": "s\u00f9", "28": "of", "29": "d\u00eb", "30": "da", "31": "gi", "32": "ca", "33": "on", "34": "ef", "35": "tu", "36": "vu", "37": "go", "38": "n\u00f2", "39": "nu", "40": "n\u00ef", "41": "l\u00f6", "42": "l\u00e0", "43": "v\u00ef", "44": "am", "45": "de", "46": "lo", "47": "pi", "48": "di", "49": "c\u00f9", "50": "l\u00ec", "51": "la", "52": "si", "53": "ta", "54": "r\u00e8", "55": "eb", "56": "\u00e8v", "57": "m\u00e8", "58": "fo", "59": "g\u00ef", "60": "bi", "61": "im", "62": "p\u00eb", "63": "m\u00ec", "64": "\u00e8n", "65": "p\u00ef", "66": "an", "67": "p\u00fc", "68": "em", "69": "no", "70": "ha", "71": "te", "72": "v\u00e9", "73": "l\u00e8", "74": "s\u00eb", "75": "oc", "76": "n\u00e8", "77": "t\u00ec", "78": "li", "79": "ap", "80": "uc", "81": "m\u00e4", "82": "v\u00f2", "83": "ne", "84": "bo", "85": "v\u00e8", "86": "re", "87": "pe", "88": "v\u00e4", "89": "za", "90": "t\u00f2", "91": "ci", "92": "et", "93": "af", "94": "ge", "95": "un", "96": "s\u00e0", "97": "c\u00ef", "98": "zo", "99": "f\u00ef", "100": "zi", "101": "su", "102": "t\u00e8", "103": "ae", "104": "io", "105": "il", "106": "is", "107": "ie", "108": "ad", "109": "al", "110": "so", "111": "og", "112": "f\u00eb", "113": "f\u00e9", "114": "au", "115": "m\u00ef", "116": "op", "117": "or", "118": "t\u00fc", "119": "g\u00f3", "120": "lu", "121": "n\u00eb", "122": "v\u00eb", "123": "g\u00fc", "124": "fa", "125": "ir", "126": "ti", "127": "g\u00e8", "128": "ce", "129": "l\u00ef", "130": "in", "131": "ur", "132": "du", "133": "ma", "134": "s\u00fc", "135": "va", "136": "ol", "137": "c\u00ec", "138": "ob", "139": "ni", "140": "b\u00ef", "141": "ac", "142": "do", "143": "sa", "144": "ag", "145": "as", "146": "ul", "147": "s\u00ef", "148": "b\u00eb", "149": "ga", "150": "s\u00e9", "151": "fu", "152": "le", "153": "el", "154": "m\u00eb", "155": "ve", "156": "en", "157": "ec", "158": "eu", "159": "iu", "160": "er", "161": "ba", "162": "ab", "163": "ar", "164": "az", "165": "be", "166": "mi", "167": "mu", "168": "na", "169": "ze", "170": "mo", "171": "ho", "172": "p\u00f2", "173": "os", "174": "ia", "175": "se", "176": "me", "177": "s\u00f2", "178": "l\u00fc", "179": "pa", "180": "xi", "181": "t\u00ef", "182": "d\u00ef", "183": "po", "184": "ru", "185": "c\u00fc", "186": "vi", "187": "z\u00ef", "188": "co", "189": "bu", "190": "f\u00f3", "191": "ra", "192": "fe", "193": "es", "194": "\u00f2s", "195": "t\u00e4", "196": "r\u00ef", "197": "vo", "198": "uo", "199": "p\u00e8", "200": "r\u00eb", "201": "ro", "202": "g\u00eb", "203": "d\u00fc", "204": "n\u00fc", "205": "ot", "206": "cu", "207": "at", "208": "av", "209": "c\u00eb", "210": "r\u00e0", "211": "p\u00ec", "212": "gu", "213": "l\u00f2", "214": "mie", "215": "lin", "216": "die", "217": "lec", "218": "ch\u00ec", "219": "qui", "220": "raz", "221": "biz", "222": "bac", "223": "nem", "224": "sve", "225": "saf", "226": "giu", "227": "dos", "228": "pon", "229": "dor", "230": "ple", "231": "ghe", "232": "sag", "233": "man", "234": "mug", "235": "tel", "236": "bri", "237": "dan", "238": "nio", "239": "nom", "240": "pir", "241": "dic", "242": "zuc", "243": "les", "244": "put", "245": "gea", "246": "let", "247": "c\u00e9r", "248": "red", "249": "nig", "250": "nia", "251": "dri", "252": "ron", "253": "sga", "254": "dio", "255": "muo", "256": "mel", "257": "das", "258": "sfe", "259": "mic", "260": "dop", "261": "fle", "262": "tuc", "263": "cia", "264": "pap", "265": "ner", "266": "pun", "267": "mez", "268": "piu", "269": "puc", "270": "dea", "271": "mur", "272": "gne", "273": "rup", "274": "pis", "275": "vez", "276": "fac", "277": "den", "278": "tau", "279": "loc", "280": "f\u00e9l", "281": "r\u00e8g", "282": "sto", "283": "cit", "284": "con", "285": "lai", "286": "bet", "287": "nuo", "288": "fom", "289": "nul", "290": "sis", "291": "fuc", "292": "tre", "293": "gua", "294": "tim", "295": "lap", "296": "nin", "297": "soz", "298": "sus", "299": "gir", "300": "gam", "301": "pan", "302": "len", "303": "nev", "304": "fic", "305": "ste", "306": "mot", "307": "tom", "308": "cop", "309": "spa", "310": "ros", "311": "nef", "312": "nis", "313": "mac", "314": "fin", "315": "fos", "316": "ver", "317": "spu", "318": "sc\u00ef", "319": "neb", "320": "fia", "321": "qua", "322": "pet", "323": "rim", "324": "pin", "325": "laz", "326": "svo", "327": "tor", "328": "pop", "329": "fem", "330": "pl\u00ec", "331": "sar", "332": "sun", "333": "non", "334": "mul", "335": "smo", "336": "mas", "337": "gur", "338": "dov", "339": "sat", "340": "tuo", "341": "nil", "342": "f\u00e0c", "343": "del", "344": "spe", "345": "meg", "346": "luo", "347": "bel", "348": "lur", "349": "cal", "350": "cis", "351": "que", "352": "sle", "353": "zar", "354": "gui", "355": "nen", "356": "rem", "357": "lem", "358": "rof", "359": "gli", "360": "pen", "361": "br\u00ef", "362": "maz", "363": "fel", "364": "far", "365": "lie", "366": "smu", "367": "rar", "368": "mos", "369": "cor", "370": "vel", "371": "boc", "372": "pol", "373": "nar", "374": "bre", "375": "ril", "376": "fal", "377": "sob", "378": "vet", "379": "raf", "380": "tal", "381": "zel", "382": "cun", "383": "fru", "384": "rir", "385": "bli", "386": "reb", "387": "gem", "388": "tun", "389": "sno", "390": "tri", "391": "fet", "392": "coz", "393": "per", "394": "cra", "395": "buo", "396": "var", "397": "cui", "398": "che", "399": "ler", "400": "lir", "401": "ria", "402": "sur", "403": "zon", "404": "for", "405": "ton", "406": "cov", "407": "get", "408": "gol", "409": "\u2018ne", "410": "sol", "411": "goc", "412": "pit", "413": "rid", "414": "veg", "415": "bar", "416": "top", "417": "tie", "418": "voi", "419": "fes", "420": "min", "421": "guc", "422": "nob", "423": "gag", "424": "fun", "425": "nat", "426": "tam", "427": "ben", "428": "por", "429": "lab", "430": "luc", "431": "gob", "432": "sal", "433": "lis", "434": "caf", "435": "mol", "436": "tir", "437": "fla", "438": "tet", "439": "sci", "440": "iat", "441": "sit", "442": "sen", "443": "gen", "444": "fib", "445": "vac", "446": "fer", "447": "buf", "448": "din", "449": "nan", "450": "cos", "451": "fam", "452": "ges", "453": "bro", "454": "spo", "455": "soc", "456": "dif", "457": "cul", "458": "pro", "459": "fug", "460": "ful", "461": "iep", "462": "ren", "463": "paz", "464": "lor", "465": "jau", "466": "nur", "467": "lom", "468": "gue", "469": "fum", "470": "pau", "471": "gat", "472": "nez", "473": "gil", "474": "bol", "475": "feg", "476": "zia", "477": "pi\u00e9", "478": "nac", "479": "dis", "480": "o e", "481": "nal", "482": "clo", "483": "bie", "484": "cea", "485": "ras", "486": "rot", "487": "vol", "488": "gel", "489": "lop", "490": "tro", "491": "rut", "492": "ciu", "493": "mun", "494": "cac", "495": "reg", "496": "sco", "497": "dau", "498": "fio", "499": "mer", "500": "lon", "501": "lil", "502": "t\u00f2m", "503": "poc", "504": "fas", "505": "sp\u00ef", "506": "bl\u00ef", "507": "pel", "508": "ger", "509": "svi", "510": "cep", "511": "ruo", "512": "cam", "513": "feb", "514": "dug", "515": "sup", "516": "fre", "517": "sfa", "518": "fri", "519": "boz", "520": "leg", "521": "cl\u00ef", "522": "ian", "523": "suc", "524": "ric", "525": "ram", "526": "c\u00f3l", "527": "sfo", "528": "lat", "529": "fab", "530": "noc", "531": "sti", "532": "tis", "533": "vuo", "534": "tle", "535": "bef", "536": "plo", "537": "sof", "538": "von", "539": "gnu", "540": "noz", "541": "run", "542": "bal", "543": "mor", "544": "m\u00e8c", "545": "bea", "546": "dre", "547": "zaf", "548": "scu", "549": "fuo", "550": "tra", "551": "ter", "552": "pul", "553": "sma", "554": "bio", "555": "sod", "556": "p\u00e0r", "557": "tea", "558": "bis", "559": "rob", "560": "pai", "561": "rin", "562": "pic", "563": "gio", "564": "lui", "565": "sam", "566": "rio", "567": "mon", "568": "gon", "569": "buc", "570": "tad", "571": "tin", "572": "sta", "573": "not", "574": "vil", "575": "lan", "576": "lit", "577": "cef", "578": "sac", "579": "tos", "580": "nun", "581": "pog", "582": "cli", "583": "dur", "584": "lea", "585": "bom", "586": "quo", "587": "rit", "588": "xil", "589": "geo", "590": "nel", "591": "tec", "592": "mam", "593": "gni", "594": "dol", "595": "seg", "596": "lus", "597": "gad", "598": "det", "599": "sas", "600": "bec", "601": "guo", "602": "rol", "603": "teg", "604": "zio", "605": "san", "606": "cap", "607": "sme", "608": "vie", "609": "\u2018la", "610": "deb", "611": "niz", "612": "nor", "613": "sab", "614": "pal", "615": "lam", "616": "lip", "617": "sie", "618": "pom", "619": "ser", "620": "sna", "621": "dei", "622": "sov", "623": "fiu", "624": "tuf", "625": "rez", "626": "van", "627": "ten", "628": "tut", "629": "duo", "630": "lic", "631": "rac", "632": "nie", "633": "ces", "634": "ior", "635": "pot", "636": "mem", "637": "cuc", "638": "sez", "639": "dia", "640": "vas", "641": "pes", "642": "pla", "643": "cel", "644": "dob", "645": "tag", "646": "tem", "647": "mia", "648": "dil", "649": "tur", "650": "sil", "651": "bru", "652": "sub", "653": "neg", "654": "sic", "655": "dun", "656": "a a", "657": "bra", "658": "cat", "659": "rel", "660": "nes", "661": "qu\u00ef", "662": "diz", "663": "cuo", "664": "sud", "665": "peg", "666": "vin", "667": "p\u00f2s", "668": "rog", "669": "mil", "670": "cur", "671": "vir", "672": "bon", "673": "sbi", "674": "dul", "675": "bai", "676": "luz", "677": "rec", "678": "ruf", "679": "cin", "680": "cum", "681": "fig", "682": "cet", "683": "chi", "684": "leb", "685": "nec", "686": "gna", "687": "fau", "688": "ruc", "689": "gis", "690": "pre", "691": "col", "692": "mes", "693": "lez", "694": "muc", "695": "bat", "696": "rab", "697": "dub", "698": "dut", "699": "dim", "700": "guz", "701": "ban", "702": "sv\u00ef", "703": "bas", "704": "fog", "705": "puo", "706": "sop", "707": "clu", "708": "rig", "709": "gie", "710": "cru", "711": "gor", "712": "vid", "713": "sin", "714": "fur", "715": "zac", "716": "pie", "717": "gim", "718": "rav", "719": "rom", "720": "cir", "721": "flu", "722": "sog", "723": "pia", "724": "nol", "725": "smi", "726": "gau", "727": "nir", "728": "\u2018be", "729": "mai", "730": "tan", "731": "tez", "732": "cob", "733": "stu", "734": "bia", "735": "lul", "736": "lar", "737": "tat", "738": "sia", "739": "vat", "740": "rea", "741": "dir", "742": "val", "743": "bui", "744": "glo", "745": "sor", "746": "gra", "747": "car", "748": "sot", "749": "giz", "750": "sos", "751": "fro", "752": "tes", "753": "pru", "754": "cie", "755": "nag", "756": "dez", "757": "mal", "758": "m\u00e9z", "759": "iar", "760": "sra", "761": "e a", "762": "mar", "763": "riz", "764": "suf", "765": "vag", "766": "sap", "767": "gaz", "768": "zur", "769": "lav", "770": "moz", "771": "sau", "772": "gib", "773": "gom", "774": "bab", "775": "fan", "776": "poz", "777": "cil", "778": "vec", "779": "bor", "780": "vom", "781": "bur", "782": "sr\u00e4", "783": "til", "784": "mag", "785": "dit", "786": "plu", "787": "cot", "788": "but", "789": "pra", "790": "suo", "791": "sug", "792": "v\u00f2l", "793": "sca", "794": "fen", "795": "net", "796": "ves", "797": "gan", "798": "can", "799": "gia", "800": "pli", "801": "cla", "802": "pas", "803": "dro", "804": "pri", "805": "viz", "806": "zan", "807": "gri", "808": "spi", "809": "bug", "810": "dem", "811": "ven", "812": "roc", "813": "rap", "814": "hon", "815": "goz", "816": "sep", "817": "nas", "818": "zuf", "819": "pac", "820": "tac", "821": "dam", "822": "ris", "823": "lup", "824": "coc", "825": "pig", "826": "vam", "827": "cen", "828": "gal", "829": "rag", "830": "sel", "831": "res", "832": "ran", "833": "ret", "834": "nuc", "835": "sum", "836": "som", "837": "puz", "838": "cre", "839": "set", "840": "st\u00ef", "841": "sla", "842": "ber", "843": "sgo", "844": "lau", "845": "tol", "846": "cr\u00e0", "847": "lia", "848": "cau", "849": "gar", "850": "cad", "851": "sba", "852": "bil", "853": "fit", "854": "dar", "855": "lim", "856": "bev", "857": "nic", "858": "son", "859": "dra", "860": "lac", "861": "com", "862": "lel", "863": "piz", "864": "roz", "865": "cer", "866": "rat", "867": "ch\u00ef", "868": "bul", "869": "dr\u00ef", "870": "gre", "871": "ahi", "872": "pos", "873": "tic", "874": "men", "875": "fat", "876": "vem", "877": "rug", "878": "cez", "879": "dat", "880": "par", "881": "gru", "882": "fra", "883": "rie", "884": "cro", "885": "git", "886": "tru", "887": "sec", "888": "ier", "889": "pil", "890": "deg", "891": "ses", "892": "gas", "893": "fol", "894": "met", "895": "toc", "896": "dec", "897": "tar", "898": "pat", "899": "cag", "900": "dal", "901": "vor", "902": "las", "903": "bot", "904": "sde", "905": "ghi", "906": "doc", "907": "cem", "908": "bin", "909": "nai", "910": "mat", "911": "vul", "912": "sce", "913": "pio", "914": "a u", "915": "des", "916": "dot", "917": "t\u00f2r", "918": "bun", "919": "gab", "920": "dr\u00e4", "921": "der", "922": "fon", "923": "lot", "924": "dru", "925": "vis", "926": "sev", "927": "lut", "928": "tr\u00ef", "929": "lep", "930": "sio", "931": "cic", "932": "don", "933": "cas", "934": "dom", "935": "gno", "936": "got", "937": "ral", "938": "cio", "939": "tho", "940": "lun", "941": "pec", "942": "tas", "943": "pur", "944": "nim", "945": "cri", "946": "muf", "947": "sem", "948": "han", "949": "cle", "950": "mir", "951": "fis", "952": "o u", "953": "vit", "954": "fie", "955": "dus", "956": "o a", "957": "pub", "958": "stri", "959": "scuo", "960": "cher", "961": "flit", "962": "la e", "963": "pi i", "964": "piog", "965": "fiot", "966": "graf", "967": "ge o", "968": "spel", "969": "d\u2019 o", "970": "scin", "971": "scer", "972": "ta i", "973": "gron", "974": "\u2019vun", "975": "te u", "976": "ciom", "977": "scio", "978": "brot", "979": "la a", "980": "me o", "981": "sper", "982": "po o", "983": "ro u", "984": "pi a", "985": "scev", "986": "spit", "987": "stan", "988": "o al", "989": "zi u", "990": "da a", "991": "mi u", "992": "sa a", "993": "sdru", "994": "me i", "995": "biet", "996": "pren", "997": "de i", "998": "flig", "999": "bo i", "1000": "dran", "1001": "d\u2019 i", "1002": "tran", "1003": "sfac", "1004": "di o", "1005": "no o", "1006": "scal", "1007": "sdet", "1008": "r\u2019 u", "1009": "na o", "1010": "cion", "1011": "zi e", "1012": "ghie", "1013": "sven", "1014": "trag", "1015": "me a", "1016": "scie", "1017": "za a", "1018": "ve i", "1019": "scot", "1020": "stia", "1021": "ster", "1022": "giun", "1023": "spun", "1024": "d\u2019 a", "1025": "pa e", "1026": "ri e", "1027": "li u", "1028": "ciot", "1029": "stre", "1030": "na u", "1031": "scab", "1032": "s\u2019 a", "1033": "mi e", "1034": "gnaz", "1035": "pian", "1036": "stec", "1037": "zo a", "1038": "sden", "1039": "s\u00ec i", "1040": "stol", "1041": "spaz", "1042": "s\u2019 \u00ef", "1043": "stas", "1044": "si o", "1045": "bran", "1046": "pi e", "1047": "ta a", "1048": "piov", "1049": "prie", "1050": "qual", "1051": "te e", "1052": "no e", "1053": "go a", "1054": "troc", "1055": "grem", "1056": "d\u2019 e", "1057": "t\u2019 u", "1058": "bi a", "1059": "e in", "1060": "bren", "1061": "grez", "1062": "stop", "1063": "dien", "1064": "clas", "1065": "m\u2019 o", "1066": "mo e", "1067": "ro e", "1068": "be i", "1069": "be a", "1070": "stis", "1071": "la i", "1072": "gnel", "1073": "li a", "1074": "trie", "1075": "se \u00eb", "1076": "a in", "1077": "guar", "1078": "sber", "1079": "z\u2019 i", "1080": "ne e", "1081": "ci a", "1082": "stiz", "1083": "quil", "1084": "s\u00ec a", "1085": "trat", "1086": "ti i", "1087": "sgra", "1088": "stra", "1089": "gnem", "1090": "crol", "1091": "smor", "1092": "pe e", "1093": "ra u", "1094": "sbar", "1095": "trec", "1096": "va i", "1097": "si e", "1098": "sdeg", "1099": "stam", "1100": "gnen", "1101": "ra o", "1102": "si a", "1103": "spia", "1104": "spet", "1105": "ro a", "1106": "ni a", "1107": "trac", "1108": "ta o", "1109": "l\u00ec e", "1110": "n\u2019 o", "1111": "pric", "1112": "be u", "1113": "dras", "1114": "scoc", "1115": "trot", "1116": "po e", "1117": "ve u", "1118": "mo o", "1119": "scuf", "1120": "l\u2019 \u00f2", "1121": "co e", "1122": "prir", "1123": "no u", "1124": "gnan", "1125": "va e", "1126": "ra e", "1127": "gnon", "1128": "ples", "1129": "chil", "1130": "stor", "1131": "scam", "1132": "ie a", "1133": "mo a", "1134": "treb", "1135": "be o", "1136": "sfio", "1137": "guiz", "1138": "plau", "1139": "guag", "1140": "scan", "1141": "sneb", "1142": "zi o", "1143": "trop", "1144": "pa u", "1145": "scis", "1146": "fioc", "1147": "ghia", "1148": "pran", "1149": "gual", "1150": "l\u00ec a", "1151": "ziar", "1152": "slac", "1153": "m\u2019 a", "1154": "li \u2019", "1155": "di i", "1156": "snel", "1157": "e ar", "1158": "scac", "1159": "ma e", "1160": "fian", "1161": "o ar", "1162": "gnor", "1163": "le o", "1164": "grop", "1165": "cruc", "1166": "brie", "1167": "ciul", "1168": "span", "1169": "ve a", "1170": "egyp", "1171": "pris", "1172": "chia", "1173": "so u", "1174": "le a", "1175": "to e", "1176": "ghio", "1177": "star", "1178": "fiam", "1179": "cioc", "1180": "ze o", "1181": "re u", "1182": "guen", "1183": "spal", "1184": "s\u2019 i", "1185": "da u", "1186": "so i", "1187": "stem", "1188": "no i", "1189": "scir", "1190": "do u", "1191": "guer", "1192": "ghir", "1193": "frat", "1194": "di a", "1195": "piac", "1196": "guet", "1197": "ni o", "1198": "lo e", "1199": "gheg", "1200": "lo u", "1201": "drit", "1202": "le e", "1203": "guel", "1204": "vi o", "1205": "te a", "1206": "scia", "1207": "spol", "1208": "re i", "1209": "ce o", "1210": "spre", "1211": "de u", "1212": "giuo", "1213": "se a", "1214": "ca o", "1215": "\u00e8 in", "1216": "dies", "1217": "za o", "1218": "lo o", "1219": "str\u00e0", "1220": "ni u", "1221": "ciap", "1222": "ghet", "1223": "gher", "1224": "pros", "1225": "bo e", "1226": "dram", "1227": "gior", "1228": "zo e", "1229": "ti e", "1230": "\u00e8 im", "1231": "ci e", "1232": "trap", "1233": "l\u2019 o", "1234": "gros", "1235": "crea", "1236": "l\u2019 u", "1237": "sa u", "1238": "sgom", "1239": "s\u2019 o", "1240": "scen", "1241": "scet", "1242": "da e", "1243": "ca u", "1244": "a ef", "1245": "gran", "1246": "mian", "1247": "sten", "1248": "grep", "1249": "schi", "1250": "broc", "1251": "za u", "1252": "trom", "1253": "stel", "1254": "a ac", "1255": "liev", "1256": "sver", "1257": "cien", "1258": "chet", "1259": "guaz", "1260": "trul", "1261": "spir", "1262": "to o", "1263": "s\u2019 u", "1264": "stin", "1265": "scol", "1266": "giug", "1267": "co o", "1268": "ciuo", "1269": "c\u2019 \u00ef", "1270": "ca a", "1271": "ni e", "1272": "pien", "1273": "stru", "1274": "puos", "1275": "scel", "1276": "mo u", "1277": "scri", "1278": "brug", "1279": "trar", "1280": "m\u2019 i", "1281": "to a", "1282": "brez", "1283": "gram", "1284": "trai", "1285": "no a", "1286": "ciar", "1287": "grie", "1288": "p\u2019 e", "1289": "tier", "1290": "quan", "1291": "fron", "1292": "sfor", "1293": "gi e", "1294": "frut", "1295": "biac", "1296": "a al", "1297": "do e", "1298": "l\u2019 a", "1299": "ze e", "1300": "squa", "1301": "ma u", "1302": "d\u2019 u", "1303": "bo a", "1304": "gres", "1305": "sbri", "1306": "do o", "1307": "stet", "1308": "guef", "1309": "na i", "1310": "cheg", "1311": "a am", "1312": "se u", "1313": "ce e", "1314": "clau", "1315": "me e", "1316": "ti o", "1317": "scre", "1318": "l\u2019 i", "1319": "glio", "1320": "r\u2019 o", "1321": "chis", "1322": "bris", "1323": "gial", "1324": "gnuo", "1325": "sfan", "1326": "tien", "1327": "sciu", "1328": "gian", "1329": "re o", "1330": "driz", "1331": "gi u", "1332": "spie", "1333": "stie", "1334": "zian", "1335": "ne u", "1336": "glia", "1337": "cric", "1338": "dier", "1339": "pron", "1340": "quen", "1341": "spec", "1342": "spro", "1343": "grot", "1344": "na e", "1345": "guan", "1346": "ga o", "1347": "so a", "1348": "z\u2019 o", "1349": "gien", "1350": "le i", "1351": "r\u00ec u", "1352": "ti a", "1353": "dhae", "1354": "spen", "1355": "sfer", "1356": "scro", "1357": "vo o", "1358": "ghel", "1359": "sgri", "1360": "le u", "1361": "drap", "1362": "guir", "1363": "sgor", "1364": "stul", "1365": "ma a", "1366": "z\u2019 a", "1367": "giar", "1368": "puom", "1369": "ci u", "1370": "smoz", "1371": "ge a", "1372": "scom", "1373": "fior", "1374": "d\u2019 \u00ef", "1375": "cras", "1376": "sanc", "1377": "spor", "1378": "vi a", "1379": "se o", "1380": "ne o", "1381": "chiu", "1382": "stuo", "1383": "m\u2019 e", "1384": "ra i", "1385": "fran", "1386": "tror", "1387": "se e", "1388": "stes", "1389": "tras", "1390": "ra a", "1391": "c\u2019 o", "1392": "quel", "1393": "pres", "1394": "o av", "1395": "za i", "1396": "te i", "1397": "bian", "1398": "piag", "1399": "ga e", "1400": "plan", "1401": "glie", "1402": "proc", "1403": "ti u", "1404": "a es", "1405": "stal", "1406": "guit", "1407": "spin", "1408": "grom", "1409": "creb", "1410": "na a", "1411": "va u", "1412": "mo i", "1413": "stav", "1414": "tram", "1415": "me u", "1416": "grat", "1417": "brul", "1418": "de a", "1419": "vuol", "1420": "scop", "1421": "stig", "1422": "di e", "1423": "pe i", "1424": "fret", "1425": "scar", "1426": "n\u2019 u", "1427": "spes", "1428": "tron", "1429": "smal", "1430": "s\u2019 e", "1431": "va o", "1432": "quar", "1433": "piom", "1434": "brut", "1435": "fles", "1436": "gnas", "1437": "e \u2019n", "1438": "puol", "1439": "se i", "1440": "ro i", "1441": "brac", "1442": "mi o", "1443": "gias", "1444": "\u2018glo", "1445": "ghez", "1446": "n\u2019 e", "1447": "v\u2019 a", "1448": "li o", "1449": "spar", "1450": "sban", "1451": "bion", "1452": "brol", "1453": "tret", "1454": "v\u2019 e", "1455": "d\u2019 \u00eb", "1456": "ciac", "1457": "pier", "1458": "spic", "1459": "viem", "1460": "li e", "1461": "piez", "1462": "scon", "1463": "quer", "1464": "cian", "1465": "l\u2019 e", "1466": "de e", "1467": "to u", "1468": "spuo", "1469": "be e", "1470": "te o", "1471": "nian", "1472": "pruo", "1473": "gnie", "1474": "ciel", "1475": "squi", "1476": "v\u2019 o", "1477": "chio", "1478": "tiem", "1479": "g\u2019 \u00ef", "1480": "ta u", "1481": "ghes", "1482": "la u", "1483": "t\u2019 e", "1484": "chie", "1485": "smar", "1486": "ma o", "1487": "truo", "1488": "greg", "1489": "ta e", "1490": "glau", "1491": "c\u2019 e", "1492": "smen", "1493": "t\u2019 a", "1494": "la o", "1495": "flet", "1496": "lo a", "1497": "to i", "1498": "sa e", "1499": "ce a", "1500": "gnar", "1501": "sman", "1502": "chez", "1503": "de o", "1504": "fiac", "1505": "co u", "1506": "ne a", "1507": "guic", "1508": "scem", "1509": "sa o", "1510": "po u", "1511": "da o", "1512": "n\u2019 a", "1513": "ri u", "1514": "ca e", "1515": "sgan", "1516": "fred", "1517": "vi e", "1518": "go e", "1519": "quat", "1520": "smon", "1521": "ciuf", "1522": "scor", "1523": "svel", "1524": "so e", "1525": "do i", "1526": "spon", "1527": "re e", "1528": "quin", "1529": "giam", "1530": "stil", "1531": "guil", "1532": "scos", "1533": "quis", "1534": "tren", "1535": "re a", "1536": "glet", "1537": "scaz", "1538": "vien", "1539": "sfre", "1540": "sfat", "1541": "scim", "1542": "va a", "1543": "bias", "1544": "po a", "1545": "sfar", "1546": "so o", "1547": "bron", "1548": "sfam", "1549": "sche", "1550": "dian", "1551": "ce u", "1552": "ro o", "1553": "prin", "1554": "cias", "1555": "prez", "1556": "stuc", "1557": "clis", "1558": "clug", "1559": "buon", "1560": "piat", "1561": "ci o", "1562": "di u", "1563": "si u", "1564": "gner", "1565": "spez", "1566": "giot", "1567": "sfin", "1568": "gras", "1569": "grap", "1570": "co a", "1571": "stro", "1572": "t\u2019 o", "1573": "scov", "1574": "scic", "1575": "sbra", "1576": "si i", "1577": "blan", "1578": "do a", "1579": "giac", "1580": "ghil", "1581": "stio", "1582": "to in", "1583": "di og", "1584": "se ac", "1585": "v\u2019 el", "1586": "ne in", "1587": "ti \u2019m", "1588": "tro a", "1589": "l\u2019 en", "1590": "vi al", "1591": "po av", "1592": "m\u2019 af", "1593": "sa an", "1594": "zio u", "1595": "so ab", "1596": "di ol", "1597": "l\u2019 at", "1598": "t\u00e0 in", "1599": "s\u2019 av", "1600": "scias", "1601": "chiet", "1602": "ia an", "1603": "ne af", "1604": "ri al", "1605": "l\u2019 af", "1606": "s\u2019 as", "1607": "ti en", "1608": "te or", "1609": "l\u2019 in", "1610": "ba in", "1611": "se op", "1612": "le al", "1613": "to af", "1614": "z\u2019 es", "1615": "to al", "1616": "ci or", "1617": "ga an", "1618": "li in", "1619": "s\u2019 ab", "1620": "to et", "1621": "ro ac", "1622": "m\u2019 ab", "1623": "l\u2019 el", "1624": "co ar", "1625": "vi am", "1626": "me at", "1627": "sa ol", "1628": "ra at", "1629": "lo at", "1630": "mo ac", "1631": "di af", "1632": "de eu", "1633": "sciam", "1634": "la of", "1635": "go in", "1636": "sa ap", "1637": "fe et", "1638": "t\u2019 es", "1639": "le in", "1640": "le \u2019m", "1641": "z\u2019 ar", "1642": "do ap", "1643": "ne ag", "1644": "m\u2019 ag", "1645": "di of", "1646": "tra a", "1647": "gliar", "1648": "di or", "1649": "vi en", "1650": "s\u2019 of", "1651": "ro at", "1652": "ce et", "1653": "li or", "1654": "lo on", "1655": "la on", "1656": "li al", "1657": "me al", "1658": "d\u2019 ap", "1659": "do oc", "1660": "so eb", "1661": "st\u2019 a", "1662": "m\u2019 ol", "1663": "ha \u2019n", "1664": "to ef", "1665": "spran", "1666": "te ad", "1667": "scris", "1668": "d\u2019 ar", "1669": "qu\u2019 o", "1670": "ri ar", "1671": "la or", "1672": "li ab", "1673": "re oc", "1674": "strut", "1675": "gno a", "1676": "va at", "1677": "ra av", "1678": "te ag", "1679": "spraz", "1680": "chias", "1681": "s\u2019 ac", "1682": "gi an", "1683": "d\u2019 os", "1684": "no es", "1685": "de am", "1686": "be av", "1687": "\u2019v\u2019 u", "1688": "re eb", "1689": "ze es", "1690": "ra im", "1691": "ri on", "1692": "n\u2019 om", "1693": "so \u2019n", "1694": "f\u00e9 in", "1695": "me af", "1696": "li ap", "1697": "te im", "1698": "li em", "1699": "\u2019ve o", "1700": "bi al", "1701": "va al", "1702": "ra es", "1703": "v\u2019 ap", "1704": "ce ac", "1705": "n\u2019 ap", "1706": "streg", "1707": "sgher", "1708": "vi ac", "1709": "d\u2019 et", "1710": "li on", "1711": "to ar", "1712": "vi as", "1713": "ro eb", "1714": "fo im", "1715": "co at", "1716": "s\u2019 ap", "1717": "l\u2019 es", "1718": "bo al", "1719": "ti am", "1720": "lo \u2019n", "1721": "ci at", "1722": "za al", "1723": "pre e", "1724": "sto e", "1725": "strel", "1726": "se ec", "1727": "s\u2019 et", "1728": "gne a", "1729": "zia e", "1730": "t\u2019 el", "1731": "vo al", "1732": "n\u2019 on", "1733": "ra in", "1734": "re ad", "1735": "me as", "1736": "ta un", "1737": "li of", "1738": "so as", "1739": "ta eu", "1740": "l\u2019 or", "1741": "d\u2019 oc", "1742": "li om", "1743": "li er", "1744": "sciol", "1745": "s\u2019 at", "1746": "ta am", "1747": "so ar", "1748": "re il", "1749": "de on", "1750": "ro or", "1751": "ma or", "1752": "n\u2019 am", "1753": "no in", "1754": "vi in", "1755": "gno u", "1756": "de an", "1757": "v\u2019 al", "1758": "t\u2019 ap", "1759": "za \u2019n", "1760": "co ac", "1761": "si ad", "1762": "mi er", "1763": "d\u2019 on", "1764": "sciut", "1765": "ti ac", "1766": "stren", "1767": "d\u2019 im", "1768": "va id", "1769": "lo as", "1770": "do el", "1771": "scian", "1772": "ca en", "1773": "di es", "1774": "to uc", "1775": "re in", "1776": "l\u2019 ov", "1777": "chi o", "1778": "ta op", "1779": "te is", "1780": "na in", "1781": "li at", "1782": "mi am", "1783": "ca er", "1784": "l\u2019 et", "1785": "vo au", "1786": "da an", "1787": "to at", "1788": "dre e", "1789": "li \u2019m", "1790": "li an", "1791": "fa az", "1792": "ma an", "1793": "ro as", "1794": "ce at", "1795": "sa im", "1796": "pa in", "1797": "d\u2019 az", "1798": "v\u2019 er", "1799": "s\u2019 af", "1800": "no om", "1801": "strat", "1802": "si am", "1803": "tro e", "1804": "na or", "1805": "ta es", "1806": "ra uc", "1807": "gliel", "1808": "d\u2019 af", "1809": "m\u2019 of", "1810": "do an", "1811": "s\u2019 es", "1812": "m\u2019 an", "1813": "ro am", "1814": "te an", "1815": "ne as", "1816": "tri o", "1817": "s\u2019 ad", "1818": "de ap", "1819": "m\u2019 es", "1820": "r\u2019 el", "1821": "co in", "1822": "li ag", "1823": "ca an", "1824": "ni en", "1825": "stran", "1826": "za am", "1827": "sta o", "1828": "sciar", "1829": "ce ar", "1830": "mo at", "1831": "ge un", "1832": "ta as", "1833": "te ac", "1834": "v\u2019 ar", "1835": "be as", "1836": "re as", "1837": "t\u2019 ab", "1838": "la \u2019n", "1839": "chi a", "1840": "b\u2019 es", "1841": "scher", "1842": "s\u00ec \u2019n", "1843": "suo a", "1844": "s\u00ec \u2019m", "1845": "m\u2019 al", "1846": "le av", "1847": "ste a", "1848": "de of", "1849": "zi as", "1850": "sta e", "1851": "t\u2019 om", "1852": "ghiac", "1853": "de ar", "1854": "l\u2019 ar", "1855": "n\u2019 au", "1856": "so am", "1857": "st\u2019 u", "1858": "re am", "1859": "l\u2019 um", "1860": "s\u2019 el", "1861": "d\u2019 el", "1862": "ni av", "1863": "co av", "1864": "ti \u2019n", "1865": "mo on", "1866": "t\u2019 em", "1867": "pa es", "1868": "di ab", "1869": "ro um", "1870": "l\u2019 eb", "1871": "gliet", "1872": "schio", "1873": "ro im", "1874": "no am", "1875": "n\u2019 ab", "1876": "ro au", "1877": "m\u2019 ap", "1878": "re ar", "1879": "ve an", "1880": "va \u2019n", "1881": "sa ac", "1882": "mo ar", "1883": "zi al", "1884": "me in", "1885": "so en", "1886": "m\u2019 eb", "1887": "sco o", "1888": "te \u2019n", "1889": "pi or", "1890": "s\u2019 am", "1891": "ni am", "1892": "vo at", "1893": "mi ef", "1894": "me au", "1895": "cia e", "1896": "n\u2019 ac", "1897": "re ot", "1898": "li au", "1899": "no ab", "1900": "l\u2019 ae", "1901": "na ab", "1902": "re et", "1903": "to of", "1904": "l\u2019 er", "1905": "ci al", "1906": "ti at", "1907": "scran", "1908": "d\u2019 om", "1909": "ni as", "1910": "ce on", "1911": "ga as", "1912": "ta om", "1913": "za on", "1914": "ro ap", "1915": "s\u2019 al", "1916": "do es", "1917": "pi ap", "1918": "t\u2019 ac", "1919": "sci\u00e0n", "1920": "s\u00ec in", "1921": "go al", "1922": "ca in", "1923": "mi an", "1924": "sa in", "1925": "tro u", "1926": "va an", "1927": "ghian", "1928": "d\u2019 ac", "1929": "ra am", "1930": "mi ad", "1931": "vi on", "1932": "ma ap", "1933": "ze or", "1934": "si el", "1935": "li et", "1936": "ta ab", "1937": "mo an", "1938": "chiap", "1939": "ca on", "1940": "ce al", "1941": "la an", "1942": "ro ar", "1943": "lo er", "1944": "no im", "1945": "glies", "1946": "vo an", "1947": "ne ov", "1948": "qu\u2019 e", "1949": "dea u", "1950": "na ac", "1951": "sta i", "1952": "li \u2019n", "1953": "li af", "1954": "mo af", "1955": "no \u2019n", "1956": "gliam", "1957": "ri ac", "1958": "do af", "1959": "ne \u2019m", "1960": "di ac", "1961": "ra ad", "1962": "l\u2019 ap", "1963": "li oc", "1964": "ni al", "1965": "ra ab", "1966": "schem", "1967": "m\u2019 im", "1968": "n\u2019 ar", "1969": "ne \u2019n", "1970": "l\u2019 av", "1971": "d\u2019 of", "1972": "di in", "1973": "gna a", "1974": "l\u2019 ot", "1975": "rio a", "1976": "ti al", "1977": "ra on", "1978": "zo as", "1979": "te in", "1980": "na ap", "1981": "te af", "1982": "v\u2019 es", "1983": "cio a", "1984": "di ad", "1985": "se in", "1986": "c\u2019 en", "1987": "me an", "1988": "sto o", "1989": "t\u2019 af", "1990": "chioc", "1991": "za an", "1992": "la \u2019m", "1993": "po ar", "1994": "si of", "1995": "d\u2019 en", "1996": "se at", "1997": "no av", "1998": "ga in", "1999": "le of", "2000": "to eb", "2001": "l\u2019 ac", "2002": "ro of", "2003": "ro on", "2004": "zi ag", "2005": "na \u2019n", "2006": "le or", "2007": "d\u2019 at", "2008": "lia a", "2009": "cea u", "2010": "ce an", "2011": "zio e", "2012": "zo ar", "2013": "d\u2019 es", "2014": "que o", "2015": "so es", "2016": "ro in", "2017": "mo es", "2018": "ch\u2019 e", "2019": "ne ac", "2020": "le at", "2021": "pi\u00f9 a", "2022": "s\u2019 ar", "2023": "d\u2019 or", "2024": "no er", "2025": "si or", "2026": "t\u2019 ar", "2027": "de om", "2028": "r\u2019 es", "2029": "bra e", "2030": "te ol", "2031": "ne ap", "2032": "li eb", "2033": "la en", "2034": "li as", "2035": "tr\u2019 e", "2036": "re av", "2037": "vo as", "2038": "no au", "2039": "de in", "2040": "t\u2019 in", "2041": "re em", "2042": "di im", "2043": "na eb", "2044": "t\u2019 am", "2045": "te os", "2046": "tra u", "2047": "ti as", "2048": "strom", "2049": "re om", "2050": "te es", "2051": "re ap", "2052": "le an", "2053": "gliuo", "2054": "te en", "2055": "ro av", "2056": "no ec", "2057": "te ab", "2058": "ra ap", "2059": "ta at", "2060": "l\u2019 ad", "2061": "la al", "2062": "sta a", "2063": "so of", "2064": "ne em", "2065": "schiu", "2066": "re al", "2067": "po on", "2068": "za in", "2069": "cro a", "2070": "do on", "2071": "le uc", "2072": "d\u2019 ab", "2073": "si ol", "2074": "lo in", "2075": "schic", "2076": "na of", "2077": "di an", "2078": "ra eb", "2079": "t\u2019 av", "2080": "na av", "2081": "strac", "2082": "re ag", "2083": "do er", "2084": "de er", "2085": "v\u2019 of", "2086": "le ad", "2087": "li ac", "2088": "la el", "2089": "be al", "2090": "li im", "2091": "de as", "2092": "ve al", "2093": "va im", "2094": "bre o", "2095": "mo ol", "2096": "re on", "2097": "vi \u2019m", "2098": "scioc", "2099": "l\u2019 al", "2100": "pie e", "2101": "te as", "2102": "ra ac", "2103": "ci am", "2104": "di al", "2105": "tra i", "2106": "mo im", "2107": "z\u2019 al", "2108": "lo of", "2109": "la ol", "2110": "le ol", "2111": "schet", "2112": "ma in", "2113": "ch\u2019 o", "2114": "ci an", "2115": "ne al", "2116": "na at", "2117": "ti or", "2118": "no ac", "2119": "ro oc", "2120": "m\u2019 av", "2121": "se es", "2122": "do im", "2123": "te on", "2124": "d\u2019 eu", "2125": "smo a", "2126": "fu el", "2127": "st\u2019 o", "2128": "l\u2019 on", "2129": "bra u", "2130": "fu in", "2131": "n\u2019 av", "2132": "pi in", "2133": "me ac", "2134": "ti ar", "2135": "ni on", "2136": "d\u2019 as", "2137": "strug", "2138": "stroz", "2139": "t\u2019 an", "2140": "te om", "2141": "ta et", "2142": "d\u2019 ot", "2143": "ne im", "2144": "s\u2019 ag", "2145": "n\u2019 ol", "2146": "no an", "2147": "v\u2019 eb", "2148": "l\u2019 op", "2149": "ve oc", "2150": "me am", "2151": "lo al", "2152": "na ar", "2153": "va eb", "2154": "c\u2019 im", "2155": "t\u2019 im", "2156": "l\u2019 im", "2157": "tra e", "2158": "d\u2019 eb", "2159": "ri an", "2160": "bra a", "2161": "l\u2019 ec", "2162": "sbe a", "2163": "n\u2019 in", "2164": "ti of", "2165": "so al", "2166": "no at", "2167": "si og", "2168": "ce au", "2169": "se on", "2170": "ti et", "2171": "re ac", "2172": "re at", "2173": "ta on", "2174": "mo eb", "2175": "so on", "2176": "te at", "2177": "po in", "2178": "ta of", "2179": "m\u2019 ac", "2180": "go es", "2181": "ma \u2019n", "2182": "t\u2019 as", "2183": "strin", "2184": "li am", "2185": "li ul", "2186": "re en", "2187": "lo il", "2188": "co al", "2189": "s\u2019 an", "2190": "ch\u2019 i", "2191": "re af", "2192": "ge an", "2193": "ve at", "2194": "mo ec", "2195": "si av", "2196": "l\u2019 uc", "2197": "zo an", "2198": "da in", "2199": "no ap", "2200": "me ef", "2201": "no al", "2202": "mo or", "2203": "zi at", "2204": "sciom", "2205": "ra ot", "2206": "so et", "2207": "ce es", "2208": "ne et", "2209": "m\u2019 in", "2210": "le es", "2211": "ch\u2019 u", "2212": "se af", "2213": "ste i", "2214": "ch\u2019 a", "2215": "to or", "2216": "s\u2019 eb", "2217": "n\u2019 at", "2218": "ni ap", "2219": "to ab", "2220": "na on", "2221": "fu im", "2222": "scheg", "2223": "mo of", "2224": "li un", "2225": "di om", "2226": "l\u2019 un", "2227": "si \u2019m", "2228": "ghiot", "2229": "co et", "2230": "na es", "2231": "ce im", "2232": "do in", "2233": "tri a", "2234": "te er", "2235": "te em", "2236": "v\u2019 ab", "2237": "squil", "2238": "vi of", "2239": "ta ac", "2240": "ta al", "2241": "si \u2019n", "2242": "le oc", "2243": "ma es", "2244": "m\u2019 ad", "2245": "gli u", "2246": "ra an", "2247": "so an", "2248": "ne an", "2249": "l\u2019 as", "2250": "ti in", "2251": "strar", "2252": "to ag", "2253": "que u", "2254": "ce eu", "2255": "s\u2019 en", "2256": "ce as", "2257": "ta ar", "2258": "si ac", "2259": "gni e", "2260": "co ad", "2261": "si en", "2262": "r\u2019 an", "2263": "ta in", "2264": "vo ac", "2265": "si as", "2266": "sgiun", "2267": "sa og", "2268": "m\u2019 as", "2269": "la au", "2270": "li uc", "2271": "to im", "2272": "schie", "2273": "ma on", "2274": "cia o", "2275": "tro i", "2276": "tr\u2019 a", "2277": "to es", "2278": "pra a", "2279": "s\u2019 op", "2280": "l\u2019 ag", "2281": "t\u2019 at", "2282": "ia al", "2283": "gne o", "2284": "mi ap", "2285": "se al", "2286": "lo es", "2287": "stric", "2288": "ro ab", "2289": "n\u2019 uo", "2290": "t\u2019 ag", "2291": "de al", "2292": "le \u2019n", "2293": "s\u2019 em", "2294": "stram", "2295": "bre a", "2296": "sguar", "2297": "vi av", "2298": "m\u2019 ar", "2299": "d\u2019 au", "2300": "re im", "2301": "si im", "2302": "sto a", "2303": "l\u2019 of", "2304": "di av", "2305": "m\u2019 om", "2306": "lo \u2019m", "2307": "d\u2019 og", "2308": "ni es", "2309": "si an", "2310": "ci ad", "2311": "fu ap", "2312": "so at", "2313": "l\u2019 \u00e0n", "2314": "fo et", "2315": "co eb", "2316": "lo af", "2317": "tro o", "2318": "cia a", "2319": "gi ar", "2320": "ge in", "2321": "lo an", "2322": "ve ar", "2323": "li es", "2324": "vi ar", "2325": "to ap", "2326": "ra ec", "2327": "ci av", "2328": "chi e", "2329": "la es", "2330": "n\u2019 an", "2331": "dio i", "2332": "si in", "2333": "chian", "2334": "m\u2019 at", "2335": "li ar", "2336": "cio e", "2337": "scrit", "2338": "la ap", "2339": "ve es", "2340": "za er", "2341": "zi \u2019m", "2342": "do ac", "2343": "si er", "2344": "de ag", "2345": "l\u2019 uo", "2346": "zo in", "2347": "re es", "2348": "sgrie", "2349": "v\u2019 ac", "2350": "ti ad", "2351": "mo al", "2352": "tu ha", "2353": "hi om", "2354": "de \u2019n", "2355": "pre a", "2356": "l\u2019 au", "2357": "no as", "2358": "lo av", "2359": "mo in", "2360": "l\u00ec en", "2361": "no ag", "2362": "sti o", "2363": "ve ap", "2364": "ta ad", "2365": "so ap", "2366": "ti oc", "2367": "do as", "2368": "ra el", "2369": "gia o", "2370": "ri in", "2371": "d\u2019 in", "2372": "se as", "2373": "ta an", "2374": "sti a", "2375": "ch\u2019 \u00ef", "2376": "ghien", "2377": "po al", "2378": "d\u2019 ol", "2379": "t\u2019 or", "2380": "ci af", "2381": "li uo", "2382": "d\u2019 am", "2383": "do at", "2384": "lo im", "2385": "n\u2019 ag", "2386": "do ec", "2387": "schia", "2388": "glien", "2389": "me ap", "2390": "no ad", "2391": "mi ac", "2392": "so ad", "2393": "l\u2019 em", "2394": "co er", "2395": "v\u2019 in", "2396": "ma of", "2397": "to on", "2398": "ne av", "2399": "le ar", "2400": "si at", "2401": "do al", "2402": "la av", "2403": "ne on", "2404": "re ab", "2405": "zia o", "2406": "gia e", "2407": "s\u2019 er", "2408": "pr\u2019 e", "2409": "n\u2019 eb", "2410": "ti av", "2411": "sce a", "2412": "ba un", "2413": "ci as", "2414": "be ar", "2415": "za et", "2416": "ta im", "2417": "ce in", "2418": "lo ac", "2419": "ci in", "2420": "l\u2019 ab", "2421": "li ad", "2422": "te ar", "2423": "no or", "2424": "ne es", "2425": "to as", "2426": "de au", "2427": "te au", "2428": "ge et", "2429": "l\u2019 ef", "2430": "sta u", "2431": "zi ap", "2432": "ra of", "2433": "lo eb", "2434": "sfran", "2435": "re au", "2436": "ma al", "2437": "to oc", "2438": "ze et", "2439": "spiac", "2440": "le ap", "2441": "zie o", "2442": "to av", "2443": "stras", "2444": "me on", "2445": "do ol", "2446": "se ap", "2447": "chiar", "2448": "ne ar", "2449": "spres", "2450": "t\u2019 al", "2451": "za im", "2452": "co ap", "2453": "mi al", "2454": "ra al", "2455": "va in", "2456": "lo ef", "2457": "ro an", "2458": "ra et", "2459": "ra as", "2460": "vi an", "2461": "ni in", "2462": "to ov", "2463": "le am", "2464": "\u2019v\u2019 e", "2465": "ri ap", "2466": "d\u2019 an", "2467": "se \u2019n", "2468": "sa es", "2469": "mi \u2019n", "2470": "ce af", "2471": "ci ap", "2472": "po an", "2473": "gne u", "2474": "na af", "2475": "lo ar", "2476": "v\u2019 et", "2477": "de af", "2478": "me of", "2479": "le id", "2480": "si ar", "2481": "l\u2019 om", "2482": "v\u2019 an", "2483": "do eb", "2484": "s\u2019 in", "2485": "glian", "2486": "splen", "2487": "no et", "2488": "bo av", "2489": "no ar", "2490": "sa on", "2491": "to ac", "2492": "ci \u2019n", "2493": "ro es", "2494": "ta el", "2495": "te of", "2496": "di on", "2497": "ni an", "2498": "do am", "2499": "d\u2019 ur", "2500": "se an", "2501": "to ec", "2502": "che e", "2503": "to ad", "2504": "n\u2019 er", "2505": "no af", "2506": "ro al", "2507": "la in", "2508": "r\u2019 al", "2509": "scrip", "2510": "che u", "2511": "va ar", "2512": "l\u2019 oc", "2513": "sco u", "2514": "mi in", "2515": "de ac", "2516": "de or", "2517": "l\u2019 os", "2518": "che a", "2519": "co on", "2520": "ce av", "2521": "l\u2019 ul", "2522": "l\u2019 am", "2523": "stret", "2524": "zio a", "2525": "l\u2019 ol", "2526": "be on", "2527": "squar", "2528": "ma ac", "2529": "ci ar", "2530": "s\u2019 os", "2531": "to ol", "2532": "re ol", "2533": "si al", "2534": "do or", "2535": "se un", "2536": "le as", "2537": "d\u2019 er", "2538": "v\u2019 am", "2539": "l\u2019 an", "2540": "me ar", "2541": "chi u", "2542": "ti an", "2543": "te ap", "2544": "tri e", "2545": "te al", "2546": "bo on", "2547": "le on", "2548": "ti im", "2549": "re an", "2550": "do ar", "2551": "to an", "2552": "qua e", "2553": "s\u2019 im", "2554": "n\u2019 al", "2555": "so in", "2556": "di az", "2557": "li av", "2558": "d\u2019 al", "2559": "l\u2019 ai", "2560": "sciau", "2561": "scial", "2562": "co an", "2563": "stroc", "2564": "ch\u00e9 ap", "2565": "tro im", "2566": "gne uo", "2567": "zia il", "2568": "stri a", "2569": "st\u2019 in", "2570": "tro of", "2571": "dre al", "2572": "stra e", "2573": "ch\u2019 ac", "2574": "sma in", "2575": "ch\u00e9 in", "2576": "qua im", "2577": "sta ai", "2578": "vea \u2019m", "2579": "gni al", "2580": "bri ap", "2581": "suo im", "2582": "st\u2019 ac", "2583": "pio on", "2584": "dre an", "2585": "dre es", "2586": "pre at", "2587": "che ar", "2588": "sto an", "2589": "pi\u00f9 \u2019n", "2590": "tro in", "2591": "st\u2019 es", "2592": "dre eb", "2593": "tra an", "2594": "chi ac", "2595": "mio in", "2596": "ch\u2019 in", "2597": "sto at", "2598": "stro e", "2599": "sti av", "2600": "nio im", "2601": "stro o", "2602": "sti or", "2603": "tri of", "2604": "vio in", "2605": "gne er", "2606": "gue or", "2607": "cia on", "2608": "schiat", "2609": "chio a", "2610": "pre ar", "2611": "tr\u2019 om", "2612": "gno ae", "2613": "bre an", "2614": "gna as", "2615": "pre in", "2616": "ch\u2019 er", "2617": "cio al", "2618": "ste in", "2619": "lia an", "2620": "tra ef", "2621": "tr\u2019 am", "2622": "che \u2019n", "2623": "pre ac", "2624": "st\u2019 ot", "2625": "l\u2019 \u00e8 u", "2626": "ch\u2019 et", "2627": "cio et", "2628": "te han", "2629": "gio ol", "2630": "sti un", "2631": "c\u2019 han", "2632": "pre es", "2633": "tro as", "2634": "qua on", "2635": "ch\u2019 es", "2636": "sti el", "2637": "que es", "2638": "stro u", "2639": "ch\u2019 en", "2640": "sto im", "2641": "st\u2019 ar", "2642": "sta an", "2643": "ch\u2019 am", "2644": "che in", "2645": "cio ap", "2646": "gue on", "2647": "ch\u2019 eb", "2648": "chi ap", "2649": "bia in", "2650": "li han", "2651": "stro a", "2652": "schiet", "2653": "gio uc", "2654": "sio in", "2655": "chi al", "2656": "tri es", "2657": "chi af", "2658": "che op", "2659": "co e i", "2660": "chio o", "2661": "sti in", "2662": "chi in", "2663": "sta og", "2664": "zie ec", "2665": "che \u2019m", "2666": "cia ar", "2667": "scia e", "2668": "gne ac", "2669": "sco an", "2670": "tre in", "2671": "pi\u00f9 in", "2672": "rio an", "2673": "ti han", "2674": "gio in", "2675": "st\u2019 ul", "2676": "mio \u2019n", "2677": "dia as", "2678": "ch\u2019 ar", "2679": "gia in", "2680": "sto in", "2681": "sto es", "2682": "sce an", "2683": "gio et", "2684": "glia o", "2685": "ri han", "2686": "ch\u2019 av", "2687": "sto ac", "2688": "qu\u2019 an", "2689": "zia or", "2690": "ch\u2019 al", "2691": "chi ar", "2692": "cia im", "2693": "str\u2019 u", "2694": "bra av", "2695": "tr\u2019 ar", "2696": "sto on", "2697": "lio an", "2698": "tro ac", "2699": "gne ef", "2700": "gno al", "2701": "tri in", "2702": "sta al", "2703": "ria on", "2704": "ch\u2019 ad", "2705": "gia ar", "2706": "pi\u00f9 ap", "2707": "gna in", "2708": "n\u2019 han", "2709": "bra in", "2710": "gni an", "2711": "d\u2019 han", "2712": "ch\u2019 ap", "2713": "glia u", "2714": "tri as", "2715": "bre in", "2716": "gno am", "2717": "che ha", "2718": "tro ab", "2719": "sti on", "2720": "ghe on", "2721": "gne im", "2722": "ch\u00e9 as", "2723": "l\u2019 han", "2724": "que al", "2725": "cio an", "2726": "ne han", "2727": "glio o", "2728": "pie or", "2729": "sto \u2019n", "2730": "tro et", "2731": "ria of", "2732": "gno af", "2733": "gia al", "2734": "tre os", "2735": "sce el", "2736": "schian", "2737": "sti oc", "2738": "mia \u2019n", "2739": "tro \u2019m", "2740": "sto \u2019m", "2741": "sta im", "2742": "ch\u2019 as", "2743": "qua of", "2744": "ria in", "2745": "sto al", "2746": "cie in", "2747": "sti al", "2748": "ch\u2019 at", "2749": "chi an", "2750": "ch\u2019 ag", "2751": "tra av", "2752": "chi on", "2753": "glia a", "2754": "stra a", "2755": "pr\u2019 ar", "2756": "ch\u2019 ab", "2757": "glio u", "2758": "go han", "2759": "bre et", "2760": "cio as", "2761": "mia in", "2762": "tri ap", "2763": "lio as", "2764": "sti er", "2765": "gh\u2019 es", "2766": "tra op", "2767": "ste an", "2768": "ch\u2019 an", "2769": "gi\u00e0 in", "2770": "scio e", "2771": "dre as", "2772": "tro av", "2773": "stri o", "2774": "tra \u2019m", "2775": "gio on", "2776": "gue an", "2777": "st\u2019 of", "2778": "ch\u2019 el", "2779": "gno in", "2780": "st\u2019 al", "2781": "st\u2019 an", "2782": "tr\u2019 al", "2783": "zia on", "2784": "che om", "2785": "sce al", "2786": "sto of", "2787": "bia an", "2788": "re e a", "2789": "tre an", "2790": "chi am", "2791": "pre al", "2792": "tro ar", "2793": "t\u2019 han", "2794": "sto ap", "2795": "tro ap", "2796": "sti es", "2797": "tro an", "2798": "sce as", "2799": "m\u2019 han", "2800": "tro al", "2801": "gne al", "2802": "sco al", "2803": "che an", "2804": "chio u", "2805": "stra i", "2806": "glio e", "2807": "tri af", "2808": "sta in", "2809": "tro on", "2810": "stra u", "2811": "qua in", "2812": "lio in", "2813": "sti an", "2814": "ch\u2019 og", "2815": "ch\u2019 or", "2816": "sta ol", "2817": "gne in", "2818": "vi \u00e8 a", "2819": "sto ar", "2820": "glia in", "2821": "li \u00e8 in", "2822": "mi smar", "2823": "stri al", "2824": "re a \u2019n", "2825": "n\u2019 \u00e8 im", "2826": "ti e \u2019n", "2827": "stro im", "2828": "stra in", "2829": "stro av", "2830": "stre in", "2831": "chia an", "2832": "sche ab", "2833": "trio al", "2834": "stro eb", "2835": "chie et", "2836": "scia an", "2837": "glie al", "2838": "chio in", "2839": "scia al", "2840": "stro oc", "2841": "za e in", "2842": "stri af", "2843": "stro al", "2844": "glia al", "2845": "glio as", "2846": "chio an", "2847": "ti e ar", "2848": "str\u2019 ar", "2849": "stri an", "2850": "glie eb", "2851": "stri at", "2852": "glio in", "2853": "str\u2019 or", "2854": "stro ac", "2855": "d\u2019 i\u2019 a", "2856": "stro as", "2857": "stro in", "2858": "stri av", "2859": "stra ap", "2860": "stro es", "2861": "stra ef", "2862": "glia es", "2863": "glio on", "2864": "sche er", "2865": "si e \u2019n", "2866": "glia ac", "2867": "stri ef", "2868": "chio at", "2869": "lo e \u2019n", "2870": "glio es", "2871": "stro uc", "2872": "chia of", "2873": "dio han", "2874": "glia as", "2875": "glie an", "2876": "stro an", "2877": "glio an", "2878": "sti a \u2019n", "2879": "t\u2019 ho in", "2880": "ch\u2019 io \u2019n", "2881": "ch\u2019 e\u2019 \u2019n", "2882": "\u00ec ", "2883": "e ", "2884": "\u00f2 ", "2885": "\u00ef ", "2886": "a ", "2887": "\u00f9 ", "2888": "p ", "2889": "o ", "2890": "d ", "2891": "\u00e8 ", "2892": "i ", "2893": "l ", "2894": "oh ", "2895": "r\u00e0 ", "2896": "io ", "2897": "l\u00f2 ", "2898": "t\u00f2 ", "2899": "\u00f2s ", "2900": "fo ", "2901": "vo ", "2902": "vi ", "2903": "z\u00f2 ", "2904": "n\u00e0 ", "2905": "ce ", "2906": "fi ", "2907": "se ", "2908": "a\u2019 ", "2909": "za ", "2910": "mo ", "2911": "n\u00e8 ", "2912": "\u00e0s ", "2913": "t\u00ec ", "2914": "d\u00e9 ", "2915": "l\u00ec ", "2916": "\u00e0m ", "2917": "t\u00e9 ", "2918": "f\u00e9 ", "2919": "\u00f9l ", "2920": "hi ", "2921": "fa ", "2922": "ta ", "2923": "ie ", "2924": "\u00f3n ", "2925": "g\u00ec ", "2926": "ne ", "2927": "t\u00f9 ", "2928": "un ", "2929": "pa ", "2930": "zo ", "2931": "r\u00f2 ", "2932": "p\u00f2 ", "2933": "an ", "2934": "ra ", "2935": "l\u00e0 ", "2936": "n\u00e9 ", "2937": "n\u00ec ", "2938": "od ", "2939": "do ", "2940": "ad ", "2941": "me ", "2942": "tu ", "2943": "ge ", "2944": "m\u00e8 ", "2945": "um ", "2946": "ri ", "2947": "no ", "2948": "ar ", "2949": "d\u00f2 ", "2950": "na ", "2951": "t\u00e8 ", "2952": "v\u00ec ", "2953": "da ", "2954": "ai ", "2955": "te ", "2956": "ha ", "2957": "al ", "2958": "mi ", "2959": "f\u00e0 ", "2960": "su ", "2961": "n\u00f2 ", "2962": "ma ", "2963": "ci ", "2964": "s\u00e8 ", "2965": "be ", "2966": "bo ", "2967": "g\u00f2 ", "2968": "l\u00e8 ", "2969": "r\u00ec ", "2970": "s\u00ec ", "2971": "ed ", "2972": "c\u00e8 ", "2973": "ae ", "2974": "as ", "2975": "ro ", "2976": "u\u2019 ", "2977": "ei ", "2978": "or ", "2979": "om ", "2980": "fe ", "2981": "ir ", "2982": "in ", "2983": "d\u00ec ", "2984": "b\u00f2 ", "2985": "fu ", "2986": "ba ", "2987": "\u00ecs ", "2988": "s\u00f9 ", "2989": "pi ", "2990": "so ", "2991": "ve ", "2992": "re ", "2993": "b\u00f9 ", "2994": "\u00e9n ", "2995": "li ", "2996": "ab ", "2997": "po ", "2998": "c\u00e9 ", "2999": "zi ", "3000": "ia ", "3001": "ni ", "3002": "lo ", "3003": "si ", "3004": "ca ", "3005": "am ", "3006": "de ", "3007": "\u00e0r ", "3008": "et ", "3009": "i\u2019 ", "3010": "\u00f2n ", "3011": "ti ", "3012": "e\u2019 ", "3013": "gi ", "3014": "co ", "3015": "os ", "3016": "c\u00f2 ", "3017": "go ", "3018": "le ", "3019": "pe ", "3020": "ze ", "3021": "va ", "3022": "to ", "3023": "la ", "3024": "ho ", "3025": "v\u00f2 ", "3026": "on ", "3027": "t\u00e0 ", "3028": "sa ", "3029": "ga ", "3030": "\u00e8l ", "3031": "p\u00e8 ", "3032": "us ", "3033": "bi ", "3034": "il ", "3035": "di ", "3036": "m\u00f2 ", "3037": "s\u00f2 ", "3038": "d\u00e0 ", "3039": "el ", "3040": "\u00e8e ", "3041": "b\u00e8 ", "3042": "s\u00e9 ", "3043": "b\u00ec ", "3044": "f\u00f2 ", "3045": "t\u00e0n ", "3046": "cen ", "3047": "d\u00ece ", "3048": "ron ", "3049": "ges ", "3050": "son ", "3051": "rir ", "3052": "ton ", "3053": "fil ", "3054": "dri ", "3055": "zon ", "3056": "sun ", "3057": "ean ", "3058": "van ", "3059": "sol ", "3060": "die ", "3061": "voi ", "3062": "sc\u00ec ", "3063": "gai ", "3064": "von ", "3065": "gi\u00e0 ", "3066": "bor ", "3067": "der ", "3068": "nel ", "3069": "mas ", "3070": "dil ", "3071": "vra ", "3072": "peo ", "3073": "vio ", "3074": "r\u00f3n ", "3075": "par ", "3076": "bol ", "3077": "sie ", "3078": "tai ", "3079": "bus ", "3080": "rin ", "3081": "g\u00f3r ", "3082": "sin ", "3083": "re\u2019 ", "3084": "spa ", "3085": "din ", "3086": "st\u00f2 ", "3087": "fin ", "3088": "mii ", "3089": "na\u2019 ", "3090": "lon ", "3091": "res ", "3092": "deo ", "3093": "de\u2019 ", "3094": "gli ", "3095": "sis ", "3096": "no\u2019 ", "3097": "tr\u00e0 ", "3098": "teo ", "3099": "pu\u00f2 ", "3100": "fon ", "3101": "gar ", "3102": "gno ", "3103": "gel ", "3104": "pre ", "3105": "sir ", "3106": "nal ", "3107": "tuo ", "3108": "nil ", "3109": "ror ", "3110": "val ", "3111": "f\u00e9e ", "3112": "cel ", "3113": "o e ", "3114": "gro ", "3115": "mon ", "3116": "ner ", "3117": "fi\u00f2 ", "3118": "tua ", "3119": "s\u00ece ", "3120": "pem ", "3121": "sti ", "3122": "dir ", "3123": "gni ", "3124": "gon ", "3125": "c\u00f2b ", "3126": "san ", "3127": "ni\u2019 ", "3128": "gir ", "3129": "t\u00f2r ", "3130": "dei ", "3131": "mor ", "3132": "mus ", "3133": "ban ", "3134": "rer ", "3135": "ter ", "3136": "ril ", "3137": "des ", "3138": "dem ", "3139": "dal ", "3140": "tr\u00f2 ", "3141": "su\u2019 ", "3142": "tei ", "3143": "dua ", "3144": "ram ", "3145": "tia ", "3146": "tin ", "3147": "du\u2019 ", "3148": "pri ", "3149": "tii ", "3150": "pin ", "3151": "gin ", "3152": "vol ", "3153": "reo ", "3154": "fan ", "3155": "mee ", "3156": "ier ", "3157": "t\u00e9r ", "3158": "beo ", "3159": "di\u2019 ", "3160": "cai ", "3161": "clo ", "3162": "pi\u00f9 ", "3163": "pol ", "3164": "lan ", "3165": "sit ", "3166": "nii ", "3167": "bar ", "3168": "gan ", "3169": "nie ", "3170": "dan ", "3171": "ven ", "3172": "dii ", "3173": "ne\u2019 ", "3174": "via ", "3175": "gue ", "3176": "nem ", "3177": "mun ", "3178": "zar ", "3179": "vo\u2019 ", "3180": "vei ", "3181": "m\u00ecs ", "3182": "sui ", "3183": "cu\u2019 ", "3184": "rai ", "3185": "sem ", "3186": "sma ", "3187": "uom ", "3188": "dro ", "3189": "rel ", "3190": "mer ", "3191": "nol ", "3192": "r\u00ecb ", "3193": "fui ", "3194": "cer ", "3195": "far ", "3196": "lia ", "3197": "lee ", "3198": "bis ", "3199": "rea ", "3200": "smi ", "3201": "n\u00f2s ", "3202": "zai ", "3203": "v\u00ecd ", "3204": "tir ", "3205": "pi\u00e9 ", "3206": "pir ", "3207": "tri ", "3208": "bri ", "3209": "plo ", "3210": "tal ", "3211": "co\u2019 ", "3212": "men ", "3213": "pii ", "3214": "mum ", "3215": "st\u00f9 ", "3216": "sal ", "3217": "vin ", "3218": "ser ", "3219": "tui ", "3220": "nio ", "3221": "gi\u00f9 ", "3222": "a e ", "3223": "cor ", "3224": "dia ", "3225": "lor ", "3226": "r\u00ecs ", "3227": "lin ", "3228": "dui ", "3229": "mae ", "3230": "cia ", "3231": "mei ", "3232": "por ", "3233": "z\u00f2n ", "3234": "bro ", "3235": "rui ", "3236": "cul ", "3237": "ben ", "3238": "sa\u2019 ", "3239": "gu\u00f2 ", "3240": "gre ", "3241": "sio ", "3242": "ral ", "3243": "bi\u00f2 ", "3244": "vii ", "3245": "sta ", "3246": "r\u00f2l ", "3247": "tun ", "3248": "dra ", "3249": "pi\u00e8 ", "3250": "fie ", "3251": "gor ", "3252": "ch\u00e9 ", "3253": "f\u00e8l ", "3254": "dea ", "3255": "cra ", "3256": "zio ", "3257": "bil ", "3258": "fal ", "3259": "bei ", "3260": "p\u00f2s ", "3261": "fei ", "3262": "gui ", "3263": "mai ", "3264": "qua ", "3265": "\u2018te ", "3266": "fe\u2019 ", "3267": "sul ", "3268": "nia ", "3269": "ra\u2019 ", "3270": "ga\u2019 ", "3271": "ve\u2019 ", "3272": "va\u2019 ", "3273": "rie ", "3274": "fai ", "3275": "nor ", "3276": "vau ", "3277": "qui ", "3278": "neo ", "3279": "bee ", "3280": "vam ", "3281": "pel ", "3282": "p\u00eca ", "3283": "han ", "3284": "tus ", "3285": "suo ", "3286": "dre ", "3287": "sen ", "3288": "pal ", "3289": "dor ", "3290": "n\u00ect ", "3291": "ten ", "3292": "rua ", "3293": "don ", "3294": "non ", "3295": "cri ", "3296": "cei ", "3297": "ren ", "3298": "cro ", "3299": "ber ", "3300": "var ", "3301": "zii ", "3302": "gea ", "3303": "rem ", "3304": "ta\u2019 ", "3305": "lar ", "3306": "me\u2019 ", "3307": "man ", "3308": "gi\u00f2 ", "3309": "b\u00e0l ", "3310": "mul ", "3311": "gri ", "3312": "dee ", "3313": "mi\u2019 ", "3314": "ste ", "3315": "per ", "3316": "cui ", "3317": "zia ", "3318": "\u2019ve ", "3319": "rar ", "3320": "c\u00e0n ", "3321": "e \u2019 ", "3322": "fra ", "3323": "la\u2019 ", "3324": "a i ", "3325": "tue ", "3326": "tra ", "3327": "l\u00f2n ", "3328": "lie ", "3329": "mar ", "3330": "poi ", "3331": "t\u00f2n ", "3332": "til ", "3333": "del ", "3334": "st\u00ec ", "3335": "l\u00eca ", "3336": "fio ", "3337": "que ", "3338": "rum ", "3339": "bel ", "3340": "nar ", "3341": "fue ", "3342": "cut ", "3343": "lu\u2019 ", "3344": "pon ", "3345": "dai ", "3346": "pra ", "3347": "cio ", "3348": "mia ", "3349": "sar ", "3350": "ian ", "3351": "cun ", "3352": "sue ", "3353": "rao ", "3354": "ran ", "3355": "nai ", "3356": "ger ", "3357": "bir ", "3358": "sca ", "3359": "lei ", "3360": "tea ", "3361": "leo ", "3362": "nea ", "3363": "pur ", "3364": "s\u00f9e ", "3365": "cin ", "3366": "hai ", "3367": "f\u00e0s ", "3368": "tum ", "3369": "d\u00eca ", "3370": "d\u00e8i ", "3371": "che ", "3372": "ree ", "3373": "f\u00f3n ", "3374": "t\u00e8s ", "3375": "sco ", "3376": "zie ", "3377": "gu\u00ec ", "3378": "pie ", "3379": "r\u00ece ", "3380": "gru ", "3381": "n\u00eca ", "3382": "lai ", "3383": "gei ", "3384": "dio ", "3385": "vil ", "3386": "te\u2019 ", "3387": "sei ", "3388": "n\u00f2i ", "3389": "sai ", "3390": "dr\u00ec ", "3391": "ri\u2019 ", "3392": "lem ", "3393": "rii ", "3394": "tem ", "3395": "spe ", "3396": "bui ", "3397": "rio ", "3398": "tro ", "3399": "seo ", "3400": "nha ", "3401": "mil ", "3402": "pio ", "3403": "e i ", "3404": "lis ", "3405": "con ", "3406": "lea ", "3407": "ma\u2019 ", "3408": "tio ", "3409": "unt ", "3410": "bio ", "3411": "bre ", "3412": "ghe ", "3413": "pr\u00e0 ", "3414": "som ", "3415": "cle ", "3416": "pro ", "3417": "vai ", "3418": "st\u00e9 ", "3419": "noi ", "3420": "n\u00ece ", "3421": "tol ", "3422": "tre ", "3423": "\u00f2th ", "3424": "coi ", "3425": "fer ", "3426": "cum ", "3427": "bia ", "3428": "cem ", "3429": "gra ", "3430": "nei ", "3431": "ahi ", "3432": "vea ", "3433": "pr\u00ec ", "3434": "lio ", "3435": "ces ", "3436": "nin ", "3437": "tan ", "3438": "sto ", "3439": "m\u00eca ", "3440": "sub ", "3441": "gol ", "3442": "dar ", "3443": "s\u00f3n ", "3444": "tis ", "3445": "za\u2019 ", "3446": "fur ", "3447": "vas ", "3448": "ci\u00f2 ", "3449": "pei ", "3450": "feo ", "3451": "ler ", "3452": "n\u00e8s ", "3453": "est ", "3454": "sua ", "3455": "pia ", "3456": "vos ", "3457": "l\u00e8m ", "3458": "cur ", "3459": "vem ", "3460": "ti\u2019 ", "3461": "l\u00eco ", "3462": "nis ", "3463": "dur ", "3464": "joi ", "3465": "col ", "3466": "due ", "3467": "num ", "3468": "a a ", "3469": "pan ", "3470": "meo ", "3471": "sci ", "3472": "gna ", "3473": "bue ", "3474": "ceo ", "3475": "sii ", "3476": "di\u00e8 ", "3477": "fia ", "3478": "deh ", "3479": "gne ", "3480": "ghi ", "3481": "cil ", "3482": "t\u00f3n ", "3483": "gis ", "3484": "pea ", "3485": "mio ", "3486": "ver ", "3487": "dr\u00f2 ", "3488": "gi\u2019 ", "3489": "vel ", "3490": "cal ", "3491": "smo ", "3492": "bra ", "3493": "gua ", "3494": "nan ", "3495": "lir ", "3496": "gal ", "3497": "mie ", "3498": "lui ", "3499": "mal ", "3500": "for ", "3501": "nir ", "3502": "fi\u2019 ", "3503": "cea ", "3504": "cie ", "3505": "d\u00ect ", "3506": "ieu ", "3507": "st\u00e0 ", "3508": "len ", "3509": "tes ", "3510": "ros ", "3511": "min ", "3512": "sel ", "3513": "mea ", "3514": "c\u00f2l ", "3515": "tor ", "3516": "fu\u2019 ", "3517": "gio ", "3518": "can ", "3519": "bon ", "3520": "se\u2019 ", "3521": "tar ", "3522": "b\u00e8l ", "3523": "cre ", "3524": "gia ", "3525": "sce ", "3526": "uo\u2019 ", "3527": "zan ", "3528": "zul ", "3529": "cis ", "3530": "sia ", "3531": "ion ", "3532": "sor ", "3533": "o a ", "3534": "tel ", "3535": "chi ", "3536": "duo ", "3537": "dr\u00e0 ", "3538": "rei ", "3539": "vie ", "3540": "f\u00e0t ", "3541": "da\u2019 ", "3542": "car ", "3543": "bin ", "3544": "g\u00f3n ", "3545": "ria ", "3546": "b\u00eca ", "3547": "ne e ", "3548": "de \u00e8 ", "3549": "la a ", "3550": "ma i ", "3551": "mi a ", "3552": "li o ", "3553": "lien ", "3554": "tuon ", "3555": "stea ", "3556": "va i ", "3557": "gner ", "3558": "o il ", "3559": "v\u2019 \u00e8 ", "3560": "pe e ", "3561": "ze o ", "3562": "sion ", "3563": "gual ", "3564": "quie ", "3565": "gnia ", "3566": "trae ", "3567": "bo a ", "3568": "vien ", "3569": "ciul ", "3570": "vier ", "3571": "drai ", "3572": "ched ", "3573": "li \u00e8 ", "3574": "guia ", "3575": "plor ", "3576": "mi e ", "3577": "\u2018qui ", "3578": "ce \u00e8 ", "3579": "de i ", "3580": "na e ", "3581": "laia ", "3582": "chie ", "3583": "st\u00f2r ", "3584": "da o ", "3585": "ca o ", "3586": "brar ", "3587": "be e ", "3588": "vi a ", "3589": "suo\u2019 ", "3590": "ge e ", "3591": "l\u00ec \u00e8 ", "3592": "fu a ", "3593": "gioi ", "3594": "guis ", "3595": "trei ", "3596": "dean ", "3597": "fo \u00e8 ", "3598": "o al ", "3599": "i in ", "3600": "s\u2019 a ", "3601": "chel ", "3602": "suoi ", "3603": "ciol ", "3604": "miei ", "3605": "ci\u00f2l ", "3606": "suon ", "3607": "pa e ", "3608": "frir ", "3609": "si \u00e8 ", "3610": "rent ", "3611": "zo e ", "3612": "do \u00e8 ", "3613": "po e ", "3614": "pion ", "3615": "tien ", "3616": "gli\u00f2 ", "3617": "pi\u00f9e ", "3618": "vi e ", "3619": "fren ", "3620": "ra o ", "3621": "cral ", "3622": "fier ", "3623": "so \u00e8 ", "3624": "na a ", "3625": "zion ", "3626": "ca e ", "3627": "quar ", "3628": "\u00e8 \u2019n ", "3629": "ti \u00e8 ", "3630": "ma a ", "3631": "lier ", "3632": "di e ", "3633": "cheo ", "3634": "luia ", "3635": "gnus ", "3636": "co o ", "3637": "ro e ", "3638": "la i ", "3639": "gi e ", "3640": "za a ", "3641": "viam ", "3642": "se \u00e8 ", "3643": "s\u2019 \u00e8 ", "3644": "ni o ", "3645": "grin ", "3646": "si o ", "3647": "ti e ", "3648": "c\u00f2th ", "3649": "bran ", "3650": "gnon ", "3651": "ri e ", "3652": "gran ", "3653": "trui ", "3654": "gior ", "3655": "stor ", "3656": "co e ", "3657": "pron ", "3658": "ba e ", "3659": "si e ", "3660": "ghin ", "3661": "nien ", "3662": "stro ", "3663": "scir ", "3664": "scea ", "3665": "ti i ", "3666": "ge a ", "3667": "zi a ", "3668": "prir ", "3669": "nail ", "3670": "bi e ", "3671": "po a ", "3672": "ci e ", "3673": "zi e ", "3674": "riai ", "3675": "po \u00e8 ", "3676": "quod ", "3677": "tria ", "3678": "ne a ", "3679": "gnun ", "3680": "no i ", "3681": "vo e ", "3682": "le o ", "3683": "se o ", "3684": "muor ", "3685": "trai ", "3686": "me a ", "3687": "ce i ", "3688": "nean ", "3689": "za e ", "3690": "a in ", "3691": "so o ", "3692": "tra\u2019 ", "3693": "prun ", "3694": "l\u2019 \u00e8 ", "3695": "ri a ", "3696": "cl\u00e8s ", "3697": "ciar ", "3698": "pian ", "3699": "vean ", "3700": "brei ", "3701": "de a ", "3702": "chi\u00f2 ", "3703": "guio ", "3704": "fien ", "3705": "go \u00e8 ", "3706": "prio ", "3707": "fi e ", "3708": "ra e ", "3709": "no e ", "3710": "guan ", "3711": "chin ", "3712": "ca \u00e8 ", "3713": "e or ", "3714": "siam ", "3715": "scar ", "3716": "ge \u00e8 ", "3717": "na \u00e8 ", "3718": "zian ", "3719": "stia ", "3720": "sa o ", "3721": "sci\u2019 ", "3722": "mie\u2019 ", "3723": "ti o ", "3724": "de e ", "3725": "ta a ", "3726": "stan ", "3727": "to \u00e8 ", "3728": "guir ", "3729": "ghi\u00f2 ", "3730": "gian ", "3731": "ce o ", "3732": "pria ", "3733": "spir ", "3734": "te \u00e8 ", "3735": "ra i ", "3736": "trio ", "3737": "ve o ", "3738": "o in ", "3739": "bree ", "3740": "lo a ", "3741": "su i ", "3742": "do i ", "3743": "ga e ", "3744": "drel ", "3745": "bria ", "3746": "spia ", "3747": "di o ", "3748": "lo i ", "3749": "st\u00e8r ", "3750": "o \u2019n ", "3751": "gnum ", "3752": "re e ", "3753": "go a ", "3754": "ra a ", "3755": "be a ", "3756": "be i ", "3757": "trea ", "3758": "ne i ", "3759": "trar ", "3760": "scia ", "3761": "gnes ", "3762": "\u00e8 il ", "3763": "ra \u00e8 ", "3764": "lian ", "3765": "tu i ", "3766": "le e ", "3767": "po i ", "3768": "co a ", "3769": "stai ", "3770": "sier ", "3771": "maio ", "3772": "maia ", "3773": "vi o ", "3774": "caio ", "3775": "quor ", "3776": "go o ", "3777": "li a ", "3778": "muoi ", "3779": "stin ", "3780": "vi \u00e8 ", "3781": "na o ", "3782": "cian ", "3783": "co i ", "3784": "vo a ", "3785": "ce e ", "3786": "niam ", "3787": "\u00e8 in ", "3788": "ghio ", "3789": "ghia ", "3790": "se e ", "3791": "diam ", "3792": "re o ", "3793": "e \u2019l ", "3794": "pier ", "3795": "\u00e8 \u2019l ", "3796": "tran ", "3797": "rian ", "3798": "r\u2019 a ", "3799": "steo ", "3800": "stui ", "3801": "quam ", "3802": "gi a ", "3803": "sa \u00e8 ", "3804": "sie\u2019 ", "3805": "za \u00e8 ", "3806": "tier ", "3807": "di a ", "3808": "mi i ", "3809": "no a ", "3810": "pe i ", "3811": "so a ", "3812": "pa \u00e8 ", "3813": "li e ", "3814": "giar ", "3815": "crea ", "3816": "gnel ", "3817": "ne \u00e8 ", "3818": "fior ", "3819": "ri o ", "3820": "dra\u2019 ", "3821": "vian ", "3822": "glia ", "3823": "prie ", "3824": "ne o ", "3825": "gnar ", "3826": "pa a ", "3827": "si a ", "3828": "ca a ", "3829": "do e ", "3830": "s\u00e9 i ", "3831": "to i ", "3832": "gnin ", "3833": "n\u2019 \u00e8 ", "3834": "ti a ", "3835": "tu \u2019 ", "3836": "quia ", "3837": "no \u00e8 ", "3838": "se i ", "3839": "lo \u00e8 ", "3840": "a il ", "3841": "scel ", "3842": "te i ", "3843": "t\u2019 i ", "3844": "gaio ", "3845": "bian ", "3846": "stre ", "3847": "ve a ", "3848": "d\u00e8ch ", "3849": "qual ", "3850": "vuo\u2019 ", "3851": "gion ", "3852": "laio ", "3853": "cion ", "3854": "nier ", "3855": "stie ", "3856": "star ", "3857": "dier ", "3858": "te e ", "3859": "buon ", "3860": "co \u00e8 ", "3861": "va o ", "3862": "que\u2019 ", "3863": "o un ", "3864": "sfar ", "3865": "bo e ", "3866": "to a ", "3867": "duol ", "3868": "zi \u00e8 ", "3869": "mo e ", "3870": "d\u2019 \u00e8 ", "3871": "gnan ", "3872": "t\u2019 \u00e8 ", "3873": "glie ", "3874": "dail ", "3875": "do a ", "3876": "so e ", "3877": "sci\u00f2 ", "3878": "e \u2019n ", "3879": "ta e ", "3880": "ta \u00e8 ", "3881": "li i ", "3882": "scun ", "3883": "ci o ", "3884": "brio ", "3885": "stra ", "3886": "scer ", "3887": "sa e ", "3888": "sc\u00eco ", "3889": "ta o ", "3890": "go e ", "3891": "za i ", "3892": "ci \u00e8 ", "3893": "ni a ", "3894": "pri\u2019 ", "3895": "re a ", "3896": "ver\u2019 ", "3897": "ro i ", "3898": "plar ", "3899": "bent ", "3900": "sche ", "3901": "gean ", "3902": "tiam ", "3903": "le i ", "3904": "slao ", "3905": "stel ", "3906": "pi\u00e9r ", "3907": "ghie ", "3908": "runt ", "3909": "vuoi ", "3910": "toio ", "3911": "svia ", "3912": "die\u2019 ", "3913": "me i ", "3914": "puoi ", "3915": "fuor ", "3916": "guai ", "3917": "ziar ", "3918": "fe e ", "3919": "sti\u00f2 ", "3920": "l\u00e0 i ", "3921": "va e ", "3922": "bi a ", "3923": "di i ", "3924": "bi i ", "3925": "de o ", "3926": "pi e ", "3927": "cean ", "3928": "mo \u00e8 ", "3929": "la \u00e8 ", "3930": "suol ", "3931": "scon ", "3932": "a al ", "3933": "biar ", "3934": "ro \u00e8 ", "3935": "gi\u00f9e ", "3936": "za o ", "3937": "spri ", "3938": "dron ", "3939": "scie ", "3940": "tr\u00e0s ", "3941": "giai ", "3942": "lo e ", "3943": "ro a ", "3944": "pien ", "3945": "breo ", "3946": "pia\u2019 ", "3947": "tris ", "3948": "quei ", "3949": "po o ", "3950": "guon ", "3951": "fian ", "3952": "vuol ", "3953": "nian ", "3954": "ciam ", "3955": "va a ", "3956": "scio ", "3957": "f\u00e9 i ", "3958": "quae ", "3959": "sian ", "3960": "grue ", "3961": "e in ", "3962": "quel ", "3963": "mo a ", "3964": "me e ", "3965": "se a ", "3966": "gien ", "3967": "so i ", "3968": "stil ", "3969": "ga o ", "3970": "rien ", "3971": "fiar ", "3972": "naut ", "3973": "stri ", "3974": "ni e ", "3975": "to o ", "3976": "ve i ", "3977": "da i ", "3978": "zo a ", "3979": "stei ", "3980": "ce a ", "3981": "schi ", "3982": "si i ", "3983": "com\u2019 ", "3984": "mian ", "3985": "sa a ", "3986": "blio ", "3987": "i il ", "3988": "ciai ", "3989": "do o ", "3990": "ma \u00e8 ", "3991": "ta i ", "3992": "d\u00ec i ", "3993": "chio ", "3994": "br\u00f2t ", "3995": "dien ", "3996": "blia ", "3997": "chia ", "3998": "drir ", "3999": "ma o ", "4000": "tree ", "4001": "vria ", "4002": "io e ", "4003": "to e ", "4004": "ph\u00e8l ", "4005": "la e ", "4006": "ci a ", "4007": "ze e ", "4008": "ve e ", "4009": "bion ", "4010": "naio ", "4011": "crin ", "4012": "ni \u00e8 ", "4013": "tuo\u2019 ", "4014": "prei ", "4015": "tram ", "4016": "v\u2019 a ", "4017": "re i ", "4018": "ma e ", "4019": "vaio ", "4020": "cria ", "4021": "giun ", "4022": "piar ", "4023": "tean ", "4024": "ro o ", "4025": "dria ", "4026": "glio ", "4027": "le a ", "4028": "sper ", "4029": "bia\u2019 ", "4030": "m\u2019 \u00e8 ", "4031": "la o ", "4032": "a \u2019l ", "4033": "re \u00e8 ", "4034": "str\u00f2 ", "4035": "drea ", "4036": "me \u00e8 ", "4037": "sa i ", "4038": "ga a ", "4039": "te a ", "4040": "te o ", "4041": "d\u2019 i ", "4042": "spro ", "4043": "cuor ", "4044": "rean ", "4045": "prec ", "4046": "ciel ", "4047": "frui ", "4048": "mo i ", "4049": "gier ", "4050": "da a ", "4051": "da e ", "4052": "pluo ", "4053": "saia ", "4054": "c\u2019 \u00e8 ", "4055": "prai ", "4056": "le \u00e8 ", "4057": "tuoi ", "4058": "giam ", "4059": "cia\u2019 ", "4060": "buoi ", "4061": "sien ", "4062": "sunt ", "4063": "gnor ", "4064": "no o ", "4065": "quai ", "4066": "l\u00e0 il ", "4067": "vrien ", "4068": "po \u2019l ", "4069": "ta or ", "4070": "ro i\u2019 ", "4071": "zia o ", "4072": "v\u2019 el ", "4073": "chiai ", "4074": "scuoi ", "4075": "le al ", "4076": "co io ", "4077": "ghiai ", "4078": "chian ", "4079": "qua \u00e8 ", "4080": "be un ", "4081": "rio e ", "4082": "ca il ", "4083": "stier ", "4084": "tro \u00e8 ", "4085": "va al ", "4086": "do al ", "4087": "vi un ", "4088": "ne ha ", "4089": "co u\u2019 ", "4090": "v\u2019 \u00e8n ", "4091": "t\u00ec \u2019l ", "4092": "bo in ", "4093": "to un ", "4094": "do ed ", "4095": "lo ha ", "4096": "lo il ", "4097": "dro e ", "4098": "gno a ", "4099": "g\u00f2 \u2019l ", "4100": "ma io ", "4101": "la io ", "4102": "ma in ", "4103": "si in ", "4104": "t\u00e9 \u2019l ", "4105": "ti ei ", "4106": "bra o ", "4107": "ria \u2019 ", "4108": "gliel ", "4109": "ce un ", "4110": "co al ", "4111": "le \u2019l ", "4112": "chier ", "4113": "le un ", "4114": "re in ", "4115": "ro od ", "4116": "se ad ", "4117": "co il ", "4118": "que a ", "4119": "ti ed ", "4120": "po in ", "4121": "pre e ", "4122": "do io ", "4123": "pre i ", "4124": "dio e ", "4125": "ta al ", "4126": "di ha ", "4127": "to io ", "4128": "ia oh ", "4129": "lo ai ", "4130": "to ed ", "4131": "va ad ", "4132": "so ad ", "4133": "que \u00e8 ", "4134": "bi un ", "4135": "la a\u2019 ", "4136": "za al ", "4137": "sce e ", "4138": "va \u2019l ", "4139": "to or ", "4140": "zi il ", "4141": "stion ", "4142": "ta un ", "4143": "s\u2019 un ", "4144": "che a ", "4145": "bi \u2019l ", "4146": "za in ", "4147": "te or ", "4148": "la in ", "4149": "sto e ", "4150": "va in ", "4151": "v\u2019 ho ", "4152": "gia o ", "4153": "na ha ", "4154": "tri a ", "4155": "za i\u2019 ", "4156": "cio e ", "4157": "su in ", "4158": "pa ho ", "4159": "no un ", "4160": "na ed ", "4161": "ch\u2019 a ", "4162": "so un ", "4163": "ce a\u2019 ", "4164": "ti io ", "4165": "go al ", "4166": "l\u2019 ha ", "4167": "ne un ", "4168": "te u\u2019 ", "4169": "ma a\u2019 ", "4170": "no ei ", "4171": "de in ", "4172": "rio a ", "4173": "no il ", "4174": "glier ", "4175": "scion ", "4176": "na or ", "4177": "s\u00e9 il ", "4178": "va un ", "4179": "to \u2019l ", "4180": "l\u2019 ho ", "4181": "po il ", "4182": "di a\u2019 ", "4183": "di un ", "4184": "s\u2019 e\u2019 ", "4185": "ci or ", "4186": "qua a ", "4187": "me io ", "4188": "do il ", "4189": "si \u2019l ", "4190": "pr\u2019 a ", "4191": "gliai ", "4192": "mo ad ", "4193": "dri e ", "4194": "gua a ", "4195": "li ha ", "4196": "su \u2019l ", "4197": "la un ", "4198": "go il ", "4199": "d\u2019 el ", "4200": "di il ", "4201": "za il ", "4202": "che i ", "4203": "sci a ", "4204": "dia i ", "4205": "ra io ", "4206": "sco i ", "4207": "ta ha ", "4208": "ti \u2019l ", "4209": "sto a ", "4210": "de ad ", "4211": "li il ", "4212": "ria e ", "4213": "sce i ", "4214": "tra i ", "4215": "ni in ", "4216": "le il ", "4217": "da un ", "4218": "tri \u00e8 ", "4219": "s\u00e9 in ", "4220": "ga in ", "4221": "re ed ", "4222": "c\u2019 ha ", "4223": "mo al ", "4224": "mo \u2019l ", "4225": "ia in ", "4226": "do in ", "4227": "ra \u2019n ", "4228": "gno e ", "4229": "di ed ", "4230": "t\u2019 i\u2019 ", "4231": "l\u2019 un ", "4232": "do ha ", "4233": "m\u2019 ha ", "4234": "ste e ", "4235": "d\u2019 ei ", "4236": "me un ", "4237": "n\u00f2 in ", "4238": "gna o ", "4239": "no a\u2019 ", "4240": "li oh ", "4241": "pio a ", "4242": "que e ", "4243": "v\u2019 or ", "4244": "c\u2019 io ", "4245": "zio e ", "4246": "ch\u00e9 a ", "4247": "ti \u2019n ", "4248": "te un ", "4249": "ve il ", "4250": "zio a ", "4251": "sa ad ", "4252": "te io ", "4253": "n\u2019 io ", "4254": "ria a ", "4255": "pa \u2019l ", "4256": "n\u2019 ha ", "4257": "bia e ", "4258": "pie a ", "4259": "ni ed ", "4260": "le ad ", "4261": "\u2019v\u2019 \u00e8 ", "4262": "t\u2019 ha ", "4263": "pe il ", "4264": "no \u2019l ", "4265": "va ai ", "4266": "ro ad ", "4267": "na un ", "4268": "zi ai ", "4269": "bi in ", "4270": "lo a\u2019 ", "4271": "se ho ", "4272": "gue \u00e8 ", "4273": "po ha ", "4274": "re il ", "4275": "sco e ", "4276": "li in ", "4277": "che \u2019 ", "4278": "tri o ", "4279": "gia e ", "4280": "do or ", "4281": "ste i ", "4282": "ci \u2019l ", "4283": "re ad ", "4284": "se un ", "4285": "to \u2019n ", "4286": "za \u2019l ", "4287": "ba in ", "4288": "li io ", "4289": "fo or ", "4290": "ca in ", "4291": "praia ", "4292": "cio a ", "4293": "be il ", "4294": "ge ad ", "4295": "ce ha ", "4296": "te ed ", "4297": "d\u2019 io ", "4298": "cia o ", "4299": "bio e ", "4300": "ro ed ", "4301": "pri a ", "4302": "ni il ", "4303": "va \u2019n ", "4304": "scian ", "4305": "ra al ", "4306": "be \u2019l ", "4307": "ni or ", "4308": "sta a ", "4309": "ro al ", "4310": "gio o ", "4311": "l\u2019 om ", "4312": "te in ", "4313": "pe \u2019l ", "4314": "te ai ", "4315": "n\u00e9 \u2019l ", "4316": "to a\u2019 ", "4317": "no ai ", "4318": "gri e ", "4319": "la ed ", "4320": "za oh ", "4321": "ra il ", "4322": "le ir ", "4323": "t\u00f2 un ", "4324": "te \u2019l ", "4325": "ti ad ", "4326": "tra e ", "4327": "dro a ", "4328": "v\u2019 e\u2019 ", "4329": "co a\u2019 ", "4330": "so \u2019l ", "4331": "to ir ", "4332": "ci in ", "4333": "no al ", "4334": "go \u2019l ", "4335": "gio e ", "4336": "gui i ", "4337": "r\u00ec \u2019l ", "4338": "di ad ", "4339": "ra ha ", "4340": "chiar ", "4341": "pa ed ", "4342": "mi in ", "4343": "t\u2019 ho ", "4344": "va a\u2019 ", "4345": "va ed ", "4346": "mi ed ", "4347": "ria \u00e8 ", "4348": "sta e ", "4349": "se \u2019n ", "4350": "stial ", "4351": "si or ", "4352": "ba il ", "4353": "sciar ", "4354": "me a\u2019 ", "4355": "mi \u2019l ", "4356": "t\u2019 om ", "4357": "l\u00e0 \u2019l ", "4358": "na ei ", "4359": "bra a ", "4360": "zia \u00e8 ", "4361": "di in ", "4362": "te il ", "4363": "ne ai ", "4364": "tro a ", "4365": "v\u2019 ha ", "4366": "ra ad ", "4367": "chi a ", "4368": "da or ", "4369": "te al ", "4370": "strar ", "4371": "sti \u00e8 ", "4372": "zia e ", "4373": "t\u00e0 \u2019l ", "4374": "ri \u2019l ", "4375": "qui e ", "4376": "ne al ", "4377": "fu il ", "4378": "cia e ", "4379": "te \u2019n ", "4380": "ce u\u2019 ", "4381": "zi ad ", "4382": "t\u2019 el ", "4383": "sce a ", "4384": "se ir ", "4385": "d\u00f2 \u2019l ", "4386": "v\u2019 io ", "4387": "le io ", "4388": "ne ed ", "4389": "gi al ", "4390": "qua o ", "4391": "smo a ", "4392": "za un ", "4393": "le ab ", "4394": "ge al ", "4395": "temps ", "4396": "r\u00f2 \u2019l ", "4397": "s\u2019 ha ", "4398": "ne \u2019l ", "4399": "zio \u00e8 ", "4400": "no i\u2019 ", "4401": "ne io ", "4402": "pe ad ", "4403": "s\u2019 i\u2019 ", "4404": "to ad ", "4405": "ra in ", "4406": "de un ", "4407": "da al ", "4408": "strai ", "4409": "lo ed ", "4410": "ti ai ", "4411": "da i\u2019 ", "4412": "gna e ", "4413": "s\u2019 el ", "4414": "co ad ", "4415": "to il ", "4416": "sti e ", "4417": "mi ad ", "4418": "re al ", "4419": "ma \u2019l ", "4420": "vi il ", "4421": "v\u00f2 \u2019l ", "4422": "gna a ", "4423": "ra \u2019l ", "4424": "do \u2019l ", "4425": "li ei ", "4426": "na in ", "4427": "chi \u00e8 ", "4428": "g\u2019 io ", "4429": "co or ", "4430": "ch\u00e9 i ", "4431": "ro il ", "4432": "c\u2019 ho ", "4433": "gno \u00e8 ", "4434": "lia e ", "4435": "ta il ", "4436": "v\u2019 ei ", "4437": "zo al ", "4438": "me ai ", "4439": "st\u2019 \u00e8 ", "4440": "ra or ", "4441": "sa in ", "4442": "ri in ", "4443": "de ed ", "4444": "t\u00f2 \u2019l ", "4445": "cia i ", "4446": "z\u00f2 \u2019l ", "4447": "gli a ", "4448": "ne ad ", "4449": "re ir ", "4450": "le i\u2019 ", "4451": "mia e ", "4452": "ta ed ", "4453": "pre a ", "4454": "ti al ", "4455": "co \u2019l ", "4456": "to ai ", "4457": "mo ei ", "4458": "fu \u2019l ", "4459": "mo in ", "4460": "che e ", "4461": "ro in ", "4462": "tro i ", "4463": "ci a\u2019 ", "4464": "gni e ", "4465": "lo in ", "4466": "ta io ", "4467": "li al ", "4468": "gio a ", "4469": "za ha ", "4470": "to al ", "4471": "lo al ", "4472": "gua e ", "4473": "di \u2019n ", "4474": "to i\u2019 ", "4475": "bo a\u2019 ", "4476": "si el ", "4477": "tro e ", "4478": "sciai ", "4479": "glior ", "4480": "re un ", "4481": "stian ", "4482": "sa un ", "4483": "me \u2019l ", "4484": "lio \u00e8 ", "4485": "gli e ", "4486": "dre a ", "4487": "da \u2019l ", "4488": "tr\u2019 a ", "4489": "gi il ", "4490": "di or ", "4491": "no ad ", "4492": "re i\u2019 ", "4493": "ri a\u2019 ", "4494": "se i\u2019 ", "4495": "lo un ", "4496": "ria i ", "4497": "no u\u2019 ", "4498": "di al ", "4499": "pio e ", "4500": "fa \u2019l ", "4501": "gna \u00e8 ", "4502": "mi un ", "4503": "zi un ", "4504": "s\u00ec \u2019l ", "4505": "dia e ", "4506": "da io ", "4507": "gliea ", "4508": "ma \u2019n ", "4509": "stral ", "4510": "ta ho ", "4511": "te ad ", "4512": "sta \u00e8 ", "4513": "re a\u2019 ", "4514": "sme e ", "4515": "ci il ", "4516": "la \u2019l ", "4517": "bi il ", "4518": "mo il ", "4519": "f\u00e9 \u2019l ", "4520": "ve ad ", "4521": "li un ", "4522": "re ho ", "4523": "r\u00f2 il ", "4524": "be or ", "4525": "me il ", "4526": "re ha ", "4527": "na il ", "4528": "se io ", "4529": "ci al ", "4530": "se al ", "4531": "zo il ", "4532": "ro a\u2019 ", "4533": "di io ", "4534": "ra ed ", "4535": "svuol ", "4536": "tra \u2019 ", "4537": "re \u2019n ", "4538": "me al ", "4539": "s\u2019 io ", "4540": "glian ", "4541": "sio e ", "4542": "va or ", "4543": "ghi e ", "4544": "mi al ", "4545": "d\u2019 un ", "4546": "ghe a ", "4547": "va il ", "4548": "gra o ", "4549": "d\u2019 e\u2019 ", "4550": "sti a ", "4551": "ta ad ", "4552": "ma un ", "4553": "ne in ", "4554": "do ad ", "4555": "dio a ", "4556": "chion ", "4557": "ta in ", "4558": "gue a ", "4559": "zi al ", "4560": "ia ed ", "4561": "pi in ", "4562": "co in ", "4563": "ch\u2019 \u00e8 ", "4564": "re io ", "4565": "ro or ", "4566": "no ed ", "4567": "ge or ", "4568": "be ed ", "4569": "si un ", "4570": "tu \u2019l ", "4571": "bro \u00e8 ", "4572": "be in ", "4573": "sa \u2019l ", "4574": "na \u2019n ", "4575": "ri al ", "4576": "glien ", "4577": "ve in ", "4578": "do a\u2019 ", "4579": "bre e ", "4580": "sto \u00e8 ", "4581": "te ho ", "4582": "voill ", "4583": "mo ed ", "4584": "ne or ", "4585": "di \u00e8e ", "4586": "puesc ", "4587": "no ha ", "4588": "mi il ", "4589": "me ad ", "4590": "r\u2019 io ", "4591": "le or ", "4592": "gna i ", "4593": "te i\u2019 ", "4594": "sia e ", "4595": "tra a ", "4596": "gno i ", "4597": "ge in ", "4598": "si u\u2019 ", "4599": "li ad ", "4600": "pri e ", "4601": "ve a\u2019 ", "4602": "ni \u2019l ", "4603": "si ad ", "4604": "la il ", "4605": "co un ", "4606": "le ha ", "4607": "n\u2019 ei ", "4608": "sta o ", "4609": "ve un ", "4610": "sca i ", "4611": "se \u2019l ", "4612": "fu al ", "4613": "li or ", "4614": "pa in ", "4615": "do un ", "4616": "lio a ", "4617": "so in ", "4618": "le in ", "4619": "pra e ", "4620": "ci ha ", "4621": "dro o ", "4622": "glion ", "4623": "de il ", "4624": "zo in ", "4625": "v\u2019 i\u2019 ", "4626": "qua e ", "4627": "ste a ", "4628": "se il ", "4629": "ca al ", "4630": "ghe e ", "4631": "no in ", "4632": "li i\u2019 ", "4633": "mo un ", "4634": "stiam ", "4635": "de al ", "4636": "vi in ", "4637": "gliar ", "4638": "ti il ", "4639": "gni a ", "4640": "gi un ", "4641": "b\u2019 io ", "4642": "tri e ", "4643": "bra e ", "4644": "zia a ", "4645": "d\u2019 i\u2019 ", "4646": "tre e ", "4647": "ia il ", "4648": "s\u2019 ei ", "4649": "mi a\u2019 ", "4650": "vi \u2019l ", "4651": "gue e ", "4652": "ne il ", "4653": "li \u2019l ", "4654": "se ai ", "4655": "ne a\u2019 ", "4656": "ghiar ", "4657": "co i\u2019 ", "4658": "da in ", "4659": "na ad ", "4660": "gia \u00e8 ", "4661": "to in ", "4662": "ci io ", "4663": "na al ", "4664": "schio ", "4665": "ti a\u2019 ", "4666": "ti un ", "4667": "ni al ", "4668": "stran ", "4669": "ge il ", "4670": "ha \u2019l ", "4671": "da il ", "4672": "ve \u2019l ", "4673": "ra un ", "4674": "p\u2019 io ", "4675": "za or ", "4676": "zi or ", "4677": "tra \u00e8 ", "4678": "si \u2019n ", "4679": "sti o ", "4680": "gi\u00e0 i ", "4681": "di \u2019l ", "4682": "tr\u2019 \u00e8 ", "4683": "z\u00f2 il ", "4684": "ga il ", "4685": "si il ", "4686": "so a\u2019 ", "4687": "gnaio ", "4688": "gia a ", "4689": "ce ed ", "4690": "dre e ", "4691": "staio ", "4692": "pa or ", "4693": "lo ad ", "4694": "ha in ", "4695": "de \u2019l ", "4696": "si al ", "4697": "ce in ", "4698": "re or ", "4699": "zi \u2019l ", "4700": "no io ", "4701": "ge ai ", "4702": "ge un ", "4703": "to ha ", "4704": "m\u2019 io ", "4705": "me \u2019n ", "4706": "g\u00ec \u2019l ", "4707": "ria o ", "4708": "co ai ", "4709": "zo \u2019l ", "4710": "d\u2019 ir ", "4711": "ce al ", "4712": "se e\u2019 ", "4713": "vra i ", "4714": "bro e ", "4715": "sa il ", "4716": "mo ha ", "4717": "se a\u2019 ", "4718": "chi e ", "4719": "gi \u2019l ", "4720": "lo or ", "4721": "ra a\u2019 ", "4722": "ma il ", "4723": "la al ", "4724": "se or ", "4725": "r\u2019 al ", "4726": "po ed ", "4727": "so il ", "4728": "ve al ", "4729": "t\u2019 il ", "4730": "so al ", "4731": "be al ", "4732": "bre a ", "4733": "gluol ", "4734": "lio e ", "4735": "so \u00e8e ", "4736": "po al ", "4737": "te ha ", "4738": "va io ", "4739": "ti in ", "4740": "t\u2019 io ", "4741": "pi un ", "4742": "me in ", "4743": "cia a ", "4744": "be i\u2019 ", "4745": "ta \u2019l ", "4746": "za ed ", "4747": "me ed ", "4748": "ce il ", "4749": "ca io ", "4750": "ti ha ", "4751": "n\u00f2 \u2019l ", "4752": "te a\u2019 ", "4753": "vo in ", "4754": "gui e ", "4755": "b\u00f2 il ", "4756": "po io ", "4757": "se in ", "4758": "ro un ", "4759": "tri il ", "4760": "chio a ", "4761": "si e \u2019 ", "4762": "ro hai ", "4763": "to hai ", "4764": "pre in ", "4765": "pre ha ", "4766": "stro i ", "4767": "glie e ", "4768": "glio o ", "4769": "tro io ", "4770": "gio in ", "4771": "che io ", "4772": "trio e ", "4773": "schi o ", "4774": "tra al ", "4775": "schi a ", "4776": "tro ai ", "4777": "ri e \u2019 ", "4778": "c\u2019 han ", "4779": "li han ", "4780": "dia in ", "4781": "pre \u2019l ", "4782": "pre a\u2019 ", "4783": "bio ed ", "4784": "pra al ", "4785": "ghiaio ", "4786": "spra e ", "4787": "cia ir ", "4788": "na\u2019 il ", "4789": "gno ed ", "4790": "ne e \u2019 ", "4791": "se uom ", "4792": "chio e ", "4793": "ch\u00e9 \u2019l ", "4794": "sti in ", "4795": "que or ", "4796": "cea il ", "4797": "tro ed ", "4798": "sta al ", "4799": "stri e ", "4800": "so\u2019 \u2019n ", "4801": "zia in ", "4802": "tro un ", "4803": "cia in ", "4804": "tre in ", "4805": "gia or ", "4806": "ti han ", "4807": "chi in ", "4808": "gue in ", "4809": "que in ", "4810": "stro a ", "4811": "ti e i ", "4812": "rio ho ", "4813": "ch\u2019 un ", "4814": "ch\u2019 e\u2019 ", "4815": "gni in ", "4816": "stro o ", "4817": "s\u2019 hai ", "4818": "glia o ", "4819": "gna in ", "4820": "ba e \u2019 ", "4821": "bia in ", "4822": "lia il ", "4823": "bra ad ", "4824": "ch\u00e9 il ", "4825": "ghi al ", "4826": "gno al ", "4827": "pre al ", "4828": "sto io ", "4829": "sce il ", "4830": "m\u2019 han ", "4831": "c\u2019 hai ", "4832": "pria o ", "4833": "sta \u2019n ", "4834": "ch\u2019 ei ", "4835": "qua il ", "4836": "ghia a ", "4837": "sto al ", "4838": "bia \u2019l ", "4839": "chia e ", "4840": "gl\u2019 io ", "4841": "chi a\u2019 ", "4842": "bra od ", "4843": "scia o ", "4844": "sti ha ", "4845": "gli al ", "4846": "gno il ", "4847": "gno in ", "4848": "stia e ", "4849": "l\u2019 uom ", "4850": "stro e ", "4851": "qua in ", "4852": "gue il ", "4853": "smo in ", "4854": "mia al ", "4855": "gno a\u2019 ", "4856": "qui \u2019l ", "4857": "ghio e ", "4858": "ci\u00f2 il ", "4859": "gia un ", "4860": "glia e ", "4861": "zie al ", "4862": "zia il ", "4863": "cia al ", "4864": "tro al ", "4865": "ria il ", "4866": "tra il ", "4867": "chio \u00e8 ", "4868": "chi \u2019n ", "4869": "dre al ", "4870": "tri or ", "4871": "glio a ", "4872": "ch\u2019 ad ", "4873": "pi\u00e9 \u2019l ", "4874": "fra \u2019l ", "4875": "sce in ", "4876": "sta un ", "4877": "tro in ", "4878": "ch\u2019 om ", "4879": "tro \u2019l ", "4880": "sto il ", "4881": "ch\u2019 el ", "4882": "pra \u2019l ", "4883": "gio il ", "4884": "sto in ", "4885": "gi\u00e0 il ", "4886": "que i\u2019 ", "4887": "gli\u00f2 i ", "4888": "gia \u2019l ", "4889": "ghi in ", "4890": "chi \u2019l ", "4891": "n\u2019 uom ", "4892": "me e \u2019 ", "4893": "ci\u00f2 \u2019l ", "4894": "gno ad ", "4895": "ne e i ", "4896": "te han ", "4897": "due \u2019l ", "4898": "dria e ", "4899": "tre al ", "4900": "sco il ", "4901": "cia un ", "4902": "ghi \u2019l ", "4903": "sia \u2019l ", "4904": "ria al ", "4905": "qua io ", "4906": "po e \u2019 ", "4907": "gi\u00f9 \u2019l ", "4908": "gia il ", "4909": "zio al ", "4910": "ra hai ", "4911": "sc\u2019 io ", "4912": "schiar ", "4913": "pi\u00f9 \u2019l ", "4914": "se\u2019 in ", "4915": "ch\u2019 i\u2019 ", "4916": "chi ha ", "4917": "gliuol ", "4918": "bre a\u2019 ", "4919": "sta in ", "4920": "bra in ", "4921": "gli un ", "4922": "chi il ", "4923": "fia il ", "4924": "ch\u2019 \u00e8i ", "4925": "pra ed ", "4926": "tre un ", "4927": "cio ed ", "4928": "sta il ", "4929": "tro ha ", "4930": "do hai ", "4931": "gna a\u2019 ", "4932": "tre i\u2019 ", "4933": "ra han ", "4934": "m\u2019 hai ", "4935": "sti il ", "4936": "tro i\u2019 ", "4937": "sa e \u2019 ", "4938": "ro e \u2019 ", "4939": "st\u2019 ho ", "4940": "pria e ", "4941": "tri ad ", "4942": "qu\u2019 io ", "4943": "sc\u00ec \u2019l ", "4944": "ci e \u2019 ", "4945": "che \u2019l ", "4946": "ch\u2019 a\u2019 ", "4947": "pa e \u2019 ", "4948": "cia ad ", "4949": "li ha\u2019 ", "4950": "stro \u00e8 ", "4951": "dio in ", "4952": "tri \u2019l ", "4953": "gna il ", "4954": "tro ad ", "4955": "dro in ", "4956": "che a\u2019 ", "4957": "ni e i ", "4958": "nio al ", "4959": "gro un ", "4960": "ch\u2019 ai ", "4961": "pia in ", "4962": "smo al ", "4963": "que il ", "4964": "gio ha ", "4965": "gno or ", "4966": "tra in ", "4967": "c\u2019 ha\u2019 ", "4968": "que io ", "4969": "ste in ", "4970": "\u2019ve \u2019l ", "4971": "che un ", "4972": "tro a\u2019 ", "4973": "ch\u2019 or ", "4974": "t\u2019 hai ", "4975": "pra in ", "4976": "stra a ", "4977": "vea \u2019l ", "4978": "stra \u00e8 ", "4979": "l\u2019 hai ", "4980": "strans ", "4981": "qua al ", "4982": "chi al ", "4983": "chi ei ", "4984": "stie e ", "4985": "gio ad ", "4986": "sto ad ", "4987": "que al ", "4988": "que a\u2019 ", "4989": "gua in ", "4990": "che \u2019n ", "4991": "gna un ", "4992": "rio ha ", "4993": "gne \u2019l ", "4994": "d\u2019 uom ", "4995": "dia \u2019l ", "4996": "que ad ", "4997": "ch\u00e9 \u2019n ", "4998": "di\u2019 \u2019l ", "4999": "nia il ", "5000": "scia e ", "5001": "dri ai ", "5002": "ti e \u2019 ", "5003": "tra i\u2019 ", "5004": "scio a ", "5005": "stio e ", "5006": "vra \u2019l ", "5007": "che il ", "5008": "gio al ", "5009": "tr\u2019 a\u2019 ", "5010": "ch\u2019 io ", "5011": "t\u2019 ha\u2019 ", "5012": "ni e \u2019 ", "5013": "tr\u2019 al ", "5014": "va e i ", "5015": "che al ", "5016": "glia a ", "5017": "di e \u2019 ", "5018": "sto ha ", "5019": "tro il ", "5020": "ne han ", "5021": "tra \u2019l ", "5022": "tre il ", "5023": "qui un ", "5024": "gliaio ", "5025": "ste il ", "5026": "cia il ", "5027": "rio il ", "5028": "rio in ", "5029": "ch\u2019 al ", "5030": "pu\u00f2 \u2019l ", "5031": "gno ha ", "5032": "glia \u00e8 ", "5033": "tr\u2019 io ", "5034": "lio ed ", "5035": "so hai ", "5036": "stra e ", "5037": "che in ", "5038": "gu\u00ec \u2019l ", "5039": "sche o ", "5040": "sti \u2019l ", "5041": "glio e ", "5042": "gne al ", "5043": "scia a ", "5044": "gi\u00e0 \u2019l ", "5045": "gliuoi ", "5046": "ch\u2019 in ", "5047": "gna \u2019l ", "5048": "re e \u2019l ", "5049": "lo \u00e8 in ", "5050": "glia il ", "5051": "ma e \u2019l ", "5052": "stro il ", "5053": "chio il ", "5054": "bre e \u2019 ", "5055": "schia e ", "5056": "glie \u2019l ", "5057": "ro e \u2019l ", "5058": "te e \u2019l ", "5059": "re e in ", "5060": "tr\u2019 ier ", "5061": "m\u2019 \u00e8 il ", "5062": "vo e \u2019l ", "5063": "to o al ", "5064": "co e \u2019l ", "5065": "glia un ", "5066": "go \u00e8 in ", "5067": "stia ad ", "5068": "m\u2019 \u00e8 \u2019l ", "5069": "ch\u2019 uom ", "5070": "dia e i ", "5071": "de e \u2019l ", "5072": "schio e ", "5073": "stra il ", "5074": "ga e \u2019l ", "5075": "gne uom ", "5076": "mi e \u2019l ", "5077": "stro in ", "5078": "lio e i ", "5079": "v\u2019 \u00e8 in ", "5080": "glio ai ", "5081": "me e \u2019n ", "5082": "ca e \u2019l ", "5083": "chio al ", "5084": "qu\u2019 ieu ", "5085": "bo e \u2019l ", "5086": "stra \u2019l ", "5087": "no e \u2019l ", "5088": "na e \u2019l ", "5089": "do e \u2019n ", "5090": "stri in ", "5091": "po e \u2019l ", "5092": "ce e \u2019l ", "5093": "l\u2019 \u00e8 \u2019l ", "5094": "glie in ", "5095": "ne e \u2019l ", "5096": "se e \u2019l ", "5097": "me e \u2019l ", "5098": "stro ed ", "5099": "ta e \u2019n ", "5100": "la e \u2019l ", "5101": "glia al ", "5102": "v\u2019 \u00e8 \u2019l ", "5103": "te e \u2019n ", "5104": "stro or ", "5105": "tra e \u2019 ", "5106": "dre e \u2019 ", "5107": "so e \u2019l ", "5108": "glio in ", "5109": "to \u00e8 \u2019l ", "5110": "za e \u2019l ", "5111": "sa e \u2019l ", "5112": "ta e \u2019l ", "5113": "le e il ", "5114": "glio or ", "5115": "si e \u2019l ", "5116": "go e \u2019l ", "5117": "chio in ", "5118": "che e \u2019 ", "5119": "sci\u00f2 il ", "5120": "ci e \u2019l ", "5121": "mo e \u2019l ", "5122": "de e \u2019n ", "5123": "ra e \u2019l ", "5124": "chio ha ", "5125": "va e \u2019n ", "5126": "chia al ", "5127": "to e \u2019l ", "5128": "be e \u2019l ", "5129": "ti e \u2019l ", "5130": "zo e \u2019l ", "5131": "scia il ", "5132": "glia in ", "5133": "va e \u2019l ", "5134": "le e \u2019l ", "5135": "tro e \u2019l ", "5136": "l\u2019 ha in ", "5137": "tre e \u2019l ", "5138": "dio \u00e8 \u2019l ", "5139": "tra e \u2019l ", "5140": "sta e \u2019l ", "5141": "ch\u2019 \u00e8 in ", "5142": "tri e \u2019l ", "5143": "tr\u2019 \u00e8 \u2019l ", "5144": "ria e \u2019l ", "5145": "stie hai ", "5146": "v\u2019 ha \u2019l ", "5147": "ria \u00e8 \u2019l ", "5148": "te ha in ", "5149": "bra e \u2019l ", "5150": "dre e \u2019l ", "5151": "que e \u2019l ", "5152": "zie e \u2019l ", "5153": "gio e \u2019l ", "5154": "to ha \u2019l ", "5155": "schi uom ", "5156": "dio e \u2019l ", "5157": "sta \u00e8 in ", "5158": "chi e \u2019l ", "5159": "gli e in ", "5160": "zio e \u2019l ", "5161": "pra e \u2019l ", "5162": "bia e \u2019l ", "5163": "sti \u00e8 \u2019l ", "5164": "st\u2019 \u00e8 \u2019l ", "5165": "c\u2019 ha \u2019l ", "5166": "s\u2019 i\u2019 \u2019l ", "5167": "cia e \u2019l ", "5168": "so ha \u2019l ", "5169": "d\u2019 io \u2019l ", "5170": "chio o \u2019l ", "5171": "chie e \u2019n ", "5172": "stro e \u2019l ", "5173": "glio e \u2019l ", "5174": "chio e \u2019l ", "5175": "ch\u2019 io \u2019l ", "5176": "scia e \u2019l ", "5177": "ch\u2019 i\u2019 \u2019l "}