{"0": "", "1": "<v>", "2": "</v>", "3": "<t><v>", "4": "\u00ef", "5": "e", "6": "u", "7": "c", "8": "v", "9": "\u00e8", "10": "i", "11": "o", "12": "a", "13": "\u00fc", "14": "\u00f2", "15": "s", "16": "\u00e9", "17": "g", "18": "az", "19": "d\u00e8", "20": "ef", "21": "di", "22": "ho", "23": "eb", "24": "da", "25": "ae", "26": "am", "27": "te", "28": "fe", "29": "l\u00ec", "30": "em", "31": "ve", "32": "m\u00e4", "33": "os", "34": "p\u00f2", "35": "l\u00eb", "36": "ba", "37": "b\u00ef", "38": "vi", "39": "v\u00e8", "40": "s\u00f2", "41": "r\u00ef", "42": "s\u00eb", "43": "p\u00fc", "44": "nu", "45": "ra", "46": "t\u00f2", "47": "og", "48": "m\u00ef", "49": "af", "50": "g\u00eb", "51": "lu", "52": "g\u00ef", "53": "m\u00ec", "54": "p\u00ec", "55": "ab", "56": "r\u00e0", "57": "fi", "58": "n\u00ef", "59": "p\u00ef", "60": "li", "61": "ex", "62": "n\u00e8", "63": "or", "64": "ol", "65": "s\u00ef", "66": "z\u00ef", "67": "cu", "68": "ai", "69": "\u00f2s", "70": "uo", "71": "at", "72": "va", "73": "gi", "74": "de", "75": "ru", "76": "t\u00ef", "77": "ad", "78": "l\u00f2", "79": "v\u00f2", "80": "su", "81": "op", "82": "lo", "83": "f\u00eb", "84": "ta", "85": "al", "86": "ha", "87": "l\u00fc", "88": "r\u00e8", "89": "b\u00eb", "90": "f\u00ef", "91": "c\u00ef", "92": "id", "93": "is", "94": "au", "95": "c\u00fc", "96": "av", "97": "s\u00e0", "98": "t\u00eb", "99": "n\u00eb", "100": "im", "101": "mu", "102": "bu", "103": "c\u00eb", "104": "s\u00fc", "105": "t\u00fc", "106": "vo", "107": "zo", "108": "p\u00e8", "109": "t\u00ec", "110": "r\u00eb", "111": "en", "112": "tu", "113": "d\u00eb", "114": "ne", "115": "bi", "116": "do", "117": "ze", "118": "xi", "119": "be", "120": "un", "121": "d\u00e9", "122": "ur", "123": "oc", "124": "ro", "125": "\u00e8v", "126": "m\u00e8", "127": "d\u00fc", "128": "d\u00ef", "129": "ia", "130": "na", "131": "f\u00e9", "132": "ag", "133": "le", "134": "ri", "135": "el", "136": "pu", "137": "ar", "138": "za", "139": "t\u00e8", "140": "il", "141": "ge", "142": "ot", "143": "c\u00f9", "144": "io", "145": "ni", "146": "om", "147": "ci", "148": "ie", "149": "ec", "150": "n\u00fc", "151": "ac", "152": "pe", "153": "es", "154": "uc", "155": "c\u00ec", "156": "me", "157": "t\u00e4", "158": "n\u00f2", "159": "ma", "160": "ti", "161": "\u00e8n", "162": "zi", "163": "bo", "164": "on", "165": "go", "166": "gu", "167": "vu", "168": "f\u00f3", "169": "l\u00f6", "170": "ob", "171": "mo", "172": "fo", "173": "po", "174": "se", "175": "so", "176": "v\u00ef", "177": "ga", "178": "hi", "179": "ca", "180": "g\u00f3", "181": "m\u00eb", "182": "s\u00e9", "183": "si", "184": "ce", "185": "v\u00e9", "186": "fu", "187": "re", "188": "an", "189": "sa", "190": "et", "191": "du", "192": "of", "193": "l\u00e0", "194": "pi", "195": "g\u00e8", "196": "pa", "197": "l\u00ef", "198": "eu", "199": "co", "200": "v\u00eb", "201": "r\u00f3", "202": "ap", "203": "fa", "204": "no", "205": " u", "206": "mi", "207": "iu", "208": "l\u00e8", "209": "la", "210": "to", "211": "as", "212": "ov", "213": "g\u00fc", "214": "p\u00eb", "215": "qu", "216": "er", "217": "ul", "218": "in", "219": "s\u00f9", "220": "rat", "221": "pir", "222": "meg", "223": "sna", "224": "lec", "225": "suf", "226": "cel", "227": "dub", "228": "sio", "229": "cez", "230": "nar", "231": "men", "232": "bie", "233": "fib", "234": "por", "235": "plo", "236": "fiu", "237": "deg", "238": "gne", "239": "luz", "240": "lop", "241": "mic", "242": "len", "243": "o a", "244": "ser", "245": "nef", "246": "til", "247": "buc", "248": "lit", "249": "tle", "250": "cam", "251": "tie", "252": "maz", "253": "man", "254": "dez", "255": "loc", "256": "gia", "257": "sla", "258": "mam", "259": "nig", "260": "sun", "261": "bis", "262": "tre", "263": "don", "264": "pue", "265": "rec", "266": "dir", "267": "tel", "268": "sot", "269": "sle", "270": "dif", "271": "suc", "272": "bru", "273": "cuc", "274": "per", "275": "mes", "276": "mur", "277": "pon", "278": "fic", "279": "muo", "280": "far", "281": "rar", "282": "iep", "283": "vas", "284": "zur", "285": "fur", "286": "mot", "287": "v\u00f2l", "288": "mac", "289": "car", "290": "pli", "291": "lic", "292": "roz", "293": "rez", "294": "let", "295": "mun", "296": "pau", "297": "mon", "298": "set", "299": "teg", "300": "lip", "301": "put", "302": "pas", "303": "smo", "304": "sec", "305": "qu\u00ef", "306": "ruf", "307": "gal", "308": "bro", "309": "nal", "310": "lur", "311": "sma", "312": "dol", "313": "xil", "314": "sup", "315": "lia", "316": "nuc", "317": "zel", "318": "sol", "319": "sug", "320": "dr\u00e4", "321": "ruo", "322": "pan", "323": "lar", "324": "mal", "325": "lat", "326": "dor", "327": "roc", "328": "rom", "329": "nob", "330": "dau", "331": "leo", "332": "tra", "333": "rit", "334": "bev", "335": "ten", "336": "nes", "337": "tol", "338": "fru", "339": "chi", "340": "lav", "341": "net", "342": "r\u00e8g", "343": "mer", "344": "lem", "345": "zaf", "346": "bot", "347": "pun", "348": "ben", "349": "vom", "350": "gen", "351": "con", "352": "sia", "353": "die", "354": "but", "355": "tam", "356": "vuo", "357": "bli", "358": "tac", "359": "leg", "360": "pl\u00ec", "361": "pub", "362": "fat", "363": "pio", "364": "qua", "365": "fon", "366": "fla", "367": "zac", "368": "pop", "369": "rot", "370": "stu", "371": "fuo", "372": "tan", "373": "bol", "374": "gom", "375": "t\u00f2r", "376": "vem", "377": "lup", "378": "guc", "379": "lap", "380": "nio", "381": "cra", "382": "fab", "383": "o u", "384": "br\u00ef", "385": "mie", "386": "geo", "387": "fes", "388": "nom", "389": "pig", "390": "vec", "391": "fit", "392": "pur", "393": "gel", "394": "reb", "395": "buf", "396": "cre", "397": "cot", "398": "a a", "399": "gur", "400": "tin", "401": "lul", "402": "o e", "403": "cic", "404": "ciu", "405": "sog", "406": "pil", "407": "nis", "408": "gar", "409": "tir", "410": "vit", "411": "a u", "412": "fol", "413": "tag", "414": "bet", "415": "ler", "416": "nea", "417": "fra", "418": "cui", "419": "bul", "420": "lot", "421": "tas", "422": "cob", "423": "nul", "424": "pap", "425": "vel", "426": "lin", "427": "paz", "428": "bra", "429": "ter", "430": "dio", "431": "suo", "432": "neb", "433": "pen", "434": "gat", "435": "rav", "436": "gio", "437": "gie", "438": "nol", "439": "tat", "440": "nel", "441": "pol", "442": "giz", "443": "san", "444": "che", "445": "tru", "446": "rag", "447": "fan", "448": "nil", "449": "cil", "450": "tad", "451": "mil", "452": "gui", "453": "ris", "454": "nag", "455": "pot", "456": "dru", "457": "nat", "458": "tic", "459": "rol", "460": "rid", "461": "dem", "462": "sum", "463": "pro", "464": "quo", "465": "vir", "466": "rug", "467": "las", "468": "sve", "469": "sba", "470": "seg", "471": "sfo", "472": "rem", "473": "nun", "474": "cul", "475": "mir", "476": "vis", "477": "lir", "478": "ruc", "479": "gri", "480": "get", "481": "dot", "482": "nor", "483": "dre", "484": "glo", "485": "lor", "486": "bui", "487": "ram", "488": "tut", "489": "lep", "490": "soz", "491": "rin", "492": "gir", "493": "spu", "494": "ghi", "495": "tho", "496": "din", "497": "sez", "498": "cad", "499": "rio", "500": "nir", "501": "can", "502": "sra", "503": "dra", "504": "sal", "505": "cos", "506": "diz", "507": "raf", "508": "que", "509": "tau", "510": "nan", "511": "ves", "512": "ric", "513": "fem", "514": "gea", "515": "vid", "516": "bom", "517": "smi", "518": "fas", "519": "ste", "520": "bef", "521": "pos", "522": "cur", "523": "flu", "524": "cor", "525": "ple", "526": "luc", "527": "clu", "528": "cro", "529": "bec", "530": "pru", "531": "deb", "532": "sis", "533": "sta", "534": "poc", "535": "saf", "536": "red", "537": "goc", "538": "m\u00e9z", "539": "coz", "540": "lil", "541": "tr\u00ef", "542": "zio", "543": "sur", "544": "zon", "545": "pec", "546": "pog", "547": "svi", "548": "bri", "549": "fel", "550": "t\u00f2m", "551": "des", "552": "gru", "553": "mez", "554": "spa", "555": "cin", "556": "piz", "557": "lez", "558": "gre", "559": "sor", "560": "toc", "561": "cr\u00e0", "562": "del", "563": "dur", "564": "sob", "565": "cum", "566": "mat", "567": "spe", "568": "sil", "569": "coc", "570": "zan", "571": "cac", "572": "cen", "573": "fen", "574": "gad", "575": "lon", "576": "vam", "577": "bat", "578": "piu", "579": "col", "580": "peg", "581": "pat", "582": "svo", "583": "mug", "584": "nur", "585": "nev", "586": "for", "587": "vat", "588": "run", "589": "dun", "590": "rob", "591": "tal", "592": "sce", "593": "cat", "594": "e a", "595": "cau", "596": "feg", "597": "vet", "598": "sud", "599": "fer", "600": "scu", "601": "bal", "602": "vei", "603": "nic", "604": "tet", "605": "dus", "606": "mol", "607": "sod", "608": "ch\u00ef", "609": "fal", "610": "dan", "611": "gim", "612": "zia", "613": "lom", "614": "ner", "615": "vag", "616": "gem", "617": "cio", "618": "nem", "619": "mia", "620": "got", "621": "ron", "622": "gag", "623": "rea", "624": "mai", "625": "feb", "626": "mar", "627": "gib", "628": "fun", "629": "tim", "630": "ril", "631": "nim", "632": "cal", "633": "cem", "634": "sac", "635": "gab", "636": "sep", "637": "bug", "638": "viz", "639": "gua", "640": "fog", "641": "van", "642": "rac", "643": "lut", "644": "der", "645": "duo", "646": "dil", "647": "bur", "648": "f\u00e0c", "649": "lan", "650": "fug", "651": "leb", "652": "bel", "653": "sto", "654": "tro", "655": "sca", "656": "bil", "657": "pri", "658": "niz", "659": "pre", "660": "sap", "661": "tes", "662": "clo", "663": "rab", "664": "dec", "665": "son", "666": "dug", "667": "tuo", "668": "pel", "669": "dei", "670": "rof", "671": "fro", "672": "bia", "673": "ban", "674": "sag", "675": "val", "676": "cet", "677": "dis", "678": "raz", "679": "c\u00f3l", "680": "gas", "681": "han", "682": "sof", "683": "poz", "684": "plu", "685": "st\u00ef", "686": "sie", "687": "nin", "688": "jau", "689": "puo", "690": "sno", "691": "mem", "692": "som", "693": "ial", "694": "fam", "695": "nec", "696": "neg", "697": "muc", "698": "ch\u00ec", "699": "dov", "700": "e u", "701": "ros", "702": "dom", "703": "zar", "704": "sat", "705": "sas", "706": "dar", "707": "var", "708": "lim", "709": "nac", "710": "dul", "711": "git", "712": "cis", "713": "dia", "714": "dam", "715": "sme", "716": "bab", "717": "lun", "718": "sfe", "719": "boz", "720": "fos", "721": "soc", "722": "dop", "723": "gni", "724": "zuc", "725": "cie", "726": "sic", "727": "iat", "728": "p\u00e0r", "729": "dat", "730": "c\u00e9r", "731": "cas", "732": "lea", "733": "sub", "734": "sen", "735": "mos", "736": "vul", "737": "fis", "738": "tez", "739": "veg", "740": "laz", "741": "mag", "742": "dic", "743": "sam", "744": "luo", "745": "par", "746": "lel", "747": "lus", "748": "gol", "749": "mel", "750": "gil", "751": "dut", "752": "bre", "753": "sop", "754": "cle", "755": "ses", "756": "doc", "757": "fle", "758": "sab", "759": "m\u00e8c", "760": "mul", "761": "gis", "762": "pet", "763": "gon", "764": "sde", "765": "tos", "766": "sp\u00ef", "767": "bar", "768": "lui", "769": "cop", "770": "dro", "771": "fom", "772": "gau", "773": "ger", "774": "pac", "775": "fre", "776": "nie", "777": "fuc", "778": "fig", "779": "gob", "780": "buo", "781": "met", "782": "cap", "783": "sci", "784": "hon", "785": "pi\u00e9", "786": "nez", "787": "qui", "788": "pie", "789": "iar", "790": "dea", "791": "sar", "792": "fum", "793": "vor", "794": "puz", "795": "pin", "796": "ras", "797": "lis", "798": "gra", "799": "fin", "800": "noc", "801": "cia", "802": "res", "803": "ian", "804": "cag", "805": "pia", "806": "les", "807": "rie", "808": "min", "809": "bl\u00ef", "810": "tom", "811": "tur", "812": "pis", "813": "dal", "814": "ria", "815": "cea", "816": "cov", "817": "dri", "818": "lac", "819": "guz", "820": "tuf", "821": "fie", "822": "rup", "823": "cer", "824": "tor", "825": "pom", "826": "com", "827": "rog", "828": "sgo", "829": "o i", "830": "top", "831": "not", "832": "cun", "833": "cuo", "834": "ges", "835": "giu", "836": "mas", "837": "p\u00f2s", "838": "gaz", "839": "gno", "840": "vie", "841": "pla", "842": "cl\u00ef", "843": "ghe", "844": "zuf", "845": "lab", "846": "tun", "847": "ren", "848": "vez", "849": "cru", "850": "lau", "851": "bas", "852": "von", "853": "f\u00e9l", "854": "tea", "855": "tis", "856": "sbi", "857": "vol", "858": "muf", "859": "pes", "860": "biz", "861": "rel", "862": "cla", "863": "tec", "864": "tem", "865": "vil", "866": "rig", "867": "bea", "868": "gue", "869": "den", "870": "bun", "871": "sem", "872": "gam", "873": "lam", "874": "gli", "875": "ver", "876": "det", "877": "bac", "878": "sti", "879": "ior", "880": "sc\u00ef", "881": "ful", "882": "dob", "883": "dos", "884": "cep", "885": "cit", "886": "fia", "887": "riz", "888": "goz", "889": "sov", "890": "non", "891": "nuo", "892": "fet", "893": "rap", "894": "smu", "895": "pit", "896": "ber", "897": "ran", "898": "sin", "899": "tri", "900": "cir", "901": "gna", "902": "nen", "903": "sfa", "904": "vin", "905": "moz", "906": "caf", "907": "bio", "908": "fac", "909": "puc", "910": "sga", "911": "sr\u00e4", "912": "sit", "913": "gor", "914": "cri", "915": "bor", "916": "mor", "917": "sco", "918": "spi", "919": "tar", "920": "nia", "921": "gan", "922": "spo", "923": "pul", "924": "dim", "925": "ier", "926": "fio", "927": "pal", "928": "noz", "929": "lie", "930": "rim", "931": "sel", "932": "vac", "933": "ces", "934": "sos", "935": "rut", "936": "cli", "937": "reg", "938": "rir", "939": "nas", "940": "guo", "941": "cef", "942": "bin", "943": "sv\u00ef", "944": "tuc", "945": "boc", "946": "ret", "947": "sus", "948": "ven", "949": "dit", "950": "ton", "951": "ral", "952": "gnu", "953": "das", "954": "pic", "955": "lai", "956": "fri", "957": "dr\u00ef", "958": "bon", "959": "pra", "960": "c\u2019 e", "961": "na o", "962": "se \u00eb", "963": "drit", "964": "guic", "965": "ca a", "966": "greg", "967": "fioc", "968": "me a", "969": "cruc", "970": "gnaz", "971": "d\u2019 \u00eb", "972": "dram", "973": "t\u2019 u", "974": "drap", "975": "za u", "976": "stri", "977": "brut", "978": "da i", "979": "fran", "980": "\u00e8 in", "981": "scer", "982": "spia", "983": "di e", "984": "cher", "985": "stil", "986": "spro", "987": "o av", "988": "o al", "989": "vi a", "990": "puos", "991": "scir", "992": "fles", "993": "la e", "994": "stam", "995": "giug", "996": "n\u2019 u", "997": "ciom", "998": "da o", "999": "la a", "1000": "tu e", "1001": "spel", "1002": "va o", "1003": "pa e", "1004": "to i", "1005": "no o", "1006": "scri", "1007": "na i", "1008": "spal", "1009": "de i", "1010": "bias", "1011": "piez", "1012": "smen", "1013": "dien", "1014": "de o", "1015": "truo", "1016": "scro", "1017": "li a", "1018": "r\u2019 u", "1019": "fiot", "1020": "trap", "1021": "biet", "1022": "scet", "1023": "spun", "1024": "scom", "1025": "s\u2019 a", "1026": "grat", "1027": "cion", "1028": "trac", "1029": "stet", "1030": "scim", "1031": "spaz", "1032": "flit", "1033": "ciac", "1034": "spet", "1035": "dhae", "1036": "be i", "1037": "grie", "1038": "clas", "1039": "stuc", "1040": "sbra", "1041": "ma a", "1042": "stre", "1043": "se i", "1044": "mo o", "1045": "so e", "1046": "tu i", "1047": "brul", "1048": "d\u2019 i", "1049": "bian", "1050": "stuo", "1051": "ghir", "1052": "d\u2019 u", "1053": "so i", "1054": "z\u2019 o", "1055": "stel", "1056": "gias", "1057": "lo o", "1058": "me e", "1059": "piat", "1060": "r\u2019 o", "1061": "pi e", "1062": "va a", "1063": "t\u2019 e", "1064": "scuf", "1065": "sgan", "1066": "trec", "1067": "quar", "1068": "scol", "1069": "chiu", "1070": "prir", "1071": "ciot", "1072": "quat", "1073": "gnas", "1074": "chil", "1075": "glio", "1076": "glet", "1077": "ghio", "1078": "ze e", "1079": "guen", "1080": "spin", "1081": "smar", "1082": "ca u", "1083": "giac", "1084": "pres", "1085": "ce e", "1086": "l\u2019 i", "1087": "squi", "1088": "chez", "1089": "na u", "1090": "gnor", "1091": "s\u00ec o", "1092": "sden", "1093": "ce o", "1094": "smal", "1095": "stan", "1096": "fa i", "1097": "pe e", "1098": "span", "1099": "scuo", "1100": "vi e", "1101": "te o", "1102": "gior", "1103": "za o", "1104": "l\u2019 e", "1105": "re e", "1106": "svel", "1107": "l\u2019 u", "1108": "clis", "1109": "spit", "1110": "chet", "1111": "stra", "1112": "proc", "1113": "spar", "1114": "pron", "1115": "ti u", "1116": "re o", "1117": "l\u2019 o", "1118": "egyp", "1119": "stin", "1120": "pa u", "1121": "l\u00ec a", "1122": "chis", "1123": "no u", "1124": "io a", "1125": "tron", "1126": "mo u", "1127": "a in", "1128": "spor", "1129": "trag", "1130": "scab", "1131": "bron", "1132": "\u00e8 on", "1133": "da a", "1134": "prez", "1135": "be u", "1136": "l\u2019 a", "1137": "l\u2019 \u00f2", "1138": "dian", "1139": "scor", "1140": "trom", "1141": "guef", "1142": "s\u2019 \u00ef", "1143": "bren", "1144": "cias", "1145": "scis", "1146": "be a", "1147": "ci u", "1148": "gian", "1149": "va u", "1150": "tien", "1151": "ga e", "1152": "gnan", "1153": "ze o", "1154": "do u", "1155": "ne a", "1156": "si e", "1157": "quer", "1158": "gi u", "1159": "s\u2019 o", "1160": "sfor", "1161": "ci o", "1162": "tror", "1163": "de e", "1164": "sdet", "1165": "no e", "1166": "ve i", "1167": "bo e", "1168": "spol", "1169": "po a", "1170": "ni e", "1171": "sfat", "1172": "giar", "1173": "chie", "1174": "n\u2019 o", "1175": "e \u2019n", "1176": "scie", "1177": "smon", "1178": "zian", "1179": "mi e", "1180": "le a", "1181": "no a", "1182": "mo a", "1183": "piog", "1184": "do e", "1185": "n\u2019 a", "1186": "to e", "1187": "go e", "1188": "spir", "1189": "sfer", "1190": "ro e", "1191": "lo u", "1192": "mi u", "1193": "quan", "1194": "si o", "1195": "se o", "1196": "cras", "1197": "bo i", "1198": "stav", "1199": "gram", "1200": "va i", "1201": "d\u2019 \u00ef", "1202": "trul", "1203": "ghil", "1204": "schi", "1205": "c\u2019 o", "1206": "brol", "1207": "ra a", "1208": "stul", "1209": "stem", "1210": "me u", "1211": "z\u2019 a", "1212": "\u00e8 im", "1213": "re i", "1214": "ra o", "1215": "sfam", "1216": "trot", "1217": "lev\u00e4", "1218": "fian", "1219": "scot", "1220": "ca o", "1221": "guer", "1222": "sgom", "1223": "a es", "1224": "mo e", "1225": "sman", "1226": "p\u2019 e", "1227": "sa o", "1228": "gioi", "1229": "scic", "1230": "ve a", "1231": "ge a", "1232": "pruo", "1233": "stru", "1234": "brez", "1235": "grop", "1236": "ta e", "1237": "sber", "1238": "to o", "1239": "crea", "1240": "ro i", "1241": "do i", "1242": "viem", "1243": "po o", "1244": "s\u00ec u", "1245": "di o", "1246": "zi u", "1247": "io u", "1248": "trop", "1249": "gher", "1250": "te i", "1251": "li o", "1252": "si u", "1253": "si i", "1254": "ta u", "1255": "spon", "1256": "ma u", "1257": "tras", "1258": "flig", "1259": "va e", "1260": "flet", "1261": "sver", "1262": "so o", "1263": "trar", "1264": "trie", "1265": "re a", "1266": "guiz", "1267": "bi a", "1268": "buon", "1269": "sfre", "1270": "scia", "1271": "grom", "1272": "piov", "1273": "se e", "1274": "stec", "1275": "ga o", "1276": "graf", "1277": "pi i", "1278": "a ac", "1279": "gi e", "1280": "giam", "1281": "di i", "1282": "stio", "1283": "quel", "1284": "sa u", "1285": "ne u", "1286": "vo o", "1287": "ciul", "1288": "di a", "1289": "sfin", "1290": "stro", "1291": "go a", "1292": "sper", "1293": "ro a", "1294": "zi e", "1295": "ro o", "1296": "ni o", "1297": "blan", "1298": "ri u", "1299": "ro u", "1300": "ghez", "1301": "z\u2019 i", "1302": "piac", "1303": "stia", "1304": "g\u2019 \u00ef", "1305": "te a", "1306": "guaz", "1307": "to u", "1308": "piom", "1309": "ciar", "1310": "grot", "1311": "za a", "1312": "chia", "1313": "glie", "1314": "spec", "1315": "ziar", "1316": "gnar", "1317": "qual", "1318": "gial", "1319": "guar", "1320": "ta i", "1321": "gron", "1322": "tret", "1323": "sgor", "1324": "scos", "1325": "guet", "1326": "guag", "1327": "pris", "1328": "ciuo", "1329": "do o", "1330": "scen", "1331": "be o", "1332": "ci a", "1333": "sneb", "1334": "no i", "1335": "scon", "1336": "ri e", "1337": "scar", "1338": "ciuf", "1339": "scoc", "1340": "gnie", "1341": "gnuo", "1342": "sbri", "1343": "ghet", "1344": "gner", "1345": "d\u2019 e", "1346": "cien", "1347": "scin", "1348": "o ar", "1349": "sa a", "1350": "a am", "1351": "pros", "1352": "r\u00ec u", "1353": "m\u2019 i", "1354": "po e", "1355": "stig", "1356": "scem", "1357": "squa", "1358": "scan", "1359": "smor", "1360": "ne o", "1361": "po u", "1362": "v\u2019 o", "1363": "piag", "1364": "di u", "1365": "ni u", "1366": "pian", "1367": "sfac", "1368": "co a", "1369": "quin", "1370": "scal", "1371": "cioc", "1372": "ster", "1373": "dies", "1374": "so u", "1375": "giun", "1376": "pi a", "1377": "ghia", "1378": "grep", "1379": "gien", "1380": "sfar", "1381": "ie a", "1382": "gnon", "1383": "tran", "1384": "scre", "1385": "lo a", "1386": "guit", "1387": "ge o", "1388": "glau", "1389": "ma e", "1390": "zo e", "1391": "ca e", "1392": "tier", "1393": "stiz", "1394": "do a", "1395": "pric", "1396": "m\u2019 e", "1397": "ni a", "1398": "ciel", "1399": "grem", "1400": "la o", "1401": "d\u2019 a", "1402": "gros", "1403": "ciap", "1404": "puom", "1405": "cric", "1406": "stas", "1407": "li e", "1408": "grap", "1409": "spes", "1410": "slac", "1411": "da u", "1412": "snel", "1413": "gual", "1414": "creb", "1415": "mian", "1416": "le i", "1417": "re u", "1418": "scop", "1419": "a al", "1420": "gnem", "1421": "ples", "1422": "e in", "1423": "guan", "1424": "c\u2019 \u00ef", "1425": "ve u", "1426": "crol", "1427": "sciu", "1428": "clau", "1429": "spre", "1430": "ra u", "1431": "a ef", "1432": "bion", "1433": "stor", "1434": "scel", "1435": "troc", "1436": "te u", "1437": "gheg", "1438": "m\u2019 o", "1439": "ra e", "1440": "li \u2019", "1441": "ti o", "1442": "ce u", "1443": "ti a", "1444": "pren", "1445": "t\u2019 o", "1446": "fret", "1447": "brie", "1448": "to a", "1449": "sa e", "1450": "mo i", "1451": "nian", "1452": "broc", "1453": "de a", "1454": "scov", "1455": "tren", "1456": "be e", "1457": "tiem", "1458": "stis", "1459": "dran", "1460": "pria", "1461": "pien", "1462": "dras", "1463": "vuol", "1464": "frut", "1465": "ti i", "1466": "stes", "1467": "ma o", "1468": "sfio", "1469": "stie", "1470": "stal", "1471": "li u", "1472": "me o", "1473": "spic", "1474": "brot", "1475": "liev", "1476": "pe i", "1477": "guil", "1478": "ta a", "1479": "guel", "1480": "vi o", "1481": "ghes", "1482": "frat", "1483": "vien", "1484": "m\u2019 a", "1485": "ne e", "1486": "gras", "1487": "spie", "1488": "zi o", "1489": "scam", "1490": "bris", "1491": "quis", "1492": "la i", "1493": "ci e", "1494": "fiam", "1495": "ce a", "1496": "fiac", "1497": "scev", "1498": "stop", "1499": "plan", "1500": "guir", "1501": "spen", "1502": "plau", "1503": "scac", "1504": "s\u2019 e", "1505": "d\u2019 o", "1506": "scio", "1507": "te e", "1508": "quen", "1509": "biac", "1510": "ghie", "1511": "t\u2019 a", "1512": "dria", "1513": "le e", "1514": "gran", "1515": "ti e", "1516": "driz", "1517": "tu a", "1518": "de u", "1519": "dier", "1520": "tram", "1521": "pran", "1522": "co o", "1523": "fior", "1524": "mi o", "1525": "cian", "1526": "s\u2019 i", "1527": "quil", "1528": "gres", "1529": "trat", "1530": "bo a", "1531": "s\u00ec a", "1532": "le o", "1533": "chio", "1534": "str\u00e0", "1535": "puol", "1536": "fred", "1537": "brac", "1538": "stol", "1539": "smoz", "1540": "pier", "1541": "fron", "1542": "io e", "1543": "cheg", "1544": "ta o", "1545": "prin", "1546": "da e", "1547": "lo e", "1548": "scaz", "1549": "ghel", "1550": "co e", "1551": "v\u2019 a", "1552": "gnen", "1553": "grez", "1554": "giuo", "1555": "la u", "1556": "v\u2019 e", "1557": "s\u2019 u", "1558": "spez", "1559": "sdru", "1560": "treb", "1561": "sban", "1562": "za i", "1563": "bran", "1564": "spuo", "1565": "m\u00e8 a", "1566": "ce i", "1567": "sgri", "1568": "brug", "1569": "le u", "1570": "gnel", "1571": "prie", "1572": "giot", "1573": "co u", "1574": "sven", "1575": "so a", "1576": "se u", "1577": "na e", "1578": "n\u2019 e", "1579": "s\u00ec i", "1580": "sbar", "1581": "star", "1582": "ra i", "1583": "glia", "1584": "sfan", "1585": "sten", "1586": "na a", "1587": "l\u00ec e", "1588": "sche", "1589": "se a", "1590": "sgra", "1591": "zo a", "1592": "si a", "1593": "me i", "1594": "ro um", "1595": "la on", "1596": "za et", "1597": "bra e", "1598": "n\u2019 an", "1599": "do el", "1600": "sfran", "1601": "na ab", "1602": "re av", "1603": "s\u00ec \u2019n", "1604": "dio e", "1605": "c\u2019 en", "1606": "so in", "1607": "vi an", "1608": "sa on", "1609": "re in", "1610": "se ac", "1611": "lo ef", "1612": "to eb", "1613": "ti am", "1614": "li af", "1615": "do am", "1616": "sgrie", "1617": "cia a", "1618": "me ar", "1619": "fe et", "1620": "tro u", "1621": "co an", "1622": "si an", "1623": "ha \u2019n", "1624": "d\u2019 on", "1625": "tro i", "1626": "ra ab", "1627": "si in", "1628": "chi u", "1629": "de ag", "1630": "bre a", "1631": "to uc", "1632": "li un", "1633": "s\u2019 al", "1634": "ta un", "1635": "so ar", "1636": "sa ol", "1637": "li oc", "1638": "m\u2019 ad", "1639": "ne ov", "1640": "to ag", "1641": "sgiun", "1642": "glian", "1643": "ca en", "1644": "dre e", "1645": "m\u2019 ar", "1646": "m\u2019 ap", "1647": "na ac", "1648": "la al", "1649": "co ap", "1650": "re oc", "1651": "l\u2019 au", "1652": "sta i", "1653": "ri ap", "1654": "co ac", "1655": "zo in", "1656": "lo at", "1657": "na es", "1658": "so ad", "1659": "na av", "1660": "che e", "1661": "d\u2019 az", "1662": "ca on", "1663": "d\u2019 er", "1664": "d\u2019 es", "1665": "st\u2019 u", "1666": "di of", "1667": "le ad", "1668": "se op", "1669": "ha al", "1670": "pa in", "1671": "sci\u00e0n", "1672": "d\u2019 or", "1673": "l\u2019 ef", "1674": "n\u2019 ag", "1675": "n\u2019 au", "1676": "se af", "1677": "re ol", "1678": "di ac", "1679": "la in", "1680": "ri an", "1681": "s\u2019 ap", "1682": "t\u2019 af", "1683": "ne \u2019m", "1684": "go al", "1685": "to es", "1686": "n\u2019 eb", "1687": "no ac", "1688": "sti o", "1689": "t\u2019 em", "1690": "s\u2019 et", "1691": "fu el", "1692": "m\u2019 an", "1693": "stram", "1694": "zia o", "1695": "de eu", "1696": "r\u2019 el", "1697": "to ec", "1698": "te or", "1699": "me ef", "1700": "ci or", "1701": "lo es", "1702": "pi in", "1703": "sa og", "1704": "ni es", "1705": "spran", "1706": "ci in", "1707": "te iu", "1708": "ma or", "1709": "pi or", "1710": "na of", "1711": "ce ne", "1712": "so es", "1713": "v\u2019 of", "1714": "b\u00ec al", "1715": "sco o", "1716": "n\u2019 at", "1717": "ta im", "1718": "mo ar", "1719": "ti ac", "1720": "fu ap", "1721": "be al", "1722": "bra a", "1723": "ra es", "1724": "sciau", "1725": "m\u2019 of", "1726": "mi er", "1727": "ti ar", "1728": "ne ar", "1729": "ra ac", "1730": "ri al", "1731": "re af", "1732": "di uo", "1733": "zio a", "1734": "ti ad", "1735": "re im", "1736": "ma an", "1737": "z\u00f2 in", "1738": "z\u2019 al", "1739": "ci af", "1740": "za im", "1741": "li om", "1742": "le as", "1743": "ri ac", "1744": "se al", "1745": "t\u2019 ap", "1746": "za am", "1747": "zo ar", "1748": "mo im", "1749": "s\u2019 en", "1750": "stroc", "1751": "t\u2019 an", "1752": "d\u2019 eb", "1753": "s\u2019 ac", "1754": "cio a", "1755": "scioc", "1756": "so ap", "1757": "to ol", "1758": "na ar", "1759": "ci ad", "1760": "ghiot", "1761": "vi as", "1762": "tr\u2019 a", "1763": "gne a", "1764": "gia e", "1765": "do in", "1766": "ti \u2019m", "1767": "re en", "1768": "de \u2019n", "1769": "ve ap", "1770": "ci \u2019n", "1771": "pre e", "1772": "schet", "1773": "d\u2019 ac", "1774": "ve al", "1775": "va in", "1776": "do im", "1777": "mo at", "1778": "ci ap", "1779": "ra ad", "1780": "rio a", "1781": "to av", "1782": "ne em", "1783": "chiet", "1784": "l\u2019 of", "1785": "d\u2019 im", "1786": "ge un", "1787": "li ag", "1788": "strug", "1789": "to af", "1790": "do ap", "1791": "go es", "1792": "le an", "1793": "no om", "1794": "si al", "1795": "l\u2019 an", "1796": "ci av", "1797": "ro es", "1798": "ne an", "1799": "ra av", "1800": "streg", "1801": "di on", "1802": "le es", "1803": "re as", "1804": "no im", "1805": "fu of", "1806": "la en", "1807": "s\u2019 es", "1808": "sciam", "1809": "ni in", "1810": "lo \u2019m", "1811": "me am", "1812": "zio u", "1813": "ro eb", "1814": "tro a", "1815": "ne as", "1816": "vi on", "1817": "ghien", "1818": "do eb", "1819": "si ar", "1820": "suo a", "1821": "co eb", "1822": "di az", "1823": "ra at", "1824": "l\u2019 ul", "1825": "to in", "1826": "si \u2019n", "1827": "sa es", "1828": "ro am", "1829": "do es", "1830": "ra al", "1831": "vo ac", "1832": "p\u00e8 al", "1833": "no av", "1834": "re ad", "1835": "ze es", "1836": "ba un", "1837": "lo an", "1838": "m\u2019 im", "1839": "lo in", "1840": "fu av", "1841": "ne in", "1842": "ro al", "1843": "ce an", "1844": "ca er", "1845": "re em", "1846": "d\u2019 en", "1847": "smo a", "1848": "ta in", "1849": "lo im", "1850": "li at", "1851": "ra ot", "1852": "ni an", "1853": "re ab", "1854": "to on", "1855": "lo ar", "1856": "te on", "1857": "ta as", "1858": "t\u2019 al", "1859": "to ac", "1860": "ci at", "1861": "ve oc", "1862": "ga as", "1863": "gliet", "1864": "n\u2019 am", "1865": "li er", "1866": "l\u2019 es", "1867": "sa ac", "1868": "ne on", "1869": "no at", "1870": "so al", "1871": "me al", "1872": "sbe a", "1873": "li ad", "1874": "vi of", "1875": "ti en", "1876": "do ar", "1877": "no as", "1878": "fa ir", "1879": "spres", "1880": "\u2019v\u2019 e", "1881": "gna a", "1882": "di es", "1883": "za \u2019n", "1884": "si ol", "1885": "schio", "1886": "la ap", "1887": "t\u2019 or", "1888": "tri o", "1889": "li ul", "1890": "re ot", "1891": "ch\u2019 u", "1892": "chi e", "1893": "si am", "1894": "di ol", "1895": "di im", "1896": "ri in", "1897": "l\u2019 or", "1898": "so eb", "1899": "vi en", "1900": "di an", "1901": "ce on", "1902": "leo e", "1903": "strel", "1904": "va at", "1905": "s\u2019 os", "1906": "ta on", "1907": "si of", "1908": "zi ag", "1909": "ro oc", "1910": "ta et", "1911": "ra im", "1912": "ne ag", "1913": "r\u2019 es", "1914": "li of", "1915": "sta a", "1916": "l\u2019 uc", "1917": "ce es", "1918": "m\u2019 as", "1919": "dio i", "1920": "ma in", "1921": "za in", "1922": "to ap", "1923": "pra a", "1924": "ge an", "1925": "co al", "1926": "n\u2019 uo", "1927": "te es", "1928": "be av", "1929": "mi\u2019 a", "1930": "do oc", "1931": "ni am", "1932": "ta an", "1933": "n\u2019 er", "1934": "ro on", "1935": "re ap", "1936": "l\u2019 ae", "1937": "l\u2019 en", "1938": "mi al", "1939": "li \u2019n", "1940": "de om", "1941": "si ac", "1942": "m\u2019 at", "1943": "n\u2019 ol", "1944": "re am", "1945": "to as", "1946": "v\u2019 ap", "1947": "la el", "1948": "di og", "1949": "no \u2019n", "1950": "ma ac", "1951": "strar", "1952": "ro or", "1953": "le ap", "1954": "mo eb", "1955": "scher", "1956": "v\u2019 ar", "1957": "ce af", "1958": "ro at", "1959": "ta es", "1960": "di or", "1961": "l\u2019 om", "1962": "te af", "1963": "ro ac", "1964": "n\u2019 ab", "1965": "ze et", "1966": "s\u2019 at", "1967": "m\u2019 ag", "1968": "l\u2019 et", "1969": "d\u2019 og", "1970": "ia an", "1971": "strin", "1972": "te os", "1973": "ghiac", "1974": "ne es", "1975": "ci as", "1976": "sa an", "1977": "m\u2019 ac", "1978": "ce ac", "1979": "sto a", "1980": "na on", "1981": "st\u2019 a", "1982": "vo au", "1983": "ta ac", "1984": "ve at", "1985": "ma of", "1986": "z\u2019 es", "1987": "sco u", "1988": "no an", "1989": "tra u", "1990": "s\u2019 ag", "1991": "l\u2019 er", "1992": "gne u", "1993": "te is", "1994": "so am", "1995": "scris", "1996": "po in", "1997": "tu en", "1998": "co at", "1999": "do er", "2000": "chiar", "2001": "ro an", "2002": "cia o", "2003": "ne im", "2004": "ce ar", "2005": "t\u2019 in", "2006": "do as", "2007": "scrip", "2008": "scran", "2009": "na eb", "2010": "di av", "2011": "v\u2019 al", "2012": "se in", "2013": "gno a", "2014": "zia e", "2015": "ro av", "2016": "m\u2019 av", "2017": "le am", "2018": "t\u2019 av", "2019": "n\u2019 ac", "2020": "vi av", "2021": "co et", "2022": "t\u2019 im", "2023": "ra et", "2024": "s\u2019 of", "2025": "fu im", "2026": "de af", "2027": "ra an", "2028": "co av", "2029": "ne al", "2030": "d\u2019 ot", "2031": "po al", "2032": "na in", "2033": "re ag", "2034": "ta op", "2035": "ce as", "2036": "ti as", "2037": "d\u2019 am", "2038": "do at", "2039": "fu in", "2040": "co ar", "2041": "la \u2019m", "2042": "te ac", "2043": "gli u", "2044": "no es", "2045": "va eb", "2046": "vo al", "2047": "tri a", "2048": "te ag", "2049": "sciut", "2050": "v\u2019 eb", "2051": "stroz", "2052": "no ap", "2053": "ria \u00f2", "2054": "re on", "2055": "na at", "2056": "n\u2019 om", "2057": "n\u2019 av", "2058": "l\u2019 al", "2059": "li an", "2060": "b\u2019 es", "2061": "li eb", "2062": "ia al", "2063": "v\u2019 es", "2064": "vo at", "2065": "sguar", "2066": "vi ac", "2067": "stren", "2068": "ge et", "2069": "chi a", "2070": "ti et", "2071": "to et", "2072": "n\u2019 in", "2073": "la au", "2074": "l\u2019 av", "2075": "bo on", "2076": "strat", "2077": "de er", "2078": "la \u2019n", "2079": "zo an", "2080": "schem", "2081": "d\u2019 ur", "2082": "le on", "2083": "me at", "2084": "ni on", "2085": "la an", "2086": "zi as", "2087": "zie o", "2088": "d\u2019 ol", "2089": "ci an", "2090": "po an", "2091": "chioc", "2092": "squil", "2093": "tri e", "2094": "ta ab", "2095": "ci am", "2096": "pa es", "2097": "d\u2019 eu", "2098": "m\u2019 om", "2099": "no ec", "2100": "qu\u2019 e", "2101": "ra el", "2102": "che a", "2103": "gi\u00e0 e", "2104": "te im", "2105": "ti av", "2106": "z\u2019 ar", "2107": "s\u2019 af", "2108": "vo as", "2109": "va id", "2110": "de as", "2111": "de of", "2112": "de au", "2113": "to ef", "2114": "se as", "2115": "re es", "2116": "li es", "2117": "ra as", "2118": "de in", "2119": "spiac", "2120": "cia e", "2121": "dea u", "2122": "si ad", "2123": "cro a", "2124": "lo \u2019n", "2125": "me ap", "2126": "me as", "2127": "t\u2019 ar", "2128": "l\u2019 am", "2129": "di om", "2130": "d\u2019 el", "2131": "gi ar", "2132": "s\u2019 ar", "2133": "l\u2019 uo", "2134": "va al", "2135": "mi ad", "2136": "li ar", "2137": "v\u2019 et", "2138": "si uo", "2139": "co er", "2140": "so at", "2141": "st\u2019 o", "2142": "re om", "2143": "lo af", "2144": "do ol", "2145": "gliar", "2146": "chian", "2147": "me on", "2148": "mo or", "2149": "se an", "2150": "no al", "2151": "le ar", "2152": "s\u2019 er", "2153": "cio e", "2154": "d\u2019 af", "2155": "ta el", "2156": "mo ec", "2157": "d\u2019 in", "2158": "dio o", "2159": "t\u00e8 an", "2160": "d\u2019 et", "2161": "se es", "2162": "re au", "2163": "scian", "2164": "l\u2019 as", "2165": "sta o", "2166": "na or", "2167": "be ar", "2168": "spraz", "2169": "ahi a", "2170": "ne af", "2171": "mi \u2019n", "2172": "lo of", "2173": "vi in", "2174": "l\u2019 ap", "2175": "li on", "2176": "d\u2019 ap", "2177": "mo on", "2178": "me el", "2179": "ce im", "2180": "si \u2019m", "2181": "di ad", "2182": "ce al", "2183": "vi al", "2184": "li uo", "2185": "te en", "2186": "s\u2019 am", "2187": "scrit", "2188": "ta am", "2189": "di ab", "2190": "de am", "2191": "ro as", "2192": "to al", "2193": "ci ar", "2194": "si av", "2195": "ti in", "2196": "d\u2019 an", "2197": "va \u2019n", "2198": "tra i", "2199": "chias", "2200": "cea u", "2201": "ce au", "2202": "m\u2019 ab", "2203": "la or", "2204": "ce eu", "2205": "da an", "2206": "dio a", "2207": "re at", "2208": "l\u2019 eb", "2209": "ve es", "2210": "sgher", "2211": "ma al", "2212": "strac", "2213": "mo an", "2214": "no er", "2215": "ro in", "2216": "mi an", "2217": "ra am", "2218": "mo in", "2219": "ne av", "2220": "m\u2019 ol", "2221": "cu\u2019 i", "2222": "ma \u2019n", "2223": "ra in", "2224": "s\u2019 eb", "2225": "ch\u2019 i", "2226": "te \u2019n", "2227": "n\u2019 al", "2228": "ne et", "2229": "da in", "2230": "n\u2019 ap", "2231": "sta u", "2232": "le oc", "2233": "d\u2019 ab", "2234": "s\u2019 em", "2235": "zi al", "2236": "m\u2019 in", "2237": "ti an", "2238": "do or", "2239": "glies", "2240": "gni e", "2241": "stret", "2242": "te ol", "2243": "ni en", "2244": "fu oc", "2245": "pre a", "2246": "gno u", "2247": "me of", "2248": "d\u2019 os", "2249": "lo on", "2250": "m\u2019 es", "2251": "fa az", "2252": "to or", "2253": "le al", "2254": "si en", "2255": "tro e", "2256": "l\u2019 ai", "2257": "v\u2019 ac", "2258": "v\u2019 el", "2259": "ve an", "2260": "tra e", "2261": "lo il", "2262": "no et", "2263": "le id", "2264": "ti \u2019n", "2265": "mio a", "2266": "l\u2019 um", "2267": "se\u2019 a", "2268": "co on", "2269": "te ad", "2270": "sa im", "2271": "ti im", "2272": "ce in", "2273": "so en", "2274": "ci al", "2275": "ta of", "2276": "sciar", "2277": "d\u2019 at", "2278": "ca an", "2279": "sciol", "2280": "ro ab", "2281": "bi et", "2282": "r\u2019 al", "2283": "fu al", "2284": "r\u2019 an", "2285": "qua e", "2286": "ro im", "2287": "re ac", "2288": "mo of", "2289": "be on", "2290": "li ac", "2291": "la ol", "2292": "triar", "2293": "si el", "2294": "ti oc", "2295": "te er", "2296": "mo ac", "2297": "no ab", "2298": "bo av", "2299": "no au", "2300": "stric", "2301": "lo av", "2302": "de ar", "2303": "fo et", "2304": "schic", "2305": "no am", "2306": "vi ar", "2307": "l\u2019 ad", "2308": "ra uc", "2309": "sa in", "2310": "co in", "2311": "to ar", "2312": "de al", "2313": "l\u2019 ec", "2314": "t\u2019 ac", "2315": "me ac", "2316": "m\u2019 al", "2317": "za er", "2318": "t\u2019 om", "2319": "di af", "2320": "sti a", "2321": "no ag", "2322": "d\u2019 as", "2323": "strom", "2324": "li am", "2325": "la es", "2326": "ta ad", "2327": "n\u2019 ar", "2328": "si er", "2329": "se ol", "2330": "le uc", "2331": "n\u2019 on", "2332": "ti at", "2333": "se un", "2334": "ro of", "2335": "d\u2019 of", "2336": "stran", "2337": "ti al", "2338": "to ab", "2339": "ge in", "2340": "lo al", "2341": "re ar", "2342": "no or", "2343": "l\u2019 at", "2344": "go in", "2345": "de ac", "2346": "do on", "2347": "t\u2019 es", "2348": "gia o", "2349": "tio i", "2350": "t\u00e0 in", "2351": "zi ap", "2352": "ri ar", "2353": "schiu", "2354": "la av", "2355": "bo al", "2356": "l\u2019 af", "2357": "do an", "2358": "te al", "2359": "va an", "2360": "to an", "2361": "v\u2019 in", "2362": "re eb", "2363": "d\u2019 om", "2364": "ma on", "2365": "mo af", "2366": "s\u2019 im", "2367": "va im", "2368": "chi o", "2369": "v\u2019 ab", "2370": "schia", "2371": "li \u2019m", "2372": "mi in", "2373": "ce av", "2374": "hi om", "2375": "t\u2019 el", "2376": "d\u2019 au", "2377": "so et", "2378": "vo an", "2379": "si as", "2380": "splen", "2381": "v\u2019 er", "2382": "no ar", "2383": "t\u2019 as", "2384": "s\u2019 in", "2385": "se on", "2386": "si im", "2387": "pie e", "2388": "le \u2019m", "2389": "to at", "2390": "l\u2019 im", "2391": "squar", "2392": "mi ap", "2393": "li uc", "2394": "ni as", "2395": "gne o", "2396": "sta e", "2397": "chiap", "2398": "se \u2019n", "2399": "ro ap", "2400": "le of", "2401": "ti of", "2402": "to oc", "2403": "ti or", "2404": "que o", "2405": "ro au", "2406": "s\u2019 av", "2407": "ta eu", "2408": "l\u2019 \u00e0n", "2409": "de an", "2410": "pr\u2019 e", "2411": "t\u2019 am", "2412": "sciom", "2413": "ce et", "2414": "vi am", "2415": "le in", "2416": "ga in", "2417": "scial", "2418": "li in", "2419": "ta at", "2420": "qu\u2019 o", "2421": "ri on", "2422": "l\u2019 ov", "2423": "te at", "2424": "lo er", "2425": "l\u2019 op", "2426": "ni av", "2427": "de on", "2428": "ze or", "2429": "de ap", "2430": "mi ef", "2431": "l\u2019 in", "2432": "strut", "2433": "te ab", "2434": "bre o", "2435": "l\u2019 un", "2436": "v\u2019 am", "2437": "ch\u2019 \u00ef", "2438": "za on", "2439": "d\u2019 oc", "2440": "li et", "2441": "le at", "2442": "li as", "2443": "te om", "2444": "te of", "2445": "s\u00ec \u2019m", "2446": "fo im", "2447": "l\u2019 ol", "2448": "ne \u2019n", "2449": "ghian", "2450": "ch\u2019 e", "2451": "sce a", "2452": "li em", "2453": "zo as", "2454": "d\u2019 ar", "2455": "l\u2019 ar", "2456": "za an", "2457": "to ad", "2458": "l\u2019 em", "2459": "scheg", "2460": "chiun", "2461": "mo ol", "2462": "li ab", "2463": "vi \u2019m", "2464": "li av", "2465": "li ap", "2466": "re il", "2467": "do ac", "2468": "ste i", "2469": "te in", "2470": "so of", "2471": "la of", "2472": "mo es", "2473": "va ar", "2474": "ra ap", "2475": "c\u2019 im", "2476": "gliuo", "2477": "ca in", "2478": "ba in", "2479": "li im", "2480": "m\u2019 eb", "2481": "se ap", "2482": "te an", "2483": "si og", "2484": "no af", "2485": "bi al", "2486": "di al", "2487": "so ab", "2488": "mi ac", "2489": "l\u00ec en", "2490": "na \u2019n", "2491": "sa ap", "2492": "stras", "2493": "che o", "2494": "so on", "2495": "ra on", "2496": "te as", "2497": "ne ap", "2498": "tr\u2019 e", "2499": "ch\u2019 o", "2500": "l\u2019 el", "2501": "ta ar", "2502": "tu ha", "2503": "te ap", "2504": "scias", "2505": "gliel", "2506": "zi \u2019m", "2507": "ce at", "2508": "ra ec", "2509": "t\u2019 ag", "2510": "gi an", "2511": "po av", "2512": "re et", "2513": "so as", "2514": "ta om", "2515": "do af", "2516": "to im", "2517": "ra of", "2518": "zio e", "2519": "l\u2019 ab", "2520": "che u", "2521": "ra eb", "2522": "le \u2019n", "2523": "na af", "2524": "s\u00ec in", "2525": "me an", "2526": "d\u2019 al", "2527": "l\u2019 ag", "2528": "li al", "2529": "glien", "2530": "vea u", "2531": "to ov", "2532": "te ar", "2533": "ni ap", "2534": "l\u2019 on", "2535": "s\u2019 ad", "2536": "le ol", "2537": "l\u2019 oc", "2538": "be as", "2539": "que u", "2540": "ro ar", "2541": "na ap", "2542": "si at", "2543": "s\u2019 as", "2544": "l\u2019 ot", "2545": "no in", "2546": "t\u2019 ab", "2547": "do al", "2548": "s\u2019 op", "2549": "ma es", "2550": "no ad", "2551": "v\u2019 an", "2552": "sto o", "2553": "po on", "2554": "re al", "2555": "di in", "2556": "li or", "2557": "so \u2019n", "2558": "m\u2019 af", "2559": "l\u2019 ac", "2560": "te au", "2561": "le or", "2562": "sto e", "2563": "de or", "2564": "ve ar", "2565": "re an", "2566": "lo ac", "2567": "s\u2019 el", "2568": "gliam", "2569": "io al", "2570": "lia a", "2571": "t\u2019 at", "2572": "mo al", "2573": "tro o", "2574": "bra u", "2575": "mi am", "2576": "ma ap", "2577": "me af", "2578": "ta al", "2579": "me au", "2580": "\u2019v\u2019 u", "2581": "ga an", "2582": "co ad", "2583": "za al", "2584": "lo as", "2585": "schie", "2586": "po ar", "2587": "l\u2019 os", "2588": "s\u2019 an", "2589": "se at", "2590": "te em", "2591": "le av", "2592": "me in", "2593": "ch\u2019 a", "2594": "ni al", "2595": "so an", "2596": "lo eb", "2597": "to of", "2598": "li au", "2599": "zi at", "2600": "ger e", "2601": "ne ac", "2602": "ste a", "2603": "tra a", "2604": "s\u2019 ab", "2605": "pi ap", "2606": "si or", "2607": "gne al", "2608": "sta an", "2609": "chi ap", "2610": "tro ac", "2611": "glio u", "2612": "lio in", "2613": "st\u2019 es", "2614": "tr\u2019 ar", "2615": "gni al", "2616": "tra or", "2617": "sta on", "2618": "tr\u2019 om", "2619": "sti oc", "2620": "ch\u2019 eb", "2621": "pie or", "2622": "ch\u2019 es", "2623": "gue on", "2624": "ch\u2019 al", "2625": "bia an", "2626": "zie ec", "2627": "ghe on", "2628": "sti av", "2629": "gno af", "2630": "ch\u2019 ag", "2631": "sti an", "2632": "che in", "2633": "gne in", "2634": "tro as", "2635": "bre an", "2636": "chi in", "2637": "ti han", "2638": "ch\u2019 as", "2639": "rio an", "2640": "schiat", "2641": "tra ef", "2642": "schiet", "2643": "sti al", "2644": "que al", "2645": "sco al", "2646": "zia il", "2647": "gne ef", "2648": "chio a", "2649": "chi an", "2650": "ch\u2019 or", "2651": "sto of", "2652": "gna as", "2653": "n\u2019 han", "2654": "stro a", "2655": "tri as", "2656": "ch\u2019 ab", "2657": "sti in", "2658": "sto in", "2659": "gio on", "2660": "sto al", "2661": "str\u2019 u", "2662": "vea \u2019m", "2663": "tre os", "2664": "sta ai", "2665": "tro \u2019m", "2666": "dre al", "2667": "sto ap", "2668": "tra \u2019m", "2669": "lia an", "2670": "qua im", "2671": "gno ae", "2672": "sto ac", "2673": "glio e", "2674": "ch\u2019 el", "2675": "sco an", "2676": "ch\u2019 at", "2677": "ne han", "2678": "l\u2019 han", "2679": "gia ar", "2680": "tro on", "2681": "ria of", "2682": "sto an", "2683": "vio in", "2684": "sto \u2019n", "2685": "sta og", "2686": "stra a", "2687": "tri of", "2688": "ch\u2019 av", "2689": "stra u", "2690": "gna in", "2691": "sto \u2019m", "2692": "st\u2019 an", "2693": "schian", "2694": "qua in", "2695": "ch\u2019 en", "2696": "bre et", "2697": "chi am", "2698": "sma in", "2699": "st\u2019 of", "2700": "chi al", "2701": "gne uo", "2702": "st\u2019 ul", "2703": "sto on", "2704": "chio o", "2705": "zia on", "2706": "dre eb", "2707": "sto im", "2708": "tro of", "2709": "tr\u2019 am", "2710": "gue an", "2711": "pre at", "2712": "com\u2019 u", "2713": "gh\u2019 es", "2714": "tre an", "2715": "chi on", "2716": "sta ol", "2717": "sti or", "2718": "gne im", "2719": "mio in", "2720": "bra in", "2721": "glia u", "2722": "st\u2019 in", "2723": "st\u2019 ac", "2724": "cia on", "2725": "lio an", "2726": "sio an", "2727": "sti er", "2728": "pre al", "2729": "sce as", "2730": "que es", "2731": "pre es", "2732": "sti el", "2733": "sce el", "2734": "tra op", "2735": "sta im", "2736": "gio ol", "2737": "sti es", "2738": "stro u", "2739": "tro ap", "2740": "gni an", "2741": "gi\u00f2 in", "2742": "nio im", "2743": "che \u2019m", "2744": "ch\u2019 ar", "2745": "tro im", "2746": "chi ac", "2747": "gno al", "2748": "che an", "2749": "bri ap", "2750": "chi ar", "2751": "ria in", "2752": "sce an", "2753": "cia im", "2754": "che ha", "2755": "tra an", "2756": "stri o", "2757": "nea av", "2758": "tro et", "2759": "cio an", "2760": "sti on", "2761": "t\u2019 han", "2762": "tro in", "2763": "dia as", "2764": "gia in", "2765": "go han", "2766": "ch\u2019 et", "2767": "re o u", "2768": "scio e", "2769": "cio as", "2770": "sta al", "2771": "do o e", "2772": "scun e", "2773": "gno in", "2774": "bia in", "2775": "tri in", "2776": "pi\u00f9 \u2019n", "2777": "gio et", "2778": "stri a", "2779": "dre as", "2780": "pio on", "2781": "tro an", "2782": "zia or", "2783": "bra av", "2784": "tro ab", "2785": "pi\u00f9 in", "2786": "cio al", "2787": "cia ar", "2788": "ch\u2019 ac", "2789": "sto ar", "2790": "tri af", "2791": "ber\u2019 o", "2792": "ri han", "2793": "com\u2019 a", "2794": "gne ac", "2795": "chio u", "2796": "qua on", "2797": "ste an", "2798": "tri es", "2799": "stra i", "2800": "che om", "2801": "pr\u2019 ar", "2802": "sto es", "2803": "gia al", "2804": "glia a", "2805": "scia e", "2806": "tra av", "2807": "tri ap", "2808": "ch\u2019 an", "2809": "st\u2019 ot", "2810": "ch\u2019 in", "2811": "ch\u2019 ad", "2812": "tro av", "2813": "tro al", "2814": "cio et", "2815": "sio in", "2816": "ria on", "2817": "m\u2019 han", "2818": "che \u2019n", "2819": "che ar", "2820": "stra e", "2821": "d\u2019 han", "2822": "pre in", "2823": "c\u2019 han", "2824": "qua of", "2825": "gio in", "2826": "gno am", "2827": "gue or", "2828": "pre ac", "2829": "st\u2019 ar", "2830": "te han", "2831": "ch\u2019 ap", "2832": "stro e", "2833": "qu\u2019 an", "2834": "lio as", "2835": "ch\u2019 am", "2836": "cie in", "2837": "sto at", "2838": "bre in", "2839": "ch\u2019 og", "2840": "dre es", "2841": "cio ap", "2842": "li han", "2843": "glio o", "2844": "ch\u2019 er", "2845": "st\u2019 al", "2846": "sce al", "2847": "tro ar", "2848": "pre ar", "2849": "gio uc", "2850": "ste in", "2851": "sta in", "2852": "dre an", "2853": "tre in", "2854": "mio av", "2855": "tr\u2019 al", "2856": "mio \u2019n", "2857": "dio an", "2858": "mia \u2019n", "2859": "gne er", "2860": "stro o", "2861": "sti un", "2862": "co e i", "2863": "glia o", "2864": "stro al", "2865": "stro eb", "2866": "stri an", "2867": "glio an", "2868": "d\u2019 i\u2019 a", "2869": "stri ef", "2870": "glie al", "2871": "scia al", "2872": "sche ab", "2873": "chio an", "2874": "chia of", "2875": "stro es", "2876": "chia an", "2877": "stro im", "2878": "glio in", "2879": "n\u2019 \u00e8 im", "2880": "re a \u2019n", "2881": "s\u2019 i\u2019 o", "2882": "stri af", "2883": "stra ap", "2884": "glia ac", "2885": "stri al", "2886": "stro uc", "2887": "stro an", "2888": "stro in", "2889": "scia an", "2890": "stro oc", "2891": "stra in", "2892": "vria es", "2893": "str\u2019 or", "2894": "chio in", "2895": "stro ac", "2896": "glie an", "2897": "stri av", "2898": "glia as", "2899": "chie et", "2900": "gio o e", "2901": "trio al", "2902": "stro as", "2903": "sche er", "2904": "glio on", "2905": "chio at", "2906": "glia in", "2907": "si e \u2019n", "2908": "glio es", "2909": "stro av", "2910": "glia al", "2911": "li \u00e8 in", "2912": "stra ef", "2913": "stri at", "2914": "dio han", "2915": "ti e \u2019n", "2916": "pria av", "2917": "glia es", "2918": "lo e \u2019n", "2919": "stre in", "2920": "str\u2019 ar", "2921": "glie eb", "2922": "l\u00e0 \u2019vun", "2923": "glio as", "2924": "t\u2019 ho in", "2925": "ch\u2019 i\u2019 o", "2926": "ch\u2019 i\u2019 e", "2927": "sti a \u2019n", "2928": "ch\u2019 e\u2019 \u2019n", "2929": "ch\u2019 io \u2019n", "2930": "\u00ec ", "2931": "\u00f9 ", "2932": "i ", "2933": "\u00e8 ", "2934": "\u00ef ", "2935": "o ", "2936": "\u00f2 ", "2937": "a ", "2938": "s ", "2939": "e ", "2940": "v\u00f2 ", "2941": "\u00e0s ", "2942": "bi ", "2943": "go ", "2944": "do ", "2945": "di ", "2946": "on ", "2947": "b\u00f9 ", "2948": "ei ", "2949": "d\u00e0 ", "2950": "\u00e0r ", "2951": "bo ", "2952": "\u00ecs ", "2953": "zi ", "2954": "fe ", "2955": "fo ", "2956": "b\u00f2 ", "2957": "in ", "2958": "ab ", "2959": "na ", "2960": "\u00e8e ", "2961": "de ", "2962": "se ", "2963": "os ", "2964": "th ", "2965": "sa ", "2966": "\u00f3n ", "2967": "\u00e0m ", "2968": "ra ", "2969": "ma ", "2970": "le ", "2971": "f\u00f2 ", "2972": "s\u00f2 ", "2973": "\u00f9l ", "2974": "n\u00e0 ", "2975": "su ", "2976": "oh ", "2977": "no ", "2978": "da ", "2979": "\u00e8l ", "2980": "fa ", "2981": "fi ", "2982": "t\u00f2 ", "2983": "ir ", "2984": "to ", "2985": "fu ", "2986": "pi ", "2987": "ce ", "2988": "re ", "2989": "ta ", "2990": "pe ", "2991": "be ", "2992": "za ", "2993": "ha ", "2994": "po ", "2995": "t\u00e8 ", "2996": "n\u00ec ", "2997": "ho ", "2998": "or ", "2999": "ro ", "3000": "\u00f2n ", "3001": "d\u00f2 ", "3002": "ni ", "3003": "\u00f2s ", "3004": "f\u00e9 ", "3005": "an ", "3006": "u\u2019 ", "3007": "et ", "3008": "li ", "3009": "g\u00ec ", "3010": "lo ", "3011": "c\u00f2 ", "3012": "us ", "3013": "ed ", "3014": "la ", "3015": "ai ", "3016": "n\u00e9 ", "3017": "v\u00ec ", "3018": "ad ", "3019": "t\u00ec ", "3020": "vi ", "3021": "so ", "3022": "sc ", "3023": "l\u00f2 ", "3024": "l\u00ec ", "3025": "vo ", "3026": "ie ", "3027": "st ", "3028": "co ", "3029": "ge ", "3030": "mo ", "3031": "n\u00f2 ", "3032": "r\u00ec ", "3033": "el ", "3034": "p\u00e8 ", "3035": "d\u00ec ", "3036": "ar ", "3037": "ca ", "3038": "as ", "3039": "n\u00e8 ", "3040": "l\u00e8 ", "3041": "g\u00f2 ", "3042": "si ", "3043": "m\u00e8 ", "3044": "io ", "3045": "b\u00e8 ", "3046": "va ", "3047": "c\u00e9 ", "3048": "s\u00e8 ", "3049": "ve ", "3050": "ci ", "3051": "zo ", "3052": "f\u00e0 ", "3053": "c\u00e8 ", "3054": "r\u00f2 ", "3055": "\u00e9n ", "3056": "s\u00e9 ", "3057": "ia ", "3058": "l\u00e0 ", "3059": "ti ", "3060": "ae ", "3061": "m\u2019 ", "3062": "t\u00e0 ", "3063": "al ", "3064": "ba ", "3065": "ga ", "3066": "ne ", "3067": "d\u00e9 ", "3068": "il ", "3069": "t\u00f9 ", "3070": "pa ", "3071": "tu ", "3072": "s\u00ec ", "3073": "ri ", "3074": "e\u2019 ", "3075": "te ", "3076": "om ", "3077": "i\u2019 ", "3078": "m\u00f2 ", "3079": "ze ", "3080": "un ", "3081": "a\u2019 ", "3082": "t\u00e9 ", "3083": "p\u00f2 ", "3084": "z\u00f2 ", "3085": "s\u00f9 ", "3086": "me ", "3087": "r\u00e0 ", "3088": "ut ", "3089": "mi ", "3090": "gi ", "3091": "od ", "3092": "sio ", "3093": "bi\u00f2 ", "3094": "fin ", "3095": "gon ", "3096": "cin ", "3097": "zai ", "3098": "ler ", "3099": "gre ", "3100": "dra ", "3101": "b\u00eca ", "3102": "gru ", "3103": "gi\u00e0 ", "3104": "rel ", "3105": "fue ", "3106": "sie ", "3107": "vei ", "3108": "cut ", "3109": "sia ", "3110": "pi\u00e9 ", "3111": "c\u00e0n ", "3112": "cil ", "3113": "gu\u00ec ", "3114": "teo ", "3115": "bel ", "3116": "peo ", "3117": "va\u2019 ", "3118": "a a ", "3119": "dua ", "3120": "ron ", "3121": "gno ", "3122": "spa ", "3123": "bol ", "3124": "no\u2019 ", "3125": "sar ", "3126": "ghe ", "3127": "gar ", "3128": "zie ", "3129": "z\u00f2n ", "3130": "beo ", "3131": "cem ", "3132": "ga\u2019 ", "3133": "ste ", "3134": "cai ", "3135": "gne ", "3136": "bre ", "3137": "dee ", "3138": "con ", "3139": "mal ", "3140": "mei ", "3141": "n\u00f2s ", "3142": "e i ", "3143": "gin ", "3144": "p\u00f2s ", "3145": "pin ", "3146": "joi ", "3147": "st\u00f2 ", "3148": "de\u2019 ", "3149": "dui ", "3150": "neo ", "3151": "ver ", "3152": "ra\u2019 ", "3153": "rei ", "3154": "lem ", "3155": "sul ", "3156": "bro ", "3157": "gal ", "3158": "pol ", "3159": "der ", "3160": "via ", "3161": "rio ", "3162": "fil ", "3163": "f\u00f3n ", "3164": "pia ", "3165": "sel ", "3166": "ion ", "3167": "pem ", "3168": "mie ", "3169": "cal ", "3170": "lan ", "3171": "tia ", "3172": "sce ", "3173": "c\u00f2l ", "3174": "min ", "3175": "dr\u00f2 ", "3176": "r\u00f2l ", "3177": "ges ", "3178": "tar ", "3179": "tes ", "3180": "vam ", "3181": "dan ", "3182": "n\u00e8s ", "3183": "cum ", "3184": "lar ", "3185": "voi ", "3186": "pon ", "3187": "o e ", "3188": "ber ", "3189": "sem ", "3190": "nal ", "3191": "se\u2019 ", "3192": "tro ", "3193": "r\u00ecb ", "3194": "bue ", "3195": "uhi ", "3196": "sen ", "3197": "sei ", "3198": "rea ", "3199": "zia ", "3200": "gni ", "3201": "sua ", "3202": "s\u00f9e ", "3203": "deh ", "3204": "sun ", "3205": "tei ", "3206": "l\u00f2n ", "3207": "smo ", "3208": "pri ", "3209": "vin ", "3210": "dea ", "3211": "pra ", "3212": "ven ", "3213": "gui ", "3214": "nis ", "3215": "nii ", "3216": "car ", "3217": "rar ", "3218": "fe\u2019 ", "3219": "pea ", "3220": "ta\u2019 ", "3221": "vai ", "3222": "tri ", "3223": "gir ", "3224": "rum ", "3225": "te\u2019 ", "3226": "cre ", "3227": "ch\u00e9 ", "3228": "r\u00f3n ", "3229": "plo ", "3230": "coi ", "3231": "mio ", "3232": "rii ", "3233": "ner ", "3234": "fur ", "3235": "que ", "3236": "lui ", "3237": "ean ", "3238": "bar ", "3239": "la\u2019 ", "3240": "v\u00ecd ", "3241": "gi\u2019 ", "3242": "cle ", "3243": "ri\u2019 ", "3244": "num ", "3245": "mea ", "3246": "san ", "3247": "len ", "3248": "gli ", "3249": "tel ", "3250": "mon ", "3251": "gol ", "3252": "f\u00e9e ", "3253": "nol ", "3254": "nio ", "3255": "unt ", "3256": "gue ", "3257": "d\u00e8i ", "3258": "dei ", "3259": "d\u00ect ", "3260": "fan ", "3261": "ceo ", "3262": "sma ", "3263": "ril ", "3264": "tui ", "3265": "zon ", "3266": "m\u00ecs ", "3267": "lee ", "3268": "su\u2019 ", "3269": "ror ", "3270": "cui ", "3271": "can ", "3272": "pii ", "3273": "mil ", "3274": "m\u00eca ", "3275": "tol ", "3276": "men ", "3277": "gro ", "3278": "tua ", "3279": "dor ", "3280": "ran ", "3281": "t\u00f3n ", "3282": "gn\u00ec ", "3283": "\u2019ve ", "3284": "n\u00eca ", "3285": "feo ", "3286": "nia ", "3287": "ton ", "3288": "ger ", "3289": "pie ", "3290": "pir ", "3291": "a i ", "3292": "mae ", "3293": "lei ", "3294": "pr\u00ec ", "3295": "nie ", "3296": "gu\u00f2 ", "3297": "bor ", "3298": "tio ", "3299": "dem ", "3300": "vil ", "3301": "mus ", "3302": "tum ", "3303": "dii ", "3304": "l\u00eco ", "3305": "col ", "3306": "cu\u2019 ", "3307": "lea ", "3308": "vel ", "3309": "gi\u00f9 ", "3310": "mas ", "3311": "nan ", "3312": "n\u00ect ", "3313": "bio ", "3314": "tii ", "3315": "mia ", "3316": "lai ", "3317": "st\u00e9 ", "3318": "sai ", "3319": "por ", "3320": "sub ", "3321": "t\u00e0n ", "3322": "tr\u2019 ", "3323": "din ", "3324": "su\u00e8 ", "3325": "f\u00e0s ", "3326": "rer ", "3327": "cro ", "3328": "ieu ", "3329": "zio ", "3330": "fi\u2019 ", "3331": "sca ", "3332": "ria ", "3333": "ci\u00f2 ", "3334": "van ", "3335": "die ", "3336": "bin ", "3337": "dar ", "3338": "nai ", "3339": "lor ", "3340": "vos ", "3341": "tr\u00f2 ", "3342": "ces ", "3343": "st\u00ec ", "3344": "dro ", "3345": "mun ", "3346": "bui ", "3347": "mee ", "3348": "bil ", "3349": "gri ", "3350": "mii ", "3351": "sit ", "3352": "fra ", "3353": "dia ", "3354": "sin ", "3355": "tus ", "3356": "tra ", "3357": "tai ", "3358": "cer ", "3359": "ti\u2019 ", "3360": "vra ", "3361": "fei ", "3362": "del ", "3363": "cei ", "3364": "nha ", "3365": "val ", "3366": "rin ", "3367": "cun ", "3368": "mum ", "3369": "l\u00eca ", "3370": "suo ", "3371": "gan ", "3372": "dr\u00e0 ", "3373": "dur ", "3374": "tir ", "3375": "non ", "3376": "poi ", "3377": "sol ", "3378": "gai ", "3379": "n\u00ece ", "3380": "ram ", "3381": "lu\u2019 ", "3382": "b\u00e0l ", "3383": "tre ", "3384": "dir ", "3385": "f\u00e8l ", "3386": "r\u00ece ", "3387": "tue ", "3388": "fal ", "3389": "gel ", "3390": "som ", "3391": "cia ", "3392": "par ", "3393": "tan ", "3394": "gia ", "3395": "t\u00f2n ", "3396": "ne\u2019 ", "3397": "gea ", "3398": "gna ", "3399": "g\u00f3r ", "3400": "cri ", "3401": "nea ", "3402": "ve\u2019 ", "3403": "reo ", "3404": "sc\u00ec ", "3405": "han ", "3406": "don ", "3407": "cis ", "3408": "duo ", "3409": "dio ", "3410": "fon ", "3411": "ser ", "3412": " in ", "3413": "lio ", "3414": "qua ", "3415": "fai ", "3416": "pal ", "3417": "du\u2019 ", "3418": "vio ", "3419": "mai ", "3420": "nei ", "3421": "pu\u00f2 ", "3422": "fu\u2019 ", "3423": "pei ", "3424": "co\u2019 ", "3425": "za\u2019 ", "3426": "for ", "3427": "p\u00eca ", "3428": "pio ", "3429": "bia ", "3430": "gis ", "3431": "gi\u00f2 ", "3432": "na\u2019 ", "3433": "rui ", "3434": "sti ", "3435": "cel ", "3436": "bus ", "3437": "rua ", "3438": "pre ", "3439": "dal ", "3440": "ros ", "3441": "che ", "3442": "zul ", "3443": "sco ", "3444": "lie ", "3445": "pan ", "3446": "di\u00e8 ", "3447": "vie ", "3448": "tal ", "3449": "vas ", "3450": "var ", "3451": "rai ", "3452": "rir ", "3453": "due ", "3454": "di\u2019 ", "3455": "bra ", "3456": "vol ", "3457": "cur ", "3458": "pi\u00f9 ", "3459": "von ", "3460": "fio ", "3461": "r\u00ecs ", "3462": "fia ", "3463": "bir ", "3464": "deo ", "3465": "st\u00f9 ", "3466": "vem ", "3467": "smi ", "3468": "s\u00ece ", "3469": "sii ", "3470": "tin ", "3471": "dri ", "3472": "ban ", "3473": "lin ", "3474": "d\u00eca ", "3475": "clo ", "3476": "lia ", "3477": "zar ", "3478": "o a ", "3479": "a e ", "3480": "bri ", "3481": "man ", "3482": "lon ", "3483": "ten ", "3484": "ree ", "3485": "n\u00f2i ", "3486": "leo ", "3487": "b\u00e8l ", "3488": "sor ", "3489": "l\u00e8m ", "3490": "g\u00f3n ", "3491": "fer ", "3492": "e \u2019 ", "3493": "dr\u00ec ", "3494": "mul ", "3495": "meo ", "3496": "nem ", "3497": "bon ", "3498": "sir ", "3499": "rao ", "3500": "per ", "3501": "ma\u2019 ", "3502": "pel ", "3503": "sis ", "3504": "dai ", "3505": "st\u00e0 ", "3506": "vo\u2019 ", "3507": "cea ", "3508": "chi ", "3509": "mer ", "3510": "vii ", "3511": "vau ", "3512": "tor ", "3513": "tem ", "3514": "ier ", "3515": "res ", "3516": "nar ", "3517": "uo\u2019 ", "3518": "cul ", "3519": "rem ", "3520": "bee ", "3521": "ben ", "3522": "hai ", "3523": "pur ", "3524": "tr\u00e0 ", "3525": "d\u00ece ", "3526": "me\u2019 ", "3527": "sui ", "3528": "gei ", "3529": "lir ", "3530": "ter ", "3531": "tuo ", "3532": "pro ", "3533": "son ", "3534": "gua ", "3535": "t\u00e9r ", "3536": "fie ", "3537": "noi ", "3538": "t\u00f2r ", "3539": "s\u00f3n ", "3540": "mar ", "3541": "re\u2019 ", "3542": "nir ", "3543": "cio ", "3544": "bis ", "3545": "dil ", "3546": "mor ", "3547": "nel ", "3548": "ian ", "3549": "sal ", "3550": "ghi ", "3551": "uom ", "3552": "dre ", "3553": "ren ", "3554": "far ", "3555": "qui ", "3556": "gra ", "3557": "fui ", "3558": "da\u2019 ", "3559": "c\u00f2b ", "3560": "pr\u00e0 ", "3561": "bei ", "3562": "f\u00e0t ", "3563": "sto ", "3564": "sue ", "3565": "sta ", "3566": "cen ", "3567": "des ", "3568": "seo ", "3569": "pi\u00e8 ", "3570": "sa\u2019 ", "3571": "tun ", "3572": "cor ", "3573": "ral ", "3574": "sci ", "3575": "cra ", "3576": "cie ", "3577": "vea ", "3578": "gor ", "3579": "til ", "3580": "ahi ", "3581": "nil ", "3582": "spe ", "3583": "tea ", "3584": "rie ", "3585": "nor ", "3586": "tis ", "3587": "gio ", "3588": "nin ", "3589": "zan ", "3590": "gnes ", "3591": "suol ", "3592": "gien ", "3593": "ghie ", "3594": "fa e ", "3595": "gnar ", "3596": "pluo ", "3597": "\u00e8 \u2019l ", "3598": "spri ", "3599": "gaio ", "3600": "so o ", "3601": "ni e ", "3602": "quam ", "3603": "ro \u00e8 ", "3604": "tris ", "3605": "si a ", "3606": "prai ", "3607": "ghi\u00f2 ", "3608": "o al ", "3609": "le e ", "3610": "ra a ", "3611": "brei ", "3612": "vi o ", "3613": "za \u00e8 ", "3614": "mi i ", "3615": "re o ", "3616": "ro a ", "3617": "fi e ", "3618": "cean ", "3619": "com\u2019 ", "3620": "stil ", "3621": "bo a ", "3622": "pi\u00e9r ", "3623": "gnel ", "3624": "nier ", "3625": "cuor ", "3626": "ph\u00e8l ", "3627": "ni \u00e8 ", "3628": "ghio ", "3629": "te a ", "3630": "sche ", "3631": "mo \u00e8 ", "3632": "dean ", "3633": "tuo\u2019 ", "3634": "zo e ", "3635": "dron ", "3636": "pi\u00f9e ", "3637": "muel ", "3638": "lo e ", "3639": "o \u2019n ", "3640": "ge \u00e8 ", "3641": "v\u2019 a ", "3642": "ma i ", "3643": "vria ", "3644": "ma \u00e8 ", "3645": "c\u00f2th ", "3646": "cia\u2019 ", "3647": "re i ", "3648": "stan ", "3649": "str\u00f2 ", "3650": "ne o ", "3651": "re e ", "3652": "go \u00e8 ", "3653": "or d ", "3654": "pa e ", "3655": "ci \u00e8 ", "3656": "mo i ", "3657": "muoi ", "3658": "dria ", "3659": "ga e ", "3660": "laia ", "3661": "drir ", "3662": "ci o ", "3663": "blia ", "3664": "ciul ", "3665": "gual ", "3666": "gion ", "3667": "t\u2019 \u00e8 ", "3668": "que\u2019 ", "3669": "ci a ", "3670": "li e ", "3671": "rian ", "3672": "deum ", "3673": "za a ", "3674": "ma o ", "3675": "or i ", "3676": "miei ", "3677": "vier ", "3678": "ni a ", "3679": "cion ", "3680": "ca \u00e8 ", "3681": "za i ", "3682": "se o ", "3683": "st\u00e8r ", "3684": "gnon ", "3685": "chio ", "3686": "d\u2019 \u00e8 ", "3687": "ci e ", "3688": "sa e ", "3689": "bree ", "3690": "viam ", "3691": "dier ", "3692": "va i ", "3693": "ga a ", "3694": "tria ", "3695": "do a ", "3696": "go o ", "3697": "quod ", "3698": "ge e ", "3699": "\u00e8 in ", "3700": "to i ", "3701": "stia ", "3702": "gnor ", "3703": "bent ", "3704": "da o ", "3705": "r\u2019 a ", "3706": "br\u00f2t ", "3707": "na o ", "3708": "ve a ", "3709": "ma a ", "3710": "glie ", "3711": "suon ", "3712": "ciai ", "3713": "ce a ", "3714": "trar ", "3715": "ti o ", "3716": "zian ", "3717": "blio ", "3718": "si i ", "3719": "pria ", "3720": "mo e ", "3721": "suoi ", "3722": "za o ", "3723": "po i ", "3724": "d\u00ec i ", "3725": "dien ", "3726": "tu i ", "3727": "gnum ", "3728": "l\u00ec \u00e8 ", "3729": "so a ", "3730": "si e ", "3731": "ba e ", "3732": "vo e ", "3733": "fo \u00e8 ", "3734": "me e ", "3735": "fian ", "3736": "gi e ", "3737": "di a ", "3738": "la o ", "3739": "guan ", "3740": "muor ", "3741": "fe e ", "3742": "vi a ", "3743": "zi e ", "3744": "glia ", "3745": "tran ", "3746": "t\u2019 i ", "3747": "prun ", "3748": "pia\u2019 ", "3749": "gior ", "3750": "ziar ", "3751": "ri a ", "3752": "ve o ", "3753": "giai ", "3754": "va a ", "3755": "giar ", "3756": "siam ", "3757": "ce i ", "3758": "ne a ", "3759": "sc\u00eco ", "3760": "t\u00e8 a ", "3761": "prir ", "3762": "di e ", "3763": "ciol ", "3764": "io e ", "3765": "s\u00ec e ", "3766": "na \u00e8 ", "3767": "bi i ", "3768": "guai ", "3769": "go e ", "3770": "tier ", "3771": "te \u00e8 ", "3772": "spre ", "3773": "stai ", "3774": "ciam ", "3775": "t\u00f2 e ", "3776": "no o ", "3777": "tr\u00e0s ", "3778": "o in ", "3779": "a al ", "3780": "to a ", "3781": "pien ", "3782": "la e ", "3783": "plar ", "3784": "giam ", "3785": "sfar ", "3786": "ti e ", "3787": "sion ", "3788": "stea ", "3789": "sa \u00e8 ", "3790": "no a ", "3791": "ce \u00e8 ", "3792": "gian ", "3793": "spro ", "3794": "ca o ", "3795": "sa i ", "3796": "la i ", "3797": "ve e ", "3798": "ver\u2019 ", "3799": "drai ", "3800": "fiar ", "3801": "ch e ", "3802": "trai ", "3803": "a in ", "3804": "sti\u00f2 ", "3805": "scio ", "3806": "zion ", "3807": "di i ", "3808": "pa a ", "3809": "quae ", "3810": "ta e ", "3811": "di o ", "3812": "nean ", "3813": "sci\u2019 ", "3814": "lo a ", "3815": "ro e ", "3816": "stei ", "3817": "pion ", "3818": "scir ", "3819": "ta a ", "3820": "se e ", "3821": "gnin ", "3822": "stre ", "3823": "drel ", "3824": "do \u00e8 ", "3825": "diam ", "3826": "re \u00e8 ", "3827": "ci\u00f2l ", "3828": "cral ", "3829": "stor ", "3830": "sci\u00f2 ", "3831": "lian ", "3832": "le \u00e8 ", "3833": "prie ", "3834": "sier ", "3835": "saia ", "3836": "n\u2019 \u00e8 ", "3837": "fu e ", "3838": "a il ", "3839": "suo\u2019 ", "3840": "ga o ", "3841": "lo i ", "3842": "n\u00e9 i ", "3843": "spia ", "3844": "ghia ", "3845": "stin ", "3846": "mi a ", "3847": "l\u2019 \u00e8 ", "3848": "or l ", "3849": "scer ", "3850": "ghin ", "3851": "puoi ", "3852": "scie ", "3853": "quie ", "3854": "buoi ", "3855": "fu a ", "3856": "c\u2019 \u00e8 ", "3857": "to \u00e8 ", "3858": "spir ", "3859": "fien ", "3860": "s\u2019 a ", "3861": "gli\u00f2 ", "3862": "te e ", "3863": "li \u00e8 ", "3864": "ti i ", "3865": "tiam ", "3866": "brar ", "3867": "do i ", "3868": "be a ", "3869": "ni o ", "3870": "no e ", "3871": "s\u2019 \u00e8 ", "3872": "ve i ", "3873": "ra \u00e8 ", "3874": "quel ", "3875": "gnia ", "3876": "se i ", "3877": "io o ", "3878": "la a ", "3879": "i in ", "3880": "pa \u00e8 ", "3881": "do e ", "3882": "vian ", "3883": "le i ", "3884": "quei ", "3885": "tuoi ", "3886": "to e ", "3887": "chin ", "3888": "ze e ", "3889": "ro o ", "3890": "scea ", "3891": "guon ", "3892": "rean ", "3893": "stra ", "3894": "vo a ", "3895": "le a ", "3896": "na a ", "3897": "bia\u2019 ", "3898": "slao ", "3899": "be i ", "3900": "fior ", "3901": "o un ", "3902": "dail ", "3903": "stui ", "3904": "ta o ", "3905": "po o ", "3906": "stie ", "3907": "chel ", "3908": "gnun ", "3909": "tra\u2019 ", "3910": "li a ", "3911": "naio ", "3912": "na e ", "3913": "pri\u2019 ", "3914": "scon ", "3915": "da i ", "3916": "za e ", "3917": "de \u00e8 ", "3918": "me a ", "3919": "mian ", "3920": "runt ", "3921": "cain ", "3922": "vi e ", "3923": "qual ", "3924": "quai ", "3925": "prec ", "3926": "guia ", "3927": "ce o ", "3928": "da a ", "3929": "tien ", "3930": "zi a ", "3931": "pier ", "3932": "quar ", "3933": "tuon ", "3934": "prei ", "3935": "scar ", "3936": "fren ", "3937": "drea ", "3938": "pron ", "3939": "so \u00e8 ", "3940": "ne \u00e8 ", "3941": "dra\u2019 ", "3942": "chia ", "3943": "bran ", "3944": "sien ", "3945": "chi\u00f2 ", "3946": "nail ", "3947": "ti a ", "3948": "la \u00e8 ", "3949": "da e ", "3950": "gi a ", "3951": "to o ", "3952": "i il ", "3953": "sie\u2019 ", "3954": "tean ", "3955": "sian ", "3956": "po e ", "3957": "cheo ", "3958": "ce e ", "3959": "do o ", "3960": "riai ", "3961": "no i ", "3962": "sa o ", "3963": "de e ", "3964": "ma e ", "3965": "mie\u2019 ", "3966": "se \u00e8 ", "3967": "co a ", "3968": "rien ", "3969": "ti \u00e8 ", "3970": "frir ", "3971": "va o ", "3972": "ge a ", "3973": "li i ", "3974": "ciel ", "3975": "bion ", "3976": "ra i ", "3977": "nian ", "3978": "\u00e8 il ", "3979": "sper ", "3980": "ze o ", "3981": "giun ", "3982": "grue ", "3983": "de i ", "3984": "trui ", "3985": "no \u00e8 ", "3986": "brio ", "3987": "se a ", "3988": "de o ", "3989": "tu e ", "3990": "trio ", "3991": "buon ", "3992": "bi e ", "3993": "a \u2019l ", "3994": "stro ", "3995": "doan ", "3996": "te p ", "3997": "gioi ", "3998": "co i ", "3999": "gier ", "4000": "pian ", "4001": "star ", "4002": "ciar ", "4003": "l\u00e0 i ", "4004": "si \u00e8 ", "4005": "pe i ", "4006": "te i ", "4007": "cl\u00e8s ", "4008": "tram ", "4009": "bian ", "4010": "lien ", "4011": "rent ", "4012": "bi a ", "4013": "te o ", "4014": "re a ", "4015": "grin ", "4016": "vuol ", "4017": "ne e ", "4018": "ri o ", "4019": "guir ", "4020": "schi ", "4021": "ca e ", "4022": "sunt ", "4023": "co e ", "4024": "ro i ", "4025": "fier ", "4026": "zo a ", "4027": "pi e ", "4028": "tree ", "4029": "mi e ", "4030": "f\u00e9 i ", "4031": "ta \u00e8 ", "4032": "so e ", "4033": "po a ", "4034": "co o ", "4035": "vien ", "4036": "d\u2019 i ", "4037": "scia ", "4038": "tu \u2019 ", "4039": "be e ", "4040": "gnan ", "4041": "laio ", "4042": "gi\u00f9e ", "4043": "vi \u00e8 ", "4044": "frui ", "4045": "ri e ", "4046": "e \u2019l ", "4047": "va e ", "4048": "ne i ", "4049": "gner ", "4050": "scel ", "4051": "me o ", "4052": "bo e ", "4053": "ra o ", "4054": "plor ", "4055": "cria ", "4056": "quor ", "4057": "sa a ", "4058": "ched ", "4059": "fuor ", "4060": "trei ", "4061": "trae ", "4062": "die\u2019 ", "4063": "niam ", "4064": "vuo\u2019 ", "4065": "le o ", "4066": "fu o ", "4067": "stel ", "4068": "scun ", "4069": "maio ", "4070": "ra e ", "4071": "o il ", "4072": "go a ", "4073": "breo ", "4074": "stri ", "4075": "zi \u00e8 ", "4076": "su i ", "4077": "de a ", "4078": "v\u2019 \u00e8 ", "4079": "nien ", "4080": "li o ", "4081": "ca a ", "4082": "gran ", "4083": "s\u00e9 i ", "4084": "vean ", "4085": "me i ", "4086": "steo ", "4087": "chie ", "4088": "lo \u00e8 ", "4089": "gean ", "4090": "si o ", "4091": "vuoi ", "4092": "glio ", "4093": "svia ", "4094": "co \u00e8 ", "4095": "piar ", "4096": "st\u00f2r ", "4097": "cian ", "4098": "crin ", "4099": "biar ", "4100": "mo a ", "4101": "po \u00e8 ", "4102": "duol ", "4103": "crea ", "4104": "prio ", "4105": "ta i ", "4106": "e \u2019n ", "4107": "so i ", "4108": "pe e ", "4109": "lier ", "4110": "gnus ", "4111": "m\u2019 \u00e8 ", "4112": "trea ", "4113": "\u00e8 \u2019n ", "4114": "me \u00e8 ", "4115": "ri al ", "4116": "le ad ", "4117": "tra e ", "4118": "li i\u2019 ", "4119": "bra a ", "4120": "ne un ", "4121": "m\u2019 ha ", "4122": "cio a ", "4123": "pe \u2019l ", "4124": "ria o ", "4125": "tro a ", "4126": "me ed ", "4127": "mo ei ", "4128": "sta \u00e8 ", "4129": "su \u2019l ", "4130": "re i\u2019 ", "4131": "me in ", "4132": "li al ", "4133": "sti o ", "4134": "co il ", "4135": "se al ", "4136": "sto a ", "4137": "ca io ", "4138": "zia e ", "4139": "me or ", "4140": "pi in ", "4141": "ro od ", "4142": "mi ed ", "4143": "li or ", "4144": "svuol ", "4145": "glier ", "4146": "c\u2019 io ", "4147": "ti \u2019l ", "4148": "ha \u2019l ", "4149": "c\u2019 ha ", "4150": "co ad ", "4151": "tra i ", "4152": "la un ", "4153": "ia in ", "4154": "lio a ", "4155": "gno a ", "4156": "re in ", "4157": "si un ", "4158": "c\u2019 ho ", "4159": "gna e ", "4160": "me al ", "4161": "za ha ", "4162": "do in ", "4163": "cia i ", "4164": "gia \u00e8 ", "4165": "tri o ", "4166": "l\u2019 ho ", "4167": "zo in ", "4168": "che e ", "4169": "ti il ", "4170": "ia il ", "4171": "se or ", "4172": "tro i ", "4173": "le io ", "4174": "so il ", "4175": "da al ", "4176": "que \u00e8 ", "4177": "ci or ", "4178": "mi in ", "4179": "fu al ", "4180": "ne ha ", "4181": "z\u00f2 \u2019l ", "4182": "ste i ", "4183": "pio e ", "4184": "stral ", "4185": "bra e ", "4186": "vra i ", "4187": "zia \u00e8 ", "4188": "d\u2019 e\u2019 ", "4189": "ci in ", "4190": "ne a\u2019 ", "4191": "sa in ", "4192": "ga il ", "4193": "ti in ", "4194": "s\u2019 el ", "4195": "da il ", "4196": "ra il ", "4197": "se in ", "4198": "bre a ", "4199": "pe ad ", "4200": "di or ", "4201": "pi un ", "4202": "dio a ", "4203": "b\u2019 io ", "4204": "ce u\u2019 ", "4205": "strar ", "4206": "lo al ", "4207": "re or ", "4208": "que e ", "4209": "sce e ", "4210": "si u\u2019 ", "4211": "za i\u2019 ", "4212": "chion ", "4213": "ghi e ", "4214": "di in ", "4215": "ta ha ", "4216": "po io ", "4217": "fa \u2019l ", "4218": "ti ha ", "4219": "ste e ", "4220": "li un ", "4221": "lio e ", "4222": "se e\u2019 ", "4223": "s\u2019 ha ", "4224": "re un ", "4225": "si el ", "4226": "fu il ", "4227": "r\u00e0 ed ", "4228": "vrien ", "4229": "gue a ", "4230": "chiai ", "4231": "via e ", "4232": "co \u2019l ", "4233": "ra a\u2019 ", "4234": "t\u2019 il ", "4235": "d\u2019 un ", "4236": "na ei ", "4237": "te in ", "4238": "ce a\u2019 ", "4239": "be un ", "4240": "ne ed ", "4241": "ste a ", "4242": "s\u2019 ei ", "4243": "gi al ", "4244": "st\u2019 \u00e8 ", "4245": "cia a ", "4246": "v\u2019 ei ", "4247": "nia a ", "4248": "le i\u2019 ", "4249": "go il ", "4250": "no i\u2019 ", "4251": "gna a ", "4252": "lo ed ", "4253": "de un ", "4254": "s\u2019 un ", "4255": "bi il ", "4256": "pa in ", "4257": "ria i ", "4258": "sca i ", "4259": "re ed ", "4260": "vo in ", "4261": "rio e ", "4262": "ci al ", "4263": "v\u00f2 \u2019l ", "4264": "to i\u2019 ", "4265": "me \u2019n ", "4266": "b\u00f2 il ", "4267": "chiar ", "4268": "zi ai ", "4269": "mo ad ", "4270": "gliai ", "4271": "pa ho ", "4272": "scian ", "4273": "di il ", "4274": "t\u2019 io ", "4275": "stion ", "4276": "te al ", "4277": "ni ed ", "4278": "na \u2019n ", "4279": "sme e ", "4280": "se ho ", "4281": "no in ", "4282": "ta un ", "4283": "r\u00e0 in ", "4284": "ti \u2019n ", "4285": "do a\u2019 ", "4286": "sce i ", "4287": "ro un ", "4288": "no u\u2019 ", "4289": "t\u00e9 \u2019l ", "4290": "re al ", "4291": "ia oh ", "4292": "sciar ", "4293": "va a\u2019 ", "4294": "to ir ", "4295": "mia e ", "4296": "go al ", "4297": "bre e ", "4298": "ma a\u2019 ", "4299": "le \u2019l ", "4300": "ma in ", "4301": "zio a ", "4302": "zio e ", "4303": "tri e ", "4304": "ce il ", "4305": "gra o ", "4306": "glien ", "4307": "qua o ", "4308": "ce in ", "4309": "v\u2019 or ", "4310": "ge or ", "4311": "va il ", "4312": "da or ", "4313": "li il ", "4314": "ba in ", "4315": "ni al ", "4316": "te \u2019n ", "4317": "be i\u2019 ", "4318": "so \u2019l ", "4319": "co un ", "4320": "zia o ", "4321": "dre a ", "4322": "to ai ", "4323": "stial ", "4324": "ni in ", "4325": "gni a ", "4326": "za or ", "4327": "v\u2019 ha ", "4328": "te i\u2019 ", "4329": "staio ", "4330": "te ai ", "4331": "cia o ", "4332": "sto e ", "4333": "mio e ", "4334": "te ad ", "4335": "chi \u00e8 ", "4336": "r\u00ec \u2019l ", "4337": "tre e ", "4338": "m\u2019 io ", "4339": "ge ai ", "4340": "ra \u2019n ", "4341": "la in ", "4342": "g\u00ec \u2019l ", "4343": "che a ", "4344": "le un ", "4345": "v\u2019 io ", "4346": "tro \u00e8 ", "4347": "gue \u00e8 ", "4348": "stier ", "4349": "bi un ", "4350": "va un ", "4351": "ra ha ", "4352": "glion ", "4353": "d\u2019 el ", "4354": "si in ", "4355": "ta ed ", "4356": "va \u2019l ", "4357": "cea a ", "4358": "va in ", "4359": "dio e ", "4360": "ne ad ", "4361": "lo ai ", "4362": "fu in ", "4363": "so ad ", "4364": "d\u2019 i\u2019 ", "4365": "r\u00f2 \u2019l ", "4366": "dro o ", "4367": "le ha ", "4368": "ve al ", "4369": "sa un ", "4370": "fo or ", "4371": "ro ed ", "4372": "ni\u2019 e ", "4373": "stiam ", "4374": "ta il ", "4375": "ria \u00e8 ", "4376": "tro e ", "4377": "tra \u00e8 ", "4378": "glior ", "4379": "ta or ", "4380": "gi un ", "4381": "dia i ", "4382": "le or ", "4383": "di \u2019n ", "4384": "lio \u00e8 ", "4385": "zia a ", "4386": "se il ", "4387": "ra in ", "4388": "no io ", "4389": "na ad ", "4390": "cea o ", "4391": "no ei ", "4392": "no \u2019l ", "4393": "io il ", "4394": "de ad ", "4395": "r\u2019 al ", "4396": "ti ei ", "4397": "di io ", "4398": "me a\u2019 ", "4399": "di ed ", "4400": "sia e ", "4401": "ci il ", "4402": "do un ", "4403": "tr\u2019 \u00e8 ", "4404": "to a\u2019 ", "4405": "gnaio ", "4406": "da un ", "4407": "l\u00e0 il ", "4408": "bia e ", "4409": "se \u2019n ", "4410": "vi un ", "4411": "ce ed ", "4412": "si ad ", "4413": "na il ", "4414": "ch\u00e9 a ", "4415": "t\u2019 ho ", "4416": "ra \u2019l ", "4417": "ro ad ", "4418": "pri e ", "4419": "sciai ", "4420": "temps ", "4421": "no ad ", "4422": "ch\u2019 \u00e8 ", "4423": "t\u00f2 un ", "4424": "qua a ", "4425": "be or ", "4426": "ne or ", "4427": "ve un ", "4428": "se i\u2019 ", "4429": "tra \u2019 ", "4430": "que a ", "4431": "ne al ", "4432": "d\u2019 ir ", "4433": "gli a ", "4434": "v\u2019 ho ", "4435": "zii e ", "4436": "di un ", "4437": "t\u00ec \u2019l ", "4438": "pr\u2019 a ", "4439": "bo in ", "4440": "do al ", "4441": "se a\u2019 ", "4442": "me \u2019l ", "4443": "ia ed ", "4444": "mo un ", "4445": "pio a ", "4446": "gna i ", "4447": "ci\u00f2 a ", "4448": "ch\u2019 a ", "4449": "ca il ", "4450": "n\u2019 ei ", "4451": "no un ", "4452": "co or ", "4453": "do ed ", "4454": "so \u00e8e ", "4455": "mi un ", "4456": "za un ", "4457": "to ad ", "4458": "qua \u00e8 ", "4459": "chi e ", "4460": "na or ", "4461": "gna o ", "4462": "me il ", "4463": "ga in ", "4464": "li ei ", "4465": "tri \u00e8 ", "4466": "ria e ", "4467": "sa ad ", "4468": "za al ", "4469": "v\u2019 e\u2019 ", "4470": "ro a\u2019 ", "4471": "le ab ", "4472": "ma \u2019n ", "4473": "ge il ", "4474": "ni \u2019l ", "4475": "ta \u2019l ", "4476": "po il ", "4477": "ri a\u2019 ", "4478": "mo in ", "4479": "ra io ", "4480": "ti al ", "4481": "n\u2019 ha ", "4482": "pri a ", "4483": "ge ad ", "4484": "s\u00ec al ", "4485": "ve in ", "4486": "co a\u2019 ", "4487": "sto \u00e8 ", "4488": "d\u00f2 in ", "4489": "no a\u2019 ", "4490": "ge un ", "4491": "gio a ", "4492": "ta ho ", "4493": "gue e ", "4494": "ghiai ", "4495": "gni e ", "4496": "gia o ", "4497": "mi \u2019l ", "4498": "s\u00ec \u2019l ", "4499": "na in ", "4500": "ma un ", "4501": "mi al ", "4502": "le il ", "4503": "de al ", "4504": "di ha ", "4505": "ta io ", "4506": "gui e ", "4507": "go \u2019l ", "4508": "n\u00f2 \u2019l ", "4509": "co in ", "4510": "d\u2019 io ", "4511": "f\u00e9 \u2019l ", "4512": "gli e ", "4513": "bra o ", "4514": "to il ", "4515": "to ed ", "4516": "ce al ", "4517": "va ai ", "4518": "l\u00e0 \u2019l ", "4519": "t\u00e0 \u2019l ", "4520": "sti a ", "4521": "ca al ", "4522": "sci a ", "4523": "za in ", "4524": "se io ", "4525": "lo a\u2019 ", "4526": "sco i ", "4527": "glian ", "4528": "bro e ", "4529": "za il ", "4530": "de il ", "4531": "za \u2019l ", "4532": "lo ad ", "4533": "gui i ", "4534": "scion ", "4535": "pe il ", "4536": "gno e ", "4537": "pre e ", "4538": "te il ", "4539": "li oh ", "4540": "gna \u00e8 ", "4541": "t\u2019 el ", "4542": "ria \u2019 ", "4543": "la a\u2019 ", "4544": "pre a ", "4545": "na ha ", "4546": "va \u2019n ", "4547": "gliar ", "4548": "ce un ", "4549": "schio ", "4550": "po \u2019l ", "4551": "re il ", "4552": "chian ", "4553": "gia e ", "4554": "pre i ", "4555": "cio e ", "4556": "te ha ", "4557": "s\u2019 i\u2019 ", "4558": "se un ", "4559": "bi in ", "4560": "che i ", "4561": "gno \u00e8 ", "4562": "cia e ", "4563": "be al ", "4564": "no al ", "4565": "co u\u2019 ", "4566": "zi al ", "4567": "sti \u00e8 ", "4568": "so un ", "4569": "strai ", "4570": "zio \u00e8 ", "4571": "za oh ", "4572": "no ed ", "4573": "d\u2019 ei ", "4574": "tu \u2019l ", "4575": "zi or ", "4576": "gia a ", "4577": "be in ", "4578": "zi ad ", "4579": "ni il ", "4580": "to ha ", "4581": "ne io ", "4582": "ta in ", "4583": "di \u00e8e ", "4584": "le ir ", "4585": "da \u2019l ", "4586": "ne \u2019l ", "4587": "ghiar ", "4588": "da in ", "4589": "bio e ", "4590": "tra a ", "4591": "ro i\u2019 ", "4592": "ne il ", "4593": "tri a ", "4594": "si il ", "4595": "co ai ", "4596": "be \u2019l ", "4597": "stian ", "4598": "gua e ", "4599": "zi un ", "4600": "le al ", "4601": "ch\u00e9 i ", "4602": "do ad ", "4603": "di ad ", "4604": "do or ", "4605": "bo a\u2019 ", "4606": "smo a ", "4607": "ne ai ", "4608": "te ed ", "4609": "\u2019v\u2019 \u00e8 ", "4610": "sce a ", "4611": "me un ", "4612": "po ha ", "4613": "rai e ", "4614": "gri e ", "4615": "ra or ", "4616": "me ai ", "4617": "se ad ", "4618": "sta e ", "4619": "dro e ", "4620": "vi in ", "4621": "lia e ", "4622": "t\u2019 ha ", "4623": "so al ", "4624": "to in ", "4625": "la il ", "4626": "ro or ", "4627": "ba il ", "4628": "li \u2019l ", "4629": "gioir ", "4630": "va al ", "4631": "ci a\u2019 ", "4632": "sa \u2019l ", "4633": "no il ", "4634": "v\u2019 i\u2019 ", "4635": "ti a\u2019 ", "4636": "no ai ", "4637": "sevra ", "4638": "su in ", "4639": "dro a ", "4640": "p\u2019 io ", "4641": "ci ha ", "4642": "zi \u2019l ", "4643": "ne in ", "4644": "zo al ", "4645": "v\u2019 el ", "4646": "re ha ", "4647": "n\u00e9 \u2019l ", "4648": "ve il ", "4649": "di al ", "4650": "di \u2019l ", "4651": "te \u2019l ", "4652": "ro in ", "4653": "ci io ", "4654": "co al ", "4655": "ro al ", "4656": "da i\u2019 ", "4657": "lo ha ", "4658": "fu \u2019l ", "4659": "mo il ", "4660": "t\u2019 om ", "4661": "pra e ", "4662": "le in ", "4663": "rio a ", "4664": "li ad ", "4665": "mo \u2019l ", "4666": "g\u2019 io ", "4667": "ti ed ", "4668": "te io ", "4669": "na al ", "4670": "va ad ", "4671": "so a\u2019 ", "4672": "do io ", "4673": "be ed ", "4674": "te ho ", "4675": "ti ad ", "4676": "se ai ", "4677": "sco e ", "4678": "chi a ", "4679": "co io ", "4680": "pa \u2019l ", "4681": "me ad ", "4682": "li in ", "4683": "lo un ", "4684": "na un ", "4685": "gno i ", "4686": "gi il ", "4687": "l\u2019 un ", "4688": "se ir ", "4689": "ghe e ", "4690": "s\u2019 io ", "4691": "d\u00f2 \u2019l ", "4692": "to \u2019l ", "4693": "si \u2019n ", "4694": "ti un ", "4695": "vi il ", "4696": "gliea ", "4697": "mo ed ", "4698": "de in ", "4699": "re ir ", "4700": "n\u2019 io ", "4701": "va ed ", "4702": "do ha ", "4703": "bro \u00e8 ", "4704": "leo e ", "4705": "gi\u00e0 i ", "4706": "ti ai ", "4707": "ra al ", "4708": "ro il ", "4709": "ve a\u2019 ", "4710": "na ed ", "4711": "si or ", "4712": "lo in ", "4713": "ve \u2019l ", "4714": "ra un ", "4715": "r\u00f2 il ", "4716": "t\u2019 i\u2019 ", "4717": "vi \u2019l ", "4718": "re ho ", "4719": "ria a ", "4720": "po in ", "4721": "lo or ", "4722": "ta ad ", "4723": "ma \u2019l ", "4724": "lui a ", "4725": "va or ", "4726": "segn\u00f2 ", "4727": "s\u00e9 il ", "4728": "to un ", "4729": "gliel ", "4730": "n\u00f2 in ", "4731": "fa il ", "4732": "pa ed ", "4733": "ghe a ", "4734": "z\u00f2 il ", "4735": "de ed ", "4736": "scuoi ", "4737": "ha in ", "4738": "gua a ", "4739": "re \u2019n ", "4740": "mi a\u2019 ", "4741": "zi il ", "4742": "do il ", "4743": "ce ha ", "4744": "che \u2019 ", "4745": "si al ", "4746": "gio e ", "4747": "po ed ", "4748": "la \u2019l ", "4749": "li io ", "4750": "dri e ", "4751": "sti e ", "4752": "ri \u2019l ", "4753": "ra ad ", "4754": "la io ", "4755": "chier ", "4756": "no ha ", "4757": "do \u2019l ", "4758": "te or ", "4759": "se \u2019l ", "4760": "t\u00f2 \u2019l ", "4761": "to or ", "4762": "zo \u2019l ", "4763": "l\u2019 ha ", "4764": "mi il ", "4765": "to \u2019n ", "4766": "to io ", "4767": "ta al ", "4768": "bi \u2019l ", "4769": "ti io ", "4770": "di a\u2019 ", "4771": "sta a ", "4772": "sta o ", "4773": "gi \u2019l ", "4774": "zo il ", "4775": "qua e ", "4776": "la al ", "4777": "te un ", "4778": "voill ", "4779": "re ad ", "4780": "to al ", "4781": "v\u2019 \u00e8n ", "4782": "l\u2019 om ", "4783": "s\u2019 e\u2019 ", "4784": "va io ", "4785": "ca in ", "4786": "dre e ", "4787": "si \u2019l ", "4788": "ra ed ", "4789": "mi ad ", "4790": "po al ", "4791": "pa or ", "4792": "stran ", "4793": "ci \u2019l ", "4794": "ge al ", "4795": "li ha ", "4796": "ri in ", "4797": "de \u2019l ", "4798": "non e ", "4799": "sio e ", "4800": "co i\u2019 ", "4801": "za ed ", "4802": "re a\u2019 ", "4803": "sa il ", "4804": "dia e ", "4805": "tr\u2019 a ", "4806": "ma il ", "4807": "g\u00f2 \u2019l ", "4808": "pie a ", "4809": "te a\u2019 ", "4810": "mo al ", "4811": "te u\u2019 ", "4812": "gluol ", "4813": "da io ", "4814": "qui e ", "4815": "so in ", "4816": "ve ad ", "4817": "ni or ", "4818": "mo ha ", "4819": "ge in ", "4820": "lo il ", "4821": "be il ", "4822": "la ed ", "4823": "cia ir ", "4824": "gli\u00f2 i ", "4825": "bia in ", "4826": "tre in ", "4827": "bra od ", "4828": "gna un ", "4829": "pre ha ", "4830": "sto ha ", "4831": "che a\u2019 ", "4832": "qua in ", "4833": "gi\u00e0 \u2019l ", "4834": "ch\u2019 a\u2019 ", "4835": "gna \u2019l ", "4836": "sti il ", "4837": "l\u2019 uom ", "4838": "stro e ", "4839": "la \u2019ve ", "4840": "ro e \u2019 ", "4841": "m\u2019 han ", "4842": "tri il ", "4843": "sti ha ", "4844": "glio a ", "4845": "ste in ", "4846": "ch\u2019 ei ", "4847": "tro ed ", "4848": "mio il ", "4849": "gi\u00f9 il ", "4850": "dia in ", "4851": "gno il ", "4852": "st\u2019 ho ", "4853": "bra ad ", "4854": "vea \u2019l ", "4855": "qu\u2019 io ", "4856": "sta in ", "4857": "chi \u2019l ", "4858": "ba e \u2019 ", "4859": "gue il ", "4860": "ch\u2019 in ", "4861": "se uom ", "4862": "que il ", "4863": "li ha\u2019 ", "4864": "ria il ", "4865": "sa e \u2019 ", "4866": "tr\u2019 a\u2019 ", "4867": "gia un ", "4868": "gno a\u2019 ", "4869": "chi il ", "4870": "va e i ", "4871": "que or ", "4872": "tre i\u2019 ", "4873": "chi al ", "4874": "fia il ", "4875": "ne e i ", "4876": "rio il ", "4877": "tro ad ", "4878": "ghi al ", "4879": "zio al ", "4880": "gio in ", "4881": "stra e ", "4882": "va\u2019 il ", "4883": "pria o ", "4884": "sche o ", "4885": "pre in ", "4886": "d\u2019 uom ", "4887": "ch\u2019 al ", "4888": "che in ", "4889": "dre al ", "4890": "gi\u00f9 in ", "4891": "che \u2019n ", "4892": "gne \u2019l ", "4893": "tra al ", "4894": "spra e ", "4895": "ghia a ", "4896": "dia \u2019l ", "4897": "nio al ", "4898": "sto il ", "4899": "pra al ", "4900": "bia \u2019l ", "4901": "mia al ", "4902": "ne han ", "4903": "pu\u00f2 \u2019l ", "4904": "gna a\u2019 ", "4905": "due \u2019l ", "4906": "chi in ", "4907": "cea in ", "4908": "rio in ", "4909": "gliuoi ", "4910": "te han ", "4911": "me e \u2019 ", "4912": "sc\u2019 io ", "4913": "ghi \u2019l ", "4914": "gna il ", "4915": "pra in ", "4916": "tri or ", "4917": "sce il ", "4918": "ciai o ", "4919": "strans ", "4920": "ci\u00f2 io ", "4921": "pi\u00f9 \u2019l ", "4922": "qui \u2019l ", "4923": "vra \u2019l ", "4924": "pre \u2019l ", "4925": "sti \u2019l ", "4926": "diam i ", "4927": "l\u2019 hai ", "4928": "chio e ", "4929": "tro il ", "4930": "glia a ", "4931": "chio \u00e8 ", "4932": "ci\u00f2 \u2019l ", "4933": "chi ha ", "4934": "ch\u2019 ad ", "4935": "gia \u2019l ", "4936": "di e \u2019 ", "4937": "stro o ", "4938": "pra \u2019l ", "4939": "tro ai ", "4940": "sia il ", "4941": "sia \u2019l ", "4942": "lia il ", "4943": "t\u2019 ha\u2019 ", "4944": "scia o ", "4945": "dr\u00e0 il ", "4946": "pra ed ", "4947": "sta al ", "4948": "tri \u2019l ", "4949": "ghio e ", "4950": "lio ed ", "4951": "chi ei ", "4952": "c\u2019 ha\u2019 ", "4953": "stra a ", "4954": "fra \u2019l ", "4955": "trio e ", "4956": "ch\u2019 el ", "4957": "scia a ", "4958": "gio ad ", "4959": "sti in ", "4960": "gia or ", "4961": "gio al ", "4962": "nia il ", "4963": "gro un ", "4964": "so\u2019 \u2019n ", "4965": "gli un ", "4966": "ghiaio ", "4967": "cea il ", "4968": "gno ha ", "4969": "tro io ", "4970": "si e \u2019 ", "4971": "tre al ", "4972": "gno in ", "4973": "qua il ", "4974": "bre a\u2019 ", "4975": "ro hai ", "4976": "stio e ", "4977": "rio ha ", "4978": "tro a\u2019 ", "4979": "zia il ", "4980": "\u2019ve \u2019l ", "4981": "glio e ", "4982": "pi e i ", "4983": "gi\u2019 or ", "4984": "cia in ", "4985": "sta un ", "4986": "que in ", "4987": "tro un ", "4988": "ria al ", "4989": "gni in ", "4990": "cio ed ", "4991": "tr\u2019 io ", "4992": "scio a ", "4993": "ni e i ", "4994": "gi\u00e0 il ", "4995": "gue in ", "4996": "bria e ", "4997": "tre a\u2019 ", "4998": "n\u2019 uom ", "4999": "que ad ", "5000": "cria o ", "5001": "sto ad ", "5002": "na\u2019 il ", "5003": "ne e \u2019 ", "5004": "ch\u00e9 \u2019n ", "5005": "que a\u2019 ", "5006": "stri e ", "5007": "tr\u2019 al ", "5008": "pi\u00f9 ir ", "5009": "tra i\u2019 ", "5010": "chio a ", "5011": "gno ad ", "5012": "glia e ", "5013": "ra han ", "5014": "glie e ", "5015": "tro \u2019l ", "5016": "gio ha ", "5017": "tra in ", "5018": "dio in ", "5019": "ste il ", "5020": "glia o ", "5021": "gu\u00ec \u2019l ", "5022": "dea in ", "5023": "glio o ", "5024": "c\u2019 han ", "5025": "sco il ", "5026": "ch\u2019 \u00e8i ", "5027": "ti\u2019 un ", "5028": "chia e ", "5029": "fi\u00f2 il ", "5030": "m\u2019 hai ", "5031": "scia e ", "5032": "ch\u2019 i\u2019 ", "5033": "pi\u00f9 al ", "5034": "ghi in ", "5035": "sta \u2019n ", "5036": "smo in ", "5037": "pi\u00e8 al ", "5038": "stia e ", "5039": "t\u2019 hai ", "5040": "ch\u2019 un ", "5041": "tre un ", "5042": "pi\u00f9 il ", "5043": "ti e \u2019 ", "5044": "gna in ", "5045": "cia al ", "5046": "gia il ", "5047": "li han ", "5048": "po e \u2019 ", "5049": "sto al ", "5050": "ch\u00e9 il ", "5051": "schiar ", "5052": "che il ", "5053": "to hai ", "5054": "gli al ", "5055": "ci e \u2019 ", "5056": "tra il ", "5057": "ri e \u2019 ", "5058": "lia al ", "5059": "que al ", "5060": "so hai ", "5061": "tro in ", "5062": "cia il ", "5063": "gliuol ", "5064": "gno or ", "5065": "pa e \u2019 ", "5066": "rio ho ", "5067": "ch\u2019 ai ", "5068": "schi a ", "5069": "che un ", "5070": "stra \u00e8 ", "5071": "stie e ", "5072": "tra \u2019l ", "5073": "que i\u2019 ", "5074": "gua in ", "5075": "sc\u00ec \u2019l ", "5076": "smo al ", "5077": "ro e o ", "5078": "che \u2019l ", "5079": "cia un ", "5080": "pre al ", "5081": "tro i\u2019 ", "5082": "ch\u2019 e\u2019 ", "5083": "s\u2019 hai ", "5084": "qua al ", "5085": "do i p ", "5086": "zie al ", "5087": "tro al ", "5088": "r\u00f3n il ", "5089": "stro a ", "5090": "tri ad ", "5091": "sta il ", "5092": "pia in ", "5093": "cia ad ", "5094": "tre il ", "5095": "schi o ", "5096": "che al ", "5097": "ni e \u2019 ", "5098": "gno al ", "5099": "dro in ", "5100": "ch\u2019 io ", "5101": "ti han ", "5102": "di\u2019 \u2019l ", "5103": "mio in ", "5104": "sdegn\u00f2 ", "5105": "ch\u00e9 \u2019l ", "5106": "glia \u00e8 ", "5107": "bra in ", "5108": "dri ai ", "5109": "ci\u00f2 il ", "5110": "ti e i ", "5111": "bio ed ", "5112": "stro \u00e8 ", "5113": "chi \u2019n ", "5114": "pria e ", "5115": "ch\u2019 om ", "5116": "ch\u2019 or ", "5117": "dria e ", "5118": "sce in ", "5119": "c\u2019 hai ", "5120": "gl\u2019 io ", "5121": "pre a\u2019 ", "5122": "pi\u00e9 \u2019l ", "5123": "gne al ", "5124": "stro i ", "5125": "sto io ", "5126": "chi a\u2019 ", "5127": "gio il ", "5128": "lui i\u2019 ", "5129": "gi\u00f9 al ", "5130": "se\u2019 in ", "5131": "gi\u00f9 \u2019l ", "5132": "cheo e ", "5133": "zia in ", "5134": "lea il ", "5135": "sto in ", "5136": "tro ha ", "5137": "gno ed ", "5138": "lio e i ", "5139": "chio al ", "5140": "stro il ", "5141": "no e \u2019l ", "5142": "si e \u2019l ", "5143": "glio in ", "5144": "te e \u2019l ", "5145": "po e \u2019l ", "5146": "co e \u2019l ", "5147": "v\u2019 \u00e8 \u2019l ", "5148": "na e \u2019l ", "5149": "scia il ", "5150": "chia al ", "5151": "glie \u2019l ", "5152": "te e \u2019n ", "5153": "to o al ", "5154": "glio ai ", "5155": "glie in ", "5156": "stia ad ", "5157": "lo \u00e8 in ", "5158": "ce e \u2019l ", "5159": "l\u2019 \u00e8 \u2019l ", "5160": "dia e i ", "5161": "ga e \u2019l ", "5162": "to \u00e8 \u2019l ", "5163": "me e \u2019l ", "5164": "glia il ", "5165": "ca e \u2019l ", "5166": "gnia in ", "5167": "ro e \u2019l ", "5168": "glio or ", "5169": "le e \u2019l ", "5170": "zo e \u2019l ", "5171": "vo e \u2019l ", "5172": "gne uom ", "5173": "stri in ", "5174": "schia e ", "5175": "schio e ", "5176": "de e \u2019l ", "5177": "giai al ", "5178": "stro in ", "5179": "ci e \u2019l ", "5180": "m\u2019 \u00e8 il ", "5181": "che e \u2019 ", "5182": "go e \u2019l ", "5183": "ne e \u2019l ", "5184": "ciai oh ", "5185": "to e \u2019l ", "5186": "la e \u2019l ", "5187": "va e \u2019l ", "5188": "za e \u2019l ", "5189": "stra il ", "5190": "tra e \u2019 ", "5191": "ch\u2019 uom ", "5192": "m\u2019 \u00e8 \u2019l ", "5193": "stro or ", "5194": "de e \u2019n ", "5195": "chio ha ", "5196": "me e \u2019n ", "5197": "go \u00e8 in ", "5198": "ta e \u2019l ", "5199": "s\u2019 io e ", "5200": "chio in ", "5201": "naio in ", "5202": "dre e \u2019 ", "5203": "bo e \u2019l ", "5204": "ti e \u2019l ", "5205": "ciai el ", "5206": "glia un ", "5207": "sci\u00f2 il ", "5208": "stro ed ", "5209": "sa e \u2019l ", "5210": "ta e \u2019n ", "5211": "va e \u2019n ", "5212": "glia al ", "5213": "qu\u2019 ieu ", "5214": "stra \u2019l ", "5215": "mi e \u2019l ", "5216": "ra e \u2019l ", "5217": "gnia ad ", "5218": "ma e \u2019l ", "5219": "so e \u2019l ", "5220": "se e \u2019l ", "5221": "chio il ", "5222": "re e \u2019l ", "5223": "glia in ", "5224": "do e \u2019n ", "5225": "mo e \u2019l ", "5226": "bre e \u2019 ", "5227": "be e \u2019l ", "5228": "tra e \u2019l ", "5229": "pra e \u2019l ", "5230": "te ha in ", "5231": "chi e \u2019l ", "5232": "ria \u00e8 \u2019l ", "5233": "dio e \u2019l ", "5234": "tri e \u2019l ", "5235": "v\u2019 ha \u2019l ", "5236": "cia e \u2019l ", "5237": "so ha \u2019l ", "5238": "s\u2019 i\u2019 \u2019l ", "5239": "l\u2019 avria ", "5240": "sio e \u2019l ", "5241": "to ha \u2019l ", "5242": "sta e \u2019l ", "5243": "gio e \u2019l ", "5244": "que e \u2019l ", "5245": "dre e \u2019l ", "5246": "schi uom ", "5247": "c\u2019 ha \u2019l ", "5248": "zio e \u2019l ", "5249": "st\u2019 \u00e8 \u2019l ", "5250": "ria e \u2019l ", "5251": "bia e \u2019l ", "5252": "tr\u2019 \u00e8 \u2019l ", "5253": "bra e \u2019l ", "5254": "tre e \u2019l ", "5255": "li ha in ", "5256": "sti \u00e8 \u2019l ", "5257": "d\u2019 io \u2019l ", "5258": "zie e \u2019l ", "5259": "chie e \u2019n ", "5260": "chio e \u2019l ", "5261": "li er\u2019 io ", "5262": "glio e \u2019l ", "5263": "ch\u2019 io \u2019l ", "5264": "re avrian ", "5265": "chio o \u2019l ", "5266": "stro e \u2019l ", "5267": "ch\u2019 i\u2019 \u2019l ", "5268": "scia e \u2019l ", "5269": "r\u00e0tro e \u2019l ", "5270": "s\u2019 io e \u2019l "}