{"0": "", "1": "<v>", "2": "</v>", "3": "<t>", "4": "</t>", "5": "u", "6": "\u00fc", "7": "o", "8": "a", "9": "\u00e8", "10": "\u00ef", "11": "i", "12": "\u00e9", "13": "\u00f2", "14": "e", "15": "t\u00ec", "16": "l\u00fc", "17": "ov", "18": "l\u00f6", "19": "t\u00f2", "20": "cu", "21": "ag", "22": "ze", "23": "bo", "24": "vi", "25": "ha", "26": "t\u00e4", "27": "\u00e8n", "28": "f\u00ef", "29": "zo", "30": "sa", "31": "n\u00f2", "32": "ci", "33": "ho", "34": "le", "35": "f\u00eb", "36": "et", "37": "r\u00ef", "38": "om", "39": "v\u00e9", "40": "ie", "41": "f\u00e9", "42": "em", "43": "r\u00e0", "44": "p\u00fc", "45": "s\u00fc", "46": "pu", "47": "ad", "48": "un", "49": "me", "50": "ap", "51": "tu", "52": "os", "53": "do", "54": "ni", "55": "ga", "56": "on", "57": "ef", "58": "g\u00fc", "59": "mi", "60": "ta", "61": "el", "62": "is", "63": "fe", "64": "n\u00e8", "65": "ex", "66": "or", "67": "to", "68": "og", "69": "io", "70": "uc", "71": "te", "72": "ru", "73": "id", "74": "du", "75": "in", "76": "l\u00e8", "77": "r\u00eb", "78": "ac", "79": "gu", "80": "mu", "81": "of", "82": "p\u00f2", "83": "im", "84": "de", "85": "lo", "86": "fa", "87": "ve", "88": "eu", "89": "po", "90": "nu", "91": "at", "92": "gi", "93": "iu", "94": "uo", "95": "re", "96": "r\u00e8", "97": "d\u00eb", "98": "ce", "99": "p\u00e8", "100": "ri", "101": "op", "102": "z\u00ef", "103": "pe", "104": "ae", "105": "bu", "106": "il", "107": "ob", "108": "p\u00ec", "109": "za", "110": "en", "111": "g\u00e8", "112": "t\u00eb", "113": "s\u00ef", "114": "se", "115": "la", "116": "r\u00f3", "117": "c\u00eb", "118": "l\u00ec", "119": "ra", "120": "co", "121": "di", "122": "v\u00e8", "123": "t\u00ef", "124": "az", "125": "v\u00e4", "126": "s\u00f2", "127": "eb", "128": "t\u00e8", "129": "bi", "130": "si", "131": "zi", "132": "lu", "133": "be", "134": "s\u00f9", "135": "\u00f2s", "136": "ur", "137": "ot", "138": "ia", "139": "g\u00f3", "140": "fo", "141": "pi", "142": "s\u00eb", "143": "ul", "144": "fi", "145": "d\u00fc", "146": "er", "147": "s\u00e9", "148": "l\u00eb", "149": "li", "150": "es", "151": "ca", "152": "c\u00ec", "153": "c\u00fc", "154": "so", "155": "f\u00f3", "156": "fu", "157": "l\u00ef", "158": "vo", "159": "g\u00ef", "160": "v\u00f2", "161": "n\u00fc", "162": "as", "163": "an", "164": "v\u00eb", "165": "no", "166": "v\u00ef", "167": "m\u00e4", "168": "oc", "169": "p\u00eb", "170": "ti", "171": "m\u00ef", "172": "su", "173": "ma", "174": "na", "175": "n\u00eb", "176": "ar", "177": "d\u00ef", "178": "ec", "179": "xi", "180": "va", "181": "am", "182": "m\u00eb", "183": "m\u00ec", "184": "ab", "185": "ge", "186": "au", "187": "\u00e8v", "188": "da", "189": "g\u00eb", "190": "d\u00e9", "191": "c\u00f9", "192": "ir", "193": "ro", "194": "mo", "195": "b\u00eb", "196": "go", "197": "af", "198": "p\u00ef", "199": "ol", "200": "m\u00e8", "201": "al", "202": "l\u00e0", "203": "c\u00ef", "204": "b\u00ef", "205": "s\u00e0", "206": "av", "207": "ba", "208": "l\u00f2", "209": "vu", "210": "ne", "211": "pa", "212": "t\u00fc", "213": "n\u00ef", "214": "lon", "215": "sop", "216": "dut", "217": "tir", "218": "put", "219": "nil", "220": "ior", "221": "bru", "222": "met", "223": "mam", "224": "piu", "225": "boz", "226": "gon", "227": "ran", "228": "sug", "229": "cro", "230": "cit", "231": "pis", "232": "for", "233": "dot", "234": "fum", "235": "dus", "236": "cen", "237": "fur", "238": "ahi", "239": "tuo", "240": "fiu", "241": "cag", "242": "rom", "243": "vis", "244": "gel", "245": "tra", "246": "pli", "247": "sna", "248": "lor", "249": "plu", "250": "qua", "251": "cin", "252": "cov", "253": "nat", "254": "nec", "255": "leb", "256": "ste", "257": "sme", "258": "cam", "259": "vir", "260": "vin", "261": "spa", "262": "pur", "263": "det", "264": "giu", "265": "gom", "266": "rug", "267": "var", "268": "dr\u00e4", "269": "fen", "270": "pil", "271": "pio", "272": "nia", "273": "tin", "274": "br\u00ef", "275": "pic", "276": "rot", "277": "pap", "278": "dun", "279": "nim", "280": "pl\u00ec", "281": "rid", "282": "p\u00f2s", "283": "git", "284": "soz", "285": "geo", "286": "bai", "287": "dit", "288": "pai", "289": "vas", "290": "cie", "291": "fra", "292": "che", "293": "bon", "294": "ril", "295": "fic", "296": "roz", "297": "que", "298": "red", "299": "tat", "300": "xil", "301": "sel", "302": "gir", "303": "dio", "304": "rio", "305": "stu", "306": "nez", "307": "fac", "308": "gua", "309": "san", "310": "lep", "311": "sde", "312": "iep", "313": "pru", "314": "puc", "315": "mat", "316": "reb", "317": "sto", "318": "rab", "319": "lab", "320": "dos", "321": "sal", "322": "del", "323": "zar", "324": "bun", "325": "tie", "326": "feg", "327": "ral", "328": "reg", "329": "mer", "330": "tag", "331": "mes", "332": "tar", "333": "vat", "334": "cep", "335": "pal", "336": "lop", "337": "tim", "338": "til", "339": "gor", "340": "tol", "341": "mar", "342": "par", "343": "vez", "344": "ten", "345": "lar", "346": "pen", "347": "sit", "348": "rup", "349": "bis", "350": "con", "351": "tru", "352": "dop", "353": "mez", "354": "sfa", "355": "tet", "356": "nan", "357": "gil", "358": "pos", "359": "sus", "360": "dol", "361": "sgo", "362": "fon", "363": "vac", "364": "ram", "365": "sep", "366": "hon", "367": "sor", "368": "den", "369": "tun", "370": "poz", "371": "zan", "372": "gis", "373": "get", "374": "rut", "375": "tos", "376": "tea", "377": "nun", "378": "sba", "379": "lit", "380": "tad", "381": "lin", "382": "roc", "383": "dul", "384": "cil", "385": "les", "386": "tuf", "387": "bea", "388": "mia", "389": "lav", "390": "rim", "391": "ler", "392": "bas", "393": "cap", "394": "fia", "395": "vie", "396": "sca", "397": "mas", "398": "mic", "399": "cir", "400": "fuc", "401": "\u2018ne", "402": "rig", "403": "sof", "404": "smu", "405": "cui", "406": "dal", "407": "fem", "408": "suf", "409": "cuo", "410": "mor", "411": "buf", "412": "nom", "413": "muc", "414": "cel", "415": "lai", "416": "pog", "417": "pri", "418": "sco", "419": "sbi", "420": "plo", "421": "non", "422": "pel", "423": "gio", "424": "spo", "425": "cau", "426": "gnu", "427": "nev", "428": "fam", "429": "mie", "430": "vuo", "431": "ban", "432": "dug", "433": "ruc", "434": "got", "435": "bug", "436": "gam", "437": "moz", "438": "sur", "439": "der", "440": "nes", "441": "buc", "442": "tle", "443": "lia", "444": "fes", "445": "bor", "446": "niz", "447": "poc", "448": "muo", "449": "gen", "450": "pac", "451": "dea", "452": "tac", "453": "lip", "454": "soc", "455": "por", "456": "ghi", "457": "pom", "458": "spu", "459": "sfe", "460": "sle", "461": "scu", "462": "fla", "463": "mag", "464": "guc", "465": "bre", "466": "dru", "467": "pir", "468": "buo", "469": "das", "470": "rag", "471": "dir", "472": "let", "473": "gie", "474": "bin", "475": "zur", "476": "nen", "477": "fro", "478": "nuc", "479": "sau", "480": "fom", "481": "din", "482": "mun", "483": "paz", "484": "doc", "485": "m\u00e8c", "486": "nir", "487": "dar", "488": "bul", "489": "sev", "490": "bra", "491": "ghe", "492": "f\u00e0c", "493": "sga", "494": "m\u00e9z", "495": "cla", "496": "mot", "497": "dor", "498": "tor", "499": "cot", "500": "dim", "501": "pot", "502": "raf", "503": "pas", "504": "fug", "505": "vag", "506": "sog", "507": "pol", "508": "pet", "509": "sud", "510": "p\u00e0r", "511": "cet", "512": "guo", "513": "sot", "514": "lic", "515": "ciu", "516": "nie", "517": "sno", "518": "lim", "519": "deb", "520": "vil", "521": "cio", "522": "pi\u00e9", "523": "gue", "524": "col", "525": "coc", "526": "rof", "527": "gal", "528": "fab", "529": "van", "530": "mil", "531": "von", "532": "sce", "533": "viz", "534": "rac", "535": "tel", "536": "iat", "537": "tro", "538": "bel", "539": "peg", "540": "svi", "541": "iar", "542": "lus", "543": "f\u00e9l", "544": "rav", "545": "lir", "546": "leg", "547": "fel", "548": "bui", "549": "sta", "550": "ret", "551": "a u", "552": "neg", "553": "res", "554": "fri", "555": "rin", "556": "mug", "557": "lur", "558": "sec", "559": "suo", "560": "bot", "561": "ier", "562": "noz", "563": "but", "564": "tam", "565": "o a", "566": "bat", "567": "dem", "568": "ven", "569": "ch\u00ef", "570": "lul", "571": "maz", "572": "vit", "573": "gui", "574": "dom", "575": "clo", "576": "vor", "577": "spi", "578": "cas", "579": "nis", "580": "bev", "581": "cob", "582": "gru", "583": "vel", "584": "fin", "585": "nol", "586": "pro", "587": "cat", "588": "sup", "589": "vid", "590": "mos", "591": "t\u00f2r", "592": "sob", "593": "len", "594": "gra", "595": "sie", "596": "son", "597": "clu", "598": "cl\u00ef", "599": "sol", "600": "cos", "601": "ses", "602": "mur", "603": "pre", "604": "sci", "605": "cul", "606": "tuc", "607": "ros", "608": "gne", "609": "v\u00f2l", "610": "las", "611": "cli", "612": "nar", "613": "\u2018be", "614": "nor", "615": "dez", "616": "zia", "617": "bri", "618": "gar", "619": "ric", "620": "sem", "621": "veg", "622": "fal", "623": "gia", "624": "sag", "625": "giz", "626": "bro", "627": "ful", "628": "r\u00e8g", "629": "nin", "630": "sma", "631": "fet", "632": "deg", "633": "sio", "634": "cis", "635": "car", "636": "gag", "637": "lot", "638": "dur", "639": "tr\u00ef", "640": "ner", "641": "des", "642": "sen", "643": "gni", "644": "ren", "645": "gna", "646": "ces", "647": "cru", "648": "not", "649": "gan", "650": "st\u00ef", "651": "nef", "652": "bef", "653": "zac", "654": "cea", "655": "duo", "656": "lom", "657": "o e", "658": "vom", "659": "run", "660": "sap", "661": "bet", "662": "nag", "663": "cez", "664": "lez", "665": "lau", "666": "zuf", "667": "sod", "668": "rie", "669": "quo", "670": "tez", "671": "vam", "672": "gri", "673": "rap", "674": "luo", "675": "ras", "676": "nul", "677": "vet", "678": "gat", "679": "tut", "680": "lut", "681": "goz", "682": "lui", "683": "sam", "684": "dis", "685": "tan", "686": "ris", "687": "gli", "688": "ian", "689": "mem", "690": "c\u00f3l", "691": "bil", "692": "seg", "693": "gaz", "694": "lup", "695": "tas", "696": "tal", "697": "sla", "698": "can", "699": "guz", "700": "sov", "701": "pul", "702": "dif", "703": "bli", "704": "mir", "705": "ter", "706": "sum", "707": "cor", "708": "chi", "709": "dre", "710": "dil", "711": "smi", "712": "qu\u00ef", "713": "lil", "714": "rel", "715": "tur", "716": "boc", "717": "fig", "718": "dia", "719": "zel", "720": "coz", "721": "zuc", "722": "rir", "723": "cic", "724": "bur", "725": "luz", "726": "nob", "727": "top", "728": "tau", "729": "fie", "730": "spe", "731": "pop", "732": "sfo", "733": "cop", "734": "sti", "735": "som", "736": "rob", "737": "lun", "738": "pun", "739": "lam", "740": "nio", "741": "qui", "742": "gem", "743": "ser", "744": "ruf", "745": "tri", "746": "goc", "747": "pra", "748": "sve", "749": "sez", "750": "fog", "751": "suc", "752": "bac", "753": "dei", "754": "gim", "755": "lac", "756": "sia", "757": "nai", "758": "rec", "759": "puz", "760": "ple", "761": "fat", "762": "fun", "763": "saf", "764": "rem", "765": "pla", "766": "tem", "767": "fre", "768": "pon", "769": "biz", "770": "ger", "771": "nuo", "772": "cri", "773": "raz", "774": "ria", "775": "laz", "776": "fle", "777": "men", "778": "cle", "779": "zaf", "780": "vul", "781": "tic", "782": "val", "783": "zon", "784": "noc", "785": "mul", "786": "lel", "787": "jau", "788": "mac", "789": "man", "790": "riz", "791": "fib", "792": "rog", "793": "sil", "794": "bie", "795": "fuo", "796": "mel", "797": "tis", "798": "smo", "799": "vec", "800": "cal", "801": "fas", "802": "mon", "803": "ch\u00ec", "804": "tho", "805": "o u", "806": "lan", "807": "bio", "808": "gau", "809": "sas", "810": "gib", "811": "pig", "812": "gur", "813": "sab", "814": "cer", "815": "cre", "816": "sin", "817": "lec", "818": "ben", "819": "rat", "820": "rol", "821": "dr\u00ef", "822": "zio", "823": "dub", "824": "far", "825": "cem", "826": "dov", "827": "cia", "828": "bol", "829": "cra", "830": "diz", "831": "bec", "832": "don", "833": "sub", "834": "fol", "835": "sv\u00ef", "836": "sis", "837": "pub", "838": "dra", "839": "rar", "840": "e a", "841": "feb", "842": "net", "843": "luc", "844": "\u2018la", "845": "piz", "846": "dan", "847": "lea", "848": "gre", "849": "rit", "850": "tes", "851": "nem", "852": "ton", "853": "toc", "854": "cuc", "855": "sac", "856": "pia", "857": "bia", "858": "tec", "859": "fit", "860": "bom", "861": "cum", "862": "flu", "863": "lem", "864": "pat", "865": "tom", "866": "lat", "867": "fru", "868": "rea", "869": "sic", "870": "fer", "871": "bl\u00ef", "872": "gab", "873": "t\u00f2m", "874": "bal", "875": "ron", "876": "fan", "877": "neb", "878": "voi", "879": "cur", "880": "pan", "881": "pes", "882": "dro", "883": "cad", "884": "dam", "885": "dau", "886": "set", "887": "muf", "888": "puo", "889": "lie", "890": "gob", "891": "com", "892": "vol", "893": "a a", "894": "lap", "895": "nal", "896": "die", "897": "gno", "898": "bar", "899": "pit", "900": "cef", "901": "gas", "902": "cun", "903": "pin", "904": "sos", "905": "c\u00e9r", "906": "han", "907": "pie", "908": "gea", "909": "teg", "910": "sat", "911": "mai", "912": "pau", "913": "ver", "914": "rez", "915": "sra", "916": "sp\u00ef", "917": "dic", "918": "per", "919": "mol", "920": "fis", "921": "svo", "922": "nur", "923": "nig", "924": "gad", "925": "nic", "926": "min", "927": "dri", "928": "lis", "929": "dat", "930": "sc\u00ef", "931": "sun", "932": "dec", "933": "cac", "934": "ges", "935": "pec", "936": "ruo", "937": "glo", "938": "gol", "939": "loc", "940": "nel", "941": "meg", "942": "dob", "943": "fos", "944": "ves", "945": "ber", "946": "nac", "947": "sar", "948": "bab", "949": "cr\u00e0", "950": "caf", "951": "fio", "952": "mal", "953": "fau", "954": "vem", "955": "sr\u00e4", "956": "tre", "957": "nas", "958": "spes", "959": "scos", "960": "po o", "961": "tiem", "962": "ciuf", "963": "scre", "964": "spez", "965": "sneb", "966": "no u", "967": "d\u2019 \u00eb", "968": "r\u2019 u", "969": "sfer", "970": "chet", "971": "n\u2019 e", "972": "fran", "973": "do u", "974": "gnar", "975": "di i", "976": "ghio", "977": "cion", "978": "tror", "979": "gior", "980": "spal", "981": "spin", "982": "se \u00eb", "983": "stem", "984": "mi e", "985": "glie", "986": "pres", "987": "proc", "988": "gian", "989": "so e", "990": "ghez", "991": "sbar", "992": "dhae", "993": "pi e", "994": "ve a", "995": "n\u2019 a", "996": "dier", "997": "va u", "998": "quin", "999": "spre", "1000": "ma a", "1001": "guet", "1002": "sanc", "1003": "ve u", "1004": "o al", "1005": "guer", "1006": "trag", "1007": "scar", "1008": "t\u2019 u", "1009": "chia", "1010": "te a", "1011": "stes", "1012": "stec", "1013": "la e", "1014": "tien", "1015": "\u00e8 in", "1016": "chio", "1017": "scir", "1018": "pi i", "1019": "gual", "1020": "scuo", "1021": "vi o", "1022": "gnon", "1023": "quil", "1024": "mi u", "1025": "me e", "1026": "sper", "1027": "ci u", "1028": "co e", "1029": "za u", "1030": "qual", "1031": "prin", "1032": "gnaz", "1033": "grap", "1034": "do e", "1035": "se e", "1036": "scor", "1037": "de o", "1038": "d\u2019 i", "1039": "svel", "1040": "fles", "1041": "lo u", "1042": "ci a", "1043": "ri u", "1044": "puom", "1045": "gnas", "1046": "stra", "1047": "to e", "1048": "no e", "1049": "m\u2019 e", "1050": "trec", "1051": "nian", "1052": "ciom", "1053": "spar", "1054": "guaz", "1055": "brez", "1056": "ca e", "1057": "a ac", "1058": "scan", "1059": "ghil", "1060": "d\u2019 o", "1061": "greg", "1062": "s\u2019 o", "1063": "smen", "1064": "mo u", "1065": "bren", "1066": "bris", "1067": "spia", "1068": "sgom", "1069": "giac", "1070": "scro", "1071": "trat", "1072": "brug", "1073": "me a", "1074": "a es", "1075": "be u", "1076": "snel", "1077": "flig", "1078": "stis", "1079": "fiac", "1080": "plan", "1081": "sa o", "1082": "sche", "1083": "ciul", "1084": "stet", "1085": "trom", "1086": "ne u", "1087": "scio", "1088": "se a", "1089": "str\u00e0", "1090": "sfre", "1091": "na u", "1092": "clas", "1093": "gnen", "1094": "scal", "1095": "quer", "1096": "do i", "1097": "to a", "1098": "le i", "1099": "na a", "1100": "gnie", "1101": "viem", "1102": "gher", "1103": "spec", "1104": "c\u2019 o", "1105": "pien", "1106": "smar", "1107": "pe i", "1108": "cric", "1109": "ze e", "1110": "brie", "1111": "scel", "1112": "fron", "1113": "ne a", "1114": "ge a", "1115": "ti a", "1116": "spir", "1117": "trap", "1118": "c\u2019 \u00ef", "1119": "smon", "1120": "s\u2019 a", "1121": "ra i", "1122": "tier", "1123": "clis", "1124": "pe e", "1125": "treb", "1126": "stru", "1127": "c\u2019 e", "1128": "spic", "1129": "ra a", "1130": "bi a", "1131": "trop", "1132": "l\u2019 i", "1133": "le u", "1134": "m\u2019 a", "1135": "sman", "1136": "d\u2019 u", "1137": "za o", "1138": "ro o", "1139": "clau", "1140": "l\u00ec e", "1141": "ze o", "1142": "gran", "1143": "graf", "1144": "ma e", "1145": "quis", "1146": "pruo", "1147": "re a", "1148": "grep", "1149": "dian", "1150": "puol", "1151": "l\u2019 a", "1152": "gias", "1153": "clug", "1154": "ca o", "1155": "ghet", "1156": "scim", "1157": "s\u00ec i", "1158": "zi o", "1159": "stig", "1160": "tras", "1161": "cruc", "1162": "spit", "1163": "biac", "1164": "be o", "1165": "ta a", "1166": "quar", "1167": "mian", "1168": "sban", "1169": "fian", "1170": "pren", "1171": "grom", "1172": "mo o", "1173": "ra o", "1174": "spun", "1175": "trot", "1176": "giun", "1177": "ce o", "1178": "dien", "1179": "lo a", "1180": "sgan", "1181": "sa e", "1182": "scer", "1183": "te o", "1184": "na e", "1185": "guar", "1186": "stia", "1187": "spaz", "1188": "plau", "1189": "de e", "1190": "ni a", "1191": "gial", "1192": "sgor", "1193": "\u00e8 im", "1194": "crea", "1195": "chie", "1196": "scie", "1197": "to u", "1198": "re u", "1199": "a in", "1200": "vien", "1201": "biet", "1202": "piag", "1203": "e \u2019n", "1204": "piat", "1205": "li a", "1206": "se i", "1207": "broc", "1208": "ta e", "1209": "flit", "1210": "driz", "1211": "co a", "1212": "frat", "1213": "t\u2019 e", "1214": "s\u00ec a", "1215": "v\u2019 a", "1216": "vuol", "1217": "piom", "1218": "r\u2019 o", "1219": "spor", "1220": "l\u2019 o", "1221": "d\u2019 \u00ef", "1222": "stie", "1223": "chez", "1224": "bias", "1225": "giug", "1226": "s\u2019 \u00ef", "1227": "sber", "1228": "stas", "1229": "zi u", "1230": "l\u2019 \u00f2", "1231": "a am", "1232": "smoz", "1233": "dran", "1234": "li o", "1235": "me i", "1236": "co u", "1237": "troc", "1238": "sden", "1239": "stuo", "1240": "l\u2019 e", "1241": "cien", "1242": "fred", "1243": "smor", "1244": "di u", "1245": "la o", "1246": "da a", "1247": "scov", "1248": "blan", "1249": "da o", "1250": "giam", "1251": "e in", "1252": "prie", "1253": "chil", "1254": "gros", "1255": "ci o", "1256": "buon", "1257": "drit", "1258": "stor", "1259": "re o", "1260": "gron", "1261": "ti i", "1262": "li u", "1263": "trai", "1264": "ne e", "1265": "guit", "1266": "glau", "1267": "d\u2019 e", "1268": "t\u2019 a", "1269": "spie", "1270": "zo a", "1271": "glio", "1272": "scom", "1273": "gheg", "1274": "to i", "1275": "ta o", "1276": "be e", "1277": "quel", "1278": "brol", "1279": "tran", "1280": "na o", "1281": "s\u2019 e", "1282": "flet", "1283": "le e", "1284": "re e", "1285": "guen", "1286": "s\u2019 u", "1287": "piac", "1288": "g\u2019 \u00ef", "1289": "cioc", "1290": "fioc", "1291": "ge o", "1292": "te i", "1293": "ni o", "1294": "ra e", "1295": "stul", "1296": "pa e", "1297": "pris", "1298": "ga e", "1299": "cher", "1300": "scam", "1301": "glia", "1302": "pron", "1303": "z\u2019 i", "1304": "sdet", "1305": "scoc", "1306": "stil", "1307": "sten", "1308": "scic", "1309": "z\u2019 a", "1310": "no o", "1311": "ti u", "1312": "gram", "1313": "ro a", "1314": "zian", "1315": "quat", "1316": "de i", "1317": "n\u2019 o", "1318": "re i", "1319": "spro", "1320": "stiz", "1321": "vi e", "1322": "ie a", "1323": "gres", "1324": "grie", "1325": "guef", "1326": "ta i", "1327": "sciu", "1328": "trac", "1329": "drap", "1330": "ciac", "1331": "stri", "1332": "dram", "1333": "spel", "1334": "scol", "1335": "le o", "1336": "gner", "1337": "le a", "1338": "da u", "1339": "sbri", "1340": "go a", "1341": "ro u", "1342": "ca a", "1343": "bo e", "1344": "to o", "1345": "s\u2019 i", "1346": "so o", "1347": "sbra", "1348": "va a", "1349": "pran", "1350": "me o", "1351": "ne o", "1352": "a al", "1353": "ghel", "1354": "quen", "1355": "di a", "1356": "dies", "1357": "gnor", "1358": "cheg", "1359": "si i", "1360": "spen", "1361": "lo o", "1362": "brul", "1363": "grot", "1364": "fior", "1365": "scaz", "1366": "guel", "1367": "pier", "1368": "go e", "1369": "trul", "1370": "stop", "1371": "si a", "1372": "grez", "1373": "gi e", "1374": "m\u2019 i", "1375": "do a", "1376": "sfat", "1377": "giuo", "1378": "v\u2019 e", "1379": "tren", "1380": "\u2018glo", "1381": "no a", "1382": "scon", "1383": "scev", "1384": "scri", "1385": "sfan", "1386": "slac", "1387": "so i", "1388": "p\u2019 e", "1389": "gi u", "1390": "frut", "1391": "pi a", "1392": "la i", "1393": "de a", "1394": "bo i", "1395": "scem", "1396": "so a", "1397": "ca u", "1398": "ster", "1399": "ci e", "1400": "ples", "1401": "scet", "1402": "piez", "1403": "pros", "1404": "no i", "1405": "gnan", "1406": "mi o", "1407": "za i", "1408": "de u", "1409": "ni e", "1410": "gnel", "1411": "stio", "1412": "ciel", "1413": "guiz", "1414": "ta u", "1415": "lo e", "1416": "po u", "1417": "la u", "1418": "si u", "1419": "ti o", "1420": "da e", "1421": "brot", "1422": "sfor", "1423": "stel", "1424": "guan", "1425": "brut", "1426": "sven", "1427": "ro i", "1428": "glet", "1429": "pian", "1430": "zo e", "1431": "chis", "1432": "\u2019vun", "1433": "stam", "1434": "stro", "1435": "e ar", "1436": "sfac", "1437": "spet", "1438": "li e", "1439": "ciar", "1440": "ciot", "1441": "la a", "1442": "l\u00ec a", "1443": "si e", "1444": "bo a", "1445": "creb", "1446": "bran", "1447": "bian", "1448": "v\u2019 o", "1449": "ziar", "1450": "sdru", "1451": "be i", "1452": "di o", "1453": "mo a", "1454": "scuf", "1455": "co o", "1456": "squi", "1457": "na i", "1458": "ga o", "1459": "ce e", "1460": "m\u2019 o", "1461": "sfam", "1462": "sfar", "1463": "ri e", "1464": "ghes", "1465": "span", "1466": "gras", "1467": "scab", "1468": "ti e", "1469": "truo", "1470": "giar", "1471": "fret", "1472": "ciuo", "1473": "z\u2019 o", "1474": "a ef", "1475": "n\u2019 u", "1476": "fiot", "1477": "so u", "1478": "spuo", "1479": "stav", "1480": "puos", "1481": "te u", "1482": "po a", "1483": "guag", "1484": "pric", "1485": "fiam", "1486": "scop", "1487": "chiu", "1488": "bron", "1489": "stuc", "1490": "ghir", "1491": "me u", "1492": "scis", "1493": "mo i", "1494": "ma o", "1495": "o av", "1496": "trie", "1497": "ce u", "1498": "egyp", "1499": "scen", "1500": "cias", "1501": "star", "1502": "guir", "1503": "po e", "1504": "crol", "1505": "sgra", "1506": "mo e", "1507": "ma u", "1508": "cian", "1509": "si o", "1510": "giot", "1511": "quan", "1512": "li \u2019", "1513": "va i", "1514": "schi", "1515": "sa u", "1516": "r\u00ec u", "1517": "sver", "1518": "scin", "1519": "bion", "1520": "sdeg", "1521": "ro e", "1522": "ni u", "1523": "zi e", "1524": "grem", "1525": "smal", "1526": "dras", "1527": "scot", "1528": "liev", "1529": "scac", "1530": "l\u2019 u", "1531": "di e", "1532": "va o", "1533": "se u", "1534": "ce a", "1535": "scia", "1536": "ve i", "1537": "sa a", "1538": "stal", "1539": "brac", "1540": "ciap", "1541": "tram", "1542": "stan", "1543": "sfio", "1544": "guil", "1545": "do o", "1546": "trar", "1547": "guic", "1548": "ra u", "1549": "va e", "1550": "se o", "1551": "tret", "1552": "grat", "1553": "te e", "1554": "prez", "1555": "squa", "1556": "o ar", "1557": "d\u2019 a", "1558": "piog", "1559": "grop", "1560": "cras", "1561": "sgri", "1562": "ghia", "1563": "ghie", "1564": "piov", "1565": "spol", "1566": "gnuo", "1567": "be a", "1568": "gnem", "1569": "vi a", "1570": "vo o", "1571": "pa u", "1572": "za a", "1573": "prir", "1574": "tron", "1575": "stre", "1576": "spon", "1577": "stol", "1578": "gien", "1579": "sfin", "1580": "stin", "1581": "t\u2019 o", "1582": "n\u2019 am", "1583": "re av", "1584": "tri a", "1585": "t\u00e0 in", "1586": "go es", "1587": "za an", "1588": "n\u2019 eb", "1589": "bo al", "1590": "d\u2019 om", "1591": "do im", "1592": "be ar", "1593": "d\u2019 os", "1594": "de al", "1595": "te es", "1596": "to uc", "1597": "s\u2019 im", "1598": "do an", "1599": "pr\u2019 e", "1600": "ch\u2019 a", "1601": "re in", "1602": "co ap", "1603": "sa ap", "1604": "ge an", "1605": "lo eb", "1606": "to es", "1607": "li ab", "1608": "ro al", "1609": "mi al", "1610": "no ar", "1611": "l\u2019 of", "1612": "to an", "1613": "to or", "1614": "ma on", "1615": "le on", "1616": "ce au", "1617": "le or", "1618": "no \u2019n", "1619": "di az", "1620": "l\u2019 af", "1621": "lo \u2019m", "1622": "di ab", "1623": "l\u2019 er", "1624": "di im", "1625": "la av", "1626": "me an", "1627": "te om", "1628": "vo al", "1629": "sa in", "1630": "schiu", "1631": "ti in", "1632": "s\u2019 en", "1633": "\u2019v\u2019 u", "1634": "ra et", "1635": "no ag", "1636": "ro es", "1637": "t\u2019 el", "1638": "ti al", "1639": "gne a", "1640": "d\u2019 al", "1641": "na ap", "1642": "lo al", "1643": "lo in", "1644": "te or", "1645": "li an", "1646": "v\u2019 of", "1647": "do as", "1648": "no ad", "1649": "na at", "1650": "l\u2019 es", "1651": "zia o", "1652": "to av", "1653": "so on", "1654": "vi on", "1655": "ro ac", "1656": "te ar", "1657": "m\u2019 of", "1658": "ne ap", "1659": "se on", "1660": "ro oc", "1661": "d\u2019 on", "1662": "le al", "1663": "te is", "1664": "re ab", "1665": "sa og", "1666": "sto a", "1667": "de eu", "1668": "l\u2019 uo", "1669": "di av", "1670": "d\u2019 oc", "1671": "lo an", "1672": "l\u2019 ot", "1673": "va at", "1674": "hi om", "1675": "li uc", "1676": "dea u", "1677": "n\u2019 av", "1678": "d\u2019 im", "1679": "ti ad", "1680": "do at", "1681": "ma of", "1682": "ve es", "1683": "ne on", "1684": "ne an", "1685": "ma in", "1686": "s\u2019 el", "1687": "li es", "1688": "to eb", "1689": "ia al", "1690": "s\u2019 op", "1691": "m\u2019 ac", "1692": "la or", "1693": "me of", "1694": "de af", "1695": "l\u2019 uc", "1696": "ce as", "1697": "scioc", "1698": "so ar", "1699": "m\u2019 an", "1700": "no im", "1701": "na or", "1702": "ve an", "1703": "ce et", "1704": "\u2019ve o", "1705": "ra am", "1706": "glian", "1707": "ti av", "1708": "squil", "1709": "ci \u2019n", "1710": "re ag", "1711": "li ag", "1712": "la al", "1713": "li eb", "1714": "f\u00e9 in", "1715": "ve oc", "1716": "no or", "1717": "se in", "1718": "t\u2019 ab", "1719": "te of", "1720": "na av", "1721": "v\u2019 ap", "1722": "l\u2019 ai", "1723": "ce af", "1724": "ta ac", "1725": "so et", "1726": "de ac", "1727": "ra al", "1728": "sgrie", "1729": "ta al", "1730": "gi ar", "1731": "zi \u2019m", "1732": "lo on", "1733": "\u2019v\u2019 e", "1734": "so an", "1735": "s\u2019 an", "1736": "co al", "1737": "l\u2019 el", "1738": "m\u2019 eb", "1739": "ha \u2019n", "1740": "re ot", "1741": "zi ap", "1742": "ti im", "1743": "gliet", "1744": "m\u2019 ap", "1745": "strel", "1746": "ro or", "1747": "ro of", "1748": "gia o", "1749": "che e", "1750": "l\u2019 at", "1751": "si ol", "1752": "st\u2019 o", "1753": "n\u2019 an", "1754": "so eb", "1755": "zie o", "1756": "so as", "1757": "ta et", "1758": "l\u2019 av", "1759": "l\u2019 ab", "1760": "ti as", "1761": "schio", "1762": "ch\u2019 e", "1763": "te on", "1764": "so al", "1765": "re af", "1766": "vi ac", "1767": "ni an", "1768": "se ac", "1769": "ze or", "1770": "no as", "1771": "ve at", "1772": "si \u2019m", "1773": "va im", "1774": "s\u2019 os", "1775": "l\u2019 ap", "1776": "scris", "1777": "d\u2019 ap", "1778": "te en", "1779": "li om", "1780": "lo es", "1781": "so of", "1782": "se un", "1783": "sti o", "1784": "schia", "1785": "ve ar", "1786": "de as", "1787": "ve al", "1788": "to at", "1789": "sco u", "1790": "ne em", "1791": "le am", "1792": "to ab", "1793": "ta am", "1794": "lo ef", "1795": "si or", "1796": "ze et", "1797": "b\u2019 es", "1798": "s\u2019 eb", "1799": "to al", "1800": "m\u2019 af", "1801": "v\u2019 er", "1802": "v\u2019 ac", "1803": "ti at", "1804": "lo as", "1805": "so ab", "1806": "mi an", "1807": "ma \u2019n", "1808": "pre a", "1809": "sta u", "1810": "no ac", "1811": "scher", "1812": "ro ar", "1813": "v\u2019 el", "1814": "sfran", "1815": "do oc", "1816": "da in", "1817": "ga an", "1818": "ci am", "1819": "le of", "1820": "ro as", "1821": "n\u2019 ol", "1822": "ra at", "1823": "ro av", "1824": "d\u2019 es", "1825": "tra e", "1826": "ce im", "1827": "t\u2019 an", "1828": "no an", "1829": "ne \u2019m", "1830": "gno a", "1831": "spiac", "1832": "me al", "1833": "d\u2019 ab", "1834": "scheg", "1835": "ci or", "1836": "di an", "1837": "mi ac", "1838": "que u", "1839": "za \u2019n", "1840": "zi al", "1841": "tro i", "1842": "dio i", "1843": "pi or", "1844": "ti ar", "1845": "ra uc", "1846": "sciau", "1847": "scrip", "1848": "v\u2019 in", "1849": "s\u00ec in", "1850": "ta ar", "1851": "na es", "1852": "zio a", "1853": "do es", "1854": "so ad", "1855": "li at", "1856": "to im", "1857": "scias", "1858": "co av", "1859": "l\u2019 oc", "1860": "to in", "1861": "n\u2019 ac", "1862": "de am", "1863": "t\u2019 im", "1864": "te at", "1865": "d\u2019 ol", "1866": "da an", "1867": "do ap", "1868": "si \u2019n", "1869": "vo at", "1870": "d\u2019 in", "1871": "l\u00ec en", "1872": "ca an", "1873": "scial", "1874": "no am", "1875": "te in", "1876": "t\u2019 ap", "1877": "mo al", "1878": "li ul", "1879": "cia a", "1880": "me in", "1881": "fo et", "1882": "strat", "1883": "di al", "1884": "la en", "1885": "pra a", "1886": "za on", "1887": "co on", "1888": "za in", "1889": "to ar", "1890": "d\u2019 af", "1891": "stram", "1892": "ca on", "1893": "schet", "1894": "se as", "1895": "lo im", "1896": "sciar", "1897": "d\u2019 am", "1898": "ge et", "1899": "mo ar", "1900": "li as", "1901": "m\u2019 ab", "1902": "vo an", "1903": "ro in", "1904": "do in", "1905": "le as", "1906": "to ac", "1907": "te as", "1908": "ma an", "1909": "va id", "1910": "le ar", "1911": "vi am", "1912": "de ap", "1913": "s\u2019 av", "1914": "ra of", "1915": "spraz", "1916": "to ol", "1917": "ra es", "1918": "te ab", "1919": "squar", "1920": "ne in", "1921": "gi an", "1922": "no om", "1923": "ti oc", "1924": "ma al", "1925": "strac", "1926": "ghien", "1927": "mo ol", "1928": "ri on", "1929": "mo im", "1930": "smo a", "1931": "re ap", "1932": "ni ap", "1933": "sa on", "1934": "d\u2019 as", "1935": "ni as", "1936": "strut", "1937": "tra u", "1938": "ge in", "1939": "gna a", "1940": "m\u2019 ol", "1941": "to of", "1942": "l\u2019 ol", "1943": "r\u2019 al", "1944": "v\u2019 an", "1945": "sciut", "1946": "bre a", "1947": "bra a", "1948": "d\u2019 er", "1949": "de an", "1950": "go in", "1951": "la el", "1952": "to ov", "1953": "ra el", "1954": "ti am", "1955": "ra an", "1956": "co ar", "1957": "l\u2019 ar", "1958": "sta a", "1959": "cia e", "1960": "stran", "1961": "za am", "1962": "na af", "1963": "re em", "1964": "pi\u00f9 a", "1965": "lo il", "1966": "ta eu", "1967": "le av", "1968": "fu in", "1969": "co an", "1970": "po ar", "1971": "co at", "1972": "z\u2019 ar", "1973": "fu ap", "1974": "sa im", "1975": "s\u2019 ac", "1976": "vi an", "1977": "ta un", "1978": "chi a", "1979": "si ac", "1980": "ne as", "1981": "zi at", "1982": "de ar", "1983": "do af", "1984": "bra e", "1985": "t\u2019 es", "1986": "ne \u2019n", "1987": "pi ap", "1988": "ghian", "1989": "me on", "1990": "tro u", "1991": "na in", "1992": "d\u2019 ar", "1993": "do er", "1994": "to ef", "1995": "li au", "1996": "ca er", "1997": "stroz", "1998": "se at", "1999": "mo af", "2000": "ne ac", "2001": "d\u2019 og", "2002": "si an", "2003": "v\u2019 am", "2004": "bo av", "2005": "za al", "2006": "de au", "2007": "si of", "2008": "ci as", "2009": "li av", "2010": "di on", "2011": "na on", "2012": "vi as", "2013": "no af", "2014": "mi ef", "2015": "go al", "2016": "re ar", "2017": "ne es", "2018": "mo or", "2019": "zo in", "2020": "ne et", "2021": "ba in", "2022": "to oc", "2023": "si el", "2024": "tro o", "2025": "s\u2019 ab", "2026": "ba un", "2027": "ga as", "2028": "m\u2019 im", "2029": "chiet", "2030": "cia o", "2031": "bra u", "2032": "stras", "2033": "m\u2019 ad", "2034": "si im", "2035": "si in", "2036": "do am", "2037": "d\u2019 au", "2038": "mi \u2019n", "2039": "si ad", "2040": "li \u2019m", "2041": "s\u2019 in", "2042": "za im", "2043": "chiar", "2044": "le id", "2045": "ge un", "2046": "re om", "2047": "ch\u2019 i", "2048": "fa az", "2049": "la in", "2050": "li er", "2051": "re il", "2052": "l\u2019 os", "2053": "lo \u2019n", "2054": "ce at", "2055": "m\u2019 ag", "2056": "no es", "2057": "ti en", "2058": "no ab", "2059": "sgher", "2060": "zio e", "2061": "lo at", "2062": "ne ag", "2063": "rio a", "2064": "si ar", "2065": "po av", "2066": "le es", "2067": "ta im", "2068": "ste a", "2069": "s\u2019 at", "2070": "zia e", "2071": "na of", "2072": "ne af", "2073": "cio a", "2074": "no ap", "2075": "ne ar", "2076": "va ar", "2077": "s\u2019 er", "2078": "sciam", "2079": "stric", "2080": "de on", "2081": "l\u2019 in", "2082": "zo as", "2083": "no av", "2084": "mi ap", "2085": "ra eb", "2086": "l\u2019 or", "2087": "ce an", "2088": "le oc", "2089": "re on", "2090": "cea u", "2091": "l\u2019 em", "2092": "strar", "2093": "na eb", "2094": "r\u2019 el", "2095": "z\u2019 es", "2096": "che u", "2097": "m\u2019 ar", "2098": "n\u2019 er", "2099": "ca in", "2100": "so en", "2101": "ca en", "2102": "v\u2019 et", "2103": "to ag", "2104": "be al", "2105": "li am", "2106": "li af", "2107": "de er", "2108": "fe et", "2109": "te af", "2110": "te an", "2111": "na ar", "2112": "ze es", "2113": "ta as", "2114": "cio e", "2115": "gia e", "2116": "l\u2019 im", "2117": "ti an", "2118": "t\u2019 om", "2119": "ve ap", "2120": "li ar", "2121": "so am", "2122": "ri an", "2123": "la on", "2124": "m\u2019 av", "2125": "d\u2019 ot", "2126": "la an", "2127": "va eb", "2128": "n\u2019 ab", "2129": "lo er", "2130": "sa es", "2131": "si en", "2132": "ra im", "2133": "ci ad", "2134": "bre o", "2135": "ni on", "2136": "di om", "2137": "d\u2019 or", "2138": "te ag", "2139": "de of", "2140": "ri ar", "2141": "l\u2019 eb", "2142": "scrit", "2143": "do ac", "2144": "sce a", "2145": "vo as", "2146": "tra a", "2147": "za er", "2148": "pa in", "2149": "gliar", "2150": "ta om", "2151": "no ec", "2152": "s\u2019 et", "2153": "te ol", "2154": "ti ac", "2155": "se \u2019n", "2156": "chiap", "2157": "ta ad", "2158": "gne u", "2159": "cro a", "2160": "glies", "2161": "mo in", "2162": "so in", "2163": "do ar", "2164": "co eb", "2165": "sta o", "2166": "st\u2019 a", "2167": "l\u2019 ul", "2168": "fo im", "2169": "sto e", "2170": "re oc", "2171": "l\u2019 ad", "2172": "ro am", "2173": "sciom", "2174": "li ad", "2175": "si al", "2176": "l\u2019 un", "2177": "t\u2019 am", "2178": "ce eu", "2179": "sta e", "2180": "co et", "2181": "to et", "2182": "gliam", "2183": "la of", "2184": "t\u2019 ag", "2185": "zo an", "2186": "te er", "2187": "ri ap", "2188": "se ap", "2189": "vi ar", "2190": "po on", "2191": "tra i", "2192": "li oc", "2193": "s\u2019 ad", "2194": "po an", "2195": "do el", "2196": "l\u2019 ag", "2197": "pie e", "2198": "n\u2019 al", "2199": "se op", "2200": "ni en", "2201": "n\u2019 uo", "2202": "ce al", "2203": "ro on", "2204": "ga in", "2205": "li ac", "2206": "d\u2019 of", "2207": "m\u2019 at", "2208": "ta on", "2209": "li in", "2210": "ce av", "2211": "sti a", "2212": "n\u2019 ag", "2213": "no al", "2214": "me ar", "2215": "s\u2019 al", "2216": "vi in", "2217": "re at", "2218": "de or", "2219": "vo ac", "2220": "n\u2019 in", "2221": "n\u2019 om", "2222": "v\u2019 eb", "2223": "ci ap", "2224": "re au", "2225": "te al", "2226": "ma ac", "2227": "sci\u00e0n", "2228": "gne o", "2229": "gli u", "2230": "ma or", "2231": "c\u2019 en", "2232": "re es", "2233": "le \u2019n", "2234": "te em", "2235": "ro au", "2236": "ta in", "2237": "ci an", "2238": "de ag", "2239": "so \u2019n", "2240": "za et", "2241": "stroc", "2242": "gno u", "2243": "li et", "2244": "ce in", "2245": "va an", "2246": "le ol", "2247": "tr\u2019 a", "2248": "ra ot", "2249": "s\u2019 of", "2250": "gliuo", "2251": "to af", "2252": "so es", "2253": "la es", "2254": "s\u2019 af", "2255": "re an", "2256": "spran", "2257": "se an", "2258": "streg", "2259": "s\u2019 ar", "2260": "po in", "2261": "t\u2019 or", "2262": "ma es", "2263": "l\u2019 as", "2264": "t\u2019 in", "2265": "ta el", "2266": "stren", "2267": "ne av", "2268": "scian", "2269": "gliel", "2270": "li on", "2271": "ta an", "2272": "be av", "2273": "l\u2019 et", "2274": "mi er", "2275": "chi e", "2276": "che a", "2277": "mo ac", "2278": "d\u2019 el", "2279": "me ap", "2280": "d\u2019 an", "2281": "do on", "2282": "sbe a", "2283": "ro eb", "2284": "si am", "2285": "na ac", "2286": "na \u2019n", "2287": "ni al", "2288": "ne al", "2289": "re ol", "2290": "ste i", "2291": "n\u2019 on", "2292": "co in", "2293": "d\u2019 at", "2294": "t\u2019 af", "2295": "lo ar", "2296": "re et", "2297": "n\u2019 ap", "2298": "mo at", "2299": "ne im", "2300": "ro ab", "2301": "ni in", "2302": "me af", "2303": "t\u2019 ac", "2304": "l\u2019 ae", "2305": "di ac", "2306": "di in", "2307": "d\u2019 eb", "2308": "ghiac", "2309": "vi av", "2310": "t\u2019 at", "2311": "l\u2019 ov", "2312": "te ad", "2313": "me au", "2314": "ra ac", "2315": "lia a", "2316": "se es", "2317": "ro um", "2318": "la au", "2319": "ta at", "2320": "ra ab", "2321": "t\u2019 em", "2322": "stret", "2323": "me am", "2324": "re am", "2325": "suo a", "2326": "m\u2019 al", "2327": "di og", "2328": "do or", "2329": "ni es", "2330": "zi as", "2331": "so ap", "2332": "chias", "2333": "to as", "2334": "re al", "2335": "me as", "2336": "ghiot", "2337": "vo au", "2338": "tro a", "2339": "bi al", "2340": "le at", "2341": "si as", "2342": "d\u2019 eu", "2343": "ri al", "2344": "ri in", "2345": "s\u2019 ap", "2346": "l\u2019 al", "2347": "spres", "2348": "la \u2019n", "2349": "l\u2019 ec", "2350": "ra ec", "2351": "ro im", "2352": "s\u2019 ag", "2353": "me ac", "2354": "l\u2019 op", "2355": "se al", "2356": "si av", "2357": "ma ap", "2358": "co ad", "2359": "schic", "2360": "s\u00ec \u2019m", "2361": "ti et", "2362": "di of", "2363": "no er", "2364": "le ap", "2365": "va al", "2366": "chian", "2367": "be as", "2368": "d\u2019 en", "2369": "ta es", "2370": "de om", "2371": "mo es", "2372": "ch\u2019 o", "2373": "bo on", "2374": "v\u2019 es", "2375": "ci al", "2376": "ro an", "2377": "t\u2019 al", "2378": "ne ov", "2379": "va in", "2380": "tr\u2019 e", "2381": "m\u2019 es", "2382": "mo eb", "2383": "ro ap", "2384": "s\u00ec \u2019n", "2385": "ci av", "2386": "n\u2019 at", "2387": "ci in", "2388": "z\u2019 al", "2389": "splen", "2390": "sto o", "2391": "ch\u2019 \u00ef", "2392": "sa ol", "2393": "ni av", "2394": "que o", "2395": "po al", "2396": "te ap", "2397": "v\u2019 ab", "2398": "sco o", "2399": "ce es", "2400": "s\u2019 am", "2401": "ti of", "2402": "d\u2019 ur", "2403": "gni e", "2404": "di or", "2405": "tu ha", "2406": "vi of", "2407": "sta i", "2408": "le ad", "2409": "r\u2019 es", "2410": "ra in", "2411": "pre e", "2412": "l\u2019 ac", "2413": "be on", "2414": "glien", "2415": "m\u2019 in", "2416": "schem", "2417": "v\u2019 al", "2418": "ro at", "2419": "ti or", "2420": "na ab", "2421": "l\u2019 om", "2422": "d\u2019 ac", "2423": "de in", "2424": "do ol", "2425": "no in", "2426": "pa es", "2427": "n\u2019 au", "2428": "ta of", "2429": "r\u2019 an", "2430": "scran", "2431": "te \u2019n", "2432": "zi ag", "2433": "ce ac", "2434": "ni am", "2435": "vi \u2019m", "2436": "l\u2019 am", "2437": "to ec", "2438": "no au", "2439": "mo ec", "2440": "me ef", "2441": "chioc", "2442": "qu\u2019 e", "2443": "ia an", "2444": "si og", "2445": "re ac", "2446": "tri o", "2447": "no et", "2448": "se af", "2449": "le \u2019m", "2450": "st\u2019 u", "2451": "ch\u2019 u", "2452": "sa ac", "2453": "mi in", "2454": "vi al", "2455": "sgiun", "2456": "mo an", "2457": "do ec", "2458": "ra ad", "2459": "t\u2019 ar", "2460": "lo af", "2461": "di es", "2462": "si at", "2463": "re im", "2464": "li un", "2465": "c\u2019 im", "2466": "to ad", "2467": "di af", "2468": "t\u2019 as", "2469": "sciol", "2470": "t\u2019 av", "2471": "sguar", "2472": "fu im", "2473": "mi ad", "2474": "chi u", "2475": "di ad", "2476": "la ap", "2477": "la \u2019m", "2478": "pi in", "2479": "d\u2019 et", "2480": "le an", "2481": "l\u2019 um", "2482": "do al", "2483": "l\u2019 an", "2484": "di ol", "2485": "va \u2019n", "2486": "ti \u2019n", "2487": "li uo", "2488": "le uc", "2489": "lo of", "2490": "ti \u2019m", "2491": "qua e", "2492": "zio u", "2493": "mi am", "2494": "te os", "2495": "chi o", "2496": "l\u2019 ef", "2497": "de \u2019n", "2498": "to ap", "2499": "co ac", "2500": "ra av", "2501": "co er", "2502": "qu\u2019 o", "2503": "re eb", "2504": "fu el", "2505": "no at", "2506": "li \u2019n", "2507": "si er", "2508": "ta ab", "2509": "strug", "2510": "te ac", "2511": "li em", "2512": "strom", "2513": "ci af", "2514": "strin", "2515": "mo on", "2516": "zo ar", "2517": "li of", "2518": "l\u2019 \u00e0n", "2519": "sa an", "2520": "ci ar", "2521": "d\u2019 az", "2522": "le in", "2523": "lo av", "2524": "me at", "2525": "la ol", "2526": "do eb", "2527": "ri ac", "2528": "ra as", "2529": "se ec", "2530": "li im", "2531": "re ad", "2532": "li ap", "2533": "te im", "2534": "ce ar", "2535": "re as", "2536": "ci at", "2537": "mo of", "2538": "ra ap", "2539": "tro e", "2540": "vi en", "2541": "ce on", "2542": "dre e", "2543": "so at", "2544": "v\u2019 ar", "2545": "m\u2019 as", "2546": "s\u2019 es", "2547": "to on", "2548": "lo ac", "2549": "m\u2019 om", "2550": "li or", "2551": "li al", "2552": "ta op", "2553": "s\u2019 as", "2554": "tri e", "2555": "re en", "2556": "l\u2019 au", "2557": "l\u2019 en", "2558": "l\u2019 on", "2559": "s\u2019 em", "2560": "n\u2019 ar", "2561": "ra on", "2562": "te au", "2563": "schie", "2564": "vio in", "2565": "bre an", "2566": "zia on", "2567": "sio in", "2568": "sta an", "2569": "ch\u2019 ar", "2570": "st\u2019 in", "2571": "li han", "2572": "te han", "2573": "sti in", "2574": "chi af", "2575": "gue on", "2576": "gne ef", "2577": "vea \u2019m", "2578": "sta im", "2579": "dia as", "2580": "tra av", "2581": "stro e", "2582": "tri ap", "2583": "c\u2019 han", "2584": "dre eb", "2585": "l\u2019 \u00e8 u", "2586": "tro ac", "2587": "gne ac", "2588": "st\u2019 ot", "2589": "sti al", "2590": "bia in", "2591": "st\u2019 ar", "2592": "tro et", "2593": "mio \u2019n", "2594": "lio in", "2595": "rio an", "2596": "gna as", "2597": "glia o", "2598": "glio e", "2599": "sti un", "2600": "sce el", "2601": "cio as", "2602": "bia an", "2603": "stra u", "2604": "pie or", "2605": "cia ar", "2606": "lio as", "2607": "gna in", "2608": "gio ol", "2609": "gi\u00e0 in", "2610": "tri af", "2611": "tro im", "2612": "tra op", "2613": "pi\u00f9 ap", "2614": "dre al", "2615": "str\u2019 u", "2616": "ch\u2019 or", "2617": "chi on", "2618": "sti oc", "2619": "tr\u2019 ar", "2620": "ch\u2019 as", "2621": "tro \u2019m", "2622": "st\u2019 ul", "2623": "sce as", "2624": "sta og", "2625": "ne han", "2626": "tro ar", "2627": "ti han", "2628": "stra i", "2629": "tra \u2019m", "2630": "n\u2019 han", "2631": "ch\u2019 al", "2632": "stro u", "2633": "gno ae", "2634": "tr\u2019 al", "2635": "bri ap", "2636": "cie in", "2637": "tr\u2019 om", "2638": "sta al", "2639": "gne im", "2640": "tre in", "2641": "stri a", "2642": "gia al", "2643": "gno al", "2644": "go han", "2645": "schiat", "2646": "sto ac", "2647": "chi ar", "2648": "tro on", "2649": "che in", "2650": "schian", "2651": "ch\u2019 ag", "2652": "ch\u2019 er", "2653": "ch\u2019 at", "2654": "stro o", "2655": "pre ac", "2656": "gni al", "2657": "bre in", "2658": "ch\u2019 an", "2659": "tro ab", "2660": "chi ap", "2661": "ch\u2019 ap", "2662": "cio ap", "2663": "sma in", "2664": "che om", "2665": "sto ap", "2666": "ch\u2019 el", "2667": "gno af", "2668": "sto al", "2669": "ria in", "2670": "ch\u2019 eb", "2671": "pi\u00f9 in", "2672": "vi \u00e8 a", "2673": "ch\u2019 es", "2674": "gio et", "2675": "lio an", "2676": "che ar", "2677": "chi am", "2678": "gne al", "2679": "ch\u2019 av", "2680": "qua on", "2681": "suo im", "2682": "chi al", "2683": "qu\u2019 an", "2684": "gia ar", "2685": "sto at", "2686": "pi\u00f9 \u2019n", "2687": "pio on", "2688": "tro ap", "2689": "ri han", "2690": "mia \u2019n", "2691": "gno am", "2692": "st\u2019 es", "2693": "bre et", "2694": "cio et", "2695": "m\u2019 han", "2696": "gne uo", "2697": "cio al", "2698": "sto im", "2699": "che an", "2700": "co e i", "2701": "ch\u2019 et", "2702": "sto an", "2703": "ch\u00e9 as", "2704": "st\u2019 ac", "2705": "mio in", "2706": "re e a", "2707": "chi an", "2708": "sti on", "2709": "ste in", "2710": "dre as", "2711": "que al", "2712": "cia im", "2713": "tre an", "2714": "qua of", "2715": "ch\u2019 ad", "2716": "tr\u2019 am", "2717": "sti es", "2718": "dre an", "2719": "ste an", "2720": "schiet", "2721": "gio uc", "2722": "tri es", "2723": "pre at", "2724": "che ha", "2725": "qua in", "2726": "t\u2019 han", "2727": "ghe on", "2728": "d\u2019 han", "2729": "gh\u2019 es", "2730": "cia on", "2731": "sti av", "2732": "l\u2019 han", "2733": "ria on", "2734": "sta ol", "2735": "zie ec", "2736": "tri as", "2737": "st\u2019 an", "2738": "glia a", "2739": "glio u", "2740": "ch\u00e9 ap", "2741": "pre in", "2742": "nio im", "2743": "sto of", "2744": "st\u2019 al", "2745": "gio in", "2746": "glio o", "2747": "sco an", "2748": "scia e", "2749": "sta ai", "2750": "sti er", "2751": "sto in", "2752": "tro of", "2753": "tro av", "2754": "stra e", "2755": "tri of", "2756": "che \u2019n", "2757": "que es", "2758": "pre ar", "2759": "chio a", "2760": "cio an", "2761": "tro as", "2762": "sce an", "2763": "pre es", "2764": "gne in", "2765": "tro an", "2766": "gue an", "2767": "zia il", "2768": "bra in", "2769": "sto \u2019n", "2770": "ch\u2019 og", "2771": "stra a", "2772": "che \u2019m", "2773": "sto on", "2774": "sti el", "2775": "chio u", "2776": "gne er", "2777": "chio o", "2778": "sce al", "2779": "ch\u2019 ab", "2780": "gni an", "2781": "sti an", "2782": "bra av", "2783": "scio e", "2784": "che op", "2785": "pre al", "2786": "ch\u2019 en", "2787": "tro al", "2788": "st\u2019 of", "2789": "zia or", "2790": "sto ar", "2791": "qua im", "2792": "stri o", "2793": "gue or", "2794": "ch\u2019 ac", "2795": "dre es", "2796": "chi ac", "2797": "tra an", "2798": "tro in", "2799": "sco al", "2800": "mia in", "2801": "gno in", "2802": "sta in", "2803": "ch\u00e9 in", "2804": "ch\u2019 am", "2805": "lia an", "2806": "ria of", "2807": "stro a", "2808": "tre os", "2809": "gio on", "2810": "ch\u2019 in", "2811": "glia u", "2812": "chi in", "2813": "sto \u2019m", "2814": "gia in", "2815": "pr\u2019 ar", "2816": "tra ef", "2817": "sto es", "2818": "sti or", "2819": "tri in", "2820": "chia of", "2821": "glio in", "2822": "sche er", "2823": "stri ef", "2824": "stro av", "2825": "glie eb", "2826": "stro uc", "2827": "stro ac", "2828": "glia in", "2829": "glia ac", "2830": "glio an", "2831": "str\u2019 ar", "2832": "glio as", "2833": "sche ab", "2834": "stri al", "2835": "glio on", "2836": "stro an", "2837": "stro im", "2838": "chio at", "2839": "glia as", "2840": "stro as", "2841": "glie al", "2842": "stri av", "2843": "stra ap", "2844": "str\u2019 or", "2845": "za e in", "2846": "stro al", "2847": "glie an", "2848": "stro es", "2849": "ti e ar", "2850": "stri an", "2851": "glia al", "2852": "trio al", "2853": "dio han", "2854": "lo e \u2019n", "2855": "stro oc", "2856": "stro in", "2857": "stra in", "2858": "stri af", "2859": "stri at", "2860": "mi smar", "2861": "re a \u2019n", "2862": "stro eb", "2863": "n\u2019 \u00e8 im", "2864": "ti e \u2019n", "2865": "stra ef", "2866": "chie et", "2867": "glio es", "2868": "stre in", "2869": "glia es", "2870": "chio in", "2871": "si e \u2019n", "2872": "scia al", "2873": "li \u00e8 in", "2874": "scia an", "2875": "chio an", "2876": "chia an", "2877": "d\u2019 i\u2019 a", "2878": "t\u2019 ho in", "2879": "sti a \u2019n", "2880": "ch\u2019 e\u2019 \u2019n", "2881": "ch\u2019 io \u2019n", "2882": "p ", "2883": "\u00f9 ", "2884": "\u00ec ", "2885": "i ", "2886": "e ", "2887": "o ", "2888": "a ", "2889": "l ", "2890": "\u00e8 ", "2891": "\u00f2 ", "2892": "\u00ef ", "2893": "d ", "2894": "ti ", "2895": "po ", "2896": "\u00f2n ", "2897": "t\u00e0 ", "2898": "r\u00ec ", "2899": "s\u00f2 ", "2900": "in ", "2901": "oh ", "2902": "ia ", "2903": "sa ", "2904": "t\u00f2 ", "2905": "d\u00e9 ", "2906": "\u00e8l ", "2907": "i\u2019 ", "2908": "bi ", "2909": "to ", "2910": "ro ", "2911": "e\u2019 ", "2912": "ni ", "2913": "ri ", "2914": "n\u00ec ", "2915": "na ", "2916": "za ", "2917": "f\u00e0 ", "2918": "am ", "2919": "io ", "2920": "g\u00f2 ", "2921": "ge ", "2922": "fa ", "2923": "s\u00ec ", "2924": "l\u00ec ", "2925": "\u00e0s ", "2926": "no ", "2927": "b\u00e8 ", "2928": "go ", "2929": "m\u00f2 ", "2930": "te ", "2931": "el ", "2932": "be ", "2933": "mo ", "2934": "il ", "2935": "li ", "2936": "se ", "2937": "\u00e0m ", "2938": "ra ", "2939": "fo ", "2940": "si ", "2941": "m\u00e8 ", "2942": "ve ", "2943": "su ", "2944": "\u00f2s ", "2945": "d\u00e0 ", "2946": "va ", "2947": "os ", "2948": "tu ", "2949": "b\u00f9 ", "2950": "n\u00e9 ", "2951": "b\u00ec ", "2952": "ba ", "2953": "ho ", "2954": "n\u00e0 ", "2955": "re ", "2956": "r\u00e0 ", "2957": "me ", "2958": "vi ", "2959": "le ", "2960": "pe ", "2961": "ab ", "2962": "ne ", "2963": "ha ", "2964": "p\u00e8 ", "2965": "us ", "2966": "ir ", "2967": "v\u00ec ", "2968": "n\u00e8 ", "2969": "g\u00ec ", "2970": "f\u00e9 ", "2971": "ci ", "2972": "t\u00f9 ", "2973": "c\u00e9 ", "2974": "al ", "2975": "t\u00e9 ", "2976": "c\u00f2 ", "2977": "s\u00e8 ", "2978": "on ", "2979": "\u00f3n ", "2980": "ei ", "2981": "de ", "2982": "mi ", "2983": "s\u00f9 ", "2984": "zi ", "2985": "an ", "2986": "r\u00f2 ", "2987": "so ", "2988": "un ", "2989": "bo ", "2990": "as ", "2991": "do ", "2992": "fe ", "2993": "ai ", "2994": "ta ", "2995": "\u00e0r ", "2996": "lo ", "2997": "c\u00e8 ", "2998": "pi ", "2999": "fi ", "3000": "ad ", "3001": "ie ", "3002": "l\u00f2 ", "3003": "om ", "3004": "od ", "3005": "la ", "3006": "fu ", "3007": "or ", "3008": "\u00e8e ", "3009": "vo ", "3010": "ca ", "3011": "di ", "3012": "l\u00e0 ", "3013": "pa ", "3014": "ae ", "3015": "l\u00e8 ", "3016": "hi ", "3017": "\u00ecs ", "3018": "d\u00f2 ", "3019": "p\u00f2 ", "3020": "ar ", "3021": "zo ", "3022": "ma ", "3023": "da ", "3024": "n\u00f2 ", "3025": "v\u00f2 ", "3026": "ze ", "3027": "a\u2019 ", "3028": "et ", "3029": "ed ", "3030": "um ", "3031": "u\u2019 ", "3032": "\u00f9l ", "3033": "\u00e9n ", "3034": "co ", "3035": "ga ", "3036": "z\u00f2 ", "3037": "d\u00ec ", "3038": "b\u00f2 ", "3039": "ce ", "3040": "t\u00e8 ", "3041": "s\u00e9 ", "3042": "t\u00ec ", "3043": "gi ", "3044": "f\u00f2 ", "3045": "qua ", "3046": "gan ", "3047": "st\u00e0 ", "3048": "dee ", "3049": "smo ", "3050": "lia ", "3051": "rea ", "3052": "tal ", "3053": "nis ", "3054": "zan ", "3055": "bol ", "3056": "ger ", "3057": "mar ", "3058": "b\u00e0l ", "3059": "sma ", "3060": "mio ", "3061": "bri ", "3062": "cro ", "3063": "d\u00ect ", "3064": "dui ", "3065": "l\u00f2n ", "3066": "sub ", "3067": "gia ", "3068": "c\u00e0n ", "3069": "cui ", "3070": "dr\u00f2 ", "3071": "lor ", "3072": "r\u00ecb ", "3073": "coi ", "3074": "gol ", "3075": "via ", "3076": "dua ", "3077": "dir ", "3078": "r\u00ecs ", "3079": "van ", "3080": "sii ", "3081": "bis ", "3082": "s\u00f9e ", "3083": "dem ", "3084": "noi ", "3085": "s\u00ece ", "3086": "mea ", "3087": "con ", "3088": "mei ", "3089": "zar ", "3090": "beo ", "3091": "a e ", "3092": "cur ", "3093": "tro ", "3094": "mal ", "3095": "rao ", "3096": "te\u2019 ", "3097": "rem ", "3098": "g\u00f3n ", "3099": "rii ", "3100": "gi\u2019 ", "3101": "p\u00eca ", "3102": "deh ", "3103": "dan ", "3104": "gei ", "3105": "gi\u00f2 ", "3106": "del ", "3107": "cin ", "3108": "pio ", "3109": "tar ", "3110": "gua ", "3111": "bro ", "3112": "dr\u00e0 ", "3113": "zio ", "3114": "m\u00eca ", "3115": "cie ", "3116": "rel ", "3117": "mul ", "3118": "vii ", "3119": "pii ", "3120": "col ", "3121": "gi\u00e0 ", "3122": "cel ", "3123": "ga\u2019 ", "3124": "ria ", "3125": "ral ", "3126": "fal ", "3127": "nia ", "3128": "da\u2019 ", "3129": "t\u00f3n ", "3130": "pi\u00e8 ", "3131": "sai ", "3132": "num ", "3133": "far ", "3134": "pan ", "3135": "tir ", "3136": "bre ", "3137": "spe ", "3138": "sei ", "3139": "z\u00f2n ", "3140": "sco ", "3141": "men ", "3142": "tii ", "3143": "bui ", "3144": "dai ", "3145": "pia ", "3146": "fia ", "3147": "din ", "3148": "for ", "3149": "tes ", "3150": "cai ", "3151": "val ", "3152": "var ", "3153": "dor ", "3154": "\u2018te ", "3155": "fra ", "3156": "sor ", "3157": "l\u00e8m ", "3158": "lee ", "3159": "hai ", "3160": "sem ", "3161": "que ", "3162": "leo ", "3163": "a i ", "3164": "s\u00f3n ", "3165": "pra ", "3166": "sun ", "3167": "nal ", "3168": "cal ", "3169": "ian ", "3170": "ros ", "3171": "sio ", "3172": "gea ", "3173": "sel ", "3174": "lio ", "3175": "\u00f2th ", "3176": "sin ", "3177": "cia ", "3178": "tio ", "3179": "ran ", "3180": "seo ", "3181": "vel ", "3182": "ree ", "3183": "qui ", "3184": "che ", "3185": "lu\u2019 ", "3186": "ghi ", "3187": "peo ", "3188": "lui ", "3189": "per ", "3190": "gin ", "3191": "cul ", "3192": "rie ", "3193": "rer ", "3194": "de\u2019 ", "3195": "nai ", "3196": "til ", "3197": "ben ", "3198": "dur ", "3199": "sua ", "3200": "tus ", "3201": "dea ", "3202": "vas ", "3203": "ghe ", "3204": "min ", "3205": "nil ", "3206": "ron ", "3207": "di\u00e8 ", "3208": "can ", "3209": "f\u00e9e ", "3210": "gu\u00ec ", "3211": "cri ", "3212": "nei ", "3213": "pir ", "3214": "pro ", "3215": "st\u00e9 ", "3216": "sui ", "3217": "lon ", "3218": "lea ", "3219": "nan ", "3220": "fi\u2019 ", "3221": "cre ", "3222": "der ", "3223": "nin ", "3224": "tin ", "3225": "bor ", "3226": "e \u2019 ", "3227": "nha ", "3228": "g\u00f3r ", "3229": "est ", "3230": "rir ", "3231": "gre ", "3232": "dra ", "3233": "gai ", "3234": "gno ", "3235": "sc\u00ec ", "3236": "som ", "3237": "ti\u2019 ", "3238": "pal ", "3239": "dia ", "3240": "sar ", "3241": "fil ", "3242": "mai ", "3243": "t\u00f2r ", "3244": "vol ", "3245": "cem ", "3246": "st\u00ec ", "3247": "sit ", "3248": "ban ", "3249": "tan ", "3250": "gir ", "3251": "smi ", "3252": "unt ", "3253": "nor ", "3254": "vra ", "3255": "ril ", "3256": "r\u00f2l ", "3257": "za\u2019 ", "3258": "nar ", "3259": "lei ", "3260": "cra ", "3261": "fin ", "3262": "rio ", "3263": "sue ", "3264": "joi ", "3265": "ste ", "3266": "tri ", "3267": "l\u00eca ", "3268": "vie ", "3269": "ni\u2019 ", "3270": "lie ", "3271": "ces ", "3272": "mun ", "3273": "n\u00f2i ", "3274": "a a ", "3275": "fue ", "3276": "f\u00e0t ", "3277": "mor ", "3278": "lem ", "3279": "von ", "3280": "ten ", "3281": "zii ", "3282": "dro ", "3283": "por ", "3284": "cu\u2019 ", "3285": "sti ", "3286": "nir ", "3287": "sul ", "3288": "\u2019ve ", "3289": "st\u00f9 ", "3290": "tor ", "3291": "sie ", "3292": "rai ", "3293": "lin ", "3294": "fon ", "3295": "dei ", "3296": "bir ", "3297": "vam ", "3298": "ren ", "3299": "cle ", "3300": "fur ", "3301": "gon ", "3302": "gna ", "3303": "nea ", "3304": "tra ", "3305": "ion ", "3306": "t\u00e8s ", "3307": "vau ", "3308": "n\u00f2s ", "3309": "ra\u2019 ", "3310": "bei ", "3311": "ci\u00f2 ", "3312": "pur ", "3313": "ne\u2019 ", "3314": "nie ", "3315": "han ", "3316": "san ", "3317": "zon ", "3318": "tis ", "3319": "fai ", "3320": "pel ", "3321": "voi ", "3322": "sce ", "3323": "vio ", "3324": "gra ", "3325": "o e ", "3326": "p\u00f2s ", "3327": "pr\u00e0 ", "3328": "bi\u00f2 ", "3329": "nii ", "3330": "tuo ", "3331": "se\u2019 ", "3332": "sa\u2019 ", "3333": "f\u00e8l ", "3334": "tr\u00e0 ", "3335": "gel ", "3336": "gli ", "3337": "len ", "3338": "rua ", "3339": "suo ", "3340": "sta ", "3341": "tum ", "3342": "cei ", "3343": "mii ", "3344": "t\u00e9r ", "3345": "pri ", "3346": "tem ", "3347": "bio ", "3348": "sol ", "3349": "tre ", "3350": "mas ", "3351": "tol ", "3352": "bee ", "3353": "sir ", "3354": "pie ", "3355": "non ", "3356": "teo ", "3357": "sci ", "3358": "cen ", "3359": "tr\u00f2 ", "3360": "gar ", "3361": "lan ", "3362": "ror ", "3363": "t\u00e0n ", "3364": "des ", "3365": "dil ", "3366": "fi\u00f2 ", "3367": "rar ", "3368": "feo ", "3369": "ve\u2019 ", "3370": "e i ", "3371": "su\u2019 ", "3372": "tun ", "3373": "lis ", "3374": "pei ", "3375": "bon ", "3376": "zia ", "3377": "fei ", "3378": "c\u00f2b ", "3379": "pi\u00f9 ", "3380": "f\u00f3n ", "3381": "d\u00e8i ", "3382": "ri\u2019 ", "3383": "plo ", "3384": "ver ", "3385": "mus ", "3386": "die ", "3387": "n\u00ect ", "3388": "bel ", "3389": "tue ", "3390": "cut ", "3391": "gue ", "3392": "f\u00e0s ", "3393": "re\u2019 ", "3394": "neo ", "3395": "m\u00ecs ", "3396": "lai ", "3397": "sen ", "3398": "mi\u2019 ", "3399": "ier ", "3400": "ler ", "3401": "r\u00ece ", "3402": "cil ", "3403": "tei ", "3404": "gri ", "3405": "pi\u00e9 ", "3406": "clo ", "3407": "vei ", "3408": "mae ", "3409": "sto ", "3410": "n\u00eca ", "3411": "gru ", "3412": "rui ", "3413": "ta\u2019 ", "3414": "nem ", "3415": "gu\u00f2 ", "3416": "pon ", "3417": "bue ", "3418": "nol ", "3419": "la\u2019 ", "3420": "zie ", "3421": "va\u2019 ", "3422": "bil ", "3423": "vil ", "3424": "man ", "3425": "par ", "3426": "ber ", "3427": "n\u00ece ", "3428": "gor ", "3429": "fu\u2019 ", "3430": "son ", "3431": "na\u2019 ", "3432": "pre ", "3433": "d\u00eca ", "3434": "ch\u00e9 ", "3435": "dio ", "3436": "pem ", "3437": "tua ", "3438": "zul ", "3439": "sis ", "3440": "dii ", "3441": "lir ", "3442": "ven ", "3443": "pu\u00f2 ", "3444": "zai ", "3445": "gis ", "3446": "cum ", "3447": "vea ", "3448": "spa ", "3449": "fe\u2019 ", "3450": "gi\u00f9 ", "3451": "gio ", "3452": "nio ", "3453": "cun ", "3454": "tel ", "3455": "mon ", "3456": "ean ", "3457": "gal ", "3458": "rei ", "3459": "fui ", "3460": "dri ", "3461": "no\u2019 ", "3462": "mia ", "3463": "gne ", "3464": "nel ", "3465": "mie ", "3466": "cea ", "3467": "mum ", "3468": "car ", "3469": "ram ", "3470": "ser ", "3471": "vos ", "3472": "bar ", "3473": "vem ", "3474": "ton ", "3475": "dar ", "3476": "me\u2019 ", "3477": "uo\u2019 ", "3478": "pr\u00ec ", "3479": "due ", "3480": "r\u00f3n ", "3481": "cor ", "3482": "tui ", "3483": "vai ", "3484": "mil ", "3485": "c\u00f2l ", "3486": "don ", "3487": "ma\u2019 ", "3488": "b\u00e8l ", "3489": "lar ", "3490": "sia ", "3491": "tia ", "3492": "bra ", "3493": "uom ", "3494": "poi ", "3495": "cer ", "3496": "fie ", "3497": "mer ", "3498": "ahi ", "3499": "v\u00ecd ", "3500": "t\u00f2n ", "3501": "o a ", "3502": "n\u00e8s ", "3503": "res ", "3504": "bus ", "3505": "meo ", "3506": "mee ", "3507": "l\u00eco ", "3508": "ceo ", "3509": "d\u00ece ", "3510": "ges ", "3511": "deo ", "3512": "reo ", "3513": "fan ", "3514": "tea ", "3515": "co\u2019 ", "3516": "fer ", "3517": "gui ", "3518": "pea ", "3519": "fio ", "3520": "cis ", "3521": "sal ", "3522": "ner ", "3523": "rum ", "3524": "pin ", "3525": "chi ", "3526": "gro ", "3527": "sca ", "3528": "dal ", "3529": "gni ", "3530": "vin ", "3531": "pol ", "3532": "tai ", "3533": "rin ", "3534": "ieu ", "3535": "bia ", "3536": "dr\u00ec ", "3537": "st\u00f2 ", "3538": "b\u00eca ", "3539": "ter ", "3540": "bin ", "3541": "dre ", "3542": "duo ", "3543": "du\u2019 ", "3544": "cio ", "3545": "vo\u2019 ", "3546": "di\u2019 ", "3547": "ce \u00e8 ", "3548": "gnum ", "3549": "so a ", "3550": "pien ", "3551": "te \u00e8 ", "3552": "po e ", "3553": "qual ", "3554": "so i ", "3555": "ca o ", "3556": "de e ", "3557": "do i ", "3558": "d\u00e8ch ", "3559": "la o ", "3560": "ve i ", "3561": "me \u00e8 ", "3562": "stai ", "3563": "co \u00e8 ", "3564": "lo \u00e8 ", "3565": "diam ", "3566": "si o ", "3567": "brar ", "3568": "tier ", "3569": "ga e ", "3570": "ca a ", "3571": "ne a ", "3572": "vo e ", "3573": "me e ", "3574": "si \u00e8 ", "3575": "t\u2019 \u00e8 ", "3576": "sa \u00e8 ", "3577": "trai ", "3578": "trae ", "3579": "za i ", "3580": "ci e ", "3581": "sunt ", "3582": "prir ", "3583": "re \u00e8 ", "3584": "trea ", "3585": "sfar ", "3586": "scel ", "3587": "a il ", "3588": "sper ", "3589": "quai ", "3590": "cheo ", "3591": "luia ", "3592": "ne i ", "3593": "re e ", "3594": "ne \u00e8 ", "3595": "miei ", "3596": "da i ", "3597": "vuo\u2019 ", "3598": "zi \u00e8 ", "3599": "e or ", "3600": "la \u00e8 ", "3601": "si e ", "3602": "scir ", "3603": "v\u2019 a ", "3604": "pian ", "3605": "se i ", "3606": "slao ", "3607": "re o ", "3608": "fo \u00e8 ", "3609": "lo a ", "3610": "mo e ", "3611": "gnes ", "3612": "ro a ", "3613": "br\u00f2t ", "3614": "quel ", "3615": "bia\u2019 ", "3616": "guio ", "3617": "se o ", "3618": "frui ", "3619": "mi i ", "3620": "s\u2019 \u00e8 ", "3621": "vaio ", "3622": "scio ", "3623": "bo e ", "3624": "ro i ", "3625": "stin ", "3626": "de i ", "3627": "bran ", "3628": "rien ", "3629": "ma e ", "3630": "la i ", "3631": "m\u2019 \u00e8 ", "3632": "chin ", "3633": "li e ", "3634": "ma a ", "3635": "li a ", "3636": "s\u2019 a ", "3637": "grin ", "3638": "ghio ", "3639": "to o ", "3640": "dria ", "3641": "di a ", "3642": "e in ", "3643": "plor ", "3644": "zi a ", "3645": "co i ", "3646": "e \u2019l ", "3647": "i il ", "3648": "e \u2019n ", "3649": "ne o ", "3650": "to \u00e8 ", "3651": "le \u00e8 ", "3652": "na e ", "3653": "tuon ", "3654": "ni o ", "3655": "rian ", "3656": "do o ", "3657": "io e ", "3658": "sci\u00f2 ", "3659": "be a ", "3660": "ciai ", "3661": "gi a ", "3662": "duol ", "3663": "stil ", "3664": "nean ", "3665": "stie ", "3666": "cuor ", "3667": "gnar ", "3668": "za \u00e8 ", "3669": "steo ", "3670": "suon ", "3671": "so e ", "3672": "do e ", "3673": "ra a ", "3674": "ro \u00e8 ", "3675": "gaio ", "3676": "bent ", "3677": "quei ", "3678": "pron ", "3679": "bian ", "3680": "bi a ", "3681": "ni a ", "3682": "fren ", "3683": "va e ", "3684": "gnun ", "3685": "stel ", "3686": "so \u00e8 ", "3687": "gian ", "3688": "ciam ", "3689": "co e ", "3690": "ge e ", "3691": "gli\u00f2 ", "3692": "fi e ", "3693": "riai ", "3694": "lien ", "3695": "rent ", "3696": "nien ", "3697": "\u00e8 \u2019l ", "3698": "ra i ", "3699": "glio ", "3700": "chia ", "3701": "pe i ", "3702": "tran ", "3703": "re i ", "3704": "die\u2019 ", "3705": "si i ", "3706": "stro ", "3707": "to i ", "3708": "ghin ", "3709": "chi\u00f2 ", "3710": "bion ", "3711": "laia ", "3712": "mo a ", "3713": "laio ", "3714": "suo\u2019 ", "3715": "ne e ", "3716": "glie ", "3717": "muoi ", "3718": "tuo\u2019 ", "3719": "no o ", "3720": "ri e ", "3721": "vuol ", "3722": "vien ", "3723": "ti a ", "3724": "sier ", "3725": "no \u00e8 ", "3726": "ge \u00e8 ", "3727": "ciar ", "3728": "tris ", "3729": "ciel ", "3730": "quia ", "3731": "cral ", "3732": "me i ", "3733": "com\u2019 ", "3734": "giam ", "3735": "cian ", "3736": "blia ", "3737": "prec ", "3738": "co a ", "3739": "v\u2019 \u00e8 ", "3740": "dien ", "3741": "tra\u2019 ", "3742": "grue ", "3743": "la a ", "3744": "ti \u00e8 ", "3745": "svia ", "3746": "te a ", "3747": "gner ", "3748": "quae ", "3749": "de a ", "3750": "gioi ", "3751": "pier ", "3752": "sche ", "3753": "prun ", "3754": "trui ", "3755": "gual ", "3756": "viam ", "3757": "n\u2019 \u00e8 ", "3758": "za o ", "3759": "da e ", "3760": "ce e ", "3761": "guir ", "3762": "scea ", "3763": "tean ", "3764": "tien ", "3765": "va a ", "3766": "to e ", "3767": "stri ", "3768": "mo \u00e8 ", "3769": "pluo ", "3770": "stra ", "3771": "re a ", "3772": "plar ", "3773": "gion ", "3774": "ph\u00e8l ", "3775": "nier ", "3776": "maia ", "3777": "str\u00f2 ", "3778": "pe e ", "3779": "va i ", "3780": "zi e ", "3781": "ti i ", "3782": "naio ", "3783": "stui ", "3784": "de \u00e8 ", "3785": "ziar ", "3786": "mi a ", "3787": "ra \u00e8 ", "3788": "ti o ", "3789": "pia\u2019 ", "3790": "muor ", "3791": "ca \u00e8 ", "3792": "a al ", "3793": "o in ", "3794": "\u00e8 in ", "3795": "po \u00e8 ", "3796": "prio ", "3797": "sa e ", "3798": "quie ", "3799": "ci o ", "3800": "stre ", "3801": "buoi ", "3802": "trei ", "3803": "ti e ", "3804": "li o ", "3805": "schi ", "3806": "zian ", "3807": "fian ", "3808": "za e ", "3809": "di i ", "3810": "go a ", "3811": "do \u00e8 ", "3812": "tu i ", "3813": "crea ", "3814": "tr\u00e0s ", "3815": "drai ", "3816": "fu a ", "3817": "se \u00e8 ", "3818": "li \u00e8 ", "3819": "le a ", "3820": "ce i ", "3821": "a \u2019l ", "3822": "drel ", "3823": "o il ", "3824": "lo e ", "3825": "naut ", "3826": "prai ", "3827": "va o ", "3828": "di e ", "3829": "ci a ", "3830": "cean ", "3831": "o al ", "3832": "no e ", "3833": "ghia ", "3834": "brei ", "3835": "po a ", "3836": "d\u00ec i ", "3837": "le e ", "3838": "no i ", "3839": "o un ", "3840": "l\u00e0 i ", "3841": "frir ", "3842": "bi e ", "3843": "te i ", "3844": "mi e ", "3845": "suol ", "3846": "tuoi ", "3847": "ra e ", "3848": "po o ", "3849": "d\u2019 \u00e8 ", "3850": "prie ", "3851": "giun ", "3852": "gran ", "3853": "ta i ", "3854": "vean ", "3855": "gi\u00f9e ", "3856": "dier ", "3857": "quod ", "3858": "gnor ", "3859": "puoi ", "3860": "ze e ", "3861": "ra o ", "3862": "glia ", "3863": "s\u00e9 i ", "3864": "fiar ", "3865": "spia ", "3866": "ta \u00e8 ", "3867": "nian ", "3868": "to a ", "3869": "de o ", "3870": "quam ", "3871": "i in ", "3872": "dron ", "3873": "vria ", "3874": "po i ", "3875": "maio ", "3876": "go o ", "3877": "ga o ", "3878": "scon ", "3879": "na \u00e8 ", "3880": "sien ", "3881": "ri a ", "3882": "siam ", "3883": "tu \u2019 ", "3884": "me a ", "3885": "trar ", "3886": "r\u2019 a ", "3887": "ge a ", "3888": "te o ", "3889": "pion ", "3890": "gnia ", "3891": "gnon ", "3892": "ri o ", "3893": "zo e ", "3894": "cion ", "3895": "ched ", "3896": "buon ", "3897": "a in ", "3898": "bo a ", "3899": "pi\u00e9r ", "3900": "st\u00f2r ", "3901": "fior ", "3902": "gnan ", "3903": "go \u00e8 ", "3904": "star ", "3905": "gior ", "3906": "stor ", "3907": "ci\u00f2l ", "3908": "spir ", "3909": "cl\u00e8s ", "3910": "vo a ", "3911": "ve e ", "3912": "be i ", "3913": "ce a ", "3914": "tria ", "3915": "gnin ", "3916": "o \u2019n ", "3917": "le o ", "3918": "gnus ", "3919": "cia\u2019 ", "3920": "breo ", "3921": "suoi ", "3922": "blio ", "3923": "ver\u2019 ", "3924": "stia ", "3925": "le i ", "3926": "ta e ", "3927": "ma i ", "3928": "runt ", "3929": "sa a ", "3930": "gean ", "3931": "l\u2019 \u00e8 ", "3932": "pria ", "3933": "d\u2019 i ", "3934": "ca e ", "3935": "lo i ", "3936": "quor ", "3937": "ciol ", "3938": "brio ", "3939": "scer ", "3940": "ce o ", "3941": "vuoi ", "3942": "spri ", "3943": "vier ", "3944": "piar ", "3945": "ro o ", "3946": "pa a ", "3947": "se a ", "3948": "ni \u00e8 ", "3949": "saia ", "3950": "mian ", "3951": "stei ", "3952": "vi o ", "3953": "scun ", "3954": "que\u2019 ", "3955": "dail ", "3956": "ta a ", "3957": "sc\u00eco ", "3958": "si a ", "3959": "ciul ", "3960": "trio ", "3961": "ro e ", "3962": "da o ", "3963": "gien ", "3964": "cria ", "3965": "sion ", "3966": "ta o ", "3967": "t\u2019 i ", "3968": "sian ", "3969": "bria ", "3970": "f\u00e9 i ", "3971": "stea ", "3972": "ghi\u00f2 ", "3973": "\u00e8 \u2019n ", "3974": "guan ", "3975": "za a ", "3976": "\u00e8 il ", "3977": "niam ", "3978": "sie\u2019 ", "3979": "pa e ", "3980": "mie\u2019 ", "3981": "guis ", "3982": "fier ", "3983": "pi e ", "3984": "sa i ", "3985": "da a ", "3986": "nail ", "3987": "vian ", "3988": "dean ", "3989": "do a ", "3990": "dra\u2019 ", "3991": "scie ", "3992": "go e ", "3993": "caio ", "3994": "chio ", "3995": "drir ", "3996": "pa \u00e8 ", "3997": "fuor ", "3998": "ve a ", "3999": "biar ", "4000": "\u2018qui ", "4001": "chel ", "4002": "na o ", "4003": "su i ", "4004": "giai ", "4005": "be e ", "4006": "spro ", "4007": "guia ", "4008": "pi\u00f9e ", "4009": "sti\u00f2 ", "4010": "ga a ", "4011": "bi i ", "4012": "sci\u2019 ", "4013": "no a ", "4014": "ze o ", "4015": "toio ", "4016": "ve o ", "4017": "stan ", "4018": "vi e ", "4019": "giar ", "4020": "lier ", "4021": "zo a ", "4022": "so o ", "4023": "guon ", "4024": "pri\u2019 ", "4025": "ma o ", "4026": "c\u2019 \u00e8 ", "4027": "ma \u00e8 ", "4028": "rean ", "4029": "guai ", "4030": "scar ", "4031": "drea ", "4032": "ni e ", "4033": "gnel ", "4034": "bree ", "4035": "la e ", "4036": "quar ", "4037": "vi \u00e8 ", "4038": "se e ", "4039": "st\u00e8r ", "4040": "sa o ", "4041": "na a ", "4042": "c\u00f2th ", "4043": "fien ", "4044": "tram ", "4045": "scia ", "4046": "l\u00ec \u00e8 ", "4047": "ghie ", "4048": "crin ", "4049": "ba e ", "4050": "tree ", "4051": "prei ", "4052": "li i ", "4053": "gier ", "4054": "chie ", "4055": "ci \u00e8 ", "4056": "lian ", "4057": "mo i ", "4058": "zion ", "4059": "gi e ", "4060": "te e ", "4061": "co o ", "4062": "tiam ", "4063": "vi a ", "4064": "fe e ", "4065": "di o ", "4066": "glier ", "4067": "di \u00e8e ", "4068": "ma un ", "4069": "ro od ", "4070": "ia oh ", "4071": "gliea ", "4072": "to i\u2019 ", "4073": "glior ", "4074": "li ha ", "4075": "s\u2019 i\u2019 ", "4076": "ge or ", "4077": "bi \u2019l ", "4078": "la al ", "4079": "m\u2019 io ", "4080": "chion ", "4081": "li io ", "4082": "n\u2019 io ", "4083": "po ha ", "4084": "chi a ", "4085": "te i\u2019 ", "4086": "gio e ", "4087": "mi in ", "4088": "su \u2019l ", "4089": "re or ", "4090": "l\u2019 un ", "4091": "gio o ", "4092": "di in ", "4093": "lio \u00e8 ", "4094": "zi al ", "4095": "gli a ", "4096": "cia i ", "4097": "ri a\u2019 ", "4098": "po ed ", "4099": "b\u2019 io ", "4100": "mi un ", "4101": "di al ", "4102": "se ai ", "4103": "z\u00f2 \u2019l ", "4104": "li or ", "4105": "bre e ", "4106": "ra \u2019l ", "4107": "do a\u2019 ", "4108": "da i\u2019 ", "4109": "po al ", "4110": "ha in ", "4111": "di ed ", "4112": "de in ", "4113": "ra \u2019n ", "4114": "gluol ", "4115": "t\u00f2 un ", "4116": "mo \u2019l ", "4117": "ste e ", "4118": "dro o ", "4119": "cia e ", "4120": "vra i ", "4121": "dio a ", "4122": "que \u00e8 ", "4123": "ro i\u2019 ", "4124": "gli e ", "4125": "ro ed ", "4126": "tri o ", "4127": "me il ", "4128": "bi in ", "4129": "pa \u2019l ", "4130": "ni il ", "4131": "bo in ", "4132": "s\u2019 ha ", "4133": "d\u2019 un ", "4134": "to or ", "4135": "di ha ", "4136": "c\u2019 ho ", "4137": "ro un ", "4138": "mo ha ", "4139": "ta al ", "4140": "bia e ", "4141": "dri e ", "4142": "ce ha ", "4143": "stion ", "4144": "lo al ", "4145": "la il ", "4146": "te al ", "4147": "na in ", "4148": "zi il ", "4149": "re un ", "4150": "dre e ", "4151": "ci \u2019l ", "4152": "di \u2019l ", "4153": "d\u2019 el ", "4154": "gua a ", "4155": "ro in ", "4156": "zio \u00e8 ", "4157": "ve in ", "4158": "pa ho ", "4159": "na \u2019n ", "4160": "ti il ", "4161": "t\u2019 ha ", "4162": "mi ad ", "4163": "lo ai ", "4164": "sti \u00e8 ", "4165": "ti ed ", "4166": "ti in ", "4167": "s\u00e9 il ", "4168": "sta e ", "4169": "le ir ", "4170": "scuoi ", "4171": "ra ad ", "4172": "no un ", "4173": "ria \u00e8 ", "4174": "ce ed ", "4175": "re ir ", "4176": "ve il ", "4177": "si in ", "4178": "sto a ", "4179": "sto e ", "4180": "v\u2019 io ", "4181": "ghiai ", "4182": "lo or ", "4183": "ch\u00e9 a ", "4184": "re \u2019n ", "4185": "le un ", "4186": "tra i ", "4187": "di \u2019n ", "4188": "la ed ", "4189": "me ad ", "4190": "vi il ", "4191": "na ei ", "4192": "dro a ", "4193": "mo ad ", "4194": "sta a ", "4195": "vi \u2019l ", "4196": "la un ", "4197": "ti ei ", "4198": "fa \u2019l ", "4199": "tr\u2019 \u00e8 ", "4200": "fo or ", "4201": "dre a ", "4202": "d\u2019 e\u2019 ", "4203": "bi un ", "4204": "stiam ", "4205": "no ai ", "4206": "glion ", "4207": "bi il ", "4208": "na ad ", "4209": "ca io ", "4210": "ba il ", "4211": "so a\u2019 ", "4212": "za il ", "4213": "co al ", "4214": "zi ad ", "4215": "temps ", "4216": "do il ", "4217": "z\u00f2 il ", "4218": "no a\u2019 ", "4219": "scion ", "4220": "go al ", "4221": "qua e ", "4222": "na un ", "4223": "zi or ", "4224": "zia \u00e8 ", "4225": "no \u2019l ", "4226": "p\u2019 io ", "4227": "la \u2019l ", "4228": "se i\u2019 ", "4229": "ro al ", "4230": "te \u2019l ", "4231": "stral ", "4232": "te u\u2019 ", "4233": "gno e ", "4234": "me a\u2019 ", "4235": "ma in ", "4236": "sce i ", "4237": "gi \u2019l ", "4238": "vi un ", "4239": "le or ", "4240": "va a\u2019 ", "4241": "v\u2019 el ", "4242": "ti \u2019n ", "4243": "li il ", "4244": "so ad ", "4245": "va un ", "4246": "gio a ", "4247": "ne ed ", "4248": "mo al ", "4249": "ri al ", "4250": "gna \u00e8 ", "4251": "gno \u00e8 ", "4252": "to ir ", "4253": "va ai ", "4254": "pre a ", "4255": "re io ", "4256": "da il ", "4257": "de ed ", "4258": "tra \u2019 ", "4259": "ch\u00e9 i ", "4260": "ne io ", "4261": "d\u2019 i\u2019 ", "4262": "be \u2019l ", "4263": "le il ", "4264": "ge al ", "4265": "ro or ", "4266": "mo il ", "4267": "te ai ", "4268": "gra o ", "4269": "re in ", "4270": "za un ", "4271": "ria i ", "4272": "se il ", "4273": "bro \u00e8 ", "4274": "pri a ", "4275": "sto \u00e8 ", "4276": "v\u2019 \u00e8n ", "4277": "ne un ", "4278": "se io ", "4279": "gnaio ", "4280": "ch\u2019 a ", "4281": "ria o ", "4282": "ti ad ", "4283": "ci al ", "4284": "t\u2019 io ", "4285": "ci a\u2019 ", "4286": "d\u2019 io ", "4287": "praia ", "4288": "rio e ", "4289": "di io ", "4290": "mi al ", "4291": "za or ", "4292": "ve al ", "4293": "ti ai ", "4294": "co ai ", "4295": "zo il ", "4296": "vi in ", "4297": "cio e ", "4298": "ha \u2019l ", "4299": "ta il ", "4300": "pre i ", "4301": "si al ", "4302": "va al ", "4303": "stial ", "4304": "ta un ", "4305": "sa un ", "4306": "za ha ", "4307": "be or ", "4308": "voill ", "4309": "do ed ", "4310": "fu il ", "4311": "za al ", "4312": "te in ", "4313": "l\u2019 ha ", "4314": "cio a ", "4315": "ce il ", "4316": "gliel ", "4317": "me \u2019n ", "4318": "rio a ", "4319": "zia o ", "4320": "r\u00f2 \u2019l ", "4321": "za ed ", "4322": "to a\u2019 ", "4323": "le io ", "4324": "la in ", "4325": "c\u2019 io ", "4326": "ia il ", "4327": "ci io ", "4328": "stier ", "4329": "fu \u2019l ", "4330": "ra a\u2019 ", "4331": "di ad ", "4332": "ta \u2019l ", "4333": "lio e ", "4334": "zo in ", "4335": "staio ", "4336": "ta ad ", "4337": "se e\u2019 ", "4338": "co \u2019l ", "4339": "l\u2019 ho ", "4340": "no ei ", "4341": "v\u2019 ei ", "4342": "re ho ", "4343": "mi a\u2019 ", "4344": "va \u2019n ", "4345": "no al ", "4346": "re i\u2019 ", "4347": "gia o ", "4348": "si el ", "4349": "tr\u2019 a ", "4350": "pre e ", "4351": "sa in ", "4352": "va \u2019l ", "4353": "ve ad ", "4354": "dro e ", "4355": "pe \u2019l ", "4356": "na ha ", "4357": "svuol ", "4358": "gna o ", "4359": "gue e ", "4360": "ra or ", "4361": "li un ", "4362": "lio a ", "4363": "bo a\u2019 ", "4364": "ci or ", "4365": "de \u2019l ", "4366": "za oh ", "4367": "te un ", "4368": "ca il ", "4369": "pr\u2019 a ", "4370": "chiai ", "4371": "se a\u2019 ", "4372": "sti a ", "4373": "ne or ", "4374": "ni in ", "4375": "bre a ", "4376": "te \u2019n ", "4377": "to \u2019l ", "4378": "t\u2019 ho ", "4379": "tri a ", "4380": "se un ", "4381": "sa \u2019l ", "4382": "t\u2019 i\u2019 ", "4383": "tri \u00e8 ", "4384": "ta ha ", "4385": "ne in ", "4386": "di a\u2019 ", "4387": "lo ha ", "4388": "ni \u2019l ", "4389": "sce e ", "4390": "que e ", "4391": "me un ", "4392": "glian ", "4393": "sco e ", "4394": "ra un ", "4395": "ge il ", "4396": "n\u2019 ha ", "4397": "be il ", "4398": "lo in ", "4399": "schio ", "4400": "fu al ", "4401": "mia e ", "4402": "ch\u2019 \u00e8 ", "4403": "to ha ", "4404": "sia e ", "4405": "gni e ", "4406": "sme e ", "4407": "di un ", "4408": "ni ed ", "4409": "r\u2019 io ", "4410": "qua \u00e8 ", "4411": "zia e ", "4412": "ce a\u2019 ", "4413": "si un ", "4414": "ne il ", "4415": "gliai ", "4416": "qua o ", "4417": "re ad ", "4418": "ghe a ", "4419": "tri e ", "4420": "ge ai ", "4421": "li i\u2019 ", "4422": "le \u2019l ", "4423": "ro a\u2019 ", "4424": "no io ", "4425": "ti io ", "4426": "vrien ", "4427": "go \u2019l ", "4428": "pe ad ", "4429": "ti un ", "4430": "tra a ", "4431": "le in ", "4432": "ta ho ", "4433": "ne a\u2019 ", "4434": "ria e ", "4435": "da or ", "4436": "po \u2019l ", "4437": "bra a ", "4438": "co ad ", "4439": "na il ", "4440": "ria \u2019 ", "4441": "l\u00e0 \u2019l ", "4442": "gno i ", "4443": "qua a ", "4444": "le ab ", "4445": "to ai ", "4446": "va io ", "4447": "go il ", "4448": "t\u00e0 \u2019l ", "4449": "la io ", "4450": "do un ", "4451": "pie a ", "4452": "da al ", "4453": "g\u2019 io ", "4454": "to in ", "4455": "mo ei ", "4456": "lo ed ", "4457": "za i\u2019 ", "4458": "pio a ", "4459": "co a\u2019 ", "4460": "va or ", "4461": "do al ", "4462": "do io ", "4463": "se al ", "4464": "re il ", "4465": "so al ", "4466": "se in ", "4467": "zo al ", "4468": "do \u2019l ", "4469": "be i\u2019 ", "4470": "to un ", "4471": "st\u2019 \u00e8 ", "4472": "di il ", "4473": "po il ", "4474": "s\u2019 e\u2019 ", "4475": "s\u00ec \u2019l ", "4476": "n\u00f2 in ", "4477": "pra e ", "4478": "me io ", "4479": "mo un ", "4480": "po io ", "4481": "d\u2019 ir ", "4482": "ni or ", "4483": "ta ed ", "4484": "se ir ", "4485": "me ed ", "4486": "ga in ", "4487": "tro a ", "4488": "ce u\u2019 ", "4489": "vo in ", "4490": "ci ha ", "4491": "re a\u2019 ", "4492": "ria a ", "4493": "zo \u2019l ", "4494": "te ha ", "4495": "su in ", "4496": "mo in ", "4497": "te a\u2019 ", "4498": "tro e ", "4499": "de un ", "4500": "so in ", "4501": "d\u2019 ei ", "4502": "n\u00f2 \u2019l ", "4503": "t\u00ec \u2019l ", "4504": "sa ad ", "4505": "dio e ", "4506": "te ed ", "4507": "mo ed ", "4508": "re ha ", "4509": "za in ", "4510": "m\u2019 ha ", "4511": "tre e ", "4512": "smo a ", "4513": "no u\u2019 ", "4514": "va ed ", "4515": "zi ai ", "4516": "de ad ", "4517": "re al ", "4518": "chi \u00e8 ", "4519": "ba in ", "4520": "chier ", "4521": "do in ", "4522": "re ed ", "4523": "ri in ", "4524": "l\u2019 om ", "4525": "r\u2019 al ", "4526": "me \u2019l ", "4527": "co in ", "4528": "sta \u00e8 ", "4529": "sciar ", "4530": "va il ", "4531": "li oh ", "4532": "gia \u00e8 ", "4533": "tu \u2019l ", "4534": "ma il ", "4535": "no i\u2019 ", "4536": "zio e ", "4537": "to io ", "4538": "gliar ", "4539": "me al ", "4540": "stran ", "4541": "na ed ", "4542": "s\u2019 el ", "4543": "bra o ", "4544": "se ho ", "4545": "ste i ", "4546": "chi e ", "4547": "po in ", "4548": "tro i ", "4549": "gui i ", "4550": "s\u2019 io ", "4551": "zi un ", "4552": "t\u00f2 \u2019l ", "4553": "ra in ", "4554": "li al ", "4555": "za \u2019l ", "4556": "to al ", "4557": "ma \u2019l ", "4558": "ta or ", "4559": "no in ", "4560": "ti \u2019l ", "4561": "co io ", "4562": "che \u2019 ", "4563": "me in ", "4564": "ca in ", "4565": "s\u00e9 in ", "4566": "da io ", "4567": "ro il ", "4568": "ge un ", "4569": "ma a\u2019 ", "4570": "to il ", "4571": "si \u2019n ", "4572": "gia a ", "4573": "la a\u2019 ", "4574": "ra ha ", "4575": "tro \u00e8 ", "4576": "g\u00f2 \u2019l ", "4577": "pa or ", "4578": "ro ad ", "4579": "chiar ", "4580": "ga il ", "4581": "ghiar ", "4582": "na or ", "4583": "ra il ", "4584": "be un ", "4585": "do ad ", "4586": "ti a\u2019 ", "4587": "gue \u00e8 ", "4588": "da in ", "4589": "ri \u2019l ", "4590": "pri e ", "4591": "ve \u2019l ", "4592": "si il ", "4593": "mi \u2019l ", "4594": "sce a ", "4595": "co u\u2019 ", "4596": "lia e ", "4597": "glien ", "4598": "ce un ", "4599": "ghe e ", "4600": "c\u2019 ha ", "4601": "le ha ", "4602": "ce in ", "4603": "sciai ", "4604": "to ad ", "4605": "ci in ", "4606": "ge in ", "4607": "be al ", "4608": "li in ", "4609": "zio a ", "4610": "n\u2019 ei ", "4611": "le al ", "4612": "sca i ", "4613": "ti al ", "4614": "que a ", "4615": "ia ed ", "4616": "mi il ", "4617": "puesc ", "4618": "ni al ", "4619": "be in ", "4620": "lo il ", "4621": "gno a ", "4622": "lo a\u2019 ", "4623": "ce al ", "4624": "do or ", "4625": "se or ", "4626": "v\u2019 i\u2019 ", "4627": "ge ad ", "4628": "gna i ", "4629": "li \u2019l ", "4630": "gui e ", "4631": "\u2019v\u2019 \u00e8 ", "4632": "so il ", "4633": "v\u2019 e\u2019 ", "4634": "mi ed ", "4635": "da \u2019l ", "4636": "te ho ", "4637": "sta o ", "4638": "tra e ", "4639": "bra e ", "4640": "no ad ", "4641": "g\u00ec \u2019l ", "4642": "gi\u00e0 i ", "4643": "ghi e ", "4644": "co il ", "4645": "gia e ", "4646": "le ad ", "4647": "stian ", "4648": "pe il ", "4649": "l\u00e0 il ", "4650": "ra al ", "4651": "sti e ", "4652": "t\u2019 el ", "4653": "sio e ", "4654": "sci a ", "4655": "dia e ", "4656": "de il ", "4657": "gi un ", "4658": "sco i ", "4659": "ti ha ", "4660": "to ed ", "4661": "pa in ", "4662": "pa ed ", "4663": "strai ", "4664": "gna e ", "4665": "pi in ", "4666": "va in ", "4667": "gue a ", "4668": "ci il ", "4669": "pi un ", "4670": "d\u00f2 \u2019l ", "4671": "che i ", "4672": "dia i ", "4673": "tra \u00e8 ", "4674": "ra ed ", "4675": "di or ", "4676": "so \u2019l ", "4677": "r\u00f2 il ", "4678": "no il ", "4679": "lo ad ", "4680": "bro e ", "4681": "so un ", "4682": "co or ", "4683": "to \u2019n ", "4684": "si \u2019l ", "4685": "ma \u2019n ", "4686": "no ed ", "4687": "scian ", "4688": "gua e ", "4689": "t\u00e9 \u2019l ", "4690": "ne ai ", "4691": "chian ", "4692": "s\u2019 un ", "4693": "da un ", "4694": "le i\u2019 ", "4695": "t\u2019 om ", "4696": "s\u2019 ei ", "4697": "b\u00f2 il ", "4698": "v\u00f2 \u2019l ", "4699": "ne ad ", "4700": "te ad ", "4701": "si ad ", "4702": "ste a ", "4703": "ve a\u2019 ", "4704": "sti o ", "4705": "na al ", "4706": "strar ", "4707": "gri e ", "4708": "ne ha ", "4709": "zi \u2019l ", "4710": "ma io ", "4711": "co un ", "4712": "pio e ", "4713": "so \u00e8e ", "4714": "do ha ", "4715": "ra io ", "4716": "se ad ", "4717": "qui e ", "4718": "ve un ", "4719": "li ad ", "4720": "te or ", "4721": "v\u2019 or ", "4722": "t\u2019 il ", "4723": "n\u00e9 \u2019l ", "4724": "me ai ", "4725": "ne \u2019l ", "4726": "sa il ", "4727": "v\u2019 ha ", "4728": "ca al ", "4729": "ta in ", "4730": "ia in ", "4731": "co i\u2019 ", "4732": "v\u2019 ho ", "4733": "che a ", "4734": "se \u2019l ", "4735": "gi il ", "4736": "te il ", "4737": "gi al ", "4738": "r\u00ec \u2019l ", "4739": "be ed ", "4740": "de al ", "4741": "ta io ", "4742": "va ad ", "4743": "gni a ", "4744": "ne al ", "4745": "che e ", "4746": "lo un ", "4747": "te io ", "4748": "si u\u2019 ", "4749": "se \u2019n ", "4750": "f\u00e9 \u2019l ", "4751": "li ei ", "4752": "zia a ", "4753": "gna a ", "4754": "bio e ", "4755": "cia a ", "4756": "no ha ", "4757": "cia o ", "4758": "si or ", "4759": "ci\u00f2 \u2019l ", "4760": "scio a ", "4761": "stro a ", "4762": "bia in ", "4763": "sia \u2019l ", "4764": "ra han ", "4765": "pra al ", "4766": "zio al ", "4767": "glie e ", "4768": "smo al ", "4769": "pra ed ", "4770": "tro in ", "4771": "ch\u2019 ad ", "4772": "fra \u2019l ", "4773": "chio a ", "4774": "che in ", "4775": "chio e ", "4776": "gne al ", "4777": "sti il ", "4778": "sta in ", "4779": "gio ad ", "4780": "tri or ", "4781": "zia in ", "4782": "chi \u2019l ", "4783": "pi\u00e9 \u2019l ", "4784": "que il ", "4785": "\u2019ve \u2019l ", "4786": "che un ", "4787": "ro hai ", "4788": "tro ed ", "4789": "gliuoi ", "4790": "so\u2019 \u2019n ", "4791": "spra e ", "4792": "gli un ", "4793": "lio ed ", "4794": "tra \u2019l ", "4795": "ria il ", "4796": "gia \u2019l ", "4797": "sce il ", "4798": "s\u2019 hai ", "4799": "strans ", "4800": "stia e ", "4801": "ghia a ", "4802": "cea il ", "4803": "pu\u00f2 \u2019l ", "4804": "tro ai ", "4805": "glio o ", "4806": "gio in ", "4807": "gli\u00f2 i ", "4808": "pre ha ", "4809": "dia \u2019l ", "4810": "ba e \u2019 ", "4811": "che a\u2019 ", "4812": "sc\u2019 io ", "4813": "tro ad ", "4814": "sta il ", "4815": "stro i ", "4816": "do hai ", "4817": "sta al ", "4818": "gue in ", "4819": "que i\u2019 ", "4820": "gua in ", "4821": "cia il ", "4822": "stra \u00e8 ", "4823": "ch\u2019 ai ", "4824": "dre al ", "4825": "schi a ", "4826": "n\u2019 uom ", "4827": "dri ai ", "4828": "so hai ", "4829": "dro in ", "4830": "lia il ", "4831": "rio ha ", "4832": "cia un ", "4833": "t\u2019 hai ", "4834": "sti in ", "4835": "cia in ", "4836": "si e \u2019 ", "4837": "qui \u2019l ", "4838": "cia ir ", "4839": "pre in ", "4840": "tre in ", "4841": "que in ", "4842": "bra in ", "4843": "gno or ", "4844": "sa e \u2019 ", "4845": "bia \u2019l ", "4846": "zia il ", "4847": "tro \u2019l ", "4848": "gu\u00ec \u2019l ", "4849": "pi\u00f9 \u2019l ", "4850": "gio al ", "4851": "gia or ", "4852": "chi a\u2019 ", "4853": "tro il ", "4854": "stra a ", "4855": "gio il ", "4856": "gne \u2019l ", "4857": "gliaio ", "4858": "ch\u2019 io ", "4859": "di\u2019 \u2019l ", "4860": "glio e ", "4861": "dia in ", "4862": "ri e \u2019 ", "4863": "schi o ", "4864": "tro a\u2019 ", "4865": "te han ", "4866": "tr\u2019 a\u2019 ", "4867": "scia o ", "4868": "sco il ", "4869": "glio a ", "4870": "ghi in ", "4871": "smo in ", "4872": "bra od ", "4873": "sti ha ", "4874": "tr\u2019 io ", "4875": "tre al ", "4876": "qua il ", "4877": "ch\u2019 ei ", "4878": "ghi al ", "4879": "nio al ", "4880": "ra hai ", "4881": "que or ", "4882": "ne e i ", "4883": "d\u2019 uom ", "4884": "ci e \u2019 ", "4885": "ch\u2019 \u00e8i ", "4886": "gno ed ", "4887": "gio ha ", "4888": "qu\u2019 io ", "4889": "di e \u2019 ", "4890": "ste il ", "4891": "rio ho ", "4892": "sto ha ", "4893": "tri il ", "4894": "bio ed ", "4895": "sto ad ", "4896": "stie e ", "4897": "gno il ", "4898": "chi in ", "4899": "qua io ", "4900": "pria o ", "4901": "tri ad ", "4902": "sc\u00ec \u2019l ", "4903": "ch\u00e9 \u2019l ", "4904": "due \u2019l ", "4905": "cia ad ", "4906": "t\u2019 ha\u2019 ", "4907": "stio e ", "4908": "qui un ", "4909": "fia il ", "4910": "ch\u2019 om ", "4911": "ghio e ", "4912": "ti e i ", "4913": "che io ", "4914": "pa e \u2019 ", "4915": "ghi \u2019l ", "4916": "tr\u2019 al ", "4917": "ni e i ", "4918": "gno ha ", "4919": "glia e ", "4920": "chi il ", "4921": "sto il ", "4922": "gl\u2019 io ", "4923": "sti \u2019l ", "4924": "nia il ", "4925": "che \u2019n ", "4926": "l\u2019 hai ", "4927": "gliuol ", "4928": "gno a\u2019 ", "4929": "scia a ", "4930": "ste in ", "4931": "gna \u2019l ", "4932": "tro ha ", "4933": "ro e \u2019 ", "4934": "che il ", "4935": "to hai ", "4936": "qua al ", "4937": "sto al ", "4938": "ghiaio ", "4939": "gna un ", "4940": "sto in ", "4941": "ti han ", "4942": "chi ha ", "4943": "dio in ", "4944": "chi al ", "4945": "ch\u2019 un ", "4946": "se\u2019 in ", "4947": "c\u2019 ha\u2019 ", "4948": "gia un ", "4949": "m\u2019 hai ", "4950": "tro al ", "4951": "dria e ", "4952": "glia o ", "4953": "pre \u2019l ", "4954": "ne e \u2019 ", "4955": "cio ed ", "4956": "che \u2019l ", "4957": "tre il ", "4958": "sce in ", "4959": "que al ", "4960": "l\u2019 uom ", "4961": "tra il ", "4962": "gi\u00f9 \u2019l ", "4963": "qua in ", "4964": "ch\u2019 e\u2019 ", "4965": "gno ad ", "4966": "rio in ", "4967": "che al ", "4968": "schiar ", "4969": "c\u2019 han ", "4970": "ti e \u2019 ", "4971": "tra i\u2019 ", "4972": "pra in ", "4973": "zie al ", "4974": "que io ", "4975": "sta \u2019n ", "4976": "pia in ", "4977": "pre a\u2019 ", "4978": "tro io ", "4979": "va e i ", "4980": "chi ei ", "4981": "cia al ", "4982": "c\u2019 hai ", "4983": "sto io ", "4984": "m\u2019 han ", "4985": "gni in ", "4986": "pre al ", "4987": "chia e ", "4988": "vea \u2019l ", "4989": "ch\u2019 or ", "4990": "ch\u2019 el ", "4991": "ch\u00e9 \u2019n ", "4992": "ni e \u2019 ", "4993": "rio il ", "4994": "li ha\u2019 ", "4995": "se uom ", "4996": "st\u2019 ho ", "4997": "na\u2019 il ", "4998": "ci\u00f2 il ", "4999": "stri e ", "5000": "ch\u2019 a\u2019 ", "5001": "pra \u2019l ", "5002": "pria e ", "5003": "tro i\u2019 ", "5004": "gi\u00e0 il ", "5005": "glia \u00e8 ", "5006": "stro \u00e8 ", "5007": "gi\u00e0 \u2019l ", "5008": "ch\u2019 in ", "5009": "tra al ", "5010": "li han ", "5011": "tri \u2019l ", "5012": "gli al ", "5013": "me e \u2019 ", "5014": "que a\u2019 ", "5015": "vra \u2019l ", "5016": "que ad ", "5017": "gue il ", "5018": "mia al ", "5019": "gno in ", "5020": "stro o ", "5021": "tro un ", "5022": "gna a\u2019 ", "5023": "tre i\u2019 ", "5024": "tre un ", "5025": "po e \u2019 ", "5026": "stra e ", "5027": "ch\u2019 i\u2019 ", "5028": "stro e ", "5029": "gna il ", "5030": "ch\u2019 al ", "5031": "bra ad ", "5032": "trio e ", "5033": "ria al ", "5034": "chio \u00e8 ", "5035": "gia il ", "5036": "sta un ", "5037": "sche o ", "5038": "ne han ", "5039": "bre a\u2019 ", "5040": "tra in ", "5041": "gna in ", "5042": "gno al ", "5043": "gro un ", "5044": "ch\u00e9 il ", "5045": "glia a ", "5046": "chi \u2019n ", "5047": "scia e ", "5048": "ci e \u2019l ", "5049": "chio in ", "5050": "me e \u2019l ", "5051": "ra e \u2019l ", "5052": "le e il ", "5053": "ta e \u2019n ", "5054": "ta e \u2019l ", "5055": "glio in ", "5056": "stro in ", "5057": "me e \u2019n ", "5058": "m\u2019 \u00e8 \u2019l ", "5059": "bo e \u2019l ", "5060": "glia il ", "5061": "to o al ", "5062": "te e \u2019l ", "5063": "glio or ", "5064": "glia in ", "5065": "vo e \u2019l ", "5066": "co e \u2019l ", "5067": "lo \u00e8 in ", "5068": "mo e \u2019l ", "5069": "chio al ", "5070": "chio il ", "5071": "ti e \u2019l ", "5072": "be e \u2019l ", "5073": "v\u2019 \u00e8 in ", "5074": "bre e \u2019 ", "5075": "ca e \u2019l ", "5076": "lio e i ", "5077": "ce e \u2019l ", "5078": "ma e \u2019l ", "5079": "la e \u2019l ", "5080": "ga e \u2019l ", "5081": "to e \u2019l ", "5082": "tr\u2019 ier ", "5083": "stra \u2019l ", "5084": "v\u2019 \u00e8 \u2019l ", "5085": "se e \u2019l ", "5086": "dia e i ", "5087": "so e \u2019l ", "5088": "po e \u2019l ", "5089": "chia al ", "5090": "de e \u2019l ", "5091": "re e in ", "5092": "dre e \u2019 ", "5093": "na e \u2019l ", "5094": "chio ha ", "5095": "de e \u2019n ", "5096": "no e \u2019l ", "5097": "zo e \u2019l ", "5098": "glie in ", "5099": "le e \u2019l ", "5100": "do e \u2019n ", "5101": "stro ed ", "5102": "ne e \u2019l ", "5103": "scia il ", "5104": "te e \u2019n ", "5105": "l\u2019 \u00e8 \u2019l ", "5106": "sci\u00f2 il ", "5107": "sa e \u2019l ", "5108": "stri in ", "5109": "glie \u2019l ", "5110": "go \u00e8 in ", "5111": "glio ai ", "5112": "za e \u2019l ", "5113": "to \u00e8 \u2019l ", "5114": "gne uom ", "5115": "schio e ", "5116": "schia e ", "5117": "m\u2019 \u00e8 il ", "5118": "si e \u2019l ", "5119": "ro e \u2019l ", "5120": "stia ad ", "5121": "go e \u2019l ", "5122": "stro or ", "5123": "qu\u2019 ieu ", "5124": "stra il ", "5125": "stro il ", "5126": "mi e \u2019l ", "5127": "che e \u2019 ", "5128": "ch\u2019 uom ", "5129": "va e \u2019n ", "5130": "glia al ", "5131": "va e \u2019l ", "5132": "re e \u2019l ", "5133": "glia un ", "5134": "tra e \u2019 ", "5135": "stie hai ", "5136": "bra e \u2019l ", "5137": "tra e \u2019l ", "5138": "dio \u00e8 \u2019l ", "5139": "chi e \u2019l ", "5140": "bia e \u2019l ", "5141": "to ha \u2019l ", "5142": "v\u2019 ha \u2019l ", "5143": "c\u2019 ha \u2019l ", "5144": "sta e \u2019l ", "5145": "tr\u2019 \u00e8 \u2019l ", "5146": "dio e \u2019l ", "5147": "cia e \u2019l ", "5148": "zie e \u2019l ", "5149": "gli e in ", "5150": "te ha in ", "5151": "sta \u00e8 in ", "5152": "l\u2019 ha in ", "5153": "ch\u2019 \u00e8 in ", "5154": "ria \u00e8 \u2019l ", "5155": "ria e \u2019l ", "5156": "schi uom ", "5157": "s\u2019 i\u2019 \u2019l ", "5158": "dre e \u2019l ", "5159": "st\u2019 \u00e8 \u2019l ", "5160": "sti \u00e8 \u2019l ", "5161": "zio e \u2019l ", "5162": "que e \u2019l ", "5163": "pra e \u2019l ", "5164": "tro e \u2019l ", "5165": "tri e \u2019l ", "5166": "gio e \u2019l ", "5167": "so ha \u2019l ", "5168": "d\u2019 io \u2019l ", "5169": "tre e \u2019l ", "5170": "scia e \u2019l ", "5171": "ch\u2019 i\u2019 \u2019l ", "5172": "glio e \u2019l ", "5173": "chie e \u2019n ", "5174": "chio e \u2019l ", "5175": "stro e \u2019l ", "5176": "chio o \u2019l ", "5177": "ch\u2019 io \u2019l "}