{"0": "", "1": "<v>", "2": "</v>", "3": "<t>", "4": "</t>", "5": "u", "6": "g", "7": "s", "8": "c", "9": "\u00fc", "10": "i", "11": "o", "12": "e", "13": "\u00f2", "14": "\u00e8", "15": "\u00e9", "16": "\u00ef", "17": "v", "18": "a", "19": "za", "20": "vu", "21": "gi", "22": "s\u00ef", "23": "n\u00eb", "24": "vo", "25": "id", "26": "ci", "27": "li", "28": "to", "29": "c\u00fc", "30": "ec", "31": "p\u00fc", "32": "pu", "33": "ul", "34": "v\u00e9", "35": "le", "36": "v\u00eb", "37": "mu", "38": "gu", "39": "cu", "40": "l\u00ef", "41": "nu", "42": "r\u00f3", "43": "ol", "44": "l\u00ec", "45": "ze", "46": "l\u00eb", "47": "ta", "48": "so", "49": "pa", "50": "da", "51": "r\u00e8", "52": "r\u00e0", "53": "un", "54": "ex", "55": "ru", "56": "ve", "57": "d\u00ef", "58": "l\u00f2", "59": "f\u00eb", "60": "sa", "61": "bo", "62": "er", "63": "t\u00e4", "64": "si", "65": "d\u00eb", "66": "op", "67": "no", "68": "\u00f2s", "69": "f\u00e9", "70": "zi", "71": "en", "72": "t\u00ec", "73": "io", "74": "b\u00eb", "75": "ar", "76": "\u00e8v", "77": "eb", "78": "bi", "79": "s\u00eb", "80": "g\u00f3", "81": "p\u00ec", "82": "g\u00fc", "83": "tu", "84": "el", "85": "s\u00f9", "86": "ge", "87": "vi", "88": "co", "89": "hi", "90": "na", "91": "m\u00ef", "92": "r\u00eb", "93": "as", "94": "c\u00f9", "95": "an", "96": "p\u00f2", "97": "d\u00e9", "98": "du", "99": "ie", "100": " u", "101": "m\u00ec", "102": "in", "103": "d\u00e8", "104": "s\u00fc", "105": "t\u00f2", "106": "ne", "107": "ov", "108": "m\u00e8", "109": "b\u00ef", "110": "at", "111": "ur", "112": "lu", "113": "po", "114": "ot", "115": "c\u00ef", "116": "au", "117": "ai", "118": "ae", "119": "v\u00e8", "120": "ra", "121": "fe", "122": "ap", "123": "v\u00f2", "124": "mo", "125": "fo", "126": "do", "127": "zo", "128": "se", "129": "ha", "130": "pi", "131": "av", "132": "iu", "133": "im", "134": "ro", "135": "s\u00e9", "136": "mi", "137": "p\u00eb", "138": "l\u00e0", "139": "z\u00ef", "140": "or", "141": "\u00e8n", "142": "ma", "143": "fu", "144": "ti", "145": "ac", "146": "om", "147": "di", "148": "uo", "149": "l\u00fc", "150": "ef", "151": "g\u00eb", "152": "is", "153": "ga", "154": "me", "155": "et", "156": "fa", "157": "n\u00ef", "158": "n\u00f2", "159": "te", "160": "p\u00e8", "161": "ag", "162": "va", "163": "c\u00eb", "164": "ri", "165": "af", "166": "be", "167": "ba", "168": "uc", "169": "qu", "170": "v\u00ef", "171": "ca", "172": "m\u00eb", "173": "oc", "174": "t\u00eb", "175": "s\u00f2", "176": "ab", "177": "am", "178": "c\u00ec", "179": "ob", "180": "of", "181": "az", "182": "eu", "183": "es", "184": "em", "185": "ad", "186": "n\u00e8", "187": "ho", "188": "ni", "189": "ce", "190": "m\u00e4", "191": "os", "192": "g\u00e8", "193": "al", "194": "d\u00fc", "195": "t\u00ef", "196": "f\u00f3", "197": "t\u00fc", "198": "n\u00fc", "199": "pe", "200": "l\u00f6", "201": "re", "202": "lo", "203": "de", "204": "go", "205": "s\u00e0", "206": "f\u00ef", "207": "il", "208": "bu", "209": "l\u00e8", "210": "xi", "211": "su", "212": "og", "213": "on", "214": "t\u00e8", "215": "la", "216": "p\u00ef", "217": "r\u00ef", "218": "ia", "219": "fi", "220": "g\u00ef", "221": "gor", "222": "tol", "223": "bil", "224": "nir", "225": "piu", "226": "nie", "227": "sca", "228": "vul", "229": "dol", "230": "cea", "231": "lem", "232": "gim", "233": "cil", "234": "red", "235": "duo", "236": "nac", "237": "fla", "238": "gil", "239": "rar", "240": "gad", "241": "zar", "242": "pes", "243": "fet", "244": "ple", "245": "dov", "246": "gal", "247": "vol", "248": "dea", "249": "luc", "250": "nor", "251": "cla", "252": "gol", "253": "qui", "254": "ger", "255": "ben", "256": "var", "257": "lus", "258": "leo", "259": "sve", "260": "bis", "261": "vuo", "262": "br\u00ef", "263": "mon", "264": "bia", "265": "ver", "266": "lac", "267": "rav", "268": "rol", "269": "sam", "270": "seg", "271": "sce", "272": "pan", "273": "nom", "274": "get", "275": "mot", "276": "nez", "277": "sga", "278": "pom", "279": "gaz", "280": "tem", "281": "pie", "282": "nun", "283": "tag", "284": "vam", "285": "sac", "286": "vor", "287": "deg", "288": "pon", "289": "tat", "290": "sia", "291": "cem", "292": "teg", "293": "feb", "294": "tun", "295": "rat", "296": "pot", "297": "sod", "298": "rin", "299": "luz", "300": "cul", "301": "vei", "302": "spu", "303": "paz", "304": "plo", "305": "soz", "306": "sez", "307": "zaf", "308": "mar", "309": "ric", "310": "dul", "311": "mez", "312": "nas", "313": "svi", "314": "sot", "315": "o u", "316": "loc", "317": "nar", "318": "sic", "319": "ruf", "320": "gnu", "321": "bom", "322": "lai", "323": "nis", "324": "tam", "325": "tim", "326": "zon", "327": "maz", "328": "sma", "329": "sep", "330": "fle", "331": "cir", "332": "moz", "333": "o a", "334": "cle", "335": "e u", "336": "tre", "337": "but", "338": "mat", "339": "len", "340": "bra", "341": "poz", "342": "dio", "343": "tel", "344": "piz", "345": "toc", "346": "for", "347": "fos", "348": "flu", "349": "dur", "350": "fia", "351": "vat", "352": "vid", "353": "ter", "354": "fuo", "355": "gam", "356": "lot", "357": "pig", "358": "sog", "359": "bre", "360": "fam", "361": "rig", "362": "fas", "363": "bea", "364": "stu", "365": "vin", "366": "pis", "367": "dus", "368": "det", "369": "man", "370": "t\u00f2m", "371": "not", "372": "pra", "373": "jau", "374": "smo", "375": "boz", "376": "sto", "377": "mem", "378": "guz", "379": "meg", "380": "rof", "381": "rid", "382": "lor", "383": "mag", "384": "fin", "385": "sna", "386": "dut", "387": "ch\u00ef", "388": "run", "389": "laz", "390": "tes", "391": "rem", "392": "sap", "393": "lul", "394": "cre", "395": "top", "396": "gom", "397": "bac", "398": "vie", "399": "diz", "400": "rap", "401": "dec", "402": "vem", "403": "cui", "404": "bal", "405": "gra", "406": "can", "407": "sob", "408": "ros", "409": "con", "410": "dez", "411": "cas", "412": "cic", "413": "fom", "414": "sis", "415": "vil", "416": "a u", "417": "lil", "418": "roc", "419": "mil", "420": "neg", "421": "spo", "422": "mam", "423": "sov", "424": "mia", "425": "rac", "426": "dro", "427": "pel", "428": "til", "429": "mug", "430": "smu", "431": "lea", "432": "pir", "433": "que", "434": "ren", "435": "c\u00f3l", "436": "v\u00f2l", "437": "pul", "438": "zio", "439": "cie", "440": "tic", "441": "ruo", "442": "nag", "443": "smi", "444": "tad", "445": "gel", "446": "pap", "447": "sc\u00ef", "448": "pau", "449": "fig", "450": "ban", "451": "fun", "452": "pur", "453": "pin", "454": "sie", "455": "bet", "456": "lau", "457": "val", "458": "fru", "459": "buo", "460": "spe", "461": "lic", "462": "veg", "463": "m\u00e9z", "464": "cl\u00ef", "465": "vet", "466": "nil", "467": "lin", "468": "nul", "469": "bui", "470": "ria", "471": "ret", "472": "rea", "473": "ian", "474": "cli", "475": "zac", "476": "biz", "477": "raz", "478": "pal", "479": "fol", "480": "noc", "481": "dit", "482": "fib", "483": "pli", "484": "mir", "485": "com", "486": "cri", "487": "bio", "488": "pro", "489": "dis", "490": "gob", "491": "got", "492": "cra", "493": "muf", "494": "pas", "495": "bli", "496": "lut", "497": "fug", "498": "sde", "499": "sor", "500": "put", "501": "zuc", "502": "dru", "503": "lis", "504": "lel", "505": "ran", "506": "han", "507": "rez", "508": "gat", "509": "sfa", "510": "peg", "511": "net", "512": "e a", "513": "chi", "514": "lom", "515": "dir", "516": "guc", "517": "cun", "518": "gon", "519": "pio", "520": "zel", "521": "cia", "522": "feg", "523": "coz", "524": "ste", "525": "nec", "526": "gib", "527": "bat", "528": "c\u00e9r", "529": "suf", "530": "bin", "531": "gue", "532": "bas", "533": "sag", "534": "gas", "535": "rot", "536": "cag", "537": "rie", "538": "lip", "539": "dem", "540": "pog", "541": "sup", "542": "din", "543": "gia", "544": "st\u00ef", "545": "muo", "546": "fre", "547": "rim", "548": "ghe", "549": "vag", "550": "sba", "551": "mor", "552": "fac", "553": "dot", "554": "nal", "555": "nin", "556": "tar", "557": "mel", "558": "dop", "559": "riz", "560": "puc", "561": "sop", "562": "fie", "563": "nea", "564": "p\u00f2s", "565": "ten", "566": "lur", "567": "soc", "568": "fon", "569": "clu", "570": "gli", "571": "par", "572": "lit", "573": "bro", "574": "fab", "575": "tos", "576": "lie", "577": "fer", "578": "ior", "579": "cat", "580": "lam", "581": "nol", "582": "tas", "583": "rut", "584": "zuf", "585": "sfo", "586": "pun", "587": "viz", "588": "cez", "589": "dam", "590": "sit", "591": "tle", "592": "dat", "593": "dra", "594": "pre", "595": "rir", "596": "don", "597": "mas", "598": "die", "599": "gab", "600": "col", "601": "coc", "602": "sos", "603": "suc", "604": "dub", "605": "nim", "606": "cuo", "607": "sar", "608": "mer", "609": "tra", "610": "gna", "611": "xil", "612": "cro", "613": "p\u00e0r", "614": "tan", "615": "lav", "616": "sel", "617": "sp\u00ef", "618": "bec", "619": "ven", "620": "goz", "621": "fen", "622": "hon", "623": "pac", "624": "lon", "625": "sv\u00ef", "626": "gre", "627": "tie", "628": "pl\u00ec", "629": "mie", "630": "dr\u00ef", "631": "sen", "632": "ciu", "633": "sci", "634": "bar", "635": "ier", "636": "sco", "637": "sum", "638": "gis", "639": "fiu", "640": "sti", "641": "raf", "642": "sun", "643": "mes", "644": "scu", "645": "pi\u00e9", "646": "lep", "647": "nef", "648": "rob", "649": "cep", "650": "pub", "651": "muc", "652": "pru", "653": "cet", "654": "dal", "655": "nob", "656": "t\u00f2r", "657": "dor", "658": "ras", "659": "mul", "660": "cau", "661": "bru", "662": "fum", "663": "fio", "664": "nuc", "665": "spi", "666": "plu", "667": "met", "668": "pri", "669": "dau", "670": "bol", "671": "zan", "672": "nes", "673": "qua", "674": "cob", "675": "cr\u00e0", "676": "gne", "677": "van", "678": "pec", "679": "min", "680": "tac", "681": "bor", "682": "tom", "683": "ces", "684": "von", "685": "tur", "686": "sal", "687": "bur", "688": "tin", "689": "sem", "690": "sla", "691": "del", "692": "gan", "693": "fis", "694": "geo", "695": "gru", "696": "leb", "697": "dei", "698": "ram", "699": "tuo", "700": "mos", "701": "dob", "702": "rel", "703": "suo", "704": "ful", "705": "ruc", "706": "tet", "707": "tuf", "708": "lop", "709": "sfe", "710": "cel", "711": "vas", "712": "fal", "713": "sof", "714": "vez", "715": "zur", "716": "gea", "717": "sme", "718": "son", "719": "nig", "720": "sud", "721": "vis", "722": "buc", "723": "tut", "724": "dug", "725": "svo", "726": "cad", "727": "bot", "728": "lap", "729": "ch\u00ec", "730": "sra", "731": "bev", "732": "cuc", "733": "dri", "734": "roz", "735": "bel", "736": "tru", "737": "sol", "738": "dil", "739": "lun", "740": "fuc", "741": "rom", "742": "ves", "743": "gni", "744": "o i", "745": "gua", "746": "mac", "747": "cop", "748": "pia", "749": "lup", "750": "sno", "751": "vac", "752": "sec", "753": "iep", "754": "fel", "755": "bug", "756": "cio", "757": "cac", "758": "lez", "759": "tuc", "760": "der", "761": "cum", "762": "nic", "763": "buf", "764": "men", "765": "cur", "766": "sta", "767": "bul", "768": "gri", "769": "fic", "770": "ser", "771": "sin", "772": "bef", "773": "dom", "774": "pen", "775": "ges", "776": "mur", "777": "noz", "778": "dif", "779": "sub", "780": "res", "781": "nio", "782": "ron", "783": "dic", "784": "ris", "785": "sle", "786": "fur", "787": "bie", "788": "rit", "789": "pos", "790": "leg", "791": "giu", "792": "fog", "793": "gio", "794": "sio", "795": "cot", "796": "giz", "797": "dar", "798": "gie", "799": "tor", "800": "tir", "801": "ial", "802": "sas", "803": "bon", "804": "quo", "805": "o e", "806": "lir", "807": "tec", "808": "rio", "809": "sab", "810": "ner", "811": "dim", "812": "fri", "813": "tal", "814": "rug", "815": "guo", "816": "rag", "817": "pat", "818": "nev", "819": "dre", "820": "luo", "821": "fat", "822": "iat", "823": "san", "824": "zia", "825": "nen", "826": "non", "827": "ler", "828": "set", "829": "poc", "830": "clo", "831": "fra", "832": "gur", "833": "pol", "834": "bl\u00ef", "835": "saf", "836": "puz", "837": "cen", "838": "fan", "839": "ril", "840": "gir", "841": "rup", "842": "nur", "843": "ber", "844": "tis", "845": "tri", "846": "gui", "847": "qu\u00ef", "848": "pet", "849": "rog", "850": "ral", "851": "cos", "852": "f\u00e9l", "853": "bun", "854": "bab", "855": "goc", "856": "let", "857": "lia", "858": "vom", "859": "dr\u00e4", "860": "pit", "861": "fit", "862": "per", "863": "cer", "864": "den", "865": "fes", "866": "neb", "867": "das", "868": "reg", "869": "gem", "870": "nuo", "871": "boc", "872": "gar", "873": "gag", "874": "mic", "875": "tau", "876": "cov", "877": "gno", "878": "far", "879": "ghi", "880": "bri", "881": "dan", "882": "lim", "883": "tez", "884": "las", "885": "sat", "886": "tho", "887": "nat", "888": "nem", "889": "cin", "890": "lab", "891": "che", "892": "sur", "893": "cru", "894": "ses", "895": "doc", "896": "sug", "897": "gau", "898": "sus", "899": "tea", "900": "caf", "901": "vec", "902": "f\u00e0c", "903": "pop", "904": "des", "905": "mol", "906": "tr\u00ef", "907": "r\u00e8g", "908": "niz", "909": "sgo", "910": "a a", "911": "fro", "912": "spa", "913": "lat", "914": "cam", "915": "rec", "916": "reb", "917": "sil", "918": "deb", "919": "sbi", "920": "sr\u00e4", "921": "pla", "922": "gen", "923": "lan", "924": "iar", "925": "git", "926": "rab", "927": "pic", "928": "ton", "929": "cit", "930": "mal", "931": "por", "932": "cef", "933": "mun", "934": "m\u00e8c", "935": "tro", "936": "puo", "937": "pil", "938": "vir", "939": "som", "940": "car", "941": "lar", "942": "nia", "943": "lec", "944": "dos", "945": "nan", "946": "vit", "947": "vel", "948": "glo", "949": "pue", "950": "cap", "951": "cal", "952": "dia", "953": "cor", "954": "les", "955": "fem", "956": "mai", "957": "dun", "958": "lui", "959": "cis", "960": "nel", "961": "sfre", "962": "clas", "963": "pren", "964": "s\u00ec u", "965": "s\u00ec a", "966": "dran", "967": "tron", "968": "de e", "969": "prez", "970": "la i", "971": "na i", "972": "o al", "973": "do o", "974": "ti u", "975": "le a", "976": "ni u", "977": "egyp", "978": "scir", "979": "slac", "980": "mi u", "981": "io a", "982": "va e", "983": "pruo", "984": "ghia", "985": "sber", "986": "so e", "987": "gi e", "988": "da e", "989": "piac", "990": "troc", "991": "gnuo", "992": "spie", "993": "guer", "994": "guaz", "995": "vi o", "996": "quen", "997": "la a", "998": "ro a", "999": "sbri", "1000": "s\u2019 o", "1001": "mi o", "1002": "scos", "1003": "spen", "1004": "scam", "1005": "si i", "1006": "spir", "1007": "trat", "1008": "va a", "1009": "ca u", "1010": "bo i", "1011": "sfat", "1012": "guef", "1013": "spor", "1014": "sven", "1015": "va u", "1016": "flig", "1017": "driz", "1018": "cheg", "1019": "vi e", "1020": "ciuf", "1021": "brac", "1022": "crea", "1023": "pi e", "1024": "quer", "1025": "la u", "1026": "go e", "1027": "c\u2019 \u00ef", "1028": "tu i", "1029": "te o", "1030": "cias", "1031": "guil", "1032": "d\u2019 o", "1033": "se e", "1034": "sgri", "1035": "scer", "1036": "ciap", "1037": "stig", "1038": "be o", "1039": "r\u00ec u", "1040": "plan", "1041": "svel", "1042": "lev\u00e4", "1043": "stis", "1044": "ne e", "1045": "m\u2019 i", "1046": "z\u2019 o", "1047": "va i", "1048": "gial", "1049": "me o", "1050": "sfin", "1051": "stel", "1052": "scov", "1053": "te e", "1054": "se \u00eb", "1055": "guar", "1056": "o av", "1057": "stal", "1058": "na e", "1059": "d\u2019 a", "1060": "sgor", "1061": "sa a", "1062": "tren", "1063": "quel", "1064": "po u", "1065": "grot", "1066": "a ac", "1067": "squa", "1068": "guel", "1069": "sfio", "1070": "a es", "1071": "gnor", "1072": "m\u2019 a", "1073": "a ef", "1074": "scim", "1075": "be e", "1076": "tiem", "1077": "lo a", "1078": "giug", "1079": "d\u2019 i", "1080": "sfac", "1081": "scri", "1082": "stro", "1083": "fian", "1084": "scio", "1085": "co e", "1086": "piog", "1087": "stiz", "1088": "pros", "1089": "greg", "1090": "stuo", "1091": "pe e", "1092": "grap", "1093": "vi a", "1094": "ni e", "1095": "zo e", "1096": "zi u", "1097": "ciel", "1098": "stol", "1099": "tran", "1100": "qual", "1101": "spro", "1102": "gnie", "1103": "grat", "1104": "t\u2019 e", "1105": "ve a", "1106": "tu e", "1107": "ni a", "1108": "grom", "1109": "ci a", "1110": "sneb", "1111": "ster", "1112": "do a", "1113": "t\u2019 o", "1114": "giun", "1115": "trec", "1116": "stul", "1117": "trap", "1118": "sfan", "1119": "scal", "1120": "ciom", "1121": "da o", "1122": "quil", "1123": "re a", "1124": "be i", "1125": "stri", "1126": "quar", "1127": "scia", "1128": "spin", "1129": "fiac", "1130": "so u", "1131": "bran", "1132": "gnas", "1133": "di e", "1134": "so a", "1135": "pien", "1136": "biac", "1137": "tram", "1138": "ro u", "1139": "ne a", "1140": "sbra", "1141": "ra u", "1142": "se o", "1143": "giac", "1144": "gnaz", "1145": "scon", "1146": "da u", "1147": "str\u00e0", "1148": "spel", "1149": "zi o", "1150": "dien", "1151": "co a", "1152": "prie", "1153": "ge a", "1154": "n\u2019 a", "1155": "mo a", "1156": "brie", "1157": "zo a", "1158": "spia", "1159": "trag", "1160": "me e", "1161": "se i", "1162": "g\u2019 \u00ef", "1163": "gros", "1164": "cruc", "1165": "star", "1166": "ghie", "1167": "se u", "1168": "sgan", "1169": "buon", "1170": "gheg", "1171": "scel", "1172": "blan", "1173": "spal", "1174": "stil", "1175": "tier", "1176": "pa e", "1177": "quan", "1178": "pron", "1179": "gnar", "1180": "pier", "1181": "ve i", "1182": "ri e", "1183": "stru", "1184": "\u00e8 in", "1185": "v\u2019 o", "1186": "scre", "1187": "a in", "1188": "snel", "1189": "pe i", "1190": "viem", "1191": "be u", "1192": "me a", "1193": "sa u", "1194": "fles", "1195": "tror", "1196": "pris", "1197": "pres", "1198": "li a", "1199": "cian", "1200": "ciar", "1201": "mian", "1202": "no o", "1203": "ve u", "1204": "chio", "1205": "spet", "1206": "s\u00ec o", "1207": "quin", "1208": "n\u2019 e", "1209": "giam", "1210": "zi e", "1211": "stio", "1212": "spit", "1213": "crol", "1214": "d\u2019 e", "1215": "l\u2019 a", "1216": "dhae", "1217": "ro i", "1218": "trie", "1219": "scuo", "1220": "gram", "1221": "za a", "1222": "stia", "1223": "grie", "1224": "mo e", "1225": "spon", "1226": "gnan", "1227": "tu a", "1228": "t\u2019 u", "1229": "scop", "1230": "de o", "1231": "flet", "1232": "sman", "1233": "scaz", "1234": "no e", "1235": "giuo", "1236": "bris", "1237": "ciot", "1238": "bi a", "1239": "smen", "1240": "ciuo", "1241": "sa o", "1242": "mo u", "1243": "pric", "1244": "grez", "1245": "chez", "1246": "spez", "1247": "ze e", "1248": "le e", "1249": "sten", "1250": "vuol", "1251": "gian", "1252": "scot", "1253": "ghet", "1254": "lo e", "1255": "fior", "1256": "stas", "1257": "quat", "1258": "scic", "1259": "stes", "1260": "stop", "1261": "ce o", "1262": "gi u", "1263": "stam", "1264": "flit", "1265": "ci e", "1266": "glio", "1267": "te a", "1268": "e in", "1269": "guet", "1270": "gnen", "1271": "sfer", "1272": "stem", "1273": "sdru", "1274": "piat", "1275": "drit", "1276": "fron", "1277": "da i", "1278": "ne o", "1279": "d\u2019 \u00eb", "1280": "ples", "1281": "s\u00ec i", "1282": "spuo", "1283": "scet", "1284": "ga o", "1285": "gron", "1286": "po e", "1287": "li o", "1288": "scar", "1289": "stin", "1290": "scol", "1291": "trop", "1292": "\u00e8 im", "1293": "so i", "1294": "za u", "1295": "cher", "1296": "do u", "1297": "mo o", "1298": "li \u2019", "1299": "to u", "1300": "da a", "1301": "re e", "1302": "ta o", "1303": "stre", "1304": "li u", "1305": "be a", "1306": "scie", "1307": "m\u2019 o", "1308": "scac", "1309": "l\u2019 e", "1310": "de a", "1311": "co u", "1312": "ce i", "1313": "la o", "1314": "pria", "1315": "cric", "1316": "v\u2019 e", "1317": "no u", "1318": "ma o", "1319": "chis", "1320": "na o", "1321": "lo u", "1322": "so o", "1323": "piov", "1324": "sbar", "1325": "a al", "1326": "ti i", "1327": "guag", "1328": "de i", "1329": "sver", "1330": "ghel", "1331": "pi i", "1332": "spes", "1333": "pa u", "1334": "puol", "1335": "nian", "1336": "fiot", "1337": "le o", "1338": "le u", "1339": "ga e", "1340": "s\u2019 e", "1341": "po o", "1342": "ghez", "1343": "brug", "1344": "smoz", "1345": "n\u2019 o", "1346": "scan", "1347": "no i", "1348": "fran", "1349": "stuc", "1350": "dies", "1351": "si e", "1352": "stie", "1353": "r\u2019 o", "1354": "sche", "1355": "re i", "1356": "scom", "1357": "co o", "1358": "trac", "1359": "scro", "1360": "ti a", "1361": "pian", "1362": "ziar", "1363": "guit", "1364": "trul", "1365": "ciul", "1366": "gnem", "1367": "me i", "1368": "brol", "1369": "di u", "1370": "smon", "1371": "guan", "1372": "sfar", "1373": "p\u2019 e", "1374": "glie", "1375": "chiu", "1376": "schi", "1377": "s\u2019 \u00ef", "1378": "se a", "1379": "sfam", "1380": "go a", "1381": "dier", "1382": "s\u2019 a", "1383": "sdet", "1384": "na u", "1385": "prin", "1386": "trar", "1387": "d\u2019 u", "1388": "puos", "1389": "ta u", "1390": "za i", "1391": "truo", "1392": "t\u2019 a", "1393": "dian", "1394": "ci u", "1395": "chet", "1396": "biet", "1397": "spre", "1398": "c\u2019 e", "1399": "ca e", "1400": "gioi", "1401": "di i", "1402": "ie a", "1403": "ma a", "1404": "ra o", "1405": "va o", "1406": "proc", "1407": "na a", "1408": "ghio", "1409": "di a", "1410": "clis", "1411": "gres", "1412": "ra e", "1413": "guir", "1414": "ne u", "1415": "trom", "1416": "dria", "1417": "gran", "1418": "chil", "1419": "gien", "1420": "pran", "1421": "o ar", "1422": "frut", "1423": "vo o", "1424": "dras", "1425": "stra", "1426": "smal", "1427": "puom", "1428": "ro o", "1429": "glet", "1430": "io e", "1431": "piag", "1432": "bo a", "1433": "fioc", "1434": "no a", "1435": "ge o", "1436": "graf", "1437": "gner", "1438": "ghil", "1439": "spun", "1440": "guic", "1441": "quis", "1442": "bo e", "1443": "ti o", "1444": "smor", "1445": "fa i", "1446": "scuf", "1447": "gnon", "1448": "ghes", "1449": "scor", "1450": "tret", "1451": "squi", "1452": "io u", "1453": "tras", "1454": "brez", "1455": "stor", "1456": "di o", "1457": "gras", "1458": "scev", "1459": "bion", "1460": "ma e", "1461": "l\u2019 i", "1462": "chie", "1463": "ma u", "1464": "li e", "1465": "liev", "1466": "spec", "1467": "z\u2019 i", "1468": "ra i", "1469": "z\u2019 a", "1470": "te i", "1471": "r\u2019 u", "1472": "sden", "1473": "mi e", "1474": "\u00e8 on", "1475": "ce e", "1476": "bias", "1477": "l\u2019 o", "1478": "fred", "1479": "scis", "1480": "za o", "1481": "vien", "1482": "prir", "1483": "sper", "1484": "bian", "1485": "guiz", "1486": "ta i", "1487": "ci o", "1488": "s\u2019 u", "1489": "spol", "1490": "broc", "1491": "giar", "1492": "le i", "1493": "fret", "1494": "do i", "1495": "dram", "1496": "si a", "1497": "frat", "1498": "s\u2019 i", "1499": "stav", "1500": "scen", "1501": "sfor", "1502": "piez", "1503": "cien", "1504": "piom", "1505": "do e", "1506": "brut", "1507": "l\u2019 \u00f2", "1508": "sgra", "1509": "l\u00ec e", "1510": "sgom", "1511": "ca o", "1512": "treb", "1513": "ce u", "1514": "cras", "1515": "to o", "1516": "sciu", "1517": "lo o", "1518": "stet", "1519": "gior", "1520": "to e", "1521": "ce a", "1522": "trot", "1523": "l\u2019 u", "1524": "cioc", "1525": "plau", "1526": "ciac", "1527": "ra a", "1528": "bren", "1529": "brot", "1530": "gher", "1531": "n\u2019 u", "1532": "m\u00e8 a", "1533": "to i", "1534": "scem", "1535": "re o", "1536": "spic", "1537": "span", "1538": "scab", "1539": "grop", "1540": "zian", "1541": "pi a", "1542": "m\u2019 e", "1543": "tien", "1544": "ri u", "1545": "mo i", "1546": "clau", "1547": "scin", "1548": "po a", "1549": "ze o", "1550": "glau", "1551": "ghir", "1552": "gnel", "1553": "re u", "1554": "chia", "1555": "stan", "1556": "glia", "1557": "spaz", "1558": "brul", "1559": "fiam", "1560": "c\u2019 o", "1561": "grep", "1562": "ca a", "1563": "l\u00ec a", "1564": "spar", "1565": "giot", "1566": "de u", "1567": "ta a", "1568": "si o", "1569": "te u", "1570": "sban", "1571": "ni o", "1572": "a am", "1573": "d\u2019 \u00ef", "1574": "v\u2019 a", "1575": "to a", "1576": "scoc", "1577": "stec", "1578": "la e", "1579": "ta e", "1580": "si u", "1581": "drap", "1582": "grem", "1583": "gias", "1584": "bron", "1585": "e \u2019n", "1586": "guen", "1587": "gual", "1588": "me u", "1589": "ro e", "1590": "cion", "1591": "ti e", "1592": "sa e", "1593": "smar", "1594": "creb", "1595": "re at", "1596": "do in", "1597": "ro im", "1598": "l\u2019 ae", "1599": "d\u2019 el", "1600": "spran", "1601": "ni in", "1602": "sgiun", "1603": "co an", "1604": "ti am", "1605": "c\u2019 en", "1606": "di of", "1607": "me am", "1608": "ra ec", "1609": "ne \u2019m", "1610": "sti a", "1611": "mo an", "1612": "l\u2019 en", "1613": "m\u2019 ap", "1614": "ci al", "1615": "dio a", "1616": "to in", "1617": "no et", "1618": "ce ac", "1619": "mo eb", "1620": "na on", "1621": "lo av", "1622": "tra u", "1623": "me ef", "1624": "lo ef", "1625": "ce as", "1626": "ne ap", "1627": "de al", "1628": "d\u2019 om", "1629": "ria \u00f2", "1630": "ni am", "1631": "fu im", "1632": "t\u2019 om", "1633": "z\u00f2 in", "1634": "li ar", "1635": "ch\u2019 o", "1636": "schet", "1637": "li in", "1638": "vi as", "1639": "ra in", "1640": "mo ar", "1641": "be ar", "1642": "ro al", "1643": "va id", "1644": "d\u2019 oc", "1645": "gne a", "1646": "me an", "1647": "ra al", "1648": "se \u2019n", "1649": "ba un", "1650": "dea u", "1651": "so of", "1652": "tra e", "1653": "mo of", "1654": "chiar", "1655": "lo il", "1656": "s\u2019 ac", "1657": "la \u2019n", "1658": "no au", "1659": "ta es", "1660": "de ac", "1661": "squil", "1662": "li eb", "1663": "te ol", "1664": "p\u00e8 al", "1665": "vi in", "1666": "pr\u2019 e", "1667": "sa im", "1668": "re il", "1669": "to on", "1670": "do ac", "1671": "t\u2019 al", "1672": "chi u", "1673": "triar", "1674": "le an", "1675": "tio i", "1676": "ra ad", "1677": "de ap", "1678": "s\u00ec \u2019m", "1679": "li et", "1680": "re oc", "1681": "l\u2019 ag", "1682": "spiac", "1683": "hi om", "1684": "ge an", "1685": "scheg", "1686": "l\u2019 im", "1687": "gne u", "1688": "lo of", "1689": "na ac", "1690": "d\u2019 ap", "1691": "li \u2019m", "1692": "ce ne", "1693": "to es", "1694": "ro um", "1695": "mo im", "1696": "l\u2019 av", "1697": "za am", "1698": "mo al", "1699": "to ap", "1700": "l\u2019 ot", "1701": "t\u2019 ac", "1702": "re in", "1703": "d\u2019 os", "1704": "di im", "1705": "le or", "1706": "ghien", "1707": "ti in", "1708": "sco o", "1709": "ve ap", "1710": "mo ac", "1711": "lia a", "1712": "li em", "1713": "ve ar", "1714": "ca en", "1715": "ci as", "1716": "s\u2019 os", "1717": "vi \u2019m", "1718": "si an", "1719": "le ol", "1720": "va im", "1721": "zia e", "1722": "li ap", "1723": "s\u2019 ar", "1724": "mi in", "1725": "cea u", "1726": "glian", "1727": "de of", "1728": "tro u", "1729": "stram", "1730": "so es", "1731": "scian", "1732": "ma an", "1733": "te iu", "1734": "so ad", "1735": "ger e", "1736": "l\u2019 au", "1737": "ra el", "1738": "re ot", "1739": "pie e", "1740": "strat", "1741": "ve al", "1742": "to ol", "1743": "ra ac", "1744": "di og", "1745": "to al", "1746": "ti ac", "1747": "ne af", "1748": "li av", "1749": "di az", "1750": "ti an", "1751": "go al", "1752": "cia a", "1753": "l\u2019 em", "1754": "ta of", "1755": "l\u2019 ul", "1756": "ca in", "1757": "vi ar", "1758": "to ab", "1759": "s\u2019 in", "1760": "la ol", "1761": "ca an", "1762": "co on", "1763": "n\u2019 ag", "1764": "re es", "1765": "ma of", "1766": "lo ac", "1767": "scioc", "1768": "bo av", "1769": "sta a", "1770": "te al", "1771": "ra as", "1772": "co al", "1773": "li on", "1774": "to et", "1775": "sto e", "1776": "chioc", "1777": "sci\u00e0n", "1778": "b\u2019 es", "1779": "co in", "1780": "re en", "1781": "n\u2019 er", "1782": "n\u2019 am", "1783": "m\u2019 im", "1784": "m\u2019 of", "1785": "vi on", "1786": "n\u2019 ab", "1787": "va \u2019n", "1788": "sciut", "1789": "lo \u2019n", "1790": "t\u2019 an", "1791": "me ac", "1792": "sciol", "1793": "d\u2019 am", "1794": "tr\u2019 a", "1795": "va eb", "1796": "ne es", "1797": "to im", "1798": "te in", "1799": "te or", "1800": "zia o", "1801": "ri ap", "1802": "t\u2019 im", "1803": "ti en", "1804": "sa ap", "1805": "s\u2019 ap", "1806": "do es", "1807": "se ap", "1808": "ce in", "1809": "n\u2019 ap", "1810": "rio a", "1811": "li om", "1812": "lo es", "1813": "sbe a", "1814": "de af", "1815": "te ab", "1816": "do ol", "1817": "ma \u2019n", "1818": "s\u2019 ag", "1819": "sguar", "1820": "si as", "1821": "co at", "1822": "d\u2019 on", "1823": "na av", "1824": "sgrie", "1825": "na ap", "1826": "mo ol", "1827": "to at", "1828": "dio i", "1829": "ta ac", "1830": "ci ad", "1831": "ze es", "1832": "ve oc", "1833": "se un", "1834": "v\u2019 an", "1835": "si er", "1836": "zi as", "1837": "s\u00ec \u2019n", "1838": "di ac", "1839": "la an", "1840": "t\u2019 el", "1841": "bra u", "1842": "re an", "1843": "so on", "1844": "s\u2019 en", "1845": "ti \u2019m", "1846": "ma or", "1847": "co er", "1848": "dio e", "1849": "le ar", "1850": "que o", "1851": "re ol", "1852": "pra a", "1853": "la av", "1854": "ci ap", "1855": "re om", "1856": "no ab", "1857": "li as", "1858": "tro o", "1859": "di in", "1860": "no ad", "1861": "ri ar", "1862": "le \u2019n", "1863": "r\u2019 an", "1864": "ma in", "1865": "ta at", "1866": "d\u2019 au", "1867": "n\u2019 at", "1868": "mi\u2019 a", "1869": "mi an", "1870": "qu\u2019 e", "1871": "do ar", "1872": "no om", "1873": "vi al", "1874": "n\u2019 ac", "1875": "le al", "1876": "ti as", "1877": "lo on", "1878": "tra i", "1879": "ta as", "1880": "l\u2019 am", "1881": "de on", "1882": "mi ad", "1883": "s\u2019 er", "1884": "n\u2019 an", "1885": "li ul", "1886": "ne et", "1887": "mo or", "1888": "stric", "1889": "d\u2019 ab", "1890": "stroc", "1891": "ro eb", "1892": "co ac", "1893": "fu ap", "1894": "m\u2019 ad", "1895": "si of", "1896": "no an", "1897": "chian", "1898": "sta e", "1899": "fo et", "1900": "la al", "1901": "pi in", "1902": "zo in", "1903": "ha al", "1904": "le of", "1905": "l\u2019 et", "1906": "ta im", "1907": "le id", "1908": "sciar", "1909": "ra ap", "1910": "che e", "1911": "d\u2019 en", "1912": "l\u2019 ef", "1913": "sfran", "1914": "re av", "1915": "di av", "1916": "fo im", "1917": "si og", "1918": "schia", "1919": "l\u2019 ap", "1920": "ci or", "1921": "l\u2019 er", "1922": "m\u2019 av", "1923": "te er", "1924": "mo on", "1925": "si im", "1926": "za et", "1927": "ri an", "1928": "ha \u2019n", "1929": "gna a", "1930": "ta op", "1931": "so ar", "1932": "que u", "1933": "re am", "1934": "ro of", "1935": "ta in", "1936": "chiap", "1937": "dio o", "1938": "la or", "1939": "ne ar", "1940": "m\u2019 ar", "1941": "no im", "1942": "ci \u2019n", "1943": "cia o", "1944": "di or", "1945": "sa on", "1946": "do al", "1947": "no \u2019n", "1948": "pa in", "1949": "li at", "1950": "le am", "1951": "no af", "1952": "ta am", "1953": "l\u2019 in", "1954": "gli u", "1955": "so ap", "1956": "ro on", "1957": "ra am", "1958": "ra an", "1959": "scrit", "1960": "no es", "1961": "to af", "1962": "ta om", "1963": "l\u00ec en", "1964": "sa og", "1965": "te im", "1966": "te \u2019n", "1967": "li un", "1968": "za im", "1969": "ra im", "1970": "ro ap", "1971": "sciam", "1972": "le as", "1973": "zi ap", "1974": "si am", "1975": "t\u2019 ag", "1976": "cro a", "1977": "splen", "1978": "do an", "1979": "s\u2019 el", "1980": "lo at", "1981": "te om", "1982": "si ad", "1983": "sce a", "1984": "gliet", "1985": "po ar", "1986": "tri a", "1987": "strac", "1988": "va ar", "1989": "do on", "1990": "se ac", "1991": "d\u2019 er", "1992": "va in", "1993": "leo e", "1994": "ci an", "1995": "re on", "1996": "no am", "1997": "s\u2019 ab", "1998": "ne av", "1999": "se es", "2000": "r\u2019 es", "2001": "strug", "2002": "ce au", "2003": "ne im", "2004": "l\u2019 op", "2005": "ga in", "2006": "va at", "2007": "ti oc", "2008": "ta eu", "2009": "\u2019v\u2019 e", "2010": "ga an", "2011": "s\u2019 al", "2012": "v\u2019 ab", "2013": "ne in", "2014": "sta o", "2015": "r\u2019 el", "2016": "d\u2019 ot", "2017": "re im", "2018": "t\u00e0 in", "2019": "ve at", "2020": "che a", "2021": "d\u2019 im", "2022": "na at", "2023": "ri on", "2024": "gia o", "2025": "li er", "2026": "no ar", "2027": "so en", "2028": "l\u2019 ab", "2029": "re em", "2030": "to eb", "2031": "me au", "2032": "lo ar", "2033": "di ad", "2034": "be as", "2035": "stret", "2036": "da in", "2037": "gi\u00e0 e", "2038": "v\u2019 et", "2039": "zio a", "2040": "li im", "2041": "cu\u2019 i", "2042": "to ec", "2043": "li af", "2044": "ve an", "2045": "n\u2019 om", "2046": "l\u2019 al", "2047": "na of", "2048": "mi \u2019n", "2049": "si ar", "2050": "do or", "2051": "ra ab", "2052": "l\u2019 os", "2053": "t\u2019 am", "2054": "le at", "2055": "ge in", "2056": "scris", "2057": "d\u2019 at", "2058": "pre e", "2059": "m\u2019 af", "2060": "si in", "2061": "s\u2019 an", "2062": "n\u2019 uo", "2063": "bo al", "2064": "schic", "2065": "t\u2019 as", "2066": "t\u2019 or", "2067": "li ag", "2068": "se an", "2069": "strin", "2070": "se in", "2071": "d\u2019 eb", "2072": "zo an", "2073": "te ag", "2074": "m\u2019 in", "2075": "ge et", "2076": "ahi a", "2077": "si ol", "2078": "st\u2019 o", "2079": "tri e", "2080": "ro in", "2081": "mi ap", "2082": "li au", "2083": "gliar", "2084": "fu av", "2085": "ce at", "2086": "ni es", "2087": "re eb", "2088": "za \u2019n", "2089": "le \u2019m", "2090": "m\u2019 om", "2091": "t\u2019 ar", "2092": "re au", "2093": "se as", "2094": "gi an", "2095": "tro e", "2096": "po an", "2097": "si al", "2098": "te an", "2099": "ghiot", "2100": "na eb", "2101": "tra a", "2102": "m\u2019 an", "2103": "la au", "2104": "di af", "2105": "scran", "2106": "s\u2019 av", "2107": "ro as", "2108": "li es", "2109": "st\u2019 u", "2110": "sciom", "2111": "v\u2019 ar", "2112": "stras", "2113": "te es", "2114": "ne ac", "2115": "ci am", "2116": "fe et", "2117": "ch\u2019 \u00ef", "2118": "vi an", "2119": "scias", "2120": "t\u2019 ap", "2121": "vo at", "2122": "d\u2019 or", "2123": "l\u2019 ai", "2124": "fa az", "2125": "la en", "2126": "t\u2019 at", "2127": "gia e", "2128": "to ac", "2129": "bra e", "2130": "ta al", "2131": "ro av", "2132": "ste i", "2133": "ri ac", "2134": "de ar", "2135": "l\u2019 on", "2136": "so al", "2137": "si \u2019m", "2138": "ne an", "2139": "fu al", "2140": "va al", "2141": "pa es", "2142": "d\u2019 al", "2143": "so eb", "2144": "mio a", "2145": "ri al", "2146": "la el", "2147": "se af", "2148": "le es", "2149": "ni en", "2150": "te ac", "2151": "po in", "2152": "te au", "2153": "fu el", "2154": "sgher", "2155": "t\u2019 es", "2156": "lo er", "2157": "no er", "2158": "li uc", "2159": "d\u2019 as", "2160": "zio u", "2161": "ma on", "2162": "ca on", "2163": "mi ac", "2164": "lo \u2019m", "2165": "sa es", "2166": "co et", "2167": "stren", "2168": "schem", "2169": "la on", "2170": "li an", "2171": "si en", "2172": "le in", "2173": "che o", "2174": "gi ar", "2175": "re et", "2176": "da an", "2177": "ti or", "2178": "t\u2019 af", "2179": "gne o", "2180": "s\u2019 em", "2181": "ch\u2019 e", "2182": "ro at", "2183": "ne \u2019n", "2184": "d\u2019 ar", "2185": "io al", "2186": "gni e", "2187": "s\u2019 es", "2188": "co ad", "2189": "l\u2019 as", "2190": "qua e", "2191": "la \u2019m", "2192": "ge un", "2193": "l\u2019 un", "2194": "ma es", "2195": "n\u2019 ar", "2196": "vi of", "2197": "l\u2019 uo", "2198": "vo al", "2199": "to ag", "2200": "le on", "2201": "te is", "2202": "m\u2019 ab", "2203": "na ab", "2204": "ti et", "2205": "bo on", "2206": "n\u2019 eb", "2207": "to ov", "2208": "de om", "2209": "me at", "2210": "ro ab", "2211": "na af", "2212": "ni on", "2213": "ta ad", "2214": "l\u2019 ov", "2215": "si at", "2216": "sciau", "2217": "de au", "2218": "te en", "2219": "di uo", "2220": "m\u2019 ol", "2221": "scher", "2222": "no at", "2223": "me on", "2224": "di on", "2225": "to as", "2226": "si uo", "2227": "no or", "2228": "d\u2019 ol", "2229": "di es", "2230": "na ar", "2231": "li ad", "2232": "n\u2019 on", "2233": "sto o", "2234": "cia e", "2235": "st\u2019 a", "2236": "se\u2019 a", "2237": "te em", "2238": "l\u2019 eb", "2239": "vo as", "2240": "re as", "2241": "zi at", "2242": "gliam", "2243": "cio a", "2244": "ba in", "2245": "lo af", "2246": "ta ab", "2247": "mi ef", "2248": "sa in", "2249": "fu in", "2250": "glies", "2251": "chiun", "2252": "z\u2019 al", "2253": "bi et", "2254": "ze et", "2255": "to or", "2256": "s\u00ec in", "2257": "no ag", "2258": "d\u2019 in", "2259": "scial", "2260": "so am", "2261": "go in", "2262": "s\u2019 af", "2263": "lo al", "2264": "ra on", "2265": "mi al", "2266": "zo ar", "2267": "ro ar", "2268": "d\u2019 es", "2269": "ro an", "2270": "spres", "2271": "re ab", "2272": "d\u2019 of", "2273": "v\u2019 of", "2274": "ri in", "2275": "ni al", "2276": "be av", "2277": "so \u2019n", "2278": "strom", "2279": "fu oc", "2280": "ro es", "2281": "se ol", "2282": "l\u2019 oc", "2283": "ne al", "2284": "sta u", "2285": "l\u2019 uc", "2286": "s\u2019 of", "2287": "do eb", "2288": "le ap", "2289": "me el", "2290": "te on", "2291": "ghian", "2292": "chiet", "2293": "d\u2019 eu", "2294": "ste a", "2295": "na in", "2296": "l\u2019 of", "2297": "scrip", "2298": "ia an", "2299": "me al", "2300": "na \u2019n", "2301": "ce on", "2302": "so as", "2303": "v\u2019 al", "2304": "ti at", "2305": "m\u2019 eb", "2306": "v\u2019 eb", "2307": "do er", "2308": "va an", "2309": "le uc", "2310": "re ap", "2311": "zi \u2019m", "2312": "ce af", "2313": "ni ap", "2314": "ca er", "2315": "li am", "2316": "dre e", "2317": "po al", "2318": "ch\u2019 a", "2319": "go es", "2320": "ce im", "2321": "co ar", "2322": "po av", "2323": "de ag", "2324": "ni av", "2325": "si av", "2326": "vo an", "2327": "\u2019v\u2019 u", "2328": "la in", "2329": "s\u2019 eb", "2330": "ce es", "2331": "lo in", "2332": "chi e", "2333": "si or", "2334": "li ac", "2335": "di al", "2336": "be on", "2337": "ra et", "2338": "re ac", "2339": "te af", "2340": "no al", "2341": "to av", "2342": "za on", "2343": "smo a", "2344": "li uo", "2345": "m\u2019 at", "2346": "vo au", "2347": "me of", "2348": "me ar", "2349": "ta el", "2350": "mo at", "2351": "n\u2019 av", "2352": "v\u2019 in", "2353": "vi am", "2354": "che u", "2355": "te ad", "2356": "za al", "2357": "za er", "2358": "sco u", "2359": "me in", "2360": "lo as", "2361": "do ap", "2362": "cio e", "2363": "me as", "2364": "so an", "2365": "so in", "2366": "z\u2019 ar", "2367": "ce ar", "2368": "ta un", "2369": "lo eb", "2370": "tu en", "2371": "ta on", "2372": "re ad", "2373": "le av", "2374": "l\u2019 es", "2375": "ce et", "2376": "ma ap", "2377": "l\u2019 or", "2378": "strel", "2379": "ne ag", "2380": "ze or", "2381": "si el", "2382": "la es", "2383": "fu of", "2384": "do am", "2385": "stroz", "2386": "z\u2019 es", "2387": "ro au", "2388": "m\u2019 as", "2389": "tro i", "2390": "qu\u2019 o", "2391": "li al", "2392": "ra es", "2393": "zo as", "2394": "d\u2019 og", "2395": "t\u2019 ab", "2396": "za an", "2397": "ci at", "2398": "streg", "2399": "t\u2019 em", "2400": "so ab", "2401": "ta an", "2402": "di an", "2403": "s\u2019 im", "2404": "schie", "2405": "glien", "2406": "te of", "2407": "do af", "2408": "pre a", "2409": "me af", "2410": "de am", "2411": "di ol", "2412": "ma al", "2413": "sa ol", "2414": "do im", "2415": "de or", "2416": "v\u2019 ap", "2417": "ma ac", "2418": "ni an", "2419": "mi er", "2420": "chi o", "2421": "s\u2019 as", "2422": "re al", "2423": "s\u2019 op", "2424": "t\u2019 av", "2425": "ci af", "2426": "ne on", "2427": "de an", "2428": "l\u2019 ol", "2429": "ti of", "2430": "chi a", "2431": "bra a", "2432": "ghiac", "2433": "vo ac", "2434": "ti ar", "2435": "t\u00e8 an", "2436": "ne ov", "2437": "bi al", "2438": "ga as", "2439": "v\u2019 am", "2440": "ci in", "2441": "mo af", "2442": "de as", "2443": "si \u2019n", "2444": "po on", "2445": "re ag", "2446": "s\u2019 am", "2447": "d\u2019 et", "2448": "li or", "2449": "te at", "2450": "ra ot", "2451": "mo ec", "2452": "strar", "2453": "lo im", "2454": "ce av", "2455": "no in", "2456": "to ad", "2457": "l\u2019 ec", "2458": "no av", "2459": "no ac", "2460": "li \u2019n", "2461": "de eu", "2462": "pi or", "2463": "tr\u2019 e", "2464": "ni as", "2465": "zi ag", "2466": "na es", "2467": "ti av", "2468": "ti \u2019n", "2469": "n\u2019 in", "2470": "te os", "2471": "se at", "2472": "ta ar", "2473": "di ab", "2474": "no ec", "2475": "de er", "2476": "to ar", "2477": "me ap", "2478": "le oc", "2479": "squar", "2480": "la ap", "2481": "ro or", "2482": "ce an", "2483": "ch\u2019 u", "2484": "sa an", "2485": "ra av", "2486": "so at", "2487": "do as", "2488": "de \u2019n", "2489": "li ab", "2490": "gno a", "2491": "r\u2019 al", "2492": "be al", "2493": "mi am", "2494": "m\u2019 ac", "2495": "vea u", "2496": "ia al", "2497": "stran", "2498": "l\u2019 at", "2499": "sta i", "2500": "d\u2019 az", "2501": "l\u2019 om", "2502": "so et", "2503": "d\u2019 an", "2504": "ra of", "2505": "no ap", "2506": "le ad", "2507": "ce al", "2508": "gno u", "2509": "ti al", "2510": "ti im", "2511": "l\u2019 an", "2512": "l\u2019 el", "2513": "to oc", "2514": "schio", "2515": "co ap", "2516": "v\u2019 es", "2517": "sti o", "2518": "vi ac", "2519": "pi ap", "2520": "to ef", "2521": "schiu", "2522": "ro oc", "2523": "b\u00ec al", "2524": "ra at", "2525": "se on", "2526": "di om", "2527": "to an", "2528": "bre o", "2529": "si ac", "2530": "no as", "2531": "ta et", "2532": "d\u2019 ur", "2533": "v\u2019 el", "2534": "te as", "2535": "ti ad", "2536": "ra eb", "2537": "d\u2019 ac", "2538": "co eb", "2539": "ro am", "2540": "fa ir", "2541": "sto a", "2542": "suo a", "2543": "vi av", "2544": "vi en", "2545": "ne as", "2546": "la of", "2547": "l\u2019 af", "2548": "se al", "2549": "te ap", "2550": "zie o", "2551": "gliuo", "2552": "spraz", "2553": "t\u2019 in", "2554": "d\u2019 af", "2555": "ch\u2019 i", "2556": "v\u2019 er", "2557": "re af", "2558": "strut", "2559": "n\u2019 ol", "2560": "ci ar", "2561": "l\u2019 um", "2562": "tro a", "2563": "c\u2019 im", "2564": "ne em", "2565": "do el", "2566": "co av", "2567": "ra uc", "2568": "na or", "2569": "zi al", "2570": "se op", "2571": "ci av", "2572": "mo in", "2573": "m\u2019 ag", "2574": "te ar", "2575": "m\u2019 al", "2576": "m\u2019 es", "2577": "do oc", "2578": "li of", "2579": "gliel", "2580": "s\u2019 ad", "2581": "li oc", "2582": "tu ha", "2583": "n\u2019 al", "2584": "do at", "2585": "l\u2019 \u00e0n", "2586": "s\u2019 et", "2587": "s\u2019 at", "2588": "mo es", "2589": "l\u2019 ad", "2590": "sa ac", "2591": "v\u2019 ac", "2592": "l\u2019 ar", "2593": "lo an", "2594": "ve es", "2595": "ro ac", "2596": "to of", "2597": "bre a", "2598": "ce eu", "2599": "n\u2019 au", "2600": "za in", "2601": "l\u2019 ac", "2602": "to uc", "2603": "re ar", "2604": "chias", "2605": "zio e", "2606": "tri o", "2607": "de in", "2608": "sto im", "2609": "sco an", "2610": "cio ap", "2611": "gno in", "2612": "pre at", "2613": "gno am", "2614": "sta ol", "2615": "chi ap", "2616": "gio et", "2617": "ch\u2019 ag", "2618": "tra or", "2619": "tro al", "2620": "ch\u2019 as", "2621": "go han", "2622": "ch\u2019 in", "2623": "chi on", "2624": "tro \u2019m", "2625": "ch\u2019 eb", "2626": "sta ai", "2627": "st\u2019 in", "2628": "ch\u2019 er", "2629": "ch\u2019 es", "2630": "pie or", "2631": "scia e", "2632": "dia as", "2633": "tra an", "2634": "bra av", "2635": "mio av", "2636": "sta on", "2637": "ria in", "2638": "sti el", "2639": "pre ar", "2640": "glio o", "2641": "gne ac", "2642": "tro in", "2643": "sto ar", "2644": "sto at", "2645": "scun e", "2646": "str\u2019 u", "2647": "gue or", "2648": "schiat", "2649": "pre ac", "2650": "gni al", "2651": "ste an", "2652": "ber\u2019 o", "2653": "st\u2019 of", "2654": "mia \u2019n", "2655": "qu\u2019 an", "2656": "ch\u2019 et", "2657": "stro o", "2658": "rio an", "2659": "te han", "2660": "st\u2019 es", "2661": "c\u2019 han", "2662": "dre eb", "2663": "chio o", "2664": "sce al", "2665": "tre os", "2666": "lio in", "2667": "gno af", "2668": "nea av", "2669": "gne im", "2670": "zie ec", "2671": "bra in", "2672": "sti al", "2673": "sce an", "2674": "ri han", "2675": "ch\u2019 ac", "2676": "gne in", "2677": "n\u2019 han", "2678": "gio uc", "2679": "gio on", "2680": "stra u", "2681": "sti or", "2682": "m\u2019 han", "2683": "gia in", "2684": "pi\u00f9 in", "2685": "sti an", "2686": "stro e", "2687": "bre et", "2688": "tri of", "2689": "do o e", "2690": "gno al", "2691": "tri es", "2692": "gne er", "2693": "st\u2019 ot", "2694": "gne uo", "2695": "st\u2019 ac", "2696": "st\u2019 ar", "2697": "vea \u2019m", "2698": "chi in", "2699": "sto of", "2700": "stri o", "2701": "tro ac", "2702": "chi ac", "2703": "sce el", "2704": "tra \u2019m", "2705": "che in", "2706": "que al", "2707": "chi ar", "2708": "sti av", "2709": "sto ac", "2710": "tri af", "2711": "mio in", "2712": "che ar", "2713": "stri a", "2714": "tra op", "2715": "ria on", "2716": "gno ae", "2717": "ch\u2019 el", "2718": "li han", "2719": "zia on", "2720": "glia a", "2721": "sta og", "2722": "ch\u2019 ar", "2723": "gna in", "2724": "sto on", "2725": "tro ar", "2726": "stra a", "2727": "chio u", "2728": "tri in", "2729": "gna as", "2730": "sio an", "2731": "sta in", "2732": "dre an", "2733": "dio an", "2734": "com\u2019 a", "2735": "sio in", "2736": "l\u2019 han", "2737": "gni an", "2738": "sto ap", "2739": "qua of", "2740": "tro of", "2741": "sti in", "2742": "tro as", "2743": "ch\u2019 or", "2744": "tro im", "2745": "che om", "2746": "gue an", "2747": "tri as", "2748": "glio u", "2749": "sti er", "2750": "que es", "2751": "ste in", "2752": "zia or", "2753": "cio as", "2754": "stra e", "2755": "tra ef", "2756": "sta im", "2757": "tr\u2019 am", "2758": "gio ol", "2759": "pre es", "2760": "qua on", "2761": "gi\u00f2 in", "2762": "sto an", "2763": "gia al", "2764": "st\u2019 al", "2765": "st\u2019 ul", "2766": "chio a", "2767": "ria of", "2768": "pio on", "2769": "t\u2019 han", "2770": "sta al", "2771": "tre an", "2772": "gio in", "2773": "cio et", "2774": "co e i", "2775": "gne al", "2776": "tr\u2019 ar", "2777": "glia o", "2778": "sti oc", "2779": "gia ar", "2780": "cia on", "2781": "zia il", "2782": "qua in", "2783": "bre in", "2784": "bre an", "2785": "sti es", "2786": "pre al", "2787": "bia in", "2788": "sta an", "2789": "tro av", "2790": "schiet", "2791": "schian", "2792": "ch\u2019 ad", "2793": "ch\u2019 av", "2794": "sto in", "2795": "sce as", "2796": "qua im", "2797": "stro a", "2798": "sco al", "2799": "re o u", "2800": "tro et", "2801": "cia im", "2802": "lio an", "2803": "ch\u2019 ap", "2804": "stro u", "2805": "chi am", "2806": "cio al", "2807": "glio e", "2808": "gh\u2019 es", "2809": "ch\u2019 og", "2810": "d\u2019 han", "2811": "dre es", "2812": "tra av", "2813": "che \u2019m", "2814": "tre in", "2815": "com\u2019 u", "2816": "che \u2019n", "2817": "tro an", "2818": "gne ef", "2819": "tr\u2019 om", "2820": "lio as", "2821": "ch\u2019 am", "2822": "tri ap", "2823": "chi an", "2824": "ch\u2019 al", "2825": "chi al", "2826": "nio im", "2827": "ne han", "2828": "sto al", "2829": "tr\u2019 al", "2830": "sto \u2019n", "2831": "glia u", "2832": "ti han", "2833": "ch\u2019 ab", "2834": "tro ab", "2835": "ch\u2019 an", "2836": "ch\u2019 en", "2837": "pr\u2019 ar", "2838": "sma in", "2839": "bia an", "2840": "cie in", "2841": "vio in", "2842": "mio \u2019n", "2843": "dre al", "2844": "scio e", "2845": "stra i", "2846": "che an", "2847": "lia an", "2848": "tro on", "2849": "cio an", "2850": "bri ap", "2851": "ghe on", "2852": "che ha", "2853": "sti on", "2854": "gue on", "2855": "cia ar", "2856": "sto \u2019m", "2857": "tro ap", "2858": "ch\u2019 at", "2859": "dre as", "2860": "sti un", "2861": "st\u2019 an", "2862": "pi\u00f9 \u2019n", "2863": "sto es", "2864": "pre in", "2865": "stro in", "2866": "stra ef", "2867": "stri ef", "2868": "str\u2019 ar", "2869": "glia ac", "2870": "stro eb", "2871": "stri at", "2872": "chia of", "2873": "stro an", "2874": "stra ap", "2875": "chio in", "2876": "glio an", "2877": "stri av", "2878": "stro as", "2879": "stra in", "2880": "stri al", "2881": "stri af", "2882": "chia an", "2883": "trio al", "2884": "glio in", "2885": "stri an", "2886": "str\u2019 or", "2887": "sche ab", "2888": "stro uc", "2889": "chio an", "2890": "glie eb", "2891": "stro av", "2892": "vria es", "2893": "glio on", "2894": "chie et", "2895": "glie an", "2896": "glia al", "2897": "glia es", "2898": "stro al", "2899": "pria av", "2900": "n\u2019 \u00e8 im", "2901": "glia in", "2902": "l\u00e0 \u2019vun", "2903": "ti e \u2019n", "2904": "glio as", "2905": "stro oc", "2906": "stre in", "2907": "li \u00e8 in", "2908": "gio o e", "2909": "glie al", "2910": "chio at", "2911": "stro ac", "2912": "scia an", "2913": "lo e \u2019n", "2914": "s\u2019 i\u2019 o", "2915": "glio es", "2916": "glia as", "2917": "re a \u2019n", "2918": "scia al", "2919": "si e \u2019n", "2920": "d\u2019 i\u2019 a", "2921": "dio han", "2922": "stro es", "2923": "stro im", "2924": "sche er", "2925": "ch\u2019 i\u2019 o", "2926": "ch\u2019 i\u2019 e", "2927": "sti a \u2019n", "2928": "t\u2019 ho in", "2929": "ch\u2019 e\u2019 \u2019n", "2930": "ch\u2019 io \u2019n", "2931": "\u00f2 ", "2932": "o ", "2933": "a ", "2934": "\u00f9 ", "2935": "\u00ef ", "2936": "e ", "2937": "\u00ec ", "2938": "i ", "2939": "\u00e8 ", "2940": "s ", "2941": "di ", "2942": "b\u00e8 ", "2943": "d\u00f2 ", "2944": "v\u00f2 ", "2945": "sa ", "2946": "ga ", "2947": "bo ", "2948": "t\u00f9 ", "2949": "et ", "2950": "ge ", "2951": "na ", "2952": "ro ", "2953": "e\u2019 ", "2954": "va ", "2955": "ir ", "2956": "ed ", "2957": "or ", "2958": "as ", "2959": "fa ", "2960": "n\u00ec ", "2961": "c\u00e8 ", "2962": "su ", "2963": "pe ", "2964": "sc ", "2965": "s\u00e8 ", "2966": "t\u00e8 ", "2967": "os ", "2968": "to ", "2969": "go ", "2970": "v\u00ec ", "2971": "n\u00e0 ", "2972": "b\u00f2 ", "2973": "ni ", "2974": "ze ", "2975": "lo ", "2976": "\u00e0r ", "2977": "t\u00e9 ", "2978": "me ", "2979": "om ", "2980": "m\u00e8 ", "2981": "ti ", "2982": "ca ", "2983": "ae ", "2984": "te ", "2985": "\u00e0s ", "2986": "ta ", "2987": "n\u00e8 ", "2988": "no ", "2989": "g\u00ec ", "2990": "gi ", "2991": "so ", "2992": "pi ", "2993": "ma ", "2994": "\u00e8e ", "2995": "ar ", "2996": "le ", "2997": "r\u00e0 ", "2998": "ho ", "2999": "m\u2019 ", "3000": "io ", "3001": "p\u00f2 ", "3002": "co ", "3003": "ei ", "3004": "zo ", "3005": "st ", "3006": "a\u2019 ", "3007": "ra ", "3008": "r\u00f2 ", "3009": "\u00ecs ", "3010": "s\u00f9 ", "3011": "t\u00ec ", "3012": "s\u00ec ", "3013": "mo ", "3014": "in ", "3015": "li ", "3016": "d\u00e9 ", "3017": "se ", "3018": "zi ", "3019": "si ", "3020": "c\u00f2 ", "3021": "f\u00e9 ", "3022": "d\u00e0 ", "3023": "ut ", "3024": "po ", "3025": "d\u00ec ", "3026": "fe ", "3027": "an ", "3028": "be ", "3029": "ad ", "3030": "de ", "3031": "re ", "3032": "do ", "3033": "ne ", "3034": "s\u00f2 ", "3035": "s\u00e9 ", "3036": "t\u00f2 ", "3037": "c\u00e9 ", "3038": "\u00e9n ", "3039": "un ", "3040": "ri ", "3041": "od ", "3042": "ve ", "3043": "\u00f3n ", "3044": "f\u00e0 ", "3045": "g\u00f2 ", "3046": "n\u00f2 ", "3047": "\u00f9l ", "3048": "f\u00f2 ", "3049": "pa ", "3050": "ce ", "3051": "mi ", "3052": "el ", "3053": "\u00f2n ", "3054": "la ", "3055": "ie ", "3056": "l\u00f2 ", "3057": "ia ", "3058": "vo ", "3059": "us ", "3060": "p\u00e8 ", "3061": "ba ", "3062": "da ", "3063": "bi ", "3064": "on ", "3065": "\u00f2s ", "3066": "\u00e8l ", "3067": "l\u00e0 ", "3068": "al ", "3069": "l\u00e8 ", "3070": "r\u00ec ", "3071": "u\u2019 ", "3072": "oh ", "3073": "ab ", "3074": "fo ", "3075": "n\u00e9 ", "3076": "t\u00e0 ", "3077": "ai ", "3078": "il ", "3079": "th ", "3080": "i\u2019 ", "3081": "l\u00ec ", "3082": "fu ", "3083": "z\u00f2 ", "3084": "fi ", "3085": "tu ", "3086": "ci ", "3087": "b\u00f9 ", "3088": "ha ", "3089": "za ", "3090": "m\u00f2 ", "3091": "vi ", "3092": "\u00e0m ", "3093": "peo ", "3094": "pon ", "3095": "dr\u00e0 ", "3096": "di\u2019 ", "3097": "tia ", "3098": "mum ", "3099": "sma ", "3100": "lor ", "3101": "meo ", "3102": "t\u00e9r ", "3103": "nir ", "3104": "fei ", "3105": "f\u00e0t ", "3106": "cum ", "3107": "sis ", "3108": "gal ", "3109": "par ", "3110": "tr\u00e0 ", "3111": "ter ", "3112": "cem ", "3113": "dai ", "3114": "vem ", "3115": "neo ", "3116": "dil ", "3117": "rai ", "3118": "duo ", "3119": "bui ", "3120": "ceo ", "3121": "ean ", "3122": "hai ", "3123": "mae ", "3124": "clo ", "3125": "rer ", "3126": "ti\u2019 ", "3127": "fui ", "3128": "gru ", "3129": "gar ", "3130": "ger ", "3131": "l\u00eca ", "3132": "pii ", "3133": "tis ", "3134": "tio ", "3135": "bre ", "3136": "b\u00e0l ", "3137": "rui ", "3138": "s\u00ece ", "3139": "re\u2019 ", "3140": "cer ", "3141": "per ", "3142": "bel ", "3143": "por ", "3144": "pol ", "3145": "p\u00eca ", "3146": "rio ", "3147": "vra ", "3148": "tum ", "3149": "nel ", "3150": "tar ", "3151": "mio ", "3152": " in ", "3153": "ion ", "3154": "dri ", "3155": "gi\u00e0 ", "3156": "til ", "3157": "ne\u2019 ", "3158": "sin ", "3159": "f\u00e9e ", "3160": "a i ", "3161": "lem ", "3162": "pi\u00e8 ", "3163": "sue ", "3164": "car ", "3165": "cei ", "3166": "f\u00e8l ", "3167": "sir ", "3168": "ver ", "3169": "ros ", "3170": "gna ", "3171": "r\u00ece ", "3172": "vas ", "3173": "f\u00e0s ", "3174": "uhi ", "3175": "nis ", "3176": "zai ", "3177": "don ", "3178": "ron ", "3179": "min ", "3180": "nar ", "3181": "ven ", "3182": "gis ", "3183": "vel ", "3184": "tus ", "3185": "cur ", "3186": "ril ", "3187": "st\u00e0 ", "3188": "sia ", "3189": "sol ", "3190": "gn\u00ec ", "3191": "su\u00e8 ", "3192": "bus ", "3193": "cil ", "3194": "cie ", "3195": "dio ", "3196": "vo\u2019 ", "3197": "lia ", "3198": "ghi ", "3199": "fio ", "3200": "mie ", "3201": "mei ", "3202": "sa\u2019 ", "3203": "bor ", "3204": "lea ", "3205": "lon ", "3206": "poi ", "3207": "e i ", "3208": "tre ", "3209": "leo ", "3210": "lei ", "3211": "b\u00eca ", "3212": "cun ", "3213": "san ", "3214": "dur ", "3215": "uo\u2019 ", "3216": "mil ", "3217": "sco ", "3218": "vii ", "3219": "bon ", "3220": "sie ", "3221": "gor ", "3222": "dei ", "3223": "\u2019ve ", "3224": "pre ", "3225": "tes ", "3226": "pr\u00ec ", "3227": "tui ", "3228": "dro ", "3229": "mor ", "3230": "sem ", "3231": "ner ", "3232": "can ", "3233": "ree ", "3234": "din ", "3235": "tai ", "3236": "nil ", "3237": "cin ", "3238": "smi ", "3239": "cre ", "3240": "gra ", "3241": "vei ", "3242": "bue ", "3243": "bil ", "3244": "tem ", "3245": "ben ", "3246": "nor ", "3247": "gea ", "3248": "a e ", "3249": "gua ", "3250": "gui ", "3251": "mee ", "3252": "via ", "3253": "ri\u2019 ", "3254": "bar ", "3255": "dea ", "3256": "fer ", "3257": "vos ", "3258": "bee ", "3259": "cen ", "3260": "r\u00ecb ", "3261": "spa ", "3262": "t\u00f2r ", "3263": "rao ", "3264": "da\u2019 ", "3265": "pri ", "3266": "gu\u00f2 ", "3267": "fe\u2019 ", "3268": "bei ", "3269": "cai ", "3270": "lu\u2019 ", "3271": "lar ", "3272": "c\u00f2b ", "3273": "gel ", "3274": "n\u00f2s ", "3275": "sc\u00ec ", "3276": "rem ", "3277": "sen ", "3278": "o e ", "3279": "sca ", "3280": "bro ", "3281": "zon ", "3282": "vil ", "3283": "di\u00e8 ", "3284": "ren ", "3285": "su\u2019 ", "3286": "bis ", "3287": "qua ", "3288": "tua ", "3289": "mai ", "3290": "der ", "3291": "nii ", "3292": "n\u00ece ", "3293": "gli ", "3294": "ga\u2019 ", "3295": "dre ", "3296": "tei ", "3297": "voi ", "3298": "con ", "3299": "gi\u00f2 ", "3300": "gro ", "3301": "d\u00ece ", "3302": "zio ", "3303": "vol ", "3304": "tra ", "3305": "gol ", "3306": "cul ", "3307": "fin ", "3308": "s\u00f3n ", "3309": "lio ", "3310": "son ", "3311": "f\u00f3n ", "3312": "c\u00e0n ", "3313": "sta ", "3314": "rel ", "3315": "l\u00f2n ", "3316": "gue ", "3317": "col ", "3318": "teo ", "3319": "ieu ", "3320": "zia ", "3321": "han ", "3322": "far ", "3323": "sti ", "3324": "st\u00e9 ", "3325": "ve\u2019 ", "3326": "t\u00f3n ", "3327": "rir ", "3328": "e \u2019 ", "3329": "d\u00e8i ", "3330": "sun ", "3331": "dua ", "3332": "des ", "3333": "pur ", "3334": "o a ", "3335": "tro ", "3336": "cor ", "3337": "tuo ", "3338": "fi\u2019 ", "3339": "pr\u00e0 ", "3340": "va\u2019 ", "3341": "var ", "3342": "rei ", "3343": "nai ", "3344": "st\u00f2 ", "3345": "lir ", "3346": "sai ", "3347": "pem ", "3348": "ste ", "3349": "pi\u00f9 ", "3350": "bra ", "3351": "nia ", "3352": "noi ", "3353": "feo ", "3354": "man ", "3355": "mas ", "3356": "coi ", "3357": "rii ", "3358": "n\u00ect ", "3359": "sub ", "3360": "n\u00e8s ", "3361": "gi\u2019 ", "3362": "ra\u2019 ", "3363": "ci\u00f2 ", "3364": "co\u2019 ", "3365": "gia ", "3366": "tal ", "3367": "dal ", "3368": "sci ", "3369": "cra ", "3370": "mer ", "3371": "nei ", "3372": "dar ", "3373": "lie ", "3374": "rar ", "3375": "nea ", "3376": "nio ", "3377": "dan ", "3378": "lui ", "3379": "dr\u00ec ", "3380": "pel ", "3381": "vau ", "3382": "st\u00f9 ", "3383": "deo ", "3384": "due ", "3385": "tin ", "3386": "ian ", "3387": "smo ", "3388": "che ", "3389": "g\u00f3n ", "3390": "m\u00ecs ", "3391": "cri ", "3392": "tr\u2019 ", "3393": "ghe ", "3394": "tri ", "3395": "dr\u00f2 ", "3396": "sar ", "3397": "d\u00eca ", "3398": "fu\u2019 ", "3399": "fie ", "3400": "tun ", "3401": "cro ", "3402": "pin ", "3403": "t\u00e0n ", "3404": "m\u00eca ", "3405": "dui ", "3406": "dir ", "3407": "dem ", "3408": "gan ", "3409": "gne ", "3410": "se\u2019 ", "3411": "r\u00f2l ", "3412": "n\u00f2i ", "3413": "gai ", "3414": "mus ", "3415": "gei ", "3416": "me\u2019 ", "3417": "unt ", "3418": "del ", "3419": "ces ", "3420": "rum ", "3421": "zul ", "3422": "pei ", "3423": "za\u2019 ", "3424": "pio ", "3425": "fon ", "3426": "a a ", "3427": "dor ", "3428": "vea ", "3429": "mun ", "3430": "ta\u2019 ", "3431": "gi\u00f9 ", "3432": "sii ", "3433": "gir ", "3434": "tue ", "3435": "suo ", "3436": "tol ", "3437": "men ", "3438": "bir ", "3439": "sit ", "3440": "cis ", "3441": "beo ", "3442": "sor ", "3443": "num ", "3444": "vie ", "3445": "gin ", "3446": "cia ", "3447": "sua ", "3448": "nie ", "3449": "nan ", "3450": "tir ", "3451": "ban ", "3452": "ber ", "3453": "que ", "3454": "sei ", "3455": "bio ", "3456": "l\u00e8m ", "3457": "mii ", "3458": "lin ", "3459": "fue ", "3460": "gio ", "3461": "die ", "3462": "ges ", "3463": "ror ", "3464": "sce ", "3465": "z\u00f2n ", "3466": "de\u2019 ", "3467": "cal ", "3468": "gu\u00ec ", "3469": "cu\u2019 ", "3470": "pea ", "3471": "r\u00ecs ", "3472": "nem ", "3473": "bol ", "3474": "na\u2019 ", "3475": "tr\u00f2 ", "3476": "sui ", "3477": "ten ", "3478": "ahi ", "3479": "fra ", "3480": "dia ", "3481": "reo ", "3482": "sel ", "3483": "lee ", "3484": "cel ", "3485": "gre ", "3486": "d\u00ect ", "3487": "cle ", "3488": "res ", "3489": "cea ", "3490": "rua ", "3491": "nol ", "3492": "la\u2019 ", "3493": "sul ", "3494": "ton ", "3495": "cio ", "3496": "cut ", "3497": "sto ", "3498": "pal ", "3499": "mul ", "3500": "vai ", "3501": "gni ", "3502": "tii ", "3503": "pir ", "3504": "ria ", "3505": "tan ", "3506": "mar ", "3507": "spe ", "3508": "gon ", "3509": "dii ", "3510": "g\u00f3r ", "3511": "pro ", "3512": "ral ", "3513": "fur ", "3514": "pie ", "3515": "bin ", "3516": "von ", "3517": "ma\u2019 ", "3518": "som ", "3519": "ler ", "3520": "mon ", "3521": "seo ", "3522": "bri ", "3523": "qui ", "3524": "zie ", "3525": "val ", "3526": "l\u00eco ", "3527": "bia ", "3528": "r\u00f3n ", "3529": "b\u00e8l ", "3530": "gri ", "3531": "ch\u00e9 ", "3532": "dee ", "3533": "mia ", "3534": "chi ", "3535": "s\u00f9e ", "3536": "vio ", "3537": "bi\u00f2 ", "3538": "p\u00f2s ", "3539": "pan ", "3540": "fan ", "3541": "lan ", "3542": "fal ", "3543": "plo ", "3544": "ran ", "3545": "v\u00ecd ", "3546": "for ", "3547": "rea ", "3548": "sio ", "3549": "fai ", "3550": "tea ", "3551": "t\u00f2n ", "3552": "rin ", "3553": "deh ", "3554": "nin ", "3555": "pu\u00f2 ", "3556": "van ", "3557": "mal ", "3558": "uom ", "3559": "non ", "3560": "vam ", "3561": "nha ", "3562": "pra ", "3563": "st\u00ec ", "3564": "du\u2019 ", "3565": "cui ", "3566": "lai ", "3567": "tor ", "3568": "mea ", "3569": "ser ", "3570": "zar ", "3571": "pia ", "3572": "joi ", "3573": "ier ", "3574": "sal ", "3575": "dra ", "3576": "ram ", "3577": "tel ", "3578": "zan ", "3579": "te\u2019 ", "3580": "len ", "3581": "pi\u00e9 ", "3582": "rie ", "3583": "fia ", "3584": "vin ", "3585": "fil ", "3586": "n\u00eca ", "3587": "gno ", "3588": "nal ", "3589": "no\u2019 ", "3590": "c\u00f2l ", "3591": "ro e ", "3592": "go e ", "3593": "l\u00ec \u00e8 ", "3594": "pian ", "3595": "ti i ", "3596": "bran ", "3597": "re a ", "3598": "da o ", "3599": "zi a ", "3600": "sien ", "3601": "po e ", "3602": "d\u00ec i ", "3603": "plar ", "3604": "la o ", "3605": "mie\u2019 ", "3606": "ta \u00e8 ", "3607": "v\u2019 a ", "3608": "ra e ", "3609": "cion ", "3610": "ze o ", "3611": "prun ", "3612": "sfar ", "3613": "stei ", "3614": "re o ", "3615": "ro a ", "3616": "re e ", "3617": "tiam ", "3618": "ci a ", "3619": "si a ", "3620": "fu a ", "3621": "li a ", "3622": "pluo ", "3623": "vien ", "3624": "frui ", "3625": "de e ", "3626": "do \u00e8 ", "3627": "zo e ", "3628": "puoi ", "3629": "vuoi ", "3630": "dien ", "3631": "cral ", "3632": "ciai ", "3633": "stan ", "3634": "bree ", "3635": "st\u00f2r ", "3636": "stre ", "3637": "tran ", "3638": "tu \u2019 ", "3639": "star ", "3640": "mo a ", "3641": "pier ", "3642": "ri o ", "3643": "siam ", "3644": "frir ", "3645": "vian ", "3646": "ne i ", "3647": "la \u00e8 ", "3648": "giar ", "3649": "ce a ", "3650": "fior ", "3651": "f\u00e9 i ", "3652": "cean ", "3653": "ve i ", "3654": "te p ", "3655": "trei ", "3656": "to \u00e8 ", "3657": "ve a ", "3658": "to o ", "3659": "\u00e8 \u2019l ", "3660": "se e ", "3661": "saia ", "3662": "dean ", "3663": "la i ", "3664": "fo \u00e8 ", "3665": "lo a ", "3666": "ta i ", "3667": "mian ", "3668": "rean ", "3669": "tris ", "3670": "te e ", "3671": "stil ", "3672": "m\u2019 \u00e8 ", "3673": "ma a ", "3674": "st\u00e8r ", "3675": "se \u00e8 ", "3676": "ci o ", "3677": "lian ", "3678": "tier ", "3679": "\u00e8 in ", "3680": "gnar ", "3681": "gnan ", "3682": "ca \u00e8 ", "3683": "blia ", "3684": "sche ", "3685": "fe e ", "3686": "gior ", "3687": "rent ", "3688": "fu e ", "3689": "spia ", "3690": "li i ", "3691": "ba e ", "3692": "gean ", "3693": "so i ", "3694": "gi a ", "3695": "do e ", "3696": "da e ", "3697": "stea ", "3698": "ci e ", "3699": "dria ", "3700": "a al ", "3701": "maio ", "3702": "le i ", "3703": "chie ", "3704": "ma o ", "3705": "guan ", "3706": "o in ", "3707": "no \u00e8 ", "3708": "trae ", "3709": "trio ", "3710": "ra o ", "3711": "di i ", "3712": "diam ", "3713": "tean ", "3714": "da i ", "3715": "lo e ", "3716": "suol ", "3717": "be e ", "3718": "lien ", "3719": "scel ", "3720": "ch e ", "3721": "pri\u2019 ", "3722": "tram ", "3723": "duol ", "3724": "pia\u2019 ", "3725": "sa i ", "3726": "to i ", "3727": "runt ", "3728": "po o ", "3729": "trea ", "3730": "ve e ", "3731": "go \u00e8 ", "3732": "io o ", "3733": "re i ", "3734": "le o ", "3735": "gli\u00f2 ", "3736": "pe i ", "3737": "riai ", "3738": "na e ", "3739": "a in ", "3740": "guon ", "3741": "slao ", "3742": "li e ", "3743": "ta a ", "3744": "tra\u2019 ", "3745": "tu i ", "3746": "su i ", "3747": "stia ", "3748": "fier ", "3749": "gi e ", "3750": "c\u00f2th ", "3751": "quel ", "3752": "glie ", "3753": "naio ", "3754": "quam ", "3755": "ma \u00e8 ", "3756": "miei ", "3757": "co o ", "3758": "de i ", "3759": "drel ", "3760": "gran ", "3761": "t\u00f2 e ", "3762": "e \u2019l ", "3763": "br\u00f2t ", "3764": "mo e ", "3765": "ge a ", "3766": "di a ", "3767": "tien ", "3768": "brio ", "3769": "ro \u00e8 ", "3770": "bi i ", "3771": "le \u00e8 ", "3772": "va a ", "3773": "sci\u00f2 ", "3774": "spri ", "3775": "ta e ", "3776": "guia ", "3777": "giun ", "3778": "po i ", "3779": "nien ", "3780": "vo a ", "3781": "ri a ", "3782": "se o ", "3783": "or i ", "3784": "no o ", "3785": "ni a ", "3786": "prie ", "3787": "zo a ", "3788": "deum ", "3789": "sc\u00eco ", "3790": "fiar ", "3791": "te o ", "3792": "viam ", "3793": "gnes ", "3794": "fien ", "3795": "po a ", "3796": "die\u2019 ", "3797": "pion ", "3798": "cain ", "3799": "scer ", "3800": "tria ", "3801": "gioi ", "3802": "ci\u00f2l ", "3803": "pien ", "3804": "t\u2019 \u00e8 ", "3805": "gier ", "3806": "or d ", "3807": "io e ", "3808": "ghia ", "3809": "giam ", "3810": "ni e ", "3811": "li \u00e8 ", "3812": "dier ", "3813": "e \u2019n ", "3814": "na a ", "3815": "ghi\u00f2 ", "3816": "bo e ", "3817": "fian ", "3818": "biar ", "3819": "ver\u2019 ", "3820": "ti \u00e8 ", "3821": "sian ", "3822": "za a ", "3823": "trui ", "3824": "sti\u00f2 ", "3825": "vria ", "3826": "steo ", "3827": "do i ", "3828": "brar ", "3829": "pa a ", "3830": "lo i ", "3831": "brei ", "3832": "va e ", "3833": "chi\u00f2 ", "3834": "buon ", "3835": "le a ", "3836": "ra \u00e8 ", "3837": "so o ", "3838": "te i ", "3839": "lo \u00e8 ", "3840": "ghie ", "3841": "ca o ", "3842": "breo ", "3843": "ghin ", "3844": "ni \u00e8 ", "3845": "sion ", "3846": "stui ", "3847": "vier ", "3848": "gnor ", "3849": "i in ", "3850": "rien ", "3851": "ga e ", "3852": "co e ", "3853": "chio ", "3854": "la a ", "3855": "c\u2019 \u00e8 ", "3856": "be a ", "3857": "spro ", "3858": "suo\u2019 ", "3859": "tuoi ", "3860": "sa e ", "3861": "ca e ", "3862": "to e ", "3863": "ra i ", "3864": "vi o ", "3865": "ce o ", "3866": "prec ", "3867": "me i ", "3868": "vi a ", "3869": "suoi ", "3870": "fren ", "3871": "gnin ", "3872": "prai ", "3873": "ca a ", "3874": "scia ", "3875": "co i ", "3876": "piar ", "3877": "gnia ", "3878": "drir ", "3879": "schi ", "3880": "zian ", "3881": "o un ", "3882": "niam ", "3883": "gien ", "3884": "svia ", "3885": "vuo\u2019 ", "3886": "pi\u00e9r ", "3887": "t\u2019 i ", "3888": "blio ", "3889": "pa e ", "3890": "va o ", "3891": "po \u00e8 ", "3892": "to a ", "3893": "bi e ", "3894": "so e ", "3895": "so a ", "3896": "ciol ", "3897": "na \u00e8 ", "3898": "scon ", "3899": "gnum ", "3900": "fa e ", "3901": "ti a ", "3902": "muel ", "3903": "sie\u2019 ", "3904": "cian ", "3905": "pi\u00f9e ", "3906": "vean ", "3907": "chel ", "3908": "ve o ", "3909": "dail ", "3910": "scea ", "3911": "o il ", "3912": "co a ", "3913": "tu e ", "3914": "pria ", "3915": "zion ", "3916": "scar ", "3917": "quie ", "3918": "\u00e8 il ", "3919": "grue ", "3920": "gaio ", "3921": "de a ", "3922": "gnus ", "3923": "quei ", "3924": "go a ", "3925": "gner ", "3926": "gnun ", "3927": "vi \u00e8 ", "3928": "scie ", "3929": "stie ", "3930": "guir ", "3931": "re \u00e8 ", "3932": "ghio ", "3933": "ph\u00e8l ", "3934": "do a ", "3935": "str\u00f2 ", "3936": "spir ", "3937": "ciel ", "3938": "cuor ", "3939": "doan ", "3940": "na o ", "3941": "ze e ", "3942": "le e ", "3943": "sunt ", "3944": "drai ", "3945": "no a ", "3946": "za o ", "3947": "trai ", "3948": "quar ", "3949": "ce \u00e8 ", "3950": "se a ", "3951": "li o ", "3952": "ched ", "3953": "ti e ", "3954": "ciar ", "3955": "ne o ", "3956": "tuon ", "3957": "nier ", "3958": "crin ", "3959": "vi e ", "3960": "chin ", "3961": "bo a ", "3962": "s\u2019 a ", "3963": "ne e ", "3964": "me o ", "3965": "ma e ", "3966": "gi\u00f9e ", "3967": "gnel ", "3968": "quor ", "3969": "nail ", "3970": "v\u2019 \u00e8 ", "3971": "ce e ", "3972": "spre ", "3973": "te \u00e8 ", "3974": "s\u2019 \u00e8 ", "3975": "mi a ", "3976": "a il ", "3977": "o \u2019n ", "3978": "tr\u00e0s ", "3979": "gnon ", "3980": "prei ", "3981": "pron ", "3982": "nian ", "3983": "guai ", "3984": "ciul ", "3985": "me a ", "3986": "cl\u00e8s ", "3987": "quod ", "3988": "do o ", "3989": "r\u2019 a ", "3990": "prir ", "3991": "si \u00e8 ", "3992": "cia\u2019 ", "3993": "rian ", "3994": "ni o ", "3995": "ra a ", "3996": "bion ", "3997": "quai ", "3998": "sa \u00e8 ", "3999": "de o ", "4000": "cria ", "4001": "i il ", "4002": "muoi ", "4003": "stel ", "4004": "prio ", "4005": "ne a ", "4006": "scun ", "4007": "so \u00e8 ", "4008": "ma i ", "4009": "suon ", "4010": "bent ", "4011": "sci\u2019 ", "4012": "gual ", "4013": "glio ", "4014": "ta o ", "4015": "l\u00e0 i ", "4016": "te a ", "4017": "me e ", "4018": "ro o ", "4019": "si i ", "4020": "sa o ", "4021": "stro ", "4022": "ga a ", "4023": "drea ", "4024": "no e ", "4025": "fi e ", "4026": "vo e ", "4027": "glia ", "4028": "se i ", "4029": "sa a ", "4030": "me \u00e8 ", "4031": "mo \u00e8 ", "4032": "ro i ", "4033": "ge e ", "4034": "cheo ", "4035": "o al ", "4036": "ne \u00e8 ", "4037": "crea ", "4038": "tree ", "4039": "stra ", "4040": "no i ", "4041": "n\u00e9 i ", "4042": "sier ", "4043": "mi i ", "4044": "gian ", "4045": "zi e ", "4046": "ce i ", "4047": "laia ", "4048": "quae ", "4049": "pe e ", "4050": "stor ", "4051": "l\u2019 \u00e8 ", "4052": "fuor ", "4053": "nean ", "4054": "mi e ", "4055": "be i ", "4056": "grin ", "4057": "co \u00e8 ", "4058": "plor ", "4059": "bi a ", "4060": "za i ", "4061": "scir ", "4062": "laio ", "4063": "chia ", "4064": "go o ", "4065": "ge \u00e8 ", "4066": "si o ", "4067": "pa \u00e8 ", "4068": "di e ", "4069": "zi \u00e8 ", "4070": "dron ", "4071": "qual ", "4072": "stin ", "4073": "d\u2019 i ", "4074": "stri ", "4075": "vuol ", "4076": "ga o ", "4077": "za e ", "4078": "ciam ", "4079": "la e ", "4080": "ri e ", "4081": "que\u2019 ", "4082": "t\u00e8 a ", "4083": "n\u2019 \u00e8 ", "4084": "tuo\u2019 ", "4085": "com\u2019 ", "4086": "ti o ", "4087": "da a ", "4088": "\u00e8 \u2019n ", "4089": "fu o ", "4090": "di o ", "4091": "stai ", "4092": "ci \u00e8 ", "4093": "sper ", "4094": "de \u00e8 ", "4095": "a \u2019l ", "4096": "trar ", "4097": "muor ", "4098": "d\u2019 \u00e8 ", "4099": "s\u00ec e ", "4100": "s\u00e9 i ", "4101": "bia\u2019 ", "4102": "buoi ", "4103": "ziar ", "4104": "bian ", "4105": "lier ", "4106": "pi e ", "4107": "dra\u2019 ", "4108": "si e ", "4109": "gion ", "4110": "za \u00e8 ", "4111": "or l ", "4112": "giai ", "4113": "va i ", "4114": "scio ", "4115": "mo i ", "4116": "da io ", "4117": "s\u2019 ha ", "4118": "gia \u00e8 ", "4119": "bra o ", "4120": "fu al ", "4121": "ni\u2019 e ", "4122": "tra \u00e8 ", "4123": "lui a ", "4124": "gli a ", "4125": "zo al ", "4126": "lo il ", "4127": "ce a\u2019 ", "4128": "s\u2019 io ", "4129": "le or ", "4130": "gluol ", "4131": "c\u2019 ho ", "4132": "pre i ", "4133": "da in ", "4134": "ni ed ", "4135": "va ad ", "4136": "le in ", "4137": "v\u2019 \u00e8n ", "4138": "sio e ", "4139": "zi \u2019l ", "4140": "sce i ", "4141": "sa \u2019l ", "4142": "l\u2019 un ", "4143": "sto a ", "4144": "de ed ", "4145": "bre e ", "4146": "ta or ", "4147": "mi il ", "4148": "ve \u2019l ", "4149": "ti \u2019n ", "4150": "dio e ", "4151": "to ed ", "4152": "bro e ", "4153": "ti il ", "4154": "ne in ", "4155": "ca io ", "4156": "se ai ", "4157": "tri o ", "4158": "gno e ", "4159": "ne al ", "4160": "zo in ", "4161": "ma \u2019l ", "4162": "mo ha ", "4163": "ne un ", "4164": "ria o ", "4165": "te \u2019n ", "4166": "me in ", "4167": "ro il ", "4168": "zo \u2019l ", "4169": "tri a ", "4170": "ge ad ", "4171": "d\u00f2 in ", "4172": "ne il ", "4173": "ci al ", "4174": "ta io ", "4175": "te a\u2019 ", "4176": "si \u2019n ", "4177": "su in ", "4178": "gno a ", "4179": "ghiai ", "4180": "da il ", "4181": "ni or ", "4182": "ge in ", "4183": "gi\u00e0 i ", "4184": "se \u2019l ", "4185": "pi in ", "4186": "gi \u2019l ", "4187": "sta o ", "4188": "m\u2019 io ", "4189": "se \u2019n ", "4190": "di ad ", "4191": "ra \u2019l ", "4192": "sevra ", "4193": "sco e ", "4194": "to or ", "4195": "le ir ", "4196": "di un ", "4197": "li \u2019l ", "4198": "le io ", "4199": "na un ", "4200": "ta al ", "4201": "qua e ", "4202": "c\u2019 io ", "4203": "ria i ", "4204": "ta in ", "4205": "go il ", "4206": "se ir ", "4207": "ra ed ", "4208": "no i\u2019 ", "4209": "sti a ", "4210": "le ab ", "4211": "re ad ", "4212": "non e ", "4213": "va ai ", "4214": "schio ", "4215": "mi in ", "4216": "sta \u00e8 ", "4217": "g\u00ec \u2019l ", "4218": "via e ", "4219": "co il ", "4220": "ti io ", "4221": "me \u2019l ", "4222": "to al ", "4223": "do or ", "4224": "g\u2019 io ", "4225": "se io ", "4226": "ci in ", "4227": "tri e ", "4228": "l\u00e0 \u2019l ", "4229": "si ad ", "4230": "n\u00f2 in ", "4231": "ta ha ", "4232": "glior ", "4233": "za al ", "4234": "re al ", "4235": "za \u2019l ", "4236": "si or ", "4237": "gni e ", "4238": "zi ad ", "4239": "gna o ", "4240": "va a\u2019 ", "4241": "ve un ", "4242": "v\u2019 or ", "4243": "ne ha ", "4244": "bro \u00e8 ", "4245": "cia e ", "4246": "va un ", "4247": "la il ", "4248": "co \u2019l ", "4249": "di \u2019n ", "4250": "do ad ", "4251": "zo il ", "4252": "no ad ", "4253": "glien ", "4254": "n\u00f2 \u2019l ", "4255": "t\u2019 el ", "4256": "cio e ", "4257": "gioir ", "4258": "bre a ", "4259": "ne \u2019l ", "4260": "gni a ", "4261": "ta ad ", "4262": "na ha ", "4263": "sta a ", "4264": "ce u\u2019 ", "4265": "ve a\u2019 ", "4266": "che a ", "4267": "tra e ", "4268": "fu il ", "4269": "cia o ", "4270": "stian ", "4271": "ria a ", "4272": "t\u00e9 \u2019l ", "4273": "do \u2019l ", "4274": "t\u00f2 \u2019l ", "4275": "va al ", "4276": "po il ", "4277": "da al ", "4278": "s\u00e9 il ", "4279": "lia e ", "4280": "gna a ", "4281": "zio \u00e8 ", "4282": "da \u2019l ", "4283": "li in ", "4284": "gia a ", "4285": "po in ", "4286": "la al ", "4287": "chiar ", "4288": "dia e ", "4289": "gna \u00e8 ", "4290": "za i\u2019 ", "4291": "zia e ", "4292": "ta \u2019l ", "4293": "li ha ", "4294": "ro od ", "4295": "te ha ", "4296": "s\u2019 i\u2019 ", "4297": "so ad ", "4298": "li al ", "4299": "vrien ", "4300": "pie a ", "4301": "ba in ", "4302": "tu \u2019l ", "4303": "b\u00f2 il ", "4304": "ra in ", "4305": "ra a\u2019 ", "4306": "chier ", "4307": "sto \u00e8 ", "4308": "ce al ", "4309": "mo il ", "4310": "tri \u00e8 ", "4311": "le un ", "4312": "ne io ", "4313": "ia ed ", "4314": "dia i ", "4315": "che i ", "4316": "se ad ", "4317": "se e\u2019 ", "4318": "tro e ", "4319": "l\u00e0 il ", "4320": "so a\u2019 ", "4321": "ha in ", "4322": "me ad ", "4323": "pa or ", "4324": "sco i ", "4325": "chion ", "4326": "mo ad ", "4327": "fu in ", "4328": "be il ", "4329": "bra e ", "4330": "re ho ", "4331": "ro ed ", "4332": "strai ", "4333": "sti o ", "4334": "stial ", "4335": "ne ed ", "4336": "la in ", "4337": "v\u2019 i\u2019 ", "4338": "ce ha ", "4339": "za un ", "4340": "ni \u2019l ", "4341": "l\u2019 ha ", "4342": "so \u2019l ", "4343": "bra a ", "4344": "pre a ", "4345": "se a\u2019 ", "4346": "zii e ", "4347": "lo in ", "4348": "gia e ", "4349": "le ha ", "4350": "zio a ", "4351": "co u\u2019 ", "4352": "z\u00f2 il ", "4353": "gue e ", "4354": "s\u2019 ei ", "4355": "di ha ", "4356": "ta ed ", "4357": "ri a\u2019 ", "4358": "do io ", "4359": "sti e ", "4360": "va \u2019n ", "4361": "ro i\u2019 ", "4362": "pa ho ", "4363": "te un ", "4364": "be \u2019l ", "4365": "si u\u2019 ", "4366": "voill ", "4367": "po ed ", "4368": "ch\u2019 \u00e8 ", "4369": "zia a ", "4370": "tro i ", "4371": "se i\u2019 ", "4372": "chiai ", "4373": "pio a ", "4374": "re ed ", "4375": "me a\u2019 ", "4376": "tr\u2019 \u00e8 ", "4377": "va in ", "4378": "r\u00e0 in ", "4379": "st\u2019 \u00e8 ", "4380": "chi \u00e8 ", "4381": "sme e ", "4382": "d\u2019 el ", "4383": "va \u2019l ", "4384": "ra un ", "4385": "ra ha ", "4386": "za oh ", "4387": "ti ai ", "4388": "rai e ", "4389": "de il ", "4390": "rio a ", "4391": "za ed ", "4392": "ni il ", "4393": "te u\u2019 ", "4394": "ro or ", "4395": "pre e ", "4396": "ve ad ", "4397": "sa il ", "4398": "ge or ", "4399": "ste a ", "4400": "me un ", "4401": "gio e ", "4402": "se al ", "4403": "ra il ", "4404": "leo e ", "4405": "so un ", "4406": "pi un ", "4407": "t\u2019 il ", "4408": "v\u2019 io ", "4409": "ci \u2019l ", "4410": "gra o ", "4411": "gi al ", "4412": "dre a ", "4413": "qua \u00e8 ", "4414": "bi \u2019l ", "4415": "d\u2019 e\u2019 ", "4416": "cea a ", "4417": "na ed ", "4418": "gliea ", "4419": "t\u00e0 \u2019l ", "4420": "ti ad ", "4421": "no al ", "4422": "tra a ", "4423": "cia i ", "4424": "go \u2019l ", "4425": "ci or ", "4426": "do in ", "4427": "mi a\u2019 ", "4428": "segn\u00f2 ", "4429": "tr\u2019 a ", "4430": "dro a ", "4431": "sa ad ", "4432": "dre e ", "4433": "su \u2019l ", "4434": "po ha ", "4435": "te ed ", "4436": "vi \u2019l ", "4437": "te ad ", "4438": "n\u2019 ei ", "4439": "po \u2019l ", "4440": "ch\u00e9 i ", "4441": "ti a\u2019 ", "4442": "lio e ", "4443": "za in ", "4444": "pio e ", "4445": "te ho ", "4446": "gna i ", "4447": "me al ", "4448": "na ei ", "4449": "pe \u2019l ", "4450": "d\u2019 i\u2019 ", "4451": "to \u2019n ", "4452": "sa un ", "4453": "na in ", "4454": "sca i ", "4455": "li il ", "4456": "lo ai ", "4457": "ge ai ", "4458": "ta un ", "4459": "chian ", "4460": "no io ", "4461": "d\u2019 ir ", "4462": "t\u2019 ha ", "4463": "s\u2019 un ", "4464": "sta e ", "4465": "r\u00f2 \u2019l ", "4466": "gui i ", "4467": "do ha ", "4468": "me ed ", "4469": "mia e ", "4470": "que e ", "4471": "so il ", "4472": "no un ", "4473": "be in ", "4474": "\u2019v\u2019 \u00e8 ", "4475": "pri e ", "4476": "gliai ", "4477": "t\u2019 om ", "4478": "t\u2019 ho ", "4479": "di \u00e8e ", "4480": "di il ", "4481": "na or ", "4482": "da un ", "4483": "co io ", "4484": "di io ", "4485": "che e ", "4486": "ti in ", "4487": "sia e ", "4488": "to ad ", "4489": "lo un ", "4490": "c\u2019 ha ", "4491": "to ha ", "4492": "si un ", "4493": "bio e ", "4494": "ne a\u2019 ", "4495": "sce a ", "4496": "che \u2019 ", "4497": "ga il ", "4498": "strar ", "4499": "pe il ", "4500": "la a\u2019 ", "4501": "tra i ", "4502": "ce ed ", "4503": "cio a ", "4504": "ha \u2019l ", "4505": "qua o ", "4506": "li oh ", "4507": "gna e ", "4508": "pra e ", "4509": "co in ", "4510": "ro in ", "4511": "ro al ", "4512": "temps ", "4513": "za il ", "4514": "ra ad ", "4515": "po io ", "4516": "to un ", "4517": "zi un ", "4518": "go al ", "4519": "io il ", "4520": "gua a ", "4521": "gue a ", "4522": "di or ", "4523": "l\u2019 om ", "4524": "ch\u00e9 a ", "4525": "be un ", "4526": "li ei ", "4527": "ri \u2019l ", "4528": "fa il ", "4529": "te \u2019l ", "4530": "bi il ", "4531": "ra al ", "4532": "za or ", "4533": "zi il ", "4534": "na ad ", "4535": "chi a ", "4536": "dro o ", "4537": "glier ", "4538": "co ai ", "4539": "n\u2019 ha ", "4540": "scion ", "4541": "re \u2019n ", "4542": "te ai ", "4543": "de un ", "4544": "pa ed ", "4545": "pa \u2019l ", "4546": "v\u2019 el ", "4547": "me \u2019n ", "4548": "glian ", "4549": "m\u2019 ha ", "4550": "gli e ", "4551": "ma un ", "4552": "sci a ", "4553": "pri a ", "4554": "glion ", "4555": "sce e ", "4556": "gliar ", "4557": "co i\u2019 ", "4558": "s\u00ec \u2019l ", "4559": "ra or ", "4560": "to il ", "4561": "ti al ", "4562": "zio e ", "4563": "re il ", "4564": "me ai ", "4565": "stran ", "4566": "sti \u00e8 ", "4567": "si al ", "4568": "no ai ", "4569": "ci ha ", "4570": "re in ", "4571": "ria e ", "4572": "b\u2019 io ", "4573": "de ad ", "4574": "stiam ", "4575": "l\u2019 ho ", "4576": "ro a\u2019 ", "4577": "t\u2019 i\u2019 ", "4578": "dio a ", "4579": "mo ed ", "4580": "mo \u2019l ", "4581": "va or ", "4582": "gri e ", "4583": "re ha ", "4584": "ti ha ", "4585": "gliel ", "4586": "ba il ", "4587": "te i\u2019 ", "4588": "te or ", "4589": "sciai ", "4590": "de al ", "4591": "no \u2019l ", "4592": "to a\u2019 ", "4593": "n\u2019 io ", "4594": "r\u00e0 ed ", "4595": "di \u2019l ", "4596": "ria \u2019 ", "4597": "gno \u00e8 ", "4598": "zi or ", "4599": "vra i ", "4600": "ca al ", "4601": "mo al ", "4602": "na il ", "4603": "gui e ", "4604": "cia a ", "4605": "bo a\u2019 ", "4606": "tro \u00e8 ", "4607": "vo in ", "4608": "za ha ", "4609": "ne ad ", "4610": "do un ", "4611": "ma il ", "4612": "ge il ", "4613": "no ei ", "4614": "ra \u2019n ", "4615": "ca il ", "4616": "zi al ", "4617": "gi un ", "4618": "mo in ", "4619": "no ha ", "4620": "scuoi ", "4621": "de \u2019l ", "4622": "lo al ", "4623": "ti un ", "4624": "re a\u2019 ", "4625": "re ir ", "4626": "s\u2019 el ", "4627": "gno i ", "4628": "va il ", "4629": "d\u00f2 \u2019l ", "4630": "lo or ", "4631": "d\u2019 un ", "4632": "ci a\u2019 ", "4633": "v\u2019 ei ", "4634": "se or ", "4635": "r\u00ec \u2019l ", "4636": "gi il ", "4637": "re un ", "4638": "d\u2019 ei ", "4639": "ma in ", "4640": "zia o ", "4641": "co al ", "4642": "ste e ", "4643": "se ho ", "4644": "cea o ", "4645": "t\u00f2 un ", "4646": "to io ", "4647": "do il ", "4648": "d\u2019 io ", "4649": "co or ", "4650": "mo ei ", "4651": "be al ", "4652": "v\u2019 e\u2019 ", "4653": "gia o ", "4654": "me or ", "4655": "sciar ", "4656": "to ai ", "4657": "ci\u00f2 a ", "4658": "sa in ", "4659": "ia il ", "4660": "ne ai ", "4661": "fa \u2019l ", "4662": "co un ", "4663": "le al ", "4664": "no in ", "4665": "tro a ", "4666": "no a\u2019 ", "4667": "fo or ", "4668": "ri al ", "4669": "ti ei ", "4670": "mi ad ", "4671": "dro e ", "4672": "to ir ", "4673": "fu \u2019l ", "4674": "le il ", "4675": "li un ", "4676": "ti \u2019l ", "4677": "mo un ", "4678": "rio e ", "4679": "lo ed ", "4680": "so in ", "4681": "be ed ", "4682": "ni in ", "4683": "gue \u00e8 ", "4684": "dri e ", "4685": "smo a ", "4686": "mi \u2019l ", "4687": "ni al ", "4688": "re or ", "4689": "ghiar ", "4690": "stier ", "4691": "va ed ", "4692": "ve al ", "4693": "to i\u2019 ", "4694": "zia \u00e8 ", "4695": "ci io ", "4696": "z\u00f2 \u2019l ", "4697": "p\u2019 io ", "4698": "ra io ", "4699": "tra \u2019 ", "4700": "la \u2019l ", "4701": "ge un ", "4702": "lo a\u2019 ", "4703": "so \u00e8e ", "4704": "no il ", "4705": "si il ", "4706": "ria \u00e8 ", "4707": "di in ", "4708": "r\u00f2 il ", "4709": "zi ai ", "4710": "ca in ", "4711": "li i\u2019 ", "4712": "mi al ", "4713": "na al ", "4714": "f\u00e9 \u2019l ", "4715": "gnaio ", "4716": "stion ", "4717": "pe ad ", "4718": "si el ", "4719": "pa in ", "4720": "n\u00e9 \u2019l ", "4721": "de in ", "4722": "ce un ", "4723": "si \u2019l ", "4724": "ma a\u2019 ", "4725": "va io ", "4726": "da i\u2019 ", "4727": "la ed ", "4728": "li ad ", "4729": "no u\u2019 ", "4730": "ri in ", "4731": "pr\u2019 a ", "4732": "te al ", "4733": "stral ", "4734": "vi il ", "4735": "bia e ", "4736": "se un ", "4737": "ro ad ", "4738": "co a\u2019 ", "4739": "lo ha ", "4740": "se il ", "4741": "gua e ", "4742": "bi in ", "4743": "be i\u2019 ", "4744": "se in ", "4745": "ro un ", "4746": "vi in ", "4747": "vi un ", "4748": "t\u00ec \u2019l ", "4749": "re i\u2019 ", "4750": "li io ", "4751": "la io ", "4752": "r\u2019 al ", "4753": "ti ed ", "4754": "v\u2019 ho ", "4755": "ch\u2019 a ", "4756": "mi un ", "4757": "s\u2019 e\u2019 ", "4758": "mio e ", "4759": "svuol ", "4760": "so al ", "4761": "ce il ", "4762": "le \u2019l ", "4763": "si in ", "4764": "mi ed ", "4765": "v\u00f2 \u2019l ", "4766": "po al ", "4767": "lo ad ", "4768": "li or ", "4769": "bo in ", "4770": "do ed ", "4771": "qui e ", "4772": "que a ", "4773": "ghe e ", "4774": "di a\u2019 ", "4775": "lio a ", "4776": "t\u2019 io ", "4777": "g\u00f2 \u2019l ", "4778": "no ed ", "4779": "te io ", "4780": "ma \u2019n ", "4781": "ghe a ", "4782": "di al ", "4783": "scian ", "4784": "ta ho ", "4785": "ia in ", "4786": "s\u00ec al ", "4787": "tre e ", "4788": "to in ", "4789": "ve in ", "4790": "ce in ", "4791": "di ed ", "4792": "ge al ", "4793": "sto e ", "4794": "le ad ", "4795": "gio a ", "4796": "te in ", "4797": "ga in ", "4798": "da or ", "4799": "na \u2019n ", "4800": "ci il ", "4801": "staio ", "4802": "me il ", "4803": "ste i ", "4804": "la un ", "4805": "chi e ", "4806": "ve il ", "4807": "be or ", "4808": "co ad ", "4809": "nia a ", "4810": "do al ", "4811": "ta il ", "4812": "le i\u2019 ", "4813": "ia oh ", "4814": "te il ", "4815": "ghi e ", "4816": "to \u2019l ", "4817": "que \u00e8 ", "4818": "qua a ", "4819": "lio \u00e8 ", "4820": "v\u2019 ha ", "4821": "bi un ", "4822": "do a\u2019 ", "4823": "ne or ", "4824": "tri ad ", "4825": "gli al ", "4826": "ch\u2019 om ", "4827": "sia il ", "4828": "gia \u2019l ", "4829": "gno il ", "4830": "stio e ", "4831": "trio e ", "4832": "l\u2019 uom ", "4833": "ch\u2019 ei ", "4834": "cea in ", "4835": "scia e ", "4836": "sto in ", "4837": "gro un ", "4838": "chi in ", "4839": "stie e ", "4840": "ria al ", "4841": "chi a\u2019 ", "4842": "rio in ", "4843": "sdegn\u00f2 ", "4844": "ch\u2019 un ", "4845": "tre a\u2019 ", "4846": "tro ha ", "4847": "tre un ", "4848": "t\u2019 hai ", "4849": "ne han ", "4850": "glia e ", "4851": "gna un ", "4852": "diam i ", "4853": "ra han ", "4854": "tro ed ", "4855": "sche o ", "4856": "di e \u2019 ", "4857": "bio ed ", "4858": "stro e ", "4859": "que al ", "4860": "gno in ", "4861": "cria o ", "4862": "gi\u00f9 in ", "4863": "smo al ", "4864": "stra e ", "4865": "qui \u2019l ", "4866": "gno ed ", "4867": "gi\u00e0 il ", "4868": "chio a ", "4869": "pre in ", "4870": "bia in ", "4871": "ghi \u2019l ", "4872": "gl\u2019 io ", "4873": "pria o ", "4874": "po e \u2019 ", "4875": "pi\u00f9 \u2019l ", "4876": "schiar ", "4877": "stro i ", "4878": "ria il ", "4879": "tro ad ", "4880": "tra i\u2019 ", "4881": "rio ho ", "4882": "to hai ", "4883": "due \u2019l ", "4884": "nia il ", "4885": "vea \u2019l ", "4886": "chio e ", "4887": "gio in ", "4888": "zie al ", "4889": "gno or ", "4890": "ghia a ", "4891": "so\u2019 \u2019n ", "4892": "sti ha ", "4893": "che a\u2019 ", "4894": "ni e \u2019 ", "4895": "zio al ", "4896": "che \u2019l ", "4897": "che il ", "4898": "pria e ", "4899": "ch\u2019 io ", "4900": "chi \u2019n ", "4901": "pra al ", "4902": "ri e \u2019 ", "4903": "dri ai ", "4904": "ti\u2019 un ", "4905": "gi\u00f9 \u2019l ", "4906": "sc\u00ec \u2019l ", "4907": "chi ha ", "4908": "gio al ", "4909": "tra \u2019l ", "4910": "tro in ", "4911": "sta in ", "4912": "ch\u00e9 il ", "4913": "lia il ", "4914": "que or ", "4915": "gia or ", "4916": "dre al ", "4917": "c\u2019 hai ", "4918": "bre a\u2019 ", "4919": "ch\u2019 a\u2019 ", "4920": "ch\u2019 or ", "4921": "rio il ", "4922": "ro e o ", "4923": "gliuol ", "4924": "pra in ", "4925": "pra \u2019l ", "4926": "st\u2019 ho ", "4927": "qua in ", "4928": "pa e \u2019 ", "4929": "cheo e ", "4930": "ro e \u2019 ", "4931": "ch\u00e9 \u2019l ", "4932": "sta un ", "4933": "tre il ", "4934": "tri \u2019l ", "4935": "tro io ", "4936": "stra \u00e8 ", "4937": "tr\u2019 a\u2019 ", "4938": "t\u2019 ha\u2019 ", "4939": "gia il ", "4940": "m\u2019 hai ", "4941": "tre i\u2019 ", "4942": "gia un ", "4943": "gne al ", "4944": "gno al ", "4945": "bia \u2019l ", "4946": "cia al ", "4947": "sco il ", "4948": "pra ed ", "4949": "gi\u00f9 il ", "4950": "lio ed ", "4951": "stro o ", "4952": "tro i\u2019 ", "4953": "pre ha ", "4954": "lia al ", "4955": "cia il ", "4956": "me e \u2019 ", "4957": "ch\u2019 al ", "4958": "chi il ", "4959": "sa e \u2019 ", "4960": "que a\u2019 ", "4961": "tro ai ", "4962": "gna il ", "4963": "cia ad ", "4964": "ti e \u2019 ", "4965": "qua il ", "4966": "ti e i ", "4967": "mia al ", "4968": "tro il ", "4969": "que il ", "4970": "zia in ", "4971": "strans ", "4972": "nio al ", "4973": "glio o ", "4974": "que in ", "4975": "tro al ", "4976": "cea il ", "4977": "dia in ", "4978": "do i p ", "4979": "dr\u00e0 il ", "4980": "glio a ", "4981": "\u2019ve \u2019l ", "4982": "se\u2019 in ", "4983": "tro a\u2019 ", "4984": "ne e i ", "4985": "pi\u00e8 al ", "4986": "di\u2019 \u2019l ", "4987": "sti in ", "4988": "dria e ", "4989": "gua in ", "4990": "d\u2019 uom ", "4991": "na\u2019 il ", "4992": "bra od ", "4993": "tre al ", "4994": "ghi al ", "4995": "qua al ", "4996": "pre a\u2019 ", "4997": "gli\u00f2 i ", "4998": "sto ha ", "4999": "pre \u2019l ", "5000": "sta al ", "5001": "gne \u2019l ", "5002": "la \u2019ve ", "5003": "gio ad ", "5004": "tre in ", "5005": "spra e ", "5006": "bria e ", "5007": "sce il ", "5008": "ch\u2019 ad ", "5009": "pi\u00f9 il ", "5010": "stia e ", "5011": "te han ", "5012": "gi\u2019 or ", "5013": "tra in ", "5014": "dio in ", "5015": "sc\u2019 io ", "5016": "gliuoi ", "5017": "se uom ", "5018": "ne e \u2019 ", "5019": "gi\u00f9 al ", "5020": "sia \u2019l ", "5021": "que i\u2019 ", "5022": "sto io ", "5023": "dia \u2019l ", "5024": "c\u2019 ha\u2019 ", "5025": "vra \u2019l ", "5026": "gna \u2019l ", "5027": "glio e ", "5028": "chia e ", "5029": "schi o ", "5030": "stro a ", "5031": "gio il ", "5032": "sta \u2019n ", "5033": "dro in ", "5034": "ghio e ", "5035": "gli un ", "5036": "dea in ", "5037": "ci\u00f2 \u2019l ", "5038": "sto ad ", "5039": "glia \u00e8 ", "5040": "lea il ", "5041": "ghi in ", "5042": "che \u2019n ", "5043": "fra \u2019l ", "5044": "stra a ", "5045": "pi\u00e9 \u2019l ", "5046": "scio a ", "5047": "c\u2019 han ", "5048": "ch\u00e9 \u2019n ", "5049": "ch\u2019 e\u2019 ", "5050": "s\u2019 hai ", "5051": "fi\u00f2 il ", "5052": "sti il ", "5053": "ch\u2019 \u00e8i ", "5054": "glia a ", "5055": "che un ", "5056": "tra il ", "5057": "tro \u2019l ", "5058": "l\u2019 hai ", "5059": "m\u2019 han ", "5060": "ci\u00f2 io ", "5061": "tra al ", "5062": "gno ha ", "5063": "ciai o ", "5064": "tri il ", "5065": "lui i\u2019 ", "5066": "ni e i ", "5067": "rio ha ", "5068": "mio il ", "5069": "gue in ", "5070": "glie e ", "5071": "ba e \u2019 ", "5072": "ch\u2019 i\u2019 ", "5073": "glia o ", "5074": "tri or ", "5075": "li han ", "5076": "smo in ", "5077": "scia a ", "5078": "si e \u2019 ", "5079": "tro un ", "5080": "ghiaio ", "5081": "chi \u2019l ", "5082": "ro hai ", "5083": "gno a\u2019 ", "5084": "bra in ", "5085": "ch\u2019 in ", "5086": "gna a\u2019 ", "5087": "gi\u00e0 \u2019l ", "5088": "r\u00f3n il ", "5089": "qu\u2019 io ", "5090": "gu\u00ec \u2019l ", "5091": "sce in ", "5092": "gna in ", "5093": "sto il ", "5094": "chi ei ", "5095": "n\u2019 uom ", "5096": "zia il ", "5097": "chio \u00e8 ", "5098": "tr\u2019 al ", "5099": "ci\u00f2 il ", "5100": "so hai ", "5101": "pi\u00f9 al ", "5102": "pia in ", "5103": "pu\u00f2 \u2019l ", "5104": "tr\u2019 io ", "5105": "ch\u2019 el ", "5106": "ste in ", "5107": "ti han ", "5108": "scia o ", "5109": "ch\u2019 ai ", "5110": "gue il ", "5111": "pre al ", "5112": "pi\u00f9 ir ", "5113": "che in ", "5114": "ci e \u2019 ", "5115": "gno ad ", "5116": "pi e i ", "5117": "cia in ", "5118": "sti \u2019l ", "5119": "cio ed ", "5120": "gni in ", "5121": "chi al ", "5122": "li ha\u2019 ", "5123": "schi a ", "5124": "bra ad ", "5125": "sto al ", "5126": "mio in ", "5127": "sta il ", "5128": "ste il ", "5129": "cia ir ", "5130": "gio ha ", "5131": "que ad ", "5132": "va\u2019 il ", "5133": "stro \u00e8 ", "5134": "va e i ", "5135": "cia un ", "5136": "fia il ", "5137": "stri e ", "5138": "che al ", "5139": "dre e \u2019 ", "5140": "glia in ", "5141": "glie in ", "5142": "si e \u2019l ", "5143": "glie \u2019l ", "5144": "re e \u2019l ", "5145": "glia al ", "5146": "chio il ", "5147": "glia il ", "5148": "ca e \u2019l ", "5149": "to \u00e8 \u2019l ", "5150": "to e \u2019l ", "5151": "sci\u00f2 il ", "5152": "na e \u2019l ", "5153": "ma e \u2019l ", "5154": "te e \u2019l ", "5155": "so e \u2019l ", "5156": "do e \u2019n ", "5157": "bo e \u2019l ", "5158": "mo e \u2019l ", "5159": "glio in ", "5160": "naio in ", "5161": "sa e \u2019l ", "5162": "ce e \u2019l ", "5163": "schio e ", "5164": "s\u2019 io e ", "5165": "glia un ", "5166": "va e \u2019l ", "5167": "co e \u2019l ", "5168": "de e \u2019n ", "5169": "ci e \u2019l ", "5170": "go e \u2019l ", "5171": "stra \u2019l ", "5172": "se e \u2019l ", "5173": "chia al ", "5174": "stro or ", "5175": "chio ha ", "5176": "vo e \u2019l ", "5177": "tra e \u2019 ", "5178": "m\u2019 \u00e8 il ", "5179": "la e \u2019l ", "5180": "ta e \u2019n ", "5181": "giai al ", "5182": "me e \u2019n ", "5183": "de e \u2019l ", "5184": "ti e \u2019l ", "5185": "glio or ", "5186": "gnia ad ", "5187": "scia il ", "5188": "be e \u2019l ", "5189": "chio al ", "5190": "ciai oh ", "5191": "stro ed ", "5192": "go \u00e8 in ", "5193": "ga e \u2019l ", "5194": "dia e i ", "5195": "te e \u2019n ", "5196": "me e \u2019l ", "5197": "qu\u2019 ieu ", "5198": "po e \u2019l ", "5199": "lo \u00e8 in ", "5200": "v\u2019 \u00e8 \u2019l ", "5201": "ciai el ", "5202": "stra il ", "5203": "stro in ", "5204": "stri in ", "5205": "za e \u2019l ", "5206": "stia ad ", "5207": "le e \u2019l ", "5208": "gne uom ", "5209": "to o al ", "5210": "bre e \u2019 ", "5211": "ta e \u2019l ", "5212": "l\u2019 \u00e8 \u2019l ", "5213": "schia e ", "5214": "va e \u2019n ", "5215": "no e \u2019l ", "5216": "m\u2019 \u00e8 \u2019l ", "5217": "stro il ", "5218": "mi e \u2019l ", "5219": "ra e \u2019l ", "5220": "gnia in ", "5221": "ne e \u2019l ", "5222": "ro e \u2019l ", "5223": "lio e i ", "5224": "glio ai ", "5225": "zo e \u2019l ", "5226": "chio in ", "5227": "che e \u2019 ", "5228": "ch\u2019 uom ", "5229": "chi e \u2019l ", "5230": "dre e \u2019l ", "5231": "l\u2019 avria ", "5232": "to ha \u2019l ", "5233": "li ha in ", "5234": "zie e \u2019l ", "5235": "d\u2019 io \u2019l ", "5236": "ria e \u2019l ", "5237": "v\u2019 ha \u2019l ", "5238": "pra e \u2019l ", "5239": "s\u2019 i\u2019 \u2019l ", "5240": "st\u2019 \u00e8 \u2019l ", "5241": "tri e \u2019l ", "5242": "sta e \u2019l ", "5243": "c\u2019 ha \u2019l ", "5244": "gio e \u2019l ", "5245": "sio e \u2019l ", "5246": "sti \u00e8 \u2019l ", "5247": "tr\u2019 \u00e8 \u2019l ", "5248": "te ha in ", "5249": "cia e \u2019l ", "5250": "tre e \u2019l ", "5251": "tra e \u2019l ", "5252": "dio e \u2019l ", "5253": "ria \u00e8 \u2019l ", "5254": "zio e \u2019l ", "5255": "schi uom ", "5256": "so ha \u2019l ", "5257": "bia e \u2019l ", "5258": "bra e \u2019l ", "5259": "que e \u2019l ", "5260": "chio e \u2019l ", "5261": "stro e \u2019l ", "5262": "li er\u2019 io ", "5263": "chie e \u2019n ", "5264": "ch\u2019 i\u2019 \u2019l ", "5265": "ch\u2019 io \u2019l ", "5266": "chio o \u2019l ", "5267": "re avrian ", "5268": "scia e \u2019l ", "5269": "glio e \u2019l ", "5270": "s\u2019 io e \u2019l ", "5271": "r\u00e0tro e \u2019l "}