{"0": "", "1": "<v>", "2": "</v>", "3": "<t>", "4": "</t>", "5": " ", "6": "u", "7": "\u00f9", "8": "\u00ef", "9": "\u00eb", "10": "\u00e9", "11": "d", "12": "\u00e8", "13": "p", "14": "\u00f2", "15": "o", "16": "\u00fc", "17": "\u00ec", "18": "l", "19": "i", "20": "a", "21": "e", "22": "v\u00e9", "23": "ai", "24": "ol", "25": "de", "26": "c\u00ef", "27": "p\u00ec", "28": "c\u00f2", "29": "s\u00f2", "30": "ar", "31": "f\u00f3", "32": "su", "33": "c\u00f9", "34": "\u00ecs", "35": "em", "36": "vo", "37": "el", "38": "pu", "39": "r\u00ef", "40": "iu", "41": "\u00f9l", "42": "ag", "43": "e\u2019", "44": "ha", "45": "z\u2019", "46": "f\u00eb", "47": "l\u00e0", "48": "t\u00ec", "49": "ho", "50": "os", "51": "\u00e0m", "52": "fo", "53": "g\u2019", "54": "oh", "55": "r\u00e8", "56": "g\u00e8", "57": "ab", "58": "ve", "59": "ul", "60": "\u00e8n", "61": "c\u00eb", "62": "s\u00eb", "63": "s\u00f9", "64": "xi", "65": "am", "66": "n\u00f2", "67": "vi", "68": "ec", "69": "d\u00e0", "70": "ze", "71": "io", "72": "l\u00f6", "73": "et", "74": "to", "75": "s\u00fc", "76": "m\u2019", "77": "f\u00ef", "78": "vu", "79": "v\u2019", "80": "pi", "81": "un", "82": "od", "83": "ie", "84": "fe", "85": "\u2019l", "86": "se", "87": "og", "88": "d\u00fc", "89": "\u00e8e", "90": "g\u00ec", "91": "\u00e0s", "92": "n\u00eb", "93": "c\u00e9", "94": "b\u00e8", "95": "l\u2019", "96": "ne", "97": "ir", "98": "n\u2019", "99": "n\u00ec", "100": "d\u00e9", "101": "b\u2019", "102": "um", "103": "b\u00ef", "104": "au", "105": "as", "106": "d\u00ef", "107": "b\u00eb", "108": "g\u00eb", "109": "ca", "110": "oc", "111": "b\u00f2", "112": "ba", "113": "me", "114": "n\u00fc", "115": "ni", "116": "z\u00ef", "117": "l\u00ec", "118": "eb", "119": "du", "120": "g\u00f2", "121": "\u00e0r", "122": "hi", "123": "ci", "124": "l\u00eb", "125": "ac", "126": "za", "127": "go", "128": "gi", "129": "tu", "130": "ed", "131": "m\u00ec", "132": "s\u00e8", "133": "d\u00eb", "134": "r\u00e0", "135": "b\u00f9", "136": "zo", "137": "m\u00e4", "138": "bo", "139": "om", "140": "t\u00ef", "141": "ge", "142": "zi", "143": "z\u00f2", "144": "gu", "145": "f\u00e0", "146": "f\u00f2", "147": "mi", "148": "on", "149": "u\u2019", "150": "lo", "151": "p\u00eb", "152": "p\u00e8", "153": "l\u00ef", "154": "es", "155": "t\u00e8", "156": "pa", "157": "p\u2019", "158": "t\u00f9", "159": "s\u00ef", "160": "s\u00e0", "161": "n\u00e8", "162": "n\u00e9", "163": "si", "164": "n\u00e0", "165": "af", "166": "c\u00ec", "167": "ob", "168": "l\u00f2", "169": "l\u00fc", "170": "r\u00f3", "171": "r\u00ec", "172": "er", "173": "or", "174": "a\u2019", "175": "p\u00ef", "176": "ra", "177": "az", "178": "v\u00e8", "179": "g\u00ef", "180": "d\u2019", "181": "in", "182": "\u00e9n", "183": "ia", "184": "\u00f2s", "185": "da", "186": "v\u00ec", "187": "m\u00f2", "188": "\u00e8l", "189": "c\u00fc", "190": "v\u00f2", "191": "s\u00e9", "192": "av", "193": "ce", "194": "is", "195": "ov", "196": "ta", "197": "g\u00f3", "198": "\u2019m", "199": "v\u00ef", "200": "c\u2019", "201": "ur", "202": "p\u00fc", "203": "mo", "204": "fu", "205": "fi", "206": "m\u00e8", "207": "re", "208": "la", "209": "cu", "210": "b\u00ec", "211": "il", "212": "uo", "213": "t\u2019", "214": "at", "215": "ri", "216": "be", "217": "r\u2019", "218": "do", "219": "co", "220": "en", "221": "g\u00fc", "222": "eu", "223": "m\u00ef", "224": "r\u00eb", "225": "n\u00ef", "226": "fa", "227": "t\u00e4", "228": "im", "229": "c\u00e8", "230": "t\u00fc", "231": "ad", "232": "li", "233": "ot", "234": "bi", "235": "te", "236": "mu", "237": "no", "238": "r\u00f2", "239": "di", "240": "d\u00f2", "241": "po", "242": "na", "243": "ap", "244": "\u00f2n", "245": "ei", "246": "t\u00e9", "247": "t\u00f2", "248": "lu", "249": "d\u00ec", "250": "us", "251": "an", "252": "ga", "253": "ma", "254": "op", "255": "t\u00e0", "256": "pe", "257": "nu", "258": "bu", "259": "\u00f3n", "260": "le", "261": "t\u00eb", "262": "i\u2019", "263": "l\u00e8", "264": "\u00e8i", "265": "ti", "266": "ae", "267": "ex", "268": "of", "269": "uc", "270": "s\u2019", "271": "\u00e0n", "272": "f\u00e9", "273": "id", "274": "v\u00e4", "275": "va", "276": "p\u00f2", "277": "ro", "278": "ef", "279": "sa", "280": "so", "281": "\u2019n", "282": "s\u00ec", "283": "v\u00eb", "284": "m\u00eb", "285": "ru", "286": "al", "287": "\u00e8v", "288": "vei", "289": "fac", "290": "di\u00e8", "291": "tic", "292": "ber", "293": "ma\u2019", "294": "ter", "295": "teo", "296": "sug", "297": "sra", "298": "uom", "299": "sof", "300": "rig", "301": "gau", "302": "tia", "303": "smu", "304": "bel", "305": "dee", "306": "lia", "307": "fri", "308": "sov", "309": "unt", "310": "sub", "311": "sas", "312": "tra", "313": "lea", "314": "chi", "315": "sod", "316": "ciu", "317": "vit", "318": "fai", "319": "\u2018te", "320": "cal", "321": "gui", "322": "sv\u00ef", "323": "uo\u2019", "324": "teg", "325": "f\u00e9l", "326": "ch\u00ec", "327": "ros", "328": "sai", "329": "lap", "330": "cuo", "331": "bl\u00ef", "332": "sud", "333": "jau", "334": "dom", "335": "com", "336": "vra", "337": "pun", "338": "dru", "339": "est", "340": "nuc", "341": "ree", "342": "sem", "343": "pot", "344": "f\u00e0s", "345": "git", "346": "bir", "347": "der", "348": "mac", "349": "f\u00f3n", "350": "ni\u2019", "351": "dis", "352": "rap", "353": "tr\u00ef", "354": "nol", "355": "xil", "356": "r\u00ecb", "357": "tim", "358": "lec", "359": "gro", "360": "sna", "361": "deg", "362": "red", "363": "roc", "364": "ror", "365": "cri", "366": "des", "367": "mii", "368": "son", "369": "dec", "370": "pur", "371": "vid", "372": "r\u00f3n", "373": "quo", "374": "nia", "375": "ior", "376": "bee", "377": "va\u2019", "378": "sc\u00ec", "379": "fis", "380": "\u2018la", "381": "cat", "382": "doc", "383": "dr\u00e0", "384": "mag", "385": "rob", "386": "rec", "387": "lot", "388": "sp\u00ef", "389": "cea", "390": "n\u00f2s", "391": "cun", "392": "ram", "393": "lim", "394": "pr\u00e0", "395": "gra", "396": "rof", "397": "tal", "398": "rut", "399": "tun", "400": "reg", "401": "dar", "402": "cra", "403": "qua", "404": "mor", "405": "vis", "406": "poz", "407": "cil", "408": "tui", "409": "fam", "410": "fro", "411": "ple", "412": "cez", "413": "dai", "414": "sob", "415": "pos", "416": "dri", "417": "rog", "418": "rat", "419": "beo", "420": "som", "421": "mea", "422": "mem", "423": "t\u00f2r", "424": "f\u00e9e", "425": "deb", "426": "bru", "427": "cro", "428": "bie", "429": "dr\u00e4", "430": "rav", "431": "lit", "432": "gan", "433": "guo", "434": "pl\u00ec", "435": "deh", "436": "iep", "437": "nai", "438": "lei", "439": "fle", "440": "bue", "441": "gni", "442": "lup", "443": "sno", "444": "neo", "445": "par", "446": "ren", "447": "dei", "448": "cia", "449": "luo", "450": "noi", "451": "vin", "452": "mar", "453": "sul", "454": "gi\u2019", "455": "pem", "456": "far", "457": "cum", "458": "cef", "459": "lun", "460": "spa", "461": "lip", "462": "ser", "463": "ra\u2019", "464": "tio", "465": "bab", "466": "gil", "467": "mi\u2019", "468": "rot", "469": "rin", "470": "pac", "471": "dun", "472": "deo", "473": "pie", "474": "iar", "475": "cos", "476": "pai", "477": "br\u00ef", "478": "glo", "479": "bug", "480": "stu", "481": "lee", "482": "nem", "483": "pas", "484": "let", "485": "nef", "486": "geo", "487": "sba", "488": "cul", "489": "vio", "490": "dan", "491": "sis", "492": "cad", "493": "maz", "494": "tuc", "495": "det", "496": "feg", "497": "tez", "498": "vai", "499": "la\u2019", "500": "che", "501": "meg", "502": "buo", "503": "net", "504": "sec", "505": "diz", "506": "pis", "507": "rar", "508": "cei", "509": "gel", "510": "con", "511": "ner", "512": "nis", "513": "fen", "514": "fui", "515": "t\u00e8s", "516": "rai", "517": "cag", "518": "lon", "519": "sol", "520": "zia", "521": "tau", "522": "st\u00f2", "523": "cob", "524": "sde", "525": "nul", "526": "fib", "527": "fel", "528": "gri", "529": "tom", "530": "lat", "531": "vam", "532": "dol", "533": "pan", "534": "de\u2019", "535": "puc", "536": "nur", "537": "\u2019ve", "538": "cut", "539": "meo", "540": "sci", "541": "ch\u00e9", "542": "sca", "543": "l\u00eca", "544": "rum", "545": "cem", "546": "lai", "547": "lez", "548": "vau", "549": "vet", "550": "mai", "551": "mat", "552": "cla", "553": "dr\u00ef", "554": "cur", "555": "peo", "556": "pii", "557": "soc", "558": "hai", "559": "t\u00e0n", "560": "san", "561": "von", "562": "cis", "563": "zac", "564": "cep", "565": "pal", "566": "tum", "567": "ras", "568": "tam", "569": "reb", "570": "lav", "571": "dur", "572": "tru", "573": "res", "574": "gu\u00ec", "575": "rug", "576": "bun", "577": "tad", "578": "n\u00ece", "579": "val", "580": "men", "581": "fum", "582": "car", "583": "cel", "584": "m\u00e8c", "585": "r\u00ecs", "586": "gie", "587": "lom", "588": "svo", "589": "s\u00f9e", "590": "bef", "591": "toc", "592": "gor", "593": "duo", "594": "v\u00f2l", "595": "leb", "596": "bea", "597": "za\u2019", "598": "dra", "599": "sma", "600": "fie", "601": "dro", "602": "cet", "603": "sag", "604": "cr\u00e0", "605": "dos", "606": "van", "607": "das", "608": "del", "609": "put", "610": "cui", "611": "sbi", "612": "han", "613": "fal", "614": "tr\u00f2", "615": "tuf", "616": "tai", "617": "cac", "618": "loc", "619": "gen", "620": "fet", "621": "l\u00e8m", "622": "gua", "623": "nha", "624": "tea", "625": "gur", "626": "ban", "627": "sfe", "628": "fru", "629": "t\u00f3n", "630": "lis", "631": "vir", "632": "sel", "633": "dif", "634": "st\u00e9", "635": "pec", "636": "\u2018be", "637": "fue", "638": "num", "639": "sti", "640": "gi\u00e0", "641": "vie", "642": "co\u2019", "643": "d\u00ect", "644": "mon", "645": "sam", "646": "spi", "647": "boz", "648": "vor", "649": "sco", "650": "vec", "651": "sii", "652": "s\u00ece", "653": "ris", "654": "tes", "655": "bom", "656": "bar", "657": "lem", "658": "mir", "659": "sar", "660": "smo", "661": "svi", "662": "cor", "663": "te\u2019", "664": "get", "665": "ful", "666": "pi\u00e9", "667": "n\u00ect", "668": "fos", "669": "viz", "670": "tar", "671": "paz", "672": "raz", "673": "fig", "674": "dal", "675": "lic", "676": "via", "677": "mes", "678": "vos", "679": "pi\u00f9", "680": "ret", "681": "pub", "682": "sce", "683": "m\u00eca", "684": "ve\u2019", "685": "ton", "686": "pli", "687": "mer", "688": "dir", "689": "su\u2019", "690": "sor", "691": "rim", "692": "mur", "693": "reo", "694": "col", "695": "gno", "696": "tri", "697": "dr\u00ec", "698": "nac", "699": "nal", "700": "gli", "701": "zur", "702": "pil", "703": "nii", "704": "rag", "705": "gei", "706": "ieu", "707": "gi\u00f9", "708": "rol", "709": "tle", "710": "dus", "711": "voi", "712": "v\u00ecd", "713": "gib", "714": "bai", "715": "zul", "716": "poi", "717": "fan", "718": "c\u00f2l", "719": "pig", "720": "lam", "721": "set", "722": "t\u00e9r", "723": "guc", "724": "mot", "725": "lil", "726": "sit", "727": "fat", "728": "bol", "729": "ha\u2019", "730": "pom", "731": "gom", "732": "min", "733": "b\u00e0l", "734": "mia", "735": "soz", "736": "gia", "737": "cop", "738": "fer", "739": "les", "740": "l\u00f2n", "741": "seo", "742": "ahi", "743": "mie", "744": "st\u00f9", "745": "tac", "746": "niz", "747": "sio", "748": "rea", "749": "clo", "750": "pr\u2019", "751": "dug", "752": "rir", "753": "zel", "754": "zan", "755": "sve", "756": "sui", "757": "fiu", "758": "lor", "759": "bri", "760": "ceo", "761": "vas", "762": "gi\u00f2", "763": "tir", "764": "laz", "765": "mum", "766": "hon", "767": "buf", "768": "pri", "769": "sin", "770": "\u2018ne", "771": "fom", "772": "nuo", "773": "pog", "774": "sle", "775": "sia", "776": "b\u00e8l", "777": "bev", "778": "vel", "779": "mam", "780": "len", "781": "neg", "782": "ruo", "783": "var", "784": "gue", "785": "suf", "786": "gre", "787": "caf", "788": "cre", "789": "pia", "790": "luz", "791": "dez", "792": "flu", "793": "tor", "794": "nag", "795": "muf", "796": "sep", "797": "nev", "798": "bec", "799": "gim", "800": "ger", "801": "iat", "802": "fon", "803": "gna", "804": "bul", "805": "sal", "806": "cru", "807": "sez", "808": "que", "809": "zio", "810": "vea", "811": "tr\u00e0", "812": "fu\u2019", "813": "fei", "814": "so\u2019", "815": "seg", "816": "piz", "817": "cov", "818": "dui", "819": "pon", "820": "ta\u2019", "821": "bre", "822": "me\u2019", "823": "fol", "824": "\u00e8 u", "825": "cer", "826": "ci\u00f2", "827": "rac", "828": "nob", "829": "fio", "830": "cin", "831": "f\u00e8l", "832": "mez", "833": "gin", "834": "gh\u2019", "835": "zaf", "836": "rup", "837": "nes", "838": "run", "839": "gal", "840": "til", "841": "dic", "842": "nei", "843": "bro", "844": "lu\u2019", "845": "e a", "846": "bat", "847": "biz", "848": "pul", "849": "coz", "850": "fit", "851": "d\u00ece", "852": "pea", "853": "gab", "854": "nor", "855": "sgo", "856": "p\u00eca", "857": "bli", "858": "moz", "859": "lar", "860": "vag", "861": "sc\u00ef", "862": "vii", "863": "sua", "864": "rii", "865": "nas", "866": "nun", "867": "feo", "868": "sto", "869": "vul", "870": "gar", "871": "pr\u00ec", "872": "st\u2019", "873": "sap", "874": "dem", "875": "nen", "876": "gad", "877": "mio", "878": "gio", "879": "cen", "880": "pic", "881": "dub", "882": "nir", "883": "ga\u2019", "884": "spe", "885": "leo", "886": "dut", "887": "mae", "888": "pit", "889": "bis", "890": "nat", "891": "sta", "892": "ran", "893": "pru", "894": "dop", "895": "ves", "896": "cas", "897": "gru", "898": "gas", "899": "roz", "900": "zon", "901": "fe\u2019", "902": "nan", "903": "sga", "904": "c\u00f3l", "905": "t\u00f2n", "906": "sau", "907": "ne\u2019", "908": "fur", "909": "plu", "910": "ral", "911": "vil", "912": "tis", "913": "fin", "914": "suc", "915": "pi\u00e8", "916": "f\u00e0t", "917": "tuo", "918": "suo", "919": "ghi", "920": "gob", "921": "bia", "922": "nic", "923": "gir", "924": "e i", "925": "fi\u00f2", "926": "fil", "927": "p\u00f2s", "928": "dr\u00f2", "929": "fi\u2019", "930": "coi", "931": "ste", "932": "pir", "933": "mee", "934": "cit", "935": "cir", "936": "mul", "937": "pen", "938": "lul", "939": "bil", "940": "rer", "941": "n\u00eca", "942": "p\u00e0r", "943": "st\u00ef", "944": "goz", "945": "pla", "946": "piu", "947": "cio", "948": "lie", "949": "lui", "950": "due", "951": "tie", "952": "giz", "953": "sat", "954": "bi\u00f2", "955": "r\u00e8g", "956": "rua", "957": "tue", "958": "sot", "959": "c\u00f2b", "960": "nel", "961": "den", "962": "sos", "963": "mil", "964": "nez", "965": "nie", "966": "gon", "967": "dua", "968": "bur", "969": "puz", "970": "tro", "971": "r\u00f2l", "972": "gam", "973": "ron", "974": "boc", "975": "sog", "976": "lus", "977": "vem", "978": "bot", "979": "sc\u2019", "980": "ion", "981": "ses", "982": "mug", "983": "c\u00e0n", "984": "man", "985": "pre", "986": "cie", "987": "z\u00f2n", "988": "dot", "989": "dre", "990": "bui", "991": "ces", "992": "giu", "993": "st\u00ec", "994": "vac", "995": "vo\u2019", "996": "lut", "997": "tet", "998": "fra", "999": "ven", "1000": "sfa", "1001": "poc", "1002": "tii", "1003": "cai", "1004": "din", "1005": "rit", "1006": "neb", "1007": "dim", "1008": "rie", "1009": "mol", "1010": "mus", "1011": "tel", "1012": "guz", "1013": "non", "1014": "bin", "1015": "fre", "1016": "tut", "1017": "muc", "1018": "saf", "1019": "pu\u00f2", "1020": "gne", "1021": "m\u00e9z", "1022": "ruf", "1023": "bio", "1024": "per", "1025": "tec", "1026": "pol", "1027": "mos", "1028": "dor", "1029": "fes", "1030": "l\u00eco", "1031": "feb", "1032": "don", "1033": "ian", "1034": "ean", "1035": "pap", "1036": "ti\u2019", "1037": "las", "1038": "gol", "1039": "tin", "1040": "e \u2019", "1041": "gaz", "1042": "lan", "1043": "cap", "1044": "mic", "1045": "n\u00f2i", "1046": "pau", "1047": "gem", "1048": "cle", "1049": "muo", "1050": "tat", "1051": "no\u2019", "1052": "sum", "1053": "qu\u2019", "1054": "dia", "1055": "fic", "1056": "tur", "1057": "joi", "1058": "sen", "1059": "vat", "1060": "cic", "1061": "riz", "1062": "fuc", "1063": "zuf", "1064": "goc", "1065": "dat", "1066": "veg", "1067": "qui", "1068": "cuc", "1069": "tan", "1070": "se\u2019", "1071": "dit", "1072": "pro", "1073": "sr\u00e4", "1074": "raf", "1075": "pop", "1076": "ria", "1077": "pet", "1078": "tho", "1079": "sur", "1080": "sab", "1081": "mal", "1082": "ril", "1083": "rui", "1084": "st\u00e0", "1085": "dau", "1086": "pat", "1087": "na\u2019", "1088": "coc", "1089": "gnu", "1090": "nim", "1091": "tei", "1092": "lin", "1093": "mei", "1094": "cam", "1095": "\u2019v\u2019", "1096": "\u00f2th", "1097": "lac", "1098": "sa\u2019", "1099": "nig", "1100": "c\u00e9r", "1101": "rel", "1102": "sil", "1103": "ler", "1104": "nil", "1105": "ruc", "1106": "vuo", "1107": "pei", "1108": "lir", "1109": "die", "1110": "nec", "1111": "for", "1112": "scu", "1113": "nio", "1114": "bra", "1115": "fas", "1116": "d\u00e8i", "1117": "spu", "1118": "lio", "1119": "cu\u2019", "1120": "pin", "1121": "dob", "1122": "zai", "1123": "s\u00f3n", "1124": "got", "1125": "nin", "1126": "gag", "1127": "dam", "1128": "gl\u2019", "1129": "nea", "1130": "ver", "1131": "sfo", "1132": "rab", "1133": "r\u00ece", "1134": "ch\u2019", "1135": "lop", "1136": "smi", "1137": "tr\u2019", "1138": "zii", "1139": "noc", "1140": "ch\u00ef", "1141": "sev", "1142": "noz", "1143": "cli", "1144": "mun", "1145": "not", "1146": "vez", "1147": "pes", "1148": "lel", "1149": "tre", "1150": "pel", "1151": "sbe", "1152": "met", "1153": "ges", "1154": "bor", "1155": "tas", "1156": "luc", "1157": "top", "1158": "ten", "1159": "lab", "1160": "rom", "1161": "b\u00eca", "1162": "tos", "1163": "di\u2019", "1164": "fem", "1165": "mas", "1166": "dul", "1167": "g\u00f3r", "1168": "sei", "1169": "bet", "1170": "fug", "1171": "lep", "1172": "fab", "1173": "tag", "1174": "re\u2019", "1175": "fun", "1176": "sic", "1177": "gu\u00f2", "1178": "can", "1179": "gis", "1180": "d\u00eca", "1181": "gea", "1182": "spo", "1183": "ghe", "1184": "zie", "1185": "da\u2019", "1186": "sue", "1187": "ric", "1188": "cau", "1189": "puo", "1190": "gat", "1191": "fla", "1192": "qu\u00ef", "1193": "tol", "1194": "gai", "1195": "rez", "1196": "sun", "1197": "tem", "1198": "rio", "1199": "vol", "1200": "rem", "1201": "t\u00f2m", "1202": "sir", "1203": "bon", "1204": "pio", "1205": "zar", "1206": "mel", "1207": "m\u00ecs", "1208": "rei", "1209": "sus", "1210": "bac", "1211": "du\u2019", "1212": "nar", "1213": "dov", "1214": "zuc", "1215": "leg", "1216": "ben", "1217": "nom", "1218": "sla", "1219": "sie", "1220": "bei", "1221": "clu", "1222": "sac", "1223": "pra", "1224": "fuo", "1225": "fog", "1226": "rao", "1227": "g\u00f3n", "1228": "sup", "1229": "dil", "1230": "bus", "1231": "bal", "1232": "sme", "1233": "tua", "1234": "dea", "1235": "dio", "1236": "but", "1237": "lur", "1238": "ier", "1239": "n\u00e8s", "1240": "plo", "1241": "cl\u00ef", "1242": "por", "1243": "tus", "1244": "buc", "1245": "ri\u2019", "1246": "peg", "1247": "rid", "1248": "fau", "1249": "f\u00e0c", "1250": "sop", "1251": "fia", "1252": "vom", "1253": "lau", "1254": "bas", "1255": "cot", "1256": "dii", "1257": "ti \u00e8", "1258": "brac", "1259": "ples", "1260": "stet", "1261": "prez", "1262": "gres", "1263": "stig", "1264": "grat", "1265": "spec", "1266": "spuo", "1267": "niam", "1268": "guel", "1269": "ne \u00e8", "1270": "cia\u2019", "1271": "l\u00e0 i", "1272": "lian", "1273": "sten", "1274": "cheg", "1275": "svia", "1276": "chin", "1277": "guon", "1278": "scen", "1279": "grue", "1280": "quis", "1281": "sfat", "1282": "scac", "1283": "sien", "1284": "mie\u2019", "1285": "fuor", "1286": "grez", "1287": "quil", "1288": "ghil", "1289": "gias", "1290": "sven", "1291": "fron", "1292": "bian", "1293": "quat", "1294": "flit", "1295": "sfor", "1296": "le \u00e8", "1297": "pion", "1298": "sgra", "1299": "gras", "1300": "trul", "1301": "stul", "1302": "scri", "1303": "quen", "1304": "vria", "1305": "gnuo", "1306": "pric", "1307": "piez", "1308": "li \u00e8", "1309": "sc\u00eco", "1310": "ghes", "1311": "brie", "1312": "sfre", "1313": "gnes", "1314": "tier", "1315": "trie", "1316": "ta \u00e8", "1317": "gnem", "1318": "sgan", "1319": "tren", "1320": "spit", "1321": "caio", "1322": "chio", "1323": "fioc", "1324": "bron", "1325": "\u2019vun", "1326": "breo", "1327": "ciom", "1328": "lo \u00e8", "1329": "l\u00ec e", "1330": "quie", "1331": "laio", "1332": "ghio", "1333": "zion", "1334": "luia", "1335": "cheo", "1336": "spin", "1337": "plar", "1338": "puol", "1339": "li \u2019", "1340": "chez", "1341": "runt", "1342": "driz", "1343": "r\u00ec u", "1344": "chie", "1345": "chet", "1346": "s\u00ec i", "1347": "guef", "1348": "ciar", "1349": "giac", "1350": "cral", "1351": "la \u00e8", "1352": "sci\u00f2", "1353": "drit", "1354": "snel", "1355": "gnar", "1356": "viem", "1357": "dien", "1358": "ciap", "1359": "frui", "1360": "suol", "1361": "duol", "1362": "rien", "1363": "trap", "1364": "trec", "1365": "bris", "1366": "dhae", "1367": "scun", "1368": "spen", "1369": "sgri", "1370": "rian", "1371": "stel", "1372": "stam", "1373": "plor", "1374": "ster", "1375": "clug", "1376": "pa \u00e8", "1377": "pia\u2019", "1378": "guiz", "1379": "ched", "1380": "scop", "1381": "tret", "1382": "sciu", "1383": "stuo", "1384": "tree", "1385": "gian", "1386": "e ar", "1387": "miei", "1388": "sfam", "1389": "frat", "1390": "pris", "1391": "smor", "1392": "greg", "1393": "sdeg", "1394": "guit", "1395": "scis", "1396": "fiar", "1397": "gaio", "1398": "sgor", "1399": "gnum", "1400": "muor", "1401": "stop", "1402": "star", "1403": "gnan", "1404": "guia", "1405": "gnus", "1406": "\u00e8 il", "1407": "nier", "1408": "scoc", "1409": "fles", "1410": "scor", "1411": "piac", "1412": "pi\u00f9e", "1413": "pluo", "1414": "brei", "1415": "spez", "1416": "chiu", "1417": "scem", "1418": "glet", "1419": "tras", "1420": "trag", "1421": "e il", "1422": "smal", "1423": "gien", "1424": "buoi", "1425": "broc", "1426": "buon", "1427": "stui", "1428": "drel", "1429": "bent", "1430": "stio", "1431": "pros", "1432": "ghir", "1433": "grom", "1434": "tr\u00e0s", "1435": "spre", "1436": "spun", "1437": "dies", "1438": "prio", "1439": "piag", "1440": "glau", "1441": "spri", "1442": "gher", "1443": "brug", "1444": "tron", "1445": "prun", "1446": "truo", "1447": "ra \u00e8", "1448": "biac", "1449": "scuf", "1450": "gnun", "1451": "vier", "1452": "nien", "1453": "tiam", "1454": "vi \u00e8", "1455": "cras", "1456": "se \u00eb", "1457": "sman", "1458": "tuo\u2019", "1459": "scov", "1460": "str\u2019", "1461": "puom", "1462": "glie", "1463": "proc", "1464": "chia", "1465": "sbri", "1466": "ge \u00e8", "1467": "pron", "1468": "stiz", "1469": "scin", "1470": "spon", "1471": "gior", "1472": "ghet", "1473": "rean", "1474": "scer", "1475": "scab", "1476": "tien", "1477": "glio", "1478": "zi \u00e8", "1479": "clas", "1480": "stre", "1481": "brut", "1482": "ciol", "1483": "dier", "1484": "prec", "1485": "guer", "1486": "gnor", "1487": "quae", "1488": "ca \u00e8", "1489": "scet", "1490": "gron", "1491": "schi", "1492": "fiac", "1493": "fian", "1494": "drir", "1495": "bree", "1496": "puos", "1497": "gnie", "1498": "ma \u00e8", "1499": "sanc", "1500": "o al", "1501": "quar", "1502": "smar", "1503": "spar", "1504": "sfio", "1505": "scev", "1506": "ph\u00e8l", "1507": "brez", "1508": "lier", "1509": "smon", "1510": "fier", "1511": "creb", "1512": "bren", "1513": "pran", "1514": "frir", "1515": "spet", "1516": "grem", "1517": "na \u00e8", "1518": "sfan", "1519": "ciai", "1520": "com\u2019", "1521": "sbra", "1522": "pien", "1523": "flig", "1524": "suon", "1525": "quan", "1526": "clau", "1527": "piat", "1528": "trio", "1529": "gran", "1530": "ziar", "1531": "e in", "1532": "cian", "1533": "scon", "1534": "stri", "1535": "grin", "1536": "gram", "1537": "clis", "1538": "dras", "1539": "f\u00e9 i", "1540": "sie\u2019", "1541": "po \u00e8", "1542": "slao", "1543": "ghin", "1544": "\u00e8 in", "1545": "scos", "1546": "liev", "1547": "scre", "1548": "giar", "1549": "lien", "1550": "cien", "1551": "stuc", "1552": "treb", "1553": "fiam", "1554": "sver", "1555": "stas", "1556": "scam", "1557": "guag", "1558": "dran", "1559": "ci\u00f2l", "1560": "tu \u2019", "1561": "stra", "1562": "co \u00e8", "1563": "guic", "1564": "stis", "1565": "stal", "1566": "sci\u2019", "1567": "egyp", "1568": "prei", "1569": "quer", "1570": "tror", "1571": "guet", "1572": "se \u00e8", "1573": "sban", "1574": "scic", "1575": "frut", "1576": "sbar", "1577": "crin", "1578": "pian", "1579": "si \u00e8", "1580": "gi\u00f9e", "1581": "l\u00ec a", "1582": "fran", "1583": "cean", "1584": "sunt", "1585": "toio", "1586": "cric", "1587": "sier", "1588": "bria", "1589": "ciel", "1590": "stor", "1591": "smoz", "1592": "spaz", "1593": "stei", "1594": "scio", "1595": "vien", "1596": "tra\u2019", "1597": "pren", "1598": "quel", "1599": "blio", "1600": "tean", "1601": "brul", "1602": "dean", "1603": "trat", "1604": "s\u00e9 i", "1605": "sdet", "1606": "sfar", "1607": "svel", "1608": "gnin", "1609": "za \u00e8", "1610": "troc", "1611": "ce \u00e8", "1612": "piog", "1613": "d\u00ec i", "1614": "scar", "1615": "stin", "1616": "tram", "1617": "siam", "1618": "scuo", "1619": "trot", "1620": "pi\u00e9r", "1621": "steo", "1622": "nail", "1623": "suoi", "1624": "slac", "1625": "stie", "1626": "qual", "1627": "tuoi", "1628": "s\u00ec a", "1629": "gean", "1630": "scro", "1631": "no \u00e8", "1632": "prie", "1633": "gnas", "1634": "saia", "1635": "scea", "1636": "gial", "1637": "spal", "1638": "scot", "1639": "stro", "1640": "plau", "1641": "ghie", "1642": "que\u2019", "1643": "prir", "1644": "fret", "1645": "drai", "1646": "piar", "1647": "spic", "1648": "piov", "1649": "spie", "1650": "stem", "1651": "chel", "1652": "c\u00f2th", "1653": "scal", "1654": "giuo", "1655": "br\u00f2t", "1656": "riai", "1657": "spol", "1658": "sfac", "1659": "maia", "1660": "puoi", "1661": "diam", "1662": "guir", "1663": "to \u00e8", "1664": "spor", "1665": "ver\u2019", "1666": "ciuf", "1667": "guan", "1668": "crol", "1669": "scim", "1670": "scie", "1671": "pria", "1672": "flet", "1673": "guio", "1674": "graf", "1675": "sfer", "1676": "grop", "1677": "stru", "1678": "brol", "1679": "plan", "1680": "gnia", "1681": "dram", "1682": "sa \u00e8", "1683": "blan", "1684": "cioc", "1685": "spro", "1686": "giai", "1687": "quin", "1688": "chi\u00f2", "1689": "\u2018glo", "1690": "brot", "1691": "zian", "1692": "muoi", "1693": "fred", "1694": "dra\u2019", "1695": "spia", "1696": "stes", "1697": "ni \u00e8", "1698": "nean", "1699": "go \u00e8", "1700": "quod", "1701": "te \u00e8", "1702": "sneb", "1703": "guil", "1704": "gier", "1705": "trop", "1706": "vuo\u2019", "1707": "stia", "1708": "cion", "1709": "ciam", "1710": "stav", "1711": "vuol", "1712": "piom", "1713": "fior", "1714": "ciul", "1715": "sfin", "1716": "pier", "1717": "gros", "1718": "ci \u00e8", "1719": "gnen", "1720": "cuor", "1721": "nian", "1722": "dria", "1723": "\u00e8 im", "1724": "glia", "1725": "squa", "1726": "de \u00e8", "1727": "gnon", "1728": "ghi\u00f2", "1729": "cria", "1730": "do \u00e8", "1731": "ghia", "1732": "prin", "1733": "chis", "1734": "trae", "1735": "fo \u00e8", "1736": "sgom", "1737": "squi", "1738": "tuon", "1739": "guar", "1740": "gner", "1741": "gnaz", "1742": "stec", "1743": "rent", "1744": "spra", "1745": "vaio", "1746": "gli\u00f2", "1747": "grie", "1748": "smen", "1749": "grap", "1750": "giug", "1751": "spir", "1752": "dron", "1753": "scir", "1754": "str\u00e0", "1755": "tria", "1756": "pri\u2019", "1757": "ciot", "1758": "scia", "1759": "re \u00e8", "1760": "tiem", "1761": "giam", "1762": "tran", "1763": "d\u00e8ch", "1764": "laia", "1765": "trai", "1766": "sian", "1767": "mian", "1768": "crea", "1769": "so \u00e8", "1770": "scom", "1771": "cruc", "1772": "brar", "1773": "spes", "1774": "cias", "1775": "\u2018qui", "1776": "sion", "1777": "trom", "1778": "giot", "1779": "suo\u2019", "1780": "pres", "1781": "bion", "1782": "fren", "1783": "drap", "1784": "stea", "1785": "gnel", "1786": "drea", "1787": "trar", "1788": "biar", "1789": "sber", "1790": "quai", "1791": "trea", "1792": "quia", "1793": "ro \u00e8", "1794": "gion", "1795": "gheg", "1796": "grep", "1797": "stil", "1798": "sden", "1799": "st\u00e8r", "1800": "biet", "1801": "fien", "1802": "mo \u00e8", "1803": "scel", "1804": "sti\u00f2", "1805": "sche", "1806": "trui", "1807": "scan", "1808": "gioi", "1809": "ghel", "1810": "stol", "1811": "guaz", "1812": "prai", "1813": "me \u00e8", "1814": "dian", "1815": "grot", "1816": "ciac", "1817": "chil", "1818": "sdru", "1819": "sper", "1820": "bias", "1821": "dail", "1822": "gual", "1823": "viam", "1824": "trac", "1825": "maio", "1826": "vuoi", "1827": "vian", "1828": "bia\u2019", "1829": "brio", "1830": "quam", "1831": "stai", "1832": "scaz", "1833": "tris", "1834": "cher", "1835": "l\u00ec \u00e8", "1836": "stan", "1837": "guai", "1838": "guis", "1839": "naut", "1840": "ghez", "1841": "scol", "1842": "die\u2019", "1843": "fiot", "1844": "spel", "1845": "span", "1846": "bran", "1847": "vean", "1848": "pruo", "1849": "quei", "1850": "blia", "1851": "st\u00f2r", "1852": "ciuo", "1853": "giun", "1854": "str\u00f2", "1855": "quor", "1856": "naio", "1857": "trei", "1858": "guen", "1859": "cl\u00e8s", "1860": "gliar", "1861": "chioc", "1862": "sciam", "1863": "se ho", "1864": "tri \u00e8", "1865": "sta \u00e8", "1866": "spres", "1867": "re ha", "1868": "chion", "1869": "te ho", "1870": "scris", "1871": "schie", "1872": "pa ho", "1873": "gue \u00e8", "1874": "chiap", "1875": "ria \u2019", "1876": "vrien", "1877": "sciol", "1878": "r\u00f2 il", "1879": "stial", "1880": "glier", "1881": "scioc", "1882": "stian", "1883": "glien", "1884": "sti \u00e8", "1885": "mo ha", "1886": "strai", "1887": "di ha", "1888": "strat", "1889": "stion", "1890": "schio", "1891": "stret", "1892": "pi\u00f9 a", "1893": "schiu", "1894": "stren", "1895": "strug", "1896": "te ha", "1897": "chiet", "1898": "qua \u00e8", "1899": "to ha", "1900": "po ha", "1901": "gia \u00e8", "1902": "gliel", "1903": "praia", "1904": "gna \u00e8", "1905": "scion", "1906": "scuoi", "1907": "strac", "1908": "lio \u00e8", "1909": "gno \u00e8", "1910": "sciar", "1911": "sci\u00e0n", "1912": "voill", "1913": "ghiai", "1914": "zia \u00e8", "1915": "scheg", "1916": "ne ha", "1917": "sciai", "1918": "z\u00f2 il", "1919": "sto \u00e8", "1920": "sgrie", "1921": "ghien", "1922": "glies", "1923": "glion", "1924": "gliam", "1925": "stram", "1926": "za ha", "1927": "bro \u00e8", "1928": "scian", "1929": "sfran", "1930": "di \u00e8e", "1931": "ria \u00e8", "1932": "sgher", "1933": "l\u00ec en", "1934": "spran", "1935": "tra \u2019", "1936": "sciom", "1937": "ch\u00e9 i", "1938": "streg", "1939": "stral", "1940": "sgiun", "1941": "gliuo", "1942": "squil", "1943": "glior", "1944": "puesc", "1945": "schic", "1946": "schia", "1947": "b\u00f2 il", "1948": "t\u00e0 in", "1949": "svuol", "1950": "schet", "1951": "stiam", "1952": "tra \u00e8", "1953": "staio", "1954": "ci ha", "1955": "gluol", "1956": "le ha", "1957": "ce ha", "1958": "gliai", "1959": "scrip", "1960": "gnaio", "1961": "strar", "1962": "lo ha", "1963": "spraz", "1964": "f\u00e9 in", "1965": "chiar", "1966": "chias", "1967": "ghian", "1968": "tu ha", "1969": "l\u00e0 il", "1970": "ra ha", "1971": "schem", "1972": "re ho", "1973": "s\u00ec in", "1974": "sguar", "1975": "squar", "1976": "t\u00f2 un", "1977": "gi\u00e0 i", "1978": "stras", "1979": "chian", "1980": "s\u00e9 in", "1981": "temps", "1982": "scran", "1983": "stroz", "1984": "che \u2019", "1985": "ta ho", "1986": "strin", "1987": "stric", "1988": "chier", "1989": "chiai", "1990": "stroc", "1991": "scrit", "1992": "spiac", "1993": "glian", "1994": "no ha", "1995": "chi \u00e8", "1996": "sciau", "1997": "splen", "1998": "scias", "1999": "ch\u00e9 a", "2000": "gliea", "2001": "tro \u00e8", "2002": "gliet", "2003": "n\u00f2 in", "2004": "so ha", "2005": "stier", "2006": "scial", "2007": "li ha", "2008": "stran", "2009": "sciut", "2010": "strut", "2011": "so \u00e8e", "2012": "ghiar", "2013": "strel", "2014": "ta ha", "2015": "que \u00e8", "2016": "scher", "2017": "strom", "2018": "ti ha", "2019": "do ha", "2020": "s\u00e9 il", "2021": "ghiot", "2022": "na ha", "2023": "zio \u00e8", "2024": "ghiac", "2025": "stro \u00e8", "2026": "do hai", "2027": "te han", "2028": "ch\u00e9 in", "2029": "ra hai", "2030": "schiet", "2031": "vi \u00e8 a", "2032": "li han", "2033": "gliuoi", "2034": "strans", "2035": "sto ha", "2036": "schiat", "2037": "ch\u00e9 as", "2038": "ra han", "2039": "chi ha", "2040": "rio ha", "2041": "pi\u00f9 in", "2042": "ne han", "2043": "go han", "2044": "pi\u00f9 ap", "2045": "stra \u00e8", "2046": "gno ha", "2047": "gliaio", "2048": "gliuol", "2049": "ri han", "2050": "gli\u00f2 i", "2051": "pre ha", "2052": "schiar", "2053": "gio ha", "2054": "ci\u00f2 il", "2055": "rio ho", "2056": "to hai", "2057": "li ha\u2019", "2058": "sti ha", "2059": "chio \u00e8", "2060": "ti han", "2061": "schian", "2062": "che ha", "2063": "ghiaio", "2064": "gi\u00e0 in", "2065": "ch\u00e9 ap", "2066": "ro hai", "2067": "so hai", "2068": "ch\u00e9 il", "2069": "glia \u00e8", "2070": "gi\u00e0 il", "2071": "tro ha", "2072": "go \u00e8 in", "2073": "chio ha", "2074": "mi smar", "2075": "li \u00e8 in", "2076": "sci\u00f2 il", "2077": "dio han", "2078": "lo \u00e8 in", "2079": "sta \u00e8 in", "2080": "stie hai", "2081": "\u00e8 ", "2082": "d\u00f2 ", "2083": "r\u00ec ", "2084": "f\u00e9 ", "2085": "g\u00ec ", "2086": "t\u00e9 ", "2087": "g\u00f2 ", "2088": "t\u00f2 ", "2089": "v\u00f2 ", "2090": "n\u00f2 ", "2091": "t\u00e0 ", "2092": "n\u00e9 ", "2093": "r\u00f2 ", "2094": "z\u00f2 ", "2095": "s\u00ec ", "2096": "t\u00ec ", "2097": "l\u00e0 ", "2098": "gi\u00e0 ", "2099": "gi\u00f9 ", "2100": "gu\u00ec ", "2101": "pi\u00f9 ", "2102": "pu\u00f2 ", "2103": "ci\u00f2 ", "2104": "pi\u00e9 ", "2105": "ch\u00e9 ", "2106": "sc\u00ec ", "2107": "to \u00e8 ", "2108": "sti \u00e8 ", "2109": "dio \u00e8 ", "2110": "ria \u00e8 "}