{"0": "", "1": "<t>", "2": "<v>", "3": "<s>", "4": "</v>", "5": "\u2019", "6": "\u00ef", "7": "\u00f2", "8": "\u00ec", "9": "c", "10": "l", "11": "e", "12": "\u00e8", "13": "\u00f9", "14": "v", "15": "d", "16": "o", "17": "i", "18": "s", "19": "g", "20": "p", "21": "u", "22": "\u00eb", "23": "\u00e9", "24": "\u00fc", "25": "a", "26": "er", "27": "au", "28": "m\u00e4", "29": "m\u2019", "30": "pe", "31": "mu", "32": "p\u2019", "33": "ed", "34": "al", "35": "ro", "36": "r\u2019", "37": "t\u2019", "38": "to", "39": "v\u00ef", "40": "d\u00f2", "41": "of", "42": "l\u00e8", "43": "l\u00e0", "44": "d\u00ec", "45": "g\u00eb", "46": "m\u00e8", "47": "ul", "48": "f\u00ef", "49": "og", "50": "em", "51": "t\u00f2", "52": "me", "53": "eu", "54": "\u00e8v", "55": "z\u00ef", "56": "n\u00eb", "57": "ch", "58": "s\u00e0", "59": "na", "60": "i\u2019", "61": "d\u00eb", "62": "d\u00e0", "63": "af", "64": "il", "65": "t\u00f9", "66": "c\u00f9", "67": "\u00e0m", "68": "an", "69": "vo", "70": "go", "71": "so", "72": "g\u00e8", "73": "l\u00ef", "74": "n\u00f2", "75": "la", "76": "e\u2019", "77": "ap", "78": "n\u00fc", "79": "en", "80": "c\u00ec", "81": "ad", "82": "t\u00e0", "83": "gi", "84": "es", "85": "b\u00e8", "86": "r\u00e8", "87": "ta", "88": "ce", "89": "fi", "90": "t\u00e4", "91": "s\u00f9", "92": "is", "93": "s\u00e8", "94": "ze", "95": "ur", "96": "or", "97": "ti", "98": "bi", "99": "g\u00fc", "100": "cu", "101": "b\u00eb", "102": "v\u00ec", "103": "us", "104": "uc", "105": "ba", "106": "s\u00f2", "107": "av", "108": "v\u00f2", "109": "t\u00e8", "110": "n\u00ec", "111": "de", "112": "b\u00ef", "113": "pa", "114": "se", "115": "po", "116": "un", "117": "ar", "118": "oh", "119": "g\u00f3", "120": "ei", "121": "\u00f2s", "122": "ob", "123": "th", "124": "ir", "125": "\u2019m", "126": "r\u00eb", "127": "ia", "128": "ae", "129": "p\u00f2", "130": "ge", "131": "s\u00ef", "132": "no", "133": "op", "134": "xi", "135": "\u00e9n", "136": "f\u00f3", "137": "iu", "138": "ne", "139": "zo", "140": "r\u00e0", "141": "r\u00ec", "142": "m\u00ef", "143": "nu", "144": "c\u00e9", "145": "zi", "146": "c\u00fc", "147": "l\u00fc", "148": "lo", "149": "ci", "150": "pi", "151": "d\u00e9", "152": "ef", "153": "r\u00f3", "154": "et", "155": "c\u00f2", "156": "l\u00eb", "157": "ag", "158": "da", "159": "ga", "160": "s\u00fc", "161": "g\u00ef", "162": "vu", "163": "ab", "164": "\u2019n", "165": "\u00e0s", "166": "ca", "167": "d\u00ef", "168": "u\u2019", "169": "\u00e0r", "170": "fo", "171": "s\u00e9", "172": "v\u2019", "173": "qu", "174": "io", "175": "oc", "176": "t\u00ef", "177": "f\u00f2", "178": "ai", "179": "hi", "180": "\u00ecs", "181": "el", "182": "b\u00f2", "183": "re", "184": "n\u00e8", "185": "l\u00ec", "186": "ha", "187": "s\u00ec", "188": "ex", "189": "ve", "190": "ra", "191": "p\u00fc", "192": "\u00f3n", "193": "vi", "194": "\u00e8i", "195": "ov", "196": "l\u00f6", "197": "ri", "198": "f\u00eb", "199": "te", "200": "id", "201": "\u00e8l", "202": "m\u00f2", "203": "d\u00fc", "204": "as", "205": "c\u2019", "206": "f\u00e0", "207": "n\u00e9", "208": "ot", "209": "os", "210": "ol", "211": "c\u00e8", "212": "p\u00ef", "213": "fe", "214": "gu", "215": "z\u00f2", "216": "g\u2019", "217": "z\u2019", "218": "eb", "219": "ni", "220": "du", "221": "su", "222": "a\u2019", "223": "am", "224": "l\u2019", "225": "f\u00e9", "226": "\u00e0n", "227": "az", "228": "om", "229": "r\u00f2", "230": "za", "231": "v\u00e9", "232": "m\u00eb", "233": "p\u00ec", "234": "\u00e8e", "235": "v\u00eb", "236": "b\u00ec", "237": "\u00e8n", "238": "t\u00ec", "239": "r\u00ef", "240": "c\u00eb", "241": "fa", "242": "tu", "243": "li", "244": "sa", "245": "t\u00fc", "246": "bu", "247": "\u2019l", "248": "n\u00e0", "249": "b\u00f9", "250": "ec", "251": "um", "252": "pu", "253": "mo", "254": "m\u00ec", "255": "do", "256": "ut", "257": "mi", "258": "si", "259": "t\u00e9", "260": "\u00f2n", "261": "di", "262": "ma", "263": "p\u00e8", "264": "ru", "265": "bo", "266": "od", "267": "im", "268": "g\u00f2", "269": "t\u00eb", "270": "va", "271": "le", "272": "sc", "273": "n\u2019", "274": "c\u00ef", "275": "at", "276": "st", "277": "ie", "278": "b\u2019", "279": "s\u00eb", "280": "s\u2019", "281": "p\u00eb", "282": "d\u2019", "283": "n\u00ef", "284": "ho", "285": "v\u00e8", "286": "g\u00ec", "287": "on", "288": "fu", "289": "be", "290": "co", "291": "\u00f9l", "292": "d\u00e8", "293": "lu", "294": "uo", "295": "ac", "296": "l\u00f2", "297": "in", "298": "lot", "299": "di\u2019", "300": "nev", "301": "pru", "302": "tuo", "303": "tar", "304": "lul", "305": "d\u00ect", "306": "smi", "307": "f\u00f3n", "308": "xil", "309": "cin", "310": "sv\u00ef", "311": "geo", "312": "cia", "313": "las", "314": "gel", "315": "dop", "316": "t\u00f2m", "317": "bom", "318": "pir", "319": "cet", "320": "sug", "321": "uo\u2019", "322": "tor", "323": "me\u2019", "324": "var", "325": "pri", "326": "sc\u00ef", "327": "lil", "328": "par", "329": "red", "330": "pis", "331": "t\u00f2n", "332": "gri", "333": "ma\u2019", "334": "leg", "335": "cli", "336": "gnu", "337": "que", "338": "da\u2019", "339": "fal", "340": "sio", "341": "s\u00f9e", "342": "st\u00e9", "343": "cro", "344": "sla", "345": "lan", "346": "ror", "347": "cun", "348": "vit", "349": "rav", "350": "piz", "351": "fru", "352": "der", "353": "gna", "354": "pog", "355": "fom", "356": "seo", "357": "bas", "358": "nio", "359": "la\u2019", "360": "cef", "361": "lui", "362": "ril", "363": "c\u00f2l", "364": "qu\u2019", "365": "dii", "366": "suf", "367": "giz", "368": "buc", "369": "nar", "370": "lor", "371": "git", "372": "nir", "373": "gi\u2019", "374": "gin", "375": "r\u00ecb", "376": "cre", "377": "ful", "378": "sic", "379": "chi", "380": "cag", "381": "vez", "382": "r\u00f2l", "383": "bru", "384": "l\u00f2n", "385": "don", "386": "p\u00f2s", "387": "gib", "388": "ren", "389": "nez", "390": "pl\u00ec", "391": "rua", "392": "fog", "393": "pr\u2019", "394": "dot", "395": "qui", "396": "coi", "397": "tim", "398": "dim", "399": "bi\u00f2", "400": "nas", "401": "gis", "402": "gon", "403": "sob", "404": "bre", "405": "giu", "406": "rug", "407": "des", "408": "ian", "409": "duo", "410": "nun", "411": "vid", "412": "raz", "413": "som", "414": "sp\u00ef", "415": "nea", "416": "dom", "417": "gol", "418": "gia", "419": "fuo", "420": "fre", "421": "pia", "422": "p\u00eca", "423": "sca", "424": "feb", "425": "gu\u00ec", "426": "mez", "427": "hai", "428": "meo", "429": "fer", "430": "mae", "431": "mam", "432": "tat", "433": "ben", "434": "ion", "435": "pet", "436": "iar", "437": "ten", "438": "suo", "439": "lu\u2019", "440": "rao", "441": "t\u00f3n", "442": "fos", "443": "ch\u00ef", "444": "gie", "445": "tac", "446": "fie", "447": "st\u00e0", "448": "buf", "449": "pap", "450": "peg", "451": "ves", "452": "sor", "453": "mos", "454": "van", "455": "das", "456": "pur", "457": "dol", "458": "ne\u2019", "459": "sai", "460": "smu", "461": "gad", "462": "sbi", "463": "fel", "464": "cap", "465": "muc", "466": "n\u00ect", "467": "mii", "468": "g\u00f3r", "469": "ger", "470": "fil", "471": "nef", "472": "tet", "473": "gam", "474": "sve", "475": "\u2019ve", "476": "tr\u00f2", "477": "dat", "478": "di\u00e8", "479": "pos", "480": "gim", "481": "lap", "482": "put", "483": "de\u2019", "484": "ciu", "485": "sot", "486": "sti", "487": "ria", "488": "rim", "489": "lit", "490": "c\u00e9r", "491": "mem", "492": "sus", "493": "nel", "494": "leo", "495": "ti\u2019", "496": "pig", "497": "det", "498": "rei", "499": "mie", "500": "luc", "501": "nei", "502": "bel", "503": "cie", "504": "got", "505": "fe\u2019", "506": "fac", "507": "f\u00e0s", "508": "cri", "509": "nes", "510": "pen", "511": "dri", "512": "sto", "513": "gir", "514": "muo", "515": "spi", "516": "gi\u00e0", "517": "mum", "518": "bet", "519": "biz", "520": "gal", "521": "ver", "522": "tie", "523": "dit", "524": "b\u00e8l", "525": "zul", "526": "fen", "527": "mei", "528": "v\u00ecd", "529": "coz", "530": "gh\u2019", "531": "st\u00ef", "532": "sfo", "533": "fis", "534": "dia", "535": "pue", "536": "pon", "537": "dra", "538": "gua", "539": "lin", "540": "meg", "541": "cer", "542": "spe", "543": "pra", "544": "sga", "545": "lon", "546": "d\u00ece", "547": "rup", "548": "tau", "549": "dic", "550": "rai", "551": "lez", "552": "rog", "553": "pun", "554": "sat", "555": "sme", "556": "diz", "557": "cat", "558": "run", "559": "plo", "560": "viz", "561": "zie", "562": "tro", "563": "ha\u2019", "564": "cad", "565": "per", "566": "cut", "567": "sei", "568": "tis", "569": "nha", "570": "luo", "571": "dam", "572": "pem", "573": "von", "574": "rid", "575": "nis", "576": "tr\u00e0", "577": "s\u00f3n", "578": "tem", "579": "fig", "580": "pi\u00e9", "581": "ret", "582": "sui", "583": "get", "584": "car", "585": "bal", "586": "cul", "587": "ric", "588": "cop", "589": "scu", "590": "vel", "591": "sco", "592": "ton", "593": "rer", "594": "mol", "595": "deb", "596": "gar", "597": "bun", "598": "col", "599": "cio", "600": "nul", "601": "dr\u00f2", "602": "dal", "603": "puz", "604": "rap", "605": "bur", "606": "ple", "607": "lop", "608": "ban", "609": "mea", "610": "m\u00e9z", "611": "tir", "612": "pla", "613": "ruo", "614": "gor", "615": "dez", "616": "dr\u00e0", "617": "dui", "618": "zar", "619": "unt", "620": "r\u00e8g", "621": "reb", "622": "vol", "623": "tru", "624": "dor", "625": "gur", "626": "vas", "627": "din", "628": "gai", "629": "dr\u00ec", "630": "vii", "631": "vau", "632": "bie", "633": "pea", "634": "dee", "635": "sna", "636": "min", "637": "goz", "638": "dru", "639": "rea", "640": "pop", "641": "sec", "642": "fue", "643": "st\u00ec", "644": "qu\u00ef", "645": "ges", "646": "mia", "647": "rof", "648": "ch\u2019", "649": "zuf", "650": "st\u00f2", "651": "sam", "652": "ra\u2019", "653": "fro", "654": "co\u2019", "655": "rii", "656": "fug", "657": "mi\u2019", "658": "svi", "659": "far", "660": "pol", "661": "veg", "662": "s\u00ece", "663": "cos", "664": "n\u00e8s", "665": "vem", "666": "cru", "667": "nag", "668": "cob", "669": "gru", "670": "uom", "671": "caf", "672": "che", "673": "fib", "674": "lea", "675": "bue", "676": "va\u2019", "677": "du\u2019", "678": "ber", "679": "\u2019v\u2019", "680": "lam", "681": "ieu", "682": "dov", "683": "bab", "684": "tre", "685": "zaf", "686": "cau", "687": "gi\u00f2", "688": "lat", "689": "boz", "690": "rat", "691": "raf", "692": "smo", "693": "flu", "694": "bea", "695": "zon", "696": "bro", "697": "bor", "698": "dio", "699": "gi\u00f9", "700": "sul", "701": "pan", "702": "p\u00e0r", "703": "gue", "704": "bis", "705": "ruf", "706": "sfa", "707": "mes", "708": "pot", "709": "spu", "710": "mac", "711": "seg", "712": "cal", "713": "mai", "714": "rol", "715": "pal", "716": "boc", "717": "fab", "718": "dau", "719": "fra", "720": "ceo", "721": "tai", "722": "nii", "723": "bev", "724": "soz", "725": "uhi", "726": "ci\u00f2", "727": "su\u00e8", "728": "noc", "729": "sag", "730": "n\u00eca", "731": "vos", "732": "fan", "733": "m\u00eca", "734": "dr\u00e4", "735": "iat", "736": "vec", "737": "vin", "738": "tua", "739": "sno", "740": "lic", "741": "vet", "742": "bol", "743": "m\u00ecs", "744": "cai", "745": "tr\u2019", "746": "tuf", "747": "bot", "748": "sel", "749": "sta", "750": "se\u2019", "751": "tho", "752": "gno", "753": "fla", "754": "vo\u2019", "755": "gil", "756": "nob", "757": "dir", "758": "vai", "759": "neo", "760": "tin", "761": "lis", "762": "lem", "763": "mat", "764": "pro", "765": "con", "766": "fat", "767": "nai", "768": "neg", "769": "mic", "770": "rem", "771": "mer", "772": "fet", "773": "fai", "774": "reo", "775": "cir", "776": "noi", "777": "ste", "778": "mio", "779": "nat", "780": "r\u00f3n", "781": "re\u2019", "782": "feo", "783": "sun", "784": "nur", "785": "pr\u00ec", "786": "sba", "787": "top", "788": "tad", "789": "sia", "790": "gne", "791": "mur", "792": "nan", "793": "sur", "794": "pr\u00e0", "795": "rui", "796": "bil", "797": "cea", "798": "rie", "799": "n\u00ece", "800": "buo", "801": "pec", "802": "f\u00e0c", "803": "dur", "804": "luz", "805": "pau", "806": "mel", "807": "gea", "808": "tri", "809": "rag", "810": "zai", "811": "sue", "812": "nuc", "813": "poi", "814": "sra", "815": "mil", "816": "man", "817": "bat", "818": "sci", "819": "fol", "820": "nil", "821": "noz", "822": "tea", "823": "vor", "824": "bon", "825": "nuo", "826": "mar", "827": "lec", "828": "sce", "829": "lai", "830": "qua", "831": "ga\u2019", "832": "lee", "833": "fu\u2019", "834": "sbe", "835": "lie", "836": "cil", "837": "pas", "838": "gan", "839": "na\u2019", "840": "bio", "841": "res", "842": "cor", "843": "tui", "844": "gem", "845": "but", "846": "can", "847": "bar", "848": "stu", "849": "lip", "850": "son", "851": "tr\u00ef", "852": "muf", "853": "val", "854": "mug", "855": "ri\u2019", "856": "ghe", "857": "cl\u00ef", "858": "teg", "859": "tol", "860": "zii", "861": "dan", "862": "riz", "863": "pu\u00f2", "864": "iep", "865": "t\u00e9r", "866": "len", "867": "del", "868": "r\u00ecs", "869": "vag", "870": "teo", "871": "por", "872": "fio", "873": "dos", "874": "sal", "875": "fur", "876": "bac", "877": "lel", "878": "sua", "879": "roc", "880": "rut", "881": "sa\u2019", "882": "gab", "883": "cra", "884": "nem", "885": "nal", "886": "lun", "887": "due", "888": "sez", "889": "ier", "890": "sc\u00ec", "891": "ial", "892": "sep", "893": "za\u2019", "894": "guo", "895": "cep", "896": "bir", "897": "tun", "898": "ior", "899": "beo", "900": "tom", "901": "cur", "902": "lav", "903": "cum", "904": "lio", "905": "pub", "906": "tec", "907": "tii", "908": "puc", "909": "voi", "910": "vuo", "911": "pei", "912": "rec", "913": "sin", "914": "gl\u2019", "915": "cez", "916": "t\u00f2r", "917": "spo", "918": "ler", "919": "cu\u2019", "920": "clu", "921": "sap", "922": "f\u00e9e", "923": "pre", "924": "m\u00e8c", "925": "fem", "926": "pes", "927": "neb", "928": "bl\u00ef", "929": "ran", "930": "st\u2019", "931": "gat", "932": "fi\u00f2", "933": "gre", "934": "sfe", "935": "cei", "936": "fui", "937": "tut", "938": "gaz", "939": "num", "940": "fia", "941": "ch\u00ec", "942": "han", "943": "lac", "944": "cla", "945": "cot", "946": "sle", "947": "deh", "948": "b\u00e0l", "949": "sie", "950": "fei", "951": "dec", "952": "z\u00f2n", "953": "br\u00ef", "954": "spa", "955": "nie", "956": "pac", "957": "zan", "958": "svo", "959": "cen", "960": "puo", "961": "suc", "962": "vea", "963": "lom", "964": "moz", "965": "sac", "966": "lir", "967": "clo", "968": "ree", "969": "sog", "970": "pul", "971": "nen", "972": "cis", "973": "tag", "974": "cac", "975": "fam", "976": "laz", "977": "pio", "978": "dai", "979": "zio", "980": "nom", "981": "bli", "982": "ner", "983": "pic", "984": "su\u2019", "985": "lia", "986": "goc", "987": "dil", "988": "sar", "989": "bei", "990": "gu\u00f2", "991": "ces", "992": "plu", "993": "rum", "994": "dut", "995": "fri", "996": "cr\u00e0", "997": "ruc", "998": "tio", "999": "nim", "1000": "bui", "1001": "reg", "1002": "sos", "1003": "dis", "1004": "tra", "1005": "mal", "1006": "cuo", "1007": "ral", "1008": "guz", "1009": "peo", "1010": "dug", "1011": "tle", "1012": "tia", "1013": "com", "1014": "sas", "1015": "sab", "1016": "tel", "1017": "let", "1018": "cel", "1019": "dus", "1020": "fun", "1021": "tuc", "1022": "d\u00eca", "1023": "bin", "1024": "men", "1025": "nol", "1026": "ven", "1027": "tus", "1028": "fin", "1029": "sov", "1030": "vom", "1031": "cic", "1032": "non", "1033": "bee", "1034": "rot", "1035": "sde", "1036": "jau", "1037": "l\u00e8m", "1038": "sen", "1039": "bec", "1040": "vei", "1041": "nin", "1042": "poz", "1043": "vis", "1044": "lur", "1045": "ris", "1046": "mas", "1047": "lus", "1048": "fum", "1049": "f\u00e9l", "1050": "ni\u2019", "1051": "tez", "1052": "soc", "1053": "ses", "1054": "c\u00e0n", "1055": "dre", "1056": "dar", "1057": "tes", "1058": "dun", "1059": "mot", "1060": "rel", "1061": "zia", "1062": "poc", "1063": "vra", "1064": "dro", "1065": "cit", "1066": "vat", "1067": "nic", "1068": "gro", "1069": "st\u00f9", "1070": "zur", "1071": "sil", "1072": "tei", "1073": "pie", "1074": "pli", "1075": "te\u2019", "1076": "ron", "1077": "gei", "1078": "ve\u2019", "1079": "cas", "1080": "set", "1081": "gui", "1082": "mun", "1083": "b\u00eca", "1084": "zel", "1085": "nig", "1086": "rir", "1087": "fic", "1088": "pi\u00f9", "1089": "sub", "1090": "vul", "1091": "pom", "1092": "bef", "1093": "rab", "1094": "v\u00f2l", "1095": "til", "1096": "gom", "1097": "net", "1098": "cam", "1099": "feg", "1100": "mir", "1101": "fas", "1102": "f\u00e8l", "1103": "tam", "1104": "gob", "1105": "coc", "1106": "gag", "1107": "nac", "1108": "mee", "1109": "ser", "1110": "f\u00e0t", "1111": "glo", "1112": "dif", "1113": "lei", "1114": "rom", "1115": "ahi", "1116": "rob", "1117": "lim", "1118": "deo", "1119": "mon", "1120": "bia", "1121": "c\u00f2b", "1122": "gas", "1123": "pi\u00e8", "1124": "sit", "1125": "d\u00e8i", "1126": "zac", "1127": "cle", "1128": "sum", "1129": "bul", "1130": "c\u00f3l", "1131": "pii", "1132": "rio", "1133": "san", "1134": "rac", "1135": "sma", "1136": "tos", "1137": "rar", "1138": "n\u00f2i", "1139": "dua", "1140": "l\u00eca", "1141": "gra", "1142": "pel", "1143": "gio", "1144": "ram", "1145": "sr\u00e4", "1146": "tur", "1147": "sis", "1148": "dob", "1149": "sud", "1150": "nec", "1151": "die", "1152": "nia", "1153": "sir", "1154": "dr\u00ef", "1155": "sop", "1156": "lup", "1157": "sgo", "1158": "guc", "1159": "dub", "1160": "ros", "1161": "fi\u2019", "1162": "rit", "1163": "ghi", "1164": "sii", "1165": "sem", "1166": "mul", "1167": "dul", "1168": "gli", "1169": "bus", "1170": "n\u00f2s", "1171": "sup", "1172": "vie", "1173": "loc", "1174": "lar", "1175": "tal", "1176": "ter", "1177": "pit", "1178": "leb", "1179": "dei", "1180": "tue", "1181": "niz", "1182": "no\u2019", "1183": "l\u00eco", "1184": "mor", "1185": "fon", "1186": "fes", "1187": "sof", "1188": "sc\u2019", "1189": "pil", "1190": "via", "1191": "lep", "1192": "cui", "1193": "tum", "1194": "mus", "1195": "ch\u00e9", "1196": "pat", "1197": "deg", "1198": "zuc", "1199": "den", "1200": "vio", "1201": "so\u2019", "1202": "rez", "1203": "not", "1204": "dem", "1205": "vir", "1206": "ean", "1207": "gni", "1208": "rig", "1209": "saf", "1210": "for", "1211": "les", "1212": "mag", "1213": "cov", "1214": "cem", "1215": "t\u00e0n", "1216": "g\u00f3n", "1217": "fuc", "1218": "vac", "1219": "paz", "1220": "r\u00ece", "1221": "fiu", "1222": "nor", "1223": "sod", "1224": "lut", "1225": "er\u2019", "1226": "lau", "1227": "lab", "1228": "pin", "1229": "maz", "1230": "gen", "1231": "gn\u00ec", "1232": "bri", "1233": "hon", "1234": "fle", "1235": "dea", "1236": "rin", "1237": "ras", "1238": "toc", "1239": "cuc", "1240": "met", "1241": "joi", "1242": "roz", "1243": "tan", "1244": "sol", "1245": "doc", "1246": "fit", "1247": "piu", "1248": "bug", "1249": "vam", "1250": "gau", "1251": "quo", "1252": "tic", "1253": "bra", "1254": "vil", "1255": "tas", "1256": "ta\u2019", "1257": "guic", "1258": "driz", "1259": "scab", "1260": "stai", "1261": "quar", "1262": "stas", "1263": "sfac", "1264": "rian", "1265": "pier", "1266": "dria", "1267": "stuo", "1268": "vuoi", "1269": "treb", "1270": "pien", "1271": "gien", "1272": "clau", "1273": "sci\u2019", "1274": "stri", "1275": "graf", "1276": "die\u2019", "1277": "drit", "1278": "ph\u00e8l", "1279": "sien", "1280": "cher", "1281": "cean", "1282": "scic", "1283": "clis", "1284": "gnen", "1285": "viem", "1286": "prei", "1287": "scos", "1288": "stea", "1289": "smon", "1290": "chi\u00f2", "1291": "brac", "1292": "dian", "1293": "svel", "1294": "pran", "1295": "ciot", "1296": "gnas", "1297": "gras", "1298": "blan", "1299": "niam", "1300": "scol", "1301": "sber", "1302": "sten", "1303": "guit", "1304": "ciar", "1305": "stin", "1306": "svia", "1307": "gual", "1308": "scar", "1309": "bran", "1310": "sunt", "1311": "blia", "1312": "giug", "1313": "cian", "1314": "spin", "1315": "sfan", "1316": "pri\u2019", "1317": "dies", "1318": "stop", "1319": "trul", "1320": "guen", "1321": "scre", "1322": "trec", "1323": "quel", "1324": "giam", "1325": "scop", "1326": "crin", "1327": "scac", "1328": "smar", "1329": "cioc", "1330": "gres", "1331": "bron", "1332": "spez", "1333": "fred", "1334": "gaio", "1335": "stil", "1336": "tria", "1337": "piog", "1338": "ghes", "1339": "piat", "1340": "smor", "1341": "\u2019vun", "1342": "grin", "1343": "giot", "1344": "trat", "1345": "chel", "1346": "trie", "1347": "trot", "1348": "spit", "1349": "ciuo", "1350": "glio", "1351": "grue", "1352": "viam", "1353": "gnie", "1354": "quam", "1355": "scia", "1356": "gron", "1357": "sneb", "1358": "scaz", "1359": "cheg", "1360": "broc", "1361": "pria", "1362": "piag", "1363": "quai", "1364": "pian", "1365": "grot", "1366": "biet", "1367": "bree", "1368": "truo", "1369": "tran", "1370": "guan", "1371": "trio", "1372": "plan", "1373": "guef", "1374": "brug", "1375": "dran", "1376": "gnel", "1377": "puom", "1378": "plar", "1379": "cia\u2019", "1380": "smoz", "1381": "spar", "1382": "gner", "1383": "bion", "1384": "spre", "1385": "stra", "1386": "fret", "1387": "giuo", "1388": "guag", "1389": "pres", "1390": "tier", "1391": "ghel", "1392": "frir", "1393": "ghir", "1394": "gias", "1395": "trag", "1396": "suoi", "1397": "brul", "1398": "ciel", "1399": "spra", "1400": "spal", "1401": "sfin", "1402": "prec", "1403": "ples", "1404": "spel", "1405": "tras", "1406": "trar", "1407": "quer", "1408": "rean", "1409": "gion", "1410": "gnaz", "1411": "sfor", "1412": "vria", "1413": "stuc", "1414": "guel", "1415": "bia\u2019", "1416": "sdru", "1417": "creb", "1418": "dier", "1419": "tris", "1420": "prin", "1421": "gher", "1422": "scoc", "1423": "gian", "1424": "tuoi", "1425": "piov", "1426": "stro", "1427": "nean", "1428": "cria", "1429": "nian", "1430": "fiac", "1431": "diam", "1432": "cl\u00e8s", "1433": "drel", "1434": "trop", "1435": "quin", "1436": "fles", "1437": "biar", "1438": "nail", "1439": "scov", "1440": "piac", "1441": "grop", "1442": "chez", "1443": "steo", "1444": "stel", "1445": "ciol", "1446": "scio", "1447": "guiz", "1448": "stio", "1449": "sciu", "1450": "flit", "1451": "puol", "1452": "pion", "1453": "pluo", "1454": "gnia", "1455": "gnus", "1456": "quil", "1457": "gnuo", "1458": "scet", "1459": "sbar", "1460": "vien", "1461": "zian", "1462": "brie", "1463": "brut", "1464": "tron", "1465": "sian", "1466": "laio", "1467": "glia", "1468": "sier", "1469": "giac", "1470": "laia", "1471": "ciam", "1472": "vian", "1473": "scri", "1474": "brio", "1475": "sie\u2019", "1476": "trae", "1477": "tean", "1478": "deum", "1479": "sche", "1480": "stem", "1481": "scim", "1482": "prir", "1483": "ghet", "1484": "scot", "1485": "chiu", "1486": "scem", "1487": "tiem", "1488": "gnem", "1489": "sman", "1490": "gnun", "1491": "saia", "1492": "str\u2019", "1493": "qual", "1494": "plau", "1495": "ber\u2019", "1496": "spon", "1497": "lev\u00e4", "1498": "dien", "1499": "scom", "1500": "quan", "1501": "riai", "1502": "drai", "1503": "stiz", "1504": "glie", "1505": "ciap", "1506": "gheg", "1507": "brol", "1508": "stor", "1509": "fior", "1510": "lien", "1511": "grem", "1512": "slac", "1513": "chie", "1514": "zion", "1515": "piom", "1516": "flet", "1517": "slao", "1518": "guir", "1519": "gi\u00f9e", "1520": "stre", "1521": "stia", "1522": "puos", "1523": "trap", "1524": "spes", "1525": "scuo", "1526": "sbra", "1527": "fian", "1528": "squa", "1529": "spia", "1530": "fien", "1531": "glau", "1532": "vuo\u2019", "1533": "tram", "1534": "puoi", "1535": "scir", "1536": "cuor", "1537": "guaz", "1538": "sfio", "1539": "piez", "1540": "ghie", "1541": "fiam", "1542": "brei", "1543": "suon", "1544": "gran", "1545": "bias", "1546": "grap", "1547": "bren", "1548": "giai", "1549": "vean", "1550": "schi", "1551": "fren", "1552": "que\u2019", "1553": "ciom", "1554": "sdet", "1555": "maio", "1556": "breo", "1557": "gnes", "1558": "span", "1559": "str\u00f2", "1560": "prun", "1561": "troc", "1562": "spen", "1563": "gnor", "1564": "tr\u00e0s", "1565": "quen", "1566": "quie", "1567": "chis", "1568": "proc", "1569": "trai", "1570": "frui", "1571": "doan", "1572": "scuf", "1573": "sgan", "1574": "st\u00f2r", "1575": "ziar", "1576": "tien", "1577": "sc\u00eco", "1578": "miei", "1579": "ghia", "1580": "greg", "1581": "chet", "1582": "scro", "1583": "chil", "1584": "quod", "1585": "brar", "1586": "spet", "1587": "tren", "1588": "trui", "1589": "vier", "1590": "gioi", "1591": "gnan", "1592": "scel", "1593": "sper", "1594": "sgri", "1595": "crea", "1596": "cruc", "1597": "gros", "1598": "mian", "1599": "stul", "1600": "scev", "1601": "spic", "1602": "st\u00e8r", "1603": "gli\u00f2", "1604": "com\u2019", "1605": "sgra", "1606": "stam", "1607": "naio", "1608": "bris", "1609": "dram", "1610": "scer", "1611": "rien", "1612": "dron", "1613": "pia\u2019", "1614": "cien", "1615": "sfam", "1616": "str\u00e0", "1617": "sden", "1618": "ciul", "1619": "flig", "1620": "fran", "1621": "fron", "1622": "chin", "1623": "lian", "1624": "piar", "1625": "bent", "1626": "ciac", "1627": "blio", "1628": "snel", "1629": "quae", "1630": "grie", "1631": "squi", "1632": "grom", "1633": "chia", "1634": "stei", "1635": "stru", "1636": "sbri", "1637": "pi\u00f9e", "1638": "ghio", "1639": "runt", "1640": "spec", "1641": "lier", "1642": "drea", "1643": "pren", "1644": "pris", "1645": "fioc", "1646": "cheo", "1647": "siam", "1648": "dra\u2019", "1649": "gial", "1650": "frat", "1651": "quei", "1652": "muor", "1653": "fuor", "1654": "frut", "1655": "stui", "1656": "smen", "1657": "trei", "1658": "nien", "1659": "sven", "1660": "stie", "1661": "scea", "1662": "grez", "1663": "cric", "1664": "sgor", "1665": "scal", "1666": "gier", "1667": "ched", "1668": "stes", "1669": "quor", "1670": "quis", "1671": "buon", "1672": "vuol", "1673": "gean", "1674": "plor", "1675": "cain", "1676": "sfre", "1677": "guet", "1678": "tuon", "1679": "sci\u00f2", "1680": "pi\u00e9r", "1681": "stec", "1682": "giun", "1683": "scon", "1684": "gnon", "1685": "gram", "1686": "scin", "1687": "spir", "1688": "mie\u2019", "1689": "chio", "1690": "spuo", "1691": "spie", "1692": "guer", "1693": "spaz", "1694": "stig", "1695": "tree", "1696": "prie", "1697": "guil", "1698": "nier", "1699": "duol", "1700": "stan", "1701": "br\u00f2t", "1702": "tra\u2019", "1703": "suo\u2019", "1704": "dhae", "1705": "fiot", "1706": "ghin", "1707": "cral", "1708": "scan", "1709": "egyp", "1710": "ghez", "1711": "ghi\u00f2", "1712": "stol", "1713": "spor", "1714": "scam", "1715": "guon", "1716": "stis", "1717": "scie", "1718": "ciai", "1719": "smal", "1720": "guia", "1721": "dean", "1722": "spro", "1723": "spri", "1724": "pron", "1725": "trac", "1726": "pric", "1727": "stav", "1728": "ciuf", "1729": "giar", "1730": "tuo\u2019", "1731": "cias", "1732": "bria", "1733": "clas", "1734": "biac", "1735": "grep", "1736": "c\u00f2th", "1737": "bian", "1738": "gior", "1739": "buoi", "1740": "sfar", "1741": "ci\u00f2l", "1742": "spun", "1743": "gnin", "1744": "muel", "1745": "dail", "1746": "brez", "1747": "drap", "1748": "sgom", "1749": "tret", "1750": "suol", "1751": "scis", "1752": "ster", "1753": "grat", "1754": "guar", "1755": "crol", "1756": "guai", "1757": "prio", "1758": "stal", "1759": "cion", "1760": "ghil", "1761": "scor", "1762": "quat", "1763": "sfat", "1764": "liev", "1765": "sti\u00f2", "1766": "sfer", "1767": "gnum", "1768": "prai", "1769": "ver\u2019", "1770": "rent", "1771": "fiar", "1772": "glet", "1773": "scen", "1774": "drir", "1775": "stet", "1776": "sban", "1777": "fier", "1778": "tiam", "1779": "trom", "1780": "pruo", "1781": "muoi", "1782": "cras", "1783": "spol", "1784": "prez", "1785": "sver", "1786": "pros", "1787": "sion", "1788": "star", "1789": "trea", "1790": "tror", "1791": "scun", "1792": "brot", "1793": "gnar", "1794": "dras", "1795": "stion", "1796": "spres", "1797": "squil", "1798": "strai", "1799": "schet", "1800": "stiam", "1801": "strel", "1802": "ghiai", "1803": "stial", "1804": "scris", "1805": "schie", "1806": "ghiot", "1807": "scrip", "1808": "voill", "1809": "stran", "1810": "gliel", "1811": "chias", "1812": "ghiac", "1813": "chiai", "1814": "stier", "1815": "chioc", "1816": "gioir", "1817": "stren", "1818": "stroc", "1819": "stian", "1820": "sgiun", "1821": "sciut", "1822": "glian", "1823": "spraz", "1824": "stras", "1825": "stral", "1826": "stret", "1827": "scrit", "1828": "schio", "1829": "strug", "1830": "sgher", "1831": "glion", "1832": "vrien", "1833": "scias", "1834": "glier", "1835": "r\u00e0tro", "1836": "chiet", "1837": "strat", "1838": "sciom", "1839": "spiac", "1840": "gliet", "1841": "stroz", "1842": "schem", "1843": "glior", "1844": "sevra", "1845": "squar", "1846": "gliai", "1847": "strin", "1848": "sciol", "1849": "temps", "1850": "chiar", "1851": "segn\u00f2", "1852": "scial", "1853": "sciam", "1854": "sciau", "1855": "scran", "1856": "gliuo", "1857": "avria", "1858": "stram", "1859": "gliam", "1860": "ghien", "1861": "stric", "1862": "splen", "1863": "sgrie", "1864": "schic", "1865": "sciai", "1866": "glies", "1867": "streg", "1868": "glien", "1869": "chion", "1870": "chiap", "1871": "gluol", "1872": "scuoi", "1873": "chian", "1874": "strut", "1875": "chiun", "1876": "strac", "1877": "sciar", "1878": "scher", "1879": "strar", "1880": "svuol", "1881": "gliar", "1882": "triar", "1883": "sguar", "1884": "staio", "1885": "sci\u00e0n", "1886": "scian", "1887": "gliea", "1888": "ghiar", "1889": "schiu", "1890": "scioc", "1891": "sfran", "1892": "scheg", "1893": "chier", "1894": "gnaio", "1895": "ghian", "1896": "strom", "1897": "schia", "1898": "scion", "1899": "spran", "1900": "schiar", "1901": "gliuol", "1902": "sdegn\u00f2", "1903": "schian", "1904": "gliuoi", "1905": "ghiaio", "1906": "schiat", "1907": "strans", "1908": "schiet", "1909": "avrian"}