{"0": "", "1": "<v>", "2": "</v>", "3": "<t>", "4": "</t>", "5": " ", "6": "\u2019", "7": "ghiaio", "8": "gliaio", "9": "gliuoi", "10": "gliuol", "11": "schian", "12": "schiar", "13": "schiat", "14": "schiet", "15": "strans", "16": "chiai", "17": "chian", "18": "chiap", "19": "chiar", "20": "chias", "21": "chier", "22": "chiet", "23": "chioc", "24": "chion", "25": "ghiac", "26": "ghiai", "27": "ghian", "28": "ghiar", "29": "ghien", "30": "ghiot", "31": "gliai", "32": "gliam", "33": "glian", "34": "gliar", "35": "gliea", "36": "gliel", "37": "glien", "38": "glier", "39": "glies", "40": "gliet", "41": "glion", "42": "glior", "43": "gliuo", "44": "gluol", "45": "gnaio", "46": "praia", "47": "puesc", "48": "scheg", "49": "schem", "50": "scher", "51": "schet", "52": "schia", "53": "schic", "54": "schie", "55": "schio", "56": "schiu", "57": "sciai", "58": "scial", "59": "sciam", "60": "scian", "61": "sciar", "62": "scias", "63": "sciau", "64": "scioc", "65": "sciol", "66": "sciom", "67": "scion", "68": "sciut", "69": "sci\u00e0n", "70": "scran", "71": "scrip", "72": "scris", "73": "scrit", "74": "scuoi", "75": "sfran", "76": "sgher", "77": "sgiun", "78": "sgrie", "79": "sguar", "80": "spiac", "81": "splen", "82": "spran", "83": "spraz", "84": "spres", "85": "squar", "86": "squil", "87": "staio", "88": "stial", "89": "stiam", "90": "stian", "91": "stier", "92": "stion", "93": "strac", "94": "strai", "95": "stral", "96": "stram", "97": "stran", "98": "strar", "99": "stras", "100": "strat", "101": "streg", "102": "strel", "103": "stren", "104": "stret", "105": "stric", "106": "strin", "107": "stroc", "108": "strom", "109": "stroz", "110": "strug", "111": "strut", "112": "svuol", "113": "temps", "114": "voill", "115": "vrien", "116": "bent", "117": "biac", "118": "bian", "119": "biar", "120": "bias", "121": "bia\u2019", "122": "biet", "123": "bion", "124": "blan", "125": "blia", "126": "blio", "127": "brac", "128": "bran", "129": "brar", "130": "bree", "131": "brei", "132": "bren", "133": "breo", "134": "brez", "135": "bria", "136": "brie", "137": "brio", "138": "bris", "139": "broc", "140": "brol", "141": "bron", "142": "brot", "143": "brug", "144": "brul", "145": "brut", "146": "br\u00f2t", "147": "buoi", "148": "buon", "149": "caio", "150": "cean", "151": "ched", "152": "cheg", "153": "chel", "154": "cheo", "155": "cher", "156": "chet", "157": "chez", "158": "chia", "159": "chie", "160": "chil", "161": "chin", "162": "chio", "163": "chis", "164": "chiu", "165": "chi\u00f2", "166": "ciac", "167": "ciai", "168": "ciam", "169": "cian", "170": "ciap", "171": "ciar", "172": "cias", "173": "cia\u2019", "174": "ciel", "175": "cien", "176": "cioc", "177": "ciol", "178": "ciom", "179": "cion", "180": "ciot", "181": "ciuf", "182": "ciul", "183": "ciuo", "184": "ci\u00f2l", "185": "clas", "186": "clau", "187": "clis", "188": "clug", "189": "cl\u00e8s", "190": "com\u2019", "191": "cral", "192": "cras", "193": "crea", "194": "creb", "195": "cria", "196": "cric", "197": "crin", "198": "crol", "199": "cruc", "200": "cuor", "201": "c\u00f2th", "202": "dail", "203": "dean", "204": "dhae", "205": "diam", "206": "dian", "207": "dien", "208": "dier", "209": "dies", "210": "die\u2019", "211": "drai", "212": "dram", "213": "dran", "214": "drap", "215": "dras", "216": "dra\u2019", "217": "drea", "218": "drel", "219": "dria", "220": "drir", "221": "drit", "222": "driz", "223": "dron", "224": "duol", "225": "d\u00e8ch", "226": "egyp", "227": "fiac", "228": "fiam", "229": "fian", "230": "fiar", "231": "fien", "232": "fier", "233": "fioc", "234": "fior", "235": "fiot", "236": "fles", "237": "flet", "238": "flig", "239": "flit", "240": "fran", "241": "frat", "242": "fred", "243": "fren", "244": "fret", "245": "frir", "246": "fron", "247": "frui", "248": "frut", "249": "fuor", "250": "gaio", "251": "gean", "252": "gheg", "253": "ghel", "254": "gher", "255": "ghes", "256": "ghet", "257": "ghez", "258": "ghia", "259": "ghie", "260": "ghil", "261": "ghin", "262": "ghio", "263": "ghir", "264": "ghi\u00f2", "265": "giac", "266": "giai", "267": "gial", "268": "giam", "269": "gian", "270": "giar", "271": "gias", "272": "gien", "273": "gier", "274": "gioi", "275": "gion", "276": "gior", "277": "giot", "278": "giug", "279": "giun", "280": "giuo", "281": "gi\u00f9e", "282": "glau", "283": "glet", "284": "glia", "285": "glie", "286": "glio", "287": "gli\u00f2", "288": "gnan", "289": "gnar", "290": "gnas", "291": "gnaz", "292": "gnel", "293": "gnem", "294": "gnen", "295": "gner", "296": "gnes", "297": "gnia", "298": "gnie", "299": "gnin", "300": "gnon", "301": "gnor", "302": "gnum", "303": "gnun", "304": "gnuo", "305": "gnus", "306": "graf", "307": "gram", "308": "gran", "309": "grap", "310": "gras", "311": "grat", "312": "greg", "313": "grem", "314": "grep", "315": "gres", "316": "grez", "317": "grie", "318": "grin", "319": "grom", "320": "gron", "321": "grop", "322": "gros", "323": "grot", "324": "grue", "325": "guag", "326": "guai", "327": "gual", "328": "guan", "329": "guar", "330": "guaz", "331": "guef", "332": "guel", "333": "guen", "334": "guer", "335": "guet", "336": "guia", "337": "guic", "338": "guil", "339": "guio", "340": "guir", "341": "guis", "342": "guit", "343": "guiz", "344": "guon", "345": "laia", "346": "laio", "347": "lian", "348": "lien", "349": "lier", "350": "liev", "351": "luia", "352": "maia", "353": "maio", "354": "mian", "355": "miei", "356": "mie\u2019", "357": "muoi", "358": "muor", "359": "nail", "360": "naio", "361": "naut", "362": "nean", "363": "niam", "364": "nian", "365": "nien", "366": "nier", "367": "ph\u00e8l", "368": "piac", "369": "piag", "370": "pian", "371": "piar", "372": "piat", "373": "pia\u2019", "374": "pien", "375": "pier", "376": "piez", "377": "piog", "378": "piom", "379": "pion", "380": "piov", "381": "pi\u00e9r", "382": "pi\u00f9e", "383": "plan", "384": "plar", "385": "plau", "386": "ples", "387": "plor", "388": "pluo", "389": "prai", "390": "pran", "391": "prec", "392": "prei", "393": "pren", "394": "pres", "395": "prez", "396": "pria", "397": "pric", "398": "prie", "399": "prin", "400": "prio", "401": "prir", "402": "pris", "403": "pri\u2019", "404": "proc", "405": "pron", "406": "pros", "407": "prun", "408": "pruo", "409": "puoi", "410": "puol", "411": "puom", "412": "puos", "413": "quae", "414": "quai", "415": "qual", "416": "quam", "417": "quan", "418": "quar", "419": "quat", "420": "quei", "421": "quel", "422": "quen", "423": "quer", "424": "que\u2019", "425": "quia", "426": "quie", "427": "quil", "428": "quin", "429": "quis", "430": "quod", "431": "quor", "432": "rean", "433": "rent", "434": "riai", "435": "rian", "436": "rien", "437": "runt", "438": "saia", "439": "sanc", "440": "sban", "441": "sbar", "442": "sber", "443": "sbra", "444": "sbri", "445": "scab", "446": "scac", "447": "scal", "448": "scam", "449": "scan", "450": "scar", "451": "scaz", "452": "scea", "453": "scel", "454": "scem", "455": "scen", "456": "scer", "457": "scet", "458": "scev", "459": "sche", "460": "schi", "461": "scia", "462": "scic", "463": "scie", "464": "scim", "465": "scin", "466": "scio", "467": "scir", "468": "scis", "469": "sciu", "470": "sci\u00f2", "471": "sci\u2019", "472": "scoc", "473": "scol", "474": "scom", "475": "scon", "476": "scop", "477": "scor", "478": "scos", "479": "scot", "480": "scov", "481": "scre", "482": "scri", "483": "scro", "484": "scuf", "485": "scun", "486": "scuo", "487": "sc\u00eco", "488": "sdeg", "489": "sden", "490": "sdet", "491": "sdru", "492": "sfac", "493": "sfam", "494": "sfan", "495": "sfar", "496": "sfat", "497": "sfer", "498": "sfin", "499": "sfio", "500": "sfor", "501": "sfre", "502": "sgan", "503": "sgom", "504": "sgor", "505": "sgra", "506": "sgri", "507": "siam", "508": "sian", "509": "sien", "510": "sier", "511": "sie\u2019", "512": "sion", "513": "slac", "514": "slao", "515": "smal", "516": "sman", "517": "smar", "518": "smen", "519": "smon", "520": "smor", "521": "smoz", "522": "sneb", "523": "snel", "524": "spal", "525": "span", "526": "spar", "527": "spaz", "528": "spec", "529": "spel", "530": "spen", "531": "sper", "532": "spes", "533": "spet", "534": "spez", "535": "spia", "536": "spic", "537": "spie", "538": "spin", "539": "spir", "540": "spit", "541": "spol", "542": "spon", "543": "spor", "544": "spra", "545": "spre", "546": "spri", "547": "spro", "548": "spun", "549": "spuo", "550": "squa", "551": "squi", "552": "stai", "553": "stal", "554": "stam", "555": "stan", "556": "star", "557": "stas", "558": "stav", "559": "stea", "560": "stec", "561": "stei", "562": "stel", "563": "stem", "564": "sten", "565": "steo", "566": "ster", "567": "stes", "568": "stet", "569": "stia", "570": "stie", "571": "stig", "572": "stil", "573": "stin", "574": "stio", "575": "stis", "576": "stiz", "577": "sti\u00f2", "578": "stol", "579": "stop", "580": "stor", "581": "stra", "582": "stre", "583": "stri", "584": "stro", "585": "stru", "586": "str\u00e0", "587": "str\u00f2", "588": "str\u2019", "589": "stuc", "590": "stui", "591": "stul", "592": "stuo", "593": "st\u00e8r", "594": "st\u00f2r", "595": "sunt", "596": "suoi", "597": "suol", "598": "suon", "599": "suo\u2019", "600": "svel", "601": "sven", "602": "sver", "603": "svia", "604": "tean", "605": "tiam", "606": "tiem", "607": "tien", "608": "tier", "609": "toio", "610": "trac", "611": "trae", "612": "trag", "613": "trai", "614": "tram", "615": "tran", "616": "trap", "617": "trar", "618": "tras", "619": "trat", "620": "tra\u2019", "621": "trea", "622": "treb", "623": "trec", "624": "tree", "625": "trei", "626": "tren", "627": "tret", "628": "tria", "629": "trie", "630": "trio", "631": "tris", "632": "troc", "633": "trom", "634": "tron", "635": "trop", "636": "tror", "637": "trot", "638": "trui", "639": "trul", "640": "truo", "641": "tr\u00e0s", "642": "tuoi", "643": "tuon", "644": "tuo\u2019", "645": "vaio", "646": "vean", "647": "ver\u2019", "648": "viam", "649": "vian", "650": "viem", "651": "vien", "652": "vier", "653": "vria", "654": "vuoi", "655": "vuol", "656": "vuo\u2019", "657": "zian", "658": "ziar", "659": "zion", "660": "\u2018glo", "661": "\u2018qui", "662": "\u2019vun", "663": "ahi", "664": "bab", "665": "bac", "666": "bai", "667": "bal", "668": "ban", "669": "bar", "670": "bas", "671": "bat", "672": "bea", "673": "bec", "674": "bee", "675": "bef", "676": "bei", "677": "bel", "678": "ben", "679": "beo", "680": "ber", "681": "bet", "682": "bev", "683": "bia", "684": "bie", "685": "bil", "686": "bin", "687": "bio", "688": "bir", "689": "bis", "690": "biz", "691": "bi\u00f2", "692": "bli", "693": "bl\u00ef", "694": "boc", "695": "bol", "696": "bom", "697": "bon", "698": "bor", "699": "bot", "700": "boz", "701": "bra", "702": "bre", "703": "bri", "704": "bro", "705": "bru", "706": "br\u00ef", "707": "buc", "708": "bue", "709": "buf", "710": "bug", "711": "bui", "712": "bul", "713": "bun", "714": "buo", "715": "bur", "716": "bus", "717": "but", "718": "b\u00e0l", "719": "b\u00e8l", "720": "b\u00eca", "721": "cac", "722": "cad", "723": "caf", "724": "cag", "725": "cai", "726": "cal", "727": "cam", "728": "can", "729": "cap", "730": "car", "731": "cas", "732": "cat", "733": "cau", "734": "cea", "735": "cef", "736": "cei", "737": "cel", "738": "cem", "739": "cen", "740": "ceo", "741": "cep", "742": "cer", "743": "ces", "744": "cet", "745": "cez", "746": "che", "747": "chi", "748": "ch\u00e9", "749": "ch\u00ec", "750": "ch\u00ef", "751": "ch\u2019", "752": "cia", "753": "cic", "754": "cie", "755": "cil", "756": "cin", "757": "cio", "758": "cir", "759": "cis", "760": "cit", "761": "ciu", "762": "ci\u00f2", "763": "cla", "764": "cle", "765": "cli", "766": "clo", "767": "clu", "768": "cl\u00ef", "769": "cob", "770": "coc", "771": "coi", "772": "col", "773": "com", "774": "con", "775": "cop", "776": "cor", "777": "cos", "778": "cot", "779": "cov", "780": "coz", "781": "co\u2019", "782": "cra", "783": "cre", "784": "cri", "785": "cro", "786": "cru", "787": "cr\u00e0", "788": "cuc", "789": "cui", "790": "cul", "791": "cum", "792": "cun", "793": "cuo", "794": "cur", "795": "cut", "796": "cu\u2019", "797": "c\u00e0n", "798": "c\u00e9r", "799": "c\u00f2b", "800": "c\u00f2l", "801": "c\u00f3l", "802": "dai", "803": "dal", "804": "dam", "805": "dan", "806": "dar", "807": "das", "808": "dat", "809": "dau", "810": "da\u2019", "811": "dea", "812": "deb", "813": "dec", "814": "dee", "815": "deg", "816": "deh", "817": "dei", "818": "del", "819": "dem", "820": "den", "821": "deo", "822": "der", "823": "des", "824": "det", "825": "dez", "826": "de\u2019", "827": "dia", "828": "dic", "829": "die", "830": "dif", "831": "dii", "832": "dil", "833": "dim", "834": "din", "835": "dio", "836": "dir", "837": "dis", "838": "dit", "839": "diz", "840": "di\u00e8", "841": "di\u2019", "842": "dob", "843": "doc", "844": "dol", "845": "dom", "846": "don", "847": "dop", "848": "dor", "849": "dos", "850": "dot", "851": "dov", "852": "dra", "853": "dre", "854": "dri", "855": "dro", "856": "dru", "857": "dr\u00e0", "858": "dr\u00e4", "859": "dr\u00ec", "860": "dr\u00ef", "861": "dr\u00f2", "862": "dua", "863": "dub", "864": "due", "865": "dug", "866": "dui", "867": "dul", "868": "dun", "869": "duo", "870": "dur", "871": "dus", "872": "dut", "873": "du\u2019", "874": "d\u00e8i", "875": "d\u00eca", "876": "d\u00ece", "877": "d\u00ect", "878": "ean", "879": "est", "880": "fab", "881": "fac", "882": "fai", "883": "fal", "884": "fam", "885": "fan", "886": "far", "887": "fas", "888": "fat", "889": "fau", "890": "feb", "891": "feg", "892": "fei", "893": "fel", "894": "fem", "895": "fen", "896": "feo", "897": "fer", "898": "fes", "899": "fet", "900": "fe\u2019", "901": "fia", "902": "fib", "903": "fic", "904": "fie", "905": "fig", "906": "fil", "907": "fin", "908": "fio", "909": "fis", "910": "fit", "911": "fiu", "912": "fi\u00f2", "913": "fi\u2019", "914": "fla", "915": "fle", "916": "flu", "917": "fog", "918": "fol", "919": "fom", "920": "fon", "921": "for", "922": "fos", "923": "fra", "924": "fre", "925": "fri", "926": "fro", "927": "fru", "928": "fuc", "929": "fue", "930": "fug", "931": "fui", "932": "ful", "933": "fum", "934": "fun", "935": "fuo", "936": "fur", "937": "fu\u2019", "938": "f\u00e0c", "939": "f\u00e0s", "940": "f\u00e0t", "941": "f\u00e8l", "942": "f\u00e9e", "943": "f\u00e9l", "944": "f\u00f3n", "945": "gab", "946": "gad", "947": "gag", "948": "gai", "949": "gal", "950": "gam", "951": "gan", "952": "gar", "953": "gas", "954": "gat", "955": "gau", "956": "gaz", "957": "ga\u2019", "958": "gea", "959": "gei", "960": "gel", "961": "gem", "962": "gen", "963": "geo", "964": "ger", "965": "ges", "966": "get", "967": "ghe", "968": "ghi", "969": "gh\u2019", "970": "gia", "971": "gib", "972": "gie", "973": "gil", "974": "gim", "975": "gin", "976": "gio", "977": "gir", "978": "gis", "979": "git", "980": "giu", "981": "giz", "982": "gi\u00e0", "983": "gi\u00f2", "984": "gi\u00f9", "985": "gi\u2019", "986": "gli", "987": "glo", "988": "gl\u2019", "989": "gna", "990": "gne", "991": "gni", "992": "gno", "993": "gnu", "994": "gob", "995": "goc", "996": "gol", "997": "gom", "998": "gon", "999": "gor", "1000": "got", "1001": "goz", "1002": "gra", "1003": "gre", "1004": "gri", "1005": "gro", "1006": "gru", "1007": "gua", "1008": "guc", "1009": "gue", "1010": "gui", "1011": "guo", "1012": "gur", "1013": "guz", "1014": "gu\u00ec", "1015": "gu\u00f2", "1016": "g\u00f3n", "1017": "g\u00f3r", "1018": "hai", "1019": "han", "1020": "ha\u2019", "1021": "hon", "1022": "ian", "1023": "iar", "1024": "iat", "1025": "iep", "1026": "ier", "1027": "ieu", "1028": "ion", "1029": "ior", "1030": "jau", "1031": "joi", "1032": "lab", "1033": "lac", "1034": "lai", "1035": "lam", "1036": "lan", "1037": "lap", "1038": "lar", "1039": "las", "1040": "lat", "1041": "lau", "1042": "lav", "1043": "laz", "1044": "la\u2019", "1045": "lea", "1046": "leb", "1047": "lec", "1048": "lee", "1049": "leg", "1050": "lei", "1051": "lel", "1052": "lem", "1053": "len", "1054": "leo", "1055": "lep", "1056": "ler", "1057": "les", "1058": "let", "1059": "lez", "1060": "lia", "1061": "lic", "1062": "lie", "1063": "lil", "1064": "lim", "1065": "lin", "1066": "lio", "1067": "lip", "1068": "lir", "1069": "lis", "1070": "lit", "1071": "loc", "1072": "lom", "1073": "lon", "1074": "lop", "1075": "lor", "1076": "lot", "1077": "luc", "1078": "lui", "1079": "lul", "1080": "lun", "1081": "luo", "1082": "lup", "1083": "lur", "1084": "lus", "1085": "lut", "1086": "luz", "1087": "lu\u2019", "1088": "l\u00e8m", "1089": "l\u00eca", "1090": "l\u00eco", "1091": "l\u00f2n", "1092": "mac", "1093": "mae", "1094": "mag", "1095": "mai", "1096": "mal", "1097": "mam", "1098": "man", "1099": "mar", "1100": "mas", "1101": "mat", "1102": "maz", "1103": "ma\u2019", "1104": "mea", "1105": "mee", "1106": "meg", "1107": "mei", "1108": "mel", "1109": "mem", "1110": "men", "1111": "meo", "1112": "mer", "1113": "mes", "1114": "met", "1115": "mez", "1116": "me\u2019", "1117": "mia", "1118": "mic", "1119": "mie", "1120": "mii", "1121": "mil", "1122": "min", "1123": "mio", "1124": "mir", "1125": "mi\u2019", "1126": "mol", "1127": "mon", "1128": "mor", "1129": "mos", "1130": "mot", "1131": "moz", "1132": "muc", "1133": "muf", "1134": "mug", "1135": "mul", "1136": "mum", "1137": "mun", "1138": "muo", "1139": "mur", "1140": "mus", "1141": "m\u00e8c", "1142": "m\u00e9z", "1143": "m\u00eca", "1144": "m\u00ecs", "1145": "nac", "1146": "nag", "1147": "nai", "1148": "nal", "1149": "nan", "1150": "nar", "1151": "nas", "1152": "nat", "1153": "na\u2019", "1154": "nea", "1155": "neb", "1156": "nec", "1157": "nef", "1158": "neg", "1159": "nei", "1160": "nel", "1161": "nem", "1162": "nen", "1163": "neo", "1164": "ner", "1165": "nes", "1166": "net", "1167": "nev", "1168": "nez", "1169": "ne\u2019", "1170": "nha", "1171": "nia", "1172": "nic", "1173": "nie", "1174": "nig", "1175": "nii", "1176": "nil", "1177": "nim", "1178": "nin", "1179": "nio", "1180": "nir", "1181": "nis", "1182": "niz", "1183": "ni\u2019", "1184": "nob", "1185": "noc", "1186": "noi", "1187": "nol", "1188": "nom", "1189": "non", "1190": "nor", "1191": "not", "1192": "noz", "1193": "no\u2019", "1194": "nuc", "1195": "nul", "1196": "num", "1197": "nun", "1198": "nuo", "1199": "nur", "1200": "n\u00e8s", "1201": "n\u00eca", "1202": "n\u00ece", "1203": "n\u00ect", "1204": "n\u00f2i", "1205": "n\u00f2s", "1206": "pac", "1207": "pai", "1208": "pal", "1209": "pan", "1210": "pap", "1211": "par", "1212": "pas", "1213": "pat", "1214": "pau", "1215": "paz", "1216": "pea", "1217": "pec", "1218": "peg", "1219": "pei", "1220": "pel", "1221": "pem", "1222": "pen", "1223": "peo", "1224": "per", "1225": "pes", "1226": "pet", "1227": "pia", "1228": "pic", "1229": "pie", "1230": "pig", "1231": "pii", "1232": "pil", "1233": "pin", "1234": "pio", "1235": "pir", "1236": "pis", "1237": "pit", "1238": "piu", "1239": "piz", "1240": "pi\u00e8", "1241": "pi\u00e9", "1242": "pi\u00f9", "1243": "pla", "1244": "ple", "1245": "pli", "1246": "plo", "1247": "plu", "1248": "pl\u00ec", "1249": "poc", "1250": "pog", "1251": "poi", "1252": "pol", "1253": "pom", "1254": "pon", "1255": "pop", "1256": "por", "1257": "pos", "1258": "pot", "1259": "poz", "1260": "pra", "1261": "pre", "1262": "pri", "1263": "pro", "1264": "pru", "1265": "pr\u00e0", "1266": "pr\u00ec", "1267": "pr\u2019", "1268": "pub", "1269": "puc", "1270": "pul", "1271": "pun", "1272": "puo", "1273": "pur", "1274": "put", "1275": "puz", "1276": "pu\u00f2", "1277": "p\u00e0r", "1278": "p\u00eca", "1279": "p\u00f2s", "1280": "qua", "1281": "que", "1282": "qui", "1283": "quo", "1284": "qu\u00ef", "1285": "qu\u2019", "1286": "rab", "1287": "rac", "1288": "raf", "1289": "rag", "1290": "rai", "1291": "ral", "1292": "ram", "1293": "ran", "1294": "rao", "1295": "rap", "1296": "rar", "1297": "ras", "1298": "rat", "1299": "rav", "1300": "raz", "1301": "ra\u2019", "1302": "rea", "1303": "reb", "1304": "rec", "1305": "red", "1306": "ree", "1307": "reg", "1308": "rei", "1309": "rel", "1310": "rem", "1311": "ren", "1312": "reo", "1313": "rer", "1314": "res", "1315": "ret", "1316": "rez", "1317": "re\u2019", "1318": "ria", "1319": "ric", "1320": "rid", "1321": "rie", "1322": "rig", "1323": "rii", "1324": "ril", "1325": "rim", "1326": "rin", "1327": "rio", "1328": "rir", "1329": "ris", "1330": "rit", "1331": "riz", "1332": "ri\u2019", "1333": "rob", "1334": "roc", "1335": "rof", "1336": "rog", "1337": "rol", "1338": "rom", "1339": "ron", "1340": "ror", "1341": "ros", "1342": "rot", "1343": "roz", "1344": "rua", "1345": "ruc", "1346": "ruf", "1347": "rug", "1348": "rui", "1349": "rum", "1350": "run", "1351": "ruo", "1352": "rup", "1353": "rut", "1354": "r\u00e8g", "1355": "r\u00ecb", "1356": "r\u00ece", "1357": "r\u00ecs", "1358": "r\u00f2l", "1359": "r\u00f3n", "1360": "sab", "1361": "sac", "1362": "saf", "1363": "sag", "1364": "sai", "1365": "sal", "1366": "sam", "1367": "san", "1368": "sap", "1369": "sar", "1370": "sas", "1371": "sat", "1372": "sau", "1373": "sa\u2019", "1374": "sba", "1375": "sbe", "1376": "sbi", "1377": "sca", "1378": "sce", "1379": "sci", "1380": "sco", "1381": "scu", "1382": "sc\u00ec", "1383": "sc\u00ef", "1384": "sc\u2019", "1385": "sde", "1386": "sec", "1387": "seg", "1388": "sei", "1389": "sel", "1390": "sem", "1391": "sen", "1392": "seo", "1393": "sep", "1394": "ser", "1395": "ses", "1396": "set", "1397": "sev", "1398": "sez", "1399": "se\u2019", "1400": "sfa", "1401": "sfe", "1402": "sfo", "1403": "sga", "1404": "sgo", "1405": "sia", "1406": "sic", "1407": "sie", "1408": "sii", "1409": "sil", "1410": "sin", "1411": "sio", "1412": "sir", "1413": "sis", "1414": "sit", "1415": "sla", "1416": "sle", "1417": "sma", "1418": "sme", "1419": "smi", "1420": "smo", "1421": "smu", "1422": "sna", "1423": "sno", "1424": "sob", "1425": "soc", "1426": "sod", "1427": "sof", "1428": "sog", "1429": "sol", "1430": "som", "1431": "son", "1432": "sop", "1433": "sor", "1434": "sos", "1435": "sot", "1436": "sov", "1437": "soz", "1438": "so\u2019", "1439": "spa", "1440": "spe", "1441": "spi", "1442": "spo", "1443": "spu", "1444": "sp\u00ef", "1445": "sra", "1446": "sr\u00e4", "1447": "sta", "1448": "ste", "1449": "sti", "1450": "sto", "1451": "stu", "1452": "st\u00e0", "1453": "st\u00e9", "1454": "st\u00ec", "1455": "st\u00ef", "1456": "st\u00f2", "1457": "st\u00f9", "1458": "st\u2019", "1459": "sua", "1460": "sub", "1461": "suc", "1462": "sud", "1463": "sue", "1464": "suf", "1465": "sug", "1466": "sui", "1467": "sul", "1468": "sum", "1469": "sun", "1470": "suo", "1471": "sup", "1472": "sur", "1473": "sus", "1474": "su\u2019", "1475": "sve", "1476": "svi", "1477": "svo", "1478": "sv\u00ef", "1479": "s\u00ece", "1480": "s\u00f3n", "1481": "s\u00f9e", "1482": "tac", "1483": "tad", "1484": "tag", "1485": "tai", "1486": "tal", "1487": "tam", "1488": "tan", "1489": "tar", "1490": "tas", "1491": "tat", "1492": "tau", "1493": "ta\u2019", "1494": "tea", "1495": "tec", "1496": "teg", "1497": "tei", "1498": "tel", "1499": "tem", "1500": "ten", "1501": "teo", "1502": "ter", "1503": "tes", "1504": "tet", "1505": "tez", "1506": "te\u2019", "1507": "tho", "1508": "tia", "1509": "tic", "1510": "tie", "1511": "tii", "1512": "til", "1513": "tim", "1514": "tin", "1515": "tio", "1516": "tir", "1517": "tis", "1518": "ti\u2019", "1519": "tle", "1520": "toc", "1521": "tol", "1522": "tom", "1523": "ton", "1524": "top", "1525": "tor", "1526": "tos", "1527": "tra", "1528": "tre", "1529": "tri", "1530": "tro", "1531": "tru", "1532": "tr\u00e0", "1533": "tr\u00ef", "1534": "tr\u00f2", "1535": "tr\u2019", "1536": "tua", "1537": "tuc", "1538": "tue", "1539": "tuf", "1540": "tui", "1541": "tum", "1542": "tun", "1543": "tuo", "1544": "tur", "1545": "tus", "1546": "tut", "1547": "t\u00e0n", "1548": "t\u00e8s", "1549": "t\u00e9r", "1550": "t\u00f2m", "1551": "t\u00f2n", "1552": "t\u00f2r", "1553": "t\u00f3n", "1554": "unt", "1555": "uom", "1556": "uo\u2019", "1557": "vac", "1558": "vag", "1559": "vai", "1560": "val", "1561": "vam", "1562": "van", "1563": "var", "1564": "vas", "1565": "vat", "1566": "vau", "1567": "va\u2019", "1568": "vea", "1569": "vec", "1570": "veg", "1571": "vei", "1572": "vel", "1573": "vem", "1574": "ven", "1575": "ver", "1576": "ves", "1577": "vet", "1578": "vez", "1579": "ve\u2019", "1580": "via", "1581": "vid", "1582": "vie", "1583": "vii", "1584": "vil", "1585": "vin", "1586": "vio", "1587": "vir", "1588": "vis", "1589": "vit", "1590": "viz", "1591": "voi", "1592": "vol", "1593": "vom", "1594": "von", "1595": "vor", "1596": "vos", "1597": "vo\u2019", "1598": "vra", "1599": "vul", "1600": "vuo", "1601": "v\u00ecd", "1602": "v\u00f2l", "1603": "xil", "1604": "zac", "1605": "zaf", "1606": "zai", "1607": "zan", "1608": "zar", "1609": "za\u2019", "1610": "zel", "1611": "zia", "1612": "zie", "1613": "zii", "1614": "zio", "1615": "zon", "1616": "zuc", "1617": "zuf", "1618": "zul", "1619": "zur", "1620": "z\u00f2n", "1621": "\u00f2th", "1622": "\u2018be", "1623": "\u2018la", "1624": "\u2018ne", "1625": "\u2018te", "1626": "\u2019ve", "1627": "\u2019v\u2019", "1628": "ab", "1629": "ac", "1630": "ad", "1631": "ae", "1632": "af", "1633": "ag", "1634": "ai", "1635": "al", "1636": "am", "1637": "an", "1638": "ap", "1639": "ar", "1640": "as", "1641": "at", "1642": "au", "1643": "av", "1644": "az", "1645": "a\u2019", "1646": "ba", "1647": "be", "1648": "bi", "1649": "bo", "1650": "bu", "1651": "b\u00e8", "1652": "b\u00eb", "1653": "b\u00ec", "1654": "b\u00ef", "1655": "b\u00f2", "1656": "b\u00f9", "1657": "b\u2019", "1658": "ca", "1659": "ce", "1660": "ci", "1661": "co", "1662": "cu", "1663": "c\u00e8", "1664": "c\u00e9", "1665": "c\u00eb", "1666": "c\u00ec", "1667": "c\u00ef", "1668": "c\u00f2", "1669": "c\u00f9", "1670": "c\u00fc", "1671": "c\u2019", "1672": "da", "1673": "de", "1674": "di", "1675": "do", "1676": "du", "1677": "d\u00e0", "1678": "d\u00e9", "1679": "d\u00eb", "1680": "d\u00ec", "1681": "d\u00ef", "1682": "d\u00f2", "1683": "d\u00fc", "1684": "d\u2019", "1685": "eb", "1686": "ec", "1687": "ed", "1688": "ef", "1689": "ei", "1690": "el", "1691": "em", "1692": "en", "1693": "er", "1694": "es", "1695": "et", "1696": "eu", "1697": "ex", "1698": "e\u2019", "1699": "fa", "1700": "fe", "1701": "fi", "1702": "fo", "1703": "fu", "1704": "f\u00e0", "1705": "f\u00e9", "1706": "f\u00eb", "1707": "f\u00ef", "1708": "f\u00f2", "1709": "f\u00f3", "1710": "ga", "1711": "ge", "1712": "gi", "1713": "go", "1714": "gu", "1715": "g\u00e8", "1716": "g\u00eb", "1717": "g\u00ec", "1718": "g\u00ef", "1719": "g\u00f2", "1720": "g\u00f3", "1721": "g\u00fc", "1722": "g\u2019", "1723": "ha", "1724": "hi", "1725": "ho", "1726": "ia", "1727": "id", "1728": "ie", "1729": "il", "1730": "im", "1731": "in", "1732": "io", "1733": "ir", "1734": "is", "1735": "iu", "1736": "i\u2019", "1737": "la", "1738": "le", "1739": "li", "1740": "lo", "1741": "lu", "1742": "l\u00e0", "1743": "l\u00e8", "1744": "l\u00eb", "1745": "l\u00ec", "1746": "l\u00ef", "1747": "l\u00f2", "1748": "l\u00f6", "1749": "l\u00fc", "1750": "l\u2019", "1751": "ma", "1752": "me", "1753": "mi", "1754": "mo", "1755": "mu", "1756": "m\u00e4", "1757": "m\u00e8", "1758": "m\u00eb", "1759": "m\u00ec", "1760": "m\u00ef", "1761": "m\u00f2", "1762": "m\u2019", "1763": "na", "1764": "ne", "1765": "ni", "1766": "no", "1767": "nu", "1768": "n\u00e0", "1769": "n\u00e8", "1770": "n\u00e9", "1771": "n\u00eb", "1772": "n\u00ec", "1773": "n\u00ef", "1774": "n\u00f2", "1775": "n\u00fc", "1776": "n\u2019", "1777": "ob", "1778": "oc", "1779": "od", "1780": "of", "1781": "og", "1782": "oh", "1783": "ol", "1784": "om", "1785": "on", "1786": "op", "1787": "or", "1788": "os", "1789": "ot", "1790": "ov", "1791": "pa", "1792": "pe", "1793": "pi", "1794": "po", "1795": "pu", "1796": "p\u00e8", "1797": "p\u00eb", "1798": "p\u00ec", "1799": "p\u00ef", "1800": "p\u00f2", "1801": "p\u00fc", "1802": "p\u2019", "1803": "ra", "1804": "re", "1805": "ri", "1806": "ro", "1807": "ru", "1808": "r\u00e0", "1809": "r\u00e8", "1810": "r\u00eb", "1811": "r\u00ec", "1812": "r\u00ef", "1813": "r\u00f2", "1814": "r\u00f3", "1815": "r\u2019", "1816": "sa", "1817": "se", "1818": "si", "1819": "so", "1820": "su", "1821": "s\u00e0", "1822": "s\u00e8", "1823": "s\u00e9", "1824": "s\u00eb", "1825": "s\u00ec", "1826": "s\u00ef", "1827": "s\u00f2", "1828": "s\u00f9", "1829": "s\u00fc", "1830": "s\u2019", "1831": "ta", "1832": "te", "1833": "ti", "1834": "to", "1835": "tu", "1836": "t\u00e0", "1837": "t\u00e4", "1838": "t\u00e8", "1839": "t\u00e9", "1840": "t\u00eb", "1841": "t\u00ec", "1842": "t\u00ef", "1843": "t\u00f2", "1844": "t\u00f9", "1845": "t\u00fc", "1846": "t\u2019", "1847": "uc", "1848": "ul", "1849": "um", "1850": "un", "1851": "uo", "1852": "ur", "1853": "us", "1854": "u\u2019", "1855": "va", "1856": "ve", "1857": "vi", "1858": "vo", "1859": "vu", "1860": "v\u00e4", "1861": "v\u00e8", "1862": "v\u00e9", "1863": "v\u00eb", "1864": "v\u00ec", "1865": "v\u00ef", "1866": "v\u00f2", "1867": "v\u2019", "1868": "xi", "1869": "za", "1870": "ze", "1871": "zi", "1872": "zo", "1873": "z\u00ef", "1874": "z\u00f2", "1875": "z\u2019", "1876": "\u00e0m", "1877": "\u00e0n", "1878": "\u00e0r", "1879": "\u00e0s", "1880": "\u00e8e", "1881": "\u00e8i", "1882": "\u00e8l", "1883": "\u00e8n", "1884": "\u00e8v", "1885": "\u00e9n", "1886": "\u00ecs", "1887": "\u00f2n", "1888": "\u00f2s", "1889": "\u00f3n", "1890": "\u00f9l", "1891": "\u2019l", "1892": "\u2019m", "1893": "\u2019n", "1894": "a", "1895": "d", "1896": "e", "1897": "i", "1898": "l", "1899": "o", "1900": "p", "1901": "u", "1902": "\u00e8", "1903": "\u00e9", "1904": "\u00eb", "1905": "\u00ec", "1906": "\u00ef", "1907": "\u00f2", "1908": "\u00f9", "1909": "\u00fc"}