{"0": "", "1": "<v>", "2": "</v>", "3": "<t>", "4": "</t>", "5": "\u00f2", "6": "e", "7": "\u00e8", "8": "\u00e9", "9": "\u00fc", "10": "u", "11": "\u00ef", "12": "o", "13": "s", "14": "i", "15": "a", "16": "ad", "17": "in", "18": "en", "19": "r\u00eb", "20": "gu", "21": "au", "22": "co", "23": "so", "24": "g\u00e8", "25": "ie", "26": "s\u00e9", "27": "re", "28": "il", "29": "mo", "30": "f\u00eb", "31": "t\u00ef", "32": "ca", "33": "le", "34": "ob", "35": "li", "36": "d\u00eb", "37": "fi", "38": "ti", "39": "bi", "40": "op", "41": "mu", "42": "d\u00e8", "43": "de", "44": "iu", "45": "b\u00eb", "46": "v\u00f2", "47": "t\u00eb", "48": "f\u00f3", "49": "\u00e8n", "50": "s\u00ef", "51": "be", "52": "eu", "53": "la", "54": "bu", "55": "v\u00e8", "56": "mi", "57": "ha", "58": "d\u00ef", "59": "fo", "60": "uo", "61": "fa", "62": "z\u00ef", "63": "se", "64": "v\u00eb", "65": "ze", "66": "el", "67": "\u00f2s", "68": "tu", "69": "zi", "70": "v\u00ef", "71": "ro", "72": "pi", "73": "ar", "74": "ni", "75": "n\u00ef", "76": "l\u00eb", "77": "me", "78": "g\u00f3", "79": "p\u00ec", "80": "af", "81": "za", "82": "du", "83": "r\u00f3", "84": "og", "85": "or", "86": "ta", "87": "c\u00ec", "88": "t\u00ec", "89": "lo", "90": "oc", "91": "sa", "92": "az", "93": "l\u00ef", "94": "ba", "95": "po", "96": "bo", "97": "c\u00f9", "98": "g\u00ef", "99": "l\u00fc", "100": "g\u00eb", "101": "ge", "102": "n\u00eb", "103": "c\u00ef", "104": "qu", "105": "di", "106": "t\u00fc", "107": "va", "108": "zo", "109": "ci", "110": "s\u00fc", "111": "pu", "112": "b\u00ef", "113": "ga", "114": "n\u00e8", "115": "un", "116": "te", "117": "ve", "118": "p\u00ef", "119": "em", "120": "et", "121": "vu", "122": "m\u00ec", "123": "ri", "124": "ag", "125": "t\u00e8", "126": "ra", "127": "gi", "128": "an", "129": "ur", "130": "ol", "131": "io", "132": "no", "133": "c\u00fc", "134": "eb", "135": "l\u00ec", "136": "ov", "137": "fu", "138": "do", "139": "am", "140": "pe", "141": "ae", "142": "f\u00ef", "143": "s\u00e0", "144": "l\u00f6", "145": "uc", "146": "on", "147": "f\u00e9", "148": "id", "149": "ef", "150": "n\u00fc", "151": "si", "152": "at", "153": "m\u00ef", "154": "av", "155": "m\u00e4", "156": "r\u00ef", "157": "ma", "158": "p\u00eb", "159": "t\u00f2", "160": "l\u00e0", "161": "ab", "162": "os", "163": "im", "164": "to", "165": "ap", "166": "r\u00e8", "167": "lu", "168": "l\u00f2", "169": "of", "170": "is", "171": "om", "172": "\u00e8v", "173": "al", "174": "m\u00eb", "175": "ul", "176": "ac", "177": "vo", "178": "er", "179": "go", "180": "s\u00eb", "181": "ru", "182": "t\u00e4", "183": "fe", "184": "ot", "185": "ia", "186": "as", "187": "ce", "188": "ec", "189": "es", "190": "p\u00fc", "191": "vi", "192": "da", "193": "p\u00e8", "194": "cu", "195": "s\u00f9", "196": "r\u00e0", "197": "s\u00f2", "198": "su", "199": "ne", "200": "pa", "201": "m\u00e8", "202": "l\u00e8", "203": "n\u00f2", "204": "c\u00eb", "205": "d\u00e9", "206": "na", "207": "d\u00fc", "208": "nu", "209": "gui", "210": "mic", "211": "dob", "212": "rel", "213": "smi", "214": "con", "215": "ser", "216": "gne", "217": "dem", "218": "red", "219": "zac", "220": "sun", "221": "glo", "222": "goz", "223": "r\u00e8g", "224": "mal", "225": "bot", "226": "lil", "227": "zon", "228": "rut", "229": "sam", "230": "sem", "231": "reg", "232": "doc", "233": "vuo", "234": "sco", "235": "dos", "236": "clo", "237": "svi", "238": "cle", "239": "fat", "240": "sba", "241": "rie", "242": "nas", "243": "pat", "244": "lai", "245": "cop", "246": "goc", "247": "nir", "248": "lab", "249": "plo", "250": "leb", "251": "pan", "252": "mon", "253": "lur", "254": "das", "255": "gam", "256": "sap", "257": "men", "258": "ruf", "259": "mug", "260": "rat", "261": "pub", "262": "dir", "263": "fom", "264": "guo", "265": "gir", "266": "gim", "267": "cre", "268": "giu", "269": "toc", "270": "\u2018la", "271": "rom", "272": "boz", "273": "nul", "274": "bl\u00ef", "275": "tic", "276": "mul", "277": "van", "278": "ful", "279": "ban", "280": "ran", "281": "zaf", "282": "lia", "283": "fer", "284": "gel", "285": "bil", "286": "gli", "287": "lup", "288": "nec", "289": "rog", "290": "bia", "291": "tag", "292": "st\u00ef", "293": "von", "294": "lir", "295": "ber", "296": "get", "297": "v\u00f2l", "298": "tez", "299": "sas", "300": "piu", "301": "sup", "302": "gab", "303": "bri", "304": "cea", "305": "pul", "306": "vas", "307": "ron", "308": "dr\u00ef", "309": "bol", "310": "pog", "311": "dif", "312": "fre", "313": "pun", "314": "ch\u00ec", "315": "cez", "316": "pop", "317": "des", "318": "dur", "319": "tec", "320": "vel", "321": "fac", "322": "vec", "323": "nuo", "324": "nag", "325": "bie", "326": "som", "327": "fos", "328": "ros", "329": "feg", "330": "vis", "331": "gat", "332": "sgo", "333": "lea", "334": "sof", "335": "fab", "336": "lau", "337": "bor", "338": "ter", "339": "fle", "340": "gol", "341": "rin", "342": "lap", "343": "cli", "344": "lac", "345": "sus", "346": "ras", "347": "les", "348": "piz", "349": "nis", "350": "bun", "351": "lip", "352": "tis", "353": "dol", "354": "guz", "355": "ruc", "356": "tuf", "357": "dim", "358": "pri", "359": "spe", "360": "nef", "361": "gib", "362": "cur", "363": "sag", "364": "rig", "365": "pin", "366": "fio", "367": "cro", "368": "bin", "369": "sde", "370": "cac", "371": "bon", "372": "cie", "373": "ghi", "374": "lat", "375": "maz", "376": "plu", "377": "buc", "378": "ste", "379": "ton", "380": "pie", "381": "pel", "382": "dio", "383": "mer", "384": "fib", "385": "gia", "386": "moz", "387": "fun", "388": "mil", "389": "laz", "390": "mar", "391": "sez", "392": "mie", "393": "pen", "394": "cas", "395": "svo", "396": "ger", "397": "lez", "398": "mes", "399": "bal", "400": "bec", "401": "fet", "402": "gau", "403": "lin", "404": "mun", "405": "sti", "406": "vin", "407": "vie", "408": "peg", "409": "lec", "410": "sac", "411": "suo", "412": "nor", "413": "far", "414": "fit", "415": "ses", "416": "pal", "417": "fri", "418": "lus", "419": "dam", "420": "non", "421": "fuc", "422": "coc", "423": "tea", "424": "cep", "425": "geo", "426": "pl\u00ec", "427": "cuc", "428": "ven", "429": "cic", "430": "smu", "431": "zuc", "432": "nie", "433": "fas", "434": "sta", "435": "m\u00e9z", "436": "cag", "437": "bac", "438": "car", "439": "sce", "440": "gra", "441": "cin", "442": "c\u00f3l", "443": "sob", "444": "cos", "445": "bat", "446": "col", "447": "dul", "448": "sud", "449": "pas", "450": "vez", "451": "spa", "452": "dr\u00e4", "453": "nic", "454": "ler", "455": "caf", "456": "cul", "457": "bas", "458": "nev", "459": "o a", "460": "sna", "461": "fug", "462": "dal", "463": "duo", "464": "nal", "465": "tro", "466": "rac", "467": "pru", "468": "tun", "469": "don", "470": "muc", "471": "sno", "472": "sub", "473": "rag", "474": "sat", "475": "for", "476": "det", "477": "dau", "478": "flu", "479": "cot", "480": "rio", "481": "fin", "482": "nen", "483": "giz", "484": "rem", "485": "reb", "486": "saf", "487": "pot", "488": "gno", "489": "gob", "490": "rec", "491": "neb", "492": "bur", "493": "mur", "494": "der", "495": "bul", "496": "pro", "497": "set", "498": "o e", "499": "tim", "500": "san", "501": "mas", "502": "sol", "503": "sug", "504": "pet", "505": "pia", "506": "pil", "507": "tor", "508": "nil", "509": "tie", "510": "a a", "511": "gil", "512": "bru", "513": "gru", "514": "nan", "515": "clu", "516": "br\u00ef", "517": "spo", "518": "vir", "519": "dug", "520": "pon", "521": "ver", "522": "dot", "523": "sit", "524": "cru", "525": "gre", "526": "lel", "527": "fam", "528": "ciu", "529": "niz", "530": "bis", "531": "ret", "532": "lim", "533": "zur", "534": "cal", "535": "fog", "536": "f\u00e0c", "537": "pac", "538": "p\u00f2s", "539": "pos", "540": "nun", "541": "biz", "542": "chi", "543": "fru", "544": "qua", "545": "deg", "546": "dre", "547": "sog", "548": "fro", "549": "lul", "550": "neg", "551": "tom", "552": "tin", "553": "pli", "554": "cap", "555": "dic", "556": "fen", "557": "muo", "558": "vid", "559": "din", "560": "mag", "561": "dil", "562": "gal", "563": "tal", "564": "sab", "565": "mot", "566": "bet", "567": "luz", "568": "par", "569": "vil", "570": "lot", "571": "iar", "572": "nel", "573": "pap", "574": "cel", "575": "boc", "576": "bev", "577": "vom", "578": "fia", "579": "gie", "580": "sp\u00ef", "581": "bar", "582": "lis", "583": "gar", "584": "stu", "585": "cla", "586": "cir", "587": "mel", "588": "cra", "589": "xil", "590": "gem", "591": "sma", "592": "cri", "593": "tar", "594": "rit", "595": "buf", "596": "cat", "597": "fla", "598": "noz", "599": "cet", "600": "poc", "601": "scu", "602": "gur", "603": "cui", "604": "let", "605": "dea", "606": "bio", "607": "spu", "608": "rol", "609": "zan", "610": "mam", "611": "tet", "612": "che", "613": "bre", "614": "pit", "615": "dri", "616": "tle", "617": "ior", "618": "ruo", "619": "roz", "620": "lar", "621": "tuo", "622": "pio", "623": "vul", "624": "git", "625": "can", "626": "gna", "627": "soc", "628": "tr\u00ef", "629": "tau", "630": "sin", "631": "tol", "632": "deb", "633": "dra", "634": "pir", "635": "viz", "636": "dat", "637": "tat", "638": "sto", "639": "cis", "640": "rab", "641": "leg", "642": "man", "643": "gon", "644": "bom", "645": "luo", "646": "t\u00f2r", "647": "nim", "648": "dun", "649": "feb", "650": "len", "651": "ves", "652": "pic", "653": "rez", "654": "fra", "655": "seg", "656": "net", "657": "lem", "658": "buo", "659": "sca", "660": "cuo", "661": "cor", "662": "pau", "663": "sfo", "664": "lav", "665": "gas", "666": "dia", "667": "vag", "668": "cr\u00e0", "669": "bab", "670": "dan", "671": "fan", "672": "gis", "673": "cam", "674": "tra", "675": "vac", "676": "rim", "677": "bea", "678": "paz", "679": "sle", "680": "dis", "681": "fol", "682": "cem", "683": "lun", "684": "dov", "685": "sio", "686": "tir", "687": "vat", "688": "tri", "689": "ria", "690": "nat", "691": "vem", "692": "tes", "693": "sum", "694": "nol", "695": "fal", "696": "raz", "697": "sra", "698": "c\u00e9r", "699": "f\u00e9l", "700": "lie", "701": "ges", "702": "ian", "703": "lon", "704": "run", "705": "fem", "706": "vit", "707": "sec", "708": "lan", "709": "top", "710": "nur", "711": "han", "712": "gri", "713": "muf", "714": "ces", "715": "val", "716": "lor", "717": "qui", "718": "soz", "719": "mac", "720": "tas", "721": "guc", "722": "sve", "723": "loc", "724": "cob", "725": "lom", "726": "sel", "727": "por", "728": "riz", "729": "tuc", "730": "zar", "731": "puz", "732": "rup", "733": "que", "734": "sop", "735": "nin", "736": "nes", "737": "sbi", "738": "rar", "739": "nob", "740": "var", "741": "dom", "742": "fel", "743": "o u", "744": "lop", "745": "gni", "746": "dus", "747": "diz", "748": "coz", "749": "sga", "750": "mir", "751": "gea", "752": "tam", "753": "rob", "754": "sci", "755": "sal", "756": "cer", "757": "spi", "758": "vam", "759": "cun", "760": "sod", "761": "p\u00e0r", "762": "sil", "763": "ren", "764": "nuc", "765": "meg", "766": "ier", "767": "puc", "768": "ch\u00ef", "769": "fig", "770": "dro", "771": "sot", "772": "fes", "773": "cit", "774": "rug", "775": "gen", "776": "cum", "777": "ram", "778": "fon", "779": "dop", "780": "ric", "781": "pol", "782": "put", "783": "cad", "784": "ner", "785": "tre", "786": "rid", "787": "nem", "788": "pla", "789": "lep", "790": "pis", "791": "sur", "792": "t\u00f2m", "793": "pig", "794": "ial", "795": "rir", "796": "gag", "797": "met", "798": "veg", "799": "got", "800": "dru", "801": "res", "802": "gan", "803": "qu\u00ef", "804": "tem", "805": "fiu", "806": "rot", "807": "dor", "808": "tho", "809": "mem", "810": "bef", "811": "puo", "812": "per", "813": "dez", "814": "sor", "815": "til", "816": "luc", "817": "fum", "818": "cl\u00ef", "819": "mat", "820": "gnu", "821": "fuo", "822": "vet", "823": "den", "824": "nom", "825": "com", "826": "nia", "827": "fis", "828": "but", "829": "tru", "830": "lam", "831": "mor", "832": "suf", "833": "poz", "834": "ral", "835": "pec", "836": "rap", "837": "raf", "838": "ris", "839": "cef", "840": "dub", "841": "tac", "842": "noc", "843": "nar", "844": "pom", "845": "cau", "846": "die", "847": "cio", "848": "ghe", "849": "iat", "850": "pre", "851": "del", "852": "sep", "853": "gue", "854": "nig", "855": "ben", "856": "cia", "857": "teg", "858": "sov", "859": "fur", "860": "bli", "861": "vol", "862": "bra", "863": "ple", "864": "sos", "865": "gua", "866": "quo", "867": "dar", "868": "lic", "869": "ten", "870": "zia", "871": "lut", "872": "mez", "873": "pes", "874": "lit", "875": "cen", "876": "bro", "877": "nez", "878": "zel", "879": "smo", "880": "not", "881": "roc", "882": "zuf", "883": "dit", "884": "sen", "885": "sme", "886": "hon", "887": "a u", "888": "gio", "889": "mai", "890": "dut", "891": "sfa", "892": "bel", "893": "sc\u00ef", "894": "sfe", "895": "pur", "896": "mos", "897": "sv\u00ef", "898": "dec", "899": "las", "900": "sie", "901": "son", "902": "vor", "903": "tut", "904": "sic", "905": "gaz", "906": "min", "907": "sar", "908": "rav", "909": "rea", "910": "gad", "911": "tel", "912": "gor", "913": "tur", "914": "pra", "915": "mol", "916": "sis", "917": "pi\u00e9", "918": "fie", "919": "suc", "920": "nac", "921": "sia", "922": "tan", "923": "rof", "924": "zio", "925": "sla", "926": "fic", "927": "mia", "928": "cov", "929": "gom", "930": "r\u2019 u", "931": "grom", "932": "scre", "933": "pien", "934": "trul", "935": "bron", "936": "ciul", "937": "spes", "938": "scol", "939": "te i", "940": "scos", "941": "squa", "942": "so i", "943": "za a", "944": "scam", "945": "fles", "946": "m\u2019 a", "947": "l\u2019 i", "948": "z\u2019 a", "949": "gi u", "950": "spor", "951": "mo e", "952": "glia", "953": "brut", "954": "d\u2019 a", "955": "t\u2019 e", "956": "qual", "957": "stin", "958": "stuc", "959": "z\u2019 o", "960": "ni o", "961": "puom", "962": "scan", "963": "grez", "964": "gi e", "965": "piez", "966": "m\u2019 o", "967": "gheg", "968": "guic", "969": "me u", "970": "ce o", "971": "fior", "972": "stro", "973": "scri", "974": "sfio", "975": "dier", "976": "star", "977": "pres", "978": "sfre", "979": "mo o", "980": "viem", "981": "scin", "982": "sdet", "983": "ta e", "984": "stis", "985": "ma o", "986": "n\u2019 e", "987": "pren", "988": "gnem", "989": "scia", "990": "tram", "991": "scov", "992": "ciuo", "993": "stil", "994": "lo u", "995": "sbri", "996": "glet", "997": "buon", "998": "stop", "999": "\u00e8 in", "1000": "ne o", "1001": "scom", "1002": "guar", "1003": "plau", "1004": "pros", "1005": "sfam", "1006": "ziar", "1007": "cian", "1008": "quer", "1009": "gnar", "1010": "stor", "1011": "ghie", "1012": "gnen", "1013": "ghes", "1014": "na o", "1015": "spin", "1016": "m\u2019 i", "1017": "s\u00ec a", "1018": "re e", "1019": "so a", "1020": "d\u2019 o", "1021": "no o", "1022": "scuo", "1023": "to i", "1024": "sven", "1025": "spre", "1026": "gnie", "1027": "ghil", "1028": "spel", "1029": "spol", "1030": "zo e", "1031": "guer", "1032": "to o", "1033": "bo i", "1034": "grem", "1035": "re a", "1036": "li \u2019", "1037": "cien", "1038": "d\u2019 e", "1039": "ta i", "1040": "prin", "1041": "pi i", "1042": "chil", "1043": "stru", "1044": "ni u", "1045": "bias", "1046": "si e", "1047": "ples", "1048": "be a", "1049": "p\u2019 e", "1050": "squi", "1051": "te o", "1052": "sden", "1053": "schi", "1054": "pi e", "1055": "pe e", "1056": "sfor", "1057": "guit", "1058": "spit", "1059": "tron", "1060": "quar", "1061": "me o", "1062": "mo i", "1063": "flet", "1064": "creb", "1065": "vien", "1066": "guet", "1067": "guan", "1068": "quel", "1069": "c\u2019 o", "1070": "e in", "1071": "d\u2019 u", "1072": "gner", "1073": "fiam", "1074": "ciar", "1075": "flig", "1076": "le e", "1077": "z\u2019 i", "1078": "guil", "1079": "ze e", "1080": "l\u00ec e", "1081": "ciap", "1082": "chia", "1083": "l\u2019 u", "1084": "to a", "1085": "stan", "1086": "brol", "1087": "go a", "1088": "stri", "1089": "scim", "1090": "vuol", "1091": "piac", "1092": "guef", "1093": "ghia", "1094": "po e", "1095": "da a", "1096": "da u", "1097": "li e", "1098": "ne a", "1099": "be o", "1100": "di a", "1101": "fret", "1102": "ca o", "1103": "giar", "1104": "ro e", "1105": "co e", "1106": "scot", "1107": "ne u", "1108": "plan", "1109": "ra o", "1110": "va u", "1111": "sbra", "1112": "smon", "1113": "sa u", "1114": "crol", "1115": "tret", "1116": "proc", "1117": "l\u2019 a", "1118": "bran", "1119": "stig", "1120": "prir", "1121": "quis", "1122": "de a", "1123": "bo a", "1124": "smal", "1125": "sman", "1126": "ra u", "1127": "glie", "1128": "ma a", "1129": "ta a", "1130": "ca a", "1131": "glau", "1132": "a ac", "1133": "drit", "1134": "spon", "1135": "brie", "1136": "prie", "1137": "treb", "1138": "scic", "1139": "ni a", "1140": "r\u00ec u", "1141": "scaz", "1142": "str\u00e0", "1143": "v\u2019 a", "1144": "ro a", "1145": "a in", "1146": "stre", "1147": "a ef", "1148": "trat", "1149": "quil", "1150": "za i", "1151": "scem", "1152": "gnuo", "1153": "ci o", "1154": "grep", "1155": "smor", "1156": "tras", "1157": "di u", "1158": "a al", "1159": "gras", "1160": "se i", "1161": "quan", "1162": "ghel", "1163": "te e", "1164": "li o", "1165": "si o", "1166": "scal", "1167": "stem", "1168": "drap", "1169": "tien", "1170": "do e", "1171": "piov", "1172": "stas", "1173": "n\u2019 o", "1174": "gnel", "1175": "sa a", "1176": "la u", "1177": "brug", "1178": "scab", "1179": "mo a", "1180": "pran", "1181": "gron", "1182": "t\u2019 a", "1183": "de o", "1184": "ca u", "1185": "giam", "1186": "mi u", "1187": "stal", "1188": "tren", "1189": "piag", "1190": "gias", "1191": "la e", "1192": "ge o", "1193": "scar", "1194": "quin", "1195": "liev", "1196": "biac", "1197": "n\u2019 a", "1198": "vi o", "1199": "ni e", "1200": "o ar", "1201": "bi a", "1202": "pris", "1203": "ciom", "1204": "gual", "1205": "gian", "1206": "fiac", "1207": "trom", "1208": "so u", "1209": "mi e", "1210": "sber", "1211": "mi o", "1212": "gien", "1213": "s\u2019 a", "1214": "sgor", "1215": "ro i", "1216": "cruc", "1217": "o al", "1218": "pruo", "1219": "sfin", "1220": "sbar", "1221": "guiz", "1222": "mo u", "1223": "chis", "1224": "pric", "1225": "lo e", "1226": "li a", "1227": "fian", "1228": "co u", "1229": "stam", "1230": "sver", "1231": "ie a", "1232": "la a", "1233": "stio", "1234": "sgri", "1235": "na a", "1236": "me e", "1237": "sten", "1238": "ghez", "1239": "smar", "1240": "dien", "1241": "smen", "1242": "de e", "1243": "spie", "1244": "scor", "1245": "cion", "1246": "spet", "1247": "go e", "1248": "e \u2019n", "1249": "ve u", "1250": "di i", "1251": "le o", "1252": "ra a", "1253": "frut", "1254": "t\u2019 o", "1255": "se o", "1256": "ti u", "1257": "no e", "1258": "grat", "1259": "zi o", "1260": "di o", "1261": "guir", "1262": "dran", "1263": "scel", "1264": "sgan", "1265": "no a", "1266": "scen", "1267": "stav", "1268": "si a", "1269": "g\u2019 \u00ef", "1270": "guen", "1271": "pi a", "1272": "trar", "1273": "se e", "1274": "la i", "1275": "ga e", "1276": "chie", "1277": "\u00e8 im", "1278": "sgom", "1279": "clas", "1280": "cioc", "1281": "prez", "1282": "grop", "1283": "re o", "1284": "co a", "1285": "sfan", "1286": "ciuf", "1287": "piog", "1288": "scer", "1289": "zi e", "1290": "re u", "1291": "me a", "1292": "trag", "1293": "so o", "1294": "clis", "1295": "gnor", "1296": "sneb", "1297": "tror", "1298": "ce a", "1299": "glio", "1300": "scro", "1301": "snel", "1302": "po o", "1303": "stia", "1304": "do a", "1305": "no u", "1306": "s\u2019 u", "1307": "ma u", "1308": "ro u", "1309": "trec", "1310": "ciel", "1311": "spun", "1312": "cias", "1313": "gres", "1314": "\u2018glo", "1315": "stuo", "1316": "graf", "1317": "vi e", "1318": "to e", "1319": "piom", "1320": "giug", "1321": "ce u", "1322": "zi u", "1323": "r\u2019 o", "1324": "s\u2019 \u00ef", "1325": "gnas", "1326": "quen", "1327": "sfar", "1328": "a es", "1329": "driz", "1330": "po u", "1331": "gher", "1332": "vo o", "1333": "broc", "1334": "be i", "1335": "ci a", "1336": "chiu", "1337": "o av", "1338": "v\u2019 e", "1339": "di e", "1340": "te u", "1341": "stol", "1342": "ti e", "1343": "scio", "1344": "ti o", "1345": "gros", "1346": "to u", "1347": "sche", "1348": "sa o", "1349": "trie", "1350": "da o", "1351": "so e", "1352": "sper", "1353": "ci e", "1354": "spro", "1355": "de u", "1356": "tran", "1357": "lo o", "1358": "gnan", "1359": "scir", "1360": "spec", "1361": "s\u2019 i", "1362": "spaz", "1363": "scuf", "1364": "ciac", "1365": "ge a", "1366": "biet", "1367": "pron", "1368": "chet", "1369": "do i", "1370": "quat", "1371": "d\u2019 \u00ef", "1372": "scie", "1373": "zo a", "1374": "puol", "1375": "spuo", "1376": "grie", "1377": "sgra", "1378": "si u", "1379": "stie", "1380": "piat", "1381": "da e", "1382": "crea", "1383": "gior", "1384": "co o", "1385": "stel", "1386": "spia", "1387": "ri e", "1388": "n\u2019 u", "1389": "brac", "1390": "smoz", "1391": "ro o", "1392": "ra i", "1393": "na u", "1394": "re i", "1395": "pian", "1396": "stet", "1397": "va i", "1398": "stul", "1399": "spez", "1400": "zian", "1401": "na e", "1402": "fran", "1403": "scop", "1404": "gnon", "1405": "ghir", "1406": "sfac", "1407": "span", "1408": "truo", "1409": "dian", "1410": "brez", "1411": "nian", "1412": "guaz", "1413": "ghet", "1414": "c\u2019 \u00ef", "1415": "spen", "1416": "spal", "1417": "va o", "1418": "trop", "1419": "brot", "1420": "spir", "1421": "ciot", "1422": "tier", "1423": "l\u2019 e", "1424": "d\u2019 \u00eb", "1425": "stiz", "1426": "si i", "1427": "tiem", "1428": "do u", "1429": "ca e", "1430": "dras", "1431": "za o", "1432": "svel", "1433": "bian", "1434": "gial", "1435": "clau", "1436": "greg", "1437": "no i", "1438": "m\u2019 e", "1439": "trap", "1440": "se u", "1441": "po a", "1442": "ga o", "1443": "giac", "1444": "ve a", "1445": "giot", "1446": "ti i", "1447": "flit", "1448": "spic", "1449": "grap", "1450": "d\u2019 i", "1451": "gram", "1452": "stra", "1453": "fioc", "1454": "vi a", "1455": "bo e", "1456": "s\u00ec i", "1457": "sfat", "1458": "scon", "1459": "fred", "1460": "ta o", "1461": "le u", "1462": "l\u2019 \u00f2", "1463": "sban", "1464": "giun", "1465": "s\u2019 e", "1466": "pa e", "1467": "ci u", "1468": "me i", "1469": "gran", "1470": "spar", "1471": "mian", "1472": "fron", "1473": "cher", "1474": "puos", "1475": "guel", "1476": "trot", "1477": "chio", "1478": "slac", "1479": "scis", "1480": "chez", "1481": "ri u", "1482": "le a", "1483": "dram", "1484": "la o", "1485": "scac", "1486": "brul", "1487": "troc", "1488": "te a", "1489": "de i", "1490": "be u", "1491": "bion", "1492": "c\u2019 e", "1493": "scet", "1494": "sciu", "1495": "s\u2019 o", "1496": "fiot", "1497": "le i", "1498": "pe i", "1499": "bren", "1500": "sfer", "1501": "na i", "1502": "guag", "1503": "lo a", "1504": "t\u2019 u", "1505": "ra e", "1506": "stec", "1507": "a am", "1508": "giuo", "1509": "ti a", "1510": "ne e", "1511": "ta u", "1512": "va e", "1513": "blan", "1514": "ster", "1515": "stes", "1516": "frat", "1517": "ze o", "1518": "scoc", "1519": "v\u2019 o", "1520": "ve i", "1521": "ma e", "1522": "bris", "1523": "grot", "1524": "do o", "1525": "l\u2019 o", "1526": "cras", "1527": "li u", "1528": "ghio", "1529": "cheg", "1530": "se a", "1531": "trac", "1532": "gnaz", "1533": "tra u", "1534": "mi ap", "1535": "spiac", "1536": "gne u", "1537": "t\u2019 in", "1538": "li on", "1539": "fu in", "1540": "s\u2019 at", "1541": "d\u2019 at", "1542": "d\u2019 of", "1543": "ra im", "1544": "na in", "1545": "m\u2019 al", "1546": "d\u2019 ol", "1547": "d\u2019 oc", "1548": "sta i", "1549": "ne em", "1550": "te im", "1551": "do ap", "1552": "vo an", "1553": "te on", "1554": "sa ap", "1555": "ro av", "1556": "to al", "1557": "te of", "1558": "ra am", "1559": "re es", "1560": "le oc", "1561": "l\u2019 on", "1562": "l\u2019 in", "1563": "no at", "1564": "v\u2019 ar", "1565": "s\u2019 el", "1566": "tro u", "1567": "t\u2019 af", "1568": "do ar", "1569": "d\u2019 es", "1570": "se an", "1571": "do al", "1572": "te in", "1573": "se es", "1574": "s\u2019 an", "1575": "re af", "1576": "re au", "1577": "do ol", "1578": "te as", "1579": "l\u2019 ar", "1580": "l\u2019 \u00e0n", "1581": "mo ac", "1582": "te ag", "1583": "ro au", "1584": "na ar", "1585": "to on", "1586": "do or", "1587": "ve at", "1588": "ha \u2019n", "1589": "ra av", "1590": "mo al", "1591": "le \u2019n", "1592": "re as", "1593": "v\u2019 eb", "1594": "t\u2019 es", "1595": "zo in", "1596": "zi at", "1597": "scias", "1598": "to in", "1599": "ne as", "1600": "d\u2019 eu", "1601": "n\u2019 ag", "1602": "ma ap", "1603": "tro o", "1604": "ni in", "1605": "ve an", "1606": "suo a", "1607": "te or", "1608": "re eb", "1609": "lo in", "1610": "d\u2019 el", "1611": "ra eb", "1612": "cro a", "1613": "re ad", "1614": "ge un", "1615": "to at", "1616": "ro ar", "1617": "ta as", "1618": "lo \u2019n", "1619": "sa on", "1620": "ti av", "1621": "ca on", "1622": "m\u2019 at", "1623": "la in", "1624": "scher", "1625": "lo an", "1626": "tra e", "1627": "d\u2019 ac", "1628": "ro at", "1629": "no al", "1630": "so ap", "1631": "re on", "1632": "chi u", "1633": "se ac", "1634": "l\u2019 an", "1635": "li ul", "1636": "to eb", "1637": "ci an", "1638": "l\u2019 as", "1639": "sa og", "1640": "re an", "1641": "ste a", "1642": "ti ad", "1643": "va eb", "1644": "s\u00ec in", "1645": "t\u2019 ab", "1646": "io al", "1647": "ro um", "1648": "ca in", "1649": "be ar", "1650": "n\u2019 av", "1651": "d\u2019 os", "1652": "sti a", "1653": "no am", "1654": "me ar", "1655": "li oc", "1656": "ra an", "1657": "no ap", "1658": "d\u2019 om", "1659": "la en", "1660": "ti ar", "1661": "d\u2019 eb", "1662": "na av", "1663": "sta a", "1664": "li ad", "1665": "na ap", "1666": "va id", "1667": "di on", "1668": "te is", "1669": "no ac", "1670": "l\u2019 uo", "1671": "di an", "1672": "to im", "1673": "le ar", "1674": "la au", "1675": "s\u2019 ap", "1676": "to ec", "1677": "de er", "1678": "tr\u2019 a", "1679": "mo im", "1680": "ne ag", "1681": "mo at", "1682": "be as", "1683": "ci ad", "1684": "cia e", "1685": "st\u2019 a", "1686": "te ab", "1687": "to of", "1688": "ne ap", "1689": "ro as", "1690": "l\u2019 el", "1691": "glien", "1692": "pre a", "1693": "so in", "1694": "ze et", "1695": "cio a", "1696": "se on", "1697": "tri o", "1698": "re av", "1699": "d\u2019 im", "1700": "no or", "1701": "si ol", "1702": "mo on", "1703": "n\u2019 er", "1704": "chias", "1705": "sce a", "1706": "so of", "1707": "strin", "1708": "lo eb", "1709": "le at", "1710": "li av", "1711": "le ad", "1712": "dio i", "1713": "de au", "1714": "sbe a", "1715": "s\u2019 af", "1716": "ci or", "1717": "po on", "1718": "stren", "1719": "mo an", "1720": "si or", "1721": "do am", "1722": "stran", "1723": "stric", "1724": "ro am", "1725": "ni ap", "1726": "pie e", "1727": "bra a", "1728": "lo at", "1729": "ci av", "1730": "ia al", "1731": "splen", "1732": "re at", "1733": "le \u2019m", "1734": "ci af", "1735": "re ag", "1736": "do af", "1737": "tri e", "1738": "ta es", "1739": "l\u2019 ad", "1740": "mi ad", "1741": "de ag", "1742": "gi an", "1743": "gni e", "1744": "za er", "1745": "m\u2019 om", "1746": "se op", "1747": "t\u2019 em", "1748": "di av", "1749": "v\u2019 ab", "1750": "ch\u2019 e", "1751": "ta in", "1752": "ti \u2019n", "1753": "ro im", "1754": "m\u2019 im", "1755": "n\u2019 ab", "1756": "mo of", "1757": "so eb", "1758": "lo on", "1759": "li am", "1760": "gi ar", "1761": "ch\u2019 \u00ef", "1762": "di ab", "1763": "do on", "1764": "ci ar", "1765": "di af", "1766": "mi er", "1767": "mio a", "1768": "te ad", "1769": "le uc", "1770": "co ap", "1771": "re en", "1772": "ti or", "1773": "za al", "1774": "so ab", "1775": "ch\u2019 o", "1776": "ro ap", "1777": "lo of", "1778": "v\u2019 es", "1779": "l\u2019 ap", "1780": "ri an", "1781": "na es", "1782": "d\u2019 on", "1783": "za on", "1784": "si in", "1785": "vi en", "1786": "mi al", "1787": "dea u", "1788": "li au", "1789": "v\u2019 in", "1790": "ga as", "1791": "ve ap", "1792": "si of", "1793": "d\u2019 og", "1794": "l\u2019 av", "1795": "ra uc", "1796": "d\u2019 er", "1797": "li ag", "1798": "m\u2019 of", "1799": "c\u2019 en", "1800": "ghien", "1801": "no \u2019n", "1802": "ro of", "1803": "ci in", "1804": "do es", "1805": "n\u2019 at", "1806": "fe et", "1807": "re ot", "1808": "na on", "1809": "zio e", "1810": "sta o", "1811": "to ap", "1812": "pr\u2019 e", "1813": "ce eu", "1814": "ri on", "1815": "m\u2019 ar", "1816": "gliuo", "1817": "strac", "1818": "li eb", "1819": "lo \u2019m", "1820": "li an", "1821": "za im", "1822": "no om", "1823": "re ar", "1824": "s\u00ec \u2019n", "1825": "le of", "1826": "ghiac", "1827": "ti en", "1828": "che e", "1829": "spran", "1830": "m\u2019 ad", "1831": "le ap", "1832": "mo af", "1833": "na af", "1834": "le av", "1835": "li or", "1836": "que o", "1837": "re ac", "1838": "ti \u2019m", "1839": "po an", "1840": "m\u2019 in", "1841": "li er", "1842": "ca er", "1843": "ri ar", "1844": "zo as", "1845": "scial", "1846": "ti of", "1847": "ge an", "1848": "lo es", "1849": "tr\u2019 e", "1850": "l\u2019 ov", "1851": "la av", "1852": "za am", "1853": "re al", "1854": "me at", "1855": "le in", "1856": "ro ac", "1857": "va al", "1858": "vi ar", "1859": "te ar", "1860": "se as", "1861": "strat", "1862": "fu im", "1863": "si ac", "1864": "ge et", "1865": "re ol", "1866": "no et", "1867": "t\u2019 or", "1868": "ri al", "1869": "se ap", "1870": "v\u2019 er", "1871": "l\u2019 af", "1872": "to ac", "1873": "ra ec", "1874": "do in", "1875": "si ar", "1876": "ce av", "1877": "te en", "1878": "s\u2019 of", "1879": "di az", "1880": "chi a", "1881": "sta e", "1882": "mo ol", "1883": "ri ap", "1884": "d\u2019 et", "1885": "sciut", "1886": "ve ar", "1887": "ta op", "1888": "me in", "1889": "ce et", "1890": "to oc", "1891": "se in", "1892": "te al", "1893": "go in", "1894": "se af", "1895": "sco o", "1896": "de in", "1897": "ma al", "1898": "ti am", "1899": "ti at", "1900": "se al", "1901": "me ac", "1902": "lo im", "1903": "schic", "1904": "tri a", "1905": "la \u2019m", "1906": "m\u2019 af", "1907": "ch\u2019 u", "1908": "s\u2019 as", "1909": "ma ac", "1910": "ma on", "1911": "cea u", "1912": "sa in", "1913": "pi ap", "1914": "ne ar", "1915": "n\u2019 ar", "1916": "to et", "1917": "co al", "1918": "do at", "1919": "te ac", "1920": "mo eb", "1921": "ce au", "1922": "s\u2019 em", "1923": "mo ar", "1924": "d\u2019 en", "1925": "l\u2019 er", "1926": "vi ac", "1927": "ze es", "1928": "t\u2019 ag", "1929": "sa im", "1930": "va im", "1931": "di es", "1932": "la el", "1933": "bra u", "1934": "le es", "1935": "so en", "1936": "si an", "1937": "ro on", "1938": "sgrie", "1939": "di og", "1940": "z\u2019 al", "1941": "po al", "1942": "m\u2019 ap", "1943": "si am", "1944": "ti ac", "1945": "l\u2019 ec", "1946": "te ap", "1947": "te ol", "1948": "m\u2019 ab", "1949": "schie", "1950": "ra el", "1951": "de as", "1952": "t\u2019 ap", "1953": "m\u2019 eb", "1954": "li \u2019m", "1955": "li em", "1956": "l\u2019 ot", "1957": "sto e", "1958": "za in", "1959": "na ab", "1960": "chiap", "1961": "gne o", "1962": "co ar", "1963": "re in", "1964": "l\u2019 op", "1965": "scrit", "1966": "ra of", "1967": "ci al", "1968": "v\u2019 el", "1969": "ce at", "1970": "s\u2019 eb", "1971": "di ac", "1972": "st\u2019 o", "1973": "sa ac", "1974": "l\u2019 of", "1975": "ne \u2019n", "1976": "ni on", "1977": "l\u2019 au", "1978": "ci \u2019n", "1979": "hi om", "1980": "po av", "1981": "l\u2019 or", "1982": "lo ar", "1983": "ra ap", "1984": "to ov", "1985": "ve al", "1986": "si at", "1987": "li as", "1988": "mi ac", "1989": "to af", "1990": "n\u2019 an", "1991": "bre a", "1992": "na ac", "1993": "l\u2019 al", "1994": "gno u", "1995": "la ol", "1996": "le as", "1997": "di ol", "1998": "\u2019v\u2019 e", "1999": "t\u2019 av", "2000": "t\u2019 am", "2001": "l\u2019 ai", "2002": "li ap", "2003": "s\u2019 im", "2004": "no af", "2005": "ta ab", "2006": "gno a", "2007": "stroz", "2008": "strel", "2009": "n\u2019 uo", "2010": "no av", "2011": "te an", "2012": "mi an", "2013": "chi e", "2014": "si ad", "2015": "chiar", "2016": "gia e", "2017": "to uc", "2018": "vi al", "2019": "ci at", "2020": "ce ac", "2021": "s\u2019 er", "2022": "to av", "2023": "so am", "2024": "co et", "2025": "lo av", "2026": "bo on", "2027": "d\u2019 ap", "2028": "ra al", "2029": "ta im", "2030": "d\u2019 in", "2031": "n\u2019 ap", "2032": "zia e", "2033": "do as", "2034": "ne av", "2035": "no in", "2036": "sciom", "2037": "r\u2019 es", "2038": "s\u2019 et", "2039": "ma of", "2040": "ghiot", "2041": "t\u2019 as", "2042": "ni an", "2043": "sgiun", "2044": "me al", "2045": "te os", "2046": "ra on", "2047": "do er", "2048": "m\u2019 es", "2049": "na \u2019n", "2050": "t\u2019 ac", "2051": "vo ac", "2052": "zio u", "2053": "sco u", "2054": "v\u2019 am", "2055": "le or", "2056": "s\u2019 in", "2057": "li al", "2058": "de ar", "2059": "chiet", "2060": "so \u2019n", "2061": "l\u2019 ul", "2062": "za \u2019n", "2063": "ta on", "2064": "ne in", "2065": "vi an", "2066": "te em", "2067": "do oc", "2068": "te om", "2069": "ni en", "2070": "bo av", "2071": "to an", "2072": "ta at", "2073": "co ad", "2074": "strug", "2075": "tra i", "2076": "ve es", "2077": "lo il", "2078": "si \u2019n", "2079": "li im", "2080": "n\u2019 am", "2081": "d\u2019 am", "2082": "v\u2019 ac", "2083": "l\u2019 et", "2084": "strar", "2085": "do eb", "2086": "re ap", "2087": "n\u2019 on", "2088": "d\u2019 ur", "2089": "schio", "2090": "qu\u2019 o", "2091": "te af", "2092": "bo al", "2093": "ni am", "2094": "sguar", "2095": "co in", "2096": "ri ac", "2097": "l\u2019 en", "2098": "s\u2019 ar", "2099": "t\u2019 an", "2100": "s\u2019 os", "2101": "zi \u2019m", "2102": "schem", "2103": "gliel", "2104": "ti oc", "2105": "so at", "2106": "ce as", "2107": "co eb", "2108": "zia o", "2109": "se \u2019n", "2110": "schiu", "2111": "ro in", "2112": "ghian", "2113": "no au", "2114": "ni es", "2115": "stram", "2116": "to ad", "2117": "to es", "2118": "scrip", "2119": "de af", "2120": "scheg", "2121": "pi in", "2122": "l\u2019 om", "2123": "te \u2019n", "2124": "la es", "2125": "ne al", "2126": "t\u00e0 in", "2127": "la or", "2128": "ro or", "2129": "l\u2019 ac", "2130": "z\u2019 ar", "2131": "re im", "2132": "sto a", "2133": "pre e", "2134": "de of", "2135": "t\u2019 ar", "2136": "to or", "2137": "s\u2019 op", "2138": "di al", "2139": "de or", "2140": "gliet", "2141": "de on", "2142": "tra a", "2143": "schia", "2144": "na of", "2145": "m\u2019 an", "2146": "l\u2019 ae", "2147": "n\u2019 in", "2148": "si og", "2149": "l\u2019 es", "2150": "scioc", "2151": "li un", "2152": "to ol", "2153": "so es", "2154": "ci as", "2155": "va at", "2156": "d\u2019 an", "2157": "de am", "2158": "pi or", "2159": "l\u2019 at", "2160": "so as", "2161": "v\u2019 an", "2162": "pa es", "2163": "t\u2019 al", "2164": "va ar", "2165": "ba un", "2166": "za an", "2167": "si el", "2168": "no er", "2169": "n\u2019 al", "2170": "ne ac", "2171": "s\u00ec \u2019m", "2172": "dre e", "2173": "ze or", "2174": "qua e", "2175": "so et", "2176": "to as", "2177": "vi in", "2178": "si en", "2179": "l\u2019 os", "2180": "mo ec", "2181": "scian", "2182": "ra et", "2183": "va an", "2184": "to ag", "2185": "ri in", "2186": "le al", "2187": "co er", "2188": "cio e", "2189": "ne im", "2190": "si \u2019m", "2191": "mo es", "2192": "ch\u2019 i", "2193": "n\u2019 om", "2194": "m\u2019 av", "2195": "d\u2019 af", "2196": "si er", "2197": "no im", "2198": "schet", "2199": "po ar", "2200": "mo or", "2201": "cia o", "2202": "re oc", "2203": "z\u2019 es", "2204": "s\u2019 al", "2205": "l\u2019 eb", "2206": "lo af", "2207": "so al", "2208": "gne a", "2209": "s\u2019 en", "2210": "ta un", "2211": "l\u2019 ag", "2212": "streg", "2213": "d\u2019 ar", "2214": "glies", "2215": "t\u2019 im", "2216": "tu ha", "2217": "ne ov", "2218": "ci am", "2219": "ce im", "2220": "ca en", "2221": "sfran", "2222": "sto o", "2223": "ne et", "2224": "ra ot", "2225": "ste i", "2226": "go al", "2227": "ne an", "2228": "di of", "2229": "re et", "2230": "zo an", "2231": "spraz", "2232": "so ad", "2233": "che a", "2234": "di ad", "2235": "ra ac", "2236": "ne es", "2237": "gliam", "2238": "ne af", "2239": "ce af", "2240": "li of", "2241": "re ab", "2242": "r\u2019 al", "2243": "no ec", "2244": "ta ad", "2245": "r\u2019 an", "2246": "re il", "2247": "si im", "2248": "la al", "2249": "li om", "2250": "se at", "2251": "d\u2019 al", "2252": "so ar", "2253": "li af", "2254": "co on", "2255": "di in", "2256": "li at", "2257": "ce es", "2258": "te au", "2259": "ro oc", "2260": "s\u2019 es", "2261": "to ab", "2262": "sci\u00e0n", "2263": "so on", "2264": "ma \u2019n", "2265": "v\u2019 et", "2266": "ge in", "2267": "si al", "2268": "de \u2019n", "2269": "strut", "2270": "n\u2019 ac", "2271": "t\u2019 om", "2272": "be on", "2273": "gliar", "2274": "me ef", "2275": "v\u2019 of", "2276": "st\u2019 u", "2277": "to ef", "2278": "li es", "2279": "scris", "2280": "d\u2019 or", "2281": "me ap", "2282": "zi ag", "2283": "ti et", "2284": "mi am", "2285": "zio a", "2286": "no es", "2287": "do im", "2288": "l\u2019 un", "2289": "ra ad", "2290": "to ar", "2291": "me am", "2292": "ta am", "2293": "ra es", "2294": "fu el", "2295": "ne \u2019m", "2296": "di im", "2297": "d\u2019 az", "2298": "no as", "2299": "le an", "2300": "re am", "2301": "sciol", "2302": "ta et", "2303": "spres", "2304": "l\u2019 em", "2305": "lo er", "2306": "le am", "2307": "ro al", "2308": "ce al", "2309": "squar", "2310": "te es", "2311": "zi al", "2312": "d\u2019 ot", "2313": "ve oc", "2314": "tro i", "2315": "zie o", "2316": "ma es", "2317": "vo au", "2318": "ga in", "2319": "l\u2019 ef", "2320": "co av", "2321": "te at", "2322": "ta ac", "2323": "vi \u2019m", "2324": "ma an", "2325": "lo al", "2326": "co at", "2327": "ca an", "2328": "li uo", "2329": "do ac", "2330": "sciam", "2331": "po in", "2332": "t\u2019 at", "2333": "l\u2019 uc", "2334": "cia a", "2335": "ta an", "2336": "sciau", "2337": "ti as", "2338": "s\u2019 am", "2339": "stras", "2340": "rio a", "2341": "ch\u2019 a", "2342": "de eu", "2343": "sa an", "2344": "no ad", "2345": "me an", "2346": "li ab", "2347": "ti im", "2348": "strom", "2349": "li in", "2350": "vo at", "2351": "co an", "2352": "mi \u2019n", "2353": "v\u2019 al", "2354": "lo ac", "2355": "scran", "2356": "le ol", "2357": "s\u2019 av", "2358": "d\u2019 ab", "2359": "fo et", "2360": "tro e", "2361": "ma in", "2362": "ti in", "2363": "la of", "2364": "lia a", "2365": "le on", "2366": "ro ab", "2367": "ra as", "2368": "ce on", "2369": "ta eu", "2370": "sti o", "2371": "v\u2019 ap", "2372": "re om", "2373": "ne on", "2374": "l\u2019 oc", "2375": "la \u2019n", "2376": "ma or", "2377": "pa in", "2378": "no ab", "2379": "n\u2019 au", "2380": "stret", "2381": "fa az", "2382": "gia o", "2383": "bi al", "2384": "m\u2019 ag", "2385": "do el", "2386": "l\u2019 ab", "2387": "na eb", "2388": "li \u2019n", "2389": "si av", "2390": "ni av", "2391": "vi av", "2392": "s\u2019 ac", "2393": "de al", "2394": "l\u2019 am", "2395": "zo ar", "2396": "be av", "2397": "vo as", "2398": "no ar", "2399": "ce ar", "2400": "s\u2019 ag", "2401": "pra a", "2402": "t\u2019 el", "2403": "bre o", "2404": "va in", "2405": "c\u2019 im", "2406": "li et", "2407": "me as", "2408": "l\u00ec en", "2409": "ci ap", "2410": "d\u2019 au", "2411": "no ag", "2412": "vi of", "2413": "ni al", "2414": "s\u2019 ad", "2415": "ro eb", "2416": "be al", "2417": "no an", "2418": "ti an", "2419": "li ac", "2420": "ni as", "2421": "m\u2019 as", "2422": "glian", "2423": "mi in", "2424": "se un", "2425": "va \u2019n", "2426": "di om", "2427": "l\u2019 ol", "2428": "s\u2019 ab", "2429": "n\u2019 eb", "2430": "za et", "2431": "me of", "2432": "ta el", "2433": "do an", "2434": "l\u2019 im", "2435": "ta ar", "2436": "chi o", "2437": "sciar", "2438": "l\u2019 um", "2439": "te er", "2440": "li ar", "2441": "la on", "2442": "sa ol", "2443": "che u", "2444": "gna a", "2445": "de an", "2446": "m\u2019 ac", "2447": "de om", "2448": "chian", "2449": "gli u", "2450": "ta al", "2451": "squil", "2452": "tro a", "2453": "ti al", "2454": "vi on", "2455": "la ap", "2456": "si as", "2457": "ro an", "2458": "mo in", "2459": "stroc", "2460": "go es", "2461": "chioc", "2462": "li uc", "2463": "ta of", "2464": "ro es", "2465": "sa es", "2466": "co ac", "2467": "me au", "2468": "ra in", "2469": "sta u", "2470": "so an", "2471": "ce in", "2472": "lo as", "2473": "schiet", "2474": "cio ap", "2475": "sti er", "2476": "que al", "2477": "dre al", "2478": "zie ec", "2479": "che an", "2480": "ch\u2019 eb", "2481": "gne in", "2482": "schiat", "2483": "chi al", "2484": "gne ef", "2485": "tr\u2019 am", "2486": "sti an", "2487": "sto \u2019n", "2488": "ch\u2019 al", "2489": "chi on", "2490": "gne er", "2491": "stro e", "2492": "tri as", "2493": "sti es", "2494": "ch\u2019 og", "2495": "co e i", "2496": "gia al", "2497": "che ha", "2498": "que es", "2499": "pre ac", "2500": "pre ar", "2501": "pre in", "2502": "pre es", "2503": "tri in", "2504": "sti or", "2505": "sto an", "2506": "chi am", "2507": "lia an", "2508": "gno in", "2509": "tro av", "2510": "dre eb", "2511": "sto ac", "2512": "stra a", "2513": "tro al", "2514": "tro et", "2515": "ch\u2019 ap", "2516": "zia on", "2517": "tri af", "2518": "chio u", "2519": "sco an", "2520": "stra i", "2521": "chi in", "2522": "tri of", "2523": "mio in", "2524": "sto on", "2525": "cia ar", "2526": "sta an", "2527": "tro \u2019m", "2528": "st\u2019 ac", "2529": "ria on", "2530": "pi\u00f9 \u2019n", "2531": "ste in", "2532": "gio in", "2533": "gio uc", "2534": "che om", "2535": "qua of", "2536": "st\u2019 es", "2537": "tro on", "2538": "gno ae", "2539": "ch\u2019 ag", "2540": "st\u2019 in", "2541": "cia on", "2542": "cia im", "2543": "cie in", "2544": "t\u2019 han", "2545": "sto ap", "2546": "lio an", "2547": "stro o", "2548": "lio in", "2549": "ch\u2019 ad", "2550": "tri es", "2551": "ch\u2019 el", "2552": "sco al", "2553": "stra u", "2554": "bri ap", "2555": "ch\u2019 ac", "2556": "gue or", "2557": "str\u2019 u", "2558": "gue an", "2559": "ria in", "2560": "pi\u00f9 in", "2561": "ch\u2019 en", "2562": "vea \u2019m", "2563": "sta og", "2564": "ch\u2019 ar", "2565": "dre an", "2566": "sto ar", "2567": "chi an", "2568": "sto \u2019m", "2569": "go han", "2570": "sto im", "2571": "lio as", "2572": "gna in", "2573": "tr\u2019 al", "2574": "pio on", "2575": "dia as", "2576": "sto of", "2577": "scia e", "2578": "te han", "2579": "sto in", "2580": "zia or", "2581": "ch\u2019 es", "2582": "tro in", "2583": "gno af", "2584": "ch\u2019 am", "2585": "sto es", "2586": "sti on", "2587": "gia in", "2588": "cio as", "2589": "ti han", "2590": "pre al", "2591": "stri o", "2592": "sta in", "2593": "tro ac", "2594": "tre in", "2595": "ste an", "2596": "ch\u2019 av", "2597": "qua im", "2598": "sto al", "2599": "tro as", "2600": "st\u2019 of", "2601": "sti un", "2602": "ri han", "2603": "tra ef", "2604": "chio a", "2605": "ch\u2019 er", "2606": "che \u2019n", "2607": "gno al", "2608": "tro ar", "2609": "qua on", "2610": "gne ac", "2611": "dre es", "2612": "ch\u2019 as", "2613": "tr\u2019 om", "2614": "stri a", "2615": "ch\u2019 or", "2616": "ch\u2019 at", "2617": "chi ar", "2618": "mia \u2019n", "2619": "glio u", "2620": "tro of", "2621": "gne uo", "2622": "sti el", "2623": "sma in", "2624": "tra an", "2625": "chi ap", "2626": "sti av", "2627": "sce an", "2628": "gh\u2019 es", "2629": "chio o", "2630": "sta im", "2631": "sce el", "2632": "st\u2019 ar", "2633": "tra av", "2634": "ch\u2019 in", "2635": "che in", "2636": "glio o", "2637": "c\u2019 han", "2638": "pie or", "2639": "chi ac", "2640": "mio \u2019n", "2641": "sta ol", "2642": "sce as", "2643": "n\u2019 han", "2644": "bia an", "2645": "nio im", "2646": "pre at", "2647": "glia a", "2648": "glia o", "2649": "vio in", "2650": "st\u2019 al", "2651": "sta al", "2652": "bre an", "2653": "gne al", "2654": "m\u2019 han", "2655": "st\u2019 an", "2656": "dre as", "2657": "cio al", "2658": "gno am", "2659": "stro u", "2660": "st\u2019 ot", "2661": "tri ap", "2662": "bia in", "2663": "sto at", "2664": "stra e", "2665": "glia u", "2666": "schian", "2667": "st\u2019 ul", "2668": "ch\u2019 an", "2669": "l\u2019 han", "2670": "tro ab", "2671": "sti al", "2672": "tre an", "2673": "glio e", "2674": "ghe on", "2675": "bra in", "2676": "cio et", "2677": "gni an", "2678": "gia ar", "2679": "tra op", "2680": "gue on", "2681": "gio on", "2682": "li han", "2683": "ria of", "2684": "ch\u2019 et", "2685": "bre et", "2686": "sce al", "2687": "gne im", "2688": "tro ap", "2689": "sti oc", "2690": "qua in", "2691": "rio an", "2692": "zia il", "2693": "che ar", "2694": "d\u2019 han", "2695": "pr\u2019 ar", "2696": "che \u2019m", "2697": "tr\u2019 ar", "2698": "stro a", "2699": "ne han", "2700": "sti in", "2701": "bre in", "2702": "ch\u2019 ab", "2703": "tro an", "2704": "tre os", "2705": "stra in", "2706": "glia as", "2707": "dio han", "2708": "n\u2019 \u00e8 im", "2709": "chio an", "2710": "glie eb", "2711": "chia an", "2712": "glia al", "2713": "stro in", "2714": "stre in", "2715": "glio an", "2716": "stri av", "2717": "stro eb", "2718": "stro al", "2719": "stro ac", "2720": "stri an", "2721": "stro av", "2722": "glio on", "2723": "str\u2019 ar", "2724": "glio in", "2725": "glio as", "2726": "li \u00e8 in", "2727": "stri al", "2728": "sche ab", "2729": "si e \u2019n", "2730": "stro an", "2731": "stri ef", "2732": "lo e \u2019n", "2733": "chio at", "2734": "glio es", "2735": "chie et", "2736": "stra ap", "2737": "glie al", "2738": "stro as", "2739": "re a \u2019n", "2740": "chia of", "2741": "chio in", "2742": "ti e \u2019n", "2743": "stro im", "2744": "glie an", "2745": "glia es", "2746": "stri af", "2747": "sche er", "2748": "glia ac", "2749": "stro oc", "2750": "d\u2019 i\u2019 a", "2751": "scia an", "2752": "stra ef", "2753": "stro es", "2754": "trio al", "2755": "str\u2019 or", "2756": "glia in", "2757": "sti a \u2019n", "2758": "t\u2019 ho in", "2759": "ch\u2019 e\u2019 \u2019n", "2760": "ch\u2019 io \u2019n", "2761": "\u00f2 ", "2762": "\u00ef ", "2763": "a ", "2764": "i ", "2765": "e ", "2766": "o ", "2767": "s ", "2768": "\u00f9 ", "2769": "\u00e8 ", "2770": "ab ", "2771": "an ", "2772": "as ", "2773": "ca ", "2774": "ha ", "2775": "on ", "2776": "s\u00e8 ", "2777": "ne ", "2778": "os ", "2779": "tu ", "2780": "mi ", "2781": "od ", "2782": "or ", "2783": "n\u00e8 ", "2784": "no ", "2785": "fu ", "2786": "b\u00f9 ", "2787": "ar ", "2788": "\u00f2s ", "2789": "s\u00f9 ", "2790": "ai ", "2791": "gi ", "2792": "g\u00f2 ", "2793": "n\u00e0 ", "2794": "t\u00e8 ", "2795": "s\u00e9 ", "2796": "ba ", "2797": "za ", "2798": "p\u00e8 ", "2799": "va ", "2800": "go ", "2801": "fa ", "2802": "e\u2019 ", "2803": "me ", "2804": "ni ", "2805": "g\u00ec ", "2806": "ad ", "2807": "pi ", "2808": "ia ", "2809": "ho ", "2810": "v\u00ec ", "2811": "\u00e0m ", "2812": "l\u00f2 ", "2813": "bo ", "2814": "\u00f9l ", "2815": "su ", "2816": "be ", "2817": "\u00f3n ", "2818": "z\u00f2 ", "2819": "t\u00e9 ", "2820": "s\u00f2 ", "2821": "se ", "2822": "\u00e9n ", "2823": "d\u00f2 ", "2824": "b\u00f2 ", "2825": "ze ", "2826": "et ", "2827": "n\u00e9 ", "2828": "b\u00e8 ", "2829": "un ", "2830": "vi ", "2831": "mo ", "2832": "zo ", "2833": "fi ", "2834": "fo ", "2835": "d\u00ec ", "2836": "t\u00f2 ", "2837": "oh ", "2838": "pe ", "2839": "m\u00f2 ", "2840": "c\u00f2 ", "2841": "t\u00ec ", "2842": "ed ", "2843": "ro ", "2844": "r\u00ec ", "2845": "al ", "2846": "so ", "2847": "ma ", "2848": "\u00e8l ", "2849": "s\u00ec ", "2850": "\u00e0r ", "2851": "to ", "2852": "il ", "2853": "t\u00e0 ", "2854": "ie ", "2855": "ti ", "2856": "m\u00e8 ", "2857": "a\u2019 ", "2858": "i\u2019 ", "2859": "po ", "2860": "pa ", "2861": "ci ", "2862": "li ", "2863": "re ", "2864": "de ", "2865": "u\u2019 ", "2866": "us ", "2867": "na ", "2868": "co ", "2869": "r\u00e0 ", "2870": "v\u00f2 ", "2871": "n\u00ec ", "2872": "ir ", "2873": "ei ", "2874": "d\u00e0 ", "2875": "te ", "2876": "ae ", "2877": "ve ", "2878": "ra ", "2879": "om ", "2880": "ge ", "2881": "ga ", "2882": "lo ", "2883": "io ", "2884": "sa ", "2885": "f\u00e9 ", "2886": "da ", "2887": "f\u00f2 ", "2888": "p\u00f2 ", "2889": "la ", "2890": "c\u00e9 ", "2891": "\u00e0s ", "2892": "bi ", "2893": "d\u00e9 ", "2894": "vo ", "2895": "si ", "2896": "l\u00e8 ", "2897": "el ", "2898": "ce ", "2899": "zi ", "2900": "di ", "2901": "n\u00f2 ", "2902": "ta ", "2903": "l\u00ec ", "2904": "ut ", "2905": "in ", "2906": "l\u00e0 ", "2907": "t\u00f9 ", "2908": "do ", "2909": "ri ", "2910": "f\u00e0 ", "2911": "r\u00f2 ", "2912": "le ", "2913": "fe ", "2914": "a a ", "2915": "cri ", "2916": "pia ", "2917": "del ", "2918": "r\u00ecb ", "2919": "lei ", "2920": "der ", "2921": "spe ", "2922": "tr\u00f2 ", "2923": "mun ", "2924": "gno ", "2925": "ger ", "2926": "len ", "2927": "tua ", "2928": "mul ", "2929": "can ", "2930": "lee ", "2931": "o e ", "2932": "cu\u2019 ", "2933": "cea ", "2934": "gra ", "2935": "cel ", "2936": "\u2018te ", "2937": "dir ", "2938": "bol ", "2939": "pir ", "2940": "pi\u00e8 ", "2941": "cio ", "2942": "f\u00f3n ", "2943": "vai ", "2944": "pal ", "2945": "st\u00ec ", "2946": "ral ", "2947": "rer ", "2948": "nie ", "2949": "dai ", "2950": "lu\u2019 ", "2951": "su\u2019 ", "2952": "ion ", "2953": "tai ", "2954": "sci ", "2955": "g\u00f3n ", "2956": "ch\u00e9 ", "2957": "bir ", "2958": "cen ", "2959": "che ", "2960": "men ", "2961": "sai ", "2962": "tr\u00e0 ", "2963": "pio ", "2964": "ner ", "2965": "han ", "2966": "ga\u2019 ", "2967": "sui ", "2968": "ghe ", "2969": "f\u00e8l ", "2970": "r\u00f2l ", "2971": "ian ", "2972": "tin ", "2973": "sto ", "2974": "rea ", "2975": "dr\u00f2 ", "2976": "fu\u2019 ", "2977": "fil ", "2978": "smi ", "2979": "nel ", "2980": "cle ", "2981": "du\u2019 ", "2982": "bia ", "2983": "cer ", "2984": "mor ", "2985": "gio ", "2986": "lir ", "2987": "feo ", "2988": "na\u2019 ", "2989": "pel ", "2990": "f\u00e0s ", "2991": "bar ", "2992": "n\u00ect ", "2993": "sca ", "2994": "vol ", "2995": "bio ", "2996": "pu\u00f2 ", "2997": "ean ", "2998": "gor ", "2999": "ror ", "3000": "rei ", "3001": "sir ", "3002": "mai ", "3003": "von ", "3004": "zai ", "3005": "dre ", "3006": "mil ", "3007": "teo ", "3008": "cal ", "3009": "cun ", "3010": "sen ", "3011": "voi ", "3012": "dor ", "3013": "mon ", "3014": "don ", "3015": "cie ", "3016": "sco ", "3017": "tio ", "3018": "co\u2019 ", "3019": "ben ", "3020": "ria ", "3021": "ron ", "3022": "gel ", "3023": "nol ", "3024": "gro ", "3025": "vo\u2019 ", "3026": "bil ", "3027": "gai ", "3028": "gi\u2019 ", "3029": "dr\u00e0 ", "3030": "sor ", "3031": "pi\u00f9 ", "3032": "neo ", "3033": "b\u00eca ", "3034": "col ", "3035": "pem ", "3036": "ta\u2019 ", "3037": "qui ", "3038": "din ", "3039": "ra\u2019 ", "3040": "gli ", "3041": "gne ", "3042": "suo ", "3043": "pi\u00e9 ", "3044": "pea ", "3045": "tes ", "3046": "clo ", "3047": "non ", "3048": "sti ", "3049": "vel ", "3050": "sem ", "3051": "sub ", "3052": "poi ", "3053": "lin ", "3054": "pol ", "3055": "a e ", "3056": "van ", "3057": "d\u00eca ", "3058": "t\u00e9r ", "3059": "ve\u2019 ", "3060": "sei ", "3061": "pra ", "3062": "gin ", "3063": "tuo ", "3064": "lar ", "3065": "nan ", "3066": "sue ", "3067": "e i ", "3068": "no\u2019 ", "3069": "sce ", "3070": "cia ", "3071": "s\u00f3n ", "3072": "fon ", "3073": "mae ", "3074": "lon ", "3075": "nem ", "3076": "ter ", "3077": "man ", "3078": "bri ", "3079": "pr\u00ec ", "3080": "l\u00eco ", "3081": "pr\u00e0 ", "3082": "cra ", "3083": "gol ", "3084": "te\u2019 ", "3085": "ti\u2019 ", "3086": "dem ", "3087": "tue ", "3088": "tro ", "3089": "bra ", "3090": "meo ", "3091": "vam ", "3092": "cem ", "3093": "vio ", "3094": "qua ", "3095": "zio ", "3096": "pin ", "3097": "me\u2019 ", "3098": "far ", "3099": "dar ", "3100": "sia ", "3101": "cei ", "3102": "lai ", "3103": "nal ", "3104": "sun ", "3105": "dil ", "3106": "r\u00ecs ", "3107": "gua ", "3108": "ten ", "3109": "due ", "3110": "dan ", "3111": "pan ", "3112": "fra ", "3113": "zan ", "3114": "nea ", "3115": "var ", "3116": "dro ", "3117": "tal ", "3118": "m\u00ecs ", "3119": "sta ", "3120": "dea ", "3121": "ton ", "3122": "fui ", "3123": "rao ", "3124": "die ", "3125": "vra ", "3126": "tri ", "3127": "de\u2019 ", "3128": "ber ", "3129": "tar ", "3130": "tem ", "3131": "peo ", "3132": "duo ", "3133": "pon ", "3134": "pre ", "3135": "tel ", "3136": "vea ", "3137": "gei ", "3138": "mal ", "3139": "gi\u00f9 ", "3140": "n\u00eca ", "3141": "lan ", "3142": "bor ", "3143": "ren ", "3144": "noi ", "3145": "san ", "3146": "sio ", "3147": "des ", "3148": "sii ", "3149": "sc\u00ec ", "3150": "cor ", "3151": "zia ", "3152": "vie ", "3153": "unt ", "3154": "fia ", "3155": "nia ", "3156": "gna ", "3157": "bus ", "3158": "ste ", "3159": "gis ", "3160": "vas ", "3161": "sis ", "3162": "nio ", "3163": "sin ", "3164": "gn\u00ec ", "3165": "sua ", "3166": "nha ", "3167": "cin ", "3168": "rio ", "3169": "cre ", "3170": "ne\u2019 ", "3171": "son ", "3172": "zon ", "3173": "r\u00f3n ", "3174": "tei ", "3175": "dri ", "3176": "pie ", "3177": "e \u2019 ", "3178": "m\u00eca ", "3179": "nis ", "3180": "rel ", "3181": "lio ", "3182": "gon ", "3183": "for ", "3184": "vem ", "3185": "cur ", "3186": "que ", "3187": "zul ", "3188": "til ", "3189": "rar ", "3190": "nil ", "3191": "mio ", "3192": "st\u00e9 ", "3193": "fi\u2019 ", "3194": "gi\u00e0 ", "3195": "val ", "3196": "ril ", "3197": "rie ", "3198": "cul ", "3199": "b\u00e0l ", "3200": "dra ", "3201": "mei ", "3202": "sma ", "3203": "uom ", "3204": "por ", "3205": "pro ", "3206": "lie ", "3207": "tol ", "3208": "tra ", "3209": "tir ", "3210": "nin ", "3211": "fai ", "3212": "zar ", "3213": "n\u00e8s ", "3214": "leo ", "3215": "gue ", "3216": "fin ", "3217": "za\u2019 ", "3218": "nei ", "3219": "ma\u2019 ", "3220": "bon ", "3221": "hai ", "3222": "fer ", "3223": "gre ", "3224": "dei ", "3225": "ghi ", "3226": "d\u00e8i ", "3227": "via ", "3228": "vau ", "3229": "gar ", "3230": "di\u00e8 ", "3231": "rem ", "3232": "t\u00e0n ", "3233": "di\u2019 ", "3234": "c\u00f2b ", "3235": "dee ", "3236": "spa ", "3237": "bei ", "3238": "deo ", "3239": "uo\u2019 ", "3240": "sa\u2019 ", "3241": "vei ", "3242": "cro ", "3243": "cis ", "3244": "lui ", "3245": "plo ", "3246": "gui ", "3247": "da\u2019 ", "3248": "tis ", "3249": "bee ", "3250": "pei ", "3251": "nir ", "3252": "gia ", "3253": "cai ", "3254": "sol ", "3255": "l\u00e8m ", "3256": "con ", "3257": "bro ", "3258": "bre ", "3259": "st\u00f9 ", "3260": "t\u00f3n ", "3261": "nai ", "3262": "l\u00f2n ", "3263": "fan ", "3264": "sar ", "3265": "g\u00f3r ", "3266": "dur ", "3267": "vin ", "3268": "lor ", "3269": "mie ", "3270": "bi\u00f2 ", "3271": "va\u2019 ", "3272": "par ", "3273": "reo ", "3274": "ieu ", "3275": "bel ", "3276": "ven ", "3277": "n\u00f2s ", "3278": "gir ", "3279": "dia ", "3280": "pri ", "3281": "fe\u2019 ", "3282": "nar ", "3283": "f\u00e0t ", "3284": "st\u00e0 ", "3285": "rir ", "3286": "ram ", "3287": "vil ", "3288": "gu\u00ec ", "3289": "tus ", "3290": "ges ", "3291": "min ", "3292": "tan ", "3293": "ver ", "3294": "o a ", "3295": "tor ", "3296": "c\u00e0n ", "3297": "mer ", "3298": "ier ", "3299": "pur ", "3300": "gni ", "3301": "tun ", "3302": "mas ", "3303": "sel ", "3304": "ci\u00f2 ", "3305": "re\u2019 ", "3306": "sul ", "3307": "zie ", "3308": "nor ", "3309": "gal ", "3310": "gea ", "3311": "tea ", "3312": "chi ", "3313": "dio ", "3314": "tre ", "3315": "lea ", "3316": "tia ", "3317": "lia ", "3318": "bue ", "3319": "rin ", "3320": "rum ", "3321": "ler ", "3322": "ran ", "3323": "ahi ", "3324": "mia ", "3325": "num ", "3326": "ser ", "3327": "st\u00f2 ", "3328": "smo ", "3329": "cui ", "3330": "fei ", "3331": "gi\u00f2 ", "3332": "dal ", "3333": "gu\u00f2 ", "3334": "gri ", "3335": "fur ", "3336": "v\u00ecd ", "3337": "per ", "3338": "ban ", "3339": "\u2019ve ", "3340": "ri\u2019 ", "3341": "cil ", "3342": "cum ", "3343": "coi ", "3344": "se\u2019 ", "3345": "rai ", "3346": "mar ", "3347": "c\u00f2l ", "3348": "gan ", "3349": "bis ", "3350": "deh ", "3351": "car ", "3352": "sal ", "3353": "sie ", "3354": "a i ", "3355": "se a ", "3356": "gior ", "3357": "prei ", "3358": "lo e ", "3359": "pron ", "3360": "la i ", "3361": "ma a ", "3362": "mo e ", "3363": "grin ", "3364": "viam ", "3365": "cian ", "3366": "duol ", "3367": "tu i ", "3368": "po i ", "3369": "l\u2019 \u00e8 ", "3370": "que\u2019 ", "3371": "so i ", "3372": "di e ", "3373": "le o ", "3374": "sier ", "3375": "go e ", "3376": "\u00e8 \u2019l ", "3377": "pia\u2019 ", "3378": "t\u2019 \u00e8 ", "3379": "me e ", "3380": "su i ", "3381": "gi a ", "3382": "ca o ", "3383": "vier ", "3384": "ch e ", "3385": "quei ", "3386": "spre ", "3387": "cl\u00e8s ", "3388": "re o ", "3389": "bian ", "3390": "go \u00e8 ", "3391": "ni e ", "3392": "za \u00e8 ", "3393": "se e ", "3394": "st\u00f2r ", "3395": "glie ", "3396": "a il ", "3397": "pi\u00e9r ", "3398": "v\u2019 \u00e8 ", "3399": "s\u00e9 i ", "3400": "ce \u00e8 ", "3401": "maio ", "3402": "ge e ", "3403": "ri e ", "3404": "l\u00ec \u00e8 ", "3405": "breo ", "3406": "pa e ", "3407": "ra i ", "3408": "se i ", "3409": "gnel ", "3410": "sa i ", "3411": "ta \u00e8 ", "3412": "d\u2019 i ", "3413": "pri\u2019 ", "3414": "re a ", "3415": "gnum ", "3416": "nian ", "3417": "di i ", "3418": "ched ", "3419": "re i ", "3420": "biar ", "3421": "mo \u00e8 ", "3422": "stei ", "3423": "ra o ", "3424": "c\u2019 \u00e8 ", "3425": "me a ", "3426": "bi e ", "3427": "bi i ", "3428": "ce e ", "3429": "da i ", "3430": "stan ", "3431": "dra\u2019 ", "3432": "pria ", "3433": "no e ", "3434": "ti a ", "3435": "nien ", "3436": "go o ", "3437": "giun ", "3438": "ne i ", "3439": "do i ", "3440": "vria ", "3441": "co o ", "3442": "mie\u2019 ", "3443": "ma i ", "3444": "dien ", "3445": "mi e ", "3446": "me \u00e8 ", "3447": "ghin ", "3448": "zi e ", "3449": "re \u00e8 ", "3450": "t\u2019 i ", "3451": "drai ", "3452": "so a ", "3453": "s\u2019 a ", "3454": "li \u00e8 ", "3455": "so \u00e8 ", "3456": "na a ", "3457": "bo e ", "3458": "e \u2019n ", "3459": "vi \u00e8 ", "3460": "gli\u00f2 ", "3461": "ci \u00e8 ", "3462": "\u00e8 il ", "3463": "o un ", "3464": "lo \u00e8 ", "3465": "do a ", "3466": "laio ", "3467": "lo a ", "3468": "si e ", "3469": "lo i ", "3470": "li o ", "3471": "ri o ", "3472": "chie ", "3473": "io e ", "3474": "gnun ", "3475": "de \u00e8 ", "3476": "ti e ", "3477": "stra ", "3478": "ge \u00e8 ", "3479": "vuo\u2019 ", "3480": "za o ", "3481": "siam ", "3482": "si a ", "3483": "vean ", "3484": "stre ", "3485": "trai ", "3486": "v\u2019 a ", "3487": "si i ", "3488": "dail ", "3489": "to i ", "3490": "ne \u00e8 ", "3491": "pian ", "3492": "ghia ", "3493": "ta o ", "3494": "le a ", "3495": "ce i ", "3496": "sti\u00f2 ", "3497": "scia ", "3498": "e \u2019l ", "3499": "tria ", "3500": "gi e ", "3501": "mi i ", "3502": "glio ", "3503": "co i ", "3504": "prio ", "3505": "stel ", "3506": "ghie ", "3507": "com\u2019 ", "3508": "stil ", "3509": "fior ", "3510": "go a ", "3511": "be i ", "3512": "cean ", "3513": "do e ", "3514": "ciam ", "3515": "ciar ", "3516": "o \u2019n ", "3517": "za i ", "3518": "ro i ", "3519": "lier ", "3520": "stie ", "3521": "te \u00e8 ", "3522": "scir ", "3523": "po a ", "3524": "co e ", "3525": "fi e ", "3526": "sa o ", "3527": "sa e ", "3528": "suo\u2019 ", "3529": "s\u2019 \u00e8 ", "3530": "ti \u00e8 ", "3531": "gian ", "3532": "d\u2019 \u00e8 ", "3533": "va a ", "3534": "miei ", "3535": "naio ", "3536": "quie ", "3537": "pien ", "3538": "be a ", "3539": "fier ", "3540": "sian ", "3541": "trui ", "3542": "vian ", "3543": "li a ", "3544": "co a ", "3545": "tien ", "3546": "puoi ", "3547": "gien ", "3548": "a \u2019l ", "3549": "te a ", "3550": "so o ", "3551": "pe e ", "3552": "nier ", "3553": "stai ", "3554": "quar ", "3555": "sa \u00e8 ", "3556": "crin ", "3557": "guan ", "3558": "ni a ", "3559": "tier ", "3560": "tiam ", "3561": "to o ", "3562": "niam ", "3563": "ri a ", "3564": "la \u00e8 ", "3565": "qual ", "3566": "bo a ", "3567": "sfar ", "3568": "ba e ", "3569": "\u00e8 \u2019n ", "3570": "ci\u00f2l ", "3571": "po \u00e8 ", "3572": "schi ", "3573": "ra a ", "3574": "stea ", "3575": "vi a ", "3576": "spir ", "3577": "trae ", "3578": "tuon ", "3579": "ze o ", "3580": "drir ", "3581": "me i ", "3582": "spri ", "3583": "gnor ", "3584": "grue ", "3585": "ve i ", "3586": "ta e ", "3587": "br\u00f2t ", "3588": "se \u00e8 ", "3589": "le e ", "3590": "sa a ", "3591": "ciai ", "3592": "ve e ", "3593": "ciel ", "3594": "to e ", "3595": "vi e ", "3596": "ca a ", "3597": "te o ", "3598": "spro ", "3599": "ra e ", "3600": "ta i ", "3601": "de e ", "3602": "gnon ", "3603": "stor ", "3604": "r\u2019 a ", "3605": "guir ", "3606": "tuoi ", "3607": "giar ", "3608": "ca \u00e8 ", "3609": "le \u00e8 ", "3610": "vien ", "3611": "ga o ", "3612": "ci o ", "3613": "scio ", "3614": "brei ", "3615": "vi o ", "3616": "to \u00e8 ", "3617": "fian ", "3618": "ro e ", "3619": "ga e ", "3620": "chin ", "3621": "tr\u00e0s ", "3622": "de o ", "3623": "trar ", "3624": "se o ", "3625": "m\u2019 \u00e8 ", "3626": "guai ", "3627": "stui ", "3628": "dean ", "3629": "gean ", "3630": "la e ", "3631": "ne e ", "3632": "suol ", "3633": "te i ", "3634": "scea ", "3635": "do \u00e8 ", "3636": "ti i ", "3637": "zo e ", "3638": "prai ", "3639": "gnia ", "3640": "za a ", "3641": "o in ", "3642": "no \u00e8 ", "3643": "lian ", "3644": "nail ", "3645": "quod ", "3646": "ze e ", "3647": "va i ", "3648": "die\u2019 ", "3649": "gnan ", "3650": "rian ", "3651": "ziar ", "3652": "suoi ", "3653": "ghi\u00f2 ", "3654": "sci\u00f2 ", "3655": "drel ", "3656": "sion ", "3657": "tean ", "3658": "ga a ", "3659": "to a ", "3660": "ma o ", "3661": "na o ", "3662": "la o ", "3663": "cuor ", "3664": "gual ", "3665": "ma \u00e8 ", "3666": "zi a ", "3667": "fe e ", "3668": "stri ", "3669": "chia ", "3670": "fien ", "3671": "gnar ", "3672": "gnus ", "3673": "stia ", "3674": "ve a ", "3675": "ne a ", "3676": "trio ", "3677": "muor ", "3678": "zion ", "3679": "scer ", "3680": "runt ", "3681": "za e ", "3682": "no a ", "3683": "mo i ", "3684": "chel ", "3685": "prir ", "3686": "ca e ", "3687": "rean ", "3688": "ci a ", "3689": "buon ", "3690": "sc\u00eco ", "3691": "po o ", "3692": "ge a ", "3693": "fren ", "3694": "prie ", "3695": "va e ", "3696": "si \u00e8 ", "3697": "gner ", "3698": "l\u00e0 i ", "3699": "suon ", "3700": "ce a ", "3701": "pe i ", "3702": "tra\u2019 ", "3703": "fiar ", "3704": "plar ", "3705": "cral ", "3706": "lien ", "3707": "vuoi ", "3708": "bion ", "3709": "bent ", "3710": "cion ", "3711": "giam ", "3712": "ciul ", "3713": "le i ", "3714": "brar ", "3715": "di a ", "3716": "fuor ", "3717": "ta a ", "3718": "ne o ", "3719": "quam ", "3720": "zo a ", "3721": "zi \u00e8 ", "3722": "gier ", "3723": "ghio ", "3724": "str\u00f2 ", "3725": "vo e ", "3726": "ro a ", "3727": "pier ", "3728": "chio ", "3729": "d\u00ec i ", "3730": "re e ", "3731": "gion ", "3732": "o il ", "3733": "pi e ", "3734": "scun ", "3735": "na \u00e8 ", "3736": "brio ", "3737": "li e ", "3738": "a al ", "3739": "te e ", "3740": "na e ", "3741": "bi a ", "3742": "mo a ", "3743": "tram ", "3744": "tran ", "3745": "scar ", "3746": "da a ", "3747": "de a ", "3748": "si o ", "3749": "stin ", "3750": "po e ", "3751": "sche ", "3752": "de i ", "3753": "va o ", "3754": "gran ", "3755": "sie\u2019 ", "3756": "sunt ", "3757": "ni o ", "3758": "ma e ", "3759": "dier ", "3760": "co \u00e8 ", "3761": "scon ", "3762": "frir ", "3763": "ci e ", "3764": "ciol ", "3765": "cria ", "3766": "quor ", "3767": "no o ", "3768": "mi a ", "3769": "diam ", "3770": "pion ", "3771": "cia\u2019 ", "3772": "ce o ", "3773": "ro \u00e8 ", "3774": "di o ", "3775": "no i ", "3776": "slao ", "3777": "i in ", "3778": "prun ", "3779": "o al ", "3780": "chi\u00f2 ", "3781": "sci\u2019 ", "3782": "do o ", "3783": "buoi ", "3784": "da e ", "3785": "la a ", "3786": "pa a ", "3787": "i il ", "3788": "fo \u00e8 ", "3789": "mian ", "3790": "vuol ", "3791": "vo a ", "3792": "sien ", "3793": "rien ", "3794": "be e ", "3795": "quel ", "3796": "dron ", "3797": "scel ", "3798": "zian ", "3799": "ver\u2019 ", "3800": "ni \u00e8 ", "3801": "ti o ", "3802": "gnin ", "3803": "guia ", "3804": "ra \u00e8 ", "3805": "pa \u00e8 ", "3806": "guon ", "3807": "plor ", "3808": "ve o ", "3809": "n\u2019 \u00e8 ", "3810": "star ", "3811": "bran ", "3812": "a in ", "3813": "stro ", "3814": "glia ", "3815": "quai ", "3816": "li i ", "3817": "so e ", "3818": "f\u00e9 i ", "3819": "nean ", "3820": "ro o ", "3821": "piar ", "3822": "bia\u2019 ", "3823": "trei ", "3824": "lo a\u2019 ", "3825": "te \u2019l ", "3826": "co ai ", "3827": "ta un ", "3828": "ro il ", "3829": "na ei ", "3830": "pa \u2019l ", "3831": "s\u2019 i\u2019 ", "3832": "ghiar ", "3833": "li un ", "3834": "zio a ", "3835": "gi \u2019l ", "3836": "che e ", "3837": "si or ", "3838": "p\u2019 io ", "3839": "mi al ", "3840": "s\u00e9 il ", "3841": "zo in ", "3842": "go al ", "3843": "lo ad ", "3844": "co io ", "3845": "vi il ", "3846": "to ed ", "3847": "gra o ", "3848": "ro i\u2019 ", "3849": "ba il ", "3850": "glier ", "3851": "gi il ", "3852": "zio \u00e8 ", "3853": "ste e ", "3854": "gi un ", "3855": "di \u2019n ", "3856": "strar ", "3857": "no un ", "3858": "sia e ", "3859": "do ha ", "3860": "ti ha ", "3861": "qui e ", "3862": "bo in ", "3863": "zi il ", "3864": "ve in ", "3865": "se a\u2019 ", "3866": "v\u2019 e\u2019 ", "3867": "bra o ", "3868": "ghi e ", "3869": "stiam ", "3870": "ca in ", "3871": "bra a ", "3872": "de un ", "3873": "sce e ", "3874": "za in ", "3875": "so ad ", "3876": "mia e ", "3877": "to i\u2019 ", "3878": "ti ed ", "3879": "sta e ", "3880": "pe \u2019l ", "3881": "d\u2019 io ", "3882": "che a ", "3883": "za il ", "3884": "se ho ", "3885": "ne ha ", "3886": "da i\u2019 ", "3887": "dre a ", "3888": "b\u00f2 il ", "3889": "pe il ", "3890": "co u\u2019 ", "3891": "ci ha ", "3892": "gliea ", "3893": "ia oh ", "3894": "ga in ", "3895": "glior ", "3896": "pa ed ", "3897": "bi il ", "3898": "v\u2019 i\u2019 ", "3899": "che i ", "3900": "sta \u00e8 ", "3901": "v\u2019 el ", "3902": "ta il ", "3903": "stion ", "3904": "li al ", "3905": "le al ", "3906": "to io ", "3907": "gia a ", "3908": "ria a ", "3909": "ti in ", "3910": "va or ", "3911": "l\u2019 ha ", "3912": "stral ", "3913": "se ir ", "3914": "rio e ", "3915": "ro od ", "3916": "lo ai ", "3917": "va ad ", "3918": "le il ", "3919": "mi un ", "3920": "ch\u2019 \u00e8 ", "3921": "n\u00e9 \u2019l ", "3922": "to al ", "3923": "di a\u2019 ", "3924": "ta ed ", "3925": "gui e ", "3926": "ra \u2019l ", "3927": "se e\u2019 ", "3928": "v\u2019 \u00e8n ", "3929": "fu \u2019l ", "3930": "zia e ", "3931": "do io ", "3932": "do \u2019l ", "3933": "gli e ", "3934": "pa or ", "3935": "za i\u2019 ", "3936": "za or ", "3937": "qua o ", "3938": "pie a ", "3939": "gli a ", "3940": "mo il ", "3941": "la \u2019l ", "3942": "ta al ", "3943": "d\u2019 un ", "3944": "si in ", "3945": "bi in ", "3946": "t\u2019 el ", "3947": "li il ", "3948": "dro e ", "3949": "to in ", "3950": "mi a\u2019 ", "3951": "pri a ", "3952": "d\u2019 e\u2019 ", "3953": "su \u2019l ", "3954": "ste i ", "3955": "ri \u2019l ", "3956": "da in ", "3957": "ste a ", "3958": "sto \u00e8 ", "3959": "tre e ", "3960": "pre a ", "3961": "lo al ", "3962": "ra ad ", "3963": "ia in ", "3964": "zo al ", "3965": "zo il ", "3966": "n\u2019 ei ", "3967": "dre e ", "3968": "cia a ", "3969": "re al ", "3970": "de al ", "3971": "g\u2019 io ", "3972": "gue e ", "3973": "ia il ", "3974": "to ir ", "3975": "ta io ", "3976": "ra in ", "3977": "tro i ", "3978": "vi un ", "3979": "d\u2019 i\u2019 ", "3980": "si ad ", "3981": "sme e ", "3982": "gia e ", "3983": "tr\u2019 a ", "3984": "ri al ", "3985": "te un ", "3986": "zi or ", "3987": "da al ", "3988": "se or ", "3989": "si \u2019n ", "3990": "ni or ", "3991": "tri o ", "3992": "l\u00e0 \u2019l ", "3993": "ha in ", "3994": "zio e ", "3995": "st\u2019 \u00e8 ", "3996": "li or ", "3997": "na ed ", "3998": "te \u2019n ", "3999": "zo \u2019l ", "4000": "ce in ", "4001": "gue \u00e8 ", "4002": "le un ", "4003": "li io ", "4004": "gliel ", "4005": "no u\u2019 ", "4006": "va un ", "4007": "be in ", "4008": "qua a ", "4009": "t\u2019 il ", "4010": "te ad ", "4011": "gni a ", "4012": "go \u2019l ", "4013": "r\u2019 al ", "4014": "n\u00f2 \u2019l ", "4015": "d\u00f2 \u2019l ", "4016": "si il ", "4017": "ti \u2019n ", "4018": "sti o ", "4019": "za ha ", "4020": "so al ", "4021": "s\u00ec \u2019l ", "4022": "bra e ", "4023": "va \u2019l ", "4024": "vo in ", "4025": "dio a ", "4026": "ro or ", "4027": "tra \u00e8 ", "4028": "tro \u00e8 ", "4029": "me in ", "4030": "me un ", "4031": "ra ha ", "4032": "co al ", "4033": "po ha ", "4034": "pe ad ", "4035": "ga il ", "4036": "se \u2019l ", "4037": "pi in ", "4038": "po in ", "4039": "fu il ", "4040": "te ho ", "4041": "le io ", "4042": "scian ", "4043": "ne a\u2019 ", "4044": "li oh ", "4045": "ta ad ", "4046": "na al ", "4047": "sce a ", "4048": "na \u2019n ", "4049": "ce il ", "4050": "lo or ", "4051": "n\u00f2 in ", "4052": "re ed ", "4053": "ria o ", "4054": "t\u2019 io ", "4055": "dio e ", "4056": "le i\u2019 ", "4057": "s\u2019 io ", "4058": "no i\u2019 ", "4059": "scion ", "4060": "r\u00f2 il ", "4061": "za un ", "4062": "po ed ", "4063": "ria i ", "4064": "tra \u2019 ", "4065": "to ha ", "4066": "no ai ", "4067": "d\u2019 el ", "4068": "zi un ", "4069": "que a ", "4070": "do un ", "4071": "gui i ", "4072": "sa il ", "4073": "cia e ", "4074": "di \u2019l ", "4075": "te ai ", "4076": "vi in ", "4077": "ca al ", "4078": "na il ", "4079": "l\u00e0 il ", "4080": "gna \u00e8 ", "4081": "ch\u00e9 i ", "4082": "no ad ", "4083": "t\u00e0 \u2019l ", "4084": "ghe a ", "4085": "zia o ", "4086": "dro a ", "4087": "za \u2019l ", "4088": "gluol ", "4089": "sco i ", "4090": "de \u2019l ", "4091": "pa in ", "4092": "di ha ", "4093": "mi ad ", "4094": "s\u2019 ei ", "4095": "chian ", "4096": "gia \u00e8 ", "4097": "la un ", "4098": "se al ", "4099": "ch\u2019 a ", "4100": "\u2019v\u2019 \u00e8 ", "4101": "co a\u2019 ", "4102": "gno a ", "4103": "li ha ", "4104": "le ad ", "4105": "stian ", "4106": "ne ad ", "4107": "ge il ", "4108": "n\u2019 ha ", "4109": "so in ", "4110": "va in ", "4111": "ge un ", "4112": "dri e ", "4113": "t\u2019 ha ", "4114": "le in ", "4115": "sa ad ", "4116": "le ab ", "4117": "be al ", "4118": "no in ", "4119": "ma in ", "4120": "di il ", "4121": "ha \u2019l ", "4122": "ve il ", "4123": "dro o ", "4124": "to ad ", "4125": "l\u2019 un ", "4126": "zia a ", "4127": "di un ", "4128": "l\u2019 ho ", "4129": "te io ", "4130": "gliar ", "4131": "co in ", "4132": "chiar ", "4133": "cio e ", "4134": "mi in ", "4135": "ti al ", "4136": "vrien ", "4137": "ra al ", "4138": "di ed ", "4139": "c\u2019 io ", "4140": "bi \u2019l ", "4141": "be il ", "4142": "cia o ", "4143": "re un ", "4144": "li in ", "4145": "lio a ", "4146": "gia o ", "4147": "to il ", "4148": "sto a ", "4149": "g\u00ec \u2019l ", "4150": "sciai ", "4151": "ro ad ", "4152": "ro a\u2019 ", "4153": "ge al ", "4154": "d\u2019 ir ", "4155": "no ha ", "4156": "ca il ", "4157": "pre e ", "4158": "ci al ", "4159": "v\u2019 ho ", "4160": "t\u2019 om ", "4161": "te a\u2019 ", "4162": "me \u2019n ", "4163": "so il ", "4164": "be i\u2019 ", "4165": "le ha ", "4166": "ba in ", "4167": "gue a ", "4168": "mo ed ", "4169": "te or ", "4170": "me a\u2019 ", "4171": "tr\u2019 \u00e8 ", "4172": "ra a\u2019 ", "4173": "g\u00f2 \u2019l ", "4174": "do al ", "4175": "glion ", "4176": "ni il ", "4177": "di or ", "4178": "m\u2019 io ", "4179": "do il ", "4180": "ra or ", "4181": "no a\u2019 ", "4182": "na in ", "4183": "do ad ", "4184": "da un ", "4185": "ghe e ", "4186": "se \u2019n ", "4187": "qua \u00e8 ", "4188": "le or ", "4189": "de ed ", "4190": "ne or ", "4191": "ne \u2019l ", "4192": "tra e ", "4193": "sti e ", "4194": "bo a\u2019 ", "4195": "va ai ", "4196": "su in ", "4197": "ce ha ", "4198": "di al ", "4199": "co il ", "4200": "na ad ", "4201": "sta o ", "4202": "no \u2019l ", "4203": "se il ", "4204": "ne ai ", "4205": "sca i ", "4206": "co ad ", "4207": "bre e ", "4208": "sti \u00e8 ", "4209": "ti a\u2019 ", "4210": "ti un ", "4211": "to \u2019l ", "4212": "gno \u00e8 ", "4213": "va il ", "4214": "te al ", "4215": "ria e ", "4216": "se i\u2019 ", "4217": "la in ", "4218": "zi \u2019l ", "4219": "se ad ", "4220": "ra ed ", "4221": "chi a ", "4222": "lo ha ", "4223": "ne ed ", "4224": "bio e ", "4225": "che \u2019 ", "4226": "r\u00ec \u2019l ", "4227": "mi \u2019l ", "4228": "ti ad ", "4229": "to \u2019n ", "4230": "ci or ", "4231": "de in ", "4232": "do or ", "4233": "ti \u2019l ", "4234": "ra un ", "4235": "smo a ", "4236": "re in ", "4237": "lo il ", "4238": "schio ", "4239": "mo ad ", "4240": "co un ", "4241": "t\u00f2 un ", "4242": "ro in ", "4243": "chion ", "4244": "m\u2019 ha ", "4245": "glien ", "4246": "ni in ", "4247": "sci a ", "4248": "de il ", "4249": "gio a ", "4250": "ro un ", "4251": "mo ha ", "4252": "ge in ", "4253": "so a\u2019 ", "4254": "stial ", "4255": "la a\u2019 ", "4256": "ti io ", "4257": "me al ", "4258": "co \u2019l ", "4259": "po al ", "4260": "svuol ", "4261": "ia ed ", "4262": "se io ", "4263": "lo un ", "4264": "pio e ", "4265": "s\u2019 e\u2019 ", "4266": "pra e ", "4267": "vra i ", "4268": "po \u2019l ", "4269": "ti il ", "4270": "no al ", "4271": "no il ", "4272": "gna e ", "4273": "te ha ", "4274": "lo ed ", "4275": "n\u2019 io ", "4276": "to or ", "4277": "pio a ", "4278": "tra a ", "4279": "temps ", "4280": "sta a ", "4281": "la il ", "4282": "be un ", "4283": "tri e ", "4284": "si el ", "4285": "to un ", "4286": "va io ", "4287": "re ir ", "4288": "be ed ", "4289": "zi ad ", "4290": "la io ", "4291": "da or ", "4292": "ri in ", "4293": "so un ", "4294": "re or ", "4295": "gni e ", "4296": "tro a ", "4297": "zi ai ", "4298": "rio a ", "4299": "bre a ", "4300": "li ei ", "4301": "ma a\u2019 ", "4302": "re a\u2019 ", "4303": "le \u2019l ", "4304": "b\u2019 io ", "4305": "r\u00f2 \u2019l ", "4306": "ta in ", "4307": "ni \u2019l ", "4308": "ra \u2019n ", "4309": "ve un ", "4310": "sti a ", "4311": "sa un ", "4312": "d\u2019 ei ", "4313": "ci a\u2019 ", "4314": "gio e ", "4315": "po io ", "4316": "de ad ", "4317": "re ho ", "4318": "v\u2019 or ", "4319": "mi il ", "4320": "c\u2019 ho ", "4321": "ce un ", "4322": "lo in ", "4323": "sce i ", "4324": "gna o ", "4325": "va ed ", "4326": "va al ", "4327": "z\u00f2 il ", "4328": "po il ", "4329": "be \u2019l ", "4330": "ci il ", "4331": "chi \u00e8 ", "4332": "be or ", "4333": "ne al ", "4334": "s\u2019 ha ", "4335": "si al ", "4336": "vi \u2019l ", "4337": "re il ", "4338": "di ad ", "4339": "ne io ", "4340": "si \u2019l ", "4341": "so \u2019l ", "4342": "te il ", "4343": "ne il ", "4344": "mo in ", "4345": "dia e ", "4346": "ve \u2019l ", "4347": "va \u2019n ", "4348": "da \u2019l ", "4349": "te in ", "4350": "f\u00e9 \u2019l ", "4351": "bro \u00e8 ", "4352": "li ad ", "4353": "glian ", "4354": "v\u2019 ei ", "4355": "zi al ", "4356": "lio e ", "4357": "sa in ", "4358": "zii e ", "4359": "no io ", "4360": "ch\u00e9 a ", "4361": "pr\u2019 a ", "4362": "stier ", "4363": "s\u2019 el ", "4364": "ne in ", "4365": "za ed ", "4366": "ma \u2019n ", "4367": "re i\u2019 ", "4368": "t\u2019 ho ", "4369": "za al ", "4370": "pre i ", "4371": "mo al ", "4372": "s\u2019 un ", "4373": "me \u2019l ", "4374": "que \u00e8 ", "4375": "gua e ", "4376": "v\u00f2 \u2019l ", "4377": "ni al ", "4378": "chi e ", "4379": "gno i ", "4380": "to a\u2019 ", "4381": "t\u00ec \u2019l ", "4382": "ce al ", "4383": "no ed ", "4384": "gno e ", "4385": "da io ", "4386": "si u\u2019 ", "4387": "tro e ", "4388": "v\u2019 io ", "4389": "me il ", "4390": "sa \u2019l ", "4391": "v\u2019 ha ", "4392": "qua e ", "4393": "le ir ", "4394": "da il ", "4395": "za oh ", "4396": "ma \u2019l ", "4397": "ge ad ", "4398": "gua a ", "4399": "ta ha ", "4400": "t\u00e9 \u2019l ", "4401": "l\u2019 om ", "4402": "me ad ", "4403": "la al ", "4404": "mo un ", "4405": "t\u2019 i\u2019 ", "4406": "ge or ", "4407": "tu \u2019l ", "4408": "te u\u2019 ", "4409": "go il ", "4410": "ri a\u2019 ", "4411": "lia e ", "4412": "ca io ", "4413": "na un ", "4414": "chier ", "4415": "si un ", "4416": "dia i ", "4417": "bia e ", "4418": "ve ad ", "4419": "bro e ", "4420": "ra io ", "4421": "ce u\u2019 ", "4422": "que e ", "4423": "tra i ", "4424": "lio \u00e8 ", "4425": "gri e ", "4426": "me ed ", "4427": "ro al ", "4428": "ve al ", "4429": "gna i ", "4430": "la ed ", "4431": "ta \u2019l ", "4432": "do a\u2019 ", "4433": "ge ai ", "4434": "na ha ", "4435": "ro ed ", "4436": "chiai ", "4437": "re \u2019n ", "4438": "t\u00f2 \u2019l ", "4439": "mi ed ", "4440": "sciar ", "4441": "zia \u00e8 ", "4442": "se in ", "4443": "ria \u00e8 ", "4444": "do in ", "4445": "ma il ", "4446": "cio a ", "4447": "sto e ", "4448": "re ad ", "4449": "ria \u2019 ", "4450": "ma un ", "4451": "me ai ", "4452": "ne un ", "4453": "ci \u2019l ", "4454": "ti ai ", "4455": "strai ", "4456": "sco e ", "4457": "re ha ", "4458": "di io ", "4459": "stran ", "4460": "te ed ", "4461": "fa \u2019l ", "4462": "tri \u00e8 ", "4463": "gi al ", "4464": "ci in ", "4465": "se un ", "4466": "mo \u2019l ", "4467": "ra il ", "4468": "c\u2019 ha ", "4469": "tri a ", "4470": "gna a ", "4471": "di in ", "4472": "va a\u2019 ", "4473": "fo or ", "4474": "ti ei ", "4475": "li \u2019l ", "4476": "do ed ", "4477": "che \u2019l ", "4478": "gio in ", "4479": "que al ", "4480": "gna in ", "4481": "lia il ", "4482": "bra ad ", "4483": "ba e \u2019 ", "4484": "l\u2019 uom ", "4485": "bia in ", "4486": "bio ed ", "4487": "ne e i ", "4488": "tro al ", "4489": "nia il ", "4490": "vea \u2019l ", "4491": "fra \u2019l ", "4492": "stia e ", "4493": "scia o ", "4494": "tra i\u2019 ", "4495": "ra han ", "4496": "ria il ", "4497": "mia al ", "4498": "tro il ", "4499": "chi al ", "4500": "gi\u00f9 \u2019l ", "4501": "tro ed ", "4502": "rio ho ", "4503": "na\u2019 il ", "4504": "sia \u2019l ", "4505": "que in ", "4506": "rio il ", "4507": "dio in ", "4508": "gia \u2019l ", "4509": "stro a ", "4510": "tro ad ", "4511": "se\u2019 in ", "4512": "ch\u2019 i\u2019 ", "4513": "que a\u2019 ", "4514": "lio ed ", "4515": "gli al ", "4516": "gno or ", "4517": "ch\u00e9 \u2019l ", "4518": "sa e \u2019 ", "4519": "stro \u00e8 ", "4520": "ste in ", "4521": "chi ha ", "4522": "ch\u2019 e\u2019 ", "4523": "sto il ", "4524": "schiar ", "4525": "stri e ", "4526": "st\u2019 ho ", "4527": "sti ha ", "4528": "dro in ", "4529": "rio ha ", "4530": "tri ad ", "4531": "ghi \u2019l ", "4532": "pi\u00e9 \u2019l ", "4533": "gio il ", "4534": "che un ", "4535": "n\u2019 uom ", "4536": "bia \u2019l ", "4537": "gia or ", "4538": "ch\u00e9 il ", "4539": "gia il ", "4540": "gi\u00f9 il ", "4541": "sta in ", "4542": "pre in ", "4543": "gi\u2019 or ", "4544": "cia in ", "4545": "ghiaio ", "4546": "pre ha ", "4547": "d\u2019 uom ", "4548": "gno ad ", "4549": "te han ", "4550": "tr\u2019 al ", "4551": "tra \u2019l ", "4552": "sti in ", "4553": "chi in ", "4554": "pia in ", "4555": "sc\u00ec \u2019l ", "4556": "glia e ", "4557": "chi \u2019n ", "4558": "stie e ", "4559": "ti e \u2019 ", "4560": "zia in ", "4561": "schi o ", "4562": "trio e ", "4563": "ghio e ", "4564": "tro io ", "4565": "di e \u2019 ", "4566": "ci\u00f2 \u2019l ", "4567": "ch\u2019 io ", "4568": "gna il ", "4569": "gne \u2019l ", "4570": "gna \u2019l ", "4571": "t\u2019 hai ", "4572": "fia il ", "4573": "m\u2019 han ", "4574": "gi\u00e0 \u2019l ", "4575": "gno a\u2019 ", "4576": "gno ed ", "4577": "pre a\u2019 ", "4578": "zio al ", "4579": "ch\u2019 un ", "4580": "ch\u2019 ai ", "4581": "sta il ", "4582": "stio e ", "4583": "zie al ", "4584": "gno ha ", "4585": "ro e \u2019 ", "4586": "gl\u2019 io ", "4587": "ne han ", "4588": "glio e ", "4589": "tri \u2019l ", "4590": "cea il ", "4591": "t\u2019 ha\u2019 ", "4592": "gi\u00e0 il ", "4593": "nio al ", "4594": "me e \u2019 ", "4595": "tra il ", "4596": "stra \u00e8 ", "4597": "glio a ", "4598": "gna un ", "4599": "chi il ", "4600": "sche o ", "4601": "sco il ", "4602": "smo al ", "4603": "gio ad ", "4604": "sti il ", "4605": "tro in ", "4606": "gno in ", "4607": "sce il ", "4608": "sta un ", "4609": "gni in ", "4610": "sta al ", "4611": "ne e \u2019 ", "4612": "sce in ", "4613": "ch\u00e9 \u2019n ", "4614": "sti \u2019l ", "4615": "ria al ", "4616": "gli un ", "4617": "gne al ", "4618": "pre al ", "4619": "ch\u2019 or ", "4620": "se uom ", "4621": "chi \u2019l ", "4622": "stro i ", "4623": "l\u2019 hai ", "4624": "tre al ", "4625": "che a\u2019 ", "4626": "che \u2019n ", "4627": "ro hai ", "4628": "tro a\u2019 ", "4629": "gue il ", "4630": "glio o ", "4631": "sta \u2019n ", "4632": "chio \u00e8 ", "4633": "stra a ", "4634": "tr\u2019 a\u2019 ", "4635": "pa e \u2019 ", "4636": "due \u2019l ", "4637": "ti e i ", "4638": "so\u2019 \u2019n ", "4639": "pra ed ", "4640": "gno al ", "4641": "dri ai ", "4642": "tre i\u2019 ", "4643": "ni e \u2019 ", "4644": "ghi al ", "4645": "schi a ", "4646": "scia a ", "4647": "ch\u2019 el ", "4648": "ti han ", "4649": "tro un ", "4650": "cio ed ", "4651": "tro ai ", "4652": "ni e i ", "4653": "gno il ", "4654": "pria o ", "4655": "tro ha ", "4656": "stro e ", "4657": "tri or ", "4658": "gna a\u2019 ", "4659": "scio a ", "4660": "gliuoi ", "4661": "so hai ", "4662": "ch\u2019 a\u2019 ", "4663": "que ad ", "4664": "ghi in ", "4665": "stra e ", "4666": "che il ", "4667": "cia ir ", "4668": "tro i\u2019 ", "4669": "ste il ", "4670": "gue in ", "4671": "to hai ", "4672": "cia ad ", "4673": "qua al ", "4674": "ci e \u2019 ", "4675": "zia il ", "4676": "tr\u2019 io ", "4677": "tre un ", "4678": "que i\u2019 ", "4679": "cia il ", "4680": "bra od ", "4681": "va e i ", "4682": "ch\u2019 \u00e8i ", "4683": "ch\u2019 om ", "4684": "che al ", "4685": "sc\u2019 io ", "4686": "dre al ", "4687": "m\u2019 hai ", "4688": "dria e ", "4689": "vra \u2019l ", "4690": "c\u2019 hai ", "4691": "chio a ", "4692": "cia un ", "4693": "sto al ", "4694": "chio e ", "4695": "gu\u00ec \u2019l ", "4696": "glia \u00e8 ", "4697": "ri e \u2019 ", "4698": "che in ", "4699": "gro un ", "4700": "glia o ", "4701": "pi\u00f9 \u2019l ", "4702": "cia al ", "4703": "tro \u2019l ", "4704": "tra in ", "4705": "ch\u2019 ei ", "4706": "qua in ", "4707": "\u2019ve \u2019l ", "4708": "tri il ", "4709": "ch\u2019 in ", "4710": "c\u2019 ha\u2019 ", "4711": "que il ", "4712": "qua il ", "4713": "po e \u2019 ", "4714": "s\u2019 hai ", "4715": "spra e ", "4716": "gio al ", "4717": "sto ad ", "4718": "gia un ", "4719": "di\u2019 \u2019l ", "4720": "chi ei ", "4721": "glie e ", "4722": "tre in ", "4723": "ch\u2019 al ", "4724": "pu\u00f2 \u2019l ", "4725": "gua in ", "4726": "ghia a ", "4727": "ch\u2019 ad ", "4728": "dia in ", "4729": "tra al ", "4730": "li han ", "4731": "pra \u2019l ", "4732": "li ha\u2019 ", "4733": "sto io ", "4734": "tre il ", "4735": "pra in ", "4736": "gliuol ", "4737": "sto in ", "4738": "qui \u2019l ", "4739": "glia a ", "4740": "chia e ", "4741": "pria e ", "4742": "stro o ", "4743": "te e \u2019l ", "4744": "lio e i ", "4745": "glio in ", "4746": "ca e \u2019l ", "4747": "stro il ", "4748": "re e \u2019l ", "4749": "stia ad ", "4750": "glio ai ", "4751": "se e \u2019l ", "4752": "za e \u2019l ", "4753": "schio e ", "4754": "ma e \u2019l ", "4755": "chia al ", "4756": "ra e \u2019l ", "4757": "si e \u2019l ", "4758": "le e \u2019l ", "4759": "ga e \u2019l ", "4760": "to o al ", "4761": "de e \u2019n ", "4762": "to e \u2019l ", "4763": "stra \u2019l ", "4764": "de e \u2019l ", "4765": "me e \u2019l ", "4766": "chio in ", "4767": "che e \u2019 ", "4768": "glia un ", "4769": "va e \u2019l ", "4770": "vo e \u2019l ", "4771": "gne uom ", "4772": "chio ha ", "4773": "po e \u2019l ", "4774": "chio il ", "4775": "glio or ", "4776": "bo e \u2019l ", "4777": "mi e \u2019l ", "4778": "stro ed ", "4779": "mo e \u2019l ", "4780": "dia e i ", "4781": "v\u2019 \u00e8 \u2019l ", "4782": "glia in ", "4783": "dre e \u2019 ", "4784": "stri in ", "4785": "go \u00e8 in ", "4786": "sci\u00f2 il ", "4787": "stro in ", "4788": "be e \u2019l ", "4789": "ce e \u2019l ", "4790": "glia al ", "4791": "va e \u2019n ", "4792": "ta e \u2019l ", "4793": "ti e \u2019l ", "4794": "go e \u2019l ", "4795": "no e \u2019l ", "4796": "ta e \u2019n ", "4797": "m\u2019 \u00e8 il ", "4798": "stro or ", "4799": "schia e ", "4800": "scia il ", "4801": "sa e \u2019l ", "4802": "ne e \u2019l ", "4803": "to \u00e8 \u2019l ", "4804": "tra e \u2019 ", "4805": "stra il ", "4806": "so e \u2019l ", "4807": "chio al ", "4808": "glie in ", "4809": "l\u2019 \u00e8 \u2019l ", "4810": "glie \u2019l ", "4811": "co e \u2019l ", "4812": "glia il ", "4813": "lo \u00e8 in ", "4814": "ch\u2019 uom ", "4815": "zo e \u2019l ", "4816": "na e \u2019l ", "4817": "la e \u2019l ", "4818": "bre e \u2019 ", "4819": "ro e \u2019l ", "4820": "me e \u2019n ", "4821": "m\u2019 \u00e8 \u2019l ", "4822": "ci e \u2019l ", "4823": "do e \u2019n ", "4824": "to ha \u2019l ", "4825": "ria \u00e8 \u2019l ", "4826": "schi uom ", "4827": "st\u2019 \u00e8 \u2019l ", "4828": "dre e \u2019l ", "4829": "sti \u00e8 \u2019l ", "4830": "chi e \u2019l ", "4831": "cia e \u2019l ", "4832": "d\u2019 io \u2019l ", "4833": "zio e \u2019l ", "4834": "tre e \u2019l ", "4835": "pra e \u2019l ", "4836": "bra e \u2019l ", "4837": "v\u2019 ha \u2019l ", "4838": "tra e \u2019l ", "4839": "ria e \u2019l ", "4840": "dio e \u2019l ", "4841": "te ha in ", "4842": "gio e \u2019l ", "4843": "c\u2019 ha \u2019l ", "4844": "so ha \u2019l ", "4845": "tr\u2019 \u00e8 \u2019l ", "4846": "bia e \u2019l ", "4847": "zie e \u2019l ", "4848": "s\u2019 i\u2019 \u2019l ", "4849": "sta e \u2019l ", "4850": "ch\u2019 i\u2019 \u2019l ", "4851": "chie e \u2019n ", "4852": "chio e \u2019l ", "4853": "stro e \u2019l ", "4854": "scia e \u2019l ", "4855": "glio e \u2019l ", "4856": "chio o \u2019l ", "4857": "ch\u2019 io \u2019l "}