{"0": "", "1": "<v>", "2": "</v>", "3": "<t>", "4": "</t>", "5": " ", "6": "\u2019", "7": "o", "8": "e", "9": "l", "10": "i", "11": "d", "12": "\u00f2", "13": "\u00f9", "14": "\u00ec", "15": "a", "16": "\u00eb", "17": "p", "18": "\u00ef", "19": "u", "20": "\u00e9", "21": "\u00e8", "22": "\u00fc", "23": "l\u00e8", "24": "au", "25": "da", "26": "em", "27": "sa", "28": "t\u00e9", "29": "t\u00f2", "30": "p\u2019", "31": "ie", "32": "t\u00e8", "33": "n\u00ec", "34": "uc", "35": "l\u00f2", "36": "n\u00e9", "37": "zi", "38": "mo", "39": "ex", "40": "v\u00ec", "41": "u\u2019", "42": "fa", "43": "io", "44": "v\u00e8", "45": "b\u00e8", "46": "ge", "47": "oc", "48": "tu", "49": "xi", "50": "pe", "51": "li", "52": "ce", "53": "ei", "54": "\u2019m", "55": "si", "56": "se", "57": "ni", "58": "me", "59": "p\u00eb", "60": "op", "61": "ci", "62": "t\u00ec", "63": "v\u00e9", "64": "s\u00e8", "65": "s\u00ec", "66": "f\u00f2", "67": "on", "68": "s\u00f9", "69": "ru", "70": "mi", "71": "d\u00e9", "72": "g\u00ef", "73": "d\u00e0", "74": "d\u2019", "75": "\u00f9l", "76": "l\u2019", "77": "v\u00ef", "78": "ta", "79": "b\u2019", "80": "v\u2019", "81": "c\u00e9", "82": "fe", "83": "ga", "84": "v\u00f2", "85": "na", "86": "um", "87": "\u00e8l", "88": "eb", "89": "\u2019l", "90": "us", "91": "ca", "92": "\u00e0r", "93": "m\u00eb", "94": "ad", "95": "b\u00f9", "96": "et", "97": "b\u00eb", "98": "ve", "99": "uo", "100": "c\u00f2", "101": "so", "102": "ul", "103": "ab", "104": "c\u00fc", "105": "n\u00e8", "106": "ze", "107": "g\u00ec", "108": "ur", "109": "el", "110": "es", "111": "g\u00eb", "112": "ti", "113": "c\u00eb", "114": "n\u2019", "115": "f\u00ef", "116": "d\u00ef", "117": "l\u00ef", "118": "ar", "119": "n\u00eb", "120": "to", "121": "z\u2019", "122": "t\u2019", "123": "s\u2019", "124": "\u00e8n", "125": "bi", "126": "\u00e0m", "127": "ha", "128": "fo", "129": "g\u00fc", "130": "av", "131": "f\u00e9", "132": "mu", "133": "\u00e9n", "134": "z\u00f2", "135": "v\u00e4", "136": "ob", "137": "pi", "138": "vu", "139": "l\u00f6", "140": "l\u00ec", "141": "r\u00f2", "142": "\u00f2s", "143": "n\u00e0", "144": "s\u00e0", "145": "lu", "146": "in", "147": "ne", "148": "pu", "149": "m\u00e8", "150": "c\u00e8", "151": "s\u00f2", "152": "la", "153": "c\u00f9", "154": "ba", "155": "or", "156": "\u00e0n", "157": "r\u00e0", "158": "va", "159": "iu", "160": "l\u00e0", "161": "m\u2019", "162": "ot", "163": "am", "164": "g\u00f3", "165": "b\u00ec", "166": "p\u00f2", "167": "t\u00e0", "168": "le", "169": "cu", "170": "f\u00eb", "171": "t\u00fc", "172": "s\u00ef", "173": "n\u00ef", "174": "is", "175": "su", "176": "ai", "177": "re", "178": "of", "179": "ec", "180": "ho", "181": "fu", "182": "e\u2019", "183": "r\u00ef", "184": "t\u00ef", "185": "m\u00ec", "186": "r\u00e8", "187": "p\u00ec", "188": "z\u00ef", "189": "ia", "190": "d\u00ec", "191": "b\u00ef", "192": "m\u00e4", "193": "f\u00e0", "194": "\u00e8e", "195": "\u00e0s", "196": "ae", "197": "en", "198": "bo", "199": "za", "200": "ap", "201": "er", "202": "\u2019n", "203": "az", "204": "ra", "205": "n\u00f2", "206": "f\u00f3", "207": "d\u00eb", "208": "ir", "209": "du", "210": "\u00ecs", "211": "g\u00f2", "212": "as", "213": "r\u00eb", "214": "r\u00f3", "215": "r\u2019", "216": "ag", "217": "\u00e8v", "218": "l\u00fc", "219": "be", "220": "s\u00fc", "221": "vi", "222": "zo", "223": "c\u2019", "224": "il", "225": "m\u00ef", "226": "t\u00f9", "227": "s\u00e9", "228": "hi", "229": "d\u00f2", "230": "un", "231": "t\u00eb", "232": "om", "233": "\u00f3n", "234": "ro", "235": "pa", "236": "ol", "237": "g\u00e8", "238": "go", "239": "ed", "240": "p\u00ef", "241": "bu", "242": "n\u00fc", "243": "i\u2019", "244": "\u00e8i", "245": "ef", "246": "v\u00eb", "247": "c\u00ef", "248": "po", "249": "s\u00eb", "250": "af", "251": "l\u00eb", "252": "lo", "253": "b\u00f2", "254": "fi", "255": "al", "256": "do", "257": "g\u2019", "258": "eu", "259": "ov", "260": "im", "261": "vo", "262": "nu", "263": "ma", "264": "gu", "265": "no", "266": "id", "267": "os", "268": "p\u00fc", "269": "og", "270": "c\u00ec", "271": "t\u00e4", "272": "de", "273": "\u00f2n", "274": "a\u2019", "275": "te", "276": "m\u00f2", "277": "an", "278": "gi", "279": "at", "280": "oh", "281": "d\u00fc", "282": "ri", "283": "di", "284": "p\u00e8", "285": "ac", "286": "r\u00ec", "287": "od", "288": "co", "289": "zia", "290": "cef", "291": "fic", "292": "rie", "293": "sr\u00e4", "294": "cri", "295": "lon", "296": "rem", "297": "nar", "298": "tei", "299": "ger", "300": "coc", "301": "sof", "302": "lez", "303": "beo", "304": "vid", "305": "cio", "306": "rav", "307": "ren", "308": "nuc", "309": "cen", "310": "st\u00e0", "311": "lia", "312": "dii", "313": "dr\u00ef", "314": "mia", "315": "dr\u00ec", "316": "svo", "317": "sde", "318": "rid", "319": "gob", "320": "tat", "321": "f\u00e9e", "322": "rig", "323": "ceo", "324": "vei", "325": "ver", "326": "han", "327": "st\u00f2", "328": "lus", "329": "niz", "330": "tom", "331": "tic", "332": "sin", "333": "get", "334": "pos", "335": "vez", "336": "ran", "337": "tre", "338": "sat", "339": "nas", "340": "fer", "341": "b\u00eca", "342": "ciu", "343": "n\u00e8s", "344": "dio", "345": "f\u00e8l", "346": "bec", "347": "sai", "348": "ri\u2019", "349": "bui", "350": "raz", "351": "biz", "352": "sos", "353": "sbe", "354": "fiu", "355": "bet", "356": "tuc", "357": "mes", "358": "muc", "359": "pub", "360": "qui", "361": "fal", "362": "r\u00f2l", "363": "res", "364": "spe", "365": "das", "366": "gab", "367": "d\u00ece", "368": "fab", "369": "mii", "370": "poi", "371": "sia", "372": "sno", "373": "sal", "374": "nem", "375": "uom", "376": "rog", "377": "dos", "378": "pes", "379": "ior", "380": "nha", "381": "ra\u2019", "382": "pii", "383": "buf", "384": "m\u00eca", "385": "lar", "386": "rit", "387": "dil", "388": "pu\u00f2", "389": "for", "390": "mor", "391": "pon", "392": "rin", "393": "poc", "394": "zon", "395": "ter", "396": "ves", "397": "bi\u00f2", "398": "let", "399": "fie", "400": "gne", "401": "caf", "402": "ber", "403": "suc", "404": "lup", "405": "mat", "406": "gni", "407": "nef", "408": "bal", "409": "mez", "410": "\u2018la", "411": "dut", "412": "col", "413": "t\u00f3n", "414": "cra", "415": "lab", "416": "sio", "417": "c\u00f3l", "418": "nob", "419": "tui", "420": "fas", "421": "gaz", "422": "pic", "423": "puc", "424": "rom", "425": "vit", "426": "cez", "427": "set", "428": "min", "429": "dug", "430": "rai", "431": "va\u2019", "432": "sem", "433": "cir", "434": "unt", "435": "gre", "436": "lat", "437": "d\u00e8i", "438": "dif", "439": "tea", "440": "det", "441": "zie", "442": "cu\u2019", "443": "iat", "444": "nin", "445": "vo\u2019", "446": "pia", "447": "b\u00e0l", "448": "zur", "449": "gad", "450": "se\u2019", "451": "n\u00eca", "452": "cer", "453": "fui", "454": "peg", "455": "num", "456": "tis", "457": "nan", "458": "gai", "459": "sor", "460": "fos", "461": "vir", "462": "gan", "463": "fog", "464": "giu", "465": "bul", "466": "cle", "467": "bon", "468": "rei", "469": "rag", "470": "nun", "471": "lap", "472": "val", "473": "ril", "474": "fon", "475": "nei", "476": "vii", "477": "cel", "478": "sba", "479": "qua", "480": "tri", "481": "dui", "482": "sul", "483": "pau", "484": "mam", "485": "dec", "486": "pr\u2019", "487": "flu", "488": "pea", "489": "dar", "490": "zel", "491": "sau", "492": "lan", "493": "tua", "494": "spi", "495": "da\u2019", "496": "mee", "497": "sra", "498": "t\u00f2n", "499": "nom", "500": "cep", "501": "leb", "502": "hon", "503": "rea", "504": "put", "505": "ful", "506": "rel", "507": "pr\u00ec", "508": "sca", "509": "soz", "510": "cia", "511": "fei", "512": "mil", "513": "lac", "514": "cai", "515": "pre", "516": "nul", "517": "dei", "518": "rii", "519": "git", "520": "ruc", "521": "nez", "522": "sen", "523": "roz", "524": "cuo", "525": "ple", "526": "bli", "527": "dez", "528": "c\u00f2l", "529": "bug", "530": "\u2018ne", "531": "ban", "532": "sci", "533": "cat", "534": "cob", "535": "n\u00ect", "536": "lel", "537": "mic", "538": "dem", "539": "vos", "540": "la\u2019", "541": "saf", "542": "non", "543": "t\u00f2r", "544": "pem", "545": "fre", "546": "dop", "547": "mi\u2019", "548": "deh", "549": "vag", "550": "lau", "551": "gi\u00f2", "552": "vac", "553": "vul", "554": "sv\u00ef", "555": "fuo", "556": "br\u00ef", "557": "dun", "558": "lu\u2019", "559": "les", "560": "neo", "561": "pei", "562": "rac", "563": "den", "564": "vol", "565": "nig", "566": "fur", "567": "bro", "568": "san", "569": "fig", "570": "sur", "571": "c\u00e0n", "572": "cac", "573": "r\u00f3n", "574": "som", "575": "ric", "576": "rua", "577": "gi\u2019", "578": "tru", "579": "ieu", "580": "t\u00e0n", "581": "tal", "582": "tr\u00f2", "583": "ci\u00f2", "584": "fem", "585": "f\u00e0t", "586": "bol", "587": "pai", "588": "goc", "589": "xil", "590": "sac", "591": "ch\u00ec", "592": "sii", "593": "muf", "594": "rat", "595": "tel", "596": "te\u2019", "597": "dul", "598": "gis", "599": "z\u00f2n", "600": "pra", "601": "cli", "602": "za\u2019", "603": "nia", "604": "bee", "605": "cet", "606": "bas", "607": "ron", "608": "dro", "609": "l\u00eca", "610": "doc", "611": "tez", "612": "gli", "613": "nel", "614": "leo", "615": "rar", "616": "tai", "617": "toc", "618": "coz", "619": "ces", "620": "dam", "621": "fi\u00f2", "622": "nil", "623": "pom", "624": "sgo", "625": "pro", "626": "spo", "627": "ve\u2019", "628": "l\u00eco", "629": "fu\u2019", "630": "tuo", "631": "mos", "632": "m\u00e9z", "633": "fle", "634": "sfo", "635": "rug", "636": "st\u00ec", "637": "rui", "638": "rio", "639": "scu", "640": "gol", "641": "lai", "642": "dob", "643": "fom", "644": "r\u00ecb", "645": "gar", "646": "s\u00f3n", "647": "fau", "648": "bie", "649": "mei", "650": "fel", "651": "puo", "652": "nes", "653": "moz", "654": "pli", "655": "del", "656": "sla", "657": "piz", "658": "got", "659": "meo", "660": "n\u00f2s", "661": "smu", "662": "ges", "663": "coi", "664": "gl\u2019", "665": "mar", "666": "sel", "667": "tue", "668": "mul", "669": "loc", "670": "meg", "671": "ree", "672": "t\u00f2m", "673": "sna", "674": "vel", "675": "cap", "676": "jau", "677": "sei", "678": "cru", "679": "bil", "680": "cic", "681": "sce", "682": "sc\u2019", "683": "so\u2019", "684": "\u00f2th", "685": "duo", "686": "rof", "687": "poz", "688": "fue", "689": "dea", "690": "bei", "691": "mur", "692": "gel", "693": "noi", "694": "vai", "695": "tos", "696": "nor", "697": "raf", "698": "tan", "699": "luz", "700": "ruo", "701": "bru", "702": "sua", "703": "fan", "704": "zar", "705": "net", "706": "bri", "707": "ch\u2019", "708": "lun", "709": "pun", "710": "dov", "711": "con", "712": "dir", "713": "mus", "714": "cl\u00ef", "715": "lit", "716": "plo", "717": "ror", "718": "pot", "719": "tun", "720": "lui", "721": "teo", "722": "buc", "723": "p\u00eca", "724": "m\u00ecs", "725": "gat", "726": "gom", "727": "son", "728": "vem", "729": "zai", "730": "not", "731": "gnu", "732": "red", "733": "lip", "734": "fib", "735": "bun", "736": "pru", "737": "cre", "738": "tad", "739": "ruf", "740": "sbi", "741": "fis", "742": "dor", "743": "nic", "744": "nen", "745": "di\u2019", "746": "fe\u2019", "747": "bre", "748": "via", "749": "gor", "750": "joi", "751": "sov", "752": "st\u00ef", "753": "bin", "754": "zuf", "755": "ven", "756": "dai", "757": "lea", "758": "nur", "759": "noz", "760": "reb", "761": "laz", "762": "gi\u00e0", "763": "rut", "764": "dom", "765": "bab", "766": "vet", "767": "mal", "768": "mea", "769": "ras", "770": "quo", "771": "sto", "772": "mot", "773": "rol", "774": "pur", "775": "sam", "776": "s\u00f9e", "777": "sta", "778": "tau", "779": "tro", "780": "st\u00e9", "781": "lut", "782": "f\u00f3n", "783": "lem", "784": "du\u2019", "785": "bor", "786": "nol", "787": "seg", "788": "stu", "789": "cea", "790": "nac", "791": "gea", "792": "clo", "793": "sez", "794": "sc\u00ef", "795": "lis", "796": "nis", "797": "mer", "798": "sie", "799": "dia", "800": "sop", "801": "gno", "802": "sga", "803": "re\u2019", "804": "st\u00f9", "805": "que", "806": "pul", "807": "gim", "808": "bir", "809": "cuc", "810": "iep", "811": "\u2019ve", "812": "len", "813": "cor", "814": "lot", "815": "che", "816": "par", "817": "bac", "818": "sun", "819": "nec", "820": "lul", "821": "sas", "822": "tin", "823": "st\u2019", "824": "tec", "825": "lin", "826": "bue", "827": "dr\u00e0", "828": "mas", "829": "p\u00e0r", "830": "gam", "831": "vom", "832": "svi", "833": "pen", "834": "feo", "835": "cro", "836": "dat", "837": "mum", "838": "von", "839": "vec", "840": "gna", "841": "ta\u2019", "842": "gur", "843": "tac", "844": "vra", "845": "t\u00e9r", "846": "cot", "847": "tum", "848": "c\u00e9r", "849": "dal", "850": "feb", "851": "din", "852": "nal", "853": "sap", "854": "reo", "855": "g\u00f3r", "856": "fia", "857": "rot", "858": "voi", "859": "mol", "860": "co\u2019", "861": "sle", "862": "dua", "863": "guo", "864": "sve", "865": "pal", "866": "me\u2019", "867": "est", "868": "fuc", "869": "neb", "870": "tet", "871": "cie", "872": "cil", "873": "tia", "874": "glo", "875": "l\u00e8m", "876": "sme", "877": "sod", "878": "nat", "879": "rap", "880": "sic", "881": "vau", "882": "guc", "883": "smi", "884": "can", "885": "gio", "886": "lie", "887": "pis", "888": "nag", "889": "mae", "890": "chi", "891": "roc", "892": "fro", "893": "pas", "894": "sui", "895": "tii", "896": "vil", "897": "fol", "898": "nir", "899": "pri", "900": "mem", "901": "di\u00e8", "902": "tem", "903": "lep", "904": "uo\u2019", "905": "sa\u2019", "906": "sab", "907": "ga\u2019", "908": "cal", "909": "t\u00e8s", "910": "met", "911": "gen", "912": "gra", "913": "gue", "914": "piu", "915": "gi\u00f9", "916": "ral", "917": "fra", "918": "dit", "919": "don", "920": "lil", "921": "rao", "922": "f\u00e9l", "923": "cau", "924": "lic", "925": "per", "926": "vuo", "927": "sar", "928": "tut", "929": "tes", "930": "sub", "931": "viz", "932": "nii", "933": "cui", "934": "fam", "935": "fin", "936": "suo", "937": "pop", "938": "neg", "939": "sfe", "940": "tur", "941": "mel", "942": "s\u00ece", "943": "tr\u00e0", "944": "vis", "945": "cag", "946": "pio", "947": "fes", "948": "ahi", "949": "zii", "950": "vin", "951": "mon", "952": "lee", "953": "tor", "954": "ch\u00e9", "955": "van", "956": "clu", "957": "rab", "958": "nai", "959": "dau", "960": "sti", "961": "vor", "962": "ghe", "963": "dus", "964": "zio", "965": "lav", "966": "ti\u2019", "967": "cov", "968": "pir", "969": "zul", "970": "tuf", "971": "man", "972": "pat", "973": "sag", "974": "nim", "975": "pog", "976": "dur", "977": "tir", "978": "sir", "979": "rim", "980": "fio", "981": "tr\u00ef", "982": "g\u00f3n", "983": "diz", "984": "m\u00e8c", "985": "gia", "986": "d\u00eca", "987": "pac", "988": "sol", "989": "mio", "990": "sup", "991": "pet", "992": "ris", "993": "tim", "994": "pie", "995": "pin", "996": "til", "997": "smo", "998": "rup", "999": "nev", "1000": "pan", "1001": "gua", "1002": "deg", "1003": "des", "1004": "ros", "1005": "tie", "1006": "cum", "1007": "pit", "1008": "ler", "1009": "tio", "1010": "bef", "1011": "gon", "1012": "nea", "1013": "mag", "1014": "feg", "1015": "var", "1016": "fri", "1017": "sud", "1018": "sc\u00ec", "1019": "gir", "1020": "dri", "1021": "gu\u00ec", "1022": "com", "1023": "sot", "1024": "pi\u00e8", "1025": "guz", "1026": "bom", "1027": "gri", "1028": "l\u00f2n", "1029": "sug", "1030": "ch\u00ef", "1031": "teg", "1032": "qu\u00ef", "1033": "cad", "1034": "cur", "1035": "ha\u2019", "1036": "zac", "1037": "ion", "1038": "suf", "1039": "cut", "1040": "pi\u00f9", "1041": "dee", "1042": "na\u2019", "1043": "zuc", "1044": "rum", "1045": "ton", "1046": "sec", "1047": "lec", "1048": "leg", "1049": "fet", "1050": "gru", "1051": "boc", "1052": "top", "1053": "cla", "1054": "luo", "1055": "bra", "1056": "\u2019v\u2019", "1057": "f\u00e0s", "1058": "r\u00e8g", "1059": "mug", "1060": "de\u2019", "1061": "sco", "1062": "paz", "1063": "sue", "1064": "ste", "1065": "pel", "1066": "cis", "1067": "fai", "1068": "por", "1069": "sum", "1070": "r\u00ece", "1071": "soc", "1072": "der", "1073": "bev", "1074": "su\u2019", "1075": "cin", "1076": "goz", "1077": "lam", "1078": "\u2018te", "1079": "c\u00f2b", "1080": "gas", "1081": "sil", "1082": "f\u00e0c", "1083": "sep", "1084": "sit", "1085": "fru", "1086": "tag", "1087": "cei", "1088": "ier", "1089": "vas", "1090": "sus", "1091": "rir", "1092": "far", "1093": "pi\u00e9", "1094": "gu\u00f2", "1095": "gau", "1096": "dru", "1097": "ses", "1098": "bar", "1099": "tle", "1100": "deb", "1101": "cit", "1102": "dub", "1103": "gei", "1104": "las", "1105": "tar", "1106": "boz", "1107": "sma", "1108": "tol", "1109": "sog", "1110": "fac", "1111": "\u2018be", "1112": "fum", "1113": "zaf", "1114": "p\u00f2s", "1115": "gro", "1116": "cam", "1117": "fit", "1118": "bea", "1119": "spu", "1120": "nie", "1121": "ner", "1122": "dr\u00e4", "1123": "nuo", "1124": "reg", "1125": "tho", "1126": "pec", "1127": "vea", "1128": "ma\u2019", "1129": "fug", "1130": "r\u00ecs", "1131": "ne\u2019", "1132": "rob", "1133": "gin", "1134": "b\u00e8l", "1135": "fen", "1136": "run", "1137": "bus", "1138": "pol", "1139": "geo", "1140": "mac", "1141": "ghi", "1142": "rec", "1143": "sp\u00ef", "1144": "rez", "1145": "n\u00f2i", "1146": "lur", "1147": "cos", "1148": "fat", "1149": "sob", "1150": "tr\u2019", "1151": "deo", "1152": "spa", "1153": "d\u00ect", "1154": "veg", "1155": "dis", "1156": "sis", "1157": "tus", "1158": "lim", "1159": "cul", "1160": "no\u2019", "1161": "riz", "1162": "luc", "1163": "buo", "1164": "men", "1165": "ben", "1166": "lom", "1167": "fla", "1168": "peo", "1169": "tra", "1170": "vat", "1171": "mun", "1172": "ni\u2019", "1173": "bio", "1174": "cr\u00e0", "1175": "hai", "1176": "bl\u00ef", "1177": "tas", "1178": "gh\u2019", "1179": "cop", "1180": "pil", "1181": "bai", "1182": "pl\u00ec", "1183": "noc", "1184": "tam", "1185": "v\u00f2l", "1186": "rer", "1187": "lei", "1188": "gag", "1189": "dan", "1190": "seo", "1191": "dim", "1192": "gib", "1193": "cun", "1194": "lor", "1195": "zan", "1196": "muo", "1197": "pap", "1198": "pr\u00e0", "1199": "pig", "1200": "die", "1201": "mie", "1202": "pla", "1203": "nio", "1204": "giz", "1205": "ten", "1206": "lop", "1207": "lio", "1208": "mai", "1209": "ret", "1210": "ser", "1211": "fil", "1212": "gil", "1213": "car", "1214": "dot", "1215": "sfa", "1216": "gui", "1217": "qu\u2019", "1218": "ria", "1219": "dic", "1220": "bat", "1221": "mir", "1222": "gem", "1223": "ean", "1224": "lir", "1225": "dra", "1226": "bot", "1227": "iar", "1228": "ian", "1229": "dol", "1230": "vie", "1231": "cas", "1232": "bur", "1233": "bia", "1234": "vam", "1235": "bis", "1236": "gal", "1237": "ram", "1238": "cem", "1239": "due", "1240": "but", "1241": "plu", "1242": "v\u00ecd", "1243": "bel", "1244": "dre", "1245": "n\u00ece", "1246": "fun", "1247": "fi\u2019", "1248": "dr\u00f2", "1249": "puz", "1250": "maz", "1251": "gie", "1252": "vio", "1253": "sev", "1254": "cuor", "1255": "scoc", "1256": "pien", "1257": "grem", "1258": "piog", "1259": "scaz", "1260": "qual", "1261": "cl\u00e8s", "1262": "gnaz", "1263": "biac", "1264": "fien", "1265": "piar", "1266": "fier", "1267": "spro", "1268": "quei", "1269": "nier", "1270": "gien", "1271": "tret", "1272": "graf", "1273": "frat", "1274": "gner", "1275": "brio", "1276": "diam", "1277": "grep", "1278": "cras", "1279": "vuoi", "1280": "dhae", "1281": "ghel", "1282": "chiu", "1283": "niam", "1284": "pran", "1285": "saia", "1286": "maio", "1287": "bron", "1288": "\u2019vun", "1289": "stuc", "1290": "drap", "1291": "guer", "1292": "gnia", "1293": "grie", "1294": "vuol", "1295": "breo", "1296": "trio", "1297": "clau", "1298": "prio", "1299": "cion", "1300": "dian", "1301": "scea", "1302": "siam", "1303": "dier", "1304": "tr\u00e0s", "1305": "giot", "1306": "sbri", "1307": "ghia", "1308": "trie", "1309": "gnuo", "1310": "spre", "1311": "scuo", "1312": "gnin", "1313": "stru", "1314": "quie", "1315": "star", "1316": "gior", "1317": "prec", "1318": "gheg", "1319": "tris", "1320": "tuon", "1321": "tean", "1322": "pri\u2019", "1323": "rian", "1324": "guar", "1325": "naio", "1326": "drir", "1327": "brug", "1328": "spol", "1329": "guio", "1330": "stin", "1331": "ched", "1332": "ciar", "1333": "ci\u00f2l", "1334": "glia", "1335": "scar", "1336": "stas", "1337": "grop", "1338": "tram", "1339": "ghin", "1340": "quen", "1341": "scet", "1342": "dron", "1343": "broc", "1344": "ciom", "1345": "sfam", "1346": "fred", "1347": "die\u2019", "1348": "prai", "1349": "scia", "1350": "gram", "1351": "ciai", "1352": "proc", "1353": "glau", "1354": "sneb", "1355": "gion", "1356": "sbar", "1357": "tiam", "1358": "frui", "1359": "trar", "1360": "scom", "1361": "riai", "1362": "str\u2019", "1363": "tren", "1364": "trea", "1365": "clas", "1366": "spal", "1367": "viem", "1368": "brul", "1369": "luia", "1370": "laia", "1371": "vian", "1372": "lier", "1373": "trec", "1374": "dram", "1375": "trae", "1376": "stel", "1377": "gial", "1378": "brut", "1379": "blan", "1380": "sche", "1381": "spra", "1382": "ghet", "1383": "ciap", "1384": "tree", "1385": "scer", "1386": "spia", "1387": "chi\u00f2", "1388": "slac", "1389": "trom", "1390": "suol", "1391": "sfor", "1392": "pron", "1393": "crea", "1394": "spaz", "1395": "scin", "1396": "puom", "1397": "svel", "1398": "trot", "1399": "piag", "1400": "pion", "1401": "guan", "1402": "tra\u2019", "1403": "quil", "1404": "lian", "1405": "chet", "1406": "spir", "1407": "guir", "1408": "pren", "1409": "glet", "1410": "ciel", "1411": "maia", "1412": "dies", "1413": "biar", "1414": "grot", "1415": "zian", "1416": "spen", "1417": "stec", "1418": "spec", "1419": "spel", "1420": "scor", "1421": "bia\u2019", "1422": "gros", "1423": "stol", "1424": "prin", "1425": "scot", "1426": "fiam", "1427": "scam", "1428": "suon", "1429": "puol", "1430": "tien", "1431": "trai", "1432": "quae", "1433": "frut", "1434": "scov", "1435": "sciu", "1436": "treb", "1437": "cher", "1438": "ciuf", "1439": "drea", "1440": "scim", "1441": "sdet", "1442": "plor", "1443": "grue", "1444": "drai", "1445": "spic", "1446": "ples", "1447": "ciac", "1448": "giai", "1449": "fian", "1450": "guis", "1451": "prez", "1452": "spie", "1453": "guef", "1454": "toio", "1455": "brar", "1456": "cric", "1457": "tiem", "1458": "cheg", "1459": "quam", "1460": "piom", "1461": "scen", "1462": "ghi\u00f2", "1463": "gier", "1464": "ciuo", "1465": "c\u00f2th", "1466": "gnun", "1467": "tras", "1468": "gli\u00f2", "1469": "laio", "1470": "nean", "1471": "quin", "1472": "gnum", "1473": "gnem", "1474": "\u2018qui", "1475": "sfer", "1476": "sanc", "1477": "smon", "1478": "gnus", "1479": "stea", "1480": "scro", "1481": "spun", "1482": "truo", "1483": "muor", "1484": "gres", "1485": "stra", "1486": "quis", "1487": "prei", "1488": "que\u2019", "1489": "sgan", "1490": "fron", "1491": "fran", "1492": "vaio", "1493": "stam", "1494": "glio", "1495": "quor", "1496": "scel", "1497": "str\u00e0", "1498": "runt", "1499": "gnes", "1500": "gioi", "1501": "ghie", "1502": "pruo", "1503": "brot", "1504": "sgri", "1505": "chin", "1506": "sbra", "1507": "dean", "1508": "fuor", "1509": "piac", "1510": "ver\u2019", "1511": "grap", "1512": "grin", "1513": "egyp", "1514": "giac", "1515": "sunt", "1516": "gual", "1517": "brez", "1518": "gnan", "1519": "stei", "1520": "sci\u2019", "1521": "smor", "1522": "trap", "1523": "guit", "1524": "guaz", "1525": "rien", "1526": "slao", "1527": "cria", "1528": "scon", "1529": "piat", "1530": "pric", "1531": "lien", "1532": "fiot", "1533": "creb", "1534": "stro", "1535": "squa", "1536": "stor", "1537": "bris", "1538": "gnie", "1539": "ghio", "1540": "smar", "1541": "stet", "1542": "tier", "1543": "sti\u00f2", "1544": "quar", "1545": "blia", "1546": "chez", "1547": "bian", "1548": "bree", "1549": "bias", "1550": "quod", "1551": "sfan", "1552": "suo\u2019", "1553": "pros", "1554": "tria", "1555": "cien", "1556": "d\u00e8ch", "1557": "puoi", "1558": "gi\u00f9e", "1559": "quel", "1560": "quai", "1561": "sdru", "1562": "stil", "1563": "sien", "1564": "giar", "1565": "piez", "1566": "cheo", "1567": "gias", "1568": "miei", "1569": "scri", "1570": "ph\u00e8l", "1571": "biet", "1572": "guia", "1573": "nail", "1574": "gaio", "1575": "sdeg", "1576": "cral", "1577": "guon", "1578": "stes", "1579": "plan", "1580": "smoz", "1581": "drit", "1582": "sfin", "1583": "stul", "1584": "mie\u2019", "1585": "scev", "1586": "bent", "1587": "chia", "1588": "gron", "1589": "clug", "1590": "zion", "1591": "gnas", "1592": "clis", "1593": "spor", "1594": "quer", "1595": "bran", "1596": "br\u00f2t", "1597": "sier", "1598": "vria", "1599": "nian", "1600": "gnar", "1601": "sper", "1602": "drel", "1603": "stis", "1604": "gnen", "1605": "duol", "1606": "frir", "1607": "naut", "1608": "ghil", "1609": "fren", "1610": "greg", "1611": "sfat", "1612": "pi\u00f9e", "1613": "plar", "1614": "ziar", "1615": "sgra", "1616": "svia", "1617": "crin", "1618": "crol", "1619": "trei", "1620": "nien", "1621": "gnon", "1622": "sden", "1623": "spes", "1624": "ciol", "1625": "fles", "1626": "scio", "1627": "dra\u2019", "1628": "str\u00f2", "1629": "ciot", "1630": "gean", "1631": "stem", "1632": "giug", "1633": "st\u00f2r", "1634": "tror", "1635": "scol", "1636": "gran", "1637": "guel", "1638": "flig", "1639": "scop", "1640": "spon", "1641": "buon", "1642": "tuo\u2019", "1643": "ghez", "1644": "ghir", "1645": "trag", "1646": "blio", "1647": "scic", "1648": "troc", "1649": "spri", "1650": "grom", "1651": "guag", "1652": "gnor", "1653": "pria", "1654": "quia", "1655": "chel", "1656": "schi", "1657": "dran", "1658": "dien", "1659": "trat", "1660": "scem", "1661": "chie", "1662": "guil", "1663": "sban", "1664": "spit", "1665": "vean", "1666": "dail", "1667": "brei", "1668": "cias", "1669": "stan", "1670": "stie", "1671": "glie", "1672": "scuf", "1673": "snel", "1674": "suoi", "1675": "ster", "1676": "pia\u2019", "1677": "\u2018glo", "1678": "vuo\u2019", "1679": "stui", "1680": "sc\u00eco", "1681": "flit", "1682": "scab", "1683": "guic", "1684": "scir", "1685": "sgom", "1686": "tron", "1687": "fret", "1688": "sci\u00f2", "1689": "brol", "1690": "guai", "1691": "stia", "1692": "squi", "1693": "driz", "1694": "stiz", "1695": "pian", "1696": "tuoi", "1697": "rean", "1698": "rent", "1699": "scan", "1700": "span", "1701": "puos", "1702": "caio", "1703": "spin", "1704": "gnel", "1705": "smal", "1706": "bion", "1707": "scie", "1708": "giuo", "1709": "dras", "1710": "quan", "1711": "gher", "1712": "stre", "1713": "sten", "1714": "scac", "1715": "sie\u2019", "1716": "cia\u2019", "1717": "gras", "1718": "scun", "1719": "muoi", "1720": "vien", "1721": "chis", "1722": "trui", "1723": "guiz", "1724": "fioc", "1725": "pier", "1726": "pris", "1727": "mian", "1728": "ciam", "1729": "stai", "1730": "sfio", "1731": "brac", "1732": "sven", "1733": "vier", "1734": "stri", "1735": "sman", "1736": "prir", "1737": "scal", "1738": "viam", "1739": "cean", "1740": "chil", "1741": "chio", "1742": "spuo", "1743": "stuo", "1744": "stop", "1745": "sgor", "1746": "cruc", "1747": "piov", "1748": "sver", "1749": "sion", "1750": "sber", "1751": "sfar", "1752": "brie", "1753": "plau", "1754": "st\u00e8r", "1755": "stig", "1756": "cian", "1757": "fior", "1758": "grez", "1759": "stav", "1760": "tran", "1761": "bria", "1762": "pres", "1763": "scis", "1764": "stio", "1765": "prun", "1766": "bren", "1767": "spet", "1768": "gian", "1769": "prie", "1770": "cioc", "1771": "ciul", "1772": "guet", "1773": "spez", "1774": "flet", "1775": "fiar", "1776": "pi\u00e9r", "1777": "com\u2019", "1778": "guen", "1779": "trac", "1780": "steo", "1781": "trul", "1782": "stal", "1783": "buoi", "1784": "giun", "1785": "sfac", "1786": "sian", "1787": "ghes", "1788": "fiac", "1789": "trop", "1790": "grat", "1791": "giam", "1792": "spar", "1793": "scre", "1794": "scos", "1795": "smen", "1796": "dria", "1797": "pluo", "1798": "liev", "1799": "quat", "1800": "sfre", "1801": "sfran", "1802": "scheg", "1803": "sciol", "1804": "chian", "1805": "schem", "1806": "glior", "1807": "stric", "1808": "schie", "1809": "stral", "1810": "strel", "1811": "gnaio", "1812": "praia", "1813": "strom", "1814": "ghien", "1815": "strai", "1816": "sciai", "1817": "puesc", "1818": "squar", "1819": "sgrie", "1820": "chion", "1821": "strar", "1822": "strut", "1823": "sgiun", "1824": "vrien", "1825": "voill", "1826": "ghiac", "1827": "stion", "1828": "stren", "1829": "chioc", "1830": "spran", "1831": "ghiar", "1832": "scuoi", "1833": "sci\u00e0n", "1834": "ghian", "1835": "chier", "1836": "spraz", "1837": "scran", "1838": "spres", "1839": "gliar", "1840": "gliet", "1841": "gliai", "1842": "gliuo", "1843": "strin", "1844": "glion", "1845": "glien", "1846": "spiac", "1847": "scias", "1848": "strug", "1849": "svuol", "1850": "schet", "1851": "gluol", "1852": "strac", "1853": "chiai", "1854": "sgher", "1855": "temps", "1856": "glies", "1857": "schio", "1858": "strat", "1859": "sciar", "1860": "scrip", "1861": "scris", "1862": "scial", "1863": "ghiai", "1864": "stial", "1865": "sciom", "1866": "stiam", "1867": "ghiot", "1868": "sciam", "1869": "glian", "1870": "stras", "1871": "stran", "1872": "splen", "1873": "scrit", "1874": "scher", "1875": "squil", "1876": "sciau", "1877": "schic", "1878": "scian", "1879": "gliel", "1880": "chiar", "1881": "stroc", "1882": "stret", "1883": "gliea", "1884": "chias", "1885": "streg", "1886": "staio", "1887": "schia", "1888": "stroz", "1889": "stian", "1890": "gliam", "1891": "chiet", "1892": "glier", "1893": "scioc", "1894": "sguar", "1895": "schiu", "1896": "chiap", "1897": "scion", "1898": "stram", "1899": "sciut", "1900": "stier", "1901": "schiet", "1902": "gliaio", "1903": "schiat", "1904": "strans", "1905": "gliuol", "1906": "schiar", "1907": "schian", "1908": "gliuoi", "1909": "ghiaio"}