{"0": "", "1": "<v>", "2": "</v>", "3": "<t>", "4": "</t>", "5": "u", "6": "\u00e8", "7": "\u00fc", "8": "a", "9": "\u00f2", "10": "o", "11": "e", "12": "\u00e9", "13": "\u00ef", "14": "i", "15": "bo", "16": "r\u00ef", "17": "al", "18": "b\u00eb", "19": "v\u00f2", "20": "t\u00fc", "21": "go", "22": "id", "23": "d\u00fc", "24": "au", "25": "or", "26": "g\u00e8", "27": "il", "28": "ol", "29": "n\u00eb", "30": "se", "31": "ot", "32": "ha", "33": "l\u00f6", "34": "pa", "35": "re", "36": "pi", "37": "ar", "38": "ge", "39": "r\u00eb", "40": "t\u00f2", "41": "fo", "42": "v\u00e8", "43": "ia", "44": "ve", "45": "p\u00ec", "46": "g\u00fc", "47": "la", "48": "te", "49": "ex", "50": "fu", "51": "om", "52": "p\u00eb", "53": "be", "54": "n\u00ef", "55": "g\u00eb", "56": "s\u00fc", "57": "s\u00f9", "58": "og", "59": "oc", "60": "c\u00f9", "61": "v\u00e9", "62": "na", "63": "vu", "64": "d\u00eb", "65": "l\u00f2", "66": "ci", "67": "di", "68": "ru", "69": "l\u00eb", "70": "ba", "71": "er", "72": "is", "73": "mi", "74": "r\u00e8", "75": "uc", "76": "l\u00e8", "77": "ac", "78": "ie", "79": "g\u00ef", "80": "s\u00e0", "81": "ov", "82": "fi", "83": "af", "84": "eu", "85": "g\u00f3", "86": "v\u00ef", "87": "n\u00f2", "88": "mu", "89": "p\u00fc", "90": "es", "91": "ti", "92": "as", "93": "ne", "94": "ae", "95": "r\u00f3", "96": "s\u00eb", "97": "li", "98": "ga", "99": "ur", "100": "d\u00ef", "101": "ob", "102": "el", "103": "io", "104": "of", "105": "ro", "106": "nu", "107": "t\u00ef", "108": "en", "109": "lo", "110": "so", "111": "m\u00ef", "112": "l\u00ec", "113": "l\u00e0", "114": "at", "115": "f\u00eb", "116": "me", "117": "ad", "118": "\u00e8n", "119": "si", "120": "os", "121": "ca", "122": "lu", "123": "po", "124": "eb", "125": "z\u00ef", "126": "da", "127": "gi", "128": "xi", "129": "ec", "130": "su", "131": "uo", "132": "m\u00eb", "133": "zi", "134": "c\u00ec", "135": "no", "136": "av", "137": "m\u00e8", "138": "em", "139": "vo", "140": "ab", "141": "s\u00ef", "142": "\u00f2s", "143": "to", "144": "t\u00ec", "145": "n\u00fc", "146": "sa", "147": "b\u00ef", "148": "fa", "149": "un", "150": "d\u00e9", "151": "an", "152": "t\u00eb", "153": "le", "154": "ce", "155": "n\u00e8", "156": "ri", "157": "t\u00e4", "158": "im", "159": "op", "160": "mo", "161": "v\u00eb", "162": "ap", "163": "du", "164": "pu", "165": "l\u00fc", "166": "cu", "167": "fe", "168": "m\u00e4", "169": "s\u00e9", "170": "do", "171": "f\u00f3", "172": "pe", "173": "f\u00e9", "174": "bi", "175": "az", "176": "p\u00e8", "177": "c\u00fc", "178": "on", "179": "ef", "180": "\u00e8v", "181": "p\u00f2", "182": "ul", "183": "ir", "184": "t\u00e8", "185": "co", "186": "ma", "187": "c\u00ef", "188": "ag", "189": "zo", "190": "ho", "191": "et", "192": "s\u00f2", "193": "am", "194": "f\u00ef", "195": "r\u00e0", "196": "va", "197": "ze", "198": "vi", "199": "iu", "200": "ra", "201": "c\u00eb", "202": "ni", "203": "bu", "204": "de", "205": "p\u00ef", "206": "tu", "207": "in", "208": "v\u00e4", "209": "gu", "210": "ta", "211": "m\u00ec", "212": "l\u00ef", "213": "za", "214": "soc", "215": "sfa", "216": "tho", "217": "dov", "218": "dot", "219": "fem", "220": "pre", "221": "vet", "222": "sna", "223": "tur", "224": "lut", "225": "gad", "226": "dol", "227": "get", "228": "sop", "229": "sot", "230": "pur", "231": "vie", "232": "leb", "233": "sta", "234": "fac", "235": "sde", "236": "sos", "237": "qui", "238": "mac", "239": "rir", "240": "vec", "241": "ruf", "242": "nie", "243": "zur", "244": "luc", "245": "gas", "246": "clo", "247": "gli", "248": "gur", "249": "mot", "250": "nia", "251": "f\u00e0c", "252": "lil", "253": "guc", "254": "fan", "255": "pio", "256": "veg", "257": "mel", "258": "muo", "259": "mar", "260": "vit", "261": "\u2018be", "262": "col", "263": "nim", "264": "paz", "265": "non", "266": "rea", "267": "sog", "268": "nai", "269": "ghi", "270": "roz", "271": "noz", "272": "vam", "273": "rac", "274": "qua", "275": "cic", "276": "ros", "277": "gno", "278": "iep", "279": "a u", "280": "pub", "281": "rid", "282": "maz", "283": "gat", "284": "pie", "285": "sat", "286": "bre", "287": "bec", "288": "pun", "289": "rom", "290": "gim", "291": "biz", "292": "sol", "293": "but", "294": "bat", "295": "cla", "296": "tet", "297": "gni", "298": "moz", "299": "nor", "300": "dru", "301": "tez", "302": "put", "303": "sar", "304": "cuc", "305": "tru", "306": "geo", "307": "got", "308": "tun", "309": "gua", "310": "mol", "311": "dim", "312": "niz", "313": "cli", "314": "cel", "315": "tra", "316": "gia", "317": "bai", "318": "sr\u00e4", "319": "rio", "320": "r\u00e8g", "321": "goz", "322": "ran", "323": "sla", "324": "mil", "325": "pi\u00e9", "326": "puc", "327": "rob", "328": "dec", "329": "fal", "330": "fet", "331": "dos", "332": "mor", "333": "plo", "334": "fom", "335": "von", "336": "c\u00e9r", "337": "sve", "338": "ger", "339": "gui", "340": "fes", "341": "nio", "342": "sil", "343": "cri", "344": "mic", "345": "res", "346": "met", "347": "bl\u00ef", "348": "tis", "349": "lai", "350": "fel", "351": "gom", "352": "coc", "353": "tam", "354": "cio", "355": "m\u00e8c", "356": "fen", "357": "dar", "358": "ple", "359": "vor", "360": "sov", "361": "lop", "362": "lez", "363": "zia", "364": "lip", "365": "tea", "366": "rup", "367": "rot", "368": "gie", "369": "pic", "370": "bom", "371": "top", "372": "guo", "373": "rab", "374": "dan", "375": "cl\u00ef", "376": "sus", "377": "tin", "378": "poz", "379": "sno", "380": "spa", "381": "sur", "382": "pai", "383": "rit", "384": "len", "385": "per", "386": "neg", "387": "fic", "388": "ric", "389": "cet", "390": "rug", "391": "sof", "392": "nec", "393": "gem", "394": "lim", "395": "fiu", "396": "sor", "397": "mir", "398": "tre", "399": "pos", "400": "lar", "401": "bef", "402": "gon", "403": "sce", "404": "lep", "405": "zon", "406": "vis", "407": "bia", "408": "giu", "409": "bor", "410": "mun", "411": "sin", "412": "nem", "413": "men", "414": "din", "415": "sca", "416": "fun", "417": "rav", "418": "nel", "419": "piu", "420": "pla", "421": "fer", "422": "smi", "423": "cen", "424": "fab", "425": "bio", "426": "sum", "427": "lat", "428": "cem", "429": "gre", "430": "min", "431": "tim", "432": "die", "433": "st\u00ef", "434": "nom", "435": "fum", "436": "tri", "437": "bol", "438": "gir", "439": "sba", "440": "nun", "441": "tir", "442": "zar", "443": "pog", "444": "gil", "445": "tuo", "446": "tar", "447": "ram", "448": "nob", "449": "mas", "450": "ior", "451": "cil", "452": "var", "453": "p\u00f2s", "454": "pul", "455": "bug", "456": "o u", "457": "rog", "458": "rar", "459": "dez", "460": "peg", "461": "mag", "462": "xil", "463": "nez", "464": "bon", "465": "lup", "466": "tal", "467": "roc", "468": "sug", "469": "dem", "470": "las", "471": "gel", "472": "ter", "473": "diz", "474": "pin", "475": "lav", "476": "suf", "477": "tec", "478": "qu\u00ef", "479": "han", "480": "gru", "481": "cit", "482": "cad", "483": "puo", "484": "fru", "485": "doc", "486": "spu", "487": "pap", "488": "vat", "489": "dea", "490": "sfe", "491": "can", "492": "ste", "493": "les", "494": "mam", "495": "buo", "496": "rem", "497": "bac", "498": "sab", "499": "quo", "500": "tro", "501": "ver", "502": "rez", "503": "sod", "504": "vem", "505": "dus", "506": "pis", "507": "nur", "508": "ven", "509": "mug", "510": "ler", "511": "lam", "512": "dit", "513": "dug", "514": "son", "515": "cos", "516": "nil", "517": "ton", "518": "tor", "519": "gio", "520": "coz", "521": "jau", "522": "viz", "523": "net", "524": "tat", "525": "dif", "526": "puz", "527": "sga", "528": "cru", "529": "tau", "530": "gau", "531": "cuo", "532": "tas", "533": "fio", "534": "sco", "535": "cep", "536": "sev", "537": "mur", "538": "vin", "539": "pac", "540": "sia", "541": "plu", "542": "val", "543": "fat", "544": "zio", "545": "dei", "546": "caf", "547": "nev", "548": "sme", "549": "gan", "550": "det", "551": "mat", "552": "cat", "553": "lom", "554": "gol", "555": "dra", "556": "mez", "557": "cap", "558": "piz", "559": "pit", "560": "sap", "561": "t\u00f2r", "562": "cef", "563": "fis", "564": "vil", "565": "sio", "566": "pri", "567": "sv\u00ef", "568": "dir", "569": "seg", "570": "clu", "571": "giz", "572": "por", "573": "lul", "574": "dri", "575": "bis", "576": "tos", "577": "sob", "578": "mos", "579": "des", "580": "pet", "581": "tie", "582": "mal", "583": "buc", "584": "som", "585": "con", "586": "dur", "587": "tac", "588": "riz", "589": "nic", "590": "cot", "591": "sp\u00ef", "592": "gue", "593": "zuc", "594": "rin", "595": "lic", "596": "vid", "597": "zac", "598": "lia", "599": "ruo", "600": "tol", "601": "ier", "602": "cor", "603": "bin", "604": "lel", "605": "dor", "606": "lui", "607": "fol", "608": "duo", "609": "fau", "610": "fuc", "611": "p\u00e0r", "612": "don", "613": "sgo", "614": "tuc", "615": "ful", "616": "cac", "617": "fam", "618": "gib", "619": "san", "620": "nul", "621": "pl\u00ec", "622": "ten", "623": "gal", "624": "o e", "625": "lau", "626": "spo", "627": "man", "628": "ren", "629": "ber", "630": "pop", "631": "far", "632": "bal", "633": "nan", "634": "ses", "635": "fib", "636": "lec", "637": "ser", "638": "tem", "639": "bri", "640": "gea", "641": "gob", "642": "suc", "643": "cag", "644": "bel", "645": "gna", "646": "gra", "647": "tic", "648": "ral", "649": "zel", "650": "gis", "651": "set", "652": "tr\u00ef", "653": "tuf", "654": "der", "655": "das", "656": "spe", "657": "dob", "658": "dat", "659": "lab", "660": "nag", "661": "pli", "662": "fog", "663": "che", "664": "fur", "665": "lin", "666": "run", "667": "ves", "668": "fro", "669": "mes", "670": "cir", "671": "sep", "672": "sc\u00ef", "673": "mul", "674": "for", "675": "pru", "676": "lem", "677": "gor", "678": "a a", "679": "cop", "680": "sci", "681": "bui", "682": "cau", "683": "boc", "684": "fas", "685": "deb", "686": "pal", "687": "ges", "688": "gar", "689": "pes", "690": "ahi", "691": "nin", "692": "lea", "693": "vul", "694": "pra", "695": "van", "696": "rut", "697": "gri", "698": "voi", "699": "tad", "700": "cr\u00e0", "701": "mon", "702": "bli", "703": "dre", "704": "luo", "705": "tan", "706": "cun", "707": "lit", "708": "cre", "709": "meg", "710": "tag", "711": "ces", "712": "fon", "713": "rof", "714": "glo", "715": "mia", "716": "sac", "717": "rap", "718": "e a", "719": "toc", "720": "dut", "721": "sra", "722": "sun", "723": "t\u00f2m", "724": "cea", "725": "sec", "726": "pil", "727": "bea", "728": "git", "729": "vuo", "730": "mer", "731": "v\u00f2l", "732": "fla", "733": "cum", "734": "ban", "735": "feb", "736": "pro", "737": "sbi", "738": "dia", "739": "rim", "740": "leg", "741": "lus", "742": "vac", "743": "nar", "744": "teg", "745": "sud", "746": "luz", "747": "smo", "748": "gab", "749": "lot", "750": "svi", "751": "par", "752": "bev", "753": "bul", "754": "til", "755": "lir", "756": "bot", "757": "bil", "758": "bur", "759": "sti", "760": "ret", "761": "rig", "762": "nol", "763": "rag", "764": "sie", "765": "nuo", "766": "cui", "767": "nas", "768": "tes", "769": "fos", "770": "sem", "771": "loc", "772": "lun", "773": "mie", "774": "bas", "775": "pel", "776": "nac", "777": "dom", "778": "cur", "779": "lap", "780": "\u2018ne", "781": "fri", "782": "c\u00f3l", "783": "sas", "784": "gam", "785": "sen", "786": "nal", "787": "dr\u00e4", "788": "pec", "789": "dis", "790": "fug", "791": "cas", "792": "vol", "793": "nes", "794": "flu", "795": "lis", "796": "den", "797": "chi", "798": "sic", "799": "zaf", "800": "bro", "801": "pol", "802": "cis", "803": "lur", "804": "ciu", "805": "not", "806": "nen", "807": "com", "808": "fle", "809": "soz", "810": "dul", "811": "muf", "812": "sfo", "813": "dr\u00ef", "814": "bra", "815": "cal", "816": "dub", "817": "let", "818": "saf", "819": "rat", "820": "ria", "821": "mem", "822": "bet", "823": "dop", "824": "reb", "825": "sez", "826": "boz", "827": "que", "828": "lie", "829": "ch\u00ef", "830": "hon", "831": "vir", "832": "pom", "833": "ruc", "834": "iat", "835": "reg", "836": "dun", "837": "dil", "838": "bru", "839": "cul", "840": "ril", "841": "cez", "842": "cle", "843": "rec", "844": "pir", "845": "sup", "846": "gaz", "847": "rie", "848": "sto", "849": "nig", "850": "nuc", "851": "dio", "852": "sel", "853": "ian", "854": "sit", "855": "dau", "856": "m\u00e9z", "857": "sam", "858": "pan", "859": "tom", "860": "smu", "861": "tut", "862": "pat", "863": "rol", "864": "muc", "865": "stu", "866": "fuo", "867": "goc", "868": "pon", "869": "rel", "870": "guz", "871": "bie", "872": "fra", "873": "suo", "874": "sub", "875": "laz", "876": "ris", "877": "dam", "878": "sag", "879": "ras", "880": "cie", "881": "vag", "882": "feg", "883": "nir", "884": "gnu", "885": "ghe", "886": "f\u00e9l", "887": "cia", "888": "bab", "889": "iar", "890": "nis", "891": "cra", "892": "fin", "893": "ch\u00ec", "894": "lac", "895": "bun", "896": "ben", "897": "pas", "898": "raf", "899": "svo", "900": "ner", "901": "fie", "902": "scu", "903": "car", "904": "poc", "905": "vez", "906": "neb", "907": "pau", "908": "lon", "909": "lan", "910": "sal", "911": "pig", "912": "fia", "913": "pen", "914": "cob", "915": "vas", "916": "del", "917": "sau", "918": "buf", "919": "nat", "920": "nef", "921": "cam", "922": "sma", "923": "vom", "924": "dic", "925": "sis", "926": "ron", "927": "vel", "928": "fit", "929": "sle", "930": "gag", "931": "cer", "932": "spi", "933": "cov", "934": "br\u00ef", "935": "zuf", "936": "o a", "937": "cro", "938": "tle", "939": "noc", "940": "cin", "941": "bar", "942": "gen", "943": "dal", "944": "pia", "945": "zan", "946": "red", "947": "gne", "948": "tel", "949": "dro", "950": "\u2018la", "951": "pot", "952": "deg", "953": "raz", "954": "fig", "955": "mai", "956": "lor", "957": "fre", "958": "no i", "959": "ta u", "960": "stig", "961": "ci u", "962": "qual", "963": "te o", "964": "fret", "965": "stra", "966": "stem", "967": "gi u", "968": "ra u", "969": "crol", "970": "brug", "971": "vi o", "972": "ca e", "973": "stre", "974": "scen", "975": "trec", "976": "scal", "977": "sbra", "978": "na i", "979": "grom", "980": "scro", "981": "mo a", "982": "scir", "983": "chia", "984": "spal", "985": "dhae", "986": "guel", "987": "n\u2019 e", "988": "tron", "989": "me u", "990": "guet", "991": "egyp", "992": "po o", "993": "sdeg", "994": "fred", "995": "scop", "996": "stie", "997": "piat", "998": "go a", "999": "a ac", "1000": "sber", "1001": "spar", "1002": "ge o", "1003": "prez", "1004": "so i", "1005": "ma a", "1006": "gial", "1007": "scio", "1008": "drit", "1009": "grie", "1010": "flet", "1011": "di i", "1012": "ca o", "1013": "prin", "1014": "dram", "1015": "fiam", "1016": "glie", "1017": "trar", "1018": "fiot", "1019": "me o", "1020": "scar", "1021": "dies", "1022": "so e", "1023": "d\u2019 u", "1024": "chez", "1025": "sa u", "1026": "gual", "1027": "proc", "1028": "dras", "1029": "s\u00ec a", "1030": "scam", "1031": "schi", "1032": "sfat", "1033": "piag", "1034": "ce e", "1035": "stan", "1036": "ti e", "1037": "te a", "1038": "stuo", "1039": "graf", "1040": "biet", "1041": "de o", "1042": "o al", "1043": "te u", "1044": "no a", "1045": "te e", "1046": "po u", "1047": "pris", "1048": "to e", "1049": "chet", "1050": "ro o", "1051": "bian", "1052": "sman", "1053": "la e", "1054": "gnen", "1055": "vo o", "1056": "quin", "1057": "svel", "1058": "pe i", "1059": "scie", "1060": "spit", "1061": "to a", "1062": "pien", "1063": "ze o", "1064": "da u", "1065": "ghio", "1066": "ze e", "1067": "di e", "1068": "stio", "1069": "grem", "1070": "guan", "1071": "se \u00eb", "1072": "ghie", "1073": "guaz", "1074": "v\u2019 o", "1075": "guer", "1076": "guic", "1077": "trop", "1078": "tror", "1079": "ci o", "1080": "mo i", "1081": "mian", "1082": "sbar", "1083": "ra o", "1084": "cras", "1085": "d\u2019 i", "1086": "lo u", "1087": "ce a", "1088": "blan", "1089": "clug", "1090": "dran", "1091": "di u", "1092": "brac", "1093": "gnie", "1094": "piog", "1095": "se a", "1096": "ro i", "1097": "scis", "1098": "gien", "1099": "cioc", "1100": "guar", "1101": "ro a", "1102": "spin", "1103": "pier", "1104": "stop", "1105": "dian", "1106": "guen", "1107": "puos", "1108": "sgom", "1109": "ciom", "1110": "mo e", "1111": "v\u2019 a", "1112": "zi o", "1113": "pres", "1114": "spie", "1115": "m\u2019 e", "1116": "a al", "1117": "bren", "1118": "smal", "1119": "prir", "1120": "scor", "1121": "ra e", "1122": "va e", "1123": "gian", "1124": "te i", "1125": "pian", "1126": "scre", "1127": "bo e", "1128": "sa o", "1129": "stel", "1130": "fles", "1131": "o av", "1132": "ra a", "1133": "t\u2019 o", "1134": "sfre", "1135": "stis", "1136": "spre", "1137": "li o", "1138": "stia", "1139": "clis", "1140": "stul", "1141": "ni u", "1142": "piac", "1143": "s\u2019 o", "1144": "z\u2019 o", "1145": "scon", "1146": "gior", "1147": "scab", "1148": "scic", "1149": "d\u2019 \u00ef", "1150": "grop", "1151": "do i", "1152": "snel", "1153": "sden", "1154": "giun", "1155": "stet", "1156": "pa e", "1157": "d\u2019 \u00eb", "1158": "la i", "1159": "sfan", "1160": "le a", "1161": "flig", "1162": "smar", "1163": "mo o", "1164": "do o", "1165": "ca a", "1166": "za a", "1167": "ri e", "1168": "spun", "1169": "cias", "1170": "ti i", "1171": "ce o", "1172": "zi e", "1173": "broc", "1174": "\u2018glo", "1175": "to o", "1176": "gher", "1177": "chis", "1178": "sgan", "1179": "sneb", "1180": "sche", "1181": "ta e", "1182": "scol", "1183": "stuc", "1184": "str\u00e0", "1185": "ma u", "1186": "sgri", "1187": "tras", "1188": "a in", "1189": "spen", "1190": "ciac", "1191": "tier", "1192": "r\u2019 o", "1193": "pruo", "1194": "ti a", "1195": "be o", "1196": "m\u2019 o", "1197": "cion", "1198": "le o", "1199": "va o", "1200": "glio", "1201": "co o", "1202": "da a", "1203": "chiu", "1204": "gner", "1205": "scoc", "1206": "l\u2019 o", "1207": "gias", "1208": "liev", "1209": "ne e", "1210": "truo", "1211": "sbri", "1212": "bron", "1213": "brol", "1214": "d\u2019 e", "1215": "pren", "1216": "po e", "1217": "z\u2019 a", "1218": "a ef", "1219": "de a", "1220": "ciul", "1221": "nian", "1222": "giot", "1223": "l\u2019 u", "1224": "grap", "1225": "r\u00ec u", "1226": "gron", "1227": "so o", "1228": "trap", "1229": "se o", "1230": "scet", "1231": "v\u2019 e", "1232": "prie", "1233": "cien", "1234": "gnar", "1235": "smon", "1236": "trie", "1237": "stin", "1238": "plau", "1239": "fian", "1240": "sfio", "1241": "gres", "1242": "li u", "1243": "la a", "1244": "s\u2019 u", "1245": "stav", "1246": "gros", "1247": "sver", "1248": "so u", "1249": "\u00e8 im", "1250": "gnas", "1251": "smoz", "1252": "ghes", "1253": "za i", "1254": "clau", "1255": "no e", "1256": "ro u", "1257": "gram", "1258": "flit", "1259": "sfor", "1260": "gnuo", "1261": "zo e", "1262": "re a", "1263": "trot", "1264": "pa u", "1265": "spir", "1266": "no u", "1267": "treb", "1268": "scov", "1269": "ve i", "1270": "squa", "1271": "sfer", "1272": "re e", "1273": "frut", "1274": "ciuf", "1275": "l\u00ec a", "1276": "chie", "1277": "cian", "1278": "stas", "1279": "sfam", "1280": "li a", "1281": "trac", "1282": "brul", "1283": "drap", "1284": "sdet", "1285": "grat", "1286": "d\u2019 a", "1287": "ples", "1288": "lo o", "1289": "chil", "1290": "buon", "1291": "do e", "1292": "s\u2019 i", "1293": "ciap", "1294": "si e", "1295": "t\u2019 e", "1296": "bo a", "1297": "ni a", "1298": "ve u", "1299": "trag", "1300": "sanc", "1301": "glia", "1302": "bo i", "1303": "e \u2019n", "1304": "quan", "1305": "re i", "1306": "z\u2019 i", "1307": "sgra", "1308": "pi i", "1309": "ciot", "1310": "to u", "1311": "scan", "1312": "smor", "1313": "t\u2019 u", "1314": "cher", "1315": "a am", "1316": "spec", "1317": "tret", "1318": "stal", "1319": "se e", "1320": "star", "1321": "stes", "1322": "dier", "1323": "ciel", "1324": "mi e", "1325": "ga o", "1326": "fron", "1327": "ghel", "1328": "cheg", "1329": "piez", "1330": "re o", "1331": "d\u2019 o", "1332": "stor", "1333": "mo u", "1334": "gnem", "1335": "zi u", "1336": "stro", "1337": "trul", "1338": "mi o", "1339": "scuo", "1340": "c\u2019 e", "1341": "stru", "1342": "ne u", "1343": "brez", "1344": "a es", "1345": "gnor", "1346": "spic", "1347": "e in", "1348": "ge a", "1349": "tren", "1350": "na o", "1351": "gnon", "1352": "stri", "1353": "brie", "1354": "stec", "1355": "scos", "1356": "fran", "1357": "vuol", "1358": "crea", "1359": "g\u2019 \u00ef", "1360": "guef", "1361": "co e", "1362": "creb", "1363": "glet", "1364": "guiz", "1365": "stam", "1366": "vi a", "1367": "quen", "1368": "ra i", "1369": "scer", "1370": "guil", "1371": "s\u00ec i", "1372": "quer", "1373": "spaz", "1374": "scim", "1375": "scel", "1376": "li e", "1377": "grot", "1378": "scin", "1379": "scia", "1380": "si u", "1381": "sven", "1382": "giug", "1383": "spon", "1384": "quel", "1385": "spro", "1386": "za u", "1387": "quar", "1388": "ie a", "1389": "scev", "1390": "gnel", "1391": "co a", "1392": "p\u2019 e", "1393": "de u", "1394": "smen", "1395": "gran", "1396": "vien", "1397": "ma o", "1398": "sdru", "1399": "viem", "1400": "ghia", "1401": "puom", "1402": "zian", "1403": "ciar", "1404": "fior", "1405": "gras", "1406": "le u", "1407": "pe e", "1408": "m\u2019 i", "1409": "span", "1410": "grep", "1411": "pi e", "1412": "quat", "1413": "giac", "1414": "l\u2019 i", "1415": "stiz", "1416": "troc", "1417": "pi a", "1418": "stol", "1419": "clas", "1420": "plan", "1421": "sfar", "1422": "la o", "1423": "da o", "1424": "pron", "1425": "lo a", "1426": "pran", "1427": "do a", "1428": "scaz", "1429": "brut", "1430": "spet", "1431": "me a", "1432": "bran", "1433": "ri u", "1434": "be u", "1435": "ma e", "1436": "ga e", "1437": "greg", "1438": "ce u", "1439": "trat", "1440": "ghir", "1441": "di a", "1442": "sfin", "1443": "ca u", "1444": "sa e", "1445": "gnaz", "1446": "di o", "1447": "sgor", "1448": "la u", "1449": "tram", "1450": "slac", "1451": "pros", "1452": "tien", "1453": "na u", "1454": "mi u", "1455": "spel", "1456": "guit", "1457": "cruc", "1458": "po a", "1459": "n\u2019 u", "1460": "trai", "1461": "lo e", "1462": "guag", "1463": "gi e", "1464": "scot", "1465": "spes", "1466": "giar", "1467": "ni e", "1468": "s\u2019 a", "1469": "ziar", "1470": "trom", "1471": "ghil", "1472": "\u00e8 in", "1473": "glau", "1474": "ci a", "1475": "n\u2019 a", "1476": "scri", "1477": "bias", "1478": "guir", "1479": "pric", "1480": "cric", "1481": "re u", "1482": "scac", "1483": "si o", "1484": "ta i", "1485": "stil", "1486": "bion", "1487": "t\u2019 a", "1488": "me i", "1489": "sban", "1490": "chio", "1491": "quil", "1492": "spuo", "1493": "spor", "1494": "ti o", "1495": "fioc", "1496": "brot", "1497": "co u", "1498": "ta o", "1499": "scom", "1500": "si i", "1501": "s\u2019 e", "1502": "ve a", "1503": "ne o", "1504": "frat", "1505": "tran", "1506": "va u", "1507": "spez", "1508": "m\u2019 a", "1509": "be a", "1510": "ro e", "1511": "sciu", "1512": "l\u2019 \u00f2", "1513": "gnan", "1514": "biac", "1515": "ci e", "1516": "de e", "1517": "driz", "1518": "tiem", "1519": "ghet", "1520": "fiac", "1521": "bi a", "1522": "sa a", "1523": "go e", "1524": "n\u2019 o", "1525": "ghez", "1526": "puol", "1527": "se i", "1528": "giam", "1529": "so a", "1530": "scem", "1531": "grez", "1532": "sper", "1533": "l\u00ec e", "1534": "c\u2019 o", "1535": "ti u", "1536": "da e", "1537": "va i", "1538": "gheg", "1539": "be e", "1540": "l\u2019 e", "1541": "spol", "1542": "sten", "1543": "sfac", "1544": "va a", "1545": "r\u2019 u", "1546": "ciuo", "1547": "ni o", "1548": "vi e", "1549": "ta a", "1550": "quis", "1551": "de i", "1552": "to i", "1553": "no o", "1554": "me e", "1555": "e ar", "1556": "do u", "1557": "o ar", "1558": "be i", "1559": "za o", "1560": "na e", "1561": "le i", "1562": "scuf", "1563": "na a", "1564": "ne a", "1565": "\u2019vun", "1566": "squi", "1567": "l\u2019 a", "1568": "c\u2019 \u00ef", "1569": "le e", "1570": "giuo", "1571": "spia", "1572": "ster", "1573": "se u", "1574": "piom", "1575": "piov", "1576": "bris", "1577": "s\u2019 \u00ef", "1578": "zo a", "1579": "li \u2019", "1580": "dien", "1581": "si a", "1582": "v\u2019 ap", "1583": "zio e", "1584": "ge un", "1585": "spraz", "1586": "so ar", "1587": "ce an", "1588": "lo il", "1589": "li af", "1590": "ga as", "1591": "no at", "1592": "mi in", "1593": "b\u2019 es", "1594": "sa ap", "1595": "me of", "1596": "z\u2019 al", "1597": "re au", "1598": "c\u2019 en", "1599": "de in", "1600": "re ar", "1601": "ta on", "1602": "to av", "1603": "strut", "1604": "li ag", "1605": "mi er", "1606": "m\u2019 an", "1607": "zo an", "1608": "mo of", "1609": "la es", "1610": "ma or", "1611": "la ap", "1612": "mo in", "1613": "d\u2019 az", "1614": "pra a", "1615": "te os", "1616": "li \u2019n", "1617": "co eb", "1618": "ro av", "1619": "di in", "1620": "schiu", "1621": "mo on", "1622": "gne a", "1623": "tra u", "1624": "di af", "1625": "l\u2019 ap", "1626": "di an", "1627": "de as", "1628": "schio", "1629": "n\u2019 ap", "1630": "ch\u2019 o", "1631": "to es", "1632": "strin", "1633": "sgrie", "1634": "t\u2019 al", "1635": "t\u2019 es", "1636": "do an", "1637": "re eb", "1638": "cia a", "1639": "va at", "1640": "ci as", "1641": "lia a", "1642": "se ap", "1643": "tra e", "1644": "sfran", "1645": "spiac", "1646": "stran", "1647": "l\u2019 ol", "1648": "to ac", "1649": "me ar", "1650": "za er", "1651": "co at", "1652": "va an", "1653": "glian", "1654": "d\u2019 on", "1655": "lo at", "1656": "ti as", "1657": "co al", "1658": "lo as", "1659": "m\u2019 om", "1660": "r\u2019 al", "1661": "sciut", "1662": "to ov", "1663": "li \u2019m", "1664": "gno a", "1665": "stroz", "1666": "l\u00ec en", "1667": "dre e", "1668": "chi e", "1669": "pi in", "1670": "si ac", "1671": "to et", "1672": "chi a", "1673": "zia e", "1674": "gne o", "1675": "te at", "1676": "li ar", "1677": "no ag", "1678": "zo in", "1679": "che e", "1680": "gia o", "1681": "l\u2019 im", "1682": "le an", "1683": "vi \u2019m", "1684": "fu im", "1685": "de am", "1686": "so in", "1687": "co ac", "1688": "to ol", "1689": "to ab", "1690": "s\u2019 op", "1691": "le or", "1692": "n\u2019 av", "1693": "li et", "1694": "d\u2019 oc", "1695": "di al", "1696": "ne \u2019n", "1697": "ro um", "1698": "ra av", "1699": "si en", "1700": "ia al", "1701": "ch\u2019 i", "1702": "mo ar", "1703": "ghian", "1704": "li of", "1705": "lo ar", "1706": "se ec", "1707": "ci ap", "1708": "l\u2019 uc", "1709": "so \u2019n", "1710": "mo es", "1711": "fe et", "1712": "qu\u2019 o", "1713": "ma an", "1714": "ma of", "1715": "st\u2019 o", "1716": "ra am", "1717": "di of", "1718": "do eb", "1719": "splen", "1720": "chiet", "1721": "ci am", "1722": "zio a", "1723": "me at", "1724": "ta el", "1725": "sciau", "1726": "d\u2019 ol", "1727": "gliel", "1728": "tra a", "1729": "la en", "1730": "n\u2019 am", "1731": "za in", "1732": "s\u2019 ag", "1733": "m\u2019 im", "1734": "re om", "1735": "ce av", "1736": "chioc", "1737": "te of", "1738": "sciam", "1739": "ra ot", "1740": "l\u2019 ae", "1741": "ro au", "1742": "mi am", "1743": "dio i", "1744": "l\u2019 er", "1745": "te or", "1746": "li in", "1747": "l\u2019 el", "1748": "sgiun", "1749": "bo av", "1750": "re ol", "1751": "ve al", "1752": "r\u2019 el", "1753": "ca an", "1754": "v\u2019 er", "1755": "sa es", "1756": "ta an", "1757": "scher", "1758": "ti et", "1759": "m\u2019 ad", "1760": "sa an", "1761": "tu ha", "1762": "so ab", "1763": "ce eu", "1764": "no er", "1765": "n\u2019 ol", "1766": "ma es", "1767": "se at", "1768": "no an", "1769": "ra uc", "1770": "la \u2019m", "1771": "de of", "1772": "de or", "1773": "to or", "1774": "li ul", "1775": "te ab", "1776": "po al", "1777": "re es", "1778": "so am", "1779": "se ac", "1780": "po in", "1781": "te on", "1782": "mo al", "1783": "mo or", "1784": "fu el", "1785": "pre a", "1786": "vo at", "1787": "l\u2019 am", "1788": "d\u2019 au", "1789": "na at", "1790": "co on", "1791": "te er", "1792": "se in", "1793": "do oc", "1794": "m\u2019 eb", "1795": "s\u2019 eb", "1796": "ro eb", "1797": "t\u2019 at", "1798": "di es", "1799": "na es", "1800": "ce al", "1801": "ste i", "1802": "di im", "1803": "vi in", "1804": "\u2019v\u2019 u", "1805": "ra al", "1806": "na ap", "1807": "li om", "1808": "to ap", "1809": "li am", "1810": "l\u2019 at", "1811": "v\u2019 eb", "1812": "si al", "1813": "ra on", "1814": "di ab", "1815": "sce a", "1816": "gna a", "1817": "t\u2019 ar", "1818": "la on", "1819": "dea u", "1820": "li ad", "1821": "mi \u2019n", "1822": "gliar", "1823": "si ol", "1824": "tri e", "1825": "te ap", "1826": "vi en", "1827": "sa on", "1828": "re im", "1829": "ro at", "1830": "spres", "1831": "cro a", "1832": "ha \u2019n", "1833": "li ap", "1834": "ce im", "1835": "qu\u2019 e", "1836": "ga an", "1837": "ta et", "1838": "s\u2019 av", "1839": "ia an", "1840": "gi ar", "1841": "ra eb", "1842": "n\u2019 on", "1843": "li es", "1844": "le ol", "1845": "do er", "1846": "do al", "1847": "so eb", "1848": "d\u2019 at", "1849": "d\u2019 es", "1850": "ro ap", "1851": "te al", "1852": "de ap", "1853": "si am", "1854": "me au", "1855": "s\u2019 at", "1856": "d\u2019 or", "1857": "do af", "1858": "lo im", "1859": "lo an", "1860": "t\u2019 ag", "1861": "chian", "1862": "ve es", "1863": "so at", "1864": "ca on", "1865": "l\u2019 om", "1866": "mi ef", "1867": "fu ap", "1868": "no as", "1869": "l\u2019 op", "1870": "l\u2019 ag", "1871": "to im", "1872": "l\u2019 ul", "1873": "ri ap", "1874": "la el", "1875": "d\u2019 in", "1876": "no ec", "1877": "ne af", "1878": "ne ap", "1879": "li ac", "1880": "sa og", "1881": "squar", "1882": "d\u2019 am", "1883": "glies", "1884": "me an", "1885": "schie", "1886": "te \u2019n", "1887": "n\u2019 an", "1888": "l\u2019 eb", "1889": "no or", "1890": "la al", "1891": "de au", "1892": "sto e", "1893": "l\u2019 on", "1894": "co ar", "1895": "na or", "1896": "li at", "1897": "ta ad", "1898": "no ar", "1899": "la av", "1900": "sa ac", "1901": "ne in", "1902": "de al", "1903": "strom", "1904": "li im", "1905": "s\u2019 im", "1906": "s\u2019 al", "1907": "li oc", "1908": "po av", "1909": "ve oc", "1910": "le ad", "1911": "la or", "1912": "le am", "1913": "re em", "1914": "ge et", "1915": "me ef", "1916": "le ar", "1917": "re et", "1918": "l\u2019 \u00e0n", "1919": "te ac", "1920": "ro am", "1921": "gni e", "1922": "ci al", "1923": "to in", "1924": "de eu", "1925": "te in", "1926": "sguar", "1927": "ce as", "1928": "s\u2019 em", "1929": "be ar", "1930": "ta eu", "1931": "t\u2019 an", "1932": "bra e", "1933": "n\u2019 uo", "1934": "ni es", "1935": "ze et", "1936": "co ad", "1937": "so en", "1938": "no au", "1939": "l\u2019 ec", "1940": "d\u2019 ap", "1941": "d\u2019 og", "1942": "t\u2019 om", "1943": "zi al", "1944": "bo al", "1945": "vo as", "1946": "s\u2019 af", "1947": "ta of", "1948": "zi at", "1949": "to eb", "1950": "pre e", "1951": "gliet", "1952": "de an", "1953": "rio a", "1954": "ne \u2019m", "1955": "ra ab", "1956": "mo im", "1957": "s\u2019 el", "1958": "l\u2019 uo", "1959": "de af", "1960": "na eb", "1961": "di av", "1962": "ra el", "1963": "s\u00ec \u2019n", "1964": "to ec", "1965": "d\u2019 eu", "1966": "tro u", "1967": "re ap", "1968": "que u", "1969": "la an", "1970": "le ap", "1971": "ne av", "1972": "li er", "1973": "za al", "1974": "re in", "1975": "vi of", "1976": "do es", "1977": "re on", "1978": "da in", "1979": "ti an", "1980": "s\u2019 in", "1981": "si as", "1982": "n\u2019 au", "1983": "que o", "1984": "schia", "1985": "ghien", "1986": "t\u2019 in", "1987": "scrip", "1988": "so al", "1989": "de on", "1990": "lo av", "1991": "m\u2019 es", "1992": "ta in", "1993": "to af", "1994": "l\u2019 en", "1995": "no ad", "1996": "smo a", "1997": "vi am", "1998": "mi ad", "1999": "glien", "2000": "sti o", "2001": "t\u2019 as", "2002": "schet", "2003": "na \u2019n", "2004": "se on", "2005": "ne ag", "2006": "ni an", "2007": "sgher", "2008": "chiap", "2009": "na ab", "2010": "to ar", "2011": "re ad", "2012": "v\u2019 ac", "2013": "l\u2019 um", "2014": "la ol", "2015": "s\u00ec \u2019m", "2016": "stras", "2017": "no ac", "2018": "ti in", "2019": "ni ap", "2020": "pi\u00f9 a", "2021": "t\u2019 af", "2022": "l\u2019 ab", "2023": "m\u2019 of", "2024": "na of", "2025": "m\u2019 as", "2026": "no al", "2027": "s\u00ec in", "2028": "l\u2019 in", "2029": "ce es", "2030": "ro ac", "2031": "ci ar", "2032": "m\u2019 ar", "2033": "d\u2019 os", "2034": "m\u2019 ab", "2035": "de \u2019n", "2036": "so an", "2037": "l\u2019 au", "2038": "d\u2019 as", "2039": "so as", "2040": "si an", "2041": "s\u2019 am", "2042": "scheg", "2043": "mo ac", "2044": "ta ar", "2045": "si of", "2046": "sta o", "2047": "za an", "2048": "ca in", "2049": "do as", "2050": "ro an", "2051": "va im", "2052": "st\u2019 u", "2053": "ro ar", "2054": "v\u2019 ar", "2055": "fo im", "2056": "zi ap", "2057": "s\u2019 of", "2058": "to as", "2059": "stroc", "2060": "n\u2019 om", "2061": "n\u2019 al", "2062": "lo ef", "2063": "ra as", "2064": "hi om", "2065": "le as", "2066": "vi an", "2067": "ta ac", "2068": "go al", "2069": "le av", "2070": "ne et", "2071": "za am", "2072": "vi ar", "2073": "se \u2019n", "2074": "lo ac", "2075": "te is", "2076": "t\u2019 ap", "2077": "l\u2019 ad", "2078": "te ad", "2079": "di az", "2080": "ne as", "2081": "to uc", "2082": "s\u2019 er", "2083": "suo a", "2084": "s\u2019 an", "2085": "do ar", "2086": "to al", "2087": "si \u2019n", "2088": "ch\u2019 u", "2089": "ti oc", "2090": "l\u2019 ot", "2091": "re en", "2092": "vi al", "2093": "sto o", "2094": "bre a", "2095": "no im", "2096": "v\u2019 et", "2097": "sti a", "2098": "stren", "2099": "so of", "2100": "t\u2019 im", "2101": "ta am", "2102": "scris", "2103": "mi ap", "2104": "be al", "2105": "si in", "2106": "spran", "2107": "si at", "2108": "v\u2019 es", "2109": "l\u2019 es", "2110": "do or", "2111": "lo on", "2112": "tri a", "2113": "va ar", "2114": "va id", "2115": "chi u", "2116": "m\u2019 ac", "2117": "la of", "2118": "tro i", "2119": "co ap", "2120": "pie e", "2121": "na in", "2122": "l\u2019 an", "2123": "ne on", "2124": "sa ol", "2125": "to ad", "2126": "vo al", "2127": "re as", "2128": "tro o", "2129": "de ag", "2130": "co in", "2131": "no in", "2132": "m\u2019 in", "2133": "be av", "2134": "d\u2019 an", "2135": "v\u2019 al", "2136": "no et", "2137": "scran", "2138": "fa az", "2139": "r\u2019 an", "2140": "te ol", "2141": "sta i", "2142": "sbe a", "2143": "qua e", "2144": "ga in", "2145": "to ag", "2146": "stric", "2147": "l\u2019 et", "2148": "co et", "2149": "d\u2019 el", "2150": "po ar", "2151": "ro im", "2152": "lo \u2019m", "2153": "t\u2019 el", "2154": "li as", "2155": "ri ar", "2156": "ne an", "2157": "be on", "2158": "do ec", "2159": "si og", "2160": "fu in", "2161": "ni in", "2162": "c\u2019 im", "2163": "s\u2019 ad", "2164": "d\u2019 om", "2165": "mo eb", "2166": "te au", "2167": "schic", "2168": "ni al", "2169": "ta un", "2170": "do el", "2171": "d\u2019 en", "2172": "da an", "2173": "ma \u2019n", "2174": "gia e", "2175": "m\u2019 ag", "2176": "m\u2019 af", "2177": "do ap", "2178": "se op", "2179": "re oc", "2180": "ne ov", "2181": "me am", "2182": "lo of", "2183": "po an", "2184": "l\u2019 af", "2185": "l\u2019 as", "2186": "t\u2019 am", "2187": "ta al", "2188": "se af", "2189": "le id", "2190": "gli u", "2191": "sa in", "2192": "ch\u2019 \u00ef", "2193": "sta u", "2194": "le al", "2195": "d\u2019 et", "2196": "zi \u2019m", "2197": "ne ac", "2198": "no ap", "2199": "ve ar", "2200": "no ab", "2201": "sta a", "2202": "ta op", "2203": "d\u2019 af", "2204": "ci \u2019n", "2205": "ro of", "2206": "ta ab", "2207": "ci av", "2208": "n\u2019 ag", "2209": "zia o", "2210": "ne em", "2211": "si av", "2212": "re ag", "2213": "l\u2019 em", "2214": "che u", "2215": "tr\u2019 e", "2216": "me af", "2217": "s\u2019 es", "2218": "ti or", "2219": "ge in", "2220": "mo ol", "2221": "re at", "2222": "ze es", "2223": "mi al", "2224": "ce at", "2225": "so ad", "2226": "l\u2019 ai", "2227": "si ad", "2228": "ce ar", "2229": "v\u2019 el", "2230": "va al", "2231": "t\u2019 ab", "2232": "t\u2019 av", "2233": "strac", "2234": "ti at", "2235": "ra of", "2236": "za et", "2237": "le oc", "2238": "l\u2019 ov", "2239": "l\u2019 ac", "2240": "do at", "2241": "li au", "2242": "sta e", "2243": "ma al", "2244": "li ab", "2245": "tro a", "2246": "do ac", "2247": "ne es", "2248": "de er", "2249": "sto a", "2250": "ro es", "2251": "zi ag", "2252": "pi ap", "2253": "ba un", "2254": "mo an", "2255": "gne u", "2256": "lo al", "2257": "di og", "2258": "si ar", "2259": "t\u2019 or", "2260": "sciar", "2261": "cea u", "2262": "ra ac", "2263": "ri al", "2264": "co er", "2265": "di ol", "2266": "si el", "2267": "za im", "2268": "ti al", "2269": "scioc", "2270": "to of", "2271": "te es", "2272": "de ac", "2273": "s\u2019 et", "2274": "d\u2019 al", "2275": "pi or", "2276": "ci af", "2277": "d\u2019 of", "2278": "do im", "2279": "te ag", "2280": "ci at", "2281": "gliam", "2282": "ve ap", "2283": "scial", "2284": "me ac", "2285": "li al", "2286": "s\u2019 os", "2287": "se al", "2288": "li uo", "2289": "ta es", "2290": "ta at", "2291": "na av", "2292": "s\u2019 ac", "2293": "streg", "2294": "vo ac", "2295": "le on", "2296": "ti ac", "2297": "te an", "2298": "lo eb", "2299": "zo ar", "2300": "l\u2019 or", "2301": "ti \u2019m", "2302": "me al", "2303": "d\u2019 im", "2304": "mo at", "2305": "ni en", "2306": "bi al", "2307": "l\u2019 of", "2308": "li eb", "2309": "re af", "2310": "ge an", "2311": "te as", "2312": "te em", "2313": "bo on", "2314": "ce in", "2315": "bra a", "2316": "ne ar", "2317": "di ac", "2318": "va eb", "2319": "le of", "2320": "la in", "2321": "ro on", "2322": "l\u2019 al", "2323": "ro oc", "2324": "v\u2019 an", "2325": "te om", "2326": "no am", "2327": "de om", "2328": "ghiot", "2329": "chiar", "2330": "so ap", "2331": "ca er", "2332": "ro al", "2333": "ce au", "2334": "ci an", "2335": "co av", "2336": "scias", "2337": "s\u2019 ap", "2338": "ch\u2019 e", "2339": "ta im", "2340": "di on", "2341": "lo in", "2342": "to an", "2343": "ma on", "2344": "le es", "2345": "re ac", "2346": "vi on", "2347": "lo \u2019n", "2348": "me in", "2349": "re am", "2350": "s\u2019 ar", "2351": "ri in", "2352": "sciol", "2353": "ci or", "2354": "vi ac", "2355": "re av", "2356": "li em", "2357": "la au", "2358": "za on", "2359": "cio e", "2360": "mo ec", "2361": "re ab", "2362": "ni am", "2363": "li uc", "2364": "ze or", "2365": "si im", "2366": "ve at", "2367": "re il", "2368": "ci ad", "2369": "v\u2019 of", "2370": "ra at", "2371": "to on", "2372": "fo et", "2373": "li on", "2374": "se an", "2375": "scrit", "2376": "n\u2019 ac", "2377": "s\u2019 as", "2378": "di or", "2379": "no af", "2380": "chias", "2381": "be as", "2382": "v\u2019 ab", "2383": "zi as", "2384": "n\u2019 in", "2385": "na ac", "2386": "po on", "2387": "to oc", "2388": "si or", "2389": "z\u2019 ar", "2390": "mi an", "2391": "di om", "2392": "ve an", "2393": "che a", "2394": "de ar", "2395": "mi ac", "2396": "si \u2019m", "2397": "li un", "2398": "ri on", "2399": "sci\u00e0n", "2400": "s\u2019 ab", "2401": "ce af", "2402": "v\u2019 am", "2403": "do on", "2404": "strat", "2405": "tra i", "2406": "r\u2019 es", "2407": "stret", "2408": "ta as", "2409": "go in", "2410": "cia e", "2411": "la \u2019n", "2412": "\u2019v\u2019 e", "2413": "tri o", "2414": "ni on", "2415": "sa im", "2416": "n\u2019 at", "2417": "d\u2019 ar", "2418": "gno u", "2419": "m\u2019 av", "2420": "l\u2019 ar", "2421": "ti ad", "2422": "ne im", "2423": "co an", "2424": "se un", "2425": "m\u2019 al", "2426": "za \u2019n", "2427": "ti \u2019n", "2428": "di ad", "2429": "st\u2019 a", "2430": "ri an", "2431": "va in", "2432": "pa es", "2433": "strel", "2434": "le at", "2435": "mo af", "2436": "ca en", "2437": "ra ec", "2438": "le \u2019n", "2439": "n\u2019 ar", "2440": "l\u2019 un", "2441": "vo an", "2442": "tro e", "2443": "l\u2019 oc", "2444": "d\u2019 ac", "2445": "schem", "2446": "ba in", "2447": "le \u2019m", "2448": "ghiac", "2449": "vi av", "2450": "gi an", "2451": "ta om", "2452": "zie o", "2453": "\u2019ve o", "2454": "ce ac", "2455": "te im", "2456": "le in", "2457": "ni av", "2458": "do am", "2459": "re al", "2460": "d\u2019 er", "2461": "ti im", "2462": "d\u2019 eb", "2463": "me as", "2464": "scian", "2465": "z\u2019 es", "2466": "cia o", "2467": "ra ad", "2468": "do in", "2469": "ti en", "2470": "zo as", "2471": "sciom", "2472": "li or", "2473": "m\u2019 ap", "2474": "ro in", "2475": "va \u2019n", "2476": "pa in", "2477": "pr\u2019 e", "2478": "v\u2019 in", "2479": "m\u2019 ol", "2480": "m\u2019 at", "2481": "lo es", "2482": "ni as", "2483": "d\u2019 ur", "2484": "ma ac", "2485": "ro ab", "2486": "stram", "2487": "f\u00e9 in", "2488": "n\u2019 er", "2489": "ce on", "2490": "ro or", "2491": "sco o", "2492": "chi o", "2493": "ch\u2019 a", "2494": "l\u2019 ef", "2495": "te af", "2496": "d\u2019 ab", "2497": "bra u", "2498": "l\u2019 os", "2499": "t\u2019 em", "2500": "s\u2019 en", "2501": "se es", "2502": "li an", "2503": "so et", "2504": "sco u", "2505": "t\u2019 ac", "2506": "n\u2019 ab", "2507": "go es", "2508": "no om", "2509": "lo af", "2510": "ro as", "2511": "li av", "2512": "so on", "2513": "te en", "2514": "me on", "2515": "n\u2019 eb", "2516": "ri ac", "2517": "to ef", "2518": "ra ap", "2519": "t\u00e0 in", "2520": "vi as", "2521": "ci in", "2522": "ti of", "2523": "ma ap", "2524": "no \u2019n", "2525": "ti ar", "2526": "ra an", "2527": "to at", "2528": "l\u2019 av", "2529": "le uc", "2530": "strug", "2531": "re an", "2532": "gliuo", "2533": "te ar", "2534": "ma in", "2535": "so es", "2536": "re ot", "2537": "strar", "2538": "cio a", "2539": "na on", "2540": "vo au", "2541": "no es", "2542": "ra es", "2543": "no av", "2544": "d\u2019 ot", "2545": "si er", "2546": "ce et", "2547": "ste a", "2548": "do ol", "2549": "na ar", "2550": "ra in", "2551": "lo er", "2552": "se as", "2553": "ne al", "2554": "zio u", "2555": "na af", "2556": "squil", "2557": "tr\u2019 a", "2558": "ra et", "2559": "me ap", "2560": "ra im", "2561": "ti av", "2562": "ti am", "2563": "bre o", "2564": "sto im", "2565": "dre eb", "2566": "tri of", "2567": "gne in", "2568": "mio in", "2569": "pie or", "2570": "ch\u00e9 in", "2571": "stro e", "2572": "dre an", "2573": "vio in", "2574": "sti al", "2575": "sta al", "2576": "vi \u00e8 a", "2577": "pio on", "2578": "mia in", "2579": "cio al", "2580": "qua in", "2581": "chio o", "2582": "tra an", "2583": "sco an", "2584": "tre in", "2585": "cio ap", "2586": "sto an", "2587": "cio an", "2588": "gi\u00e0 in", "2589": "chi ar", "2590": "gno al", "2591": "gue or", "2592": "lio an", "2593": "schiat", "2594": "tro in", "2595": "ch\u2019 ab", "2596": "sti el", "2597": "ri han", "2598": "d\u2019 han", "2599": "gne er", "2600": "rio an", "2601": "che in", "2602": "sto \u2019n", "2603": "bre et", "2604": "ria in", "2605": "cio as", "2606": "sto al", "2607": "st\u2019 ot", "2608": "gio uc", "2609": "glia o", "2610": "stro o", "2611": "stro a", "2612": "gio et", "2613": "sta ai", "2614": "tra \u2019m", "2615": "glio u", "2616": "tro av", "2617": "chi in", "2618": "tr\u2019 am", "2619": "gno ae", "2620": "tro al", "2621": "gni al", "2622": "co e i", "2623": "gio in", "2624": "lia an", "2625": "che om", "2626": "lio in", "2627": "glia a", "2628": "ch\u2019 in", "2629": "tri af", "2630": "tro ac", "2631": "dre al", "2632": "st\u2019 of", "2633": "st\u2019 al", "2634": "qua im", "2635": "ch\u2019 el", "2636": "vea \u2019m", "2637": "tr\u2019 ar", "2638": "pre al", "2639": "ch\u2019 et", "2640": "sto \u2019m", "2641": "c\u2019 han", "2642": "sma in", "2643": "tro ab", "2644": "ch\u2019 as", "2645": "ch\u2019 ap", "2646": "stra i", "2647": "gia ar", "2648": "schian", "2649": "ch\u00e9 ap", "2650": "str\u2019 u", "2651": "tra op", "2652": "sce as", "2653": "tr\u2019 om", "2654": "gne uo", "2655": "pre in", "2656": "schiet", "2657": "gne ac", "2658": "chi al", "2659": "sta an", "2660": "ch\u2019 eb", "2661": "ne han", "2662": "st\u2019 ac", "2663": "pre at", "2664": "sti in", "2665": "pi\u00f9 \u2019n", "2666": "che ha", "2667": "que es", "2668": "tri as", "2669": "che op", "2670": "ste in", "2671": "gne im", "2672": "sto in", "2673": "st\u2019 ul", "2674": "cie in", "2675": "tro \u2019m", "2676": "ch\u2019 ad", "2677": "chio u", "2678": "sti an", "2679": "ch\u2019 og", "2680": "sta in", "2681": "pre es", "2682": "gna in", "2683": "ch\u2019 al", "2684": "m\u2019 han", "2685": "sti er", "2686": "tro as", "2687": "zia or", "2688": "sti on", "2689": "sta ol", "2690": "t\u2019 han", "2691": "chi am", "2692": "cio et", "2693": "gna as", "2694": "st\u2019 es", "2695": "qua on", "2696": "ste an", "2697": "gni an", "2698": "l\u2019 \u00e8 u", "2699": "sto es", "2700": "stra e", "2701": "tr\u2019 al", "2702": "l\u2019 han", "2703": "che \u2019m", "2704": "mio \u2019n", "2705": "gno af", "2706": "chi ac", "2707": "gia al", "2708": "gia in", "2709": "ghe on", "2710": "sti un", "2711": "sce al", "2712": "chi af", "2713": "zie ec", "2714": "pi\u00f9 ap", "2715": "bra av", "2716": "sto ac", "2717": "che ar", "2718": "te han", "2719": "ch\u2019 ac", "2720": "bia in", "2721": "gno am", "2722": "tri es", "2723": "pi\u00f9 in", "2724": "cia on", "2725": "tro et", "2726": "cia im", "2727": "ch\u2019 er", "2728": "chio a", "2729": "sta im", "2730": "nio im", "2731": "ch\u2019 av", "2732": "sti es", "2733": "zia on", "2734": "go han", "2735": "dia as", "2736": "ch\u2019 at", "2737": "ch\u2019 ar", "2738": "tro ar", "2739": "gue an", "2740": "glio e", "2741": "tro im", "2742": "chi ap", "2743": "tra av", "2744": "tri ap", "2745": "bri ap", "2746": "gue on", "2747": "ch\u2019 ag", "2748": "n\u2019 han", "2749": "tro ap", "2750": "ch\u2019 en", "2751": "stri a", "2752": "bra in", "2753": "sco al", "2754": "tra ef", "2755": "pr\u2019 ar", "2756": "mia \u2019n", "2757": "dre es", "2758": "sti av", "2759": "tre an", "2760": "sto on", "2761": "cia ar", "2762": "sto ar", "2763": "ria of", "2764": "tro an", "2765": "sce el", "2766": "ch\u2019 am", "2767": "tri in", "2768": "lio as", "2769": "bre in", "2770": "ch\u2019 an", "2771": "glia u", "2772": "st\u2019 in", "2773": "gno in", "2774": "che an", "2775": "pre ac", "2776": "stro u", "2777": "qua of", "2778": "tro on", "2779": "sta og", "2780": "stri o", "2781": "scio e", "2782": "sto ap", "2783": "sti oc", "2784": "stra a", "2785": "scia e", "2786": "gne al", "2787": "st\u2019 an", "2788": "gne ef", "2789": "tre os", "2790": "sti or", "2791": "che \u2019n", "2792": "zia il", "2793": "dre as", "2794": "bia an", "2795": "ti han", "2796": "qu\u2019 an", "2797": "pre ar", "2798": "bre an", "2799": "gh\u2019 es", "2800": "sto at", "2801": "ch\u2019 or", "2802": "que al", "2803": "glio o", "2804": "chi on", "2805": "chi an", "2806": "ch\u00e9 as", "2807": "sio in", "2808": "sce an", "2809": "suo im", "2810": "stra u", "2811": "ria on", "2812": "li han", "2813": "gio ol", "2814": "gio on", "2815": "ch\u2019 es", "2816": "tro of", "2817": "st\u2019 ar", "2818": "re e a", "2819": "sto of", "2820": "stri af", "2821": "chia of", "2822": "stre in", "2823": "str\u2019 ar", "2824": "glio an", "2825": "chie et", "2826": "glio as", "2827": "str\u2019 or", "2828": "glio in", "2829": "glia in", "2830": "stro oc", "2831": "stri an", "2832": "stro al", "2833": "stro av", "2834": "stro ac", "2835": "n\u2019 \u00e8 im", "2836": "chio an", "2837": "sche er", "2838": "stro eb", "2839": "scia an", "2840": "ti e \u2019n", "2841": "glia as", "2842": "glia es", "2843": "scia al", "2844": "glio on", "2845": "glie eb", "2846": "glia ac", "2847": "sche ab", "2848": "stra ap", "2849": "stro es", "2850": "stri at", "2851": "li \u00e8 in", "2852": "si e \u2019n", "2853": "glia al", "2854": "stri al", "2855": "stra in", "2856": "dio han", "2857": "stri ef", "2858": "lo e \u2019n", "2859": "glie al", "2860": "stra ef", "2861": "glie an", "2862": "stro as", "2863": "chio in", "2864": "trio al", "2865": "za e in", "2866": "chia an", "2867": "glio es", "2868": "ti e ar", "2869": "stro an", "2870": "stro im", "2871": "stro in", "2872": "stri av", "2873": "stro uc", "2874": "re a \u2019n", "2875": "d\u2019 i\u2019 a", "2876": "mi smar", "2877": "chio at", "2878": "t\u2019 ho in", "2879": "sti a \u2019n", "2880": "ch\u2019 io \u2019n", "2881": "ch\u2019 e\u2019 \u2019n", "2882": "a ", "2883": "i ", "2884": "d ", "2885": "l ", "2886": "\u00ec ", "2887": "\u00f2 ", "2888": "o ", "2889": "\u00f9 ", "2890": "\u00ef ", "2891": "e ", "2892": "\u00e8 ", "2893": "p ", "2894": "s\u00ec ", "2895": "or ", "2896": "ti ", "2897": "vo ", "2898": "ve ", "2899": "ne ", "2900": "\u00e8e ", "2901": "oh ", "2902": "gi ", "2903": "le ", "2904": "z\u00f2 ", "2905": "ga ", "2906": "as ", "2907": "om ", "2908": "hi ", "2909": "fo ", "2910": "d\u00f2 ", "2911": "v\u00f2 ", "2912": "ta ", "2913": "to ", "2914": "va ", "2915": "p\u00f2 ", "2916": "go ", "2917": "fi ", "2918": "n\u00e9 ", "2919": "ie ", "2920": "zi ", "2921": "ca ", "2922": "al ", "2923": "di ", "2924": "u\u2019 ", "2925": "s\u00e9 ", "2926": "od ", "2927": "am ", "2928": "n\u00f2 ", "2929": "be ", "2930": "c\u00e9 ", "2931": "s\u00f9 ", "2932": "p\u00e8 ", "2933": "si ", "2934": "ha ", "2935": "g\u00ec ", "2936": "fe ", "2937": "n\u00e8 ", "2938": "b\u00ec ", "2939": "fa ", "2940": "\u00e9n ", "2941": "lo ", "2942": "ba ", "2943": "su ", "2944": "po ", "2945": "os ", "2946": "i\u2019 ", "2947": "f\u00f2 ", "2948": "el ", "2949": "us ", "2950": "t\u00e8 ", "2951": "ze ", "2952": "fu ", "2953": "ae ", "2954": "se ", "2955": "pi ", "2956": "io ", "2957": "\u00e0r ", "2958": "r\u00f2 ", "2959": "e\u2019 ", "2960": "\u00e0s ", "2961": "co ", "2962": "il ", "2963": "mo ", "2964": "ar ", "2965": "\u00f3n ", "2966": "\u00ecs ", "2967": "s\u00f2 ", "2968": "on ", "2969": "ad ", "2970": "ci ", "2971": "ed ", "2972": "s\u00e8 ", "2973": "b\u00f9 ", "2974": "v\u00ec ", "2975": "ro ", "2976": "un ", "2977": "l\u00e0 ", "2978": "l\u00f2 ", "2979": "so ", "2980": "n\u00ec ", "2981": "za ", "2982": "pe ", "2983": "t\u00ec ", "2984": "m\u00f2 ", "2985": "ir ", "2986": "pa ", "2987": "t\u00e9 ", "2988": "ho ", "2989": "ma ", "2990": "um ", "2991": "an ", "2992": "ei ", "2993": "te ", "2994": "sa ", "2995": "ge ", "2996": "tu ", "2997": "\u00e0m ", "2998": "ni ", "2999": "m\u00e8 ", "3000": "me ", "3001": "l\u00ec ", "3002": "et ", "3003": "f\u00e0 ", "3004": "vi ", "3005": "na ", "3006": "r\u00e0 ", "3007": "d\u00e9 ", "3008": "da ", "3009": "\u00f2n ", "3010": "t\u00e0 ", "3011": "c\u00f2 ", "3012": "li ", "3013": "bi ", "3014": "ab ", "3015": "\u00f9l ", "3016": "r\u00ec ", "3017": "c\u00e8 ", "3018": "mi ", "3019": "d\u00e0 ", "3020": "ce ", "3021": "ri ", "3022": "\u00f2s ", "3023": "g\u00f2 ", "3024": "zo ", "3025": "ai ", "3026": "d\u00ec ", "3027": "b\u00e8 ", "3028": "do ", "3029": "la ", "3030": "l\u00e8 ", "3031": "f\u00e9 ", "3032": "ra ", "3033": "\u00e8l ", "3034": "n\u00e0 ", "3035": "b\u00f2 ", "3036": "re ", "3037": "ia ", "3038": "bo ", "3039": "no ", "3040": "a\u2019 ", "3041": "in ", "3042": "t\u00f2 ", "3043": "de ", "3044": "t\u00f9 ", "3045": "seo ", "3046": "cen ", "3047": "sis ", "3048": "nir ", "3049": "pr\u00ec ", "3050": "di\u00e8 ", "3051": "pon ", "3052": "pi\u00f9 ", "3053": "r\u00ece ", "3054": "gi\u00f2 ", "3055": "der ", "3056": "r\u00ecs ", "3057": "cer ", "3058": "cai ", "3059": "sci ", "3060": "rea ", "3061": "fer ", "3062": "d\u00e8i ", "3063": "bei ", "3064": "tin ", "3065": "se\u2019 ", "3066": "tea ", "3067": "leo ", "3068": "lie ", "3069": "pie ", "3070": "nha ", "3071": "vra ", "3072": "uo\u2019 ", "3073": "c\u00e0n ", "3074": "gru ", "3075": "sin ", "3076": "suo ", "3077": "p\u00eca ", "3078": "dre ", "3079": "gea ", "3080": "beo ", "3081": "gi\u00e0 ", "3082": "fin ", "3083": "mi\u2019 ", "3084": "lui ", "3085": "due ", "3086": "pra ", "3087": "st\u00e9 ", "3088": "cin ", "3089": "cut ", "3090": "mon ", "3091": "c\u00f2b ", "3092": "gei ", "3093": "ces ", "3094": "pia ", "3095": "n\u00eca ", "3096": "nan ", "3097": "dr\u00f2 ", "3098": "pel ", "3099": "cum ", "3100": "nio ", "3101": "ta\u2019 ", "3102": "zio ", "3103": "uom ", "3104": "von ", "3105": "sai ", "3106": "tua ", "3107": "rir ", "3108": "cu\u2019 ", "3109": "gua ", "3110": "ier ", "3111": "cor ", "3112": "d\u00ece ", "3113": "var ", "3114": "deh ", "3115": "gu\u00ec ", "3116": "rum ", "3117": "gre ", "3118": "s\u00ece ", "3119": "tai ", "3120": "men ", "3121": "dal ", "3122": "gri ", "3123": "tei ", "3124": "mas ", "3125": "gai ", "3126": "ghe ", "3127": "ma\u2019 ", "3128": "fio ", "3129": "mia ", "3130": "ner ", "3131": "ber ", "3132": "t\u00e8s ", "3133": "lir ", "3134": "sia ", "3135": "ste ", "3136": "rui ", "3137": "vea ", "3138": "ter ", "3139": "bui ", "3140": "ni\u2019 ", "3141": "sce ", "3142": "b\u00e8l ", "3143": "gal ", "3144": "sio ", "3145": "tar ", "3146": "r\u00ecb ", "3147": "san ", "3148": "tr\u00e0 ", "3149": "pan ", "3150": "poi ", "3151": "lu\u2019 ", "3152": "tor ", "3153": "ron ", "3154": "nor ", "3155": "spe ", "3156": "gli ", "3157": "gin ", "3158": "far ", "3159": "vos ", "3160": "van ", "3161": "fu\u2019 ", "3162": "sco ", "3163": "tan ", "3164": "s\u00f9e ", "3165": "vii ", "3166": "sca ", "3167": "che ", "3168": "nil ", "3169": "bre ", "3170": "gna ", "3171": "gro ", "3172": "bra ", "3173": "bil ", "3174": "reo ", "3175": "t\u00f2n ", "3176": "st\u00ec ", "3177": "dei ", "3178": "nei ", "3179": "tis ", "3180": "mus ", "3181": "sua ", "3182": "ion ", "3183": "feo ", "3184": "pei ", "3185": "rin ", "3186": "pur ", "3187": "ieu ", "3188": "st\u00f2 ", "3189": "zan ", "3190": "die ", "3191": "sti ", "3192": "tre ", "3193": "nal ", "3194": "mar ", "3195": "fei ", "3196": "ve\u2019 ", "3197": "sem ", "3198": "na\u2019 ", "3199": "ren ", "3200": "e i ", "3201": "de\u2019 ", "3202": "dor ", "3203": "\u00f2th ", "3204": "han ", "3205": "cur ", "3206": "mae ", "3207": "tuo ", "3208": "con ", "3209": "plo ", "3210": "dri ", "3211": "e \u2019 ", "3212": "col ", "3213": "gio ", "3214": "pol ", "3215": "vem ", "3216": "val ", "3217": "pal ", "3218": "gel ", "3219": "dua ", "3220": "son ", "3221": "lea ", "3222": "pro ", "3223": "smo ", "3224": "man ", "3225": "cri ", "3226": "l\u00e8m ", "3227": "sii ", "3228": "gan ", "3229": "sel ", "3230": "pin ", "3231": "fur ", "3232": "tri ", "3233": "nai ", "3234": "noi ", "3235": "del ", "3236": "ghi ", "3237": "lia ", "3238": "re\u2019 ", "3239": "fue ", "3240": "sen ", "3241": "rie ", "3242": "f\u00e0t ", "3243": "cie ", "3244": "lis ", "3245": "g\u00f3n ", "3246": "nin ", "3247": "m\u00ecs ", "3248": "sit ", "3249": "n\u00f2i ", "3250": "sal ", "3251": "pr\u00e0 ", "3252": "fra ", "3253": "vin ", "3254": "n\u00ece ", "3255": "len ", "3256": "fil ", "3257": "tr\u00f2 ", "3258": "ri\u2019 ", "3259": "zai ", "3260": "dai ", "3261": "gue ", "3262": "dan ", "3263": "cra ", "3264": "c\u00f2l ", "3265": "tue ", "3266": "fia ", "3267": "pi\u00e9 ", "3268": "f\u00e9e ", "3269": "tus ", "3270": "sa\u2019 ", "3271": "rii ", "3272": "sta ", "3273": "ten ", "3274": "va\u2019 ", "3275": "fe\u2019 ", "3276": "lai ", "3277": "dro ", "3278": "tel ", "3279": "spa ", "3280": "gi\u2019 ", "3281": "tal ", "3282": "d\u00eca ", "3283": "tio ", "3284": "lin ", "3285": "pri ", "3286": "ver ", "3287": "bol ", "3288": "sc\u00ec ", "3289": "sie ", "3290": "voi ", "3291": "gne ", "3292": "cil ", "3293": "meo ", "3294": "rua ", "3295": "n\u00ect ", "3296": "n\u00e8s ", "3297": "dia ", "3298": "deo ", "3299": "rao ", "3300": "f\u00f3n ", "3301": "gra ", "3302": "vil ", "3303": "mul ", "3304": "ser ", "3305": "non ", "3306": "for ", "3307": "bir ", "3308": "su\u2019 ", "3309": "pea ", "3310": "fi\u2019 ", "3311": "fui ", "3312": "bri ", "3313": "f\u00e8l ", "3314": "r\u00f2l ", "3315": "dio ", "3316": "dee ", "3317": "dar ", "3318": "a a ", "3319": "ros ", "3320": "tes ", "3321": "gia ", "3322": "dir ", "3323": "nea ", "3324": "ceo ", "3325": "tui ", "3326": "bio ", "3327": "qua ", "3328": "sar ", "3329": "gno ", "3330": "dii ", "3331": "nem ", "3332": "tir ", "3333": "zon ", "3334": "mum ", "3335": "mun ", "3336": "t\u00e0n ", "3337": "cal ", "3338": "sun ", "3339": "cel ", "3340": "car ", "3341": "cre ", "3342": "peo ", "3343": "dr\u00ec ", "3344": "clo ", "3345": "duo ", "3346": "vas ", "3347": "gui ", "3348": "bis ", "3349": "min ", "3350": "tii ", "3351": "zie ", "3352": "per ", "3353": "zia ", "3354": "mea ", "3355": "nii ", "3356": "st\u00e0 ", "3357": "vei ", "3358": "tro ", "3359": "a i ", "3360": "t\u00f3n ", "3361": "som ", "3362": "lei ", "3363": "st\u00f9 ", "3364": "ven ", "3365": "p\u00f2s ", "3366": "ban ", "3367": "res ", "3368": "mer ", "3369": "mil ", "3370": "cia ", "3371": "gon ", "3372": "gor ", "3373": "lon ", "3374": "ean ", "3375": "vai ", "3376": "pir ", "3377": "neo ", "3378": "vau ", "3379": "vel ", "3380": "bar ", "3381": "que ", "3382": "fie ", "3383": "nis ", "3384": "ree ", "3385": "vol ", "3386": "gol ", "3387": "num ", "3388": "za\u2019 ", "3389": "pem ", "3390": "des ", "3391": "fi\u00f2 ", "3392": "g\u00f3r ", "3393": "cis ", "3394": "cui ", "3395": "ger ", "3396": "pi\u00e8 ", "3397": "bus ", "3398": "\u2018te ", "3399": "smi ", "3400": "lan ", "3401": "t\u00f2r ", "3402": "sue ", "3403": "tum ", "3404": "b\u00e0l ", "3405": "gis ", "3406": "hai ", "3407": "por ", "3408": "sir ", "3409": "rem ", "3410": "sol ", "3411": "fan ", "3412": "tun ", "3413": "zul ", "3414": "s\u00f3n ", "3415": "me\u2019 ", "3416": "sub ", "3417": "ror ", "3418": "te\u2019 ", "3419": "chi ", "3420": "ga\u2019 ", "3421": "vio ", "3422": "ci\u00f2 ", "3423": "bel ", "3424": "ran ", "3425": "sul ", "3426": "cle ", "3427": "coi ", "3428": "gni ", "3429": "no\u2019 ", "3430": "l\u00eco ", "3431": "rai ", "3432": "mii ", "3433": "mio ", "3434": "cul ", "3435": "don ", "3436": "ch\u00e9 ", "3437": "ben ", "3438": "bue ", "3439": "bee ", "3440": "lor ", "3441": "vam ", "3442": "v\u00ecd ", "3443": "\u2019ve ", "3444": "bin ", "3445": "ria ", "3446": "ler ", "3447": "bro ", "3448": "zar ", "3449": "qui ", "3450": "bia ", "3451": "rio ", "3452": "rer ", "3453": "unt ", "3454": "pu\u00f2 ", "3455": "gar ", "3456": "cio ", "3457": "mor ", "3458": "rar ", "3459": "fal ", "3460": "mee ", "3461": "lar ", "3462": "dui ", "3463": "can ", "3464": "sor ", "3465": "gu\u00f2 ", "3466": "bon ", "3467": "ton ", "3468": "m\u00eca ", "3469": "din ", "3470": "o a ", "3471": "n\u00f2s ", "3472": "cun ", "3473": "dra ", "3474": "gi\u00f9 ", "3475": "d\u00ect ", "3476": "pre ", "3477": "gir ", "3478": "nar ", "3479": "tra ", "3480": "b\u00eca ", "3481": "f\u00e0s ", "3482": "teo ", "3483": "dur ", "3484": "tem ", "3485": "tol ", "3486": "sma ", "3487": "da\u2019 ", "3488": "dil ", "3489": "vie ", "3490": "mie ", "3491": "ges ", "3492": "ian ", "3493": "ram ", "3494": "cro ", "3495": "ral ", "3496": "nie ", "3497": "til ", "3498": "mal ", "3499": "zii ", "3500": "bi\u00f2 ", "3501": "a e ", "3502": "ril ", "3503": "cei ", "3504": "bor ", "3505": "z\u00f2n ", "3506": "lio ", "3507": "dea ", "3508": "t\u00e9r ", "3509": "l\u00f2n ", "3510": "nol ", "3511": "pii ", "3512": "co\u2019 ", "3513": "par ", "3514": "sei ", "3515": "est ", "3516": "ra\u2019 ", "3517": "la\u2019 ", "3518": "l\u00eca ", "3519": "tia ", "3520": "r\u00f3n ", "3521": "sto ", "3522": "du\u2019 ", "3523": "mei ", "3524": "cem ", "3525": "mai ", "3526": "dem ", "3527": "dr\u00e0 ", "3528": "cea ", "3529": "ti\u2019 ", "3530": "via ", "3531": "lem ", "3532": "nia ", "3533": "nel ", "3534": "joi ", "3535": "ahi ", "3536": "rel ", "3537": "lee ", "3538": "vo\u2019 ", "3539": "fon ", "3540": "rei ", "3541": "o e ", "3542": "sui ", "3543": "di\u2019 ", "3544": "pio ", "3545": "ne\u2019 ", "3546": "fai ", "3547": "viam ", "3548": "dier ", "3549": "za e ", "3550": "drir ", "3551": "rent ", "3552": "zi e ", "3553": "gli\u00f2 ", "3554": "s\u2019 a ", "3555": "ti \u00e8 ", "3556": "cria ", "3557": "s\u00e9 i ", "3558": "ve i ", "3559": "na o ", "3560": "tria ", "3561": "va e ", "3562": "ghie ", "3563": "si o ", "3564": "trio ", "3565": "sie\u2019 ", "3566": "gnum ", "3567": "gi e ", "3568": "mian ", "3569": "l\u00e0 i ", "3570": "go a ", "3571": "stie ", "3572": "gaio ", "3573": "stre ", "3574": "bian ", "3575": "stil ", "3576": "pi\u00f9e ", "3577": "go e ", "3578": "miei ", "3579": "ze e ", "3580": "quei ", "3581": "be e ", "3582": "re e ", "3583": "vean ", "3584": "i il ", "3585": "bran ", "3586": "sfar ", "3587": "mo a ", "3588": "spri ", "3589": "cl\u00e8s ", "3590": "pri\u2019 ", "3591": "se \u00e8 ", "3592": "de a ", "3593": "vo e ", "3594": "schi ", "3595": "pia\u2019 ", "3596": "sper ", "3597": "fier ", "3598": "chin ", "3599": "rian ", "3600": "ti a ", "3601": "e \u2019n ", "3602": "io e ", "3603": "ge a ", "3604": "grue ", "3605": "ghia ", "3606": "a al ", "3607": "naio ", "3608": "la \u00e8 ", "3609": "stan ", "3610": "lien ", "3611": "st\u00e8r ", "3612": "no e ", "3613": "glia ", "3614": "toio ", "3615": "ne o ", "3616": "prio ", "3617": "po \u00e8 ", "3618": "gran ", "3619": "guon ", "3620": "bi a ", "3621": "o al ", "3622": "ta o ", "3623": "chi\u00f2 ", "3624": "siam ", "3625": "prai ", "3626": "zian ", "3627": "pa a ", "3628": "cral ", "3629": "po e ", "3630": "trar ", "3631": "gian ", "3632": "gnes ", "3633": "lo e ", "3634": "to a ", "3635": "pien ", "3636": "d\u2019 \u00e8 ", "3637": "plor ", "3638": "runt ", "3639": "o un ", "3640": "ba e ", "3641": "scio ", "3642": "sci\u00f2 ", "3643": "ca e ", "3644": "v\u2019 a ", "3645": "suol ", "3646": "steo ", "3647": "sa e ", "3648": "guai ", "3649": "e in ", "3650": "dron ", "3651": "li o ", "3652": "me a ", "3653": "di i ", "3654": "giar ", "3655": "te i ", "3656": "stri ", "3657": "\u2018qui ", "3658": "c\u00f2th ", "3659": "ciol ", "3660": "ver\u2019 ", "3661": "fiar ", "3662": "no a ", "3663": "ce a ", "3664": "ne \u00e8 ", "3665": "die\u2019 ", "3666": "scir ", "3667": "breo ", "3668": "buoi ", "3669": "\u00e8 il ", "3670": "lier ", "3671": "ri a ", "3672": "so e ", "3673": "o il ", "3674": "li \u00e8 ", "3675": "o in ", "3676": "vien ", "3677": "quam ", "3678": "scun ", "3679": "vuo\u2019 ", "3680": "rien ", "3681": "quia ", "3682": "lo a ", "3683": "pe e ", "3684": "fian ", "3685": "cean ", "3686": "ve e ", "3687": "fren ", "3688": "be i ", "3689": "ma a ", "3690": "do i ", "3691": "cian ", "3692": "mi e ", "3693": "gi\u00f9e ", "3694": "ciar ", "3695": "gnan ", "3696": "m\u2019 \u00e8 ", "3697": "prec ", "3698": "gier ", "3699": "ne a ", "3700": "muor ", "3701": "to \u00e8 ", "3702": "cion ", "3703": "spir ", "3704": "n\u2019 \u00e8 ", "3705": "ti i ", "3706": "mo i ", "3707": "zo a ", "3708": "bent ", "3709": "ga a ", "3710": "r\u2019 a ", "3711": "da i ", "3712": "tram ", "3713": "vian ", "3714": "so i ", "3715": "trui ", "3716": "re a ", "3717": "drea ", "3718": "a \u2019l ", "3719": "dria ", "3720": "di o ", "3721": "tra\u2019 ", "3722": "be a ", "3723": "fe e ", "3724": "ro i ", "3725": "za i ", "3726": "tran ", "3727": "tuoi ", "3728": "ri o ", "3729": "pi e ", "3730": "saia ", "3731": "guan ", "3732": "fi e ", "3733": "za o ", "3734": "po o ", "3735": "fu a ", "3736": "c\u2019 \u00e8 ", "3737": "chia ", "3738": "drel ", "3739": "stra ", "3740": "mo \u00e8 ", "3741": "stel ", "3742": "bree ", "3743": "te e ", "3744": "gior ", "3745": "ce i ", "3746": "so a ", "3747": "za \u00e8 ", "3748": "luia ", "3749": "ro \u00e8 ", "3750": "o \u2019n ", "3751": "vria ", "3752": "maia ", "3753": "so o ", "3754": "fior ", "3755": "trae ", "3756": "ve o ", "3757": "za a ", "3758": "re o ", "3759": "ghio ", "3760": "suoi ", "3761": "duol ", "3762": "svia ", "3763": "do \u00e8 ", "3764": "naut ", "3765": "ca o ", "3766": "zi a ", "3767": "co e ", "3768": "ge \u00e8 ", "3769": "gnun ", "3770": "gnia ", "3771": "te o ", "3772": "su i ", "3773": "ciai ", "3774": "bia\u2019 ", "3775": "la a ", "3776": "me i ", "3777": "ta e ", "3778": "diam ", "3779": "le i ", "3780": "prir ", "3781": "tr\u00e0s ", "3782": "bi e ", "3783": "prun ", "3784": "ciam ", "3785": "ma e ", "3786": "stai ", "3787": "ciel ", "3788": "lo \u00e8 ", "3789": "re i ", "3790": "ci a ", "3791": "maio ", "3792": "brei ", "3793": "gnin ", "3794": "zi \u00e8 ", "3795": "chel ", "3796": "ga o ", "3797": "a in ", "3798": "crea ", "3799": "pier ", "3800": "lo i ", "3801": "pron ", "3802": "ma o ", "3803": "cheo ", "3804": "pria ", "3805": "da o ", "3806": "gi a ", "3807": "ziar ", "3808": "frir ", "3809": "sunt ", "3810": "no i ", "3811": "chio ", "3812": "giun ", "3813": "pian ", "3814": "slao ", "3815": "scon ", "3816": "guis ", "3817": "e \u2019l ", "3818": "se i ", "3819": "blio ", "3820": "scia ", "3821": "pa e ", "3822": "gual ", "3823": "li a ", "3824": "guia ", "3825": "ci\u00f2l ", "3826": "pi\u00e9r ", "3827": "de \u00e8 ", "3828": "ce o ", "3829": "trea ", "3830": "zo e ", "3831": "trai ", "3832": "se o ", "3833": "gnus ", "3834": "mie\u2019 ", "3835": "st\u00f2r ", "3836": "sa o ", "3837": "stor ", "3838": "que\u2019 ", "3839": "ra i ", "3840": "piar ", "3841": "scar ", "3842": "quie ", "3843": "brio ", "3844": "sa i ", "3845": "vi a ", "3846": "sa \u00e8 ", "3847": "to i ", "3848": "ci e ", "3849": "a il ", "3850": "scer ", "3851": "gnar ", "3852": "scea ", "3853": "gioi ", "3854": "suon ", "3855": "ga e ", "3856": "gien ", "3857": "ta i ", "3858": "tuo\u2019 ", "3859": "tier ", "3860": "sian ", "3861": "do a ", "3862": "ro a ", "3863": "dail ", "3864": "puoi ", "3865": "gean ", "3866": "stea ", "3867": "pion ", "3868": "biar ", "3869": "quar ", "3870": "bria ", "3871": "ca a ", "3872": "fo \u00e8 ", "3873": "spro ", "3874": "\u00e8 \u2019l ", "3875": "se e ", "3876": "vuoi ", "3877": "s\u2019 \u00e8 ", "3878": "tien ", "3879": "ra \u00e8 ", "3880": "ze o ", "3881": "laia ", "3882": "cuor ", "3883": "tuon ", "3884": "lian ", "3885": "giam ", "3886": "to o ", "3887": "ci \u00e8 ", "3888": "vuol ", "3889": "na e ", "3890": "mo e ", "3891": "muoi ", "3892": "riai ", "3893": "blia ", "3894": "no \u00e8 ", "3895": "e or ", "3896": "trei ", "3897": "ni a ", "3898": "ce \u00e8 ", "3899": "quod ", "3900": "gnor ", "3901": "stro ", "3902": "vi e ", "3903": "quae ", "3904": "re \u00e8 ", "3905": "va a ", "3906": "nien ", "3907": "ti o ", "3908": "sier ", "3909": "ci o ", "3910": "na \u00e8 ", "3911": "quai ", "3912": "le e ", "3913": "vi o ", "3914": "stei ", "3915": "vi \u00e8 ", "3916": "se a ", "3917": "niam ", "3918": "grin ", "3919": "si i ", "3920": "ve a ", "3921": "mi i ", "3922": "giai ", "3923": "sc\u00eco ", "3924": "ched ", "3925": "ro e ", "3926": "co a ", "3927": "dean ", "3928": "l\u2019 \u00e8 ", "3929": "ra e ", "3930": "ca \u00e8 ", "3931": "\u00e8 in ", "3932": "ne e ", "3933": "vaio ", "3934": "d\u2019 i ", "3935": "br\u00f2t ", "3936": "do o ", "3937": "glio ", "3938": "la o ", "3939": "po i ", "3940": "nian ", "3941": "scie ", "3942": "le \u00e8 ", "3943": "bion ", "3944": "ti e ", "3945": "d\u00ec i ", "3946": "ph\u00e8l ", "3947": "frui ", "3948": "t\u2019 \u00e8 ", "3949": "sion ", "3950": "tu i ", "3951": "bo e ", "3952": "sti\u00f2 ", "3953": "com\u2019 ", "3954": "str\u00f2 ", "3955": "gnon ", "3956": "sche ", "3957": "na a ", "3958": "prie ", "3959": "dra\u2019 ", "3960": "drai ", "3961": "dien ", "3962": "da a ", "3963": "mi a ", "3964": "di e ", "3965": "va o ", "3966": "de i ", "3967": "brar ", "3968": "\u00e8 \u2019n ", "3969": "ma \u00e8 ", "3970": "de o ", "3971": "sa a ", "3972": "d\u00e8ch ", "3973": "go o ", "3974": "pluo ", "3975": "prei ", "3976": "ne i ", "3977": "ge e ", "3978": "co \u00e8 ", "3979": "gion ", "3980": "pa \u00e8 ", "3981": "so \u00e8 ", "3982": "fuor ", "3983": "si a ", "3984": "f\u00e9 i ", "3985": "li e ", "3986": "nail ", "3987": "bi i ", "3988": "co i ", "3989": "l\u00ec \u00e8 ", "3990": "li i ", "3991": "nier ", "3992": "me e ", "3993": "le a ", "3994": "glie ", "3995": "di a ", "3996": "si e ", "3997": "sci\u2019 ", "3998": "ce e ", "3999": "ni \u00e8 ", "4000": "sien ", "4001": "la e ", "4002": "ro o ", "4003": "de e ", "4004": "la i ", "4005": "quel ", "4006": "vier ", "4007": "quor ", "4008": "zion ", "4009": "ra o ", "4010": "suo\u2019 ", "4011": "stui ", "4012": "rean ", "4013": "qual ", "4014": "ni e ", "4015": "guir ", "4016": "t\u2019 i ", "4017": "spia ", "4018": "ciul ", "4019": "ta a ", "4020": "co o ", "4021": "laio ", "4022": "chie ", "4023": "nean ", "4024": "ma i ", "4025": "stia ", "4026": "tu \u2019 ", "4027": "ghi\u00f2 ", "4028": "ni o ", "4029": "v\u2019 \u00e8 ", "4030": "star ", "4031": "stin ", "4032": "i in ", "4033": "bo a ", "4034": "scel ", "4035": "tris ", "4036": "no o ", "4037": "te a ", "4038": "to e ", "4039": "gner ", "4040": "tree ", "4041": "cia\u2019 ", "4042": "vo a ", "4043": "da e ", "4044": "tean ", "4045": "ghin ", "4046": "me \u00e8 ", "4047": "pe i ", "4048": "si \u00e8 ", "4049": "guio ", "4050": "fien ", "4051": "ri e ", "4052": "caio ", "4053": "ta \u00e8 ", "4054": "te \u00e8 ", "4055": "tiam ", "4056": "do e ", "4057": "po a ", "4058": "gnel ", "4059": "le o ", "4060": "ra a ", "4061": "crin ", "4062": "buon ", "4063": "plar ", "4064": "go \u00e8 ", "4065": "va i ", "4066": "no un ", "4067": "gio a ", "4068": "tro a ", "4069": "s\u2019 un ", "4070": "zio e ", "4071": "smo a ", "4072": "gli e ", "4073": "tro e ", "4074": "mia e ", "4075": "to il ", "4076": "re i\u2019 ", "4077": "v\u2019 or ", "4078": "te \u2019l ", "4079": "gue \u00e8 ", "4080": "re il ", "4081": "t\u00e0 \u2019l ", "4082": "te \u2019n ", "4083": "b\u2019 io ", "4084": "chiar ", "4085": "ba il ", "4086": "mo al ", "4087": "bia e ", "4088": "to un ", "4089": "zo il ", "4090": "gui i ", "4091": "zi al ", "4092": "ba in ", "4093": "se io ", "4094": "la al ", "4095": "se ho ", "4096": "da i\u2019 ", "4097": "mi \u2019l ", "4098": "sto a ", "4099": "po ed ", "4100": "vi un ", "4101": "lo il ", "4102": "scuoi ", "4103": "cio e ", "4104": "rio a ", "4105": "zia a ", "4106": "gni e ", "4107": "dia e ", "4108": "sia e ", "4109": "sta a ", "4110": "so un ", "4111": "da or ", "4112": "re un ", "4113": "se il ", "4114": "si or ", "4115": "zia \u00e8 ", "4116": "se ai ", "4117": "ia oh ", "4118": "mi ad ", "4119": "li i\u2019 ", "4120": "sca i ", "4121": "ne ai ", "4122": "di il ", "4123": "zia o ", "4124": "di un ", "4125": "co i\u2019 ", "4126": "ne al ", "4127": "di \u2019l ", "4128": "pr\u2019 a ", "4129": "va un ", "4130": "ve al ", "4131": "pri a ", "4132": "ce al ", "4133": "po io ", "4134": "bio e ", "4135": "ro or ", "4136": "la \u2019l ", "4137": "pra e ", "4138": "sce i ", "4139": "n\u2019 ei ", "4140": "ne ed ", "4141": "sce a ", "4142": "sa ad ", "4143": "la in ", "4144": "ve a\u2019 ", "4145": "ti \u2019l ", "4146": "me ed ", "4147": "le or ", "4148": "ge or ", "4149": "la un ", "4150": "va io ", "4151": "ci in ", "4152": "ro un ", "4153": "sto \u00e8 ", "4154": "temps ", "4155": "d\u2019 ir ", "4156": "tri a ", "4157": "v\u2019 i\u2019 ", "4158": "gni a ", "4159": "za or ", "4160": "se \u2019n ", "4161": "ri al ", "4162": "gna a ", "4163": "li un ", "4164": "mi al ", "4165": "ma a\u2019 ", "4166": "se or ", "4167": "so \u00e8e ", "4168": "di \u2019n ", "4169": "no i\u2019 ", "4170": "r\u2019 al ", "4171": "ra il ", "4172": "so in ", "4173": "to i\u2019 ", "4174": "ste a ", "4175": "gri e ", "4176": "ma in ", "4177": "gno i ", "4178": "ti al ", "4179": "n\u00f2 \u2019l ", "4180": "gna \u00e8 ", "4181": "lio e ", "4182": "ni or ", "4183": "sciai ", "4184": "le al ", "4185": "bi un ", "4186": "ra al ", "4187": "stiam ", "4188": "gi al ", "4189": "ti ha ", "4190": "de il ", "4191": "lo al ", "4192": "praia ", "4193": "gno a ", "4194": "ro al ", "4195": "sa \u2019l ", "4196": "gui e ", "4197": "te il ", "4198": "go al ", "4199": "va ed ", "4200": "le ir ", "4201": "to ed ", "4202": "to ir ", "4203": "ce il ", "4204": "gno \u00e8 ", "4205": "ste e ", "4206": "co ad ", "4207": "ch\u2019 a ", "4208": "za il ", "4209": "gliar ", "4210": "ne ha ", "4211": "che e ", "4212": "bra e ", "4213": "to io ", "4214": "gna e ", "4215": "ra \u2019l ", "4216": "scian ", "4217": "na \u2019n ", "4218": "ro il ", "4219": "ge ai ", "4220": "ti \u2019n ", "4221": "le ab ", "4222": "v\u00f2 \u2019l ", "4223": "ne \u2019l ", "4224": "va a\u2019 ", "4225": "fu al ", "4226": "t\u2019 ho ", "4227": "tra \u2019 ", "4228": "se al ", "4229": "di ha ", "4230": "la a\u2019 ", "4231": "ce ha ", "4232": "to ha ", "4233": "li al ", "4234": "que e ", "4235": "lo ed ", "4236": "f\u00e9 \u2019l ", "4237": "le io ", "4238": "t\u2019 io ", "4239": "li ei ", "4240": "pe ad ", "4241": "b\u00f2 il ", "4242": "l\u2019 om ", "4243": "fa \u2019l ", "4244": "ne un ", "4245": "t\u2019 om ", "4246": "s\u2019 ei ", "4247": "qui e ", "4248": "pie a ", "4249": "che i ", "4250": "ni al ", "4251": "ga in ", "4252": "gli a ", "4253": "gue e ", "4254": "lo ai ", "4255": "sti e ", "4256": "qua a ", "4257": "t\u00ec \u2019l ", "4258": "cia e ", "4259": "sce e ", "4260": "me io ", "4261": "re ha ", "4262": "ta or ", "4263": "dre a ", "4264": "di a\u2019 ", "4265": "sta \u00e8 ", "4266": "zo al ", "4267": "ce a\u2019 ", "4268": "ro ad ", "4269": "te un ", "4270": "sta o ", "4271": "zia e ", "4272": "mo \u2019l ", "4273": "la ed ", "4274": "so \u2019l ", "4275": "cio a ", "4276": "no in ", "4277": "tro \u00e8 ", "4278": "li ad ", "4279": "re ho ", "4280": "gia \u00e8 ", "4281": "me a\u2019 ", "4282": "mo ad ", "4283": "dro o ", "4284": "sta e ", "4285": "za un ", "4286": "za ed ", "4287": "v\u2019 ha ", "4288": "te io ", "4289": "me ai ", "4290": "si el ", "4291": "mi ed ", "4292": "pe il ", "4293": "va il ", "4294": "de ad ", "4295": "r\u2019 io ", "4296": "ti ei ", "4297": "gio o ", "4298": "dio a ", "4299": "ve un ", "4300": "s\u00ec \u2019l ", "4301": "l\u00e0 \u2019l ", "4302": "ci ha ", "4303": "zi \u2019l ", "4304": "chier ", "4305": "ra io ", "4306": "lio \u00e8 ", "4307": "lo un ", "4308": "lo ad ", "4309": "stial ", "4310": "n\u00f2 in ", "4311": "bro e ", "4312": "ne a\u2019 ", "4313": "strar ", "4314": "lia e ", "4315": "c\u2019 io ", "4316": "di ad ", "4317": "ta io ", "4318": "chi e ", "4319": "no il ", "4320": "zi or ", "4321": "te ed ", "4322": "chi a ", "4323": "le ad ", "4324": "sme e ", "4325": "no io ", "4326": "fu \u2019l ", "4327": "li ha ", "4328": "na ed ", "4329": "no \u2019l ", "4330": "z\u00f2 \u2019l ", "4331": "ni il ", "4332": "d\u2019 el ", "4333": "no u\u2019 ", "4334": "da \u2019l ", "4335": "puesc ", "4336": "ca il ", "4337": "na ei ", "4338": "si \u2019n ", "4339": "pio a ", "4340": "dio e ", "4341": "ne or ", "4342": "ro ed ", "4343": "te u\u2019 ", "4344": "pre i ", "4345": "que \u00e8 ", "4346": "g\u2019 io ", "4347": "ti io ", "4348": "ta un ", "4349": "t\u2019 il ", "4350": "bi in ", "4351": "be ed ", "4352": "re ad ", "4353": "dro a ", "4354": "\u2019v\u2019 \u00e8 ", "4355": "gna o ", "4356": "t\u2019 el ", "4357": "no al ", "4358": "tre e ", "4359": "ia ed ", "4360": "po ha ", "4361": "te or ", "4362": "da io ", "4363": "ra ed ", "4364": "ch\u00e9 a ", "4365": "te ho ", "4366": "che \u2019 ", "4367": "de al ", "4368": "bo in ", "4369": "vi in ", "4370": "te ad ", "4371": "dre e ", "4372": "ta ed ", "4373": "ci io ", "4374": "vi il ", "4375": "gluol ", "4376": "co il ", "4377": "va al ", "4378": "m\u2019 ha ", "4379": "si ad ", "4380": "ta ha ", "4381": "stral ", "4382": "da un ", "4383": "ci al ", "4384": "ge un ", "4385": "tra a ", "4386": "no ha ", "4387": "bre a ", "4388": "lo ha ", "4389": "chian ", "4390": "che a ", "4391": "so a\u2019 ", "4392": "s\u00e9 il ", "4393": "di \u00e8e ", "4394": "gua e ", "4395": "c\u2019 ho ", "4396": "z\u00f2 il ", "4397": "schio ", "4398": "t\u2019 ha ", "4399": "ta ad ", "4400": "va in ", "4401": "ria \u00e8 ", "4402": "vrien ", "4403": "co al ", "4404": "se un ", "4405": "t\u00f2 \u2019l ", "4406": "l\u2019 un ", "4407": "l\u2019 ha ", "4408": "si il ", "4409": "pa or ", "4410": "me ad ", "4411": "ri a\u2019 ", "4412": "qua e ", "4413": "ve ad ", "4414": "r\u00ec \u2019l ", "4415": "ta il ", "4416": "le in ", "4417": "ti ai ", "4418": "to \u2019l ", "4419": "me al ", "4420": "c\u2019 ha ", "4421": "bre e ", "4422": "na ad ", "4423": "no ei ", "4424": "li io ", "4425": "ri \u2019l ", "4426": "ci or ", "4427": "voill ", "4428": "te a\u2019 ", "4429": "t\u00e9 \u2019l ", "4430": "tri o ", "4431": "dri e ", "4432": "v\u2019 el ", "4433": "la il ", "4434": "va \u2019l ", "4435": "re in ", "4436": "na in ", "4437": "ra or ", "4438": "gi \u2019l ", "4439": "tra e ", "4440": "ga il ", "4441": "di ed ", "4442": "ghiar ", "4443": "ce un ", "4444": "ra un ", "4445": "sto e ", "4446": "le i\u2019 ", "4447": "glior ", "4448": "se a\u2019 ", "4449": "di al ", "4450": "stier ", "4451": "mi il ", "4452": "ne il ", "4453": "mi un ", "4454": "ste i ", "4455": "r\u00f2 il ", "4456": "ta in ", "4457": "ia in ", "4458": "ro od ", "4459": "dia i ", "4460": "v\u2019 ei ", "4461": "ghe a ", "4462": "d\u2019 e\u2019 ", "4463": "stion ", "4464": "be in ", "4465": "ra ha ", "4466": "d\u2019 io ", "4467": "su in ", "4468": "ne ad ", "4469": "mo il ", "4470": "de un ", "4471": "ce ed ", "4472": "vra i ", "4473": "glien ", "4474": "tr\u2019 a ", "4475": "gia o ", "4476": "go il ", "4477": "pa \u2019l ", "4478": "pa ho ", "4479": "do al ", "4480": "tri e ", "4481": "n\u00e9 \u2019l ", "4482": "chion ", "4483": "ni \u2019l ", "4484": "ria e ", "4485": "be il ", "4486": "v\u2019 \u00e8n ", "4487": "do in ", "4488": "no a\u2019 ", "4489": "zio \u00e8 ", "4490": "s\u2019 io ", "4491": "do \u2019l ", "4492": "ce u\u2019 ", "4493": "zi il ", "4494": "me in ", "4495": "pri e ", "4496": "sco e ", "4497": "za in ", "4498": "mo ei ", "4499": "di io ", "4500": "se ad ", "4501": "pio e ", "4502": "na il ", "4503": "do ha ", "4504": "re io ", "4505": "s\u2019 e\u2019 ", "4506": "ch\u2019 \u00e8 ", "4507": "chiai ", "4508": "vi \u2019l ", "4509": "te ai ", "4510": "que a ", "4511": "ha \u2019l ", "4512": "se i\u2019 ", "4513": "se in ", "4514": "si al ", "4515": "sco i ", "4516": "gno e ", "4517": "lo a\u2019 ", "4518": "zio a ", "4519": "ti ad ", "4520": "gliel ", "4521": "ia il ", "4522": "zo in ", "4523": "ti ed ", "4524": "l\u00e0 il ", "4525": "pe \u2019l ", "4526": "sa il ", "4527": "co un ", "4528": "ro in ", "4529": "co io ", "4530": "gi\u00e0 i ", "4531": "zi ad ", "4532": "gi il ", "4533": "se \u2019l ", "4534": "sti o ", "4535": "zi un ", "4536": "sa un ", "4537": "cia i ", "4538": "do io ", "4539": "re a\u2019 ", "4540": "be i\u2019 ", "4541": "do il ", "4542": "l\u2019 ho ", "4543": "pre e ", "4544": "si in ", "4545": "gliai ", "4546": "v\u2019 e\u2019 ", "4547": "st\u2019 \u00e8 ", "4548": "do ed ", "4549": "no ad ", "4550": "cia a ", "4551": "su \u2019l ", "4552": "s\u2019 ha ", "4553": "gi un ", "4554": "ria i ", "4555": "na un ", "4556": "rio e ", "4557": "gnaio ", "4558": "qua \u00e8 ", "4559": "se e\u2019 ", "4560": "sci a ", "4561": "mo un ", "4562": "po in ", "4563": "so ad ", "4564": "tro i ", "4565": "be \u2019l ", "4566": "dro e ", "4567": "be al ", "4568": "va ad ", "4569": "gua a ", "4570": "to in ", "4571": "gue a ", "4572": "va ai ", "4573": "re or ", "4574": "ra a\u2019 ", "4575": "tr\u2019 \u00e8 ", "4576": "to al ", "4577": "ra ad ", "4578": "pre a ", "4579": "ca io ", "4580": "tri \u00e8 ", "4581": "re \u2019n ", "4582": "co \u2019l ", "4583": "lo or ", "4584": "to ad ", "4585": "ge in ", "4586": "gia a ", "4587": "ria o ", "4588": "gia e ", "4589": "to a\u2019 ", "4590": "za ha ", "4591": "na or ", "4592": "za i\u2019 ", "4593": "ti a\u2019 ", "4594": "li il ", "4595": "re ir ", "4596": "ta \u2019l ", "4597": "ge al ", "4598": "mi in ", "4599": "re ed ", "4600": "s\u2019 i\u2019 ", "4601": "ni ed ", "4602": "pa in ", "4603": "me \u2019l ", "4604": "ro i\u2019 ", "4605": "si \u2019l ", "4606": "be or ", "4607": "t\u00f2 un ", "4608": "to ai ", "4609": "no ai ", "4610": "le un ", "4611": "mo in ", "4612": "me \u2019n ", "4613": "sti a ", "4614": "li oh ", "4615": "gliea ", "4616": "pi un ", "4617": "lio a ", "4618": "pi in ", "4619": "n\u2019 ha ", "4620": "ne io ", "4621": "t\u2019 i\u2019 ", "4622": "po il ", "4623": "re al ", "4624": "sio e ", "4625": "da in ", "4626": "sa in ", "4627": "te in ", "4628": "strai ", "4629": "ghe e ", "4630": "ma \u2019n ", "4631": "na al ", "4632": "ma un ", "4633": "te ha ", "4634": "gna i ", "4635": "za \u2019l ", "4636": "do un ", "4637": "le ha ", "4638": "bro \u00e8 ", "4639": "d\u2019 ei ", "4640": "do ad ", "4641": "ha in ", "4642": "ca al ", "4643": "lo in ", "4644": "glier ", "4645": "tu \u2019l ", "4646": "co or ", "4647": "di or ", "4648": "ni in ", "4649": "chi \u00e8 ", "4650": "va or ", "4651": "ci a\u2019 ", "4652": "si u\u2019 ", "4653": "pa ed ", "4654": "glion ", "4655": "ta ho ", "4656": "glian ", "4657": "bra o ", "4658": "co in ", "4659": "te al ", "4660": "be un ", "4661": "ma io ", "4662": "si un ", "4663": "mi a\u2019 ", "4664": "ce in ", "4665": "li \u2019l ", "4666": "tra i ", "4667": "ta al ", "4668": "d\u2019 i\u2019 ", "4669": "g\u00f2 \u2019l ", "4670": "d\u00f2 \u2019l ", "4671": "li in ", "4672": "do a\u2019 ", "4673": "scion ", "4674": "ra in ", "4675": "da il ", "4676": "go \u2019l ", "4677": "ge ad ", "4678": "za al ", "4679": "to \u2019n ", "4680": "co ai ", "4681": "sti \u00e8 ", "4682": "ghi e ", "4683": "va \u2019n ", "4684": "fo or ", "4685": "vo in ", "4686": "zo \u2019l ", "4687": "zi ai ", "4688": "no ed ", "4689": "se ir ", "4690": "s\u2019 el ", "4691": "ti il ", "4692": "za oh ", "4693": "m\u2019 io ", "4694": "d\u2019 un ", "4695": "ra \u2019n ", "4696": "ghiai ", "4697": "sciar ", "4698": "me un ", "4699": "bi il ", "4700": "te i\u2019 ", "4701": "na ha ", "4702": "to or ", "4703": "g\u00ec \u2019l ", "4704": "stian ", "4705": "bo a\u2019 ", "4706": "cia o ", "4707": "v\u2019 ho ", "4708": "li or ", "4709": "ca in ", "4710": "ge il ", "4711": "la io ", "4712": "qua o ", "4713": "ria \u2019 ", "4714": "r\u00f2 \u2019l ", "4715": "p\u2019 io ", "4716": "ma il ", "4717": "ria a ", "4718": "po \u2019l ", "4719": "da al ", "4720": "me il ", "4721": "ve il ", "4722": "gio e ", "4723": "ch\u00e9 i ", "4724": "po al ", "4725": "gra o ", "4726": "de \u2019l ", "4727": "ve in ", "4728": "ci il ", "4729": "co u\u2019 ", "4730": "ne in ", "4731": "staio ", "4732": "bra a ", "4733": "bi \u2019l ", "4734": "ti un ", "4735": "so il ", "4736": "so al ", "4737": "di in ", "4738": "v\u2019 io ", "4739": "mo ha ", "4740": "fu il ", "4741": "s\u00e9 in ", "4742": "ci \u2019l ", "4743": "ti in ", "4744": "le il ", "4745": "ro a\u2019 ", "4746": "stran ", "4747": "co a\u2019 ", "4748": "le \u2019l ", "4749": "ma \u2019l ", "4750": "do or ", "4751": "svuol ", "4752": "de in ", "4753": "de ed ", "4754": "ri in ", "4755": "ve \u2019l ", "4756": "n\u2019 io ", "4757": "tra \u00e8 ", "4758": "mo ed ", "4759": "ch\u00e9 \u2019n ", "4760": "che al ", "4761": "chi il ", "4762": "pu\u00f2 \u2019l ", "4763": "sce in ", "4764": "gro un ", "4765": "stro o ", "4766": "gio al ", "4767": "ri e \u2019 ", "4768": "c\u2019 ha\u2019 ", "4769": "pia in ", "4770": "sta \u2019n ", "4771": "che \u2019n ", "4772": "n\u2019 uom ", "4773": "trio e ", "4774": "tr\u2019 a\u2019 ", "4775": "gi\u00e0 \u2019l ", "4776": "sc\u2019 io ", "4777": "chi \u2019n ", "4778": "qua al ", "4779": "gna un ", "4780": "tri ad ", "4781": "gia il ", "4782": "pra ed ", "4783": "stro i ", "4784": "l\u2019 uom ", "4785": "ne han ", "4786": "spra e ", "4787": "tro ad ", "4788": "ste il ", "4789": "sco il ", "4790": "chi \u2019l ", "4791": "ti e i ", "4792": "schi a ", "4793": "vea \u2019l ", "4794": "ti han ", "4795": "che io ", "4796": "dro in ", "4797": "gne al ", "4798": "gio in ", "4799": "glia o ", "4800": "gliuol ", "4801": "ria il ", "4802": "stra e ", "4803": "ghi in ", "4804": "che in ", "4805": "cia in ", "4806": "ne e \u2019 ", "4807": "scia a ", "4808": "gli al ", "4809": "mia al ", "4810": "chi in ", "4811": "gia un ", "4812": "m\u2019 hai ", "4813": "ba e \u2019 ", "4814": "na\u2019 il ", "4815": "li ha\u2019 ", "4816": "scia e ", "4817": "chi ei ", "4818": "sti ha ", "4819": "rio il ", "4820": "pre ha ", "4821": "gia or ", "4822": "ch\u2019 e\u2019 ", "4823": "sa e \u2019 ", "4824": "bre a\u2019 ", "4825": "tro al ", "4826": "gna il ", "4827": "gia \u2019l ", "4828": "to hai ", "4829": "bra ad ", "4830": "sto in ", "4831": "ch\u00e9 il ", "4832": "lio ed ", "4833": "gio ha ", "4834": "tri or ", "4835": "bia in ", "4836": "ti e \u2019 ", "4837": "sto il ", "4838": "ste in ", "4839": "lia il ", "4840": "gio il ", "4841": "gna in ", "4842": "qua in ", "4843": "zio al ", "4844": "che \u2019l ", "4845": "m\u2019 han ", "4846": "dia in ", "4847": "ci e \u2019 ", "4848": "gne \u2019l ", "4849": "que al ", "4850": "dre al ", "4851": "pre a\u2019 ", "4852": "gli un ", "4853": "t\u2019 hai ", "4854": "sta al ", "4855": "chio e ", "4856": "che un ", "4857": "ch\u2019 un ", "4858": "tre i\u2019 ", "4859": "glio o ", "4860": "ro e \u2019 ", "4861": "chi a\u2019 ", "4862": "gna \u2019l ", "4863": "cia ir ", "4864": "sti \u2019l ", "4865": "qui \u2019l ", "4866": "sche o ", "4867": "pi\u00f9 \u2019l ", "4868": "gl\u2019 io ", "4869": "tro il ", "4870": "schiar ", "4871": "schi o ", "4872": "sti il ", "4873": "ch\u2019 in ", "4874": "que a\u2019 ", "4875": "pria e ", "4876": "ch\u2019 io ", "4877": "que i\u2019 ", "4878": "ghi al ", "4879": "pi\u00e9 \u2019l ", "4880": "st\u2019 ho ", "4881": "ghi \u2019l ", "4882": "chio \u00e8 ", "4883": "ni e \u2019 ", "4884": "sto ha ", "4885": "bra od ", "4886": "gi\u00e0 il ", "4887": "stro \u00e8 ", "4888": "ch\u2019 al ", "4889": "glio a ", "4890": "li han ", "4891": "fra \u2019l ", "4892": "ch\u00e9 \u2019l ", "4893": "sto ad ", "4894": "gno a\u2019 ", "4895": "gue in ", "4896": "t\u2019 ha\u2019 ", "4897": "va e i ", "4898": "glia a ", "4899": "cia il ", "4900": "cia al ", "4901": "gno il ", "4902": "che a\u2019 ", "4903": "gno in ", "4904": "scio a ", "4905": "chia e ", "4906": "d\u2019 uom ", "4907": "stro e ", "4908": "gno ed ", "4909": "tre in ", "4910": "l\u2019 hai ", "4911": "tro ha ", "4912": "rio ha ", "4913": "ch\u2019 el ", "4914": "pra \u2019l ", "4915": "que il ", "4916": "ci\u00f2 il ", "4917": "fia il ", "4918": "qui un ", "4919": "dio in ", "4920": "smo in ", "4921": "stra a ", "4922": "dia \u2019l ", "4923": "ne e i ", "4924": "ro hai ", "4925": "gio ad ", "4926": "tro in ", "4927": "tri il ", "4928": "bra in ", "4929": "tra i\u2019 ", "4930": "ch\u2019 a\u2019 ", "4931": "pre al ", "4932": "gi\u00f9 \u2019l ", "4933": "tra \u2019l ", "4934": "so hai ", "4935": "chi ha ", "4936": "tra in ", "4937": "chio a ", "4938": "que in ", "4939": "tro i\u2019 ", "4940": "c\u2019 han ", "4941": "gno ha ", "4942": "ni e i ", "4943": "dria e ", "4944": "glie e ", "4945": "tre al ", "4946": "gli\u00f2 i ", "4947": "di\u2019 \u2019l ", "4948": "que ad ", "4949": "se\u2019 in ", "4950": "glia e ", "4951": "strans ", "4952": "ghia a ", "4953": "ci\u00f2 \u2019l ", "4954": "tri \u2019l ", "4955": "gna a\u2019 ", "4956": "\u2019ve \u2019l ", "4957": "rio ho ", "4958": "si e \u2019 ", "4959": "zia il ", "4960": "nia il ", "4961": "dri ai ", "4962": "glio e ", "4963": "ch\u2019 om ", "4964": "zia in ", "4965": "cia un ", "4966": "glia \u00e8 ", "4967": "stro a ", "4968": "qu\u2019 io ", "4969": "cea il ", "4970": "stri e ", "4971": "ghio e ", "4972": "que or ", "4973": "ch\u2019 ei ", "4974": "nio al ", "4975": "ch\u2019 i\u2019 ", "4976": "se uom ", "4977": "smo al ", "4978": "tro ai ", "4979": "pria o ", "4980": "pra in ", "4981": "so\u2019 \u2019n ", "4982": "tre un ", "4983": "pra al ", "4984": "me e \u2019 ", "4985": "gliaio ", "4986": "sta in ", "4987": "sti in ", "4988": "di e \u2019 ", "4989": "ch\u2019 \u00e8i ", "4990": "cia ad ", "4991": "sc\u00ec \u2019l ", "4992": "sia \u2019l ", "4993": "sta un ", "4994": "tr\u2019 al ", "4995": "pre \u2019l ", "4996": "c\u2019 hai ", "4997": "do hai ", "4998": "pre in ", "4999": "stie e ", "5000": "tro a\u2019 ", "5001": "gno ad ", "5002": "rio in ", "5003": "que io ", "5004": "gliuoi ", "5005": "tra al ", "5006": "ch\u2019 or ", "5007": "cio ed ", "5008": "sce il ", "5009": "stia e ", "5010": "scia o ", "5011": "stio e ", "5012": "gue il ", "5013": "che il ", "5014": "tro un ", "5015": "ch\u2019 ai ", "5016": "gno al ", "5017": "ch\u2019 ad ", "5018": "tre il ", "5019": "gu\u00ec \u2019l ", "5020": "tro io ", "5021": "sto al ", "5022": "ria al ", "5023": "gua in ", "5024": "zie al ", "5025": "tra il ", "5026": "vra \u2019l ", "5027": "gni in ", "5028": "bia \u2019l ", "5029": "ra hai ", "5030": "tro ed ", "5031": "te han ", "5032": "stra \u00e8 ", "5033": "po e \u2019 ", "5034": "ra han ", "5035": "chi al ", "5036": "qua io ", "5037": "sta il ", "5038": "ghiaio ", "5039": "sto io ", "5040": "bio ed ", "5041": "pa e \u2019 ", "5042": "tr\u2019 io ", "5043": "due \u2019l ", "5044": "s\u2019 hai ", "5045": "tro \u2019l ", "5046": "gno or ", "5047": "qua il ", "5048": "v\u2019 \u00e8 \u2019l ", "5049": "le e \u2019l ", "5050": "no e \u2019l ", "5051": "chio ha ", "5052": "go \u00e8 in ", "5053": "glio ai ", "5054": "to \u00e8 \u2019l ", "5055": "lio e i ", "5056": "qu\u2019 ieu ", "5057": "ch\u2019 uom ", "5058": "ne e \u2019l ", "5059": "se e \u2019l ", "5060": "bre e \u2019 ", "5061": "lo \u00e8 in ", "5062": "stro or ", "5063": "ca e \u2019l ", "5064": "stra \u2019l ", "5065": "chio al ", "5066": "ti e \u2019l ", "5067": "vo e \u2019l ", "5068": "la e \u2019l ", "5069": "so e \u2019l ", "5070": "co e \u2019l ", "5071": "na e \u2019l ", "5072": "ra e \u2019l ", "5073": "do e \u2019n ", "5074": "stro in ", "5075": "re e \u2019l ", "5076": "scia il ", "5077": "glio or ", "5078": "chio in ", "5079": "mi e \u2019l ", "5080": "te e \u2019l ", "5081": "me e \u2019l ", "5082": "chia al ", "5083": "go e \u2019l ", "5084": "stro ed ", "5085": "po e \u2019l ", "5086": "va e \u2019l ", "5087": "re e in ", "5088": "to e \u2019l ", "5089": "ta e \u2019n ", "5090": "to o al ", "5091": "ci e \u2019l ", "5092": "schio e ", "5093": "zo e \u2019l ", "5094": "ma e \u2019l ", "5095": "tr\u2019 ier ", "5096": "v\u2019 \u00e8 in ", "5097": "be e \u2019l ", "5098": "sa e \u2019l ", "5099": "dia e i ", "5100": "ro e \u2019l ", "5101": "stri in ", "5102": "va e \u2019n ", "5103": "bo e \u2019l ", "5104": "m\u2019 \u00e8 \u2019l ", "5105": "ta e \u2019l ", "5106": "m\u2019 \u00e8 il ", "5107": "stia ad ", "5108": "sci\u00f2 il ", "5109": "l\u2019 \u00e8 \u2019l ", "5110": "glia al ", "5111": "za e \u2019l ", "5112": "me e \u2019n ", "5113": "te e \u2019n ", "5114": "stro il ", "5115": "tra e \u2019 ", "5116": "de e \u2019n ", "5117": "dre e \u2019 ", "5118": "glia in ", "5119": "chio il ", "5120": "glio in ", "5121": "glie in ", "5122": "le e il ", "5123": "ce e \u2019l ", "5124": "mo e \u2019l ", "5125": "si e \u2019l ", "5126": "gne uom ", "5127": "stra il ", "5128": "ga e \u2019l ", "5129": "glia il ", "5130": "glia un ", "5131": "che e \u2019 ", "5132": "de e \u2019l ", "5133": "schia e ", "5134": "glie \u2019l ", "5135": "s\u2019 i\u2019 \u2019l ", "5136": "dre e \u2019l ", "5137": "sta \u00e8 in ", "5138": "to ha \u2019l ", "5139": "tra e \u2019l ", "5140": "tr\u2019 \u00e8 \u2019l ", "5141": "dio \u00e8 \u2019l ", "5142": "tre e \u2019l ", "5143": "ria \u00e8 \u2019l ", "5144": "l\u2019 ha in ", "5145": "ria e \u2019l ", "5146": "schi uom ", "5147": "sta e \u2019l ", "5148": "pra e \u2019l ", "5149": "ch\u2019 \u00e8 in ", "5150": "bia e \u2019l ", "5151": "zie e \u2019l ", "5152": "c\u2019 ha \u2019l ", "5153": "tri e \u2019l ", "5154": "cia e \u2019l ", "5155": "dio e \u2019l ", "5156": "so ha \u2019l ", "5157": "bra e \u2019l ", "5158": "stie hai ", "5159": "v\u2019 ha \u2019l ", "5160": "d\u2019 io \u2019l ", "5161": "que e \u2019l ", "5162": "tro e \u2019l ", "5163": "te ha in ", "5164": "gli e in ", "5165": "chi e \u2019l ", "5166": "st\u2019 \u00e8 \u2019l ", "5167": "zio e \u2019l ", "5168": "gio e \u2019l ", "5169": "sti \u00e8 \u2019l ", "5170": "chio e \u2019l ", "5171": "chio o \u2019l ", "5172": "glio e \u2019l ", "5173": "chie e \u2019n ", "5174": "stro e \u2019l ", "5175": "ch\u2019 io \u2019l ", "5176": "ch\u2019 i\u2019 \u2019l ", "5177": "scia e \u2019l "}