{"0": "", "1": "<v>", "2": "</v>", "3": "<t>", "4": "</t>", "5": " ", "6": "\u2019", "7": "e", "8": "\u00ec", "9": "\u00f2", "10": "l", "11": "\u00eb", "12": "o", "13": "\u00f9", "14": "u", "15": "\u00e8", "16": "d", "17": "p", "18": "\u00ef", "19": "i", "20": "\u00fc", "21": "a", "22": "\u00e9", "23": "bo", "24": "so", "25": "n\u2019", "26": "m\u00ef", "27": "d\u00ec", "28": "im", "29": "ru", "30": "l\u00eb", "31": "r\u00ef", "32": "op", "33": "al", "34": "mo", "35": "n\u00e9", "36": "v\u00eb", "37": "l\u00ec", "38": "b\u00eb", "39": "c\u2019", "40": "b\u00f2", "41": "v\u00f2", "42": "z\u00f2", "43": "t\u00fc", "44": "v\u00ec", "45": "go", "46": "l\u00e0", "47": "id", "48": "at", "49": "d\u00fc", "50": "d\u2019", "51": "ba", "52": "c\u00e8", "53": "f\u00eb", "54": "g\u00f2", "55": "me", "56": "er", "57": "ap", "58": "au", "59": "or", "60": "ad", "61": "g\u2019", "62": "du", "63": "g\u00e8", "64": "z\u2019", "65": "il", "66": "\u00e0m", "67": "oh", "68": "b\u00e8", "69": "pu", "70": "l\u00fc", "71": "is", "72": "mi", "73": "ol", "74": "cu", "75": "ei", "76": "n\u00eb", "77": "\u00e8n", "78": "se", "79": "si", "80": "os", "81": "fe", "82": "r\u00e8", "83": "ot", "84": "ha", "85": "ca", "86": "lu", "87": "c\u00f2", "88": "m\u00e4", "89": "l\u00f6", "90": "uc", "91": "t\u00f9", "92": "\u00e8l", "93": "s\u00e9", "94": "do", "95": "l\u00e8", "96": "pa", "97": "po", "98": "e\u2019", "99": "f\u00f3", "100": "r\u00f2", "101": "p\u2019", "102": "pe", "103": "re", "104": "eb", "105": "z\u00ef", "106": "us", "107": "f\u00e9", "108": "d\u00e0", "109": "da", "110": "pi", "111": "gi", "112": "bi", "113": "ac", "114": "xi", "115": "ar", "116": "ge", "117": "ec", "118": "ie", "119": "su", "120": "s\u00ec", "121": "az", "122": "p\u00e8", "123": "n\u00ec", "124": "c\u00fc", "125": "r\u00eb", "126": "t\u00f2", "127": "\u00f3n", "128": "fo", "129": "on", "130": "uo", "131": "v\u00e8", "132": "ef", "133": "g\u00ef", "134": "\u00e8v", "135": "p\u00f2", "136": "m\u00eb", "137": "n\u00e0", "138": "zi", "139": "f\u00f2", "140": "s\u00e0", "141": "\u00f9l", "142": "c\u00ec", "143": "ov", "144": "\u00e8e", "145": "ul", "146": "s\u00e8", "147": "no", "148": "od", "149": "fi", "150": "ir", "151": "av", "152": "t\u00e8", "153": "m\u00e8", "154": "d\u00f2", "155": "ia", "156": "ve", "157": "af", "158": "eu", "159": "p\u00ec", "160": "co", "161": "em", "162": "vo", "163": "g\u00fc", "164": "ma", "165": "g\u00f3", "166": "\u2019m", "167": "g\u00ec", "168": "ab", "169": "c\u00ef", "170": "b\u00f9", "171": "s\u00ef", "172": "ag", "173": "la", "174": "zo", "175": "\u00e8i", "176": "ho", "177": "v\u00ef", "178": "et", "179": "\u00f2s", "180": "s\u00f2", "181": "to", "182": "te", "183": "ex", "184": "am", "185": "f\u00ef", "186": "fu", "187": "\u00e0n", "188": "r\u00e0", "189": "va", "190": "\u00e0r", "191": "n\u00f2", "192": "t\u00e9", "193": "ze", "194": "t\u00ec", "195": "om", "196": "mu", "197": "n\u00fc", "198": "p\u00eb", "199": "p\u00fc", "200": "sa", "201": "hi", "202": "vi", "203": "b\u00ef", "204": "be", "205": "es", "206": "t\u00e0", "207": "iu", "208": "ti", "209": "as", "210": "a\u2019", "211": "\u2019l", "212": "ra", "213": "ai", "214": "n\u00ef", "215": "c\u00eb", "216": "ni", "217": "bu", "218": "fa", "219": "un", "220": "g\u00eb", "221": "s\u2019", "222": "d\u00e9", "223": "s\u00fc", "224": "i\u2019", "225": "r\u2019", "226": "an", "227": "ne", "228": "\u00f2n", "229": "s\u00f9", "230": "v\u2019", "231": "og", "232": "ae", "233": "b\u00ec", "234": "m\u00f2", "235": "de", "236": "oc", "237": "c\u00f9", "238": "r\u00f3", "239": "l\u2019", "240": "t\u00eb", "241": "p\u00ef", "242": "tu", "243": "v\u00e9", "244": "\u00e0s", "245": "in", "246": "na", "247": "s\u00eb", "248": "r\u00ec", "249": "le", "250": "li", "251": "ga", "252": "v\u00e4", "253": "ur", "254": "d\u00ef", "255": "ob", "256": "gu", "257": "vu", "258": "d\u00eb", "259": "f\u00e0", "260": "el", "261": "io", "262": "ed", "263": "ta", "264": "b\u2019", "265": "m\u00ec", "266": "c\u00e9", "267": "l\u00ef", "268": "ce", "269": "n\u00e8", "270": "of", "271": "\u2019n", "272": "u\u2019", "273": "ri", "274": "ro", "275": "l\u00f2", "276": "\u00e9n", "277": "nu", "278": "\u00ecs", "279": "ci", "280": "za", "281": "t\u00ef", "282": "t\u00e4", "283": "t\u2019", "284": "en", "285": "um", "286": "di", "287": "lo", "288": "m\u2019", "289": "sie", "290": "soc", "291": "sfa", "292": "nuo", "293": "tho", "294": "dov", "295": "dot", "296": "st\u00ec", "297": "mee", "298": "tac", "299": "riz", "300": "ta\u2019", "301": "st\u00f9", "302": "nic", "303": "\u2019v\u2019", "304": "fem", "305": "cot", "306": "pre", "307": "mun", "308": "sp\u00ef", "309": "sin", "310": "nem", "311": "f\u00e8l", "312": "gue", "313": "cui", "314": "su\u2019", "315": "du\u2019", "316": "beo", "317": "men", "318": "nas", "319": "tes", "320": "zuc", "321": "din", "322": "fos", "323": "sem", "324": "zii", "325": "t\u00e8s", "326": "sca", "327": "vet", "328": "sna", "329": "fue", "330": "rin", "331": "c\u00f2l", "332": "fun", "333": "rav", "334": "n\u00eca", "335": "loc", "336": "lic", "337": "te\u2019", "338": "tur", "339": "vid", "340": "nel", "341": "zac", "342": "lut", "343": "gad", "344": "lia", "345": "dol", "346": "zie", "347": "get", "348": "piu", "349": "ruo", "350": "pea", "351": "sop", "352": "pla", "353": "leo", "354": "fer", "355": "sot", "356": "smi", "357": "cen", "358": "pur", "359": "lun", "360": "bei", "361": "mie", "362": "bas", "363": "t\u00e9r", "364": "c\u00f2b", "365": "fab", "366": "bio", "367": "vie", "368": "bee", "369": "sbe", "370": "pel", "371": "tol", "372": "nac", "373": "leb", "374": "dom", "375": "sta", "376": "ier", "377": "cor", "378": "cur", "379": "lap", "380": "fac", "381": "sde", "382": "sii", "383": "bin", "384": "sum", "385": "l\u00f2n", "386": "\u2018ne", "387": "lel", "388": "dor", "389": "lat", "390": "vra", "391": "sos", "392": "qui", "393": "nea", "394": "cem", "395": "mac", "396": "gre", "397": "mea", "398": "min", "399": "n\u00f2s", "400": "fri", "401": "rir", "402": "b\u00e0l", "403": "mus", "404": "c\u00f3l", "405": "tim", "406": "lui", "407": "di\u00e8", "408": "die", "409": "rai", "410": "st\u00e9", "411": "fol", "412": "st\u00ef", "413": "duo", "414": "vec", "415": "g\u00f3r", "416": "fau", "417": "ion", "418": "zul", "419": "fuc", "420": "p\u00e0r", "421": "don", "422": "nom", "423": "ruf", "424": "sgo", "425": "sas", "426": "mii", "427": "nie", "428": "gam", "429": "fum", "430": "sen", "431": "tri", "432": "nal", "433": "bol", "434": "zur", "435": "dr\u00e4", "436": "pr\u2019", "437": "tuc", "438": "gir", "439": "ree", "440": "vos", "441": "luc", "442": "sba", "443": "ful", "444": "ci\u00f2", "445": "cac", "446": "pec", "447": "dis", "448": "fug", "449": "nun", "450": "fam", "451": "gas", "452": "cas", "453": "clo", "454": "dr\u00f2", "455": "gib", "456": "gli", "457": "tir", "458": "mei", "459": "san", "460": "gur", "461": "zar", "462": "mot", "463": "pog", "464": "vol", "465": "mum", "466": "dr\u00e0", "467": "gil", "468": "gl\u2019", "469": "nia", "470": "tuo", "471": "f\u00e0c", "472": "nul", "473": "unt", "474": "t\u00f3n", "475": "qu\u2019", "476": "no\u2019", "477": "pl\u00ec", "478": "tar", "479": "ten", "480": "lil", "481": "guc", "482": "fan", "483": "ram", "484": "gal", "485": "nes", "486": "pio", "487": "flu", "488": "veg", "489": "ror", "490": "lis", "491": "den", "492": "v\u00ecd", "493": "chi", "494": "nob", "495": "vei", "496": "mas", "497": "rum", "498": "lau", "499": "sic", "500": "st\u00e0", "501": "mel", "502": "muo", "503": "ior", "504": "pi\u00e8", "505": "zaf", "506": "uo\u2019", "507": "spo", "508": "mar", "509": "man", "510": "coi", "511": "bro", "512": "ren", "513": "vit", "514": "ber", "515": "pop", "516": "pol", "517": "cis", "518": "l\u00eca", "519": "\u2018be", "520": "di\u2019", "521": "lur", "522": "ciu", "523": "col", "524": "not", "525": "far", "526": "cil", "527": "bal", "528": "var", "529": "nan", "530": "ses", "531": "r\u00ece", "532": "nen", "533": "com", "534": "nim", "535": "paz", "536": "fib", "537": "r\u00f3n", "538": "gi\u00f9", "539": "lec", "540": "bue", "541": "r\u00f2l", "542": "pem", "543": "ser", "544": "tem", "545": "non", "546": "rea", "547": "bus", "548": "sog", "549": "bri", "550": "nai", "551": "est", "552": "fle", "553": "gei", "554": "bi\u00f2", "555": "zai", "556": "soz", "557": "na\u2019", "558": "ghi", "559": "roz", "560": "noz", "561": "vam", "562": "gea", "563": "p\u00f2s", "564": "vea", "565": "dul", "566": "rac", "567": "tr\u2019", "568": "seo", "569": "pul", "570": "bug", "571": "qua", "572": "cic", "573": "rui", "574": "ros", "575": "gno", "576": "gob", "577": "fei", "578": "iep", "579": "muf", "580": "tr\u00f2", "581": "pub", "582": "sfo", "583": "rog", "584": "dr\u00ef", "585": "rid", "586": "bra", "587": "rar", "588": "suc", "589": "dez", "590": "maz", "591": "cag", "592": "bel", "593": "gna", "594": "peg", "595": "cal", "596": "dub", "597": "mag", "598": "gra", "599": "gro", "600": "deh", "601": "xil", "602": "gat", "603": "pie", "604": "nez", "605": "sat", "606": "la\u2019", "607": "bon", "608": "lup", "609": "tal", "610": "tic", "611": "sue", "612": "let", "613": "ral", "614": "zel", "615": "m\u00eca", "616": "roc", "617": "gis", "618": "saf", "619": "bre", "620": "set", "621": "rat", "622": "bec", "623": "pun", "624": "ria", "625": "tr\u00ef", "626": "rom", "627": "gim", "628": "so\u2019", "629": "mem", "630": "bet", "631": "sug", "632": "f\u00e9e", "633": "biz", "634": "ve\u2019", "635": "dop", "636": "tuf", "637": "der", "638": "gi\u2019", "639": "sol", "640": "das", "641": "reb", "642": "but", "643": "sez", "644": "bat", "645": "boz", "646": "cla", "647": "tet", "648": "due", "649": "que", "650": "lie", "651": "t\u00e0n", "652": "gni", "653": "tum", "654": "dem", "655": "d\u00eca", "656": "moz", "657": "nor", "658": "dru", "659": "las", "660": "gel", "661": "ch\u00ef", "662": "tez", "663": "tio", "664": "spe", "665": "put", "666": "ter", "667": "hon", "668": "sar", "669": "dob", "670": "t\u00f2n", "671": "cuc", "672": "vir", "673": "pom", "674": "dat", "675": "ruc", "676": "lab", "677": "nha", "678": "tru", "679": "s\u00f3n", "680": "nag", "681": "diz", "682": "pin", "683": "geo", "684": "iat", "685": "reg", "686": "pli", "687": "dun", "688": "got", "689": "lav", "690": "dil", "691": "tun", "692": "bru", "693": "suf", "694": "fog", "695": "tr\u00e0", "696": "cul", "697": "ha\u2019", "698": "fe\u2019", "699": "gua", "700": "che", "701": "tec", "702": "qu\u00ef", "703": "fur", "704": "tia", "705": "lin", "706": "ril", "707": "run", "708": "gai", "709": "mol", "710": "cez", "711": "dim", "712": "cle", "713": "vau", "714": "ves", "715": "n\u00e8s", "716": "fro", "717": "han", "718": "niz", "719": "se\u2019", "720": "cli", "721": "rec", "722": "pir", "723": "gru", "724": "mes", "725": "sui", "726": "cit", "727": "cad", "728": "cel", "729": "re\u2019", "730": "sup", "731": "puo", "732": "r\u00ecb", "733": "cir", "734": "fru", "735": "doc", "736": "\u2018te", "737": "sep", "738": "sc\u00ef", "739": "tra", "740": "tui", "741": "gia", "742": "gaz", "743": "spu", "744": "b\u00e8l", "745": "mul", "746": "tei", "747": "rer", "748": "for", "749": "rie", "750": "sto", "751": "nig", "752": "pru", "753": "lem", "754": "nuc", "755": "gor", "756": "bai", "757": "dio", "758": "sr\u00e4", "759": "n\u00ece", "760": "pap", "761": "rio", "762": "gi\u00f2", "763": "r\u00e8g", "764": "vat", "765": "dea", "766": "sfe", "767": "can", "768": "goz", "769": "pei", "770": "d\u00e8i", "771": "ste", "772": "sel", "773": "ian", "774": "sit", "775": "dau", "776": "ri\u2019", "777": "cop", "778": "poi", "779": "ran", "780": "les", "781": "m\u00e9z", "782": "mam", "783": "sci", "784": "bui", "785": "sla", "786": "buo", "787": "sam", "788": "f\u00e0t", "789": "st\u2019", "790": "rem", "791": "bac", "792": "mil", "793": "cau", "794": "s\u00f9e", "795": "pr\u00ec", "796": "pi\u00e9", "797": "sab", "798": "pan", "799": "tom", "800": "smu", "801": "quo", "802": "boc", "803": "tro", "804": "fas", "805": "me\u2019", "806": "ver", "807": "rez", "808": "puc", "809": "tut", "810": "pat", "811": "rob", "812": "dec", "813": "deb", "814": "fal", "815": "nei", "816": "pal", "817": "sod", "818": "rol", "819": "ges", "820": "pr\u00e0", "821": "vem", "822": "muc", "823": "fet", "824": "stu", "825": "dus", "826": "gu\u00f2", "827": "gar", "828": "d\u00ece", "829": "pes", "830": "ahi", "831": "pis", "832": "n\u00f2i", "833": "hai", "834": "nin", "835": "dos", "836": "fuo", "837": "nur", "838": "sir", "839": "mor", "840": "teo", "841": "goc", "842": "ven", "843": "lea", "844": "mug", "845": "plo", "846": "fom", "847": "vul", "848": "von", "849": "cu\u2019", "850": "pon", "851": "pra", "852": "c\u00e9r", "853": "sve", "854": "rel", "855": "ma\u2019", "856": "van", "857": "n\u00ect", "858": "guz", "859": "rut", "860": "gri", "861": "ger", "862": "gui", "863": "bie", "864": "mi\u2019", "865": "mio", "866": "voi", "867": "pii", "868": "nio", "869": "fes", "870": "tad", "871": "sil", "872": "ler", "873": "cr\u00e0", "874": "fra", "875": "mon", "876": "p\u00eca", "877": "bli", "878": "cai", "879": "suo", "880": "lam", "881": "cri", "882": "mic", "883": "dre", "884": "res", "885": "met", "886": "bl\u00ef", "887": "luo", "888": "peo", "889": "f\u00e0s", "890": "tan", "891": "fai", "892": "tis", "893": "pu\u00f2", "894": "lai", "895": "dit", "896": "sub", "897": "laz", "898": "dug", "899": "fel", "900": "ris", "901": "rao", "902": "fi\u2019", "903": "meo", "904": "tii", "905": "dam", "906": "son", "907": "cun", "908": "ra\u2019", "909": "dua", "910": "sc\u2019", "911": "lit", "912": "noi", "913": "cre", "914": "vo\u2019", "915": "cos", "916": "sag", "917": "s\u00ece", "918": "sc\u00ec", "919": "ras", "920": "gom", "921": "coc", "922": "tam", "923": "ean", "924": "cie", "925": "d\u00ect", "926": "ni\u2019", "927": "nil", "928": "ton", "929": "cio", "930": "tor", "931": "vag", "932": "feg", "933": "meg", "934": "tag", "935": "nir", "936": "m\u00e8c", "937": "gio", "938": "fen", "939": "ces", "940": "dar", "941": "gnu", "942": "ghe", "943": "vio", "944": "coz", "945": "nii", "946": "jau", "947": "f\u00e9l", "948": "viz", "949": "cia", "950": "bab", "951": "g\u00f3n", "952": "iar", "953": "sua", "954": "fon", "955": "rof", "956": "net", "957": "nis", "958": "cra", "959": "sa\u2019", "960": "tat", "961": "glo", "962": "sai", "963": "mia", "964": "ple", "965": "va\u2019", "966": "sac", "967": "dif", "968": "fin", "969": "vor", "970": "sov", "971": "rii", "972": "rap", "973": "puz", "974": "toc", "975": "ch\u00ec", "976": "dut", "977": "lac", "978": "bun", "979": "co\u2019", "980": "ben", "981": "sga", "982": "pas", "983": "raf", "984": "fui", "985": "svo", "986": "lop", "987": "ner", "988": "fie", "989": "lez", "990": "ti\u2019", "991": "zia", "992": "lip", "993": "tea", "994": "rup", "995": "scu", "996": "rot", "997": "gie", "998": "car", "999": "cru", "1000": "poc", "1001": "vez", "1002": "neb", "1003": "sra", "1004": "sun", "1005": "t\u00f2m", "1006": "tau", "1007": "pic", "1008": "gin", "1009": "ieu", "1010": "pau", "1011": "b\u00eca", "1012": "f\u00f3n", "1013": "lon", "1014": "lan", "1015": "sal", "1016": "pig", "1017": "bom", "1018": "dee", "1019": "top", "1020": "gau", "1021": "fia", "1022": "ne\u2019", "1023": "pen", "1024": "l\u00eco", "1025": "cea", "1026": "cob", "1027": "cuo", "1028": "feo", "1029": "sec", "1030": "vas", "1031": "pil", "1032": "vii", "1033": "guo", "1034": "rab", "1035": "del", "1036": "sau", "1037": "tas", "1038": "bea", "1039": "git", "1040": "buf", "1041": "ceo", "1042": "nat", "1043": "fio", "1044": "dan", "1045": "vuo", "1046": "nef", "1047": "cl\u00ef", "1048": "cam", "1049": "za\u2019", "1050": "m\u00ecs", "1051": "sco", "1052": "cep", "1053": "sus", "1054": "cut", "1055": "tin", "1056": "sma", "1057": "reo", "1058": "tai", "1059": "gh\u2019", "1060": "tue", "1061": "gi\u00e0", "1062": "mer", "1063": "via", "1064": "fil", "1065": "v\u00f2l", "1066": "rei", "1067": "sev", "1068": "dr\u00ec", "1069": "mur", "1070": "fla", "1071": "cum", "1072": "poz", "1073": "l\u00e8m", "1074": "vom", "1075": "vin", "1076": "pac", "1077": "sno", "1078": "dic", "1079": "sia", "1080": "ban", "1081": "plu", "1082": "spa", "1083": "lei", "1084": "sur", "1085": "val", "1086": "tua", "1087": "da\u2019", "1088": "fat", "1089": "dui", "1090": "zio", "1091": "dei", "1092": "lu\u2019", "1093": "pai", "1094": "sis", "1095": "rit", "1096": "len", "1097": "feb", "1098": "per", "1099": "caf", "1100": "pro", "1101": "neg", "1102": "fic", "1103": "ron", "1104": "dai", "1105": "ric", "1106": "nev", "1107": "cet", "1108": "sme", "1109": "sbi", "1110": "dia", "1111": "vel", "1112": "rim", "1113": "gan", "1114": "leg", "1115": "fit", "1116": "lus", "1117": "sei", "1118": "sle", "1119": "det", "1120": "mat", "1121": "cat", "1122": "gag", "1123": "lom", "1124": "rug", "1125": "sof", "1126": "vac", "1127": "mae", "1128": "cer", "1129": "nar", "1130": "spi", "1131": "cov", "1132": "gol", "1133": "nec", "1134": "br\u00ef", "1135": "teg", "1136": "pi\u00f9", "1137": "zuf", "1138": "sud", "1139": "tus", "1140": "luz", "1141": "gem", "1142": "smo", "1143": "sul", "1144": "dra", "1145": "mez", "1146": "lim", "1147": "de\u2019", "1148": "gab", "1149": "lot", "1150": "cap", "1151": "svi", "1152": "par", "1153": "z\u00f2n", "1154": "cro", "1155": "bev", "1156": "lio", "1157": "piz", "1158": "tle", "1159": "pit", "1160": "noc", "1161": "rua", "1162": "bul", "1163": "fiu", "1164": "cin", "1165": "dii", "1166": "cei", "1167": "bar", "1168": "dal", "1169": "gen", "1170": "pia", "1171": "zan", "1172": "til", "1173": "sap", "1174": "lir", "1175": "bot", "1176": "joi", "1177": "lee", "1178": "bil", "1179": "t\u00f2r", "1180": "cef", "1181": "fis", "1182": "sor", "1183": "neo", "1184": "vil", "1185": "mir", "1186": "sio", "1187": "gne", "1188": "red", "1189": "fi\u00f2", "1190": "pri", "1191": "sv\u00ef", "1192": "tre", "1193": "pos", "1194": "bur", "1195": "tel", "1196": "dro", "1197": "gu\u00ec", "1198": "\u2018la", "1199": "dir", "1200": "lar", "1201": "bef", "1202": "seg", "1203": "clu", "1204": "giz", "1205": "por", "1206": "sti", "1207": "ch\u2019", "1208": "lul", "1209": "ret", "1210": "gon", "1211": "sce", "1212": "pot", "1213": "dri", "1214": "vai", "1215": "lep", "1216": "bis", "1217": "tos", "1218": "bir", "1219": "\u00f2th", "1220": "rig", "1221": "zon", "1222": "ch\u00e9", "1223": "vis", "1224": "deg", "1225": "raz", "1226": "fig", "1227": "sob", "1228": "nol", "1229": "mai", "1230": "\u2019ve", "1231": "mos", "1232": "rag", "1233": "des", "1234": "pet", "1235": "deo", "1236": "c\u00e0n", "1237": "r\u00ecs", "1238": "ga\u2019", "1239": "uom", "1240": "st\u00f2", "1241": "tie", "1242": "num", "1243": "bia", "1244": "mal", "1245": "giu", "1246": "buc", "1247": "fu\u2019", "1248": "som", "1249": "lor", "1250": "bor", "1251": "fre", "1252": "con", "1253": "dur", "1254": "bran", "1255": "pian", "1256": "chie", "1257": "cian", "1258": "scre", "1259": "stas", "1260": "niam", "1261": "stig", "1262": "ghin", "1263": "str\u2019", "1264": "greg", "1265": "stel", "1266": "fles", "1267": "vian", "1268": "sfam", "1269": "trac", "1270": "trat", "1271": "frui", "1272": "guai", "1273": "ghir", "1274": "vria", "1275": "scun", "1276": "qual", "1277": "brul", "1278": "fret", "1279": "guio", "1280": "spra", "1281": "stra", "1282": "stem", "1283": "sfin", "1284": "drap", "1285": "pia\u2019", "1286": "quia", "1287": "sfre", "1288": "frir", "1289": "sdet", "1290": "grat", "1291": "stis", "1292": "spre", "1293": "sian", "1294": "c\u00f2th", "1295": "sc\u00eco", "1296": "gnaz", "1297": "stia", "1298": "clis", "1299": "sgor", "1300": "ples", "1301": "crol", "1302": "stul", "1303": "chil", "1304": "buon", "1305": "brug", "1306": "trei", "1307": "tram", "1308": "piac", "1309": "cheo", "1310": "slac", "1311": "stre", "1312": "sion", "1313": "gnus", "1314": "scen", "1315": "stea", "1316": "scon", "1317": "nier", "1318": "gior", "1319": "trae", "1320": "ph\u00e8l", "1321": "trec", "1322": "ched", "1323": "scal", "1324": "sbra", "1325": "prio", "1326": "scab", "1327": "grom", "1328": "vuoi", "1329": "scro", "1330": "scir", "1331": "caio", "1332": "chia", "1333": "pros", "1334": "scic", "1335": "ciap", "1336": "spal", "1337": "grop", "1338": "trui", "1339": "tien", "1340": "quei", "1341": "dhae", "1342": "tr\u00e0s", "1343": "guel", "1344": "pion", "1345": "tron", "1346": "guet", "1347": "pi\u00f9e", "1348": "die\u2019", "1349": "egyp", "1350": "snel", "1351": "sdeg", "1352": "fred", "1353": "scop", "1354": "gnin", "1355": "stie", "1356": "piat", "1357": "spel", "1358": "suol", "1359": "guit", "1360": "cuor", "1361": "rean", "1362": "tean", "1363": "cruc", "1364": "sber", "1365": "sden", "1366": "maia", "1367": "runt", "1368": "giun", "1369": "spar", "1370": "trag", "1371": "prez", "1372": "sanc", "1373": "stet", "1374": "trai", "1375": "glia", "1376": "lier", "1377": "gnes", "1378": "naut", "1379": "naio", "1380": "quan", "1381": "sfan", "1382": "guag", "1383": "prec", "1384": "gial", "1385": "scio", "1386": "gi\u00f9e", "1387": "sgra", "1388": "flig", "1389": "smar", "1390": "bria", "1391": "ciot", "1392": "drit", "1393": "scot", "1394": "zion", "1395": "grie", "1396": "guia", "1397": "spes", "1398": "scan", "1399": "giar", "1400": "smor", "1401": "flet", "1402": "tiam", "1403": "spun", "1404": "st\u00f2r", "1405": "ziar", "1406": "plar", "1407": "prin", "1408": "cias", "1409": "biar", "1410": "breo", "1411": "cher", "1412": "trom", "1413": "ciai", "1414": "broc", "1415": "dram", "1416": "\u2018glo", "1417": "gion", "1418": "ghil", "1419": "gher", "1420": "chis", "1421": "fiam", "1422": "mie\u2019", "1423": "sgan", "1424": "glie", "1425": "spec", "1426": "sci\u00f2", "1427": "gnun", "1428": "glau", "1429": "trar", "1430": "tuon", "1431": "sneb", "1432": "gnum", "1433": "fiot", "1434": "sche", "1435": "fuor", "1436": "scri", "1437": "scol", "1438": "scar", "1439": "stuc", "1440": "str\u00e0", "1441": "slao", "1442": "bias", "1443": "guir", "1444": "pric", "1445": "cric", "1446": "prei", "1447": "sgri", "1448": "dies", "1449": "chez", "1450": "gual", "1451": "tret", "1452": "proc", "1453": "scac", "1454": "dras", "1455": "stal", "1456": "scam", "1457": "tras", "1458": "spen", "1459": "ciac", "1460": "suoi", "1461": "schi", "1462": "star", "1463": "stil", "1464": "stes", "1465": "bion", "1466": "sfat", "1467": "dier", "1468": "prun", "1469": "ciel", "1470": "pria", "1471": "piag", "1472": "tier", "1473": "laio", "1474": "stan", "1475": "drir", "1476": "pluo", "1477": "pruo", "1478": "stuo", "1479": "graf", "1480": "tra\u2019", "1481": "com\u2019", "1482": "sban", "1483": "chio", "1484": "fron", "1485": "cion", "1486": "glio", "1487": "biet", "1488": "cean", "1489": "gaio", "1490": "ghi\u00f2", "1491": "ghel", "1492": "st\u00e8r", "1493": "cheg", "1494": "chin", "1495": "piez", "1496": "chiu", "1497": "quil", "1498": "bent", "1499": "pris", "1500": "spuo", "1501": "spor", "1502": "gner", "1503": "diam", "1504": "stor", "1505": "dra\u2019", "1506": "cia\u2019", "1507": "scoc", "1508": "fioc", "1509": "bia\u2019", "1510": "dron", "1511": "gnem", "1512": "gias", "1513": "liev", "1514": "nean", "1515": "chet", "1516": "brot", "1517": "stro", "1518": "trul", "1519": "scom", "1520": "scuo", "1521": "bian", "1522": "trea", "1523": "grin", "1524": "fren", "1525": "brio", "1526": "spri", "1527": "sman", "1528": "tris", "1529": "quae", "1530": "truo", "1531": "stru", "1532": "sbri", "1533": "blia", "1534": "siam", "1535": "bron", "1536": "vuo\u2019", "1537": "brez", "1538": "piar", "1539": "vaio", "1540": "gnor", "1541": "spic", "1542": "brol", "1543": "dail", "1544": "cral", "1545": "pren", "1546": "gnen", "1547": "tren", "1548": "plor", "1549": "quin", "1550": "gnon", "1551": "stri", "1552": "svel", "1553": "ver\u2019", "1554": "br\u00f2t", "1555": "muor", "1556": "brie", "1557": "drai", "1558": "frat", "1559": "stec", "1560": "stui", "1561": "tran", "1562": "scos", "1563": "fran", "1564": "vuol", "1565": "steo", "1566": "spez", "1567": "scie", "1568": "spit", "1569": "laia", "1570": "brei", "1571": "dria", "1572": "crea", "1573": "guef", "1574": "creb", "1575": "sciu", "1576": "glet", "1577": "guiz", "1578": "ciul", "1579": "pien", "1580": "maio", "1581": "stam", "1582": "stei", "1583": "quen", "1584": "gnan", "1585": "ghio", "1586": "nian", "1587": "scer", "1588": "\u2018qui", "1589": "guil", "1590": "miei", "1591": "toio", "1592": "giot", "1593": "quer", "1594": "spaz", "1595": "grap", "1596": "biac", "1597": "gioi", "1598": "scim", "1599": "scel", "1600": "stio", "1601": "grem", "1602": "guan", "1603": "riai", "1604": "dean", "1605": "pri\u2019", "1606": "drel", "1607": "driz", "1608": "tiem", "1609": "grot", "1610": "ghet", "1611": "ghie", "1612": "scin", "1613": "guaz", "1614": "fien", "1615": "cl\u00e8s", "1616": "guer", "1617": "fiac", "1618": "gron", "1619": "scia", "1620": "guic", "1621": "trap", "1622": "trop", "1623": "scet", "1624": "guon", "1625": "ghez", "1626": "puol", "1627": "sven", "1628": "viam", "1629": "brar", "1630": "tror", "1631": "prai", "1632": "fiar", "1633": "prie", "1634": "giug", "1635": "grue", "1636": "stai", "1637": "giam", "1638": "lien", "1639": "spon", "1640": "luia", "1641": "scem", "1642": "quel", "1643": "spro", "1644": "sunt", "1645": "quar", "1646": "cien", "1647": "nail", "1648": "gnar", "1649": "scev", "1650": "gnel", "1651": "smon", "1652": "que\u2019", "1653": "chel", "1654": "grez", "1655": "trie", "1656": "sper", "1657": "lian", "1658": "mian", "1659": "gier", "1660": "sbar", "1661": "ci\u00f2l", "1662": "stin", "1663": "plau", "1664": "svia", "1665": "fian", "1666": "gheg", "1667": "sfio", "1668": "smen", "1669": "gres", "1670": "pi\u00e9r", "1671": "gran", "1672": "cras", "1673": "vien", "1674": "sdru", "1675": "viem", "1676": "spol", "1677": "sten", "1678": "sfac", "1679": "quie", "1680": "ghia", "1681": "drea", "1682": "puom", "1683": "zian", "1684": "ciuo", "1685": "saia", "1686": "quod", "1687": "stav", "1688": "gros", "1689": "blan", "1690": "blio", "1691": "clug", "1692": "trio", "1693": "dran", "1694": "quis", "1695": "sver", "1696": "fier", "1697": "ciar", "1698": "fior", "1699": "brac", "1700": "gnas", "1701": "rien", "1702": "sie\u2019", "1703": "sci\u2019", "1704": "smoz", "1705": "str\u00f2", "1706": "ghes", "1707": "gras", "1708": "duol", "1709": "gnie", "1710": "piog", "1711": "clau", "1712": "guis", "1713": "crin", "1714": "ciam", "1715": "tree", "1716": "suon", "1717": "scis", "1718": "gli\u00f2", "1719": "quor", "1720": "span", "1721": "gnia", "1722": "grep", "1723": "quam", "1724": "quat", "1725": "buoi", "1726": "giac", "1727": "scuf", "1728": "sti\u00f2", "1729": "chi\u00f2", "1730": "gram", "1731": "stiz", "1732": "troc", "1733": "gien", "1734": "cioc", "1735": "nien", "1736": "guar", "1737": "flit", "1738": "sfor", "1739": "gnuo", "1740": "stol", "1741": "tuo\u2019", "1742": "muoi", "1743": "clas", "1744": "plan", "1745": "spin", "1746": "sfar", "1747": "pier", "1748": "stop", "1749": "dian", "1750": "guen", "1751": "gean", "1752": "\u2019vun", "1753": "squi", "1754": "puos", "1755": "vier", "1756": "sgom", "1757": "trot", "1758": "rent", "1759": "pron", "1760": "ciom", "1761": "spir", "1762": "giuo", "1763": "pran", "1764": "pres", "1765": "sien", "1766": "treb", "1767": "spia", "1768": "ciol", "1769": "spie", "1770": "sier", "1771": "scaz", "1772": "puoi", "1773": "quai", "1774": "rian", "1775": "scov", "1776": "ster", "1777": "d\u00e8ch", "1778": "brut", "1779": "piom", "1780": "piov", "1781": "bris", "1782": "squa", "1783": "scea", "1784": "giai", "1785": "suo\u2019", "1786": "spet", "1787": "sfer", "1788": "bren", "1789": "smal", "1790": "prir", "1791": "dien", "1792": "frut", "1793": "ciuf", "1794": "scor", "1795": "vean", "1796": "cria", "1797": "gian", "1798": "tria", "1799": "bree", "1800": "tuoi", "1801": "spraz", "1802": "ghiot", "1803": "chiar", "1804": "gliai", "1805": "ghiai", "1806": "stren", "1807": "scias", "1808": "strut", "1809": "scris", "1810": "spran", "1811": "chian", "1812": "vrien", "1813": "sciol", "1814": "schiu", "1815": "scran", "1816": "strai", "1817": "schio", "1818": "strin", "1819": "stric", "1820": "sgrie", "1821": "chion", "1822": "scrit", "1823": "squar", "1824": "glies", "1825": "staio", "1826": "sfran", "1827": "schie", "1828": "chias", "1829": "spiac", "1830": "stran", "1831": "praia", "1832": "glian", "1833": "stier", "1834": "scuoi", "1835": "schic", "1836": "sciut", "1837": "voill", "1838": "stroz", "1839": "gnaio", "1840": "sci\u00e0n", "1841": "strom", "1842": "stial", "1843": "chiai", "1844": "strat", "1845": "stian", "1846": "stret", "1847": "stiam", "1848": "stral", "1849": "sciai", "1850": "glior", "1851": "sguar", "1852": "ghian", "1853": "strel", "1854": "glion", "1855": "splen", "1856": "schem", "1857": "chiet", "1858": "ghiac", "1859": "sciau", "1860": "gliel", "1861": "gliet", "1862": "chioc", "1863": "sciam", "1864": "scian", "1865": "puesc", "1866": "strac", "1867": "sgiun", "1868": "sciom", "1869": "temps", "1870": "glier", "1871": "scher", "1872": "svuol", "1873": "gluol", "1874": "schia", "1875": "ghien", "1876": "scrip", "1877": "sciar", "1878": "stram", "1879": "scioc", "1880": "glien", "1881": "schet", "1882": "sgher", "1883": "chiap", "1884": "gliam", "1885": "stras", "1886": "chier", "1887": "scial", "1888": "scheg", "1889": "strug", "1890": "gliuo", "1891": "streg", "1892": "strar", "1893": "stion", "1894": "gliar", "1895": "gliea", "1896": "stroc", "1897": "spres", "1898": "ghiar", "1899": "squil", "1900": "scion", "1901": "gliuoi", "1902": "schian", "1903": "schiet", "1904": "strans", "1905": "schiat", "1906": "schiar", "1907": "ghiaio", "1908": "gliuol", "1909": "gliaio"}