{"0": "", "1": "<v>", "2": "</v>", "3": "<t><v>", "4": "<t><v>i", "5": "\u2018", "6": "u", "7": "v", "8": "s", "9": "i", "10": "c", "11": "\u00e9", "12": "\u00e8", "13": "\u00ef", "14": "\u00fc", "15": "e", "16": "o", "17": "g", "18": "a", "19": "\u00f2", "20": "go", "21": "su", "22": "v\u00e8", "23": "ti", "24": "za", "25": "vi", "26": "m\u00e4", "27": "ru", "28": "d\u00e8", "29": "r\u00ef", "30": "m\u00eb", "31": "os", "32": "m\u00ef", "33": "ol", "34": "op", "35": "t\u00f2", "36": "ne", "37": "v\u00e9", "38": "om", "39": "et", "40": "t\u00ec", "41": "n\u00ef", "42": "f\u00f3", "43": "ze", "44": "iu", "45": "l\u00f2", "46": "c\u00eb", "47": "an", "48": "n\u00f2", "49": "lo", "50": "nu", "51": "n\u00eb", "52": "ab", "53": "bo", "54": "fa", "55": "do", "56": "be", "57": "ga", "58": "ho", "59": "ro", "60": "ob", "61": "la", "62": "mu", "63": "bi", "64": "po", "65": "g\u00ef", "66": "ni", "67": "c\u00ef", "68": "on", "69": "il", "70": "d\u00ef", "71": "g\u00e8", "72": "af", "73": "b\u00ef", "74": "ai", "75": "fu", "76": "zi", "77": "r\u00f3", "78": "na", "79": "co", "80": "v\u00ef", "81": "n\u00e8", "82": "ag", "83": "ci", "84": "m\u00ec", "85": "ur", "86": "hi", "87": "c\u00f9", "88": "pe", "89": "uc", "90": "pu", "91": "l\u00ef", "92": "\u00e8v", "93": "zo", "94": "ad", "95": "al", "96": "to", "97": "ve", "98": "s\u00e9", "99": "r\u00e8", "100": "er", "101": "ot", "102": "au", "103": "el", "104": "im", "105": "l\u00fc", "106": "ac", "107": "ef", "108": "di", "109": "lu", "110": "s\u00f9", "111": "ba", "112": "tu", "113": "id", "114": "f\u00eb", "115": "un", "116": "qu", "117": "eb", "118": "am", "119": "ge", "120": "v\u00f2", "121": "li", "122": "ex", "123": "l\u00eb", "124": "pi", "125": "p\u00fc", "126": "em", "127": "as", "128": "is", "129": "ri", "130": "og", "131": "so", "132": "c\u00fc", "133": "fe", "134": "l\u00e8", "135": "mo", "136": "\u00e8n", "137": "ap", "138": "no", "139": "se", "140": "pa", "141": "c\u00ec", "142": "fi", "143": "g\u00fc", "144": "ta", "145": "g\u00f3", "146": "r\u00e0", "147": "uo", "148": "f\u00ef", "149": "n\u00fc", "150": "p\u00ec", "151": "p\u00ef", "152": "ov", "153": "l\u00e0", "154": "g\u00eb", "155": "ec", "156": "da", "157": "p\u00e8", "158": "me", "159": "cu", "160": "s\u00eb", "161": "ie", "162": "ha", "163": "ce", "164": "ar", "165": "sa", "166": "le", "167": "\u00f2s", "168": "bu", "169": "vo", "170": "ra", "171": "re", "172": "ia", "173": "of", "174": "b\u00eb", "175": "oc", "176": "fo", "177": "ul", "178": "s\u00fc", "179": "d\u00fc", "180": "ae", "181": "ca", "182": "at", "183": "l\u00ec", "184": "du", "185": "z\u00ef", "186": "eu", "187": "d\u00e9", "188": "t\u00e8", "189": "s\u00ef", "190": "in", "191": "p\u00eb", "192": "r\u00eb", "193": "te", "194": "t\u00fc", "195": "t\u00eb", "196": "xi", "197": "si", "198": "es", "199": "l\u00f6", "200": "io", "201": "t\u00ef", "202": "or", "203": "s\u00f2", "204": " u", "205": "de", "206": "p\u00f2", "207": "ma", "208": "t\u00e4", "209": "m\u00e8", "210": "vu", "211": "va", "212": "mi", "213": "gu", "214": "s\u00e0", "215": "az", "216": "en", "217": "gi", "218": "v\u00eb", "219": "f\u00e9", "220": "d\u00eb", "221": "av", "222": "nal", "223": "ric", "224": "sor", "225": "rio", "226": "tar", "227": "bli", "228": "zio", "229": "fiu", "230": "vam", "231": "nor", "232": "pin", "233": "dif", "234": "feb", "235": "seg", "236": "poc", "237": "cac", "238": "rid", "239": "sic", "240": "fom", "241": "doc", "242": "gna", "243": "plu", "244": "dos", "245": "lun", "246": "rug", "247": "dun", "248": "dru", "249": "peg", "250": "fin", "251": "lap", "252": "bab", "253": "pub", "254": "tra", "255": "dri", "256": "ram", "257": "vie", "258": "ian", "259": "sur", "260": "sgo", "261": "cor", "262": "guc", "263": "vuo", "264": "ver", "265": "rec", "266": "p\u00e0r", "267": "o u", "268": "ral", "269": "rat", "270": "tri", "271": "gnu", "272": "nez", "273": "sun", "274": "cap", "275": "pos", "276": "pia", "277": "sma", "278": "leb", "279": "lor", "280": "sam", "281": "lur", "282": "cis", "283": "puc", "284": "guo", "285": "vei", "286": "mil", "287": "zaf", "288": "gib", "289": "qu\u00ef", "290": "rot", "291": "laz", "292": "lat", "293": "fuo", "294": "fur", "295": "lan", "296": "tun", "297": "sr\u00e4", "298": "sec", "299": "diz", "300": "sfa", "301": "fro", "302": "gat", "303": "ch\u00ef", "304": "maz", "305": "tal", "306": "iep", "307": "buc", "308": "cil", "309": "nur", "310": "sod", "311": "rel", "312": "ber", "313": "vet", "314": "giz", "315": "can", "316": "deg", "317": "tir", "318": "sbi", "319": "sos", "320": "plo", "321": "sna", "322": "mun", "323": "get", "324": "tin", "325": "sco", "326": "cli", "327": "gio", "328": "tre", "329": "sp\u00ef", "330": "pli", "331": "rav", "332": "sot", "333": "ges", "334": "gre", "335": "sar", "336": "pot", "337": "cob", "338": "ril", "339": "saf", "340": "fri", "341": "dir", "342": "ban", "343": "vem", "344": "br\u00ef", "345": "lir", "346": "pic", "347": "son", "348": "goc", "349": "lot", "350": "bet", "351": "ven", "352": "luz", "353": "mia", "354": "tie", "355": "gne", "356": "nir", "357": "f\u00e9l", "358": "vat", "359": "glo", "360": "cet", "361": "por", "362": "cun", "363": "cic", "364": "sti", "365": "pru", "366": "nia", "367": "tes", "368": "non", "369": "lam", "370": "duo", "371": "e u", "372": "ruc", "373": "nes", "374": "sle", "375": "cum", "376": "spe", "377": "reg", "378": "den", "379": "fat", "380": "zur", "381": "pel", "382": "til", "383": "tle", "384": "cam", "385": "vag", "386": "gli", "387": "dim", "388": "les", "389": "vin", "390": "nef", "391": "ger", "392": "vec", "393": "dem", "394": "san", "395": "len", "396": "boz", "397": "dul", "398": "vez", "399": "res", "400": "muo", "401": "ben", "402": "pue", "403": "ros", "404": "chi", "405": "gob", "406": "mie", "407": "dub", "408": "gar", "409": "fes", "410": "pol", "411": "gru", "412": "gni", "413": "car", "414": "fis", "415": "sve", "416": "noz", "417": "giu", "418": "vir", "419": "man", "420": "con", "421": "smo", "422": "mer", "423": "tad", "424": "per", "425": "zon", "426": "muc", "427": "met", "428": "ves", "429": "dar", "430": "zac", "431": "lin", "432": "far", "433": "pap", "434": "tac", "435": "pom", "436": "tet", "437": "mes", "438": "nea", "439": "bl\u00ef", "440": "lul", "441": "rac", "442": "sfe", "443": "vid", "444": "coz", "445": "ras", "446": "nim", "447": "fug", "448": "pir", "449": "gue", "450": "pau", "451": "mor", "452": "vel", "453": "cos", "454": "dot", "455": "gil", "456": "tag", "457": "gis", "458": "bef", "459": "nig", "460": "leg", "461": "tau", "462": "pie", "463": "ton", "464": "mos", "465": "m\u00e8c", "466": "rir", "467": "sop", "468": "der", "469": "bre", "470": "toc", "471": "luo", "472": "bin", "473": "gal", "474": "nac", "475": "gra", "476": "pes", "477": "xil", "478": "dre", "479": "sfo", "480": "noc", "481": "ran", "482": "vor", "483": "gua", "484": "gas", "485": "roc", "486": "sez", "487": "loc", "488": "spi", "489": "muf", "490": "got", "491": "dra", "492": "spo", "493": "buf", "494": "spu", "495": "dan", "496": "ciu", "497": "cot", "498": "mal", "499": "t\u00f2r", "500": "cio", "501": "ste", "502": "ful", "503": "gur", "504": "tr\u00ef", "505": "cir", "506": "\u2018la", "507": "caf", "508": "rob", "509": "rig", "510": "dal", "511": "rog", "512": "pop", "513": "pan", "514": "hon", "515": "sen", "516": "dat", "517": "cas", "518": "fuc", "519": "dec", "520": "geo", "521": "dia", "522": "sel", "523": "mar", "524": "cat", "525": "lip", "526": "dor", "527": "niz", "528": "zuc", "529": "fla", "530": "fit", "531": "vil", "532": "pre", "533": "dam", "534": "lis", "535": "fig", "536": "zar", "537": "sat", "538": "rim", "539": "sog", "540": "vul", "541": "sem", "542": "fem", "543": "zel", "544": "fre", "545": "neg", "546": "rut", "547": "git", "548": "bec", "549": "fal", "550": "pat", "551": "fen", "552": "men", "553": "ris", "554": "zan", "555": "fas", "556": "lai", "557": "but", "558": "bru", "559": "veg", "560": "cro", "561": "tea", "562": "fac", "563": "dr\u00e4", "564": "c\u00f3l", "565": "sas", "566": "mez", "567": "lup", "568": "sov", "569": "cru", "570": "ier", "571": "cem", "572": "bra", "573": "rab", "574": "smi", "575": "sab", "576": "tho", "577": "net", "578": "gia", "579": "scu", "580": "lea", "581": "cal", "582": "bun", "583": "jau", "584": "cef", "585": "que", "586": "viz", "587": "mic", "588": "pas", "589": "put", "590": "mem", "591": "bia", "592": "sep", "593": "che", "594": "dit", "595": "cov", "596": "flu", "597": "fon", "598": "sud", "599": "ten", "600": "del", "601": "com", "602": "ch\u00ec", "603": "bro", "604": "run", "605": "sra", "606": "par", "607": "fol", "608": "bea", "609": "lez", "610": "det", "611": "lit", "612": "nie", "613": "cep", "614": "fan", "615": "rol", "616": "cra", "617": "sug", "618": "pac", "619": "vac", "620": "das", "621": "cui", "622": "cur", "623": "tuo", "624": "cit", "625": "pon", "626": "nio", "627": "sil", "628": "bar", "629": "pog", "630": "lim", "631": "zuf", "632": "pri", "633": "sc\u00ef", "634": "bas", "635": "cle", "636": "pal", "637": "gag", "638": "lui", "639": "dei", "640": "sio", "641": "rea", "642": "nol", "643": "nul", "644": "gem", "645": "sup", "646": "vit", "647": "fib", "648": "bul", "649": "gad", "650": "gel", "651": "lab", "652": "vis", "653": "rof", "654": "guz", "655": "nic", "656": "mur", "657": "fie", "658": "cen", "659": "neb", "660": "tuf", "661": "bol", "662": "tol", "663": "gen", "664": "moz", "665": "sca", "666": "t\u00f2m", "667": "suo", "668": "rez", "669": "paz", "670": "soz", "671": "pur", "672": "bot", "673": "cie", "674": "svi", "675": "dov", "676": "st\u00ef", "677": "e a", "678": "fra", "679": "gim", "680": "mir", "681": "gol", "682": "pig", "683": "fio", "684": "sme", "685": "gau", "686": "gan", "687": "cia", "688": "nuc", "689": "nar", "690": "lus", "691": "vas", "692": "deb", "693": "cl\u00ef", "694": "dug", "695": "cea", "696": "lav", "697": "m\u00e9z", "698": "bac", "699": "cri", "700": "nun", "701": "lic", "702": "pen", "703": "bug", "704": "cad", "705": "for", "706": "puo", "707": "gon", "708": "pl\u00ec", "709": "red", "710": "iat", "711": "gui", "712": "sde", "713": "gno", "714": "rie", "715": "spa", "716": "cag", "717": "piu", "718": "raf", "719": "rar", "720": "gam", "721": "soc", "722": "sis", "723": "feg", "724": "mam", "725": "smu", "726": "dis", "727": "sac", "728": "tez", "729": "gir", "730": "tuc", "731": "nin", "732": "rem", "733": "pet", "734": "val", "735": "goz", "736": "tro", "737": "bat", "738": "gaz", "739": "lom", "740": "rin", "741": "ruf", "742": "las", "743": "lie", "744": "ruo", "745": "sce", "746": "quo", "747": "bon", "748": "let", "749": "des", "750": "ner", "751": "not", "752": "nec", "753": "suf", "754": "piz", "755": "lau", "756": "sci", "757": "qua", "758": "svo", "759": "iar", "760": "cin", "761": "bom", "762": "din", "763": "sol", "764": "teg", "765": "cer", "766": "lac", "767": "bri", "768": "pi\u00e9", "769": "cla", "770": "van", "771": "bie", "772": "pro", "773": "suc", "774": "pio", "775": "ron", "776": "sia", "777": "leo", "778": "rit", "779": "pil", "780": "tom", "781": "sla", "782": "ler", "783": "set", "784": "o a", "785": "dop", "786": "ghe", "787": "dob", "788": "cul", "789": "a a", "790": "dil", "791": "riz", "792": "sal", "793": "ghi", "794": "ior", "795": "lil", "796": "o i", "797": "fic", "798": "gri", "799": "biz", "800": "sin", "801": "sag", "802": "ria", "803": "lia", "804": "reb", "805": "mat", "806": "fos", "807": "lel", "808": "tan", "809": "bui", "810": "mac", "811": "gom", "812": "vol", "813": "tut", "814": "sap", "815": "pul", "816": "dio", "817": "lop", "818": "ple", "819": "dez", "820": "roz", "821": "mel", "822": "nas", "823": "ren", "824": "lar", "825": "mag", "826": "sv\u00ef", "827": "fog", "828": "bev", "829": "nom", "830": "dr\u00ef", "831": "luc", "832": "bor", "833": "dur", "834": "dic", "835": "nat", "836": "sta", "837": "clo", "838": "tec", "839": "pra", "840": "dut", "841": "v\u00f2l", "842": "top", "843": "gie", "844": "gor", "845": "tos", "846": "rap", "847": "a u", "848": "von", "849": "mai", "850": "ial", "851": "poz", "852": "f\u00e0c", "853": "sof", "854": "mas", "855": "var", "856": "nil", "857": "cel", "858": "tru", "859": "dol", "860": "dea", "861": "sit", "862": "gab", "863": "sno", "864": "fet", "865": "p\u00f2s", "866": "fel", "867": "ser", "868": "pec", "869": "buo", "870": "fab", "871": "sus", "872": "meg", "873": "mul", "874": "mug", "875": "nev", "876": "tam", "877": "vom", "878": "pis", "879": "don", "880": "cuc", "881": "fam", "882": "rom", "883": "fia", "884": "lep", "885": "nen", "886": "dau", "887": "bel", "888": "mon", "889": "gea", "890": "sto", "891": "tel", "892": "col", "893": "cez", "894": "dro", "895": "ret", "896": "clu", "897": "pun", "898": "pla", "899": "raz", "900": "nis", "901": "fum", "902": "die", "903": "boc", "904": "min", "905": "sga", "906": "cop", "907": "rup", "908": "bis", "909": "cr\u00e0", "910": "tim", "911": "mot", "912": "bil", "913": "mol", "914": "tic", "915": "cre", "916": "nag", "917": "stu", "918": "dom", "919": "tur", "920": "coc", "921": "nan", "922": "puz", "923": "ses", "924": "som", "925": "lut", "926": "ter", "927": "sub", "928": "tem", "929": "r\u00e8g", "930": "sie", "931": "han", "932": "lem", "933": "cau", "934": "nob", "935": "fru", "936": "sob", "937": "cuo", "938": "lon", "939": "zia", "940": "bur", "941": "fun", "942": "ces", "943": "dus", "944": "pit", "945": "nuo", "946": "tat", "947": "bal", "948": "fer", "949": "tis", "950": "sum", "951": "fle", "952": "lec", "953": "tor", "954": "o e", "955": "qui", "956": "tas", "957": "c\u00e9r", "958": "sba", "959": "bio", "960": "rag", "961": "nem", "962": "nel", "963": "smon", "964": "plau", "965": "ro a", "966": "go e", "967": "biet", "968": "vo o", "969": "grez", "970": "ce u", "971": "scom", "972": "d\u2019 \u00eb", "973": "l\u2019 \u00f2", "974": "va a", "975": "stet", "976": "dies", "977": "ra i", "978": "no a", "979": "io e", "980": "piag", "981": "puol", "982": "ca a", "983": "da e", "984": "se e", "985": "d\u2019 i", "986": "spin", "987": "gias", "988": "da u", "989": "chez", "990": "cher", "991": "gnaz", "992": "spon", "993": "gran", "994": "ca e", "995": "spic", "996": "bo a", "997": "ti e", "998": "la e", "999": "puos", "1000": "dian", "1001": "sden", "1002": "s\u00ec i", "1003": "scie", "1004": "fa i", "1005": "n\u2019 e", "1006": "sbra", "1007": "scaz", "1008": "greg", "1009": "stes", "1010": "lo o", "1011": "gher", "1012": "pros", "1013": "ca u", "1014": "re i", "1015": "ta e", "1016": "stol", "1017": "a ac", "1018": "trac", "1019": "ce e", "1020": "ra e", "1021": "ri e", "1022": "t\u2019 u", "1023": "ghia", "1024": "me e", "1025": "e in", "1026": "chet", "1027": "de u", "1028": "glau", "1029": "be a", "1030": "te i", "1031": "bran", "1032": "la o", "1033": "spaz", "1034": "grem", "1035": "stec", "1036": "giuo", "1037": "\u2018glo", "1038": "le i", "1039": "s\u00ec a", "1040": "glet", "1041": "da i", "1042": "stas", "1043": "sfan", "1044": "de o", "1045": "creb", "1046": "ghir", "1047": "pa e", "1048": "scim", "1049": "sbar", "1050": "trat", "1051": "v\u2019 a", "1052": "ciel", "1053": "s\u2019 a", "1054": "ciac", "1055": "smen", "1056": "scol", "1057": "a es", "1058": "grie", "1059": "p\u2019 e", "1060": "spel", "1061": "ta i", "1062": "s\u2019 \u00ef", "1063": "la u", "1064": "span", "1065": "gron", "1066": "fret", "1067": "n\u2019 u", "1068": "guic", "1069": "t\u2019 a", "1070": "frut", "1071": "flit", "1072": "sgra", "1073": "ciap", "1074": "ce i", "1075": "ciuo", "1076": "pi a", "1077": "no u", "1078": "za a", "1079": "l\u2019 a", "1080": "lo e", "1081": "re o", "1082": "sa a", "1083": "dria", "1084": "guan", "1085": "va e", "1086": "sper", "1087": "gial", "1088": "to i", "1089": "guel", "1090": "chio", "1091": "mi o", "1092": "fran", "1093": "pier", "1094": "clis", "1095": "treb", "1096": "ro o", "1097": "liev", "1098": "grat", "1099": "troc", "1100": "te u", "1101": "dran", "1102": "grep", "1103": "truo", "1104": "e \u2019n", "1105": "te o", "1106": "glie", "1107": "piov", "1108": "m\u00e8 a", "1109": "gnie", "1110": "spal", "1111": "sfor", "1112": "graf", "1113": "guil", "1114": "ca o", "1115": "grom", "1116": "se i", "1117": "stig", "1118": "sven", "1119": "m\u2019 i", "1120": "ga o", "1121": "vien", "1122": "quil", "1123": "ie a", "1124": "spor", "1125": "o ar", "1126": "r\u2019 u", "1127": "gnen", "1128": "si u", "1129": "lo a", "1130": "sfer", "1131": "gnan", "1132": "se a", "1133": "gior", "1134": "flig", "1135": "ciuf", "1136": "\u00e8 on", "1137": "pa u", "1138": "m\u2019 e", "1139": "pe i", "1140": "sdet", "1141": "ci a", "1142": "l\u2019 o", "1143": "bias", "1144": "clas", "1145": "piac", "1146": "trul", "1147": "cion", "1148": "scre", "1149": "io u", "1150": "sa o", "1151": "mo o", "1152": "scic", "1153": "cras", "1154": "brol", "1155": "co u", "1156": "glia", "1157": "brie", "1158": "d\u2019 o", "1159": "guaz", "1160": "qual", "1161": "quin", "1162": "va i", "1163": "trar", "1164": "na i", "1165": "dier", "1166": "io a", "1167": "spuo", "1168": "trom", "1169": "dram", "1170": "gien", "1171": "de a", "1172": "pi i", "1173": "le e", "1174": "scet", "1175": "ciul", "1176": "re u", "1177": "gnas", "1178": "s\u00ec o", "1179": "scri", "1180": "spen", "1181": "sciu", "1182": "gioi", "1183": "spre", "1184": "spec", "1185": "fian", "1186": "na e", "1187": "squa", "1188": "smoz", "1189": "t\u2019 e", "1190": "be o", "1191": "ghel", "1192": "tren", "1193": "di i", "1194": "tien", "1195": "so a", "1196": "quar", "1197": "sten", "1198": "piat", "1199": "chiu", "1200": "l\u00ec a", "1201": "sfin", "1202": "pran", "1203": "ta o", "1204": "fiot", "1205": "ne a", "1206": "bi a", "1207": "brot", "1208": "sver", "1209": "slac", "1210": "scoc", "1211": "ni a", "1212": "ra o", "1213": "quat", "1214": "to u", "1215": "ge o", "1216": "pria", "1217": "brac", "1218": "guef", "1219": "na a", "1220": "squi", "1221": "piez", "1222": "la i", "1223": "mi u", "1224": "l\u2019 i", "1225": "vi o", "1226": "s\u2019 i", "1227": "quen", "1228": "scal", "1229": "scor", "1230": "co o", "1231": "go a", "1232": "zian", "1233": "g\u2019 \u00ef", "1234": "d\u2019 u", "1235": "sgan", "1236": "ta u", "1237": "ve i", "1238": "do u", "1239": "do a", "1240": "vi a", "1241": "guer", "1242": "r\u00ec u", "1243": "n\u2019 o", "1244": "po o", "1245": "stin", "1246": "brug", "1247": "sber", "1248": "giot", "1249": "quer", "1250": "sche", "1251": "sban", "1252": "fiam", "1253": "to e", "1254": "gnuo", "1255": "li u", "1256": "stra", "1257": "scer", "1258": "chis", "1259": "a ef", "1260": "se u", "1261": "ziar", "1262": "cheg", "1263": "scin", "1264": "sa e", "1265": "z\u2019 o", "1266": "ni u", "1267": "pron", "1268": "fiac", "1269": "scio", "1270": "li \u2019", "1271": "stuo", "1272": "si a", "1273": "cric", "1274": "drap", "1275": "tu a", "1276": "stil", "1277": "ce o", "1278": "va u", "1279": "tror", "1280": "ge a", "1281": "d\u2019 a", "1282": "cias", "1283": "o al", "1284": "pruo", "1285": "pres", "1286": "grap", "1287": "gnem", "1288": "mo a", "1289": "scuf", "1290": "spar", "1291": "giac", "1292": "pien", "1293": "stie", "1294": "ro e", "1295": "ze e", "1296": "gnel", "1297": "guen", "1298": "se \u00eb", "1299": "stop", "1300": "sfar", "1301": "se o", "1302": "biac", "1303": "va o", "1304": "frat", "1305": "ci u", "1306": "fred", "1307": "mian", "1308": "scon", "1309": "trec", "1310": "si i", "1311": "egyp", "1312": "c\u2019 o", "1313": "scab", "1314": "ciom", "1315": "scot", "1316": "gras", "1317": "flet", "1318": "stem", "1319": "guit", "1320": "tron", "1321": "drit", "1322": "ghie", "1323": "spol", "1324": "le u", "1325": "ples", "1326": "spro", "1327": "a in", "1328": "ve a", "1329": "guir", "1330": "ne e", "1331": "a am", "1332": "glio", "1333": "driz", "1334": "di e", "1335": "scar", "1336": "si o", "1337": "ze o", "1338": "ci e", "1339": "za o", "1340": "stiz", "1341": "la a", "1342": "to a", "1343": "no o", "1344": "zo a", "1345": "ghil", "1346": "s\u2019 e", "1347": "mo u", "1348": "sgri", "1349": "co a", "1350": "giam", "1351": "me i", "1352": "gnon", "1353": "cian", "1354": "gres", "1355": "ni o", "1356": "spia", "1357": "scac", "1358": "gheg", "1359": "bris", "1360": "s\u2019 o", "1361": "mo e", "1362": "broc", "1363": "ga e", "1364": "stav", "1365": "da a", "1366": "gi u", "1367": "stam", "1368": "po a", "1369": "dien", "1370": "pric", "1371": "pian", "1372": "ta a", "1373": "dras", "1374": "guiz", "1375": "so o", "1376": "sgor", "1377": "re a", "1378": "scov", "1379": "str\u00e0", "1380": "mi e", "1381": "\u00e8 im", "1382": "co e", "1383": "t\u2019 o", "1384": "sbri", "1385": "fles", "1386": "piog", "1387": "do i", "1388": "scel", "1389": "l\u2019 u", "1390": "ri u", "1391": "n\u2019 a", "1392": "be u", "1393": "ne u", "1394": "ce a", "1395": "chia", "1396": "ma u", "1397": "bron", "1398": "trie", "1399": "tras", "1400": "za u", "1401": "smal", "1402": "ciot", "1403": "dhae", "1404": "s\u00ec u", "1405": "li e", "1406": "quis", "1407": "grot", "1408": "svel", "1409": "c\u2019 e", "1410": "scuo", "1411": "tu e", "1412": "c\u2019 \u00ef", "1413": "zo e", "1414": "guet", "1415": "a al", "1416": "brut", "1417": "gian", "1418": "to o", "1419": "schi", "1420": "le o", "1421": "za i", "1422": "v\u2019 o", "1423": "na u", "1424": "de e", "1425": "proc", "1426": "clau", "1427": "crea", "1428": "brez", "1429": "ne o", "1430": "te e", "1431": "si e", "1432": "scen", "1433": "smor", "1434": "gnor", "1435": "scop", "1436": "lev\u00e4", "1437": "stal", "1438": "scro", "1439": "fron", "1440": "ciar", "1441": "stel", "1442": "viem", "1443": "me o", "1444": "o av", "1445": "zi e", "1446": "giun", "1447": "r\u2019 o", "1448": "trot", "1449": "ni e", "1450": "quan", "1451": "scis", "1452": "da o", "1453": "blan", "1454": "cruc", "1455": "snel", "1456": "stan", "1457": "chie", "1458": "scia", "1459": "prez", "1460": "scem", "1461": "tu i", "1462": "ve u", "1463": "stor", "1464": "di o", "1465": "bion", "1466": "po e", "1467": "pren", "1468": "ci o", "1469": "di a", "1470": "sa u", "1471": "de i", "1472": "stis", "1473": "li a", "1474": "bian", "1475": "scan", "1476": "l\u2019 e", "1477": "bo e", "1478": "prie", "1479": "fior", "1480": "lo u", "1481": "buon", "1482": "vuol", "1483": "giug", "1484": "giar", "1485": "fioc", "1486": "trag", "1487": "s\u2019 u", "1488": "cioc", "1489": "grop", "1490": "pris", "1491": "zi o", "1492": "be e", "1493": "sfam", "1494": "gi e", "1495": "trap", "1496": "sfre", "1497": "quel", "1498": "bo i", "1499": "prin", "1500": "z\u2019 i", "1501": "no e", "1502": "li o", "1503": "nian", "1504": "mo i", "1505": "do o", "1506": "ma o", "1507": "trop", "1508": "tret", "1509": "guar", "1510": "plan", "1511": "scir", "1512": "spir", "1513": "sfio", "1514": "po u", "1515": "stru", "1516": "smar", "1517": "tiem", "1518": "stuc", "1519": "tier", "1520": "ro u", "1521": "sfat", "1522": "do e", "1523": "ghet", "1524": "crol", "1525": "\u00e8 in", "1526": "na o", "1527": "be i", "1528": "d\u2019 e", "1529": "ghio", "1530": "spes", "1531": "spez", "1532": "sman", "1533": "te a", "1534": "brul", "1535": "guag", "1536": "ra a", "1537": "tran", "1538": "m\u2019 o", "1539": "bren", "1540": "gram", "1541": "scos", "1542": "scev", "1543": "star", "1544": "ro i", "1545": "zi u", "1546": "ghes", "1547": "so i", "1548": "gner", "1549": "so e", "1550": "spun", "1551": "vi e", "1552": "ti i", "1553": "spie", "1554": "sgom", "1555": "puom", "1556": "pi e", "1557": "z\u2019 a", "1558": "v\u2019 e", "1559": "gual", "1560": "stro", "1561": "di u", "1562": "ma a", "1563": "scam", "1564": "ti o", "1565": "m\u2019 a", "1566": "piom", "1567": "stre", "1568": "sfac", "1569": "ma e", "1570": "sdru", "1571": "gros", "1572": "me u", "1573": "spit", "1574": "sneb", "1575": "gnar", "1576": "re e", "1577": "no i", "1578": "pe e", "1579": "chil", "1580": "ti u", "1581": "cien", "1582": "ti a", "1583": "stia", "1584": "d\u2019 \u00ef", "1585": "me a", "1586": "prir", "1587": "ghez", "1588": "stri", "1589": "l\u00ec e", "1590": "tram", "1591": "spet", "1592": "ster", "1593": "so u", "1594": "le a", "1595": "stio", "1596": "ra u", "1597": "stul", "1598": "la or", "1599": "t\u00e0 in", "1600": "l\u2019 et", "1601": "ro or", "1602": "to et", "1603": "tr\u2019 e", "1604": "l\u2019 ol", "1605": "to oc", "1606": "me el", "1607": "sguar", "1608": "li uo", "1609": "cio e", "1610": "ni an", "1611": "ch\u2019 e", "1612": "l\u2019 er", "1613": "dre e", "1614": "mi in", "1615": "chi o", "1616": "d\u2019 es", "1617": "re am", "1618": "s\u2019 em", "1619": "che e", "1620": "to uc", "1621": "te im", "1622": "te os", "1623": "sa an", "1624": "tr\u2019 a", "1625": "de in", "1626": "ch\u2019 o", "1627": "zi al", "1628": "gi\u00e0 e", "1629": "v\u2019 el", "1630": "no an", "1631": "rio a", "1632": "schiu", "1633": "ve at", "1634": "sciol", "1635": "d\u2019 oc", "1636": "da in", "1637": "te or", "1638": "schet", "1639": "po an", "1640": "m\u2019 ac", "1641": "lo er", "1642": "tra i", "1643": "tra a", "1644": "l\u2019 oc", "1645": "ra et", "1646": "l\u2019 im", "1647": "li \u2019n", "1648": "za an", "1649": "ni es", "1650": "d\u2019 af", "1651": "me au", "1652": "ro ar", "1653": "li oc", "1654": "to ol", "1655": "ti of", "1656": "so al", "1657": "mio a", "1658": "sta o", "1659": "s\u2019 er", "1660": "ger e", "1661": "sa on", "1662": "d\u2019 on", "1663": "cia o", "1664": "bre a", "1665": "ro eb", "1666": "te at", "1667": "ti ac", "1668": "vi am", "1669": "ra an", "1670": "re eb", "1671": "de eu", "1672": "co er", "1673": "si og", "1674": "fa az", "1675": "s\u2019 ac", "1676": "li as", "1677": "so of", "1678": "ha \u2019n", "1679": "chiet", "1680": "fu of", "1681": "b\u00ec al", "1682": "m\u2019 al", "1683": "zia e", "1684": "te en", "1685": "t\u2019 al", "1686": "scias", "1687": "mi er", "1688": "m\u2019 af", "1689": "d\u2019 az", "1690": "no ad", "1691": "ne as", "1692": "bra a", "1693": "dio i", "1694": "do im", "1695": "ga as", "1696": "s\u2019 ab", "1697": "tri o", "1698": "ta an", "1699": "ne ap", "1700": "le of", "1701": "ta of", "1702": "la ap", "1703": "lo as", "1704": "t\u2019 es", "1705": "pa in", "1706": "ci ap", "1707": "ce at", "1708": "z\u00f2 in", "1709": "na in", "1710": "l\u2019 ab", "1711": "ce ar", "1712": "li un", "1713": "l\u2019 ad", "1714": "no in", "1715": "vi al", "1716": "glies", "1717": "me in", "1718": "ca on", "1719": "to on", "1720": "so an", "1721": "t\u2019 ac", "1722": "ro an", "1723": "gliar", "1724": "d\u2019 or", "1725": "cea u", "1726": "si am", "1727": "re en", "1728": "s\u2019 of", "1729": "ne em", "1730": "strar", "1731": "re ac", "1732": "mo es", "1733": "v\u2019 es", "1734": "s\u2019 op", "1735": "gni e", "1736": "s\u2019 av", "1737": "de au", "1738": "squil", "1739": "l\u2019 on", "1740": "ve ap", "1741": "sgrie", "1742": "co av", "1743": "ro oc", "1744": "ghien", "1745": "m\u2019 ar", "1746": "le in", "1747": "sto o", "1748": "le ad", "1749": "lo ar", "1750": "\u2019v\u2019 u", "1751": "sbe a", "1752": "ce im", "1753": "re em", "1754": "stren", "1755": "v\u2019 ab", "1756": "do or", "1757": "no av", "1758": "ma ap", "1759": "le ap", "1760": "na ap", "1761": "lo \u2019n", "1762": "st\u2019 o", "1763": "te of", "1764": "m\u2019 an", "1765": "de om", "1766": "re il", "1767": "bre o", "1768": "ro ap", "1769": "dea u", "1770": "strat", "1771": "li or", "1772": "ci \u2019n", "1773": "ti ar", "1774": "ti en", "1775": "ve al", "1776": "ne es", "1777": "d\u2019 el", "1778": "d\u2019 ur", "1779": "si an", "1780": "gne u", "1781": "no af", "1782": "suo a", "1783": "d\u2019 ol", "1784": "me ef", "1785": "di or", "1786": "to im", "1787": "li of", "1788": "vo at", "1789": "li er", "1790": "ra av", "1791": "ma or", "1792": "smo a", "1793": "lo ac", "1794": "do an", "1795": "s\u2019 am", "1796": "spiac", "1797": "n\u2019 ap", "1798": "v\u2019 in", "1799": "si uo", "1800": "tri e", "1801": "ro at", "1802": "ri ap", "1803": "li at", "1804": "na ac", "1805": "mi\u2019 a", "1806": "ce in", "1807": "te ab", "1808": "vi av", "1809": "la \u2019n", "1810": "ne et", "1811": "se\u2019 a", "1812": "te an", "1813": "la al", "1814": "lo af", "1815": "be av", "1816": "le ar", "1817": "ti \u2019n", "1818": "se un", "1819": "ra uc", "1820": "to in", "1821": "ce av", "1822": "v\u2019 er", "1823": "d\u2019 of", "1824": "gia o", "1825": "ra on", "1826": "m\u2019 as", "1827": "le ol", "1828": "ze es", "1829": "ni en", "1830": "li \u2019m", "1831": "ti as", "1832": "sciom", "1833": "me as", "1834": "te is", "1835": "n\u2019 an", "1836": "no im", "1837": "fu oc", "1838": "ni am", "1839": "no au", "1840": "sta u", "1841": "p\u00e8 al", "1842": "ri an", "1843": "tu en", "1844": "ma in", "1845": "sa in", "1846": "ta in", "1847": "ra eb", "1848": "te om", "1849": "ste i", "1850": "che a", "1851": "t\u2019 at", "1852": "ghiac", "1853": "d\u2019 et", "1854": "sta i", "1855": "ga an", "1856": "ve oc", "1857": "ti \u2019m", "1858": "na at", "1859": "so ar", "1860": "l\u2019 an", "1861": "d\u2019 os", "1862": "spran", "1863": "si ad", "1864": "re ab", "1865": "stroz", "1866": "pi in", "1867": "bra e", "1868": "t\u2019 el", "1869": "l\u2019 uc", "1870": "l\u2019 es", "1871": "so at", "1872": "so \u2019n", "1873": "pr\u2019 e", "1874": "pi or", "1875": "le id", "1876": "t\u2019 ar", "1877": "schic", "1878": "me am", "1879": "po ar", "1880": "mo ol", "1881": "qua e", "1882": "le on", "1883": "n\u2019 ab", "1884": "di es", "1885": "re im", "1886": "n\u2019 ol", "1887": "ne ov", "1888": "glian", "1889": "sto e", "1890": "pi ap", "1891": "le \u2019n", "1892": "so es", "1893": "si or", "1894": "re au", "1895": "m\u2019 at", "1896": "ci in", "1897": "ce ac", "1898": "lo eb", "1899": "ce af", "1900": "t\u2019 av", "1901": "za on", "1902": "n\u2019 eb", "1903": "di ac", "1904": "ra ot", "1905": "no es", "1906": "s\u2019 ap", "1907": "te es", "1908": "ia an", "1909": "ha al", "1910": "ta un", "1911": "m\u2019 es", "1912": "do ac", "1913": "mo ac", "1914": "mi ad", "1915": "ti at", "1916": "ci an", "1917": "no ag", "1918": "se ol", "1919": "d\u2019 om", "1920": "ta am", "1921": "t\u2019 in", "1922": "l\u2019 en", "1923": "te ar", "1924": "le am", "1925": "do eb", "1926": "so ad", "1927": "mi am", "1928": "zo ar", "1929": "ni av", "1930": "d\u2019 ap", "1931": "re af", "1932": "tro u", "1933": "ra in", "1934": "ga in", "1935": "m\u2019 ad", "1936": "do ap", "1937": "stric", "1938": "le \u2019m", "1939": "ne av", "1940": "chiun", "1941": "dio o", "1942": "di im", "1943": "no ap", "1944": "to at", "1945": "te \u2019n", "1946": "re ar", "1947": "ci as", "1948": "li ab", "1949": "chian", "1950": "be on", "1951": "go es", "1952": "d\u2019 at", "1953": "di in", "1954": "me of", "1955": "to ap", "1956": "do on", "1957": "scheg", "1958": "r\u2019 al", "1959": "l\u2019 af", "1960": "ta ad", "1961": "re es", "1962": "le as", "1963": "l\u2019 as", "1964": "si el", "1965": "me ar", "1966": "squar", "1967": "ra al", "1968": "ra ac", "1969": "ra as", "1970": "d\u2019 ar", "1971": "go in", "1972": "di az", "1973": "stroc", "1974": "mo ar", "1975": "za er", "1976": "ti oc", "1977": "t\u2019 as", "1978": "to ov", "1979": "m\u2019 om", "1980": "si ol", "1981": "te ad", "1982": "so on", "1983": "ro am", "1984": "ne ag", "1985": "te iu", "1986": "scial", "1987": "re av", "1988": "z\u2019 ar", "1989": "pre a", "1990": "so in", "1991": "ne al", "1992": "ta al", "1993": "se ap", "1994": "ch\u2019 u", "1995": "mo of", "1996": "no om", "1997": "de af", "1998": "no \u2019n", "1999": "n\u2019 al", "2000": "li em", "2001": "ta ar", "2002": "l\u2019 av", "2003": "l\u2019 op", "2004": "m\u2019 in", "2005": "l\u2019 ec", "2006": "so ab", "2007": "va an", "2008": "vi in", "2009": "l\u2019 um", "2010": "ce al", "2011": "ro of", "2012": "de ar", "2013": "s\u2019 ag", "2014": "fu ap", "2015": "che o", "2016": "d\u2019 og", "2017": "re as", "2018": "m\u2019 im", "2019": "ne im", "2020": "po in", "2021": "d\u2019 eu", "2022": "r\u2019 es", "2023": "ma es", "2024": "v\u2019 ap", "2025": "ti an", "2026": "vi ac", "2027": "que o", "2028": "ahi a", "2029": "dio e", "2030": "ne \u2019n", "2031": "do af", "2032": "ra ad", "2033": "gliel", "2034": "ra ab", "2035": "ro um", "2036": "zi at", "2037": "sta e", "2038": "se al", "2039": "li eb", "2040": "t\u2019 af", "2041": "re ot", "2042": "ci at", "2043": "l\u2019 or", "2044": "zo as", "2045": "la \u2019m", "2046": "lo \u2019m", "2047": "se at", "2048": "li uc", "2049": "si en", "2050": "t\u2019 im", "2051": "m\u2019 ol", "2052": "de ag", "2053": "ma ac", "2054": "tro a", "2055": "li im", "2056": "chias", "2057": "streg", "2058": "fo et", "2059": "scran", "2060": "d\u2019 in", "2061": "strin", "2062": "ra of", "2063": "na af", "2064": "fu im", "2065": "te er", "2066": "de of", "2067": "li am", "2068": "ma of", "2069": "la av", "2070": "te af", "2071": "ma an", "2072": "pra a", "2073": "l\u00ec en", "2074": "po av", "2075": "ta el", "2076": "ne on", "2077": "gi ar", "2078": "chioc", "2079": "do ar", "2080": "strac", "2081": "s\u2019 at", "2082": "no am", "2083": "ca in", "2084": "si \u2019m", "2085": "li af", "2086": "co on", "2087": "de as", "2088": "ra at", "2089": "fu al", "2090": "di ad", "2091": "n\u2019 in", "2092": "chi e", "2093": "se es", "2094": "ch\u2019 a", "2095": "te in", "2096": "va ar", "2097": "ci av", "2098": "n\u2019 av", "2099": "sa es", "2100": "ne ar", "2101": "ri al", "2102": "la an", "2103": "ge et", "2104": "no al", "2105": "li ul", "2106": "ti im", "2107": "ro as", "2108": "s\u2019 an", "2109": "ve es", "2110": "to av", "2111": "ti al", "2112": "mo at", "2113": "le uc", "2114": "di al", "2115": "zo an", "2116": "ge an", "2117": "di of", "2118": "vi an", "2119": "ro im", "2120": "chi u", "2121": "ta et", "2122": "za \u2019n", "2123": "gno u", "2124": "ti et", "2125": "re at", "2126": "chi a", "2127": "tro i", "2128": "qu\u2019 e", "2129": "stram", "2130": "va im", "2131": "ra es", "2132": "ghian", "2133": "ne in", "2134": "va id", "2135": "fu el", "2136": "vi \u2019m", "2137": "ro es", "2138": "l\u2019 at", "2139": "to af", "2140": "li ap", "2141": "so as", "2142": "d\u2019 ab", "2143": "se op", "2144": "co an", "2145": "re al", "2146": "me an", "2147": "ro in", "2148": "ti am", "2149": "n\u2019 ac", "2150": "de ap", "2151": "vi on", "2152": "de al", "2153": "to of", "2154": "te ol", "2155": "schie", "2156": "s\u2019 et", "2157": "ca an", "2158": "t\u2019 om", "2159": "ti or", "2160": "le or", "2161": "si er", "2162": "no ac", "2163": "ro au", "2164": "ghiot", "2165": "zi ap", "2166": "ni al", "2167": "schia", "2168": "to ag", "2169": "to ar", "2170": "mi ap", "2171": "t\u2019 an", "2172": "gliet", "2173": "la of", "2174": "vi of", "2175": "sa ol", "2176": "za am", "2177": "na av", "2178": "lo on", "2179": "strom", "2180": "d\u2019 am", "2181": "glien", "2182": "ma \u2019n", "2183": "ti ad", "2184": "le al", "2185": "va al", "2186": "n\u2019 am", "2187": "sci\u00e0n", "2188": "za im", "2189": "ni in", "2190": "l\u2019 al", "2191": "cio a", "2192": "t\u2019 em", "2193": "no ec", "2194": "do ol", "2195": "mo an", "2196": "li om", "2197": "ve an", "2198": "ci ar", "2199": "ce on", "2200": "re ap", "2201": "ci or", "2202": "scrit", "2203": "sto a", "2204": "lo es", "2205": "ca er", "2206": "strut", "2207": "bi et", "2208": "te on", "2209": "ze et", "2210": "ve ar", "2211": "l\u2019 ef", "2212": "t\u2019 am", "2213": "gne a", "2214": "l\u2019 un", "2215": "bra u", "2216": "to ab", "2217": "mo in", "2218": "se an", "2219": "scian", "2220": "que u", "2221": "ta as", "2222": "mi \u2019n", "2223": "vo ac", "2224": "ri ar", "2225": "te ag", "2226": "ro al", "2227": "m\u2019 ap", "2228": "sgher", "2229": "fu av", "2230": "tri a", "2231": "c\u2019 im", "2232": "s\u2019 es", "2233": "vea u", "2234": "mo ec", "2235": "ce et", "2236": "b\u2019 es", "2237": "l\u2019 ag", "2238": "ta ab", "2239": "n\u2019 er", "2240": "ze or", "2241": "so ap", "2242": "sfran", "2243": "ro av", "2244": "s\u2019 in", "2245": "vo au", "2246": "do at", "2247": "re on", "2248": "gne o", "2249": "li av", "2250": "ta on", "2251": "v\u2019 of", "2252": "no ab", "2253": "l\u2019 ov", "2254": "ge in", "2255": "scris", "2256": "mo on", "2257": "co ac", "2258": "v\u2019 ac", "2259": "ta ac", "2260": "r\u2019 an", "2261": "se af", "2262": "ri in", "2263": "fe et", "2264": "sa og", "2265": "sco u", "2266": "po on", "2267": "stran", "2268": "d\u2019 au", "2269": "se in", "2270": "v\u2019 am", "2271": "lia a", "2272": "m\u2019 av", "2273": "na of", "2274": "m\u2019 ag", "2275": "triar", "2276": "l\u2019 os", "2277": "mi ac", "2278": "co ar", "2279": "ra am", "2280": "si at", "2281": "pa es", "2282": "za et", "2283": "le av", "2284": "vo as", "2285": "to es", "2286": "gi an", "2287": "cia a", "2288": "ch\u2019 \u00ef", "2289": "n\u2019 at", "2290": "li es", "2291": "tra e", "2292": "l\u2019 ae", "2293": "l\u2019 el", "2294": "do in", "2295": "sti a", "2296": "l\u2019 of", "2297": "do el", "2298": "ne \u2019m", "2299": "si ac", "2300": "n\u2019 om", "2301": "vi ar", "2302": "di ab", "2303": "mi an", "2304": "c\u2019 en", "2305": "re om", "2306": "me af", "2307": "la el", "2308": "di an", "2309": "te au", "2310": "di uo", "2311": "va \u2019n", "2312": "po al", "2313": "fo im", "2314": "to ef", "2315": "ne ac", "2316": "li al", "2317": "d\u2019 eb", "2318": "do oc", "2319": "zio a", "2320": "lo al", "2321": "l\u2019 am", "2322": "so et", "2323": "gliam", "2324": "co in", "2325": "ni as", "2326": "de \u2019n", "2327": "ce an", "2328": "na ar", "2329": "pre e", "2330": "chiap", "2331": "ro on", "2332": "re an", "2333": "la on", "2334": "l\u2019 ot", "2335": "si as", "2336": "d\u2019 ot", "2337": "v\u2019 ar", "2338": "te as", "2339": "m\u2019 ab", "2340": "s\u2019 os", "2341": "sce a", "2342": "co eb", "2343": "s\u2019 el", "2344": "l\u2019 ac", "2345": "bo on", "2346": "la au", "2347": "di og", "2348": "gliuo", "2349": "co et", "2350": "me on", "2351": "ce es", "2352": "s\u00ec in", "2353": "l\u2019 ul", "2354": "lo ef", "2355": "te ap", "2356": "ri on", "2357": "lo at", "2358": "ma on", "2359": "si \u2019n", "2360": "n\u2019 uo", "2361": "me al", "2362": "ba un", "2363": "ma al", "2364": "scioc", "2365": "gli u", "2366": "me ac", "2367": "l\u2019 eb", "2368": "sta a", "2369": "m\u2019 of", "2370": "strel", "2371": "ci am", "2372": "mo im", "2373": "de am", "2374": "che u", "2375": "d\u2019 an", "2376": "ra ap", "2377": "s\u00ec \u2019n", "2378": "ro ab", "2379": "ro ac", "2380": "me ap", "2381": "do er", "2382": "ta es", "2383": "t\u2019 ab", "2384": "no et", "2385": "do am", "2386": "v\u2019 an", "2387": "n\u2019 ar", "2388": "sciam", "2389": "d\u2019 al", "2390": "le es", "2391": "va at", "2392": "va in", "2393": "re oc", "2394": "va eb", "2395": "lo av", "2396": "li in", "2397": "ce eu", "2398": "ta op", "2399": "sa ac", "2400": "be al", "2401": "z\u2019 al", "2402": "v\u2019 al", "2403": "cro a", "2404": "tu ha", "2405": "li et", "2406": "s\u2019 ar", "2407": "pie e", "2408": "stret", "2409": "ni on", "2410": "se on", "2411": "lo im", "2412": "spres", "2413": "stras", "2414": "na \u2019n", "2415": "splen", "2416": "s\u2019 as", "2417": "leo e", "2418": "sti o", "2419": "v\u2019 eb", "2420": "vi as", "2421": "l\u2019 \u00e0n", "2422": "sciar", "2423": "la es", "2424": "do es", "2425": "co ad", "2426": "li an", "2427": "t\u2019 or", "2428": "ste a", "2429": "zi as", "2430": "la en", "2431": "qu\u2019 o", "2432": "zi ag", "2433": "li ag", "2434": "na or", "2435": "la in", "2436": "mo eb", "2437": "so eb", "2438": "\u2019v\u2019 e", "2439": "no er", "2440": "ra ec", "2441": "ta om", "2442": "tro e", "2443": "be as", "2444": "n\u2019 ag", "2445": "di om", "2446": "ti in", "2447": "ti av", "2448": "st\u2019 u", "2449": "schio", "2450": "l\u2019 in", "2451": "cia e", "2452": "lo an", "2453": "di ol", "2454": "ca en", "2455": "tro o", "2456": "n\u2019 on", "2457": "mi al", "2458": "co at", "2459": "z\u2019 es", "2460": "de an", "2461": "t\u00e8 an", "2462": "za al", "2463": "te al", "2464": "d\u2019 er", "2465": "vo an", "2466": "li ac", "2467": "m\u2019 eb", "2468": "lo of", "2469": "r\u2019 el", "2470": "no or", "2471": "d\u2019 en", "2472": "te em", "2473": "ia al", "2474": "co al", "2475": "re ol", "2476": "sgiun", "2477": "re ag", "2478": "lo in", "2479": "s\u2019 ad", "2480": "da an", "2481": "spraz", "2482": "mi ef", "2483": "se as", "2484": "t\u2019 ag", "2485": "ria \u00f2", "2486": "hi om", "2487": "le oc", "2488": "zie o", "2489": "to ac", "2490": "ci ad", "2491": "zi \u2019m", "2492": "strug", "2493": "s\u2019 en", "2494": "ce as", "2495": "li ad", "2496": "mo al", "2497": "ra im", "2498": "l\u2019 om", "2499": "bo av", "2500": "schem", "2501": "zio e", "2502": "l\u2019 au", "2503": "sa im", "2504": "re et", "2505": "ba in", "2506": "cu\u2019 i", "2507": "si av", "2508": "ri ac", "2509": "re ad", "2510": "fu in", "2511": "zo in", "2512": "bi al", "2513": "se ac", "2514": "t\u2019 ap", "2515": "de or", "2516": "st\u2019 a", "2517": "sa ap", "2518": "le at", "2519": "go al", "2520": "de on", "2521": "gna a", "2522": "di on", "2523": "l\u2019 ap", "2524": "re in", "2525": "sciut", "2526": "d\u2019 im", "2527": "li au", "2528": "gia e", "2529": "ne an", "2530": "si ar", "2531": "s\u00ec \u2019m", "2532": "ta at", "2533": "si im", "2534": "d\u2019 ac", "2535": "ta eu", "2536": "chiar", "2537": "na on", "2538": "vi en", "2539": "si in", "2540": "di av", "2541": "ge un", "2542": "ch\u2019 i", "2543": "mo af", "2544": "do al", "2545": "ce au", "2546": "gno a", "2547": "to ad", "2548": "n\u2019 au", "2549": "si of", "2550": "be ar", "2551": "to an", "2552": "zio u", "2553": "to al", "2554": "l\u2019 em", "2555": "di af", "2556": "li on", "2557": "bo al", "2558": "l\u2019 ai", "2559": "s\u2019 af", "2560": "la ol", "2561": "ta im", "2562": "ne af", "2563": "sco o", "2564": "s\u2019 al", "2565": "no as", "2566": "io al", "2567": "ra el", "2568": "to as", "2569": "li ar", "2570": "si al", "2571": "de er", "2572": "dio a", "2573": "s\u2019 eb", "2574": "de ac", "2575": "za in", "2576": "zia o", "2577": "na es", "2578": "no at", "2579": "so am", "2580": "co ap", "2581": "vo al", "2582": "te ac", "2583": "ci af", "2584": "s\u2019 im", "2585": "to or", "2586": "v\u2019 et", "2587": "do as", "2588": "me at", "2589": "se \u2019n", "2590": "to ec", "2591": "so en", "2592": "le an", "2593": "na ab", "2594": "no ar", "2595": "tra u", "2596": "ni ap", "2597": "lo il", "2598": "fa ir", "2599": "sciau", "2600": "ci al", "2601": "scrip", "2602": "na eb", "2603": "d\u2019 as", "2604": "to eb", "2605": "l\u2019 ar", "2606": "scher", "2607": "tio i", "2608": "mo or", "2609": "l\u2019 uo", "2610": "sti on", "2611": "scun e", "2612": "sto ar", "2613": "sio an", "2614": "ch\u2019 el", "2615": "chio o", "2616": "mio av", "2617": "cio et", "2618": "ria on", "2619": "tri ap", "2620": "tro ac", "2621": "sti es", "2622": "sto of", "2623": "go han", "2624": "gno ae", "2625": "gue an", "2626": "tri af", "2627": "gia al", "2628": "stri a", "2629": "cie in", "2630": "stro e", "2631": "gne uo", "2632": "ch\u2019 an", "2633": "pi\u00f9 \u2019n", "2634": "ri han", "2635": "cio ap", "2636": "che om", "2637": "gue or", "2638": "st\u2019 ac", "2639": "gni an", "2640": "tre os", "2641": "dre an", "2642": "sce al", "2643": "sce as", "2644": "bri ap", "2645": "sti in", "2646": "pre es", "2647": "bre in", "2648": "che an", "2649": "zia on", "2650": "sto in", "2651": "gi\u00f2 in", "2652": "sta im", "2653": "gue on", "2654": "que es", "2655": "gni al", "2656": "sta in", "2657": "qua in", "2658": "que al", "2659": "sti av", "2660": "sce an", "2661": "gio in", "2662": "gia in", "2663": "stro o", "2664": "sta og", "2665": "chio u", "2666": "glio u", "2667": "st\u2019 ul", "2668": "ber\u2019 o", "2669": "gne im", "2670": "cio an", "2671": "mia \u2019n", "2672": "ch\u2019 ac", "2673": "tro an", "2674": "ch\u2019 as", "2675": "ste an", "2676": "do o e", "2677": "st\u2019 an", "2678": "tro al", "2679": "gno af", "2680": "l\u2019 han", "2681": "sto at", "2682": "sma in", "2683": "tr\u2019 ar", "2684": "bre an", "2685": "chi in", "2686": "pre ac", "2687": "st\u2019 al", "2688": "sto an", "2689": "ch\u2019 es", "2690": "sti al", "2691": "sti un", "2692": "tr\u2019 om", "2693": "sto ap", "2694": "c\u2019 han", "2695": "dio an", "2696": "scio e", "2697": "cio al", "2698": "ch\u2019 eb", "2699": "ria in", "2700": "glia o", "2701": "bia an", "2702": "mio \u2019n", "2703": "dre eb", "2704": "stra a", "2705": "sta ai", "2706": "pre ar", "2707": "qua of", "2708": "ste in", "2709": "te han", "2710": "che ha", "2711": "ch\u2019 og", "2712": "schiet", "2713": "tro ab", "2714": "st\u2019 of", "2715": "tro \u2019m", "2716": "dre as", "2717": "ch\u2019 in", "2718": "chi al", "2719": "gio on", "2720": "com\u2019 u", "2721": "sta on", "2722": "ch\u2019 ap", "2723": "gne ef", "2724": "sta an", "2725": "stro a", "2726": "tra or", "2727": "tra \u2019m", "2728": "cio as", "2729": "scia e", "2730": "com\u2019 a", "2731": "sco al", "2732": "che ar", "2733": "chi ap", "2734": "sto \u2019n", "2735": "tro in", "2736": "tri as", "2737": "ch\u2019 ag", "2738": "sio in", "2739": "qua on", "2740": "chi ar", "2741": "gne er", "2742": "tr\u2019 am", "2743": "tra op", "2744": "glia u", "2745": "sti er", "2746": "tri es", "2747": "sce el", "2748": "che \u2019m", "2749": "d\u2019 han", "2750": "ch\u2019 er", "2751": "ch\u2019 at", "2752": "cia ar", "2753": "glio e", "2754": "tro av", "2755": "str\u2019 u", "2756": "tra ef", "2757": "sto on", "2758": "sti oc", "2759": "bre et", "2760": "stra i", "2761": "sti or", "2762": "zia il", "2763": "stro u", "2764": "glia a", "2765": "gno al", "2766": "lio an", "2767": "tro ar", "2768": "tr\u2019 al", "2769": "n\u2019 han", "2770": "ch\u2019 ar", "2771": "chio a", "2772": "bia in", "2773": "ria of", "2774": "vio in", "2775": "chi an", "2776": "sto es", "2777": "stri o", "2778": "chi on", "2779": "ne han", "2780": "gno am", "2781": "dia as", "2782": "li han", "2783": "gna as", "2784": "sto ac", "2785": "glio o", "2786": "st\u2019 in", "2787": "sta ol", "2788": "sco an", "2789": "gio et", "2790": "schian", "2791": "tra av", "2792": "ti han", "2793": "che \u2019n", "2794": "lio as", "2795": "ch\u2019 or", "2796": "m\u2019 han", "2797": "zie ec", "2798": "bra av", "2799": "ghe on", "2800": "lia an", "2801": "gh\u2019 es", "2802": "tro ap", "2803": "gno in", "2804": "qu\u2019 an", "2805": "dre es", "2806": "tra an", "2807": "chi am", "2808": "ch\u2019 al", "2809": "zia or", "2810": "gne ac", "2811": "sta al", "2812": "gia ar", "2813": "sto al", "2814": "tro of", "2815": "chi ac", "2816": "bra in", "2817": "tro im", "2818": "t\u2019 han", "2819": "pio on", "2820": "tri of", "2821": "gio ol", "2822": "st\u2019 ot", "2823": "ch\u2019 ad", "2824": "tre in", "2825": "re o u", "2826": "nio im", "2827": "gna in", "2828": "mio in", "2829": "gne in", "2830": "ch\u2019 et", "2831": "sti an", "2832": "tro on", "2833": "vea \u2019m", "2834": "tro as", "2835": "tri in", "2836": "sto \u2019m", "2837": "ce \u2018ne", "2838": "tro et", "2839": "gne al", "2840": "stra u", "2841": "ch\u2019 av", "2842": "pie or", "2843": "pre at", "2844": "sti el", "2845": "st\u2019 es", "2846": "co e i", "2847": "qua im", "2848": "cia on", "2849": "tre an", "2850": "pr\u2019 ar", "2851": "ch\u2019 en", "2852": "st\u2019 ar", "2853": "che in", "2854": "lio in", "2855": "dre al", "2856": "rio an", "2857": "ch\u2019 ab", "2858": "schiat", "2859": "gio uc", "2860": "sto im", "2861": "cia im", "2862": "stra e", "2863": "nea av", "2864": "pre in", "2865": "pre al", "2866": "pi\u00f9 in", "2867": "ch\u2019 am", "2868": "scia al", "2869": "l\u00e0 \u2019vun", "2870": "glia as", "2871": "scia an", "2872": "stra ap", "2873": "ti e \u2019n", "2874": "stri al", "2875": "stro al", "2876": "trio al", "2877": "stro ac", "2878": "stro as", "2879": "pria av", "2880": "chie et", "2881": "stri an", "2882": "glia es", "2883": "glia al", "2884": "stro oc", "2885": "d\u2019 i\u2019 a", "2886": "stro av", "2887": "n\u2019 \u00e8 im", "2888": "stro im", "2889": "gio o e", "2890": "str\u2019 ar", "2891": "glio as", "2892": "chia of", "2893": "stri af", "2894": "s\u2019 i\u2019 o", "2895": "stre in", "2896": "stri at", "2897": "sche er", "2898": "glio an", "2899": "vria es", "2900": "sche ab", "2901": "glio es", "2902": "stro eb", "2903": "si e \u2019n", "2904": "glie al", "2905": "stri ef", "2906": "str\u2019 or", "2907": "chio at", "2908": "stra ef", "2909": "glia ac", "2910": "stra in", "2911": "glio on", "2912": "stro es", "2913": "stri av", "2914": "chio in", "2915": "stro uc", "2916": "glia in", "2917": "re a \u2019n", "2918": "glio in", "2919": "dio han", "2920": "lo e \u2019n", "2921": "chio an", "2922": "glie eb", "2923": "stro in", "2924": "chia an", "2925": "glie an", "2926": "li \u00e8 in", "2927": "stro an", "2928": "ch\u2019 i\u2019 e", "2929": "t\u2019 ho in", "2930": "ch\u2019 i\u2019 o", "2931": "sti a \u2019n", "2932": "ch\u2019 e\u2019 \u2019n", "2933": "ch\u2019 io \u2019n", "2934": "\u00f9 ", "2935": "e ", "2936": "\u00f2 ", "2937": "\u00ec ", "2938": "i ", "2939": "s ", "2940": "a ", "2941": "\u00ef ", "2942": "\u00e8 ", "2943": "o ", "2944": "or ", "2945": "l\u00e8 ", "2946": "sc ", "2947": "u\u2019 ", "2948": "si ", "2949": "b\u00e8 ", "2950": "ba ", "2951": "s\u00e8 ", "2952": "pe ", "2953": "t\u00e9 ", "2954": "m\u00f2 ", "2955": "on ", "2956": "p\u00f2 ", "2957": "s\u00ec ", "2958": "so ", "2959": "et ", "2960": "fo ", "2961": "ve ", "2962": "ri ", "2963": "fu ", "2964": "ti ", "2965": "su ", "2966": "n\u00e0 ", "2967": "vi ", "2968": "\u00e9n ", "2969": "t\u00e8 ", "2970": "a\u2019 ", "2971": "v\u00f2 ", "2972": "\u00f3n ", "2973": "l\u00ec ", "2974": "re ", "2975": "mo ", "2976": "no ", "2977": "s\u00f2 ", "2978": "ce ", "2979": "ra ", "2980": "c\u00e9 ", "2981": "le ", "2982": "be ", "2983": "r\u00f2 ", "2984": "g\u00f2 ", "2985": "s\u00f9 ", "2986": "ne ", "2987": "ca ", "2988": "ae ", "2989": "\u00e8l ", "2990": "t\u00ec ", "2991": "z\u00f2 ", "2992": "c\u00e8 ", "2993": "la ", "2994": "se ", "2995": "g\u00ec ", "2996": "t\u00e0 ", "2997": "al ", "2998": "\u00f2n ", "2999": "gi ", "3000": "th ", "3001": "\u00e0m ", "3002": "\u00ecs ", "3003": "ge ", "3004": "me ", "3005": "in ", "3006": "f\u00e9 ", "3007": "s\u00e9 ", "3008": "ci ", "3009": "d\u00e9 ", "3010": "un ", "3011": "fi ", "3012": "ad ", "3013": "sa ", "3014": "va ", "3015": "m\u2019 ", "3016": "om ", "3017": "pa ", "3018": "po ", "3019": "an ", "3020": "do ", "3021": "ar ", "3022": "r\u00ec ", "3023": "io ", "3024": "\u00e0r ", "3025": "\u00e8e ", "3026": "zo ", "3027": "de ", "3028": "t\u00f9 ", "3029": "oh ", "3030": "zi ", "3031": "ma ", "3032": "li ", "3033": "d\u00ec ", "3034": "fe ", "3035": "\u00f9l ", "3036": "od ", "3037": "n\u00e8 ", "3038": "vo ", "3039": "go ", "3040": "e\u2019 ", "3041": "ab ", "3042": "ga ", "3043": "n\u00e9 ", "3044": "lo ", "3045": "ut ", "3046": "na ", "3047": "b\u00f9 ", "3048": "f\u00e0 ", "3049": "tu ", "3050": "ni ", "3051": "co ", "3052": "n\u00ec ", "3053": "i\u2019 ", "3054": "il ", "3055": "bo ", "3056": "m\u00e8 ", "3057": "te ", "3058": "d\u00f2 ", "3059": "ei ", "3060": "f\u00f2 ", "3061": "p\u00e8 ", "3062": "pi ", "3063": "os ", "3064": "ed ", "3065": "ir ", "3066": "v\u00ec ", "3067": "d\u00e0 ", "3068": "di ", "3069": "fa ", "3070": "to ", "3071": "us ", "3072": "ho ", "3073": "da ", "3074": "\u00f2s ", "3075": "t\u00f2 ", "3076": "ie ", "3077": "ai ", "3078": "bi ", "3079": "b\u00f2 ", "3080": "c\u00f2 ", "3081": "ha ", "3082": "ia ", "3083": "l\u00f2 ", "3084": "l\u00e0 ", "3085": "n\u00f2 ", "3086": "as ", "3087": "mi ", "3088": "ta ", "3089": "st ", "3090": "r\u00e0 ", "3091": "za ", "3092": "ro ", "3093": "el ", "3094": "\u00e0s ", "3095": "ze ", "3096": "poi ", "3097": "rin ", "3098": "fil ", "3099": "c\u00e0n ", "3100": "bar ", "3101": "sa\u2019 ", "3102": "nol ", "3103": "bin ", "3104": "ter ", "3105": "joi ", "3106": "vam ", "3107": "mia ", "3108": "sue ", "3109": "mai ", "3110": "b\u00e0l ", "3111": "sia ", "3112": "far ", "3113": "vie ", "3114": "tun ", "3115": "til ", "3116": "ean ", "3117": "vio ", "3118": "die ", "3119": "dir ", "3120": "mal ", "3121": "spa ", "3122": "vra ", "3123": "car ", "3124": "tea ", "3125": "rii ", "3126": "sor ", "3127": "gin ", "3128": "rio ", "3129": "vem ", "3130": "sio ", "3131": "gro ", "3132": "la\u2019 ", "3133": "nis ", "3134": "sin ", "3135": "cle ", "3136": "dre ", "3137": "dur ", "3138": "ton ", "3139": "st\u00e0 ", "3140": "bor ", "3141": "mae ", "3142": "vas ", "3143": "mon ", "3144": "gi\u2019 ", "3145": "lai ", "3146": "za\u2019 ", "3147": "zan ", "3148": "fui ", "3149": "ri\u2019 ", "3150": "cen ", "3151": "bol ", "3152": "te\u2019 ", "3153": "ne\u2019 ", "3154": "dui ", "3155": "fia ", "3156": "t\u00e0n ", "3157": "ges ", "3158": "peo ", "3159": "pro ", "3160": "l\u00eco ", "3161": "dor ", "3162": "b\u00eca ", "3163": "l\u00e8m ", "3164": "coi ", "3165": "ron ", "3166": "sai ", "3167": "n\u00ece ", "3168": "ran ", "3169": "hai ", "3170": "pi\u00e8 ", "3171": "tel ", "3172": "bei ", "3173": "men ", "3174": "gri ", "3175": "dee ", "3176": "spe ", "3177": "dal ", "3178": "ram ", "3179": "nie ", "3180": "lir ", "3181": "lin ", "3182": "pol ", "3183": "vel ", "3184": "nil ", "3185": "rei ", "3186": "lem ", "3187": "rao ", "3188": "t\u00f2n ", "3189": "ser ", "3190": "sci ", "3191": "cut ", "3192": "bia ", "3193": "ceo ", "3194": "fi\u2019 ", "3195": "gio ", "3196": "su\u00e8 ", "3197": "dia ", "3198": "leo ", "3199": "dr\u00ec ", "3200": "m\u00ecs ", "3201": "s\u00ece ", "3202": "nin ", "3203": "p\u00f2s ", "3204": "gir ", "3205": "gea ", "3206": "tro ", "3207": "gi\u00f2 ", "3208": "zio ", "3209": "nan ", "3210": "a i ", "3211": "mei ", "3212": "l\u00f2n ", "3213": "tr\u2019 ", "3214": "ga\u2019 ", "3215": "n\u00f2s ", "3216": "f\u00e8l ", "3217": "p\u00eca ", "3218": "tai ", "3219": "e i ", "3220": "mun ", "3221": "st\u00e9 ", "3222": "pie ", "3223": "meo ", "3224": "rea ", "3225": "vo\u2019 ", "3226": "lui ", "3227": "mil ", "3228": "suo ", "3229": "rir ", "3230": "cur ", "3231": "che ", "3232": "ma\u2019 ", "3233": "lar ", "3234": "voi ", "3235": "tor ", "3236": "dri ", "3237": "gno ", "3238": "som ", "3239": "sei ", "3240": "sti ", "3241": "ban ", "3242": "teo ", "3243": "der ", "3244": "non ", "3245": "t\u00e9r ", "3246": "neo ", "3247": "lie ", "3248": "gan ", "3249": "sco ", "3250": "fu\u2019 ", "3251": "ven ", "3252": "tol ", "3253": "gna ", "3254": "fin ", "3255": "cra ", "3256": "tr\u00e0 ", "3257": "tia ", "3258": "cin ", "3259": "n\u00f2i ", "3260": "mii ", "3261": "f\u00e0t ", "3262": "co\u2019 ", "3263": "mas ", "3264": "dei ", "3265": "vin ", "3266": "zie ", "3267": "pon ", "3268": "lan ", "3269": "e \u2019 ", "3270": "cei ", "3271": "s\u00f9e ", "3272": "pur ", "3273": "\u2019ve ", "3274": "di\u2019 ", "3275": "du\u2019 ", "3276": "sto ", "3277": "zul ", "3278": "pr\u00ec ", "3279": "b\u00e8l ", "3280": "cri ", "3281": "dan ", "3282": "bel ", "3283": "tan ", "3284": "don ", "3285": "rum ", "3286": "par ", "3287": "bre ", "3288": "dra ", "3289": "cu\u2019 ", "3290": "rui ", "3291": "da\u2019 ", "3292": "re\u2019 ", "3293": "tis ", "3294": "va\u2019 ", "3295": "fon ", "3296": "ten ", "3297": "sua ", "3298": "clo ", "3299": "c\u00f2l ", "3300": "ria ", "3301": "tua ", "3302": "deh ", "3303": "gra ", "3304": "unt ", "3305": "pir ", "3306": "fan ", "3307": "uhi ", "3308": "tem ", "3309": "han ", "3310": "for ", "3311": "sui ", "3312": "nar ", "3313": "di\u00e8 ", "3314": "pr\u00e0 ", "3315": "cui ", "3316": "cil ", "3317": "sem ", "3318": "cor ", "3319": "fal ", "3320": "f\u00e9e ", "3321": "ree ", "3322": "tre ", "3323": "n\u00ect ", "3324": "me\u2019 ", "3325": "s\u00f3n ", "3326": "len ", "3327": "tar ", "3328": "nia ", "3329": "pia ", "3330": "mum ", "3331": "gei ", "3332": "tii ", "3333": "d\u00ect ", "3334": "bui ", "3335": "na\u2019 ", "3336": "nea ", "3337": "gi\u00e0 ", "3338": "pre ", "3339": "san ", "3340": "ahi ", "3341": "gru ", "3342": "g\u00f3n ", "3343": "sul ", "3344": "cea ", "3345": "mul ", "3346": "que ", "3347": "feo ", "3348": "mor ", "3349": "gol ", "3350": "ver ", "3351": "nii ", "3352": "mar ", "3353": "cem ", "3354": "son ", "3355": "smo ", "3356": "ghe ", "3357": "gis ", "3358": "bri ", "3359": "sis ", "3360": "zon ", "3361": "tue ", "3362": "can ", "3363": "lio ", "3364": "r\u00f2l ", "3365": "cal ", "3366": "gre ", "3367": "des ", "3368": "pei ", "3369": "nha ", "3370": "bis ", "3371": "beo ", "3372": "vea ", "3373": "ber ", "3374": "zia ", "3375": "rer ", "3376": "tr\u00f2 ", "3377": "lor ", "3378": "uo\u2019 ", "3379": "z\u00f2n ", "3380": "bro ", "3381": "cre ", "3382": "gel ", "3383": "lea ", "3384": "fai ", "3385": "tum ", "3386": "vai ", "3387": "pan ", "3388": "lei ", "3389": "ion ", "3390": "dua ", "3391": "nal ", "3392": "bil ", "3393": "zai ", "3394": "smi ", "3395": "gua ", "3396": "gia ", "3397": "tra ", "3398": "n\u00e8s ", "3399": "bee ", "3400": "din ", "3401": "t\u00f2r ", "3402": "o a ", "3403": "num ", "3404": "mio ", "3405": "r\u00ecs ", "3406": "ta\u2019 ", "3407": "cer ", "3408": "pin ", "3409": "gu\u00f2 ", "3410": "fur ", "3411": "pel ", "3412": "gli ", "3413": "pra ", "3414": "rar ", "3415": "dii ", "3416": "per ", "3417": "zar ", "3418": "st\u00ec ", "3419": "fra ", "3420": "tio ", "3421": "o e ", "3422": "sc\u00ec ", "3423": "gu\u00ec ", "3424": "vii ", "3425": "nel ", "3426": "tei ", "3427": "due ", "3428": "st\u00f9 ", "3429": "gni ", "3430": "rel ", "3431": "sta ", "3432": "rai ", "3433": "cie ", "3434": "uom ", "3435": "van ", "3436": "se\u2019 ", "3437": "mus ", "3438": "vau ", "3439": "ti\u2019 ", "3440": "g\u00f3r ", "3441": "bus ", "3442": "de\u2019 ", "3443": "nio ", "3444": "pi\u00e9 ", "3445": "c\u00f2b ", "3446": "min ", "3447": "vil ", "3448": "pu\u00f2 ", "3449": "via ", "3450": "man ", "3451": "cai ", "3452": "ieu ", "3453": "nem ", "3454": "a a ", "3455": "sca ", "3456": "fer ", "3457": "m\u00eca ", "3458": "mea ", "3459": "nir ", "3460": "fe\u2019 ", "3461": "sol ", "3462": "col ", "3463": "dar ", "3464": "vei ", "3465": "sel ", "3466": "res ", "3467": "r\u00ecb ", "3468": "r\u00ece ", "3469": "rem ", "3470": "ros ", "3471": "su\u2019 ", "3472": "deo ", "3473": "sub ", "3474": "gon ", "3475": "tui ", "3476": "mie ", "3477": " in ", "3478": "sii ", "3479": "lee ", "3480": "fie ", "3481": "lon ", "3482": "sal ", "3483": "f\u00f3n ", "3484": "gai ", "3485": "ral ", "3486": "gn\u00ec ", "3487": "ier ", "3488": "duo ", "3489": "d\u00e8i ", "3490": "sce ", "3491": "tir ", "3492": "no\u2019 ", "3493": "pri ", "3494": "gne ", "3495": "ian ", "3496": "cul ", "3497": "d\u00eca ", "3498": "dea ", "3499": "ces ", "3500": "sar ", "3501": "sit ", "3502": "chi ", "3503": "plo ", "3504": "con ", "3505": "gor ", "3506": "dil ", "3507": "t\u00f3n ", "3508": "vol ", "3509": "dem ", "3510": "var ", "3511": "pea ", "3512": "ben ", "3513": "sen ", "3514": "fei ", "3515": "cel ", "3516": "nai ", "3517": "bir ", "3518": "tri ", "3519": "cun ", "3520": "sie ", "3521": "n\u00eca ", "3522": "dro ", "3523": "lu\u2019 ", "3524": "rua ", "3525": "rie ", "3526": "ror ", "3527": "ner ", "3528": "val ", "3529": "gar ", "3530": "cro ", "3531": "pio ", "3532": "l\u00eca ", "3533": "bue ", "3534": "bio ", "3535": "r\u00f3n ", "3536": "fio ", "3537": "ger ", "3538": "dai ", "3539": "vos ", "3540": "cia ", "3541": "ler ", "3542": "dio ", "3543": "ci\u00f2 ", "3544": "del ", "3545": "mee ", "3546": "por ", "3547": "ren ", "3548": "bi\u00f2 ", "3549": "tus ", "3550": "mer ", "3551": "dr\u00f2 ", "3552": "tin ", "3553": "seo ", "3554": "bon ", "3555": "f\u00e0s ", "3556": "qui ", "3557": "nei ", "3558": "dr\u00e0 ", "3559": "lia ", "3560": "von ", "3561": "ste ", "3562": "a e ", "3563": "bra ", "3564": "ril ", "3565": "ra\u2019 ", "3566": "cio ", "3567": "sma ", "3568": "pal ", "3569": "\u2018te ", "3570": "nor ", "3571": "sun ", "3572": "pi\u00f9 ", "3573": "gi\u00f9 ", "3574": "gue ", "3575": "tal ", "3576": "gal ", "3577": "pem ", "3578": "noi ", "3579": "gui ", "3580": "st\u00f2 ", "3581": "ve\u2019 ", "3582": "cis ", "3583": "cum ", "3584": "tes ", "3585": "ch\u00e9 ", "3586": "reo ", "3587": "tuo ", "3588": "fue ", "3589": "pii ", "3590": "qua ", "3591": "ghi ", "3592": "v\u00ecd ", "3593": "sir ", "3594": "d\u00ece ", "3595": "gnes ", "3596": "laio ", "3597": "giam ", "3598": "pi e ", "3599": "\u00e8 il ", "3600": "za a ", "3601": "gnor ", "3602": "me a ", "3603": "pria ", "3604": "to o ", "3605": "ph\u00e8l ", "3606": "ro a ", "3607": "la a ", "3608": "chio ", "3609": "prei ", "3610": "ga e ", "3611": "pa \u00e8 ", "3612": "buon ", "3613": "i in ", "3614": "ra \u00e8 ", "3615": "gien ", "3616": "ce a ", "3617": "vien ", "3618": "vi o ", "3619": "tuon ", "3620": "go \u00e8 ", "3621": "cl\u00e8s ", "3622": "piar ", "3623": "duol ", "3624": "ne o ", "3625": "l\u00ec \u00e8 ", "3626": "te i ", "3627": "gi a ", "3628": "di i ", "3629": "quie ", "3630": "d\u2019 i ", "3631": "de o ", "3632": "na \u00e8 ", "3633": "crea ", "3634": "m\u2019 \u00e8 ", "3635": "le o ", "3636": "ga a ", "3637": "co \u00e8 ", "3638": "plor ", "3639": "gual ", "3640": "scon ", "3641": "fu e ", "3642": "bi a ", "3643": "drel ", "3644": "gioi ", "3645": "pi\u00e9r ", "3646": "s\u2019 a ", "3647": "stre ", "3648": "cuor ", "3649": "re \u00e8 ", "3650": "si o ", "3651": "mo i ", "3652": "ta o ", "3653": "pa a ", "3654": "prai ", "3655": "o un ", "3656": "vi e ", "3657": "zian ", "3658": "mi i ", "3659": "sti\u00f2 ", "3660": "na a ", "3661": "i il ", "3662": "scie ", "3663": "ti \u00e8 ", "3664": "trai ", "3665": "va o ", "3666": "zo a ", "3667": "ti o ", "3668": "ro o ", "3669": "guia ", "3670": "quar ", "3671": "cain ", "3672": "nien ", "3673": "me \u00e8 ", "3674": "vuoi ", "3675": "rian ", "3676": "trar ", "3677": "scun ", "3678": "r\u2019 a ", "3679": "gli\u00f2 ", "3680": "ne i ", "3681": "scea ", "3682": "fren ", "3683": "e \u2019n ", "3684": "sci\u2019 ", "3685": "ver\u2019 ", "3686": "prec ", "3687": "dra\u2019 ", "3688": "c\u00f2th ", "3689": "giai ", "3690": "le a ", "3691": "ri a ", "3692": "str\u00f2 ", "3693": "quam ", "3694": "bo e ", "3695": "niam ", "3696": "cria ", "3697": "prun ", "3698": "stie ", "3699": "f\u00e9 i ", "3700": "puoi ", "3701": "te e ", "3702": "vuol ", "3703": "gnia ", "3704": "glio ", "3705": "ve e ", "3706": "re o ", "3707": "pa e ", "3708": "da a ", "3709": "grin ", "3710": "pluo ", "3711": "brio ", "3712": "le i ", "3713": "pier ", "3714": "prio ", "3715": "brei ", "3716": "mie\u2019 ", "3717": "s\u2019 \u00e8 ", "3718": "bi i ", "3719": "rean ", "3720": "stea ", "3721": "pia\u2019 ", "3722": "la i ", "3723": "maio ", "3724": "be i ", "3725": "or d ", "3726": "li a ", "3727": "o \u2019n ", "3728": "cian ", "3729": "steo ", "3730": "zi e ", "3731": "lo a ", "3732": "fier ", "3733": "de i ", "3734": "ghi\u00f2 ", "3735": "fo \u00e8 ", "3736": "stai ", "3737": "quor ", "3738": "ve i ", "3739": "za o ", "3740": "po e ", "3741": "bent ", "3742": "bian ", "3743": "pron ", "3744": "tier ", "3745": "tu e ", "3746": "c\u2019 \u00e8 ", "3747": "me o ", "3748": "suol ", "3749": "nean ", "3750": "ca \u00e8 ", "3751": "me i ", "3752": "frir ", "3753": "lian ", "3754": "giar ", "3755": "vo e ", "3756": "stra ", "3757": "qual ", "3758": "prie ", "3759": "no i ", "3760": "die\u2019 ", "3761": "ve a ", "3762": "\u00e8 \u2019l ", "3763": "no a ", "3764": "quod ", "3765": "ti e ", "3766": "t\u00e8 a ", "3767": "ciul ", "3768": "vi \u00e8 ", "3769": "blio ", "3770": "do o ", "3771": "le e ", "3772": "ne \u00e8 ", "3773": "ghin ", "3774": "slao ", "3775": "bi e ", "3776": "trei ", "3777": "di a ", "3778": "si \u00e8 ", "3779": "naio ", "3780": "nian ", "3781": "so \u00e8 ", "3782": "scir ", "3783": "schi ", "3784": "sper ", "3785": "stia ", "3786": "a \u2019l ", "3787": "ni o ", "3788": "breo ", "3789": "sc\u00eco ", "3790": "suon ", "3791": "guon ", "3792": "ghia ", "3793": "vo a ", "3794": "biar ", "3795": "gnan ", "3796": "da o ", "3797": "ta \u00e8 ", "3798": "pri\u2019 ", "3799": "di e ", "3800": "tu i ", "3801": "tr\u00e0s ", "3802": "re a ", "3803": "gior ", "3804": "co a ", "3805": "ri e ", "3806": "ch e ", "3807": "tra\u2019 ", "3808": "ma e ", "3809": "so o ", "3810": "nail ", "3811": "za \u00e8 ", "3812": "co o ", "3813": "sie\u2019 ", "3814": "lo e ", "3815": "or i ", "3816": "de \u00e8 ", "3817": "fien ", "3818": "ce e ", "3819": "ce \u00e8 ", "3820": "gion ", "3821": "stro ", "3822": "sunt ", "3823": "zi \u00e8 ", "3824": "scio ", "3825": "me e ", "3826": "guai ", "3827": "ci a ", "3828": "fian ", "3829": "ma i ", "3830": "ma \u00e8 ", "3831": "fiar ", "3832": "si e ", "3833": "ve o ", "3834": "trae ", "3835": "gier ", "3836": "va a ", "3837": "viam ", "3838": "gnin ", "3839": "co e ", "3840": "svia ", "3841": "io e ", "3842": "que\u2019 ", "3843": "stri ", "3844": "ne a ", "3845": "lier ", "3846": "te \u00e8 ", "3847": "quei ", "3848": "vuo\u2019 ", "3849": "li o ", "3850": "gnel ", "3851": "zo e ", "3852": "stil ", "3853": "da e ", "3854": "no e ", "3855": "go e ", "3856": "doan ", "3857": "e \u2019l ", "3858": "chie ", "3859": "ba e ", "3860": "ci e ", "3861": "muel ", "3862": "vria ", "3863": "st\u00f2r ", "3864": "ciam ", "3865": "riai ", "3866": "glia ", "3867": "do a ", "3868": "ca a ", "3869": "\u00e8 in ", "3870": "ro e ", "3871": "no \u00e8 ", "3872": "rent ", "3873": "ge \u00e8 ", "3874": "ni e ", "3875": "re e ", "3876": "stei ", "3877": "tiam ", "3878": "sien ", "3879": "ge e ", "3880": "ce i ", "3881": "to i ", "3882": "tris ", "3883": "chia ", "3884": "bree ", "3885": "prir ", "3886": "suo\u2019 ", "3887": "fuor ", "3888": "be a ", "3889": "buoi ", "3890": "pe e ", "3891": "tuoi ", "3892": "fu o ", "3893": "gi e ", "3894": "stor ", "3895": "sa \u00e8 ", "3896": "drea ", "3897": "se i ", "3898": "nier ", "3899": "scel ", "3900": "si i ", "3901": "te o ", "3902": "ta a ", "3903": "tu \u2019 ", "3904": "ca e ", "3905": "le \u00e8 ", "3906": "chin ", "3907": "tria ", "3908": "l\u2019 \u00e8 ", "3909": "ze e ", "3910": "glie ", "3911": "chi\u00f2 ", "3912": "bran ", "3913": "cean ", "3914": "so i ", "3915": "ni \u00e8 ", "3916": "ciol ", "3917": "stui ", "3918": "dail ", "3919": "gnun ", "3920": "ra i ", "3921": "li i ", "3922": "sfar ", "3923": "stin ", "3924": "ti a ", "3925": "pion ", "3926": "muor ", "3927": "br\u00f2t ", "3928": "vean ", "3929": "sche ", "3930": "ciel ", "3931": "sa e ", "3932": "so a ", "3933": "vi a ", "3934": "s\u00e9 i ", "3935": "ge a ", "3936": "a al ", "3937": "siam ", "3938": "o al ", "3939": "ta i ", "3940": "blia ", "3941": "so e ", "3942": "a in ", "3943": "d\u00ec i ", "3944": "fior ", "3945": "ra o ", "3946": "s\u00ec e ", "3947": "go a ", "3948": "ci \u00e8 ", "3949": "pien ", "3950": "n\u00e9 i ", "3951": "gran ", "3952": "t\u00f2 e ", "3953": "pian ", "3954": "tram ", "3955": "scar ", "3956": "or l ", "3957": "gnus ", "3958": "be e ", "3959": "stan ", "3960": "rien ", "3961": "sian ", "3962": "bo a ", "3963": "\u00e8 \u2019n ", "3964": "quai ", "3965": "mo e ", "3966": "d\u2019 \u00e8 ", "3967": "crin ", "3968": "scer ", "3969": "trui ", "3970": "va e ", "3971": "laia ", "3972": "cion ", "3973": "su i ", "3974": "vier ", "3975": "se e ", "3976": "gnar ", "3977": "ra a ", "3978": "mi e ", "3979": "ciar ", "3980": "quel ", "3981": "guir ", "3982": "diam ", "3983": "trio ", "3984": "ro \u00e8 ", "3985": "cral ", "3986": "com\u2019 ", "3987": "no o ", "3988": "gian ", "3989": "frui ", "3990": "drai ", "3991": "dean ", "3992": "brar ", "3993": "tean ", "3994": "sci\u00f2 ", "3995": "suoi ", "3996": "sion ", "3997": "tree ", "3998": "o in ", "3999": "t\u2019 i ", "4000": "pe i ", "4001": "tuo\u2019 ", "4002": "spre ", "4003": "do \u00e8 ", "4004": "la o ", "4005": "ghio ", "4006": "lo i ", "4007": "se \u00e8 ", "4008": "runt ", "4009": "do e ", "4010": "plar ", "4011": "spir ", "4012": "guan ", "4013": "drir ", "4014": "ze o ", "4015": "saia ", "4016": "do i ", "4017": "po a ", "4018": "dria ", "4019": "se o ", "4020": "za i ", "4021": "gean ", "4022": "trea ", "4023": "pi\u00f9e ", "4024": "di o ", "4025": "lo \u00e8 ", "4026": "gi\u00f9e ", "4027": "mo \u00e8 ", "4028": "dron ", "4029": "ti i ", "4030": "bia\u2019 ", "4031": "po o ", "4032": "to e ", "4033": "a il ", "4034": "ma o ", "4035": "gner ", "4036": "de e ", "4037": "li \u00e8 ", "4038": "t\u2019 \u00e8 ", "4039": "va i ", "4040": "ghie ", "4041": "lien ", "4042": "ra e ", "4043": "sa a ", "4044": "co i ", "4045": "dien ", "4046": "ci\u00f2l ", "4047": "quae ", "4048": "ga o ", "4049": "bion ", "4050": "ciai ", "4051": "v\u2019 \u00e8 ", "4052": "za e ", "4053": "cia\u2019 ", "4054": "miei ", "4055": "ni a ", "4056": "ri o ", "4057": "l\u00e0 i ", "4058": "ched ", "4059": "gaio ", "4060": "st\u00e8r ", "4061": "cheo ", "4062": "n\u2019 \u00e8 ", "4063": "sier ", "4064": "go o ", "4065": "spri ", "4066": "de a ", "4067": "da i ", "4068": "fu a ", "4069": "spro ", "4070": "sa i ", "4071": "deum ", "4072": "vian ", "4073": "la \u00e8 ", "4074": "grue ", "4075": "mian ", "4076": "tien ", "4077": "muoi ", "4078": "te p ", "4079": "stel ", "4080": "ta e ", "4081": "po i ", "4082": "gnum ", "4083": "ce o ", "4084": "io o ", "4085": "ma a ", "4086": "na o ", "4087": "chel ", "4088": "ca o ", "4089": "gnon ", "4090": "sa o ", "4091": "li e ", "4092": "mo a ", "4093": "fi e ", "4094": "scia ", "4095": "to \u00e8 ", "4096": "v\u2019 a ", "4097": "tran ", "4098": "ziar ", "4099": "fa e ", "4100": "na e ", "4101": "ci o ", "4102": "fe e ", "4103": "te a ", "4104": "giun ", "4105": "o il ", "4106": "zi a ", "4107": "to a ", "4108": "star ", "4109": "po \u00e8 ", "4110": "mi a ", "4111": "re i ", "4112": "ro i ", "4113": "la e ", "4114": "si a ", "4115": "dier ", "4116": "spia ", "4117": "zion ", "4118": "ne e ", "4119": "se a ", "4120": "pio e ", "4121": "m\u2019 io ", "4122": "ca io ", "4123": "ne ai ", "4124": "bio e ", "4125": "ri al ", "4126": "se or ", "4127": "rio e ", "4128": "ti un ", "4129": "t\u00e0 \u2019l ", "4130": "la un ", "4131": "po \u2019l ", "4132": "chi e ", "4133": "si \u2019n ", "4134": "me \u2019l ", "4135": "dia e ", "4136": "so \u2019l ", "4137": "zi un ", "4138": "po io ", "4139": "ra il ", "4140": "so il ", "4141": "si \u2019l ", "4142": "la ed ", "4143": "chian ", "4144": "mo il ", "4145": "lio a ", "4146": "le un ", "4147": "ni il ", "4148": "ro il ", "4149": "se io ", "4150": "fa il ", "4151": "co i\u2019 ", "4152": "za ha ", "4153": "ci ha ", "4154": "gi il ", "4155": "dio a ", "4156": "ci al ", "4157": "d\u2019 un ", "4158": "be un ", "4159": "d\u2019 ir ", "4160": "ba in ", "4161": "ve ad ", "4162": "ne ed ", "4163": "ma \u2019l ", "4164": "ce ed ", "4165": "sciai ", "4166": "zo \u2019l ", "4167": "r\u00f2 il ", "4168": "za oh ", "4169": "v\u2019 e\u2019 ", "4170": "ia ed ", "4171": "zi ai ", "4172": "li io ", "4173": "za \u2019l ", "4174": "ma in ", "4175": "stion ", "4176": "le ir ", "4177": "strar ", "4178": "ta un ", "4179": "v\u2019 el ", "4180": "glian ", "4181": "sevra ", "4182": "ria i ", "4183": "to io ", "4184": "chion ", "4185": "r\u00ec \u2019l ", "4186": "d\u2019 io ", "4187": "ra or ", "4188": "stial ", "4189": "ti \u2019n ", "4190": "tri a ", "4191": "me a\u2019 ", "4192": "se in ", "4193": "t\u00e9 \u2019l ", "4194": "lui a ", "4195": "s\u2019 i\u2019 ", "4196": "le in ", "4197": "va a\u2019 ", "4198": "gue e ", "4199": "zi al ", "4200": "stran ", "4201": "do a\u2019 ", "4202": "gia a ", "4203": "ti io ", "4204": "do il ", "4205": "qua a ", "4206": "mi in ", "4207": "te in ", "4208": "fa \u2019l ", "4209": "scian ", "4210": "se ad ", "4211": "la al ", "4212": "ra a\u2019 ", "4213": "be in ", "4214": "gi al ", "4215": "to al ", "4216": "tro a ", "4217": "qua \u00e8 ", "4218": "ve \u2019l ", "4219": "fu \u2019l ", "4220": "glion ", "4221": "ti a\u2019 ", "4222": "ne \u2019l ", "4223": "da un ", "4224": "di \u2019n ", "4225": "ve un ", "4226": "stral ", "4227": "cea o ", "4228": "ria e ", "4229": "gno \u00e8 ", "4230": "mo ed ", "4231": "tre e ", "4232": "t\u2019 il ", "4233": "gna a ", "4234": "ia il ", "4235": "co al ", "4236": "va al ", "4237": "da i\u2019 ", "4238": "ra ha ", "4239": "to un ", "4240": "bra a ", "4241": "p\u2019 io ", "4242": "ri in ", "4243": "va or ", "4244": "non e ", "4245": "po ed ", "4246": "tri o ", "4247": "li i\u2019 ", "4248": "lo ha ", "4249": "schio ", "4250": "nia a ", "4251": "t\u2019 om ", "4252": "ia oh ", "4253": "me ad ", "4254": "gnaio ", "4255": "\u2019v\u2019 \u00e8 ", "4256": "le al ", "4257": "chiar ", "4258": "go al ", "4259": "gna o ", "4260": "vi il ", "4261": "to i\u2019 ", "4262": "to \u2019l ", "4263": "lo al ", "4264": "gliea ", "4265": "ghe e ", "4266": "me or ", "4267": "ge or ", "4268": "mi al ", "4269": "la io ", "4270": "co a\u2019 ", "4271": "scuoi ", "4272": "ga il ", "4273": "me un ", "4274": "z\u00f2 \u2019l ", "4275": "le i\u2019 ", "4276": "gno i ", "4277": "so al ", "4278": "ma il ", "4279": "pi un ", "4280": "gui i ", "4281": "te al ", "4282": "va ai ", "4283": "pa ed ", "4284": "ch\u00e9 a ", "4285": "te io ", "4286": "ro al ", "4287": "scion ", "4288": "ch\u2019 \u00e8 ", "4289": "leo e ", "4290": "to ad ", "4291": "lia e ", "4292": "ha in ", "4293": "to ha ", "4294": "ta io ", "4295": "go \u2019l ", "4296": "sce a ", "4297": "v\u2019 ha ", "4298": "bra e ", "4299": "dri e ", "4300": "me ed ", "4301": "me ai ", "4302": "be i\u2019 ", "4303": "ce a\u2019 ", "4304": "chier ", "4305": "li ad ", "4306": "glior ", "4307": "r\u00e0 ed ", "4308": "l\u2019 ha ", "4309": "bre e ", "4310": "gua a ", "4311": "no ai ", "4312": "n\u2019 ha ", "4313": "ha \u2019l ", "4314": "se ir ", "4315": "gue \u00e8 ", "4316": "sa \u2019l ", "4317": "re i\u2019 ", "4318": "da al ", "4319": "t\u2019 i\u2019 ", "4320": "t\u00f2 \u2019l ", "4321": "tra \u00e8 ", "4322": "sca i ", "4323": "dro o ", "4324": "la in ", "4325": "ni\u2019 e ", "4326": "t\u2019 el ", "4327": "sce i ", "4328": "so un ", "4329": "lo or ", "4330": "tr\u2019 a ", "4331": "co or ", "4332": "no a\u2019 ", "4333": "cio a ", "4334": "ma a\u2019 ", "4335": "si el ", "4336": "s\u2019 el ", "4337": "no in ", "4338": "ra \u2019l ", "4339": "mo ei ", "4340": "so ad ", "4341": "me al ", "4342": "sa un ", "4343": "za in ", "4344": "gi \u2019l ", "4345": "va ed ", "4346": "chi \u00e8 ", "4347": "gliel ", "4348": "staio ", "4349": "to ed ", "4350": "ghe a ", "4351": "na il ", "4352": "stier ", "4353": "mia e ", "4354": "d\u2019 ei ", "4355": "na un ", "4356": "zio \u00e8 ", "4357": "si or ", "4358": "c\u2019 ho ", "4359": "rio a ", "4360": "me \u2019n ", "4361": "ca il ", "4362": "lo un ", "4363": "sti e ", "4364": "co u\u2019 ", "4365": "pa ho ", "4366": "ci or ", "4367": "do un ", "4368": "dre a ", "4369": "v\u00f2 \u2019l ", "4370": "sti a ", "4371": "pa or ", "4372": "tra a ", "4373": "mo ha ", "4374": "sto \u00e8 ", "4375": "r\u00f2 \u2019l ", "4376": "gio a ", "4377": "zi ad ", "4378": "ni al ", "4379": "s\u2019 io ", "4380": "v\u2019 \u00e8n ", "4381": "ste i ", "4382": "li in ", "4383": "ce al ", "4384": "be ed ", "4385": "mo \u2019l ", "4386": "re un ", "4387": "ce ha ", "4388": "mio e ", "4389": "gioir ", "4390": "d\u2019 el ", "4391": "ni or ", "4392": "bi il ", "4393": "ma \u2019n ", "4394": "co ad ", "4395": "qui e ", "4396": "gno a ", "4397": "va \u2019l ", "4398": "gra o ", "4399": "ce un ", "4400": "ra ed ", "4401": "d\u2019 i\u2019 ", "4402": "ne ad ", "4403": "re al ", "4404": "mo al ", "4405": "ma un ", "4406": "li or ", "4407": "dia i ", "4408": "ge un ", "4409": "ro ed ", "4410": "si u\u2019 ", "4411": "di or ", "4412": "di il ", "4413": "ga in ", "4414": "za i\u2019 ", "4415": "ro i\u2019 ", "4416": "ni ed ", "4417": "sta a ", "4418": "dro e ", "4419": "stiam ", "4420": "te \u2019l ", "4421": "n\u2019 io ", "4422": "pre e ", "4423": "qua o ", "4424": "re ha ", "4425": "vo in ", "4426": "ne or ", "4427": "ce u\u2019 ", "4428": "gna e ", "4429": "sco e ", "4430": "l\u00e0 \u2019l ", "4431": "sto a ", "4432": "s\u2019 e\u2019 ", "4433": "ra al ", "4434": "gliar ", "4435": "ro od ", "4436": "mo ad ", "4437": "sme e ", "4438": "ra un ", "4439": "ce il ", "4440": "so in ", "4441": "za or ", "4442": "b\u00f2 il ", "4443": "che a ", "4444": "no ed ", "4445": "g\u00f2 \u2019l ", "4446": "t\u00ec \u2019l ", "4447": "pe \u2019l ", "4448": "pie a ", "4449": "se ai ", "4450": "li \u2019l ", "4451": "gue a ", "4452": "via e ", "4453": "di al ", "4454": "sce e ", "4455": "l\u2019 om ", "4456": "ci io ", "4457": "n\u00f2 \u2019l ", "4458": "t\u2019 io ", "4459": "bre a ", "4460": "di \u2019l ", "4461": "ro un ", "4462": "de al ", "4463": "gia e ", "4464": "s\u00ec \u2019l ", "4465": "de in ", "4466": "che i ", "4467": "gi\u00e0 i ", "4468": "cia e ", "4469": "dro a ", "4470": "tro i ", "4471": "se ho ", "4472": "ste e ", "4473": "lo ad ", "4474": "to in ", "4475": "se a\u2019 ", "4476": "na ha ", "4477": "re ad ", "4478": "ti il ", "4479": "le ad ", "4480": "zio e ", "4481": "v\u2019 or ", "4482": "n\u00f2 in ", "4483": "no io ", "4484": "rai e ", "4485": "na al ", "4486": "do ha ", "4487": "gna \u00e8 ", "4488": "li il ", "4489": "si in ", "4490": "se al ", "4491": "za ed ", "4492": "ne io ", "4493": "lo a\u2019 ", "4494": "si al ", "4495": "cio e ", "4496": "la a\u2019 ", "4497": "go il ", "4498": "gi un ", "4499": "co un ", "4500": "le il ", "4501": "se e\u2019 ", "4502": "ni in ", "4503": "ge il ", "4504": "ci il ", "4505": "re ed ", "4506": "ne un ", "4507": "ci a\u2019 ", "4508": "di ed ", "4509": "sti o ", "4510": "sa ad ", "4511": "zio a ", "4512": "sto e ", "4513": "gia \u00e8 ", "4514": "re ir ", "4515": "s\u2019 un ", "4516": "lo ai ", "4517": "ti ed ", "4518": "bia e ", "4519": "ve al ", "4520": "ta il ", "4521": "temps ", "4522": "sti \u00e8 ", "4523": "ra \u2019n ", "4524": "t\u2019 ha ", "4525": "ne in ", "4526": "lo il ", "4527": "ghiar ", "4528": "g\u00ec \u2019l ", "4529": "ti \u2019l ", "4530": "cia a ", "4531": "do ed ", "4532": "tr\u2019 \u00e8 ", "4533": "ta ha ", "4534": "si un ", "4535": "no un ", "4536": "re \u2019n ", "4537": "te il ", "4538": "le ab ", "4539": "gia o ", "4540": "gliai ", "4541": "ghiai ", "4542": "be \u2019l ", "4543": "ghi e ", "4544": "te ha ", "4545": "d\u00f2 in ", "4546": "pra e ", "4547": "ro in ", "4548": "me il ", "4549": "chiai ", "4550": "qua e ", "4551": "que a ", "4552": "pi in ", "4553": "sco i ", "4554": "lo in ", "4555": "zia o ", "4556": "li ei ", "4557": "que \u00e8 ", "4558": "smo a ", "4559": "tu \u2019l ", "4560": "v\u2019 ei ", "4561": "zia a ", "4562": "che \u2019 ", "4563": "io il ", "4564": "bi in ", "4565": "zi or ", "4566": "ne ha ", "4567": "gli a ", "4568": "c\u2019 io ", "4569": "te ai ", "4570": "zo in ", "4571": "ci\u00f2 a ", "4572": "glien ", "4573": "le \u2019l ", "4574": "de \u2019l ", "4575": "bro e ", "4576": "do in ", "4577": "za il ", "4578": "da io ", "4579": "su \u2019l ", "4580": "ta al ", "4581": "zia e ", "4582": "ria \u2019 ", "4583": "de ed ", "4584": "cia o ", "4585": "ri a\u2019 ", "4586": "le io ", "4587": "na ed ", "4588": "da \u2019l ", "4589": "sta o ", "4590": "ge ad ", "4591": "ta or ", "4592": "dio e ", "4593": "sia e ", "4594": "m\u2019 ha ", "4595": "segn\u00f2 ", "4596": "sta e ", "4597": "tra i ", "4598": "co \u2019l ", "4599": "lo ed ", "4600": "c\u2019 ha ", "4601": "mo un ", "4602": "na ei ", "4603": "mi il ", "4604": "te a\u2019 ", "4605": "di ad ", "4606": "de ad ", "4607": "ch\u2019 a ", "4608": "vra i ", "4609": "zo al ", "4610": "chi a ", "4611": "que e ", "4612": "co in ", "4613": "zi \u2019l ", "4614": "st\u2019 \u00e8 ", "4615": "gni e ", "4616": "do ad ", "4617": "gri e ", "4618": "do io ", "4619": "re or ", "4620": "sciar ", "4621": "re a\u2019 ", "4622": "te u\u2019 ", "4623": "de il ", "4624": "za un ", "4625": "pre i ", "4626": "bi \u2019l ", "4627": "gna i ", "4628": "co il ", "4629": "co io ", "4630": "re il ", "4631": "ti ad ", "4632": "fu in ", "4633": "ce in ", "4634": "le ha ", "4635": "gluol ", "4636": "mi \u2019l ", "4637": "va in ", "4638": "no \u2019l ", "4639": "la \u2019l ", "4640": "zi il ", "4641": "re ho ", "4642": "glier ", "4643": "cia i ", "4644": "ne il ", "4645": "to ai ", "4646": "no ei ", "4647": "da il ", "4648": "ge in ", "4649": "ta ad ", "4650": "zii e ", "4651": "na ad ", "4652": "se \u2019n ", "4653": "di \u00e8e ", "4654": "n\u00e9 \u2019l ", "4655": "t\u2019 ho ", "4656": "b\u2019 io ", "4657": "li ha ", "4658": "to il ", "4659": "lio e ", "4660": "te ed ", "4661": "si ad ", "4662": "lio \u00e8 ", "4663": "la il ", "4664": "fu il ", "4665": "de un ", "4666": "bra o ", "4667": "li al ", "4668": "ci \u2019l ", "4669": "na or ", "4670": "ri \u2019l ", "4671": "no ad ", "4672": "se il ", "4673": "sio e ", "4674": "ge al ", "4675": "do \u2019l ", "4676": "dre e ", "4677": "v\u2019 io ", "4678": "ti ei ", "4679": "t\u00f2 un ", "4680": "be il ", "4681": "pr\u2019 a ", "4682": "do or ", "4683": "sta \u00e8 ", "4684": "svuol ", "4685": "zo il ", "4686": "sa il ", "4687": "ci in ", "4688": "va un ", "4689": "te \u2019n ", "4690": "f\u00e9 \u2019l ", "4691": "ve in ", "4692": "ria o ", "4693": "pre a ", "4694": "pri e ", "4695": "po in ", "4696": "zia \u00e8 ", "4697": "gio e ", "4698": "to a\u2019 ", "4699": "gui e ", "4700": "da in ", "4701": "pa \u2019l ", "4702": "va \u2019n ", "4703": "li oh ", "4704": "d\u00f2 \u2019l ", "4705": "na in ", "4706": "pri a ", "4707": "to ir ", "4708": "che e ", "4709": "ta ed ", "4710": "be al ", "4711": "di un ", "4712": "mi ad ", "4713": "ro or ", "4714": "so a\u2019 ", "4715": "mi a\u2019 ", "4716": "do al ", "4717": "da or ", "4718": "n\u2019 ei ", "4719": "si il ", "4720": "ch\u00e9 i ", "4721": "pe il ", "4722": "po il ", "4723": "to \u2019n ", "4724": "s\u00e9 il ", "4725": "no ha ", "4726": "sa in ", "4727": "ria a ", "4728": "se un ", "4729": "sci a ", "4730": "bo a\u2019 ", "4731": "su in ", "4732": "ca in ", "4733": "mo in ", "4734": "tro \u00e8 ", "4735": "se \u2019l ", "4736": "tro e ", "4737": "l\u00e0 il ", "4738": "ti ai ", "4739": "no al ", "4740": "bi un ", "4741": "va ad ", "4742": "te un ", "4743": "co ai ", "4744": "mi un ", "4745": "cea a ", "4746": "pio a ", "4747": "ti ha ", "4748": "ro a\u2019 ", "4749": "tri \u00e8 ", "4750": "na \u2019n ", "4751": "l\u2019 ho ", "4752": "d\u2019 e\u2019 ", "4753": "bro \u00e8 ", "4754": "ne a\u2019 ", "4755": "se i\u2019 ", "4756": "po al ", "4757": "no u\u2019 ", "4758": "va io ", "4759": "z\u00f2 il ", "4760": "te i\u2019 ", "4761": "v\u2019 i\u2019 ", "4762": "za al ", "4763": "vrien ", "4764": "di a\u2019 ", "4765": "stian ", "4766": "ria \u00e8 ", "4767": "s\u2019 ha ", "4768": "r\u2019 al ", "4769": "ni \u2019l ", "4770": "fu al ", "4771": "l\u2019 un ", "4772": "ve il ", "4773": "gni a ", "4774": "vi un ", "4775": "s\u00ec al ", "4776": "no il ", "4777": "ia in ", "4778": "li un ", "4779": "ra in ", "4780": "gno e ", "4781": "g\u2019 io ", "4782": "pa in ", "4783": "ra io ", "4784": "no i\u2019 ", "4785": "te ad ", "4786": "tra \u2019 ", "4787": "ne al ", "4788": "strai ", "4789": "voill ", "4790": "te or ", "4791": "be or ", "4792": "ta ho ", "4793": "s\u2019 ei ", "4794": "ta in ", "4795": "ra ad ", "4796": "le or ", "4797": "ge ai ", "4798": "re in ", "4799": "pe ad ", "4800": "tra e ", "4801": "ro ad ", "4802": "to or ", "4803": "mi ed ", "4804": "di io ", "4805": "ste a ", "4806": "gli e ", "4807": "vi \u2019l ", "4808": "fo or ", "4809": "di in ", "4810": "ti al ", "4811": "va il ", "4812": "ca al ", "4813": "ti in ", "4814": "po ha ", "4815": "di ha ", "4816": "ta \u2019l ", "4817": "gua e ", "4818": "vi in ", "4819": "bo in ", "4820": "v\u2019 ho ", "4821": "r\u00e0 in ", "4822": "tri e ", "4823": "te ho ", "4824": "ba il ", "4825": "ve a\u2019 ", "4826": "so \u00e8e ", "4827": "me in ", "4828": "sto in ", "4829": "di e \u2019 ", "4830": "ghiaio ", "4831": "tra in ", "4832": "sto ad ", "4833": "cea in ", "4834": "stro a ", "4835": "st\u2019 ho ", "4836": "tro ad ", "4837": "pre al ", "4838": "stro e ", "4839": "zia in ", "4840": "s\u2019 hai ", "4841": "tro il ", "4842": "ghi \u2019l ", "4843": "dria e ", "4844": "gna un ", "4845": "tro al ", "4846": "sto il ", "4847": "gia il ", "4848": "gne \u2019l ", "4849": "zio al ", "4850": "schiar ", "4851": "stia e ", "4852": "tre al ", "4853": "pra in ", "4854": "dio in ", "4855": "gi\u00e0 il ", "4856": "pra ed ", "4857": "stro o ", "4858": "gni in ", "4859": "to hai ", "4860": "se\u2019 in ", "4861": "pre in ", "4862": "gno ad ", "4863": "glia o ", "4864": "gi\u00e0 \u2019l ", "4865": "gno al ", "4866": "stra e ", "4867": "m\u2019 han ", "4868": "mia al ", "4869": "bra in ", "4870": "chi \u2019l ", "4871": "ch\u2019 al ", "4872": "ghi al ", "4873": "sc\u00ec \u2019l ", "4874": "gliuol ", "4875": "cria o ", "4876": "due \u2019l ", "4877": "tra \u2019l ", "4878": "tro in ", "4879": "pra al ", "4880": "pi\u00e9 \u2019l ", "4881": "ch\u00e9 il ", "4882": "ghi in ", "4883": "mio in ", "4884": "chi a\u2019 ", "4885": "ti e \u2019 ", "4886": "ghia a ", "4887": "dre al ", "4888": "dea in ", "4889": "sti il ", "4890": "gu\u00ec \u2019l ", "4891": "dri ai ", "4892": "tro i\u2019 ", "4893": "d\u2019 uom ", "4894": "gue il ", "4895": "dia in ", "4896": "bio ed ", "4897": "gl\u2019 io ", "4898": "ch\u2019 ei ", "4899": "glia a ", "4900": "sia \u2019l ", "4901": "vea \u2019l ", "4902": "che \u2019n ", "4903": "bra od ", "4904": "qua al ", "4905": "ste il ", "4906": "tra il ", "4907": "tr\u2019 a\u2019 ", "4908": "pi\u00f9 al ", "4909": "sto al ", "4910": "lio ed ", "4911": "gi\u2019 or ", "4912": "gliuoi ", "4913": "fra \u2019l ", "4914": "que ad ", "4915": "mio il ", "4916": "smo in ", "4917": "ch\u2019 e\u2019 ", "4918": "gna \u2019l ", "4919": "gio al ", "4920": "t\u2019 hai ", "4921": "chi il ", "4922": "stro \u00e8 ", "4923": "sta al ", "4924": "nio al ", "4925": "ch\u2019 in ", "4926": "chi ei ", "4927": "cea il ", "4928": "pria e ", "4929": "vra \u2019l ", "4930": "bia in ", "4931": "va\u2019 il ", "4932": "stri e ", "4933": "zie al ", "4934": "sce in ", "4935": "gio il ", "4936": "tro ai ", "4937": "cia ad ", "4938": "cia in ", "4939": "spra e ", "4940": "rio ho ", "4941": "gno ha ", "4942": "pria o ", "4943": "bre a\u2019 ", "4944": "pi e i ", "4945": "si e \u2019 ", "4946": "ci\u00f2 io ", "4947": "gli\u00f2 i ", "4948": "rio in ", "4949": "tra al ", "4950": "li han ", "4951": "tra i\u2019 ", "4952": "rio il ", "4953": "che il ", "4954": "chi ha ", "4955": "sc\u2019 io ", "4956": "ciai o ", "4957": "ch\u2019 \u00e8i ", "4958": "tri il ", "4959": "stie e ", "4960": "pi\u00f9 il ", "4961": "cheo e ", "4962": "pi\u00e8 al ", "4963": "r\u00f3n il ", "4964": "chio a ", "4965": "scia o ", "4966": "gio ha ", "4967": "ghio e ", "4968": "sa e \u2019 ", "4969": "ch\u2019 i\u2019 ", "4970": "tri \u2019l ", "4971": "ch\u2019 ad ", "4972": "que i\u2019 ", "4973": "gli al ", "4974": "gro un ", "4975": "tre un ", "4976": "l\u2019 uom ", "4977": "po e \u2019 ", "4978": "dro in ", "4979": "scio a ", "4980": "ti e i ", "4981": "ni e \u2019 ", "4982": "l\u2019 hai ", "4983": "sta un ", "4984": "ch\u00e9 \u2019n ", "4985": "chi in ", "4986": "tri or ", "4987": "que a\u2019 ", "4988": "ba e \u2019 ", "4989": "li ha\u2019 ", "4990": "tro un ", "4991": "qu\u2019 io ", "4992": "ch\u2019 om ", "4993": "pi\u00f9 \u2019l ", "4994": "fi\u00f2 il ", "4995": "chio e ", "4996": "que in ", "4997": "do i p ", "4998": "pia in ", "4999": "que il ", "5000": "che a\u2019 ", "5001": "sto io ", "5002": "pre a\u2019 ", "5003": "pra \u2019l ", "5004": "cio ed ", "5005": "pre \u2019l ", "5006": "gna il ", "5007": "se uom ", "5008": "tre il ", "5009": "gli un ", "5010": "tro io ", "5011": "gio ad ", "5012": "la \u2019ve ", "5013": "che \u2019l ", "5014": "ra han ", "5015": "n\u2019 uom ", "5016": "gia \u2019l ", "5017": "ci e \u2019 ", "5018": "sti \u2019l ", "5019": "ro hai ", "5020": "gia un ", "5021": "schi o ", "5022": "zia il ", "5023": "pi\u00f9 ir ", "5024": "tri ad ", "5025": "ste in ", "5026": "ti\u2019 un ", "5027": "ch\u2019 or ", "5028": "tro \u2019l ", "5029": "schi a ", "5030": "so\u2019 \u2019n ", "5031": "cia un ", "5032": "pa e \u2019 ", "5033": "gno il ", "5034": "ci\u00f2 il ", "5035": "tro a\u2019 ", "5036": "glia e ", "5037": "ni e i ", "5038": "ro e o ", "5039": "ci\u00f2 \u2019l ", "5040": "glio o ", "5041": "che al ", "5042": "t\u2019 ha\u2019 ", "5043": "gio in ", "5044": "qui \u2019l ", "5045": "ch\u2019 un ", "5046": "stio e ", "5047": "tro ed ", "5048": "sdegn\u00f2 ", "5049": "gia or ", "5050": "va e i ", "5051": "tre i\u2019 ", "5052": "ne e i ", "5053": "ch\u2019 io ", "5054": "ria il ", "5055": "rio ha ", "5056": "tr\u2019 io ", "5057": "chio \u00e8 ", "5058": "gno in ", "5059": "c\u2019 hai ", "5060": "sto ha ", "5061": "sti in ", "5062": "tr\u2019 al ", "5063": "qua in ", "5064": "ro e \u2019 ", "5065": "sta \u2019n ", "5066": "pu\u00f2 \u2019l ", "5067": "ch\u00e9 \u2019l ", "5068": "gno or ", "5069": "gno ed ", "5070": "stro i ", "5071": "m\u2019 hai ", "5072": "gi\u00f9 \u2019l ", "5073": "cia ir ", "5074": "dia \u2019l ", "5075": "ne han ", "5076": "sche o ", "5077": "lea il ", "5078": "strans ", "5079": "ti han ", "5080": "c\u2019 ha\u2019 ", "5081": "bra ad ", "5082": "ne e \u2019 ", "5083": "chi \u2019n ", "5084": "gne al ", "5085": "di\u2019 \u2019l ", "5086": "stra a ", "5087": "bia \u2019l ", "5088": "\u2019ve \u2019l ", "5089": "pre ha ", "5090": "scia e ", "5091": "bria e ", "5092": "gna a\u2019 ", "5093": "me e \u2019 ", "5094": "diam i ", "5095": "que or ", "5096": "glio a ", "5097": "ch\u2019 ai ", "5098": "cia il ", "5099": "dr\u00e0 il ", "5100": "gi\u00f9 in ", "5101": "te han ", "5102": "ch\u2019 el ", "5103": "fia il ", "5104": "sce il ", "5105": "sia il ", "5106": "gue in ", "5107": "smo al ", "5108": "tre a\u2019 ", "5109": "cia al ", "5110": "trio e ", "5111": "che in ", "5112": "gna in ", "5113": "lia al ", "5114": "so hai ", "5115": "gno a\u2019 ", "5116": "che un ", "5117": "qua il ", "5118": "c\u2019 han ", "5119": "nia il ", "5120": "ri e \u2019 ", "5121": "sta in ", "5122": "lia il ", "5123": "gi\u00f9 il ", "5124": "na\u2019 il ", "5125": "stra \u00e8 ", "5126": "ch\u2019 a\u2019 ", "5127": "glio e ", "5128": "glia \u00e8 ", "5129": "lui i\u2019 ", "5130": "sti ha ", "5131": "gua in ", "5132": "gi\u00f9 al ", "5133": "glie e ", "5134": "chi al ", "5135": "que al ", "5136": "sco il ", "5137": "chia e ", "5138": "tro ha ", "5139": "tre in ", "5140": "scia a ", "5141": "sta il ", "5142": "ria al ", "5143": "ti e \u2019l ", "5144": "vo e \u2019l ", "5145": "che e \u2019 ", "5146": "ma e \u2019l ", "5147": "ch\u2019 uom ", "5148": "me e \u2019l ", "5149": "ta e \u2019n ", "5150": "glia al ", "5151": "chio il ", "5152": "ciai oh ", "5153": "lo \u00e8 in ", "5154": "za e \u2019l ", "5155": "sci\u00f2 il ", "5156": "glia un ", "5157": "ga e \u2019l ", "5158": "giai al ", "5159": "go e \u2019l ", "5160": "chia al ", "5161": "go \u00e8 in ", "5162": "gnia in ", "5163": "glio ai ", "5164": "ci e \u2019l ", "5165": "stra \u2019l ", "5166": "bo e \u2019l ", "5167": "lio e i ", "5168": "scia il ", "5169": "do e \u2019n ", "5170": "glia il ", "5171": "v\u2019 \u00e8 \u2019l ", "5172": "ne e \u2019l ", "5173": "chio ha ", "5174": "dia e i ", "5175": "to e \u2019l ", "5176": "ca e \u2019l ", "5177": "to \u00e8 \u2019l ", "5178": "te e \u2019n ", "5179": "glie \u2019l ", "5180": "m\u2019 \u00e8 \u2019l ", "5181": "s\u2019 io e ", "5182": "schio e ", "5183": "l\u2019 \u00e8 \u2019l ", "5184": "schia e ", "5185": "le e \u2019l ", "5186": "stro ed ", "5187": "ciai el ", "5188": "so e \u2019l ", "5189": "na e \u2019l ", "5190": "va e \u2019n ", "5191": "te e \u2019l ", "5192": "tra e \u2019 ", "5193": "no e \u2019l ", "5194": "ro e \u2019l ", "5195": "ta e \u2019l ", "5196": "gne uom ", "5197": "co e \u2019l ", "5198": "si e \u2019l ", "5199": "chio al ", "5200": "stri in ", "5201": "me e \u2019n ", "5202": "re e \u2019l ", "5203": "stia ad ", "5204": "glia in ", "5205": "sa e \u2019l ", "5206": "stro or ", "5207": "zo e \u2019l ", "5208": "glio or ", "5209": "gnia ad ", "5210": "to o al ", "5211": "bre e \u2019 ", "5212": "stra il ", "5213": "se e \u2019l ", "5214": "naio in ", "5215": "glie in ", "5216": "qu\u2019 ieu ", "5217": "mi e \u2019l ", "5218": "de e \u2019l ", "5219": "be e \u2019l ", "5220": "stro il ", "5221": "chio in ", "5222": "dre e \u2019 ", "5223": "va e \u2019l ", "5224": "po e \u2019l ", "5225": "la e \u2019l ", "5226": "mo e \u2019l ", "5227": "stro in ", "5228": "glio in ", "5229": "m\u2019 \u00e8 il ", "5230": "ra e \u2019l ", "5231": "de e \u2019n ", "5232": "ce e \u2019l ", "5233": "chi e \u2019l ", "5234": "cia e \u2019l ", "5235": "sio e \u2019l ", "5236": "v\u2019 ha \u2019l ", "5237": "pra e \u2019l ", "5238": "s\u2019 i\u2019 \u2019l ", "5239": "gio e \u2019l ", "5240": "tr\u2019 \u00e8 \u2019l ", "5241": "tri e \u2019l ", "5242": "d\u2019 io \u2019l ", "5243": "dre e \u2019l ", "5244": "que e \u2019l ", "5245": "bra e \u2019l ", "5246": "ria \u00e8 \u2019l ", "5247": "zie e \u2019l ", "5248": "c\u2019 ha \u2019l ", "5249": "zio e \u2019l ", "5250": "ria e \u2019l ", "5251": "so ha \u2019l ", "5252": "tra e \u2019l ", "5253": "sti \u00e8 \u2019l ", "5254": "l\u2019 avria ", "5255": "sta e \u2019l ", "5256": "te ha in ", "5257": "dio e \u2019l ", "5258": "to ha \u2019l ", "5259": "tre e \u2019l ", "5260": "st\u2019 \u00e8 \u2019l ", "5261": "li ha in ", "5262": "schi uom ", "5263": "bia e \u2019l ", "5264": "scia e \u2019l ", "5265": "glio e \u2019l ", "5266": "chio e \u2019l ", "5267": "li er\u2019 io ", "5268": "chio o \u2019l ", "5269": "re avrian ", "5270": "ch\u2019 io \u2019l ", "5271": "stro e \u2019l ", "5272": "chie e \u2019n ", "5273": "ch\u2019 i\u2019 \u2019l ", "5274": "r\u00e0tro e \u2019l ", "5275": "s\u2019 io e \u2019l "}