{"0": "", "1": "<v>", "2": "</v>", "3": "<t>", "4": "</t>", "5": "\u00ef", "6": "\u00e9", "7": "o", "8": "a", "9": "e", "10": "\u00e8", "11": "u", "12": "\u00f2", "13": "\u00fc", "14": "i", "15": "ol", "16": "el", "17": "f\u00eb", "18": "ho", "19": "fo", "20": "ab", "21": "ve", "22": "vi", "23": "f\u00ef", "24": "ie", "25": "d\u00fc", "26": "ne", "27": "ir", "28": "d\u00e9", "29": "z\u00ef", "30": "za", "31": "d\u00eb", "32": "bo", "33": "om", "34": "on", "35": "lo", "36": "p\u00eb", "37": "l\u00ef", "38": "es", "39": "pa", "40": "s\u00e0", "41": "n\u00e8", "42": "ob", "43": "l\u00f2", "44": "r\u00f3", "45": "g\u00ef", "46": "\u00f2s", "47": "v\u00f2", "48": "av", "49": "ov", "50": "p\u00fc", "51": "mo", "52": "fi", "53": "cu", "54": "il", "55": "ri", "56": "do", "57": "m\u00ef", "58": "r\u00eb", "59": "im", "60": "ot", "61": "no", "62": "di", "63": "na", "64": "ga", "65": "op", "66": "l\u00e8", "67": "ex", "68": "f\u00e9", "69": "ef", "70": "m\u00eb", "71": "ru", "72": "p\u00ec", "73": "pu", "74": "l\u00e0", "75": "t\u00ec", "76": "os", "77": "r\u00e8", "78": "s\u00eb", "79": "xi", "80": "am", "81": "et", "82": "to", "83": "vu", "84": "b\u00eb", "85": "oc", "86": "n\u00fc", "87": "ni", "88": "eb", "89": "ci", "90": "ac", "91": "r\u00e0", "92": "t\u00ef", "93": "ge", "94": "gu", "95": "mi", "96": "p\u00e8", "97": "af", "98": "p\u00ef", "99": "az", "100": "in", "101": "g\u00f3", "102": "uo", "103": "be", "104": "eu", "105": "ad", "106": "li", "107": "te", "108": "ma", "109": "nu", "110": "le", "111": "t\u00eb", "112": "v\u00e4", "113": "p\u00f2", "114": "v\u00eb", "115": "v\u00e9", "116": "de", "117": "c\u00f9", "118": "em", "119": "r\u00ef", "120": "iu", "121": "ha", "122": "ul", "123": "\u00e8n", "124": "c\u00eb", "125": "s\u00f9", "126": "s\u00fc", "127": "pi", "128": "un", "129": "se", "130": "og", "131": "n\u00eb", "132": "au", "133": "ba", "134": "me", "135": "l\u00eb", "136": "go", "137": "tu", "138": "m\u00e4", "139": "zi", "140": "t\u00e8", "141": "s\u00ef", "142": "er", "143": "or", "144": "ia", "145": "da", "146": "c\u00fc", "147": "ce", "148": "is", "149": "ur", "150": "fa", "151": "mu", "152": "po", "153": "ap", "154": "lu", "155": "an", "156": "pe", "157": "ti", "158": "uc", "159": "id", "160": "va", "161": "sa", "162": "so", "163": "\u00e8v", "164": "c\u00ef", "165": "s\u00f2", "166": "ar", "167": "f\u00f3", "168": "su", "169": "vo", "170": "ag", "171": "g\u00e8", "172": "n\u00f2", "173": "ec", "174": "ze", "175": "io", "176": "l\u00f6", "177": "fe", "178": "b\u00ef", "179": "as", "180": "d\u00ef", "181": "g\u00eb", "182": "ca", "183": "l\u00ec", "184": "du", "185": "gi", "186": "m\u00ec", "187": "zo", "188": "si", "189": "c\u00ec", "190": "l\u00fc", "191": "ra", "192": "v\u00e8", "193": "s\u00e9", "194": "ta", "195": "v\u00ef", "196": "fu", "197": "m\u00e8", "198": "re", "199": "la", "200": "at", "201": "co", "202": "en", "203": "g\u00fc", "204": "n\u00ef", "205": "t\u00e4", "206": "t\u00fc", "207": "bi", "208": "t\u00f2", "209": "bu", "210": "ae", "211": "of", "212": "ro", "213": "al", "214": "ter", "215": "rig", "216": "sod", "217": "ciu", "218": "vit", "219": "ch\u00ec", "220": "cuo", "221": "jau", "222": "dom", "223": "com", "224": "dru", "225": "nuc", "226": "mac", "227": "lec", "228": "cri", "229": "dec", "230": "pur", "231": "vid", "232": "mag", "233": "rut", "234": "vis", "235": "cez", "236": "sob", "237": "guo", "238": "nai", "239": "fle", "240": "dei", "241": "mar", "242": "rin", "243": "nef", "244": "sba", "245": "sis", "246": "cad", "247": "tuc", "248": "tez", "249": "che", "250": "meg", "251": "rar", "252": "gel", "253": "con", "254": "fen", "255": "gri", "256": "dol", "257": "lez", "258": "mai", "259": "cur", "260": "von", "261": "san", "262": "cis", "263": "ras", "264": "rug", "265": "bun", "266": "bef", "267": "leb", "268": "bea", "269": "dra", "270": "sma", "271": "fie", "272": "cet", "273": "dos", "274": "han", "275": "gen", "276": "gua", "277": "tea", "278": "lis", "279": "pec", "280": "vie", "281": "lem", "282": "pi\u00e9", "283": "fig", "284": "ret", "285": "tri", "286": "gli", "287": "pil", "288": "gib", "289": "fan", "290": "mot", "291": "soz", "292": "les", "293": "mie", "294": "tac", "295": "rea", "296": "clo", "297": "rir", "298": "zan", "299": "bri", "300": "sin", "301": "pog", "302": "mam", "303": "ruo", "304": "gue", "305": "cre", "306": "dez", "307": "tor", "308": "nag", "309": "iat", "310": "fon", "311": "gna", "312": "cru", "313": "cin", "314": "zaf", "315": "run", "316": "biz", "317": "fit", "318": "sto", "319": "ves", "320": "cas", "321": "nan", "322": "c\u00f3l", "323": "ral", "324": "ghi", "325": "nic", "326": "cit", "327": "pla", "328": "sot", "329": "nel", "330": "mil", "331": "nez", "332": "ron", "333": "sog", "334": "giu", "335": "tet", "336": "dim", "337": "bin", "338": "muc", "339": "pol", "340": "mos", "341": "feb", "342": "pap", "343": "las", "344": "gol", "345": "gaz", "346": "pau", "347": "tat", "348": "tur", "349": "sen", "350": "cic", "351": "tan", "352": "dit", "353": "pro", "354": "pet", "355": "coc", "356": "c\u00e9r", "357": "nil", "358": "nio", "359": "fas", "360": "nin", "361": "ver", "362": "lop", "363": "smi", "364": "noz", "365": "mun", "366": "ges", "367": "bor", "368": "lab", "369": "dul", "370": "bet", "371": "sic", "372": "gis", "373": "gea", "374": "qu\u00ef", "375": "tol", "376": "rio", "377": "t\u00f2m", "378": "bac", "379": "ben", "380": "sla", "381": "sie", "382": "fuo", "383": "dio", "384": "plo", "385": "cl\u00ef", "386": "por", "387": "fau", "388": "sop", "389": "cot", "390": "bas", "391": "lau", "392": "fac", "393": "ber", "394": "sra", "395": "sof", "396": "gau", "397": "fri", "398": "sub", "399": "lea", "400": "sv\u00ef", "401": "teg", "402": "ros", "403": "bl\u00ef", "404": "sud", "405": "pot", "406": "dis", "407": "rap", "408": "xil", "409": "tim", "410": "deg", "411": "red", "412": "des", "413": "quo", "414": "nia", "415": "\u2018la", "416": "doc", "417": "rec", "418": "gra", "419": "dar", "420": "rog", "421": "t\u00f2r", "422": "deb", "423": "bru", "424": "cro", "425": "lit", "426": "gan", "427": "pl\u00ec", "428": "iep", "429": "lup", "430": "par", "431": "ren", "432": "luo", "433": "vin", "434": "far", "435": "cef", "436": "lun", "437": "spa", "438": "gil", "439": "br\u00ef", "440": "bug", "441": "stu", "442": "nem", "443": "pas", "444": "maz", "445": "buo", "446": "nis", "447": "lon", "448": "zia", "449": "puc", "450": "cem", "451": "lai", "452": "vet", "453": "zac", "454": "cep", "455": "tam", "456": "tru", "457": "men", "458": "toc", "459": "del", "460": "cac", "461": "gur", "462": "sfe", "463": "sel", "464": "mon", "465": "spi", "466": "ris", "467": "tes", "468": "bom", "469": "sar", "470": "smo", "471": "get", "472": "fos", "473": "paz", "474": "raz", "475": "lic", "476": "mes", "477": "ton", "478": "sor", "479": "mur", "480": "gno", "481": "voi", "482": "bai", "483": "guc", "484": "fat", "485": "pom", "486": "ahi", "487": "sio", "488": "hon", "489": "buf", "490": "sle", "491": "vel", "492": "neg", "493": "caf", "494": "pia", "495": "bec", "496": "zio", "497": "fio", "498": "nes", "499": "til", "500": "dic", "501": "bro", "502": "pul", "503": "nor", "504": "sc\u00ef", "505": "nun", "506": "cen", "507": "dub", "508": "nir", "509": "spe", "510": "dut", "511": "pit", "512": "gru", "513": "gas", "514": "sga", "515": "fur", "516": "vil", "517": "suc", "518": "p\u00f2s", "519": "pir", "520": "cir", "521": "mul", "522": "pen", "523": "piu", "524": "nie", "525": "puz", "526": "mug", "527": "dre", "528": "lut", "529": "poc", "530": "rit", "531": "mol", "532": "tel", "533": "fre", "534": "saf", "535": "gne", "536": "ruf", "537": "bio", "538": "tec", "539": "fes", "540": "lan", "541": "cap", "542": "mic", "543": "gem", "544": "riz", "545": "cuc", "546": "a u", "547": "gnu", "548": "nim", "549": "lin", "550": "rel", "551": "vuo", "552": "lir", "553": "nec", "554": "for", "555": "bra", "556": "sfo", "557": "rab", "558": "a a", "559": "pel", "560": "luc", "561": "tos", "562": "fug", "563": "fab", "564": "fun", "565": "can", "566": "spo", "567": "ric", "568": "gat", "569": "rez", "570": "sun", "571": "bon", "572": "sus", "573": "nar", "574": "leg", "575": "clu", "576": "dea", "577": "but", "578": "sug", "579": "sov", "580": "chi", "581": "cal", "582": "f\u00e9l", "583": "sem", "584": "git", "585": "der", "586": "tr\u00ef", "587": "nol", "588": "roc", "589": "son", "590": "ior", "591": "cat", "592": "lot", "593": "o a", "594": "sp\u00ef", "595": "o e", "596": "ram", "597": "lim", "598": "reg", "599": "cra", "600": "poz", "601": "cil", "602": "fam", "603": "fro", "604": "ple", "605": "rat", "606": "som", "607": "bie", "608": "gni", "609": "sno", "610": "cia", "611": "cum", "612": "ser", "613": "rot", "614": "dun", "615": "pie", "616": "cos", "617": "dan", "618": "det", "619": "sol", "620": "tau", "621": "sde", "622": "tom", "623": "vam", "624": "pan", "625": "sca", "626": "mat", "627": "cla", "628": "dr\u00ef", "629": "soc", "630": "pal", "631": "reb", "632": "dur", "633": "res", "634": "tad", "635": "val", "636": "m\u00e8c", "637": "gie", "638": "lom", "639": "svo", "640": "duo", "641": "v\u00f2l", "642": "van", "643": "das", "644": "cui", "645": "fal", "646": "loc", "647": "vir", "648": "dif", "649": "sti", "650": "boz", "651": "bar", "652": "mir", "653": "svi", "654": "tar", "655": "dal", "656": "sce", "657": "dir", "658": "rim", "659": "nal", "660": "rol", "661": "tle", "662": "pig", "663": "set", "664": "lil", "665": "sit", "666": "bol", "667": "min", "668": "niz", "669": "zel", "670": "sve", "671": "vas", "672": "fom", "673": "sia", "674": "bev", "675": "len", "676": "suf", "677": "sep", "678": "nev", "679": "gim", "680": "sal", "681": "que", "682": "seg", "683": "piz", "684": "pon", "685": "bre", "686": "fol", "687": "nob", "688": "e a", "689": "bat", "690": "gab", "691": "lar", "692": "gar", "693": "sap", "694": "gad", "695": "gio", "696": "pic", "697": "bis", "698": "sta", "699": "pru", "700": "dop", "701": "zon", "702": "tis", "703": "tuo", "704": "suo", "705": "gob", "706": "bia", "707": "gir", "708": "ste", "709": "lul", "710": "p\u00e0r", "711": "st\u00ef", "712": "goz", "713": "den", "714": "sos", "715": "bur", "716": "gam", "717": "boc", "718": "lus", "719": "bot", "720": "ses", "721": "cie", "722": "vac", "723": "fra", "724": "ven", "725": "neb", "726": "guz", "727": "m\u00e9z", "728": "per", "729": "dor", "730": "ian", "731": "cle", "732": "dia", "733": "vat", "734": "fuc", "735": "dat", "736": "veg", "737": "qui", "738": "sr\u00e4", "739": "raf", "740": "ria", "741": "sab", "742": "mal", "743": "ril", "744": "dau", "745": "pat", "746": "nig", "747": "ler", "748": "ruc", "749": "die", "750": "scu", "751": "dob", "752": "got", "753": "dam", "754": "cli", "755": "not", "756": "pes", "757": "lel", "758": "tas", "759": "top", "760": "rom", "761": "lep", "762": "ghe", "763": "cau", "764": "fla", "765": "tem", "766": "pio", "767": "mel", "768": "dov", "769": "nom", "770": "sac", "771": "pra", "772": "sup", "773": "dil", "774": "bal", "775": "lur", "776": "o u", "777": "fia", "778": "tic", "779": "smu", "780": "bel", "781": "lia", "782": "sas", "783": "tra", "784": "gui", "785": "lap", "786": "pun", "787": "sna", "788": "fis", "789": "rob", "790": "cea", "791": "cun", "792": "rof", "793": "tal", "794": "tun", "795": "qua", "796": "mor", "797": "pos", "798": "dri", "799": "mem", "800": "dr\u00e4", "801": "rav", "802": "lip", "803": "bab", "804": "pac", "805": "iar", "806": "pai", "807": "glo", "808": "let", "809": "geo", "810": "cul", "811": "feg", "812": "net", "813": "sec", "814": "diz", "815": "pis", "816": "ner", "817": "cag", "818": "cob", "819": "nul", "820": "fib", "821": "fel", "822": "lat", "823": "nur", "824": "sci", "825": "lav", "826": "fum", "827": "car", "828": "cel", "829": "gor", "830": "dro", "831": "sag", "832": "cr\u00e0", "833": "put", "834": "sbi", "835": "tuf", "836": "fet", "837": "ban", "838": "fru", "839": "\u2018be", "840": "sam", "841": "vor", "842": "sco", "843": "vec", "844": "cor", "845": "ful", "846": "viz", "847": "pub", "848": "pli", "849": "mer", "850": "col", "851": "nac", "852": "zur", "853": "rag", "854": "dus", "855": "lam", "856": "gom", "857": "mia", "858": "gia", "859": "cop", "860": "fer", "861": "dug", "862": "fiu", "863": "lor", "864": "tir", "865": "laz", "866": "pri", "867": "\u2018ne", "868": "nuo", "869": "var", "870": "gre", "871": "luz", "872": "flu", "873": "muf", "874": "ger", "875": "bul", "876": "sez", "877": "cov", "878": "cer", "879": "rac", "880": "mez", "881": "rup", "882": "gal", "883": "coz", "884": "sgo", "885": "bli", "886": "moz", "887": "vag", "888": "nas", "889": "vul", "890": "dem", "891": "nen", "892": "nat", "893": "ran", "894": "roz", "895": "sau", "896": "plu", "897": "fin", "898": "bil", "899": "cio", "900": "lie", "901": "lui", "902": "tie", "903": "giz", "904": "sat", "905": "r\u00e8g", "906": "gon", "907": "tro", "908": "vem", "909": "man", "910": "pre", "911": "dot", "912": "bui", "913": "ces", "914": "sfa", "915": "din", "916": "rie", "917": "non", "918": "tut", "919": "don", "920": "tin", "921": "muo", "922": "sum", "923": "fic", "924": "zuf", "925": "goc", "926": "pop", "927": "tho", "928": "sur", "929": "cam", "930": "lac", "931": "sil", "932": "spu", "933": "pin", "934": "gag", "935": "noc", "936": "ch\u00ef", "937": "sev", "938": "vez", "939": "tre", "940": "met", "941": "ten", "942": "fem", "943": "mas", "944": "tag", "945": "puo", "946": "vol", "947": "rem", "948": "zar", "949": "zuc", "950": "fog", "951": "sme", "952": "ier", "953": "buc", "954": "peg", "955": "rid", "956": "f\u00e0c", "957": "vom", "958": "brac", "959": "stet", "960": "stig", "961": "grat", "962": "spec", "963": "sten", "964": "be o", "965": "scac", "966": "ra i", "967": "so a", "968": "quil", "969": "ghil", "970": "sven", "971": "sfor", "972": "gras", "973": "ta e", "974": "pric", "975": "ne o", "976": "ghes", "977": "a am", "978": "spit", "979": "va i", "980": "l\u00ec e", "981": "chez", "982": "ce e", "983": "ciar", "984": "giac", "985": "ciap", "986": "trap", "987": "re i", "988": "clug", "989": "gian", "990": "ma o", "991": "smor", "992": "scis", "993": "zi u", "994": "scoc", "995": "ti o", "996": "re u", "997": "le i", "998": "stio", "999": "te o", "1000": "spre", "1001": "piag", "1002": "glau", "1003": "brug", "1004": "scuf", "1005": "o av", "1006": "se \u00eb", "1007": "proc", "1008": "sbri", "1009": "scin", "1010": "spon", "1011": "scab", "1012": "glio", "1013": "na o", "1014": "clas", "1015": "li a", "1016": "dier", "1017": "guer", "1018": "gnor", "1019": "da e", "1020": "da a", "1021": "quar", "1022": "ro u", "1023": "creb", "1024": "spet", "1025": "quan", "1026": "ziar", "1027": "cian", "1028": "gram", "1029": "da u", "1030": "n\u2019 u", "1031": "l\u2019 u", "1032": "treb", "1033": "sver", "1034": "scam", "1035": "guag", "1036": "dran", "1037": "se o", "1038": "sbar", "1039": "l\u00ec a", "1040": "r\u2019 u", "1041": "spaz", "1042": "svel", "1043": "re e", "1044": "piog", "1045": "no a", "1046": "scuo", "1047": "stie", "1048": "gnas", "1049": "po o", "1050": "scot", "1051": "be a", "1052": "t\u2019 e", "1053": "spic", "1054": "piov", "1055": "scal", "1056": "guir", "1057": "scie", "1058": "grop", "1059": "l\u2019 o", "1060": "stru", "1061": "dram", "1062": "cioc", "1063": "quin", "1064": "spia", "1065": "v\u2019 a", "1066": "no u", "1067": "guil", "1068": "trop", "1069": "pier", "1070": "gnen", "1071": "di u", "1072": "gnon", "1073": "ro e", "1074": "ghia", "1075": "te u", "1076": "vi a", "1077": "sgom", "1078": "ze o", "1079": "vi e", "1080": "pe e", "1081": "gnaz", "1082": "li o", "1083": "grie", "1084": "smen", "1085": "giam", "1086": "tran", "1087": "trai", "1088": "mian", "1089": "trom", "1090": "giot", "1091": "gnel", "1092": "trar", "1093": "de e", "1094": "te a", "1095": "ri e", "1096": "stil", "1097": "d\u2019 i", "1098": "scan", "1099": "m\u2019 e", "1100": "si e", "1101": "ti a", "1102": "be e", "1103": "sdru", "1104": "ze e", "1105": "la a", "1106": "ti e", "1107": "e \u2019n", "1108": "stan", "1109": "zo a", "1110": "span", "1111": "bran", "1112": "ci u", "1113": "sa o", "1114": "ples", "1115": "ce a", "1116": "be u", "1117": "scen", "1118": "za a", "1119": "ve i", "1120": "gias", "1121": "fron", "1122": "bian", "1123": "quat", "1124": "piez", "1125": "pa e", "1126": "brie", "1127": "tier", "1128": "ra u", "1129": "gnem", "1130": "sgan", "1131": "chio", "1132": "do a", "1133": "fioc", "1134": "ciom", "1135": "chie", "1136": "chet", "1137": "guef", "1138": "drit", "1139": "snel", "1140": "bris", "1141": "dhae", "1142": "spen", "1143": "de i", "1144": "stam", "1145": "a ac", "1146": "greg", "1147": "sgor", "1148": "lo o", "1149": "lo u", "1150": "chiu", "1151": "glet", "1152": "ghir", "1153": "me u", "1154": "di e", "1155": "ni a", "1156": "gher", "1157": "tron", "1158": "biac", "1159": "sman", "1160": "bo e", "1161": "ta o", "1162": "tien", "1163": "t\u2019 u", "1164": "stre", "1165": "scet", "1166": "schi", "1167": "fian", "1168": "ri u", "1169": "gnie", "1170": "o al", "1171": "ci a", "1172": "pi e", "1173": "spar", "1174": "sfio", "1175": "za o", "1176": "grem", "1177": "m\u2019 a", "1178": "flig", "1179": "mo e", "1180": "gran", "1181": "e in", "1182": "scon", "1183": "stri", "1184": "pa u", "1185": "\u00e8 in", "1186": "scos", "1187": "stuc", "1188": "ti i", "1189": "ge a", "1190": "stra", "1191": "guic", "1192": "egyp", "1193": "ra a", "1194": "ce u", "1195": "sban", "1196": "s\u2019 i", "1197": "stor", "1198": "vien", "1199": "trat", "1200": "sdet", "1201": "vi o", "1202": "troc", "1203": "vo o", "1204": "tram", "1205": "slac", "1206": "qual", "1207": "be i", "1208": "li u", "1209": "gial", "1210": "stro", "1211": "prir", "1212": "spol", "1213": "me e", "1214": "crol", "1215": "sfer", "1216": "g\u2019 \u00ef", "1217": "z\u2019 a", "1218": "brot", "1219": "fred", "1220": "stes", "1221": "bi a", "1222": "de u", "1223": "ti u", "1224": "t\u2019 a", "1225": "cion", "1226": "ve u", "1227": "co u", "1228": "sfin", "1229": "ga e", "1230": "gros", "1231": "nian", "1232": "squa", "1233": "so e", "1234": "squi", "1235": "za u", "1236": "d\u2019 o", "1237": "d\u2019 e", "1238": "scir", "1239": "ca u", "1240": "s\u2019 o", "1241": "crea", "1242": "cruc", "1243": "spes", "1244": "ci o", "1245": "lo a", "1246": "bion", "1247": "to u", "1248": "a in", "1249": "l\u2019 \u00f2", "1250": "c\u2019 \u00ef", "1251": "biet", "1252": "scel", "1253": "ghel", "1254": "stol", "1255": "dian", "1256": "bias", "1257": "ca o", "1258": "le e", "1259": "spel", "1260": "gi u", "1261": "ro a", "1262": "prez", "1263": "gres", "1264": "a al", "1265": "spuo", "1266": "ga o", "1267": "cheg", "1268": "flit", "1269": "sgra", "1270": "trul", "1271": "scri", "1272": "quen", "1273": "no o", "1274": "c\u2019 o", "1275": "trie", "1276": "zo e", "1277": "bo i", "1278": "tren", "1279": "ca e", "1280": "bron", "1281": "\u2019vun", "1282": "ghio", "1283": "n\u2019 a", "1284": "driz", "1285": "zi o", "1286": "r\u00ec u", "1287": "mi u", "1288": "de a", "1289": "do u", "1290": "viem", "1291": "dien", "1292": "di i", "1293": "scop", "1294": "stuo", "1295": "e ar", "1296": "sfam", "1297": "frat", "1298": "guit", "1299": "da o", "1300": "stop", "1301": "gnan", "1302": "piac", "1303": "ne a", "1304": "scem", "1305": "gien", "1306": "broc", "1307": "pros", "1308": "c\u2019 e", "1309": "dies", "1310": "go e", "1311": "la o", "1312": "scov", "1313": "ra e", "1314": "puom", "1315": "glie", "1316": "chia", "1317": "ni o", "1318": "gior", "1319": "pi a", "1320": "scer", "1321": "si u", "1322": "s\u2019 a", "1323": "la e", "1324": "se i", "1325": "sanc", "1326": "l\u2019 i", "1327": "co a", "1328": "ve a", "1329": "scev", "1330": "brez", "1331": "na u", "1332": "bren", "1333": "zi e", "1334": "pran", "1335": "sbra", "1336": "de o", "1337": "do o", "1338": "clau", "1339": "li e", "1340": "ta a", "1341": "ma a", "1342": "ro o", "1343": "co o", "1344": "cien", "1345": "va a", "1346": "stas", "1347": "stis", "1348": "d\u2019 a", "1349": "guet", "1350": "me i", "1351": "scic", "1352": "mi o", "1353": "p\u2019 e", "1354": "pian", "1355": "cric", "1356": "ciel", "1357": "smoz", "1358": "pren", "1359": "quel", "1360": "brul", "1361": "so o", "1362": "sfar", "1363": "stin", "1364": "ni e", "1365": "s\u00ec a", "1366": "prie", "1367": "spal", "1368": "plau", "1369": "ghie", "1370": "fret", "1371": "di a", "1372": "giuo", "1373": "sfac", "1374": "m\u2019 o", "1375": "ciuf", "1376": "scim", "1377": "flet", "1378": "brol", "1379": "le o", "1380": "spro", "1381": "\u2018glo", "1382": "zian", "1383": "no i", "1384": "sneb", "1385": "stia", "1386": "za i", "1387": "stav", "1388": "ta i", "1389": "fior", "1390": "no e", "1391": "\u00e8 im", "1392": "la i", "1393": "sa u", "1394": "guar", "1395": "mi e", "1396": "spir", "1397": "na a", "1398": "gi e", "1399": "scom", "1400": "si a", "1401": "n\u2019 o", "1402": "gheg", "1403": "grep", "1404": "le u", "1405": "re a", "1406": "la u", "1407": "grot", "1408": "ciac", "1409": "chil", "1410": "ma e", "1411": "gual", "1412": "trac", "1413": "to e", "1414": "do e", "1415": "pe i", "1416": "cher", "1417": "r\u2019 o", "1418": "ghez", "1419": "scol", "1420": "ie a", "1421": "pruo", "1422": "z\u2019 o", "1423": "ta u", "1424": "s\u2019 u", "1425": "guel", "1426": "n\u2019 e", "1427": "to i", "1428": "quis", "1429": "sfat", "1430": "to o", "1431": "grez", "1432": "sa a", "1433": "a es", "1434": "stul", "1435": "ma u", "1436": "si o", "1437": "gnuo", "1438": "sfre", "1439": "ge o", "1440": "spin", "1441": "puol", "1442": "li \u2019", "1443": "s\u2019 e", "1444": "s\u00ec i", "1445": "gnar", "1446": "ne e", "1447": "trec", "1448": "l\u2019 a", "1449": "sgri", "1450": "o ar", "1451": "stel", "1452": "ster", "1453": "guiz", "1454": "tret", "1455": "sciu", "1456": "se a", "1457": "do i", "1458": "pris", "1459": "sdeg", "1460": "star", "1461": "fles", "1462": "scor", "1463": "si i", "1464": "spez", "1465": "tras", "1466": "trag", "1467": "smal", "1468": "va e", "1469": "buon", "1470": "so u", "1471": "ro i", "1472": "grom", "1473": "spun", "1474": "v\u2019 e", "1475": "mo a", "1476": "d\u2019 u", "1477": "truo", "1478": "ra o", "1479": "mo u", "1480": "cras", "1481": "ne u", "1482": "ca a", "1483": "po e", "1484": "pron", "1485": "stiz", "1486": "ghet", "1487": "na e", "1488": "me a", "1489": "brut", "1490": "gron", "1491": "to a", "1492": "fiac", "1493": "a ef", "1494": "puos", "1495": "so i", "1496": "smar", "1497": "po u", "1498": "smon", "1499": "sfan", "1500": "pien", "1501": "piat", "1502": "clis", "1503": "dras", "1504": "liev", "1505": "scre", "1506": "giar", "1507": "fiam", "1508": "l\u2019 e", "1509": "stal", "1510": "quer", "1511": "tror", "1512": "frut", "1513": "bo a", "1514": "go a", "1515": "fran", "1516": "na i", "1517": "scio", "1518": "se u", "1519": "scar", "1520": "trot", "1521": "t\u2019 o", "1522": "scro", "1523": "le a", "1524": "pi i", "1525": "v\u2019 o", "1526": "spie", "1527": "stem", "1528": "s\u2019 \u00ef", "1529": "d\u2019 \u00eb", "1530": "spor", "1531": "guan", "1532": "graf", "1533": "mo i", "1534": "plan", "1535": "m\u2019 i", "1536": "blan", "1537": "va o", "1538": "sa e", "1539": "vuol", "1540": "piom", "1541": "ciul", "1542": "z\u2019 i", "1543": "glia", "1544": "mo o", "1545": "ce o", "1546": "prin", "1547": "chis", "1548": "gner", "1549": "stec", "1550": "grap", "1551": "giug", "1552": "str\u00e0", "1553": "ciot", "1554": "scia", "1555": "tiem", "1556": "te i", "1557": "va u", "1558": "cias", "1559": "te e", "1560": "pres", "1561": "di o", "1562": "drap", "1563": "d\u2019 \u00ef", "1564": "sber", "1565": "sden", "1566": "sche", "1567": "guaz", "1568": "ni u", "1569": "se e", "1570": "me o", "1571": "sper", "1572": "po a", "1573": "re o", "1574": "scaz", "1575": "ci e", "1576": "lo e", "1577": "co e", "1578": "fiot", "1579": "ciuo", "1580": "giun", "1581": "guen", "1582": "co ac", "1583": "gliar", "1584": "vo at", "1585": "ra im", "1586": "sta e", "1587": "sciam", "1588": "li am", "1589": "che u", "1590": "s\u2019 am", "1591": "r\u2019 el", "1592": "de on", "1593": "se es", "1594": "l\u2019 op", "1595": "c\u2019 im", "1596": "sta a", "1597": "ta ad", "1598": "me at", "1599": "l\u2019 uo", "1600": "ze et", "1601": "d\u2019 ap", "1602": "co av", "1603": "ca er", "1604": "l\u2019 ae", "1605": "ro ab", "1606": "do ar", "1607": "m\u2019 es", "1608": "ri ar", "1609": "te an", "1610": "si en", "1611": "ne al", "1612": "pre e", "1613": "n\u2019 an", "1614": "li im", "1615": "t\u2019 ap", "1616": "na af", "1617": "strat", "1618": "lo ac", "1619": "te on", "1620": "to al", "1621": "de ar", "1622": "do ec", "1623": "l\u2019 ar", "1624": "li \u2019n", "1625": "te as", "1626": "ra uc", "1627": "so et", "1628": "ch\u2019 o", "1629": "stret", "1630": "de or", "1631": "si in", "1632": "bra a", "1633": "l\u2019 as", "1634": "d\u2019 in", "1635": "z\u2019 es", "1636": "la on", "1637": "ne em", "1638": "po al", "1639": "d\u2019 of", "1640": "vi of", "1641": "si of", "1642": "di av", "1643": "ni av", "1644": "chiet", "1645": "ci as", "1646": "re im", "1647": "di im", "1648": "to et", "1649": "si el", "1650": "ta et", "1651": "d\u2019 og", "1652": "m\u2019 ad", "1653": "de ag", "1654": "mi ef", "1655": "ta ac", "1656": "ta on", "1657": "d\u2019 on", "1658": "ro eb", "1659": "sa ac", "1660": "t\u2019 as", "1661": "cia a", "1662": "l\u2019 al", "1663": "t\u2019 at", "1664": "de eu", "1665": "s\u2019 ap", "1666": "ma in", "1667": "lo es", "1668": "to ag", "1669": "mo es", "1670": "ma of", "1671": "v\u2019 al", "1672": "ta ar", "1673": "gni e", "1674": "vi on", "1675": "no er", "1676": "li as", "1677": "va im", "1678": "l\u2019 er", "1679": "st\u2019 a", "1680": "si al", "1681": "so al", "1682": "li ul", "1683": "le oc", "1684": "v\u2019 et", "1685": "to ar", "1686": "lo of", "1687": "d\u2019 ac", "1688": "la av", "1689": "ghien", "1690": "so as", "1691": "ro im", "1692": "vi \u2019m", "1693": "re em", "1694": "t\u2019 im", "1695": "te al", "1696": "tro a", "1697": "v\u2019 of", "1698": "sa ol", "1699": "ti am", "1700": "s\u2019 im", "1701": "l\u2019 um", "1702": "ne es", "1703": "ni ap", "1704": "d\u2019 at", "1705": "n\u2019 eb", "1706": "ma ac", "1707": "li es", "1708": "ta om", "1709": "to av", "1710": "sfran", "1711": "ra at", "1712": "re ac", "1713": "mi ad", "1714": "zo as", "1715": "sgher", "1716": "co on", "1717": "to eb", "1718": "ra el", "1719": "do as", "1720": "to ap", "1721": "la ol", "1722": "re am", "1723": "na ar", "1724": "ste i", "1725": "na eb", "1726": "sbe a", "1727": "lo il", "1728": "ra as", "1729": "le at", "1730": "ro av", "1731": "va id", "1732": "to ol", "1733": "v\u2019 am", "1734": "t\u00e0 in", "1735": "pra a", "1736": "ha \u2019n", "1737": "de af", "1738": "vo ac", "1739": "ge in", "1740": "t\u2019 ag", "1741": "ci or", "1742": "ma or", "1743": "strar", "1744": "s\u2019 at", "1745": "ci an", "1746": "ta el", "1747": "de am", "1748": "so of", "1749": "l\u2019 ai", "1750": "no ab", "1751": "chiar", "1752": "za am", "1753": "tu ha", "1754": "si og", "1755": "le an", "1756": "ba un", "1757": "lo in", "1758": "re oc", "1759": "pi or", "1760": "no et", "1761": "schem", "1762": "ge an", "1763": "s\u00ec in", "1764": "l\u2019 or", "1765": "te es", "1766": "si as", "1767": "ro es", "1768": "mo ar", "1769": "tri o", "1770": "d\u2019 eb", "1771": "ci al", "1772": "gno u", "1773": "r\u2019 es", "1774": "di in", "1775": "de er", "1776": "do on", "1777": "strin", "1778": "ra on", "1779": "no in", "1780": "m\u2019 eb", "1781": "ti or", "1782": "si ar", "1783": "ga an", "1784": "si at", "1785": "spiac", "1786": "ce av", "1787": "glian", "1788": "li un", "1789": "m\u2019 an", "1790": "te em", "1791": "zi \u2019m", "1792": "te af", "1793": "vo an", "1794": "ve at", "1795": "scial", "1796": "fa az", "1797": "d\u2019 ot", "1798": "sciut", "1799": "strut", "1800": "so es", "1801": "le of", "1802": "ti ac", "1803": "po ar", "1804": "ce al", "1805": "ve ap", "1806": "ga as", "1807": "d\u2019 ab", "1808": "ca an", "1809": "ra in", "1810": "ri al", "1811": "to on", "1812": "no ap", "1813": "mi an", "1814": "ne av", "1815": "zi ap", "1816": "vo al", "1817": "m\u2019 ac", "1818": "ti of", "1819": "s\u2019 el", "1820": "li em", "1821": "sti a", "1822": "gi an", "1823": "na of", "1824": "n\u2019 om", "1825": "ra av", "1826": "te er", "1827": "li er", "1828": "vi in", "1829": "ghiac", "1830": "n\u2019 in", "1831": "s\u2019 al", "1832": "ma al", "1833": "n\u2019 on", "1834": "di or", "1835": "ri ap", "1836": "v\u2019 er", "1837": "li in", "1838": "chioc", "1839": "dea u", "1840": "ti al", "1841": "no as", "1842": "l\u2019 ag", "1843": "ra et", "1844": "me af", "1845": "spres", "1846": "re al", "1847": "ra am", "1848": "bra u", "1849": "zio u", "1850": "sco o", "1851": "ra ot", "1852": "ra es", "1853": "schie", "1854": "di og", "1855": "d\u2019 as", "1856": "ma on", "1857": "ne \u2019m", "1858": "tro e", "1859": "que o", "1860": "ri on", "1861": "za an", "1862": "ce at", "1863": "ce ac", "1864": "cro a", "1865": "gne a", "1866": "l\u2019 un", "1867": "la of", "1868": "ta un", "1869": "vi ar", "1870": "n\u2019 ol", "1871": "s\u2019 en", "1872": "te ap", "1873": "vo as", "1874": "di on", "1875": "si ad", "1876": "tra i", "1877": "ra ad", "1878": "tr\u2019 e", "1879": "do at", "1880": "re at", "1881": "stren", "1882": "di ol", "1883": "ste a", "1884": "se ec", "1885": "zi at", "1886": "ni as", "1887": "no im", "1888": "ra al", "1889": "s\u2019 et", "1890": "te in", "1891": "cia o", "1892": "to or", "1893": "na ac", "1894": "te os", "1895": "va al", "1896": "re an", "1897": "re au", "1898": "no af", "1899": "ti \u2019m", "1900": "ci ar", "1901": "re av", "1902": "se an", "1903": "n\u2019 au", "1904": "so en", "1905": "no at", "1906": "do am", "1907": "ti an", "1908": "t\u2019 in", "1909": "l\u2019 ab", "1910": "n\u2019 er", "1911": "d\u2019 im", "1912": "so at", "1913": "to in", "1914": "de ap", "1915": "sti o", "1916": "te at", "1917": "mo on", "1918": "no ec", "1919": "co ad", "1920": "ze es", "1921": "v\u2019 ac", "1922": "v\u2019 ab", "1923": "ne ac", "1924": "mi am", "1925": "ra ab", "1926": "na at", "1927": "ri an", "1928": "l\u2019 es", "1929": "ne ov", "1930": "cio e", "1931": "ma ap", "1932": "de al", "1933": "s\u2019 ag", "1934": "ma an", "1935": "te or", "1936": "ce im", "1937": "gliam", "1938": "ci ap", "1939": "le in", "1940": "ne ap", "1941": "lia a", "1942": "de ac", "1943": "be al", "1944": "si av", "1945": "d\u2019 el", "1946": "re eb", "1947": "co an", "1948": "m\u2019 al", "1949": "ch\u2019 \u00ef", "1950": "spran", "1951": "l\u2019 in", "1952": "na av", "1953": "la ap", "1954": "bo av", "1955": "streg", "1956": "v\u2019 ap", "1957": "so ap", "1958": "la en", "1959": "ge et", "1960": "zi ag", "1961": "ne et", "1962": "ro of", "1963": "sgiun", "1964": "\u2019v\u2019 u", "1965": "l\u2019 ol", "1966": "v\u2019 es", "1967": "no ac", "1968": "suo a", "1969": "ci am", "1970": "tro o", "1971": "ge un", "1972": "ne in", "1973": "di ab", "1974": "zo in", "1975": "mo ec", "1976": "l\u2019 oc", "1977": "be ar", "1978": "d\u2019 os", "1979": "to ec", "1980": "le ad", "1981": "gli u", "1982": "to ab", "1983": "re af", "1984": "li ad", "1985": "no am", "1986": "f\u00e9 in", "1987": "na or", "1988": "m\u2019 as", "1989": "r\u2019 an", "1990": "n\u2019 ag", "1991": "vi ac", "1992": "m\u2019 af", "1993": "l\u2019 at", "1994": "sguar", "1995": "me ef", "1996": "le \u2019n", "1997": "vi av", "1998": "va an", "1999": "chian", "2000": "ta at", "2001": "ro as", "2002": "s\u00ec \u2019n", "2003": "scran", "2004": "d\u2019 om", "2005": "stroz", "2006": "zio a", "2007": "ra an", "2008": "stroc", "2009": "me in", "2010": "do an", "2011": "be av", "2012": "sciau", "2013": "splen", "2014": "li uo", "2015": "ne \u2019n", "2016": "scias", "2017": "ti ad", "2018": "co in", "2019": "do el", "2020": "to uc", "2021": "gliet", "2022": "na in", "2023": "me ap", "2024": "t\u2019 ac", "2025": "tra e", "2026": "mo ol", "2027": "ni in", "2028": "stran", "2029": "le ap", "2030": "no or", "2031": "ni an", "2032": "ti ar", "2033": "me am", "2034": "qua e", "2035": "to ov", "2036": "m\u2019 av", "2037": "s\u2019 eb", "2038": "l\u2019 om", "2039": "ra eb", "2040": "dio i", "2041": "te is", "2042": "ni es", "2043": "co et", "2044": "st\u2019 u", "2045": "ba in", "2046": "sto e", "2047": "co er", "2048": "ia an", "2049": "do oc", "2050": "mo af", "2051": "no ar", "2052": "s\u2019 ad", "2053": "di es", "2054": "s\u2019 of", "2055": "ta op", "2056": "mo al", "2057": "ci \u2019n", "2058": "re as", "2059": "se as", "2060": "r\u2019 al", "2061": "do es", "2062": "no ad", "2063": "gia o", "2064": "le id", "2065": "ve al", "2066": "si \u2019n", "2067": "li au", "2068": "bo on", "2069": "\u2019ve o", "2070": "vi an", "2071": "ce au", "2072": "s\u2019 os", "2073": "ne as", "2074": "re ot", "2075": "ti \u2019n", "2076": "na ap", "2077": "to as", "2078": "zi as", "2079": "li on", "2080": "z\u2019 al", "2081": "de au", "2082": "mi al", "2083": "chiap", "2084": "l\u2019 af", "2085": "s\u2019 er", "2086": "rio a", "2087": "li af", "2088": "le \u2019m", "2089": "l\u2019 \u00e0n", "2090": "d\u2019 ol", "2091": "li or", "2092": "da an", "2093": "n\u2019 av", "2094": "ne on", "2095": "tro i", "2096": "na on", "2097": "be as", "2098": "glien", "2099": "li ag", "2100": "pa in", "2101": "se ac", "2102": "m\u2019 ag", "2103": "m\u2019 om", "2104": "de as", "2105": "me an", "2106": "no ag", "2107": "schio", "2108": "ti oc", "2109": "ci af", "2110": "ma \u2019n", "2111": "m\u2019 in", "2112": "se un", "2113": "to ef", "2114": "to an", "2115": "d\u2019 al", "2116": "m\u2019 of", "2117": "ta as", "2118": "lo \u2019n", "2119": "ti at", "2120": "ca in", "2121": "s\u2019 em", "2122": "do ac", "2123": "co al", "2124": "pi\u00f9 a", "2125": "ti as", "2126": "re ol", "2127": "schiu", "2128": "me as", "2129": "mo im", "2130": "fe et", "2131": "v\u2019 el", "2132": "s\u2019 av", "2133": "ro in", "2134": "strug", "2135": "sce a", "2136": "po av", "2137": "fo et", "2138": "to ad", "2139": "si ol", "2140": "te ad", "2141": "le ol", "2142": "ta im", "2143": "gliel", "2144": "ti en", "2145": "so ab", "2146": "di an", "2147": "re il", "2148": "t\u2019 em", "2149": "ro um", "2150": "m\u2019 at", "2151": "lo ar", "2152": "n\u2019 uo", "2153": "s\u2019 in", "2154": "no es", "2155": "so \u2019n", "2156": "strac", "2157": "l\u2019 an", "2158": "ce af", "2159": "l\u2019 ul", "2160": "ve ar", "2161": "sciar", "2162": "l\u2019 em", "2163": "ti im", "2164": "me al", "2165": "d\u2019 oc", "2166": "m\u2019 ab", "2167": "l\u2019 im", "2168": "d\u2019 or", "2169": "d\u2019 ar", "2170": "po an", "2171": "di ac", "2172": "l\u2019 uc", "2173": "li om", "2174": "n\u2019 al", "2175": "to oc", "2176": "t\u2019 or", "2177": "no al", "2178": "sgrie", "2179": "t\u2019 es", "2180": "ti av", "2181": "mi in", "2182": "li \u2019m", "2183": "glies", "2184": "ve an", "2185": "me ac", "2186": "sto o", "2187": "t\u2019 an", "2188": "te ac", "2189": "stram", "2190": "go es", "2191": "n\u2019 ar", "2192": "mo eb", "2193": "va \u2019n", "2194": "scian", "2195": "s\u2019 ar", "2196": "v\u2019 eb", "2197": "l\u00ec en", "2198": "m\u2019 ap", "2199": "gia e", "2200": "ta in", "2201": "si \u2019m", "2202": "za \u2019n", "2203": "qu\u2019 o", "2204": "mo an", "2205": "le on", "2206": "li at", "2207": "ci av", "2208": "d\u2019 am", "2209": "ma es", "2210": "sto a", "2211": "tra a", "2212": "sta u", "2213": "se op", "2214": "fu im", "2215": "gliuo", "2216": "si an", "2217": "n\u2019 ab", "2218": "t\u2019 av", "2219": "mo in", "2220": "si im", "2221": "ga in", "2222": "mo or", "2223": "ne an", "2224": "l\u2019 au", "2225": "te au", "2226": "d\u2019 en", "2227": "zia o", "2228": "mo of", "2229": "que u", "2230": "de an", "2231": "re et", "2232": "scrip", "2233": "li ac", "2234": "ni am", "2235": "ci at", "2236": "gna a", "2237": "te \u2019n", "2238": "pr\u2019 e", "2239": "d\u2019 er", "2240": "ve oc", "2241": "chias", "2242": "ghian", "2243": "mi ap", "2244": "s\u2019 as", "2245": "ro an", "2246": "t\u2019 ar", "2247": "tri e", "2248": "ch\u2019 e", "2249": "di az", "2250": "to at", "2251": "l\u2019 ef", "2252": "d\u2019 au", "2253": "do ap", "2254": "do af", "2255": "l\u2019 el", "2256": "d\u2019 az", "2257": "lo av", "2258": "stras", "2259": "re ap", "2260": "d\u2019 eu", "2261": "che a", "2262": "sa in", "2263": "bre o", "2264": "na es", "2265": "s\u2019 ab", "2266": "fo im", "2267": "t\u2019 am", "2268": "c\u2019 en", "2269": "stric", "2270": "to es", "2271": "ce as", "2272": "no au", "2273": "lo er", "2274": "zo ar", "2275": "re ab", "2276": "do al", "2277": "za on", "2278": "do eb", "2279": "re in", "2280": "me on", "2281": "d\u2019 af", "2282": "smo a", "2283": "ta an", "2284": "pa es", "2285": "ni en", "2286": "d\u2019 et", "2287": "la al", "2288": "go al", "2289": "ra ac", "2290": "ci ad", "2291": "ne ar", "2292": "se on", "2293": "zo an", "2294": "qu\u2019 e", "2295": "co ap", "2296": "za in", "2297": "ce eu", "2298": "tro u", "2299": "pi in", "2300": "strel", "2301": "s\u2019 ac", "2302": "le av", "2303": "le al", "2304": "la \u2019n", "2305": "m\u2019 ol", "2306": "mo ac", "2307": "l\u2019 ac", "2308": "za et", "2309": "ro at", "2310": "gne u", "2311": "pie e", "2312": "ra ap", "2313": "ri ac", "2314": "scher", "2315": "zi al", "2316": "re om", "2317": "strom", "2318": "ghiot", "2319": "ro on", "2320": "d\u2019 ur", "2321": "la \u2019m", "2322": "chi a", "2323": "te im", "2324": "ra of", "2325": "se \u2019n", "2326": "lo at", "2327": "va ar", "2328": "ta of", "2329": "so ar", "2330": "ia al", "2331": "cia e", "2332": "no av", "2333": "to im", "2334": "sta i", "2335": "bo al", "2336": "l\u2019 eb", "2337": "ne af", "2338": "bre a", "2339": "ce es", "2340": "va at", "2341": "scris", "2342": "l\u2019 os", "2343": "li ap", "2344": "chi u", "2345": "co eb", "2346": "n\u2019 ap", "2347": "di al", "2348": "l\u2019 on", "2349": "\u2019v\u2019 e", "2350": "ri in", "2351": "ne ag", "2352": "sciol", "2353": "gno a", "2354": "se at", "2355": "re en", "2356": "li av", "2357": "ro am", "2358": "te ar", "2359": "di ad", "2360": "l\u2019 of", "2361": "ro ac", "2362": "scioc", "2363": "chi o", "2364": "lo eb", "2365": "te ol", "2366": "do im", "2367": "mi ac", "2368": "ni al", "2369": "cea u", "2370": "da in", "2371": "si ac", "2372": "zia e", "2373": "l\u2019 et", "2374": "d\u2019 an", "2375": "me ar", "2376": "ch\u2019 a", "2377": "l\u2019 av", "2378": "ce on", "2379": "de \u2019n", "2380": "n\u2019 at", "2381": "te ag", "2382": "l\u2019 ec", "2383": "go in", "2384": "do ol", "2385": "de om", "2386": "mi er", "2387": "vo au", "2388": "ce in", "2389": "la es", "2390": "t\u2019 ab", "2391": "gne o", "2392": "tri a", "2393": "li uc", "2394": "tra u", "2395": "l\u2019 am", "2396": "t\u2019 el", "2397": "re on", "2398": "te en", "2399": "se af", "2400": "la or", "2401": "s\u2019 es", "2402": "che e", "2403": "po in", "2404": "te ab", "2405": "l\u2019 ov", "2406": "le as", "2407": "me of", "2408": "za er", "2409": "zio e", "2410": "b\u2019 es", "2411": "sci\u00e0n", "2412": "li an", "2413": "di om", "2414": "pi ap", "2415": "ro au", "2416": "co ar", "2417": "re es", "2418": "s\u2019 op", "2419": "bra e", "2420": "lo as", "2421": "re ag", "2422": "ci in", "2423": "na \u2019n", "2424": "scheg", "2425": "cio a", "2426": "sa ap", "2427": "si am", "2428": "vi en", "2429": "lo an", "2430": "va eb", "2431": "ca en", "2432": "lo af", "2433": "le es", "2434": "mo at", "2435": "fu ap", "2436": "ce et", "2437": "di af", "2438": "de in", "2439": "to of", "2440": "lo al", "2441": "zie o", "2442": "si or", "2443": "z\u2019 ar", "2444": "sciom", "2445": "se in", "2446": "l\u2019 en", "2447": "le am", "2448": "ra ec", "2449": "di of", "2450": "n\u2019 ac", "2451": "le ar", "2452": "sa an", "2453": "m\u2019 im", "2454": "fu in", "2455": "squil", "2456": "te of", "2457": "po on", "2458": "tr\u2019 a", "2459": "mi \u2019n", "2460": "li al", "2461": "m\u2019 ar", "2462": "ta am", "2463": "schic", "2464": "ro ap", "2465": "se al", "2466": "schia", "2467": "schet", "2468": "s\u2019 af", "2469": "la an", "2470": "va in", "2471": "v\u2019 ar", "2472": "ta es", "2473": "to ac", "2474": "sa og", "2475": "dre e", "2476": "lo ef", "2477": "so am", "2478": "s\u00ec \u2019m", "2479": "vi am", "2480": "ti in", "2481": "ta eu", "2482": "spraz", "2483": "li ar", "2484": "le or", "2485": "la au", "2486": "bi al", "2487": "re ad", "2488": "le uc", "2489": "squar", "2490": "s\u2019 an", "2491": "fu el", "2492": "ni on", "2493": "za im", "2494": "t\u2019 om", "2495": "se ap", "2496": "do er", "2497": "ro or", "2498": "lo im", "2499": "t\u2019 al", "2500": "gi ar", "2501": "sta o", "2502": "hi om", "2503": "na ab", "2504": "scrit", "2505": "so ad", "2506": "l\u2019 ad", "2507": "ze or", "2508": "ca on", "2509": "sa es", "2510": "do or", "2511": "v\u2019 an", "2512": "l\u2019 ap", "2513": "no om", "2514": "ro oc", "2515": "n\u2019 am", "2516": "t\u2019 af", "2517": "sa im", "2518": "pre a", "2519": "ne im", "2520": "l\u2019 ot", "2521": "v\u2019 in", "2522": "no an", "2523": "te om", "2524": "chi e", "2525": "no \u2019n", "2526": "li ab", "2527": "si er", "2528": "sa on", "2529": "ce ar", "2530": "la el", "2531": "so on", "2532": "me au", "2533": "li et", "2534": "be on", "2535": "ta al", "2536": "d\u2019 es", "2537": "vi al", "2538": "ro ar", "2539": "to af", "2540": "ro al", "2541": "do in", "2542": "de of", "2543": "re ar", "2544": "so eb", "2545": "li of", "2546": "li eb", "2547": "la in", "2548": "ti et", "2549": "li oc", "2550": "so an", "2551": "lo \u2019m", "2552": "co at", "2553": "sco u", "2554": "vi as", "2555": "za al", "2556": "so in", "2557": "ch\u2019 u", "2558": "ce an", "2559": "st\u2019 o", "2560": "ta ab", "2561": "ve es", "2562": "lo on", "2563": "ch\u2019 i", "2564": "scio e", "2565": "pi\u00f9 \u2019n", "2566": "gno in", "2567": "cio al", "2568": "sce el", "2569": "sco al", "2570": "tri es", "2571": "ch\u00e9 in", "2572": "bre in", "2573": "tri af", "2574": "vea \u2019m", "2575": "sce as", "2576": "cio an", "2577": "ch\u2019 ap", "2578": "gne ac", "2579": "st\u2019 al", "2580": "glio u", "2581": "dia as", "2582": "que es", "2583": "chi ar", "2584": "que al", "2585": "tre in", "2586": "scia e", "2587": "pi\u00f9 in", "2588": "sti es", "2589": "qua in", "2590": "ria in", "2591": "tr\u2019 am", "2592": "sta in", "2593": "cio ap", "2594": "tro \u2019m", "2595": "cia ar", "2596": "sto of", "2597": "gio on", "2598": "glia u", "2599": "sto im", "2600": "dre al", "2601": "sco an", "2602": "sta og", "2603": "tro av", "2604": "ch\u2019 ar", "2605": "gue an", "2606": "ch\u2019 ac", "2607": "gue or", "2608": "mio in", "2609": "ria on", "2610": "ti han", "2611": "zia on", "2612": "tri as", "2613": "pre ac", "2614": "che om", "2615": "che an", "2616": "sti un", "2617": "tro of", "2618": "ch\u2019 al", "2619": "pie or", "2620": "gne in", "2621": "gio uc", "2622": "pre al", "2623": "tre an", "2624": "sto an", "2625": "c\u2019 han", "2626": "gno al", "2627": "st\u2019 ot", "2628": "tri in", "2629": "sti av", "2630": "cio et", "2631": "schiet", "2632": "tri of", "2633": "gno am", "2634": "gh\u2019 es", "2635": "mia \u2019n", "2636": "ch\u2019 en", "2637": "bri ap", "2638": "tra ef", "2639": "d\u2019 han", "2640": "ch\u2019 et", "2641": "chi in", "2642": "sti in", "2643": "qua im", "2644": "ch\u2019 as", "2645": "gia in", "2646": "str\u2019 u", "2647": "tro an", "2648": "ch\u2019 er", "2649": "ne han", "2650": "glio e", "2651": "pre in", "2652": "gne im", "2653": "co e i", "2654": "rio an", "2655": "che op", "2656": "vio in", "2657": "chio a", "2658": "chi an", "2659": "ch\u2019 og", "2660": "st\u2019 an", "2661": "zia il", "2662": "zie ec", "2663": "che ar", "2664": "st\u2019 ac", "2665": "bia an", "2666": "tr\u2019 ar", "2667": "sti er", "2668": "chio u", "2669": "ghe on", "2670": "gni al", "2671": "lio as", "2672": "sto ar", "2673": "stra a", "2674": "schian", "2675": "che ha", "2676": "tro ab", "2677": "stra e", "2678": "ch\u2019 at", "2679": "gi\u00e0 in", "2680": "ch\u00e9 ap", "2681": "tro on", "2682": "cio as", "2683": "ch\u2019 es", "2684": "gne ef", "2685": "t\u2019 han", "2686": "gne al", "2687": "ch\u2019 am", "2688": "st\u2019 of", "2689": "pio on", "2690": "dre as", "2691": "glio o", "2692": "bre an", "2693": "chi on", "2694": "tro as", "2695": "gni an", "2696": "ch\u2019 eb", "2697": "gna as", "2698": "ch\u2019 ad", "2699": "sto es", "2700": "st\u2019 es", "2701": "te han", "2702": "sta ai", "2703": "gne er", "2704": "sce an", "2705": "st\u2019 ar", "2706": "lio in", "2707": "tr\u2019 al", "2708": "dre eb", "2709": "stra u", "2710": "sti al", "2711": "pre at", "2712": "tra op", "2713": "vi \u00e8 a", "2714": "li han", "2715": "sta al", "2716": "sio in", "2717": "chi ap", "2718": "sti oc", "2719": "ch\u2019 ag", "2720": "schiat", "2721": "tro ar", "2722": "ch\u00e9 as", "2723": "stri a", "2724": "tro al", "2725": "glia o", "2726": "sta ol", "2727": "chi al", "2728": "stro u", "2729": "sto \u2019m", "2730": "dre an", "2731": "bre et", "2732": "chi af", "2733": "go han", "2734": "pi\u00f9 ap", "2735": "tra an", "2736": "lia an", "2737": "cia im", "2738": "tra \u2019m", "2739": "ri han", "2740": "tro et", "2741": "sto \u2019n", "2742": "ste in", "2743": "n\u2019 han", "2744": "gio et", "2745": "ria of", "2746": "gio in", "2747": "sti or", "2748": "che in", "2749": "sto at", "2750": "tro im", "2751": "nio im", "2752": "mio \u2019n", "2753": "st\u2019 in", "2754": "che \u2019m", "2755": "sto ap", "2756": "ch\u2019 an", "2757": "sti on", "2758": "glia a", "2759": "sto in", "2760": "mia in", "2761": "ch\u2019 or", "2762": "pre ar", "2763": "tro ap", "2764": "bra in", "2765": "pre es", "2766": "stro o", "2767": "gue on", "2768": "l\u2019 han", "2769": "tr\u2019 om", "2770": "gno af", "2771": "sto al", "2772": "tra av", "2773": "chi am", "2774": "cie in", "2775": "m\u2019 han", "2776": "ch\u2019 el", "2777": "ch\u2019 av", "2778": "tri ap", "2779": "tro in", "2780": "gia ar", "2781": "zia or", "2782": "che \u2019n", "2783": "sti el", "2784": "gne uo", "2785": "dre es", "2786": "qu\u2019 an", "2787": "tre os", "2788": "sta im", "2789": "stro e", "2790": "cia on", "2791": "gno ae", "2792": "sta an", "2793": "ch\u2019 in", "2794": "gio ol", "2795": "sma in", "2796": "chi ac", "2797": "stri o", "2798": "l\u2019 \u00e8 u", "2799": "chio o", "2800": "qua of", "2801": "stra i", "2802": "st\u2019 ul", "2803": "ch\u2019 ab", "2804": "sto ac", "2805": "ste an", "2806": "suo im", "2807": "gia al", "2808": "stro a", "2809": "lio an", "2810": "pr\u2019 ar", "2811": "bra av", "2812": "qua on", "2813": "re e a", "2814": "sto on", "2815": "bia in", "2816": "gna in", "2817": "sce al", "2818": "sti an", "2819": "tro ac", "2820": "stri at", "2821": "stro im", "2822": "glia es", "2823": "chio at", "2824": "stri ef", "2825": "lo e \u2019n", "2826": "mi smar", "2827": "stro eb", "2828": "stro as", "2829": "scia al", "2830": "n\u2019 \u00e8 im", "2831": "stri an", "2832": "stro an", "2833": "dio han", "2834": "glio on", "2835": "trio al", "2836": "glio as", "2837": "si e \u2019n", "2838": "scia an", "2839": "glio in", "2840": "stra in", "2841": "str\u2019 or", "2842": "glio es", "2843": "glie eb", "2844": "stri af", "2845": "stro uc", "2846": "stro ac", "2847": "str\u2019 ar", "2848": "stra ap", "2849": "stro in", "2850": "re a \u2019n", "2851": "za e in", "2852": "stro es", "2853": "sche ab", "2854": "glia al", "2855": "stri al", "2856": "ti e \u2019n", "2857": "stre in", "2858": "chie et", "2859": "li \u00e8 in", "2860": "stri av", "2861": "stro oc", "2862": "d\u2019 i\u2019 a", "2863": "glia in", "2864": "glie al", "2865": "chia of", "2866": "sche er", "2867": "glio an", "2868": "stra ef", "2869": "glia as", "2870": "chio an", "2871": "chio in", "2872": "chia an", "2873": "glia ac", "2874": "stro al", "2875": "ti e ar", "2876": "glie an", "2877": "stro av", "2878": "t\u2019 ho in", "2879": "sti a \u2019n", "2880": "ch\u2019 io \u2019n", "2881": "ch\u2019 e\u2019 \u2019n", "2882": "\u00f9 ", "2883": "l ", "2884": "o ", "2885": "\u00ec ", "2886": "\u00ef ", "2887": "\u00e8 ", "2888": "e ", "2889": "p ", "2890": "d ", "2891": "a ", "2892": "\u00f2 ", "2893": "i ", "2894": "fa ", "2895": "fu ", "2896": "si ", "2897": "un ", "2898": "ei ", "2899": "ai ", "2900": "di ", "2901": "t\u00e8 ", "2902": "ad ", "2903": "lo ", "2904": "am ", "2905": "v\u00f2 ", "2906": "r\u00e0 ", "2907": "vo ", "2908": "hi ", "2909": "ar ", "2910": "n\u00e9 ", "2911": "su ", "2912": "os ", "2913": "vi ", "2914": "\u00f2n ", "2915": "or ", "2916": "p\u00f2 ", "2917": "z\u00f2 ", "2918": "ra ", "2919": "p\u00e8 ", "2920": "\u00f3n ", "2921": "n\u00ec ", "2922": "s\u00f2 ", "2923": "za ", "2924": "al ", "2925": "r\u00ec ", "2926": "go ", "2927": "\u00e9n ", "2928": "ti ", "2929": "d\u00e0 ", "2930": "m\u00e8 ", "2931": "g\u00ec ", "2932": "b\u00f2 ", "2933": "zo ", "2934": "ni ", "2935": "ie ", "2936": "t\u00e9 ", "2937": "mi ", "2938": "ga ", "2939": "ba ", "2940": "da ", "2941": "ci ", "2942": "sa ", "2943": "bo ", "2944": "m\u00f2 ", "2945": "g\u00f2 ", "2946": "l\u00e8 ", "2947": "um ", "2948": "s\u00f9 ", "2949": "ca ", "2950": "ro ", "2951": "la ", "2952": "d\u00e9 ", "2953": "t\u00e0 ", "2954": "oh ", "2955": "\u00e0m ", "2956": "ed ", "2957": "om ", "2958": "na ", "2959": "on ", "2960": "f\u00f2 ", "2961": "r\u00f2 ", "2962": "ri ", "2963": "s\u00ec ", "2964": "d\u00f2 ", "2965": "u\u2019 ", "2966": "l\u00ec ", "2967": "zi ", "2968": "c\u00f2 ", "2969": "d\u00ec ", "2970": "ir ", "2971": "\u00f2s ", "2972": "te ", "2973": "ta ", "2974": "pe ", "2975": "\u00f9l ", "2976": "po ", "2977": "mo ", "2978": "ce ", "2979": "bi ", "2980": "b\u00e8 ", "2981": "se ", "2982": "pa ", "2983": "t\u00f9 ", "2984": "n\u00f2 ", "2985": "\u00ecs ", "2986": "a\u2019 ", "2987": "s\u00e9 ", "2988": "in ", "2989": "pi ", "2990": "as ", "2991": "fi ", "2992": "an ", "2993": "ma ", "2994": "va ", "2995": "\u00e0s ", "2996": "et ", "2997": "to ", "2998": "c\u00e8 ", "2999": "b\u00ec ", "3000": "f\u00e9 ", "3001": "n\u00e0 ", "3002": "re ", "3003": "c\u00e9 ", "3004": "le ", "3005": "ha ", "3006": "ze ", "3007": "io ", "3008": "ho ", "3009": "il ", "3010": "l\u00f2 ", "3011": "me ", "3012": "n\u00e8 ", "3013": "ne ", "3014": "ab ", "3015": "el ", "3016": "so ", "3017": "e\u2019 ", "3018": "s\u00e8 ", "3019": "t\u00f2 ", "3020": "v\u00ec ", "3021": "fo ", "3022": "b\u00f9 ", "3023": "gi ", "3024": "ae ", "3025": "li ", "3026": "\u00e8l ", "3027": "f\u00e0 ", "3028": "ia ", "3029": "i\u2019 ", "3030": "de ", "3031": "be ", "3032": "no ", "3033": "tu ", "3034": "\u00e8e ", "3035": "fe ", "3036": "co ", "3037": "od ", "3038": "\u00e0r ", "3039": "ge ", "3040": "us ", "3041": "ve ", "3042": "do ", "3043": "t\u00ec ", "3044": "l\u00e0 ", "3045": "reo ", "3046": "cen ", "3047": "f\u00e0t ", "3048": "chi ", "3049": "cea ", "3050": "zai ", "3051": "die ", "3052": "zie ", "3053": "tor ", "3054": "nil ", "3055": "deo ", "3056": "sel ", "3057": "mum ", "3058": "ne\u2019 ", "3059": "pal ", "3060": "sci ", "3061": "fu\u2019 ", "3062": "me\u2019 ", "3063": "fia ", "3064": "ros ", "3065": "dur ", "3066": "cre ", "3067": "tun ", "3068": "tue ", "3069": "fra ", "3070": "ger ", "3071": "peo ", "3072": "duo ", "3073": "rui ", "3074": "tai ", "3075": "mai ", "3076": "bar ", "3077": "pio ", "3078": "tem ", "3079": "due ", "3080": "per ", "3081": "bon ", "3082": "pr\u00e0 ", "3083": "dr\u00ec ", "3084": "tii ", "3085": "gel ", "3086": "leo ", "3087": "b\u00e0l ", "3088": "pii ", "3089": "col ", "3090": "p\u00f2s ", "3091": "res ", "3092": "sa\u2019 ", "3093": "seo ", "3094": "est ", "3095": "c\u00e0n ", "3096": "gal ", "3097": "e \u2019 ", "3098": "\u2019ve ", "3099": "ri\u2019 ", "3100": "gei ", "3101": "tio ", "3102": "vea ", "3103": "sma ", "3104": "s\u00ece ", "3105": "ahi ", "3106": "d\u00e8i ", "3107": "ian ", "3108": "tus ", "3109": "gu\u00ec ", "3110": "se\u2019 ", "3111": "lir ", "3112": "ghi ", "3113": "tr\u00f2 ", "3114": "dri ", "3115": "cis ", "3116": "n\u00eca ", "3117": "fon ", "3118": "gan ", "3119": "tis ", "3120": "sei ", "3121": "z\u00f2n ", "3122": "rao ", "3123": "tin ", "3124": "car ", "3125": "sua ", "3126": "b\u00e8l ", "3127": "sti ", "3128": "vie ", "3129": "sco ", "3130": "rer ", "3131": "f\u00e8l ", "3132": "han ", "3133": "mer ", "3134": "\u00f2th ", "3135": "dor ", "3136": "su\u2019 ", "3137": "rio ", "3138": "cur ", "3139": "sul ", "3140": "spa ", "3141": "ror ", "3142": "cra ", "3143": "cum ", "3144": "sis ", "3145": "sem ", "3146": "dre ", "3147": "pir ", "3148": "del ", "3149": "zii ", "3150": "mar ", "3151": "uo\u2019 ", "3152": "a e ", "3153": "vil ", "3154": "gia ", "3155": "mei ", "3156": "feo ", "3157": "nio ", "3158": "dii ", "3159": "vos ", "3160": "bue ", "3161": "cei ", "3162": "a a ", "3163": "t\u00e8s ", "3164": "n\u00e8s ", "3165": "bei ", "3166": "pre ", "3167": "can ", "3168": "dei ", "3169": "spe ", "3170": "zar ", "3171": "por ", "3172": "ren ", "3173": "lui ", "3174": "cle ", "3175": "lin ", "3176": "st\u00f2 ", "3177": "dea ", "3178": "len ", "3179": "fie ", "3180": "zia ", "3181": "r\u00ecs ", "3182": "clo ", "3183": "cia ", "3184": "gi\u2019 ", "3185": "lio ", "3186": "ral ", "3187": "tra ", "3188": "pie ", "3189": "tir ", "3190": "du\u2019 ", "3191": "za\u2019 ", "3192": "poi ", "3193": "pi\u00e8 ", "3194": "pan ", "3195": "zio ", "3196": "t\u00e9r ", "3197": "vel ", "3198": "tui ", "3199": "vol ", "3200": "mon ", "3201": "tal ", "3202": "tr\u00e0 ", "3203": "gu\u00f2 ", "3204": "gi\u00f9 ", "3205": "vii ", "3206": "f\u00e0s ", "3207": "vam ", "3208": "vio ", "3209": "din ", "3210": "tol ", "3211": "o a ", "3212": "gre ", "3213": "tua ", "3214": "l\u00f2n ", "3215": "pra ", "3216": "rea ", "3217": "sio ", "3218": "ven ", "3219": "gua ", "3220": "st\u00e9 ", "3221": "mal ", "3222": "pem ", "3223": "dui ", "3224": "pon ", "3225": "fan ", "3226": "som ", "3227": "dr\u00f2 ", "3228": "smi ", "3229": "plo ", "3230": "cun ", "3231": "gor ", "3232": "vin ", "3233": "r\u00f3n ", "3234": "cem ", "3235": "nea ", "3236": "gin ", "3237": "sol ", "3238": "sia ", "3239": "no\u2019 ", "3240": "ben ", "3241": "st\u00f9 ", "3242": "ram ", "3243": "ner ", "3244": "san ", "3245": "pi\u00e9 ", "3246": "lon ", "3247": "tri ", "3248": "mea ", "3249": "gio ", "3250": "e i ", "3251": "vei ", "3252": "ril ", "3253": "cui ", "3254": "gno ", "3255": "mus ", "3256": "nai ", "3257": "ra\u2019 ", "3258": "lai ", "3259": "sin ", "3260": "hai ", "3261": "mil ", "3262": "min ", "3263": "cin ", "3264": "na\u2019 ", "3265": "noi ", "3266": "bis ", "3267": "qua ", "3268": "gol ", "3269": "ree ", "3270": "sc\u00ec ", "3271": "cel ", "3272": "n\u00ect ", "3273": "di\u00e8 ", "3274": "tan ", "3275": "r\u00ecb ", "3276": "gue ", "3277": "n\u00f2s ", "3278": "fer ", "3279": "fue ", "3280": "mun ", "3281": "s\u00f9e ", "3282": "ni\u2019 ", "3283": "lem ", "3284": "fai ", "3285": "suo ", "3286": "far ", "3287": "rar ", "3288": "man ", "3289": "mae ", "3290": "sto ", "3291": "r\u00f2l ", "3292": "num ", "3293": "b\u00eca ", "3294": "ta\u2019 ", "3295": "ter ", "3296": "ieu ", "3297": "sta ", "3298": "rii ", "3299": "pei ", "3300": "rel ", "3301": "te\u2019 ", "3302": "son ", "3303": "\u2018te ", "3304": "tia ", "3305": "tum ", "3306": "vai ", "3307": "m\u00ecs ", "3308": "bee ", "3309": "sar ", "3310": "sue ", "3311": "re\u2019 ", "3312": "ceo ", "3313": "rir ", "3314": "gir ", "3315": "men ", "3316": "gi\u00e0 ", "3317": "fin ", "3318": "mio ", "3319": "sal ", "3320": "dal ", "3321": "tei ", "3322": "bin ", "3323": "rum ", "3324": "l\u00eca ", "3325": "sun ", "3326": "mia ", "3327": "pia ", "3328": "ean ", "3329": "rei ", "3330": "dar ", "3331": "lan ", "3332": "tuo ", "3333": "nha ", "3334": "dio ", "3335": "di\u2019 ", "3336": "ser ", "3337": "pr\u00ec ", "3338": "rie ", "3339": "nii ", "3340": "zan ", "3341": "gis ", "3342": "gli ", "3343": "d\u00eca ", "3344": "cro ", "3345": "gne ", "3346": "til ", "3347": "sii ", "3348": "rem ", "3349": "bui ", "3350": "tel ", "3351": "t\u00e0n ", "3352": "sit ", "3353": "vau ", "3354": "vem ", "3355": "bio ", "3356": "cu\u2019 ", "3357": "f\u00f3n ", "3358": "rin ", "3359": "teo ", "3360": "cri ", "3361": "ces ", "3362": "nia ", "3363": "rua ", "3364": "sca ", "3365": "neo ", "3366": "sie ", "3367": "t\u00f2n ", "3368": "t\u00f3n ", "3369": "voi ", "3370": "nis ", "3371": "sir ", "3372": "g\u00f3n ", "3373": "sen ", "3374": "ve\u2019 ", "3375": "p\u00eca ", "3376": "smo ", "3377": "des ", "3378": "de\u2019 ", "3379": "bol ", "3380": "gai ", "3381": "vra ", "3382": "n\u00ece ", "3383": "bri ", "3384": "cie ", "3385": "fui ", "3386": "dro ", "3387": "tea ", "3388": "mul ", "3389": "par ", "3390": "gea ", "3391": "gi\u00f2 ", "3392": "g\u00f3r ", "3393": "nem ", "3394": "ch\u00e9 ", "3395": "que ", "3396": "ma\u2019 ", "3397": "cut ", "3398": "gar ", "3399": "dem ", "3400": "bi\u00f2 ", "3401": "m\u00eca ", "3402": "gna ", "3403": "pin ", "3404": "var ", "3405": "cio ", "3406": "gni ", "3407": "sai ", "3408": "val ", "3409": "gra ", "3410": "non ", "3411": "fe\u2019 ", "3412": "ler ", "3413": "ga\u2019 ", "3414": "dir ", "3415": "tar ", "3416": "bor ", "3417": "va\u2019 ", "3418": "dan ", "3419": "von ", "3420": "dia ", "3421": "lia ", "3422": "ier ", "3423": "pea ", "3424": "sub ", "3425": "ten ", "3426": "l\u00eco ", "3427": "bro ", "3428": "bia ", "3429": "a i ", "3430": "lu\u2019 ", "3431": "vo\u2019 ", "3432": "lis ", "3433": "st\u00e0 ", "3434": "sce ", "3435": "ton ", "3436": "ron ", "3437": "vas ", "3438": "gon ", "3439": "dua ", "3440": "fi\u00f2 ", "3441": "mor ", "3442": "tes ", "3443": "o e ", "3444": "dil ", "3445": "bir ", "3446": "deh ", "3447": "nor ", "3448": "v\u00ecd ", "3449": "fi\u2019 ", "3450": "fei ", "3451": "ban ", "3452": "bel ", "3453": "mii ", "3454": "nel ", "3455": "for ", "3456": "der ", "3457": "da\u2019 ", "3458": "zon ", "3459": "ber ", "3460": "unt ", "3461": "tre ", "3462": "mie ", "3463": "nin ", "3464": "fal ", "3465": "nei ", "3466": "fil ", "3467": "sor ", "3468": "t\u00f2r ", "3469": "dee ", "3470": "r\u00ece ", "3471": "bus ", "3472": "la\u2019 ", "3473": "via ", "3474": "cil ", "3475": "dr\u00e0 ", "3476": "gri ", "3477": "nir ", "3478": "lor ", "3479": "coi ", "3480": "pi\u00f9 ", "3481": "con ", "3482": "tro ", "3483": "che ", "3484": "rai ", "3485": "gru ", "3486": "sui ", "3487": "don ", "3488": "fur ", "3489": "nar ", "3490": "f\u00e9e ", "3491": "fio ", "3492": "ste ", "3493": "l\u00e8m ", "3494": "d\u00ece ", "3495": "gro ", "3496": "dai ", "3497": "ti\u2019 ", "3498": "pu\u00f2 ", "3499": "ran ", "3500": "cai ", "3501": "pol ", "3502": "pel ", "3503": "s\u00f3n ", "3504": "meo ", "3505": "nol ", "3506": "ver ", "3507": "co\u2019 ", "3508": "beo ", "3509": "c\u00f2l ", "3510": "lea ", "3511": "cal ", "3512": "pur ", "3513": "lie ", "3514": "ci\u00f2 ", "3515": "lar ", "3516": "mi\u2019 ", "3517": "joi ", "3518": "d\u00ect ", "3519": "st\u00ec ", "3520": "mas ", "3521": "nal ", "3522": "dra ", "3523": "cor ", "3524": "cer ", "3525": "nie ", "3526": "lee ", "3527": "nan ", "3528": "ghe ", "3529": "cul ", "3530": "bra ", "3531": "van ", "3532": "pri ", "3533": "zul ", "3534": "gui ", "3535": "pro ", "3536": "uom ", "3537": "bil ", "3538": "ges ", "3539": "n\u00f2i ", "3540": "lei ", "3541": "bre ", "3542": "ion ", "3543": "c\u00f2b ", "3544": "ria ", "3545": "qui ", "3546": "mee ", "3547": "niam ", "3548": "nail ", "3549": "ce o ", "3550": "de e ", "3551": "si \u00e8 ", "3552": "lo e ", "3553": "ta e ", "3554": "st\u00e8r ", "3555": "que\u2019 ", "3556": "prie ", "3557": "zi a ", "3558": "co i ", "3559": "runt ", "3560": "po o ", "3561": "se i ", "3562": "tier ", "3563": "br\u00f2t ", "3564": "sa \u00e8 ", "3565": "pion ", "3566": "zi \u00e8 ", "3567": "a il ", "3568": "e \u2019n ", "3569": "frir ", "3570": "be i ", "3571": "v\u2019 a ", "3572": "to i ", "3573": "fu a ", "3574": "rean ", "3575": "no e ", "3576": "cean ", "3577": "e \u2019l ", "3578": "cia\u2019 ", "3579": "ched ", "3580": "gnum ", "3581": "pri\u2019 ", "3582": "ro o ", "3583": "sien ", "3584": "suo\u2019 ", "3585": "\u00e8 \u2019n ", "3586": "ge a ", "3587": "diam ", "3588": "tran ", "3589": "scer ", "3590": "trei ", "3591": "si e ", "3592": "nier ", "3593": "ce i ", "3594": "s\u00e9 i ", "3595": "bi i ", "3596": "pe i ", "3597": "sche ", "3598": "so \u00e8 ", "3599": "guio ", "3600": "za i ", "3601": "ro i ", "3602": "biar ", "3603": "me e ", "3604": "suon ", "3605": "brar ", "3606": "sfar ", "3607": "stre ", "3608": "scea ", "3609": "do i ", "3610": "te o ", "3611": "ti i ", "3612": "te a ", "3613": "glie ", "3614": "quae ", "3615": "de a ", "3616": "schi ", "3617": "com\u2019 ", "3618": "quam ", "3619": "v\u2019 \u00e8 ", "3620": "lo i ", "3621": "gian ", "3622": "bree ", "3623": "le e ", "3624": "ghie ", "3625": "nien ", "3626": "ri o ", "3627": "li a ", "3628": "fo \u00e8 ", "3629": "gien ", "3630": "ti e ", "3631": "o \u2019n ", "3632": "gnar ", "3633": "sc\u00eco ", "3634": "pa a ", "3635": "ghin ", "3636": "te \u00e8 ", "3637": "gaio ", "3638": "tree ", "3639": "li i ", "3640": "di i ", "3641": "trea ", "3642": "ba e ", "3643": "tuoi ", "3644": "gnon ", "3645": "nean ", "3646": "l\u2019 \u00e8 ", "3647": "si i ", "3648": "vi \u00e8 ", "3649": "stui ", "3650": "vi a ", "3651": "tien ", "3652": "le i ", "3653": "ni o ", "3654": "lo a ", "3655": "laia ", "3656": "se o ", "3657": "bran ", "3658": "bent ", "3659": "be e ", "3660": "gior ", "3661": "la a ", "3662": "ra a ", "3663": "mo \u00e8 ", "3664": "nian ", "3665": "so i ", "3666": "ne e ", "3667": "ge \u00e8 ", "3668": "ro a ", "3669": "ciol ", "3670": "ci o ", "3671": "se e ", "3672": "bi e ", "3673": "no a ", "3674": "maia ", "3675": "\u00e8 il ", "3676": "glia ", "3677": "buon ", "3678": "no o ", "3679": "to \u00e8 ", "3680": "re a ", "3681": "grue ", "3682": "spia ", "3683": "cral ", "3684": "mi e ", "3685": "de \u00e8 ", "3686": "pron ", "3687": "la i ", "3688": "o al ", "3689": "be a ", "3690": "ri a ", "3691": "stei ", "3692": "li e ", "3693": "prai ", "3694": "saia ", "3695": "scel ", "3696": "za a ", "3697": "glio ", "3698": "pa e ", "3699": "gioi ", "3700": "fuor ", "3701": "sion ", "3702": "ma i ", "3703": "star ", "3704": "go \u00e8 ", "3705": "le a ", "3706": "vi e ", "3707": "e in ", "3708": "ci\u00f2l ", "3709": "blio ", "3710": "chel ", "3711": "rian ", "3712": "chio ", "3713": "zion ", "3714": "d\u2019 i ", "3715": "d\u2019 \u00e8 ", "3716": "ro e ", "3717": "do o ", "3718": "t\u2019 i ", "3719": "prec ", "3720": "o il ", "3721": "ze o ", "3722": "prun ", "3723": "luia ", "3724": "lien ", "3725": "va a ", "3726": "pe e ", "3727": "gi a ", "3728": "vi o ", "3729": "miei ", "3730": "trio ", "3731": "dra\u2019 ", "3732": "ti a ", "3733": "ra \u00e8 ", "3734": "blia ", "3735": "ta i ", "3736": "r\u2019 a ", "3737": "pien ", "3738": "muor ", "3739": "gnia ", "3740": "co \u00e8 ", "3741": "to a ", "3742": "d\u00ec i ", "3743": "i in ", "3744": "giam ", "3745": "prir ", "3746": "giar ", "3747": "vo e ", "3748": "steo ", "3749": "ta o ", "3750": "pia\u2019 ", "3751": "gnes ", "3752": "i il ", "3753": "quie ", "3754": "trae ", "3755": "re e ", "3756": "su i ", "3757": "se a ", "3758": "do \u00e8 ", "3759": "gier ", "3760": "ra e ", "3761": "stri ", "3762": "ne a ", "3763": "giun ", "3764": "vean ", "3765": "si a ", "3766": "di o ", "3767": "do a ", "3768": "rent ", "3769": "crea ", "3770": "stin ", "3771": "gean ", "3772": "ph\u00e8l ", "3773": "va e ", "3774": "ma o ", "3775": "quar ", "3776": "ne i ", "3777": "vuol ", "3778": "sper ", "3779": "to e ", "3780": "svia ", "3781": "co o ", "3782": "da a ", "3783": "duol ", "3784": "va i ", "3785": "cheo ", "3786": "die\u2019 ", "3787": "ve i ", "3788": "te e ", "3789": "pluo ", "3790": "si o ", "3791": "ra i ", "3792": "za o ", "3793": "sie\u2019 ", "3794": "cria ", "3795": "tiam ", "3796": "so a ", "3797": "brei ", "3798": "drai ", "3799": "le \u00e8 ", "3800": "bo e ", "3801": "l\u00ec \u00e8 ", "3802": "zian ", "3803": "ciel ", "3804": "la o ", "3805": "giai ", "3806": "po e ", "3807": "gion ", "3808": "stia ", "3809": "s\u2019 \u00e8 ", "3810": "d\u00e8ch ", "3811": "sunt ", "3812": "do e ", "3813": "ni e ", "3814": "ci a ", "3815": "stea ", "3816": "vo a ", "3817": "di a ", "3818": "mian ", "3819": "li \u00e8 ", "3820": "quia ", "3821": "stil ", "3822": "a in ", "3823": "dean ", "3824": "go e ", "3825": "chi\u00f2 ", "3826": "stie ", "3827": "scie ", "3828": "dria ", "3829": "c\u2019 \u00e8 ", "3830": "spir ", "3831": "tu \u2019 ", "3832": "ca \u00e8 ", "3833": "riai ", "3834": "tuon ", "3835": "da i ", "3836": "guis ", "3837": "ca e ", "3838": "suoi ", "3839": "na e ", "3840": "gi e ", "3841": "maio ", "3842": "ziar ", "3843": "cl\u00e8s ", "3844": "gran ", "3845": "na a ", "3846": "cuor ", "3847": "tr\u00e0s ", "3848": "ve a ", "3849": "so e ", "3850": "la e ", "3851": "stan ", "3852": "pa \u00e8 ", "3853": "me a ", "3854": "a al ", "3855": "sier ", "3856": "po \u00e8 ", "3857": "mo i ", "3858": "plor ", "3859": "sa i ", "3860": "laio ", "3861": "sci\u00f2 ", "3862": "e or ", "3863": "brio ", "3864": "crin ", "3865": "puoi ", "3866": "ce a ", "3867": "guan ", "3868": "ta \u00e8 ", "3869": "grin ", "3870": "ci e ", "3871": "quod ", "3872": "frui ", "3873": "li o ", "3874": "stai ", "3875": "sa a ", "3876": "o in ", "3877": "guon ", "3878": "go o ", "3879": "ti \u00e8 ", "3880": "qual ", "3881": "quai ", "3882": "gnel ", "3883": "naut ", "3884": "ni a ", "3885": "vien ", "3886": "co e ", "3887": "ga e ", "3888": "vaio ", "3889": "ma a ", "3890": "tram ", "3891": "tra\u2019 ", "3892": "na o ", "3893": "co a ", "3894": "gli\u00f2 ", "3895": "ne o ", "3896": "prio ", "3897": "ciam ", "3898": "spro ", "3899": "toio ", "3900": "ta a ", "3901": "trui ", "3902": "mi a ", "3903": "str\u00f2 ", "3904": "ghia ", "3905": "za \u00e8 ", "3906": "no \u00e8 ", "3907": "c\u00f2th ", "3908": "scio ", "3909": "vian ", "3910": "naio ", "3911": "zo e ", "3912": "ciul ", "3913": "sa o ", "3914": "stor ", "3915": "di e ", "3916": "fior ", "3917": "po a ", "3918": "ti o ", "3919": "mie\u2019 ", "3920": "bion ", "3921": "bria ", "3922": "lo \u00e8 ", "3923": "drel ", "3924": "ce \u00e8 ", "3925": "tria ", "3926": "ca a ", "3927": "vier ", "3928": "me \u00e8 ", "3929": "na \u00e8 ", "3930": "io e ", "3931": "mi i ", "3932": "gnin ", "3933": "stra ", "3934": "ciar ", "3935": "se \u00e8 ", "3936": "fi e ", "3937": "le o ", "3938": "a \u2019l ", "3939": "po i ", "3940": "\u00e8 \u2019l ", "3941": "prei ", "3942": "re i ", "3943": "ra o ", "3944": "breo ", "3945": "me i ", "3946": "pier ", "3947": "fiar ", "3948": "bo a ", "3949": "sti\u00f2 ", "3950": "quor ", "3951": "trar ", "3952": "o un ", "3953": "ri e ", "3954": "buoi ", "3955": "mo e ", "3956": "fren ", "3957": "za e ", "3958": "drir ", "3959": "go a ", "3960": "sa e ", "3961": "muoi ", "3962": "to o ", "3963": "ga o ", "3964": "ve o ", "3965": "la \u00e8 ", "3966": "f\u00e9 i ", "3967": "quei ", "3968": "de i ", "3969": "l\u00e0 i ", "3970": "viam ", "3971": "chie ", "3972": "chin ", "3973": "suol ", "3974": "pi e ", "3975": "slao ", "3976": "ca o ", "3977": "gner ", "3978": "m\u2019 \u00e8 ", "3979": "bi a ", "3980": "t\u2019 \u00e8 ", "3981": "ze e ", "3982": "bian ", "3983": "tean ", "3984": "dail ", "3985": "ver\u2019 ", "3986": "dien ", "3987": "ve e ", "3988": "plar ", "3989": "fian ", "3990": "ne \u00e8 ", "3991": "lian ", "3992": "cion ", "3993": "tu i ", "3994": "pi\u00e9r ", "3995": "st\u00f2r ", "3996": "da o ", "3997": "scir ", "3998": "spri ", "3999": "caio ", "4000": "s\u2019 a ", "4001": "no i ", "4002": "vria ", "4003": "ghio ", "4004": "va o ", "4005": "pi\u00f9e ", "4006": "dron ", "4007": "sci\u2019 ", "4008": "ce e ", "4009": "ge e ", "4010": "quel ", "4011": "pian ", "4012": "ghi\u00f2 ", "4013": "ma \u00e8 ", "4014": "zi e ", "4015": "piar ", "4016": "ro \u00e8 ", "4017": "trai ", "4018": "stro ", "4019": "gnor ", "4020": "guir ", "4021": "ciai ", "4022": "re \u00e8 ", "4023": "guai ", "4024": "te i ", "4025": "so o ", "4026": "ga a ", "4027": "stel ", "4028": "pria ", "4029": "gual ", "4030": "dier ", "4031": "scun ", "4032": "siam ", "4033": "cian ", "4034": "ci \u00e8 ", "4035": "sian ", "4036": "guia ", "4037": "ma e ", "4038": "de o ", "4039": "lier ", "4040": "gi\u00f9e ", "4041": "vuoi ", "4042": "scar ", "4043": "\u2018qui ", "4044": "vuo\u2019 ", "4045": "gnus ", "4046": "scia ", "4047": "bia\u2019 ", "4048": "chia ", "4049": "fe e ", "4050": "tuo\u2019 ", "4051": "gnun ", "4052": "da e ", "4053": "mo a ", "4054": "zo a ", "4055": "fier ", "4056": "gnan ", "4057": "fien ", "4058": "ni \u00e8 ", "4059": "tris ", "4060": "n\u2019 \u00e8 ", "4061": "re o ", "4062": "\u00e8 in ", "4063": "drea ", "4064": "rien ", "4065": "scon ", "4066": "gi\u00e0 i ", "4067": "c\u2019 ha ", "4068": "zi ad ", "4069": "l\u2019 ha ", "4070": "la \u2019l ", "4071": "ce ha ", "4072": "ce un ", "4073": "gia \u00e8 ", "4074": "no ed ", "4075": "be i\u2019 ", "4076": "ro ed ", "4077": "qua e ", "4078": "s\u2019 io ", "4079": "me \u2019n ", "4080": "do \u2019l ", "4081": "su in ", "4082": "sce a ", "4083": "la al ", "4084": "b\u2019 io ", "4085": "p\u2019 io ", "4086": "g\u2019 io ", "4087": "scion ", "4088": "na il ", "4089": "co in ", "4090": "do in ", "4091": "do un ", "4092": "me a\u2019 ", "4093": "ci al ", "4094": "gno \u00e8 ", "4095": "ro un ", "4096": "dia e ", "4097": "gno i ", "4098": "ge ad ", "4099": "mi un ", "4100": "me ad ", "4101": "de il ", "4102": "gli e ", "4103": "sti \u00e8 ", "4104": "ria a ", "4105": "gue \u00e8 ", "4106": "se i\u2019 ", "4107": "ra il ", "4108": "gri e ", "4109": "na un ", "4110": "t\u2019 ho ", "4111": "fu il ", "4112": "da i\u2019 ", "4113": "n\u00f2 \u2019l ", "4114": "le ha ", "4115": "ri a\u2019 ", "4116": "fu \u2019l ", "4117": "co ad ", "4118": "dri e ", "4119": "dro e ", "4120": "me un ", "4121": "lio \u00e8 ", "4122": "to \u2019n ", "4123": "v\u00f2 \u2019l ", "4124": "be un ", "4125": "do or ", "4126": "zo in ", "4127": "ro in ", "4128": "no il ", "4129": "me \u2019l ", "4130": "le un ", "4131": "st\u2019 \u00e8 ", "4132": "gluol ", "4133": "gi \u2019l ", "4134": "te ai ", "4135": "ti in ", "4136": "zio e ", "4137": "po il ", "4138": "to un ", "4139": "ro od ", "4140": "ci in ", "4141": "co io ", "4142": "ta ha ", "4143": "no un ", "4144": "li ad ", "4145": "co un ", "4146": "va or ", "4147": "ci \u2019l ", "4148": "me io ", "4149": "ro al ", "4150": "tr\u2019 a ", "4151": "che a ", "4152": "co al ", "4153": "tri o ", "4154": "gnaio ", "4155": "ti il ", "4156": "ve a\u2019 ", "4157": "mo al ", "4158": "zo al ", "4159": "pe \u2019l ", "4160": "te il ", "4161": "chiai ", "4162": "chi a ", "4163": "de ed ", "4164": "gni a ", "4165": "va ad ", "4166": "si al ", "4167": "ra ha ", "4168": "ia ed ", "4169": "de al ", "4170": "ra io ", "4171": "gio e ", "4172": "mi ad ", "4173": "va io ", "4174": "va in ", "4175": "ne al ", "4176": "la il ", "4177": "me al ", "4178": "sto \u00e8 ", "4179": "ghi e ", "4180": "mo ad ", "4181": "voill ", "4182": "be in ", "4183": "ti un ", "4184": "so un ", "4185": "ce al ", "4186": "lo a\u2019 ", "4187": "smo a ", "4188": "ni in ", "4189": "gi il ", "4190": "ga in ", "4191": "zo il ", "4192": "le ad ", "4193": "vo in ", "4194": "va \u2019l ", "4195": "so \u2019l ", "4196": "ti io ", "4197": "te io ", "4198": "zi un ", "4199": "se ho ", "4200": "li ha ", "4201": "di io ", "4202": "g\u00f2 \u2019l ", "4203": "d\u2019 ei ", "4204": "s\u2019 ha ", "4205": "zia o ", "4206": "mi in ", "4207": "d\u2019 un ", "4208": "no a\u2019 ", "4209": "r\u2019 al ", "4210": "lo ai ", "4211": "se ai ", "4212": "sti o ", "4213": "to il ", "4214": "praia ", "4215": "qua o ", "4216": "co u\u2019 ", "4217": "c\u2019 io ", "4218": "r\u00ec \u2019l ", "4219": "ra un ", "4220": "v\u2019 i\u2019 ", "4221": "la ed ", "4222": "di in ", "4223": "zia a ", "4224": "mi al ", "4225": "pie a ", "4226": "gio o ", "4227": "bra e ", "4228": "ni il ", "4229": "li al ", "4230": "glion ", "4231": "mi a\u2019 ", "4232": "t\u00e0 \u2019l ", "4233": "tro i ", "4234": "no ei ", "4235": "dio a ", "4236": "to in ", "4237": "se il ", "4238": "bi il ", "4239": "schio ", "4240": "di al ", "4241": "t\u2019 i\u2019 ", "4242": "stian ", "4243": "dro o ", "4244": "po in ", "4245": "le ir ", "4246": "te al ", "4247": "ne or ", "4248": "se e\u2019 ", "4249": "re ir ", "4250": "que e ", "4251": "ni or ", "4252": "lo or ", "4253": "gna o ", "4254": "so \u00e8e ", "4255": "v\u2019 ei ", "4256": "lo in ", "4257": "ce in ", "4258": "chi \u00e8 ", "4259": "cio a ", "4260": "za i\u2019 ", "4261": "le in ", "4262": "ro i\u2019 ", "4263": "za ha ", "4264": "ta ed ", "4265": "le il ", "4266": "cia e ", "4267": "t\u00f2 \u2019l ", "4268": "sco i ", "4269": "ro or ", "4270": "pre e ", "4271": "ro a\u2019 ", "4272": "tr\u2019 \u00e8 ", "4273": "zi ai ", "4274": "sta \u00e8 ", "4275": "d\u2019 ir ", "4276": "ge un ", "4277": "di \u2019l ", "4278": "co or ", "4279": "zi il ", "4280": "li ei ", "4281": "ria i ", "4282": "no al ", "4283": "re \u2019n ", "4284": "la a\u2019 ", "4285": "gui i ", "4286": "ma \u2019l ", "4287": "z\u00f2 il ", "4288": "mi ed ", "4289": "re a\u2019 ", "4290": "di \u2019n ", "4291": "ti ed ", "4292": "sca i ", "4293": "ne in ", "4294": "che \u2019 ", "4295": "ni ed ", "4296": "si \u2019l ", "4297": "me in ", "4298": "co a\u2019 ", "4299": "me il ", "4300": "li i\u2019 ", "4301": "qua \u00e8 ", "4302": "po al ", "4303": "de un ", "4304": "li or ", "4305": "ch\u00e9 i ", "4306": "che e ", "4307": "sta a ", "4308": "sco e ", "4309": "mo in ", "4310": "pio a ", "4311": "gua a ", "4312": "ge al ", "4313": "gia a ", "4314": "mo ed ", "4315": "va a\u2019 ", "4316": "zia e ", "4317": "te u\u2019 ", "4318": "li in ", "4319": "v\u2019 ho ", "4320": "tri e ", "4321": "si el ", "4322": "za in ", "4323": "bo a\u2019 ", "4324": "dre e ", "4325": "me ed ", "4326": "sto a ", "4327": "t\u00e9 \u2019l ", "4328": "l\u2019 om ", "4329": "do il ", "4330": "s\u00e9 in ", "4331": "ria \u2019 ", "4332": "ve \u2019l ", "4333": "go \u2019l ", "4334": "stiam ", "4335": "ne ai ", "4336": "ce il ", "4337": "staio ", "4338": "za al ", "4339": "c\u2019 ho ", "4340": "so ad ", "4341": "chian ", "4342": "strar ", "4343": "bio e ", "4344": "s\u2019 ei ", "4345": "do al ", "4346": "na or ", "4347": "ve il ", "4348": "ve ad ", "4349": "so al ", "4350": "ma a\u2019 ", "4351": "fa \u2019l ", "4352": "ne ed ", "4353": "ca in ", "4354": "vi \u2019l ", "4355": "dro a ", "4356": "do io ", "4357": "za un ", "4358": "mo un ", "4359": "se ir ", "4360": "ga il ", "4361": "ni \u2019l ", "4362": "v\u2019 or ", "4363": "be or ", "4364": "gna i ", "4365": "mo ei ", "4366": "d\u2019 e\u2019 ", "4367": "chion ", "4368": "r\u00f2 il ", "4369": "si u\u2019 ", "4370": "d\u2019 i\u2019 ", "4371": "gi un ", "4372": "stran ", "4373": "dre a ", "4374": "da io ", "4375": "sa il ", "4376": "re un ", "4377": "sto e ", "4378": "ta ho ", "4379": "lo ed ", "4380": "glien ", "4381": "ra \u2019n ", "4382": "lo al ", "4383": "n\u2019 ha ", "4384": "zio a ", "4385": "ma un ", "4386": "d\u2019 io ", "4387": "re or ", "4388": "bre a ", "4389": "za \u2019l ", "4390": "pra e ", "4391": "la io ", "4392": "va ai ", "4393": "zi \u2019l ", "4394": "se or ", "4395": "lo ad ", "4396": "ci il ", "4397": "sce i ", "4398": "to i\u2019 ", "4399": "ne ad ", "4400": "go il ", "4401": "scian ", "4402": "pio e ", "4403": "tre e ", "4404": "so in ", "4405": "ghiai ", "4406": "no u\u2019 ", "4407": "bra o ", "4408": "bi un ", "4409": "ba il ", "4410": "bo in ", "4411": "ra ed ", "4412": "ti al ", "4413": "ti ai ", "4414": "pre i ", "4415": "li un ", "4416": "po ha ", "4417": "co il ", "4418": "do ad ", "4419": "gliea ", "4420": "di or ", "4421": "puesc ", "4422": "se un ", "4423": "ta un ", "4424": "ta il ", "4425": "gio a ", "4426": "pa ho ", "4427": "sa un ", "4428": "fo or ", "4429": "na \u2019n ", "4430": "ria o ", "4431": "sa \u2019l ", "4432": "pri e ", "4433": "gua e ", "4434": "te a\u2019 ", "4435": "ti ad ", "4436": "ste e ", "4437": "li il ", "4438": "t\u2019 io ", "4439": "tri \u00e8 ", "4440": "pri a ", "4441": "bro \u00e8 ", "4442": "se \u2019l ", "4443": "di ha ", "4444": "to or ", "4445": "ca il ", "4446": "no \u2019l ", "4447": "pa in ", "4448": "vra i ", "4449": "no io ", "4450": "za or ", "4451": "t\u2019 om ", "4452": "sti e ", "4453": "sti a ", "4454": "r\u00f2 \u2019l ", "4455": "m\u2019 io ", "4456": "re io ", "4457": "no in ", "4458": "va \u2019n ", "4459": "sci a ", "4460": "to ai ", "4461": "co \u2019l ", "4462": "be il ", "4463": "si ad ", "4464": "mi il ", "4465": "strai ", "4466": "da il ", "4467": "n\u2019 ei ", "4468": "zio \u00e8 ", "4469": "be al ", "4470": "to \u2019l ", "4471": "v\u2019 el ", "4472": "de ad ", "4473": "stier ", "4474": "ta ad ", "4475": "va al ", "4476": "sio e ", "4477": "le ab ", "4478": "ce a\u2019 ", "4479": "ia oh ", "4480": "go al ", "4481": "ci ha ", "4482": "di ad ", "4483": "sta e ", "4484": "re ho ", "4485": "ia in ", "4486": "n\u00e9 \u2019l ", "4487": "tro a ", "4488": "chi e ", "4489": "ci or ", "4490": "le io ", "4491": "fu al ", "4492": "va ed ", "4493": "n\u2019 io ", "4494": "se in ", "4495": "da or ", "4496": "m\u2019 ha ", "4497": "sme e ", "4498": "mo \u2019l ", "4499": "zi or ", "4500": "gliai ", "4501": "se \u2019n ", "4502": "ha in ", "4503": "po ed ", "4504": "l\u00e0 \u2019l ", "4505": "bia e ", "4506": "do a\u2019 ", "4507": "va un ", "4508": "s\u00e9 il ", "4509": "te un ", "4510": "ra al ", "4511": "no i\u2019 ", "4512": "pe il ", "4513": "da \u2019l ", "4514": "ta al ", "4515": "co i\u2019 ", "4516": "pr\u2019 a ", "4517": "chier ", "4518": "gni e ", "4519": "za oh ", "4520": "pa or ", "4521": "te in ", "4522": "sta o ", "4523": "lo il ", "4524": "se al ", "4525": "gna e ", "4526": "re il ", "4527": "gia o ", "4528": "ge il ", "4529": "d\u2019 el ", "4530": "li \u2019l ", "4531": "ta \u2019l ", "4532": "te ha ", "4533": "do ed ", "4534": "tra a ", "4535": "ma il ", "4536": "chiar ", "4537": "ghe a ", "4538": "cia i ", "4539": "na ha ", "4540": "to io ", "4541": "si il ", "4542": "stion ", "4543": "li io ", "4544": "ch\u2019 \u00e8 ", "4545": "svuol ", "4546": "te ho ", "4547": "ste a ", "4548": "stial ", "4549": "s\u2019 i\u2019 ", "4550": "na in ", "4551": "se ad ", "4552": "gna \u00e8 ", "4553": "v\u2019 e\u2019 ", "4554": "ge or ", "4555": "me ai ", "4556": "be ed ", "4557": "co ai ", "4558": "ma in ", "4559": "lio a ", "4560": "tra \u00e8 ", "4561": "l\u2019 ho ", "4562": "re ha ", "4563": "sce e ", "4564": "gno e ", "4565": "ci a\u2019 ", "4566": "gliel ", "4567": "do ha ", "4568": "de \u2019l ", "4569": "gliar ", "4570": "to ad ", "4571": "mi \u2019l ", "4572": "di il ", "4573": "z\u00f2 \u2019l ", "4574": "so il ", "4575": "f\u00e9 \u2019l ", "4576": "re in ", "4577": "si \u2019n ", "4578": "te \u2019l ", "4579": "zo \u2019l ", "4580": "da in ", "4581": "lo ha ", "4582": "de in ", "4583": "bi \u2019l ", "4584": "te ad ", "4585": "ci io ", "4586": "gue a ", "4587": "ti \u2019l ", "4588": "l\u2019 un ", "4589": "sciai ", "4590": "va il ", "4591": "tra i ", "4592": "pi un ", "4593": "po io ", "4594": "d\u00f2 \u2019l ", "4595": "so a\u2019 ", "4596": "gia e ", "4597": "v\u2019 ha ", "4598": "ri al ", "4599": "di \u00e8e ", "4600": "ne io ", "4601": "que \u00e8 ", "4602": "ia il ", "4603": "la un ", "4604": "sciar ", "4605": "lia e ", "4606": "gra o ", "4607": "gna a ", "4608": "to ir ", "4609": "che i ", "4610": "tro \u00e8 ", "4611": "ge ai ", "4612": "t\u2019 ha ", "4613": "qua a ", "4614": "s\u2019 un ", "4615": "cia a ", "4616": "glior ", "4617": "gli a ", "4618": "ti ei ", "4619": "ra a\u2019 ", "4620": "re ad ", "4621": "tra \u2019 ", "4622": "ne \u2019l ", "4623": "ste i ", "4624": "mo ha ", "4625": "da al ", "4626": "ti ha ", "4627": "na ed ", "4628": "ch\u00e9 a ", "4629": "ri in ", "4630": "tra e ", "4631": "lo un ", "4632": "bi in ", "4633": "cia o ", "4634": "vrien ", "4635": "le al ", "4636": "ra \u2019l ", "4637": "za il ", "4638": "ta io ", "4639": "te ed ", "4640": "vi in ", "4641": "si un ", "4642": "si in ", "4643": "n\u00f2 in ", "4644": "ra or ", "4645": "que a ", "4646": "cio e ", "4647": "ma io ", "4648": "qui e ", "4649": "li oh ", "4650": "t\u2019 el ", "4651": "re al ", "4652": "le i\u2019 ", "4653": "zia \u00e8 ", "4654": "rio a ", "4655": "sa ad ", "4656": "to al ", "4657": "sia e ", "4658": "re i\u2019 ", "4659": "to ed ", "4660": "ne il ", "4661": "v\u2019 io ", "4662": "v\u2019 \u00e8n ", "4663": "pa ed ", "4664": "te \u2019n ", "4665": "to ha ", "4666": "re ed ", "4667": "gi al ", "4668": "bra a ", "4669": "l\u00e0 il ", "4670": "s\u2019 e\u2019 ", "4671": "scuoi ", "4672": "na ei ", "4673": "t\u00ec \u2019l ", "4674": "ca al ", "4675": "ne un ", "4676": "t\u2019 il ", "4677": "ge in ", "4678": "tro e ", "4679": "ghe e ", "4680": "tu \u2019l ", "4681": "b\u00f2 il ", "4682": "ca io ", "4683": "pre a ", "4684": "da un ", "4685": "ve in ", "4686": "ta in ", "4687": "rio e ", "4688": "ni al ", "4689": "ri \u2019l ", "4690": "glian ", "4691": "le \u2019l ", "4692": "gue e ", "4693": "ra in ", "4694": "no ad ", "4695": "to a\u2019 ", "4696": "ce ed ", "4697": "po \u2019l ", "4698": "ve al ", "4699": "ra ad ", "4700": "na al ", "4701": "s\u2019 el ", "4702": "vi un ", "4703": "tri a ", "4704": "ba in ", "4705": "\u2019v\u2019 \u00e8 ", "4706": "za ed ", "4707": "pi in ", "4708": "ne ha ", "4709": "di un ", "4710": "ve un ", "4711": "te or ", "4712": "no ha ", "4713": "mia e ", "4714": "vi il ", "4715": "ha \u2019l ", "4716": "ro il ", "4717": "pe ad ", "4718": "glier ", "4719": "na ad ", "4720": "ghiar ", "4721": "ro ad ", "4722": "sa in ", "4723": "ch\u2019 a ", "4724": "ti \u2019n ", "4725": "s\u00ec \u2019l ", "4726": "bre e ", "4727": "di a\u2019 ", "4728": "le or ", "4729": "si or ", "4730": "ce u\u2019 ", "4731": "ti a\u2019 ", "4732": "zi al ", "4733": "no ai ", "4734": "se io ", "4735": "r\u2019 io ", "4736": "ne a\u2019 ", "4737": "di ed ", "4738": "bro e ", "4739": "la in ", "4740": "ria \u00e8 ", "4741": "gui e ", "4742": "pa \u2019l ", "4743": "temps ", "4744": "stral ", "4745": "t\u00f2 un ", "4746": "se a\u2019 ", "4747": "g\u00ec \u2019l ", "4748": "te i\u2019 ", "4749": "mo il ", "4750": "su \u2019l ", "4751": "ma \u2019n ", "4752": "be \u2019l ", "4753": "dio e ", "4754": "dia i ", "4755": "lio e ", "4756": "ria e ", "4757": "ta or ", "4758": "gno a ", "4759": "gl\u2019 io ", "4760": "rio ha ", "4761": "ba e \u2019 ", "4762": "ch\u2019 i\u2019 ", "4763": "gia \u2019l ", "4764": "schi a ", "4765": "gna il ", "4766": "pa e \u2019 ", "4767": "gno ha ", "4768": "scio a ", "4769": "che al ", "4770": "pre ha ", "4771": "dri ai ", "4772": "se uom ", "4773": "po e \u2019 ", "4774": "gi\u00e0 \u2019l ", "4775": "pre a\u2019 ", "4776": "ci\u00f2 il ", "4777": "to hai ", "4778": "zio al ", "4779": "lio ed ", "4780": "ri e \u2019 ", "4781": "sce in ", "4782": "bre a\u2019 ", "4783": "gue il ", "4784": "che \u2019l ", "4785": "ria al ", "4786": "chi \u2019n ", "4787": "chi ha ", "4788": "ro e \u2019 ", "4789": "ch\u2019 \u00e8i ", "4790": "sti il ", "4791": "sti \u2019l ", "4792": "dre al ", "4793": "tra \u2019l ", "4794": "stia e ", "4795": "sa e \u2019 ", "4796": "sti ha ", "4797": "tre un ", "4798": "stra e ", "4799": "glio e ", "4800": "che il ", "4801": "cio ed ", "4802": "cia il ", "4803": "se\u2019 in ", "4804": "pia in ", "4805": "c\u2019 han ", "4806": "glio a ", "4807": "ghi al ", "4808": "spra e ", "4809": "smo al ", "4810": "ch\u2019 al ", "4811": "glia o ", "4812": "gno a\u2019 ", "4813": "sco il ", "4814": "gna \u2019l ", "4815": "m\u2019 han ", "4816": "ch\u2019 e\u2019 ", "4817": "gliaio ", "4818": "chi a\u2019 ", "4819": "so hai ", "4820": "rio in ", "4821": "cia ad ", "4822": "pi\u00f9 \u2019l ", "4823": "tre in ", "4824": "cia al ", "4825": "dria e ", "4826": "smo in ", "4827": "tre al ", "4828": "me e \u2019 ", "4829": "qua al ", "4830": "tro in ", "4831": "ti han ", "4832": "que a\u2019 ", "4833": "ste in ", "4834": "tri ad ", "4835": "l\u2019 uom ", "4836": "bio ed ", "4837": "que or ", "4838": "sce il ", "4839": "ch\u2019 ad ", "4840": "cea il ", "4841": "sto in ", "4842": "ne han ", "4843": "m\u2019 hai ", "4844": "sti in ", "4845": "ch\u2019 in ", "4846": "stra \u00e8 ", "4847": "gna un ", "4848": "pra in ", "4849": "che un ", "4850": "tri il ", "4851": "cia ir ", "4852": "gio ha ", "4853": "gia or ", "4854": "sc\u2019 io ", "4855": "sc\u00ec \u2019l ", "4856": "so\u2019 \u2019n ", "4857": "s\u2019 hai ", "4858": "scia a ", "4859": "che a\u2019 ", "4860": "gno il ", "4861": "tr\u2019 al ", "4862": "ci\u00f2 \u2019l ", "4863": "ch\u00e9 \u2019l ", "4864": "chio e ", "4865": "ni e \u2019 ", "4866": "na\u2019 il ", "4867": "cia un ", "4868": "do hai ", "4869": "ch\u2019 ei ", "4870": "ne e \u2019 ", "4871": "c\u2019 hai ", "4872": "ne e i ", "4873": "chi in ", "4874": "ch\u2019 el ", "4875": "pre \u2019l ", "4876": "chi ei ", "4877": "schi o ", "4878": "tri or ", "4879": "glia a ", "4880": "ch\u2019 ai ", "4881": "gno ad ", "4882": "gno or ", "4883": "ra hai ", "4884": "dia \u2019l ", "4885": "gli al ", "4886": "tri \u2019l ", "4887": "zia in ", "4888": "gio ad ", "4889": "ria il ", "4890": "pre in ", "4891": "stro e ", "4892": "tro \u2019l ", "4893": "qua in ", "4894": "gli un ", "4895": "tra i\u2019 ", "4896": "che in ", "4897": "ste il ", "4898": "sia \u2019l ", "4899": "sto al ", "4900": "te han ", "4901": "l\u2019 hai ", "4902": "tra al ", "4903": "scia o ", "4904": "sto io ", "4905": "gna in ", "4906": "tro un ", "4907": "bia \u2019l ", "4908": "chio a ", "4909": "gli\u00f2 i ", "4910": "sto il ", "4911": "qua il ", "4912": "chi al ", "4913": "qui un ", "4914": "chia e ", "4915": "vea \u2019l ", "4916": "tra il ", "4917": "gno ed ", "4918": "mia al ", "4919": "bia in ", "4920": "tra in ", "4921": "\u2019ve \u2019l ", "4922": "chi \u2019l ", "4923": "gno al ", "4924": "pu\u00f2 \u2019l ", "4925": "di e \u2019 ", "4926": "strans ", "4927": "schiar ", "4928": "ch\u2019 om ", "4929": "tr\u2019 io ", "4930": "ti e i ", "4931": "stie e ", "4932": "que ad ", "4933": "tr\u2019 a\u2019 ", "4934": "pre al ", "4935": "stra a ", "4936": "vra \u2019l ", "4937": "tro i\u2019 ", "4938": "qua io ", "4939": "gi\u00e0 il ", "4940": "ghio e ", "4941": "dia in ", "4942": "tre il ", "4943": "d\u2019 uom ", "4944": "cia in ", "4945": "va e i ", "4946": "lia il ", "4947": "glia \u00e8 ", "4948": "ch\u2019 or ", "4949": "tro ai ", "4950": "dro in ", "4951": "bra od ", "4952": "gno in ", "4953": "ch\u00e9 il ", "4954": "c\u2019 ha\u2019 ", "4955": "que i\u2019 ", "4956": "zia il ", "4957": "ci e \u2019 ", "4958": "pria e ", "4959": "rio il ", "4960": "li ha\u2019 ", "4961": "ch\u2019 un ", "4962": "pra al ", "4963": "pra ed ", "4964": "due \u2019l ", "4965": "si e \u2019 ", "4966": "gu\u00ec \u2019l ", "4967": "tre i\u2019 ", "4968": "ro hai ", "4969": "bra ad ", "4970": "sche o ", "4971": "sto ad ", "4972": "stro o ", "4973": "ghiaio ", "4974": "qui \u2019l ", "4975": "gio in ", "4976": "stri e ", "4977": "pi\u00e9 \u2019l ", "4978": "gua in ", "4979": "che \u2019n ", "4980": "tro ha ", "4981": "glie e ", "4982": "stro i ", "4983": "ch\u2019 io ", "4984": "stro \u00e8 ", "4985": "nio al ", "4986": "gliuoi ", "4987": "sta \u2019n ", "4988": "zie al ", "4989": "gue in ", "4990": "gro un ", "4991": "tro ed ", "4992": "che io ", "4993": "st\u2019 ho ", "4994": "chio \u00e8 ", "4995": "gio il ", "4996": "fia il ", "4997": "scia e ", "4998": "gna a\u2019 ", "4999": "gliuol ", "5000": "sto ha ", "5001": "di\u2019 \u2019l ", "5002": "ghi \u2019l ", "5003": "t\u2019 hai ", "5004": "gia un ", "5005": "tro io ", "5006": "glia e ", "5007": "ni e i ", "5008": "chi il ", "5009": "que in ", "5010": "stro a ", "5011": "pra \u2019l ", "5012": "que al ", "5013": "bra in ", "5014": "ghi in ", "5015": "rio ho ", "5016": "gni in ", "5017": "gne \u2019l ", "5018": "glio o ", "5019": "pria o ", "5020": "que il ", "5021": "sta un ", "5022": "dio in ", "5023": "tro ad ", "5024": "ch\u2019 a\u2019 ", "5025": "tro a\u2019 ", "5026": "gne al ", "5027": "tro al ", "5028": "ra han ", "5029": "stio e ", "5030": "sta in ", "5031": "nia il ", "5032": "qu\u2019 io ", "5033": "li han ", "5034": "n\u2019 uom ", "5035": "tro il ", "5036": "gio al ", "5037": "sta al ", "5038": "ti e \u2019 ", "5039": "que io ", "5040": "ch\u00e9 \u2019n ", "5041": "t\u2019 ha\u2019 ", "5042": "trio e ", "5043": "gi\u00f9 \u2019l ", "5044": "gia il ", "5045": "fra \u2019l ", "5046": "sta il ", "5047": "ghia a ", "5048": "m\u2019 \u00e8 \u2019l ", "5049": "tra e \u2019 ", "5050": "chia al ", "5051": "glio ai ", "5052": "stra \u2019l ", "5053": "l\u2019 \u00e8 \u2019l ", "5054": "chio ha ", "5055": "stro or ", "5056": "glia un ", "5057": "mi e \u2019l ", "5058": "si e \u2019l ", "5059": "vo e \u2019l ", "5060": "sci\u00f2 il ", "5061": "schio e ", "5062": "be e \u2019l ", "5063": "dia e i ", "5064": "me e \u2019l ", "5065": "glio or ", "5066": "ch\u2019 uom ", "5067": "le e il ", "5068": "chio al ", "5069": "re e \u2019l ", "5070": "go \u00e8 in ", "5071": "le e \u2019l ", "5072": "ma e \u2019l ", "5073": "se e \u2019l ", "5074": "zo e \u2019l ", "5075": "za e \u2019l ", "5076": "glie \u2019l ", "5077": "qu\u2019 ieu ", "5078": "glie in ", "5079": "ro e \u2019l ", "5080": "ce e \u2019l ", "5081": "me e \u2019n ", "5082": "glio in ", "5083": "lio e i ", "5084": "go e \u2019l ", "5085": "chio il ", "5086": "m\u2019 \u00e8 il ", "5087": "to e \u2019l ", "5088": "ca e \u2019l ", "5089": "do e \u2019n ", "5090": "va e \u2019n ", "5091": "ne e \u2019l ", "5092": "re e in ", "5093": "gne uom ", "5094": "to \u00e8 \u2019l ", "5095": "de e \u2019l ", "5096": "tr\u2019 ier ", "5097": "bo e \u2019l ", "5098": "stia ad ", "5099": "ga e \u2019l ", "5100": "glia il ", "5101": "ta e \u2019l ", "5102": "na e \u2019l ", "5103": "la e \u2019l ", "5104": "chio in ", "5105": "stri in ", "5106": "che e \u2019 ", "5107": "glia in ", "5108": "so e \u2019l ", "5109": "schia e ", "5110": "ta e \u2019n ", "5111": "ci e \u2019l ", "5112": "bre e \u2019 ", "5113": "scia il ", "5114": "dre e \u2019 ", "5115": "te e \u2019l ", "5116": "glia al ", "5117": "co e \u2019l ", "5118": "po e \u2019l ", "5119": "stra il ", "5120": "v\u2019 \u00e8 \u2019l ", "5121": "ti e \u2019l ", "5122": "stro ed ", "5123": "stro il ", "5124": "sa e \u2019l ", "5125": "v\u2019 \u00e8 in ", "5126": "mo e \u2019l ", "5127": "lo \u00e8 in ", "5128": "va e \u2019l ", "5129": "stro in ", "5130": "de e \u2019n ", "5131": "te e \u2019n ", "5132": "to o al ", "5133": "ra e \u2019l ", "5134": "no e \u2019l ", "5135": "sti \u00e8 \u2019l ", "5136": "d\u2019 io \u2019l ", "5137": "ria e \u2019l ", "5138": "schi uom ", "5139": "te ha in ", "5140": "c\u2019 ha \u2019l ", "5141": "tre e \u2019l ", "5142": "ch\u2019 \u00e8 in ", "5143": "stie hai ", "5144": "tra e \u2019l ", "5145": "dio e \u2019l ", "5146": "tro e \u2019l ", "5147": "sta e \u2019l ", "5148": "bia e \u2019l ", "5149": "to ha \u2019l ", "5150": "gio e \u2019l ", "5151": "st\u2019 \u00e8 \u2019l ", "5152": "pra e \u2019l ", "5153": "zie e \u2019l ", "5154": "bra e \u2019l ", "5155": "so ha \u2019l ", "5156": "tri e \u2019l ", "5157": "ria \u00e8 \u2019l ", "5158": "zio e \u2019l ", "5159": "v\u2019 ha \u2019l ", "5160": "s\u2019 i\u2019 \u2019l ", "5161": "cia e \u2019l ", "5162": "que e \u2019l ", "5163": "sta \u00e8 in ", "5164": "chi e \u2019l ", "5165": "dre e \u2019l ", "5166": "l\u2019 ha in ", "5167": "dio \u00e8 \u2019l ", "5168": "tr\u2019 \u00e8 \u2019l ", "5169": "gli e in ", "5170": "scia e \u2019l ", "5171": "ch\u2019 i\u2019 \u2019l ", "5172": "chie e \u2019n ", "5173": "glio e \u2019l ", "5174": "chio e \u2019l ", "5175": "chio o \u2019l ", "5176": "ch\u2019 io \u2019l ", "5177": "stro e \u2019l "}