{"0": "", "1": "<v>", "2": "</v>", "3": "<t>", "4": "</t>", "5": "\u00ef", "6": "i", "7": "u", "8": "o", "9": "a", "10": "\u00fc", "11": "\u00f2", "12": "e", "13": "\u00e8", "14": "\u00e9", "15": "el", "16": "ra", "17": "g\u00ef", "18": "ur", "19": "li", "20": "r\u00e8", "21": "ap", "22": "vi", "23": "t\u00ef", "24": "na", "25": "uc", "26": "pu", "27": "ec", "28": "as", "29": "\u00f2s", "30": "p\u00eb", "31": "mu", "32": "fi", "33": "of", "34": "g\u00e8", "35": "gi", "36": "ce", "37": "ha", "38": "av", "39": "r\u00f3", "40": "p\u00e8", "41": "ar", "42": "ob", "43": "m\u00ec", "44": "mi", "45": "pe", "46": "co", "47": "s\u00f2", "48": "s\u00e0", "49": "io", "50": "to", "51": "on", "52": "sa", "53": "ol", "54": "gu", "55": "un", "56": "ma", "57": "vo", "58": "fo", "59": "s\u00eb", "60": "im", "61": "go", "62": "da", "63": "ga", "64": "og", "65": "em", "66": "en", "67": "et", "68": "d\u00eb", "69": "n\u00e8", "70": "t\u00e8", "71": "v\u00ef", "72": "ae", "73": "p\u00ef", "74": "ne", "75": "so", "76": "se", "77": "g\u00fc", "78": "n\u00ef", "79": "vu", "80": "t\u00e4", "81": "su", "82": "m\u00ef", "83": "ef", "84": "si", "85": "be", "86": "ab", "87": "c\u00fc", "88": "re", "89": "v\u00eb", "90": "c\u00ef", "91": "lo", "92": "lu", "93": "ad", "94": "l\u00f6", "95": "ge", "96": "xi", "97": "eu", "98": "p\u00fc", "99": "p\u00ec", "100": "bo", "101": "ri", "102": "mo", "103": "os", "104": "l\u00ef", "105": "es", "106": "zi", "107": "ba", "108": "r\u00eb", "109": "au", "110": "pi", "111": "va", "112": "f\u00ef", "113": "v\u00e9", "114": "om", "115": "pa", "116": "ve", "117": "nu", "118": "t\u00f2", "119": "ca", "120": "ul", "121": "bu", "122": "z\u00ef", "123": "af", "124": "or", "125": "m\u00eb", "126": "is", "127": "r\u00e0", "128": "bi", "129": "do", "130": "v\u00e8", "131": "op", "132": "le", "133": "am", "134": "ci", "135": "v\u00f2", "136": "l\u00e8", "137": "ni", "138": "du", "139": "ot", "140": "oc", "141": "t\u00fc", "142": "ir", "143": "ro", "144": "t\u00ec", "145": "iu", "146": "m\u00e4", "147": "d\u00ef", "148": "m\u00e8", "149": "er", "150": "za", "151": "ac", "152": "tu", "153": "v\u00e4", "154": "an", "155": "fa", "156": "fe", "157": "s\u00f9", "158": "al", "159": "po", "160": "r\u00ef", "161": "ho", "162": "di", "163": "az", "164": "l\u00fc", "165": "cu", "166": "ti", "167": "\u00e8v", "168": "b\u00eb", "169": "p\u00f2", "170": "c\u00ec", "171": "ze", "172": "s\u00fc", "173": "fu", "174": "s\u00ef", "175": "te", "176": "d\u00fc", "177": "ag", "178": "g\u00eb", "179": "l\u00f2", "180": "d\u00e9", "181": "de", "182": "n\u00f2", "183": "id", "184": "c\u00eb", "185": "ex", "186": "il", "187": "ia", "188": "f\u00f3", "189": "uo", "190": "l\u00ec", "191": "me", "192": "la", "193": "c\u00f9", "194": "ru", "195": "no", "196": "eb", "197": "ie", "198": "g\u00f3", "199": "\u00e8n", "200": "t\u00eb", "201": "ov", "202": "ta", "203": "zo", "204": "l\u00eb", "205": "b\u00ef", "206": "at", "207": "l\u00e0", "208": "in", "209": "f\u00e9", "210": "f\u00eb", "211": "s\u00e9", "212": "n\u00fc", "213": "n\u00eb", "214": "o e", "215": "stu", "216": "flu", "217": "qu\u00ef", "218": "tuf", "219": "tet", "220": "fet", "221": "bro", "222": "e a", "223": "pir", "224": "mes", "225": "cie", "226": "sit", "227": "goc", "228": "zaf", "229": "clu", "230": "raz", "231": "nis", "232": "guo", "233": "bil", "234": "pli", "235": "gor", "236": "gua", "237": "ber", "238": "lun", "239": "t\u00f2r", "240": "pom", "241": "lis", "242": "gam", "243": "mie", "244": "deb", "245": "bea", "246": "lar", "247": "dul", "248": "pai", "249": "lur", "250": "jau", "251": "ces", "252": "san", "253": "\u2018la", "254": "pog", "255": "tan", "256": "lit", "257": "sga", "258": "gaz", "259": "piz", "260": "des", "261": "mat", "262": "son", "263": "c\u00e9r", "264": "dus", "265": "pap", "266": "nil", "267": "fla", "268": "sep", "269": "vin", "270": "man", "271": "lom", "272": "rie", "273": "lil", "274": "tas", "275": "zuf", "276": "m\u00e8c", "277": "sac", "278": "sug", "279": "ruo", "280": "smi", "281": "ses", "282": "nac", "283": "spo", "284": "bun", "285": "fio", "286": "cat", "287": "ran", "288": "hon", "289": "suc", "290": "ric", "291": "vem", "292": "cau", "293": "dom", "294": "svo", "295": "cor", "296": "can", "297": "sbi", "298": "cis", "299": "rom", "300": "gir", "301": "pat", "302": "fri", "303": "soz", "304": "vas", "305": "rat", "306": "lau", "307": "sfo", "308": "mur", "309": "pri", "310": "gas", "311": "rob", "312": "sau", "313": "con", "314": "dea", "315": "gue", "316": "tuc", "317": "cit", "318": "dam", "319": "sci", "320": "dop", "321": "bec", "322": "not", "323": "lui", "324": "gie", "325": "for", "326": "nas", "327": "fab", "328": "tac", "329": "cef", "330": "lia", "331": "lac", "332": "scu", "333": "pos", "334": "vac", "335": "sof", "336": "piu", "337": "sor", "338": "cac", "339": "seg", "340": "guz", "341": "ser", "342": "bai", "343": "fum", "344": "que", "345": "vil", "346": "geo", "347": "top", "348": "cic", "349": "nef", "350": "cea", "351": "lai", "352": "bat", "353": "vie", "354": "sas", "355": "som", "356": "lin", "357": "poc", "358": "sba", "359": "det", "360": "smo", "361": "mot", "362": "\u2018ne", "363": "git", "364": "peg", "365": "cro", "366": "tr\u00ef", "367": "ciu", "368": "fie", "369": "fru", "370": "pot", "371": "iat", "372": "fra", "373": "cle", "374": "tuo", "375": "sco", "376": "dar", "377": "rug", "378": "lav", "379": "gan", "380": "pis", "381": "cet", "382": "lim", "383": "lup", "384": "veg", "385": "fis", "386": "sfa", "387": "nat", "388": "lut", "389": "gib", "390": "pit", "391": "pal", "392": "vit", "393": "han", "394": "nar", "395": "nic", "396": "tor", "397": "saf", "398": "col", "399": "riz", "400": "tin", "401": "sra", "402": "run", "403": "ret", "404": "laz", "405": "ple", "406": "gis", "407": "sve", "408": "bra", "409": "dut", "410": "nuo", "411": "sag", "412": "bru", "413": "pig", "414": "bor", "415": "tea", "416": "fat", "417": "ves", "418": "quo", "419": "nel", "420": "gur", "421": "lat", "422": "fuc", "423": "cuo", "424": "sca", "425": "bot", "426": "bui", "427": "t\u00f2m", "428": "sp\u00ef", "429": "toc", "430": "ton", "431": "dru", "432": "nir", "433": "dis", "434": "gol", "435": "buo", "436": "von", "437": "zur", "438": "sod", "439": "nor", "440": "lor", "441": "lam", "442": "tic", "443": "sma", "444": "bel", "445": "fin", "446": "sev", "447": "poz", "448": "bet", "449": "cam", "450": "dei", "451": "dol", "452": "bon", "453": "dir", "454": "tri", "455": "sce", "456": "vet", "457": "fac", "458": "sob", "459": "sto", "460": "vis", "461": "mar", "462": "ruf", "463": "zuc", "464": "mal", "465": "goz", "466": "gli", "467": "mir", "468": "bul", "469": "tat", "470": "tis", "471": "men", "472": "fib", "473": "mer", "474": "pru", "475": "fle", "476": "neb", "477": "gen", "478": "nec", "479": "noz", "480": "sos", "481": "vor", "482": "bis", "483": "mas", "484": "pio", "485": "fam", "486": "boz", "487": "dan", "488": "ler", "489": "rir", "490": "m\u00e9z", "491": "dem", "492": "tle", "493": "lec", "494": "pec", "495": "sio", "496": "c\u00f3l", "497": "xil", "498": "tun", "499": "car", "500": "fro", "501": "get", "502": "vid", "503": "niz", "504": "ten", "505": "sia", "506": "moz", "507": "cob", "508": "gio", "509": "mia", "510": "sam", "511": "lir", "512": "gnu", "513": "pro", "514": "leg", "515": "tru", "516": "mun", "517": "ful", "518": "dio", "519": "cem", "520": "nan", "521": "zar", "522": "fic", "523": "rag", "524": "teg", "525": "cer", "526": "cum", "527": "cuc", "528": "ris", "529": "svi", "530": "zac", "531": "sog", "532": "nig", "533": "fer", "534": "puc", "535": "raf", "536": "bac", "537": "vez", "538": "sil", "539": "var", "540": "duo", "541": "dub", "542": "v\u00f2l", "543": "cos", "544": "ban", "545": "bl\u00ef", "546": "pan", "547": "mai", "548": "muc", "549": "gia", "550": "nin", "551": "lem", "552": "ch\u00ef", "553": "tir", "554": "sle", "555": "fiu", "556": "vat", "557": "gra", "558": "cin", "559": "fem", "560": "a a", "561": "r\u00e8g", "562": "plu", "563": "gag", "564": "res", "565": "dun", "566": "gri", "567": "gob", "568": "lep", "569": "tro", "570": "tal", "571": "fes", "572": "but", "573": "sgo", "574": "tie", "575": "voi", "576": "buc", "577": "meg", "578": "br\u00ef", "579": "den", "580": "nes", "581": "sel", "582": "dos", "583": "cov", "584": "gre", "585": "nem", "586": "nev", "587": "ver", "588": "nez", "589": "sem", "590": "cil", "591": "rav", "592": "loc", "593": "met", "594": "nio", "595": "bli", "596": "tez", "597": "soc", "598": "rof", "599": "cez", "600": "sud", "601": "nim", "602": "cri", "603": "lic", "604": "tra", "605": "sab", "606": "cen", "607": "cel", "608": "dif", "609": "sar", "610": "dau", "611": "las", "612": "nol", "613": "dit", "614": "sfe", "615": "tut", "616": "nal", "617": "got", "618": "bar", "619": "bol", "620": "plo", "621": "mel", "622": "gna", "623": "fom", "624": "mil", "625": "fig", "626": "pol", "627": "sno", "628": "min", "629": "gat", "630": "pla", "631": "pet", "632": "nen", "633": "cru", "634": "bri", "635": "gar", "636": "sup", "637": "coz", "638": "lab", "639": "fos", "640": "rel", "641": "nia", "642": "coc", "643": "fol", "644": "rol", "645": "clo", "646": "zan", "647": "gil", "648": "nur", "649": "gui", "650": "bom", "651": "tem", "652": "fug", "653": "rid", "654": "rut", "655": "pub", "656": "dic", "657": "doc", "658": "zel", "659": "che", "660": "fas", "661": "ahi", "662": "tho", "663": "dug", "664": "rot", "665": "cep", "666": "vec", "667": "rac", "668": "fen", "669": "let", "670": "cal", "671": "vir", "672": "tel", "673": "cap", "674": "guc", "675": "gau", "676": "mug", "677": "vul", "678": "gom", "679": "sop", "680": "roz", "681": "mac", "682": "lel", "683": "zia", "684": "vom", "685": "fau", "686": "leb", "687": "rog", "688": "cul", "689": "muo", "690": "lap", "691": "mol", "692": "puo", "693": "pes", "694": "pon", "695": "pil", "696": "fog", "697": "luc", "698": "sic", "699": "glo", "700": "deg", "701": "feg", "702": "sus", "703": "ier", "704": "tec", "705": "lez", "706": "gno", "707": "dov", "708": "der", "709": "muf", "710": "rez", "711": "vag", "712": "sot", "713": "rup", "714": "p\u00e0r", "715": "st\u00ef", "716": "iep", "717": "cia", "718": "cad", "719": "tes", "720": "ges", "721": "gab", "722": "biz", "723": "tos", "724": "sde", "725": "gim", "726": "suf", "727": "fit", "728": "spi", "729": "giz", "730": "ch\u00ec", "731": "dal", "732": "bre", "733": "sov", "734": "iar", "735": "das", "736": "ria", "737": "rio", "738": "sie", "739": "tam", "740": "giu", "741": "cot", "742": "fon", "743": "ger", "744": "pul", "745": "sat", "746": "bio", "747": "roc", "748": "mem", "749": "ras", "750": "vel", "751": "lul", "752": "sin", "753": "nie", "754": "pl\u00ec", "755": "f\u00e9l", "756": "pop", "757": "mul", "758": "fur", "759": "gru", "760": "reb", "761": "lon", "762": "ter", "763": "bas", "764": "a u", "765": "gel", "766": "fuo", "767": "mag", "768": "set", "769": "cra", "770": "dat", "771": "sun", "772": "nob", "773": "ril", "774": "dre", "775": "cio", "776": "cir", "777": "nun", "778": "mez", "779": "pun", "780": "pel", "781": "sec", "782": "bur", "783": "rap", "784": "dot", "785": "caf", "786": "far", "787": "sez", "788": "tim", "789": "dr\u00ef", "790": "noc", "791": "lip", "792": "cla", "793": "com", "794": "fia", "795": "lus", "796": "bie", "797": "til", "798": "bal", "799": "sol", "800": "zon", "801": "lop", "802": "mam", "803": "f\u00e0c", "804": "o a", "805": "sen", "806": "lot", "807": "net", "808": "les", "809": "rim", "810": "cas", "811": "cre", "812": "sla", "813": "pie", "814": "nag", "815": "ros", "816": "cun", "817": "bug", "818": "sis", "819": "vuo", "820": "dia", "821": "del", "822": "bef", "823": "sal", "824": "lea", "825": "ghi", "826": "par", "827": "rig", "828": "don", "829": "reg", "830": "pra", "831": "cl\u00ef", "832": "rit", "833": "sta", "834": "ral", "835": "gad", "836": "nom", "837": "pi\u00e9", "838": "maz", "839": "viz", "840": "fre", "841": "qui", "842": "sti", "843": "tur", "844": "lie", "845": "gne", "846": "sum", "847": "paz", "848": "mic", "849": "dob", "850": "len", "851": "spa", "852": "bia", "853": "vam", "854": "din", "855": "mon", "856": "cr\u00e0", "857": "suo", "858": "pic", "859": "val", "860": "non", "861": "qua", "862": "buf", "863": "sr\u00e4", "864": "dur", "865": "dil", "866": "sub", "867": "pin", "868": "tad", "869": "fan", "870": "fel", "871": "dri", "872": "smu", "873": "sc\u00ef", "874": "cop", "875": "por", "876": "ghe", "877": "vol", "878": "pen", "879": "pre", "880": "dro", "881": "nul", "882": "o u", "883": "ner", "884": "dr\u00e4", "885": "nuc", "886": "rar", "887": "nai", "888": "tau", "889": "dez", "890": "gem", "891": "fal", "892": "bin", "893": "ren", "894": "ruc", "895": "per", "896": "ram", "897": "dec", "898": "luo", "899": "rea", "900": "dra", "901": "gal", "902": "zio", "903": "gni", "904": "tol", "905": "van", "906": "rem", "907": "feb", "908": "p\u00f2s", "909": "pac", "910": "gea", "911": "ben", "912": "ste", "913": "sna", "914": "puz", "915": "dor", "916": "die", "917": "mos", "918": "red", "919": "ior", "920": "sap", "921": "dim", "922": "sur", "923": "ron", "924": "sv\u00ef", "925": "diz", "926": "cui", "927": "pia", "928": "tre", "929": "gon", "930": "sme", "931": "boc", "932": "pau", "933": "tom", "934": "ven", "935": "spu", "936": "pur", "937": "put", "938": "rin", "939": "cur", "940": "spe", "941": "rab", "942": "\u2018be", "943": "fun", "944": "bev", "945": "bab", "946": "chi", "947": "pas", "948": "rec", "949": "cag", "950": "ian", "951": "tag", "952": "neg", "953": "cli", "954": "tar", "955": "mor", "956": "lan", "957": "luz", "958": "tran", "959": "scuf", "960": "ze e", "961": "l\u00ec e", "962": "\u00e8 im", "963": "de a", "964": "ra a", "965": "sa e", "966": "grap", "967": "pric", "968": "treb", "969": "bion", "970": "mian", "971": "spon", "972": "di u", "973": "a am", "974": "na e", "975": "to u", "976": "quen", "977": "blan", "978": "sanc", "979": "be a", "980": "ra i", "981": "ga o", "982": "proc", "983": "scaz", "984": "gnie", "985": "sfar", "986": "spia", "987": "be i", "988": "giar", "989": "te u", "990": "\u00e8 in", "991": "so a", "992": "tren", "993": "piog", "994": "cheg", "995": "le e", "996": "m\u2019 o", "997": "guaz", "998": "se o", "999": "pran", "1000": "do i", "1001": "na a", "1002": "scor", "1003": "no u", "1004": "smar", "1005": "d\u2019 o", "1006": "gnar", "1007": "brie", "1008": "scev", "1009": "m\u2019 i", "1010": "l\u2019 \u00f2", "1011": "quar", "1012": "ta i", "1013": "stru", "1014": "stop", "1015": "ghia", "1016": "li u", "1017": "plau", "1018": "sven", "1019": "gron", "1020": "squi", "1021": "brez", "1022": "gnel", "1023": "te o", "1024": "se e", "1025": "cion", "1026": "smoz", "1027": "stro", "1028": "grot", "1029": "va u", "1030": "z\u2019 i", "1031": "ro e", "1032": "sbar", "1033": "broc", "1034": "ma u", "1035": "stiz", "1036": "v\u2019 e", "1037": "driz", "1038": "d\u2019 a", "1039": "s\u00ec i", "1040": "scov", "1041": "glio", "1042": "ce u", "1043": "ghel", "1044": "quer", "1045": "go e", "1046": "se i", "1047": "str\u00e0", "1048": "trap", "1049": "puom", "1050": "sdet", "1051": "sa a", "1052": "bi a", "1053": "spie", "1054": "pi i", "1055": "ziar", "1056": "stul", "1057": "pris", "1058": "spir", "1059": "c\u2019 e", "1060": "ma a", "1061": "mo o", "1062": "sa o", "1063": "re e", "1064": "di o", "1065": "spes", "1066": "stia", "1067": "spin", "1068": "drap", "1069": "spaz", "1070": "trop", "1071": "m\u2019 e", "1072": "trot", "1073": "guag", "1074": "sfac", "1075": "do a", "1076": "biac", "1077": "scar", "1078": "li o", "1079": "l\u2019 u", "1080": "s\u2019 a", "1081": "spit", "1082": "sgri", "1083": "sden", "1084": "la i", "1085": "do o", "1086": "co u", "1087": "grez", "1088": "scin", "1089": "t\u2019 u", "1090": "ti u", "1091": "chie", "1092": "d\u2019 \u00ef", "1093": "ro i", "1094": "viem", "1095": "ne u", "1096": "z\u2019 o", "1097": "za a", "1098": "scen", "1099": "pron", "1100": "smen", "1101": "d\u2019 e", "1102": "c\u2019 \u00ef", "1103": "ra e", "1104": "scir", "1105": "chez", "1106": "gi e", "1107": "gi u", "1108": "pruo", "1109": "prin", "1110": "ra o", "1111": "d\u2019 u", "1112": "ciuf", "1113": "ciap", "1114": "ples", "1115": "me o", "1116": "cras", "1117": "s\u2019 u", "1118": "sgra", "1119": "ta u", "1120": "va i", "1121": "scim", "1122": "chis", "1123": "la e", "1124": "guiz", "1125": "dies", "1126": "ster", "1127": "re o", "1128": "stie", "1129": "ce a", "1130": "po o", "1131": "le a", "1132": "piom", "1133": "scio", "1134": "di i", "1135": "sbri", "1136": "me a", "1137": "bris", "1138": "tras", "1139": "scro", "1140": "vi e", "1141": "ie a", "1142": "brac", "1143": "stil", "1144": "ci e", "1145": "scri", "1146": "spre", "1147": "ghir", "1148": "li a", "1149": "puol", "1150": "si e", "1151": "c\u2019 o", "1152": "quil", "1153": "vo o", "1154": "scie", "1155": "stra", "1156": "quan", "1157": "na i", "1158": "spol", "1159": "le u", "1160": "stet", "1161": "glet", "1162": "scot", "1163": "di e", "1164": "snel", "1165": "guil", "1166": "no i", "1167": "ri u", "1168": "lo o", "1169": "span", "1170": "vien", "1171": "gnor", "1172": "flig", "1173": "sgan", "1174": "co a", "1175": "pren", "1176": "stre", "1177": "guan", "1178": "spar", "1179": "piag", "1180": "dras", "1181": "sgor", "1182": "pres", "1183": "ti i", "1184": "glia", "1185": "stan", "1186": "ca u", "1187": "stav", "1188": "sber", "1189": "sneb", "1190": "trec", "1191": "clas", "1192": "stio", "1193": "trul", "1194": "ca e", "1195": "ve i", "1196": "pa u", "1197": "sper", "1198": "bran", "1199": "quat", "1200": "ciac", "1201": "prie", "1202": "scia", "1203": "gres", "1204": "guit", "1205": "grem", "1206": "ga e", "1207": "sgom", "1208": "sman", "1209": "s\u2019 \u00ef", "1210": "cric", "1211": "fron", "1212": "scer", "1213": "po e", "1214": "re a", "1215": "da o", "1216": "clis", "1217": "grie", "1218": "dian", "1219": "pi a", "1220": "scan", "1221": "g\u2019 \u00ef", "1222": "sfam", "1223": "sdru", "1224": "gner", "1225": "de u", "1226": "gher", "1227": "scab", "1228": "cruc", "1229": "go a", "1230": "so o", "1231": "a ac", "1232": "te i", "1233": "pian", "1234": "quel", "1235": "chio", "1236": "clau", "1237": "cioc", "1238": "piez", "1239": "de o", "1240": "stec", "1241": "ti a", "1242": "a es", "1243": "brot", "1244": "guir", "1245": "puos", "1246": "ciar", "1247": "n\u2019 u", "1248": "bian", "1249": "stuc", "1250": "di a", "1251": "trie", "1252": "brut", "1253": "ri e", "1254": "gian", "1255": "stel", "1256": "li e", "1257": "de e", "1258": "se u", "1259": "trom", "1260": "na u", "1261": "sciu", "1262": "squa", "1263": "spet", "1264": "s\u2019 e", "1265": "truo", "1266": "cian", "1267": "spel", "1268": "do u", "1269": "be o", "1270": "ti o", "1271": "te a", "1272": "so e", "1273": "svel", "1274": "pa e", "1275": "to o", "1276": "stig", "1277": "pe i", "1278": "a in", "1279": "ma o", "1280": "fian", "1281": "sver", "1282": "spal", "1283": "mi e", "1284": "fior", "1285": "stri", "1286": "crea", "1287": "ci o", "1288": "qual", "1289": "ro o", "1290": "spic", "1291": "grep", "1292": "va e", "1293": "scon", "1294": "\u2019vun", "1295": "ci u", "1296": "grat", "1297": "vi a", "1298": "stal", "1299": "bron", "1300": "na o", "1301": "spen", "1302": "flit", "1303": "frut", "1304": "ghez", "1305": "scic", "1306": "a al", "1307": "gial", "1308": "buon", "1309": "fiac", "1310": "bias", "1311": "ciul", "1312": "d\u2019 i", "1313": "smal", "1314": "fiam", "1315": "troc", "1316": "t\u2019 o", "1317": "spez", "1318": "giac", "1319": "ma e", "1320": "m\u2019 a", "1321": "be e", "1322": "pros", "1323": "chet", "1324": "egyp", "1325": "l\u2019 e", "1326": "schi", "1327": "tier", "1328": "chiu", "1329": "zi o", "1330": "trag", "1331": "be u", "1332": "ne a", "1333": "gnon", "1334": "te e", "1335": "so i", "1336": "sfre", "1337": "ta a", "1338": "la u", "1339": "giot", "1340": "mi u", "1341": "s\u2019 o", "1342": "pi e", "1343": "v\u2019 o", "1344": "gien", "1345": "sfat", "1346": "scal", "1347": "stas", "1348": "sche", "1349": "gior", "1350": "ciuo", "1351": "fran", "1352": "spro", "1353": "brug", "1354": "stol", "1355": "guen", "1356": "prir", "1357": "ni a", "1358": "n\u2019 e", "1359": "brul", "1360": "da u", "1361": "giuo", "1362": "ne e", "1363": "o al", "1364": "ra u", "1365": "do e", "1366": "trar", "1367": "tror", "1368": "ca o", "1369": "stin", "1370": "piov", "1371": "ro a", "1372": "s\u2019 i", "1373": "mi o", "1374": "ni e", "1375": "t\u2019 e", "1376": "dier", "1377": "drit", "1378": "zi e", "1379": "ce o", "1380": "a ef", "1381": "guer", "1382": "sa u", "1383": "v\u2019 a", "1384": "creb", "1385": "tien", "1386": "clug", "1387": "gnen", "1388": "piac", "1389": "glie", "1390": "ve a", "1391": "scos", "1392": "z\u2019 a", "1393": "to a", "1394": "no o", "1395": "se a", "1396": "flet", "1397": "mo e", "1398": "scuo", "1399": "mo a", "1400": "za o", "1401": "pier", "1402": "scom", "1403": "fret", "1404": "vi o", "1405": "fiot", "1406": "bo e", "1407": "prez", "1408": "mo i", "1409": "\u2018glo", "1410": "mo u", "1411": "da e", "1412": "co e", "1413": "ge o", "1414": "guic", "1415": "gras", "1416": "l\u2019 o", "1417": "dien", "1418": "stam", "1419": "s\u00ec a", "1420": "o ar", "1421": "e ar", "1422": "sban", "1423": "star", "1424": "ce e", "1425": "lo u", "1426": "sten", "1427": "chia", "1428": "zi u", "1429": "cien", "1430": "liev", "1431": "no a", "1432": "me i", "1433": "gnuo", "1434": "dram", "1435": "dhae", "1436": "giun", "1437": "ciom", "1438": "t\u2019 a", "1439": "no e", "1440": "spor", "1441": "to i", "1442": "greg", "1443": "cias", "1444": "ghil", "1445": "scre", "1446": "gros", "1447": "ro u", "1448": "gnan", "1449": "po a", "1450": "sfer", "1451": "ca a", "1452": "quin", "1453": "d\u2019 \u00eb", "1454": "le i", "1455": "grom", "1456": "trac", "1457": "r\u2019 u", "1458": "ge a", "1459": "va a", "1460": "l\u2019 a", "1461": "spec", "1462": "giam", "1463": "cher", "1464": "scis", "1465": "la a", "1466": "ve u", "1467": "ci a", "1468": "se \u00eb", "1469": "fles", "1470": "stis", "1471": "sfio", "1472": "grop", "1473": "fioc", "1474": "e \u2019n", "1475": "smon", "1476": "tron", "1477": "spuo", "1478": "biet", "1479": "ta o", "1480": "co o", "1481": "bren", "1482": "ta e", "1483": "l\u00ec a", "1484": "po u", "1485": "si u", "1486": "scoc", "1487": "n\u2019 o", "1488": "sbra", "1489": "glau", "1490": "scac", "1491": "ze o", "1492": "gheg", "1493": "brol", "1494": "stem", "1495": "r\u00ec u", "1496": "ghes", "1497": "gual", "1498": "giug", "1499": "gnem", "1500": "scop", "1501": "me u", "1502": "tret", "1503": "trai", "1504": "gias", "1505": "pien", "1506": "re i", "1507": "da a", "1508": "si o", "1509": "le o", "1510": "scet", "1511": "fred", "1512": "r\u2019 o", "1513": "trat", "1514": "frat", "1515": "bo a", "1516": "pe e", "1517": "zo a", "1518": "sfin", "1519": "gnaz", "1520": "ghet", "1521": "dran", "1522": "p\u2019 e", "1523": "vuol", "1524": "lo e", "1525": "va o", "1526": "gnas", "1527": "scel", "1528": "zian", "1529": "sfor", "1530": "o av", "1531": "ti e", "1532": "guet", "1533": "ciel", "1534": "gran", "1535": "to e", "1536": "tiem", "1537": "ghie", "1538": "scem", "1539": "lo a", "1540": "l\u2019 i", "1541": "quis", "1542": "gram", "1543": "crol", "1544": "sdeg", "1545": "chil", "1546": "si i", "1547": "stuo", "1548": "scol", "1549": "sfan", "1550": "nian", "1551": "e in", "1552": "graf", "1553": "de i", "1554": "scam", "1555": "tram", "1556": "piat", "1557": "ni u", "1558": "guel", "1559": "guef", "1560": "so u", "1561": "me e", "1562": "ghio", "1563": "re u", "1564": "plan", "1565": "bo i", "1566": "guar", "1567": "za i", "1568": "ciot", "1569": "ni o", "1570": "n\u2019 a", "1571": "za u", "1572": "la o", "1573": "zo e", "1574": "spun", "1575": "smor", "1576": "li \u2019", "1577": "stor", "1578": "stes", "1579": "ne o", "1580": "si a", "1581": "slac", "1582": "splen", "1583": "ta un", "1584": "s\u2019 as", "1585": "l\u2019 ul", "1586": "po an", "1587": "d\u2019 eu", "1588": "dre e", "1589": "d\u2019 an", "1590": "ra on", "1591": "zio u", "1592": "zie o", "1593": "gne a", "1594": "m\u2019 as", "1595": "l\u2019 es", "1596": "n\u2019 am", "1597": "si at", "1598": "t\u2019 om", "1599": "ci ap", "1600": "to in", "1601": "co ap", "1602": "si im", "1603": "zo an", "1604": "la on", "1605": "m\u2019 ar", "1606": "t\u2019 at", "1607": "te of", "1608": "za et", "1609": "ro es", "1610": "s\u2019 en", "1611": "vo ac", "1612": "no im", "1613": "l\u2019 em", "1614": "v\u2019 ap", "1615": "la al", "1616": "no et", "1617": "stram", "1618": "l\u2019 am", "1619": "ra in", "1620": "v\u2019 in", "1621": "sta u", "1622": "mo at", "1623": "ve oc", "1624": "no au", "1625": "so et", "1626": "squar", "1627": "ti im", "1628": "di ol", "1629": "za \u2019n", "1630": "me of", "1631": "st\u2019 u", "1632": "no or", "1633": "d\u2019 ar", "1634": "re an", "1635": "gliet", "1636": "le or", "1637": "ti ad", "1638": "li uc", "1639": "no am", "1640": "t\u00e0 in", "1641": "ba in", "1642": "si \u2019n", "1643": "ti \u2019n", "1644": "zi ap", "1645": "l\u2019 ef", "1646": "ca on", "1647": "mo af", "1648": "li ul", "1649": "bre a", "1650": "ve ap", "1651": "so of", "1652": "si er", "1653": "ta el", "1654": "chioc", "1655": "ghiac", "1656": "li in", "1657": "de of", "1658": "ce an", "1659": "t\u2019 ab", "1660": "ro oc", "1661": "l\u2019 al", "1662": "me af", "1663": "l\u2019 om", "1664": "l\u2019 in", "1665": "ti or", "1666": "lo es", "1667": "de or", "1668": "re eb", "1669": "me ar", "1670": "sto a", "1671": "le id", "1672": "sta o", "1673": "m\u2019 ad", "1674": "re ot", "1675": "si ol", "1676": "ni an", "1677": "qu\u2019 e", "1678": "le \u2019n", "1679": "gi an", "1680": "v\u2019 al", "1681": "t\u2019 ap", "1682": "na at", "1683": "lo er", "1684": "ba un", "1685": "gi ar", "1686": "gliel", "1687": "tro o", "1688": "bi al", "1689": "scias", "1690": "s\u2019 ab", "1691": "no ab", "1692": "ga an", "1693": "m\u2019 ag", "1694": "ra ac", "1695": "mo im", "1696": "ma on", "1697": "ge un", "1698": "na ar", "1699": "sgrie", "1700": "vi \u2019m", "1701": "so al", "1702": "lo im", "1703": "di ac", "1704": "li un", "1705": "to of", "1706": "li as", "1707": "s\u2019 er", "1708": "ne ar", "1709": "st\u2019 o", "1710": "so am", "1711": "te ol", "1712": "di om", "1713": "ra of", "1714": "vi al", "1715": "ma of", "1716": "d\u2019 ur", "1717": "di af", "1718": "l\u2019 \u00e0n", "1719": "ro im", "1720": "la in", "1721": "ra ab", "1722": "ne ov", "1723": "n\u2019 au", "1724": "lo ac", "1725": "che e", "1726": "tra i", "1727": "co ac", "1728": "ci ad", "1729": "ne on", "1730": "chiet", "1731": "chian", "1732": "li ag", "1733": "co ar", "1734": "la or", "1735": "re il", "1736": "gliam", "1737": "lo as", "1738": "ga as", "1739": "n\u2019 ac", "1740": "v\u2019 er", "1741": "le am", "1742": "ta on", "1743": "ri on", "1744": "spiac", "1745": "re at", "1746": "co eb", "1747": "vo as", "1748": "de eu", "1749": "si ac", "1750": "s\u00ec \u2019m", "1751": "sto e", "1752": "s\u2019 es", "1753": "vi en", "1754": "mo es", "1755": "vi an", "1756": "ne an", "1757": "pi in", "1758": "t\u2019 ag", "1759": "l\u2019 au", "1760": "to on", "1761": "d\u2019 af", "1762": "de on", "1763": "no ec", "1764": "zo as", "1765": "ci in", "1766": "fo et", "1767": "n\u2019 eb", "1768": "si an", "1769": "s\u2019 em", "1770": "d\u2019 al", "1771": "zio e", "1772": "to eb", "1773": "te er", "1774": "ta al", "1775": "tro u", "1776": "s\u00ec \u2019n", "1777": "mo in", "1778": "schio", "1779": "lo ef", "1780": "ri in", "1781": "me on", "1782": "ch\u2019 e", "1783": "ra ap", "1784": "ta ab", "1785": "po av", "1786": "ce et", "1787": "spraz", "1788": "chias", "1789": "ce in", "1790": "di og", "1791": "stran", "1792": "li au", "1793": "m\u2019 of", "1794": "ci \u2019n", "1795": "d\u2019 el", "1796": "re au", "1797": "t\u2019 ac", "1798": "ra al", "1799": "na on", "1800": "bra a", "1801": "di or", "1802": "de om", "1803": "chi u", "1804": "m\u2019 ab", "1805": "gne o", "1806": "d\u2019 ap", "1807": "lo il", "1808": "s\u2019 et", "1809": "si el", "1810": "po on", "1811": "ti al", "1812": "te au", "1813": "si \u2019m", "1814": "spran", "1815": "le uc", "1816": "strug", "1817": "so es", "1818": "re ap", "1819": "ghien", "1820": "squil", "1821": "to as", "1822": "do am", "1823": "be on", "1824": "ti as", "1825": "tri e", "1826": "va al", "1827": "ci or", "1828": "li es", "1829": "la an", "1830": "ve al", "1831": "ne as", "1832": "re in", "1833": "se es", "1834": "va in", "1835": "d\u2019 og", "1836": "re on", "1837": "se an", "1838": "ro am", "1839": "d\u2019 on", "1840": "ro in", "1841": "li ar", "1842": "l\u2019 of", "1843": "me ap", "1844": "t\u2019 el", "1845": "tu ha", "1846": "sguar", "1847": "ni es", "1848": "ta as", "1849": "ti am", "1850": "do ol", "1851": "n\u2019 om", "1852": "sti o", "1853": "n\u2019 av", "1854": "smo a", "1855": "so on", "1856": "m\u2019 in", "1857": "ci as", "1858": "ne \u2019n", "1859": "ni ap", "1860": "scris", "1861": "la ap", "1862": "li om", "1863": "de af", "1864": "ma es", "1865": "to ol", "1866": "co al", "1867": "sci\u00e0n", "1868": "s\u2019 al", "1869": "ta at", "1870": "n\u2019 ab", "1871": "re am", "1872": "li \u2019n", "1873": "sto o", "1874": "chi a", "1875": "l\u2019 at", "1876": "sa an", "1877": "de ag", "1878": "ne et", "1879": "pa in", "1880": "ca er", "1881": "lo at", "1882": "strin", "1883": "te an", "1884": "si ad", "1885": "chiap", "1886": "ma or", "1887": "la el", "1888": "n\u2019 an", "1889": "re im", "1890": "mi ac", "1891": "stric", "1892": "pre e", "1893": "le ar", "1894": "to at", "1895": "pi or", "1896": "di on", "1897": "l\u2019 ac", "1898": "li of", "1899": "ci at", "1900": "vi ac", "1901": "l\u2019 op", "1902": "ra ad", "1903": "sa ap", "1904": "lo in", "1905": "zi at", "1906": "go es", "1907": "ma ap", "1908": "sciut", "1909": "n\u2019 ap", "1910": "ni al", "1911": "mo or", "1912": "s\u2019 an", "1913": "co at", "1914": "to ar", "1915": "no ap", "1916": "te ag", "1917": "sciol", "1918": "li eb", "1919": "do af", "1920": "scioc", "1921": "sa og", "1922": "do on", "1923": "na es", "1924": "za in", "1925": "vi as", "1926": "li et", "1927": "va id", "1928": "s\u2019 os", "1929": "\u2019ve o", "1930": "mi an", "1931": "zi al", "1932": "t\u2019 ar", "1933": "ge an", "1934": "co av", "1935": "sa ol", "1936": "s\u2019 am", "1937": "li em", "1938": "sta e", "1939": "m\u2019 om", "1940": "do oc", "1941": "ste a", "1942": "do as", "1943": "s\u2019 ag", "1944": "d\u2019 in", "1945": "ti et", "1946": "ne \u2019m", "1947": "mi ad", "1948": "to es", "1949": "ci am", "1950": "di in", "1951": "so at", "1952": "ne ap", "1953": "co et", "1954": "di av", "1955": "gliuo", "1956": "de al", "1957": "re ol", "1958": "tr\u2019 a", "1959": "ma an", "1960": "mi ef", "1961": "ne in", "1962": "si of", "1963": "ra uc", "1964": "ta an", "1965": "v\u2019 ab", "1966": "ta ad", "1967": "l\u2019 et", "1968": "ta op", "1969": "ch\u2019 \u00ef", "1970": "l\u2019 or", "1971": "te af", "1972": "do ac", "1973": "de as", "1974": "d\u2019 oc", "1975": "po al", "1976": "li af", "1977": "za am", "1978": "si am", "1979": "v\u2019 am", "1980": "re ab", "1981": "stroc", "1982": "t\u2019 or", "1983": "ne al", "1984": "ve ar", "1985": "tro e", "1986": "la au", "1987": "m\u2019 eb", "1988": "vo au", "1989": "ra eb", "1990": "ra et", "1991": "d\u2019 im", "1992": "to af", "1993": "ze es", "1994": "be ar", "1995": "m\u2019 im", "1996": "sciau", "1997": "m\u2019 es", "1998": "to ac", "1999": "va an", "2000": "t\u2019 as", "2001": "ne em", "2002": "se un", "2003": "gna a", "2004": "do or", "2005": "co on", "2006": "ch\u2019 u", "2007": "l\u2019 oc", "2008": "gia e", "2009": "ch\u2019 o", "2010": "se ec", "2011": "de an", "2012": "po in", "2013": "to ad", "2014": "ri ac", "2015": "sco u", "2016": "di of", "2017": "se ap", "2018": "ni in", "2019": "zio a", "2020": "ti ar", "2021": "li an", "2022": "mi ap", "2023": "gia o", "2024": "no al", "2025": "no ag", "2026": "te es", "2027": "ma ac", "2028": "de ac", "2029": "so ar", "2030": "no as", "2031": "be av", "2032": "suo a", "2033": "stras", "2034": "ce on", "2035": "scial", "2036": "ia an", "2037": "ce ar", "2038": "ce ac", "2039": "to oc", "2040": "s\u2019 ac", "2041": "zi as", "2042": "sce a", "2043": "s\u2019 op", "2044": "co an", "2045": "sciam", "2046": "z\u2019 ar", "2047": "di es", "2048": "schem", "2049": "t\u2019 es", "2050": "re al", "2051": "ve an", "2052": "v\u2019 ac", "2053": "la \u2019m", "2054": "l\u2019 ec", "2055": "s\u2019 ad", "2056": "no in", "2057": "si or", "2058": "no af", "2059": "le ap", "2060": "si al", "2061": "mo ar", "2062": "re as", "2063": "re ac", "2064": "so in", "2065": "glien", "2066": "de in", "2067": "ch\u2019 i", "2068": "no ar", "2069": "sciom", "2070": "na of", "2071": "to ec", "2072": "fu im", "2073": "li or", "2074": "che a", "2075": "bo al", "2076": "ra at", "2077": "d\u2019 at", "2078": "me an", "2079": "go in", "2080": "lo al", "2081": "t\u2019 im", "2082": "hi om", "2083": "pa es", "2084": "lo af", "2085": "ra ot", "2086": "n\u2019 al", "2087": "te at", "2088": "gne u", "2089": "li am", "2090": "lo ar", "2091": "za an", "2092": "si og", "2093": "ro al", "2094": "li oc", "2095": "do an", "2096": "le in", "2097": "mo of", "2098": "strac", "2099": "le an", "2100": "te in", "2101": "re av", "2102": "l\u2019 en", "2103": "to ef", "2104": "ni av", "2105": "dio i", "2106": "va ar", "2107": "l\u2019 uc", "2108": "pi\u00f9 a", "2109": "te ap", "2110": "te al", "2111": "scran", "2112": "tr\u2019 e", "2113": "re en", "2114": "pre a", "2115": "dea u", "2116": "ca en", "2117": "ro as", "2118": "ro ar", "2119": "r\u2019 an", "2120": "me au", "2121": "scheg", "2122": "d\u2019 ac", "2123": "re et", "2124": "m\u2019 at", "2125": "l\u2019 un", "2126": "ste i", "2127": "di al", "2128": "v\u2019 el", "2129": "v\u2019 eb", "2130": "le es", "2131": "da in", "2132": "ni am", "2133": "la es", "2134": "mo al", "2135": "za er", "2136": "na ac", "2137": "za al", "2138": "que u", "2139": "sti a", "2140": "ge in", "2141": "sgher", "2142": "tra a", "2143": "v\u2019 of", "2144": "li ap", "2145": "le as", "2146": "tra u", "2147": "fe et", "2148": "s\u2019 eb", "2149": "gliar", "2150": "d\u2019 os", "2151": "chiar", "2152": "ra el", "2153": "li ab", "2154": "sta a", "2155": "so an", "2156": "re om", "2157": "sco o", "2158": "mo ac", "2159": "stren", "2160": "te ac", "2161": "l\u2019 el", "2162": "m\u2019 ap", "2163": "no om", "2164": "pr\u2019 e", "2165": "mo ol", "2166": "no av", "2167": "ni as", "2168": "po ar", "2169": "zia e", "2170": "do ap", "2171": "ti en", "2172": "do in", "2173": "no ac", "2174": "l\u2019 im", "2175": "ga in", "2176": "za on", "2177": "stret", "2178": "l\u2019 os", "2179": "vi ar", "2180": "do ec", "2181": "lo of", "2182": "so ab", "2183": "gni e", "2184": "z\u2019 es", "2185": "mo an", "2186": "no es", "2187": "so \u2019n", "2188": "si av", "2189": "d\u2019 as", "2190": "ro ac", "2191": "qu\u2019 o", "2192": "re af", "2193": "de am", "2194": "d\u2019 ot", "2195": "do ar", "2196": "ne es", "2197": "l\u2019 ag", "2198": "m\u2019 an", "2199": "ta in", "2200": "ti av", "2201": "ta om", "2202": "so eb", "2203": "bo on", "2204": "m\u2019 al", "2205": "da an", "2206": "n\u2019 ol", "2207": "ne ac", "2208": "co in", "2209": "ce af", "2210": "te en", "2211": "ti at", "2212": "schie", "2213": "l\u2019 av", "2214": "ce at", "2215": "mo on", "2216": "strom", "2217": "zia o", "2218": "vi am", "2219": "ro an", "2220": "ce im", "2221": "le ad", "2222": "l\u2019 af", "2223": "b\u2019 es", "2224": "pi ap", "2225": "n\u2019 uo", "2226": "ma \u2019n", "2227": "se \u2019n", "2228": "ri ar", "2229": "do at", "2230": "so as", "2231": "l\u2019 ov", "2232": "l\u2019 an", "2233": "cia a", "2234": "ghian", "2235": "bo av", "2236": "ta am", "2237": "na av", "2238": "na ap", "2239": "sgiun", "2240": "l\u2019 as", "2241": "ci an", "2242": "re ag", "2243": "le on", "2244": "va \u2019n", "2245": "t\u2019 am", "2246": "sa im", "2247": "na or", "2248": "sa ac", "2249": "v\u2019 an", "2250": "ne av", "2251": "ce au", "2252": "te im", "2253": "ri an", "2254": "d\u2019 om", "2255": "ne af", "2256": "va at", "2257": "mi \u2019n", "2258": "ti ac", "2259": "t\u2019 al", "2260": "spres", "2261": "ni on", "2262": "chi o", "2263": "f\u00e9 in", "2264": "l\u2019 ad", "2265": "va eb", "2266": "ca an", "2267": "ra as", "2268": "la of", "2269": "bra u", "2270": "cia e", "2271": "vo at", "2272": "la en", "2273": "be as", "2274": "d\u2019 or", "2275": "to uc", "2276": "s\u2019 at", "2277": "tri a", "2278": "li im", "2279": "to ab", "2280": "glies", "2281": "te ar", "2282": "ro ap", "2283": "schet", "2284": "strut", "2285": "l\u00ec en", "2286": "que o", "2287": "scrip", "2288": "do al", "2289": "no at", "2290": "do el", "2291": "cio e", "2292": "ro on", "2293": "stroz", "2294": "se as", "2295": "ta ac", "2296": "ra im", "2297": "v\u2019 et", "2298": "che u", "2299": "ro at", "2300": "tra e", "2301": "no an", "2302": "di ad", "2303": "scher", "2304": "ti in", "2305": "l\u2019 ab", "2306": "mi er", "2307": "ni en", "2308": "l\u2019 um", "2309": "l\u2019 ot", "2310": "m\u2019 ac", "2311": "r\u2019 al", "2312": "ce al", "2313": "do er", "2314": "d\u2019 er", "2315": "do eb", "2316": "m\u2019 av", "2317": "cea u", "2318": "to al", "2319": "ci al", "2320": "l\u2019 ap", "2321": "ro au", "2322": "me ef", "2323": "vi on", "2324": "te ab", "2325": "to im", "2326": "re em", "2327": "tro a", "2328": "se af", "2329": "te om", "2330": "s\u2019 el", "2331": "l\u2019 ae", "2332": "zo in", "2333": "schic", "2334": "s\u2019 of", "2335": "fu el", "2336": "za im", "2337": "go al", "2338": "tro i", "2339": "re es", "2340": "scian", "2341": "v\u2019 ar", "2342": "bra e", "2343": "ra am", "2344": "ze or", "2345": "te is", "2346": "s\u2019 in", "2347": "si in", "2348": "me ac", "2349": "lia a", "2350": "t\u2019 in", "2351": "ro of", "2352": "lo \u2019m", "2353": "ce es", "2354": "s\u2019 im", "2355": "to an", "2356": "to av", "2357": "di ab", "2358": "ro eb", "2359": "se al", "2360": "te ad", "2361": "d\u2019 et", "2362": "ti \u2019m", "2363": "to ag", "2364": "ro or", "2365": "d\u2019 es", "2366": "zo ar", "2367": "ci ar", "2368": "ta es", "2369": "to et", "2370": "te on", "2371": "me in", "2372": "li \u2019m", "2373": "s\u2019 af", "2374": "t\u2019 em", "2375": "re oc", "2376": "d\u2019 eb", "2377": "ca in", "2378": "n\u2019 at", "2379": "li ad", "2380": "scrit", "2381": "me am", "2382": "se in", "2383": "me al", "2384": "tri o", "2385": "m\u2019 ol", "2386": "so ad", "2387": "s\u00ec in", "2388": "ma al", "2389": "vi av", "2390": "chi e", "2391": "de ar", "2392": "so en", "2393": "d\u2019 ab", "2394": "li on", "2395": "fu ap", "2396": "ce av", "2397": "li av", "2398": "le of", "2399": "ze et", "2400": "gli u", "2401": "ta eu", "2402": "ra es", "2403": "ve at", "2404": "na af", "2405": "vi in", "2406": "de au", "2407": "bre o", "2408": "se op", "2409": "schia", "2410": "l\u2019 uo", "2411": "le \u2019m", "2412": "ri al", "2413": "li er", "2414": "ha \u2019n", "2415": "li ac", "2416": "li uo", "2417": "me as", "2418": "ch\u2019 a", "2419": "si as", "2420": "fa az", "2421": "pra a", "2422": "cro a", "2423": "t\u2019 an", "2424": "ma in", "2425": "co ad", "2426": "si ar", "2427": "l\u2019 er", "2428": "mi in", "2429": "ra an", "2430": "di az", "2431": "ghiot", "2432": "be al", "2433": "d\u2019 au", "2434": "ti of", "2435": "qua e", "2436": "mi al", "2437": "n\u2019 er", "2438": "le av", "2439": "l\u2019 ar", "2440": "t\u2019 av", "2441": "to or", "2442": "va im", "2443": "do es", "2444": "ri ap", "2445": "la \u2019n", "2446": "n\u2019 on", "2447": "mo ec", "2448": "te or", "2449": "z\u2019 al", "2450": "\u2019v\u2019 e", "2451": "gno a", "2452": "zi ag", "2453": "so ap", "2454": "d\u2019 en", "2455": "ne im", "2456": "schiu", "2457": "sa in", "2458": "te \u2019n", "2459": "l\u2019 ol", "2460": "de er", "2461": "di an", "2462": "de ap", "2463": "ro av", "2464": "do im", "2465": "d\u2019 ol", "2466": "sciar", "2467": "li at", "2468": "glian", "2469": "l\u2019 ai", "2470": "r\u2019 el", "2471": "m\u2019 af", "2472": "sta i", "2473": "strar", "2474": "to ov", "2475": "s\u2019 av", "2476": "vi of", "2477": "ci af", "2478": "na ab", "2479": "ge et", "2480": "sa on", "2481": "mi am", "2482": "d\u2019 of", "2483": "de \u2019n", "2484": "strel", "2485": "sbe a", "2486": "lo \u2019n", "2487": "l\u2019 on", "2488": "le al", "2489": "ra av", "2490": "cia o", "2491": "ro um", "2492": "ta et", "2493": "ro ab", "2494": "no er", "2495": "streg", "2496": "la av", "2497": "ra ec", "2498": "na \u2019n", "2499": "te as", "2500": "s\u2019 ap", "2501": "l\u2019 eb", "2502": "pie e", "2503": "ta of", "2504": "fu in", "2505": "ia al", "2506": "to ap", "2507": "lo eb", "2508": "lo av", "2509": "no \u2019n", "2510": "st\u2019 a", "2511": "vo al", "2512": "v\u2019 es", "2513": "te os", "2514": "ce eu", "2515": "ve es", "2516": "na in", "2517": "n\u2019 ar", "2518": "\u2019v\u2019 u", "2519": "d\u2019 az", "2520": "lo an", "2521": "ti oc", "2522": "ci av", "2523": "cio a", "2524": "ta ar", "2525": "sa es", "2526": "na eb", "2527": "le ol", "2528": "ce as", "2529": "gno u", "2530": "re ar", "2531": "n\u2019 ag", "2532": "ne ag", "2533": "c\u2019 im", "2534": "se ac", "2535": "d\u2019 am", "2536": "ta im", "2537": "vo an", "2538": "fo im", "2539": "lo on", "2540": "n\u2019 in", "2541": "te em", "2542": "r\u2019 es", "2543": "le oc", "2544": "di im", "2545": "le at", "2546": "mo eb", "2547": "c\u2019 en", "2548": "t\u2019 af", "2549": "la ol", "2550": "zi \u2019m", "2551": "ti an", "2552": "strat", "2553": "se at", "2554": "se on", "2555": "si en", "2556": "co er", "2557": "me at", "2558": "li al", "2559": "rio a", "2560": "s\u2019 ar", "2561": "sfran", "2562": "no ad", "2563": "re ad", "2564": "zia il", "2565": "chi al", "2566": "gh\u2019 es", "2567": "gni an", "2568": "sti es", "2569": "tra ef", "2570": "bra av", "2571": "m\u2019 han", "2572": "tro as", "2573": "gne in", "2574": "sco al", "2575": "tro ap", "2576": "st\u2019 ot", "2577": "tre os", "2578": "dre es", "2579": "tro ab", "2580": "vea \u2019m", "2581": "bri ap", "2582": "tri of", "2583": "gia in", "2584": "zie ec", "2585": "cio al", "2586": "sma in", "2587": "chi ap", "2588": "gne ac", "2589": "vio in", "2590": "ch\u2019 in", "2591": "gne im", "2592": "tro im", "2593": "sti av", "2594": "gne uo", "2595": "tro av", "2596": "chio u", "2597": "che om", "2598": "sta ol", "2599": "stro o", "2600": "gno ae", "2601": "st\u2019 ar", "2602": "vi \u00e8 a", "2603": "ch\u2019 ac", "2604": "tro ar", "2605": "tr\u2019 om", "2606": "ch\u2019 en", "2607": "sto al", "2608": "bra in", "2609": "tro of", "2610": "sta og", "2611": "gia ar", "2612": "chi am", "2613": "sto at", "2614": "d\u2019 han", "2615": "che \u2019m", "2616": "sta ai", "2617": "sta in", "2618": "che ha", "2619": "cio an", "2620": "sce el", "2621": "tro et", "2622": "ch\u2019 es", "2623": "chi ar", "2624": "tre an", "2625": "ch\u2019 ap", "2626": "ch\u2019 eb", "2627": "che an", "2628": "ch\u2019 am", "2629": "co e i", "2630": "lio as", "2631": "gio in", "2632": "ch\u00e9 ap", "2633": "gno am", "2634": "mio \u2019n", "2635": "stri o", "2636": "qu\u2019 an", "2637": "dre eb", "2638": "tro al", "2639": "ch\u2019 at", "2640": "stra e", "2641": "sto ac", "2642": "chi in", "2643": "l\u2019 han", "2644": "che in", "2645": "st\u2019 al", "2646": "cia on", "2647": "str\u2019 u", "2648": "tra \u2019m", "2649": "bre an", "2650": "pr\u2019 ar", "2651": "sce as", "2652": "sto in", "2653": "tri in", "2654": "zia on", "2655": "tr\u2019 am", "2656": "gio uc", "2657": "cio et", "2658": "dia as", "2659": "ghe on", "2660": "st\u2019 an", "2661": "tro an", "2662": "gne ef", "2663": "gno in", "2664": "ti han", "2665": "ch\u2019 ag", "2666": "gno af", "2667": "scia e", "2668": "re e a", "2669": "tri ap", "2670": "sti un", "2671": "pre at", "2672": "gi\u00e0 in", "2673": "sio in", "2674": "st\u2019 of", "2675": "sti an", "2676": "glia o", "2677": "sto ar", "2678": "chi an", "2679": "stro e", "2680": "schiet", "2681": "qua on", "2682": "stra u", "2683": "gne er", "2684": "schian", "2685": "pre ar", "2686": "mia in", "2687": "sti er", "2688": "zia or", "2689": "gue an", "2690": "tro on", "2691": "ch\u2019 er", "2692": "tri as", "2693": "tri af", "2694": "ch\u2019 an", "2695": "gio ol", "2696": "sto an", "2697": "tro in", "2698": "ria in", "2699": "che ar", "2700": "dre al", "2701": "sta im", "2702": "mio in", "2703": "lia an", "2704": "lio in", "2705": "pre ac", "2706": "sto \u2019m", "2707": "glia a", "2708": "ria of", "2709": "stri a", "2710": "ch\u2019 as", "2711": "pi\u00f9 \u2019n", "2712": "tri es", "2713": "sti on", "2714": "go han", "2715": "scio e", "2716": "qua of", "2717": "stro u", "2718": "ch\u2019 el", "2719": "pio on", "2720": "stra i", "2721": "que al", "2722": "sti el", "2723": "lio an", "2724": "sta an", "2725": "sto ap", "2726": "nio im", "2727": "pre in", "2728": "che \u2019n", "2729": "ria on", "2730": "cio as", "2731": "n\u2019 han", "2732": "ste an", "2733": "sce an", "2734": "gne al", "2735": "qua in", "2736": "chi ac", "2737": "ne han", "2738": "chi on", "2739": "sce al", "2740": "ch\u2019 og", "2741": "suo im", "2742": "bia in", "2743": "pre es", "2744": "sco an", "2745": "gue on", "2746": "sto im", "2747": "cio ap", "2748": "bia an", "2749": "gno al", "2750": "te han", "2751": "mia \u2019n", "2752": "qua im", "2753": "sto on", "2754": "tr\u2019 al", "2755": "st\u2019 es", "2756": "sti or", "2757": "gia al", "2758": "ch\u2019 ab", "2759": "gio et", "2760": "gio on", "2761": "ste in", "2762": "bre in", "2763": "ch\u2019 av", "2764": "dre an", "2765": "cia ar", "2766": "tro ac", "2767": "dre as", "2768": "rio an", "2769": "ch\u2019 ar", "2770": "sto \u2019n", "2771": "tr\u2019 ar", "2772": "stra a", "2773": "pie or", "2774": "sta al", "2775": "sto es", "2776": "c\u2019 han", "2777": "chio o", "2778": "ch\u00e9 in", "2779": "ri han", "2780": "gni al", "2781": "pi\u00f9 ap", "2782": "tro \u2019m", "2783": "ch\u2019 et", "2784": "tra op", "2785": "tra an", "2786": "st\u2019 in", "2787": "sto of", "2788": "li han", "2789": "pi\u00f9 in", "2790": "st\u2019 ul", "2791": "cia im", "2792": "chi af", "2793": "gue or", "2794": "ch\u2019 ad", "2795": "ch\u2019 al", "2796": "tre in", "2797": "bre et", "2798": "glio u", "2799": "schiat", "2800": "sti in", "2801": "stro a", "2802": "que es", "2803": "st\u2019 ac", "2804": "glia u", "2805": "tra av", "2806": "ch\u2019 or", "2807": "chio a", "2808": "sti al", "2809": "sti oc", "2810": "gna in", "2811": "l\u2019 \u00e8 u", "2812": "pre al", "2813": "glio o", "2814": "t\u2019 han", "2815": "che op", "2816": "gna as", "2817": "glio e", "2818": "cie in", "2819": "ch\u00e9 as", "2820": "chio in", "2821": "mi smar", "2822": "glio on", "2823": "glia al", "2824": "d\u2019 i\u2019 a", "2825": "stro an", "2826": "stro al", "2827": "lo e \u2019n", "2828": "stro av", "2829": "chie et", "2830": "chia an", "2831": "glie eb", "2832": "glia as", "2833": "glie al", "2834": "stro eb", "2835": "stro im", "2836": "glie an", "2837": "chio an", "2838": "stri al", "2839": "li \u00e8 in", "2840": "stro uc", "2841": "glia ac", "2842": "str\u2019 or", "2843": "str\u2019 ar", "2844": "glio as", "2845": "sche ab", "2846": "ti e \u2019n", "2847": "stra ef", "2848": "stra ap", "2849": "stri at", "2850": "glia in", "2851": "glio in", "2852": "si e \u2019n", "2853": "glia es", "2854": "stre in", "2855": "chio at", "2856": "ti e ar", "2857": "n\u2019 \u00e8 im", "2858": "stro in", "2859": "stro es", "2860": "stri af", "2861": "re a \u2019n", "2862": "trio al", "2863": "sche er", "2864": "stro as", "2865": "stri an", "2866": "scia an", "2867": "stri av", "2868": "stra in", "2869": "glio an", "2870": "stro ac", "2871": "stro oc", "2872": "za e in", "2873": "scia al", "2874": "glio es", "2875": "chia of", "2876": "stri ef", "2877": "dio han", "2878": "sti a \u2019n", "2879": "t\u2019 ho in", "2880": "ch\u2019 e\u2019 \u2019n", "2881": "ch\u2019 io \u2019n", "2882": "\u00f9 ", "2883": "\u00ef ", "2884": "\u00e8 ", "2885": "d ", "2886": "i ", "2887": "o ", "2888": "p ", "2889": "e ", "2890": "a ", "2891": "l ", "2892": "\u00f2 ", "2893": "\u00ec ", "2894": "l\u00ec ", "2895": "di ", "2896": "ni ", "2897": "za ", "2898": "ta ", "2899": "or ", "2900": "ri ", "2901": "n\u00ec ", "2902": "ba ", "2903": "to ", "2904": "ti ", "2905": "ci ", "2906": "pa ", "2907": "va ", "2908": "re ", "2909": "b\u00f2 ", "2910": "no ", "2911": "n\u00e0 ", "2912": "bi ", "2913": "t\u00ec ", "2914": "co ", "2915": "as ", "2916": "s\u00f2 ", "2917": "na ", "2918": "d\u00e9 ", "2919": "ve ", "2920": "\u00f3n ", "2921": "r\u00ec ", "2922": "d\u00f2 ", "2923": "\u00e9n ", "2924": "\u00f2n ", "2925": "c\u00e8 ", "2926": "s\u00e9 ", "2927": "fu ", "2928": "n\u00f2 ", "2929": "ra ", "2930": "ca ", "2931": "\u00f2s ", "2932": "in ", "2933": "ed ", "2934": "te ", "2935": "fi ", "2936": "go ", "2937": "z\u00f2 ", "2938": "\u00e8e ", "2939": "ab ", "2940": "s\u00e8 ", "2941": "n\u00e8 ", "2942": "r\u00e0 ", "2943": "un ", "2944": "la ", "2945": "bo ", "2946": "m\u00f2 ", "2947": "be ", "2948": "ar ", "2949": "ne ", "2950": "f\u00f2 ", "2951": "a\u2019 ", "2952": "od ", "2953": "v\u00ec ", "2954": "fo ", "2955": "lo ", "2956": "\u00e0s ", "2957": "om ", "2958": "n\u00e9 ", "2959": "ze ", "2960": "hi ", "2961": "os ", "2962": "p\u00f2 ", "2963": "t\u00e8 ", "2964": "da ", "2965": "el ", "2966": "ae ", "2967": "ho ", "2968": "et ", "2969": "\u00e8l ", "2970": "c\u00e9 ", "2971": "pe ", "2972": "ai ", "2973": "ie ", "2974": "f\u00e9 ", "2975": "ro ", "2976": "t\u00f9 ", "2977": "f\u00e0 ", "2978": "ge ", "2979": "t\u00e9 ", "2980": "m\u00e8 ", "2981": "b\u00e8 ", "2982": "an ", "2983": "ei ", "2984": "fe ", "2985": "c\u00f2 ", "2986": "ir ", "2987": "pi ", "2988": "\u00f9l ", "2989": "u\u2019 ", "2990": "ha ", "2991": "l\u00f2 ", "2992": "b\u00ec ", "2993": "\u00e0r ", "2994": "us ", "2995": "oh ", "2996": "i\u2019 ", "2997": "sa ", "2998": "g\u00f2 ", "2999": "se ", "3000": "t\u00f2 ", "3001": "de ", "3002": "zi ", "3003": "r\u00f2 ", "3004": "d\u00e0 ", "3005": "vo ", "3006": "d\u00ec ", "3007": "gi ", "3008": "l\u00e0 ", "3009": "ga ", "3010": "tu ", "3011": "su ", "3012": "ia ", "3013": "io ", "3014": "\u00ecs ", "3015": "ad ", "3016": "po ", "3017": "ma ", "3018": "ce ", "3019": "al ", "3020": "on ", "3021": "t\u00e0 ", "3022": "um ", "3023": "vi ", "3024": "s\u00f9 ", "3025": "mi ", "3026": "b\u00f9 ", "3027": "l\u00e8 ", "3028": "am ", "3029": "zo ", "3030": "\u00e0m ", "3031": "p\u00e8 ", "3032": "me ", "3033": "il ", "3034": "s\u00ec ", "3035": "g\u00ec ", "3036": "le ", "3037": "fa ", "3038": "do ", "3039": "li ", "3040": "mo ", "3041": "so ", "3042": "e\u2019 ", "3043": "v\u00f2 ", "3044": "si ", "3045": "tre ", "3046": "ga\u2019 ", "3047": "che ", "3048": "pra ", "3049": "per ", "3050": "rum ", "3051": "cea ", "3052": "sia ", "3053": "sei ", "3054": "cro ", "3055": "na\u2019 ", "3056": "pii ", "3057": "nei ", "3058": "bus ", "3059": "bra ", "3060": "rio ", "3061": "rii ", "3062": "mor ", "3063": "ria ", "3064": "l\u00eco ", "3065": "tr\u00e0 ", "3066": "rin ", "3067": "fal ", "3068": "fui ", "3069": "can ", "3070": "dur ", "3071": "mia ", "3072": "tii ", "3073": "dai ", "3074": "bre ", "3075": "ve\u2019 ", "3076": "deo ", "3077": "d\u00e8i ", "3078": "pie ", "3079": "cri ", "3080": "tir ", "3081": "ton ", "3082": "l\u00f2n ", "3083": "fei ", "3084": "dal ", "3085": "da\u2019 ", "3086": "ni\u2019 ", "3087": "vo\u2019 ", "3088": "ter ", "3089": "fie ", "3090": "gel ", "3091": "cu\u2019 ", "3092": "vem ", "3093": "non ", "3094": "tra ", "3095": "mil ", "3096": "ceo ", "3097": "pi\u00f9 ", "3098": "ier ", "3099": "ler ", "3100": "rua ", "3101": "sa\u2019 ", "3102": "gol ", "3103": "st\u00f2 ", "3104": "dra ", "3105": "n\u00e8s ", "3106": "ri\u2019 ", "3107": "dia ", "3108": "man ", "3109": "via ", "3110": "bel ", "3111": "f\u00e0t ", "3112": "dee ", "3113": "c\u00f2l ", "3114": "dr\u00e0 ", "3115": "gne ", "3116": "gno ", "3117": "sol ", "3118": "me\u2019 ", "3119": "n\u00ect ", "3120": "clo ", "3121": "gna ", "3122": "cul ", "3123": "di\u2019 ", "3124": "pr\u00ec ", "3125": "fon ", "3126": "sun ", "3127": "cun ", "3128": "ci\u00f2 ", "3129": "gir ", "3130": "ne\u2019 ", "3131": "dar ", "3132": "r\u00f3n ", "3133": "mar ", "3134": "uom ", "3135": "sel ", "3136": "t\u00f3n ", "3137": "pin ", "3138": "zio ", "3139": "gio ", "3140": "gni ", "3141": "qua ", "3142": "b\u00eca ", "3143": "vio ", "3144": "cie ", "3145": "vel ", "3146": "vei ", "3147": "zii ", "3148": "suo ", "3149": "gue ", "3150": "val ", "3151": "pon ", "3152": "han ", "3153": "lar ", "3154": "sta ", "3155": "\u00f2th ", "3156": "ril ", "3157": "r\u00ece ", "3158": "cle ", "3159": "st\u00e0 ", "3160": "ser ", "3161": "rar ", "3162": "e i ", "3163": "plo ", "3164": "fue ", "3165": "ben ", "3166": "dem ", "3167": "rea ", "3168": "nis ", "3169": "tal ", "3170": "ban ", "3171": "n\u00f2s ", "3172": "dua ", "3173": "tuo ", "3174": "va\u2019 ", "3175": "bue ", "3176": "tar ", "3177": "gai ", "3178": "pea ", "3179": "a i ", "3180": "nor ", "3181": "tei ", "3182": "dor ", "3183": "ion ", "3184": "fi\u00f2 ", "3185": "sio ", "3186": "mum ", "3187": "re\u2019 ", "3188": "vil ", "3189": "lie ", "3190": "don ", "3191": "dr\u00ec ", "3192": "m\u00ecs ", "3193": "lis ", "3194": "pri ", "3195": "nel ", "3196": "rir ", "3197": "cur ", "3198": "pir ", "3199": "n\u00eca ", "3200": "sor ", "3201": "l\u00eca ", "3202": "vos ", "3203": "von ", "3204": "lan ", "3205": "pal ", "3206": "ces ", "3207": "teo ", "3208": "su\u2019 ", "3209": "sai ", "3210": "ree ", "3211": "meo ", "3212": "c\u00f2b ", "3213": "co\u2019 ", "3214": "vea ", "3215": "gri ", "3216": "cis ", "3217": "sin ", "3218": "der ", "3219": "seo ", "3220": "mai ", "3221": "m\u00eca ", "3222": "rai ", "3223": "lin ", "3224": "f\u00e8l ", "3225": "lai ", "3226": "d\u00eca ", "3227": "zai ", "3228": "bi\u00f2 ", "3229": "mas ", "3230": "poi ", "3231": "ber ", "3232": "n\u00ece ", "3233": "ra\u2019 ", "3234": "tr\u00f2 ", "3235": "joi ", "3236": "dil ", "3237": "nie ", "3238": "cel ", "3239": "t\u00f2n ", "3240": "til ", "3241": "cia ", "3242": "bor ", "3243": "g\u00f3r ", "3244": "pro ", "3245": "feo ", "3246": "smi ", "3247": "pol ", "3248": "sal ", "3249": "tem ", "3250": "tri ", "3251": "tum ", "3252": "for ", "3253": "f\u00e9e ", "3254": "tui ", "3255": "reo ", "3256": "son ", "3257": "dir ", "3258": "t\u00f2r ", "3259": "mea ", "3260": "san ", "3261": "bon ", "3262": "bri ", "3263": "ges ", "3264": "ta\u2019 ", "3265": "gu\u00ec ", "3266": "ghi ", "3267": "nai ", "3268": "nem ", "3269": "pel ", "3270": "fin ", "3271": "pi\u00e9 ", "3272": "ron ", "3273": "vra ", "3274": "spe ", "3275": "pan ", "3276": "ten ", "3277": "cra ", "3278": "nol ", "3279": "cen ", "3280": "rei ", "3281": "nar ", "3282": "gu\u00f2 ", "3283": "var ", "3284": "ean ", "3285": "hai ", "3286": "res ", "3287": "g\u00f3n ", "3288": "vin ", "3289": "bro ", "3290": "ram ", "3291": "sit ", "3292": "st\u00e9 ", "3293": "dr\u00f2 ", "3294": "t\u00e8s ", "3295": "no\u2019 ", "3296": "bei ", "3297": "tai ", "3298": "sub ", "3299": "lee ", "3300": "cui ", "3301": "gru ", "3302": "p\u00eca ", "3303": "fur ", "3304": "ghe ", "3305": "gli ", "3306": "lem ", "3307": "ger ", "3308": "mae ", "3309": "pei ", "3310": "vie ", "3311": "lon ", "3312": "con ", "3313": "men ", "3314": "pre ", "3315": "lir ", "3316": "tol ", "3317": "dri ", "3318": "tro ", "3319": "lio ", "3320": "neo ", "3321": "pur ", "3322": "gre ", "3323": "rer ", "3324": "t\u00e9r ", "3325": "sti ", "3326": "zia ", "3327": "col ", "3328": "cio ", "3329": "dio ", "3330": "ner ", "3331": "la\u2019 ", "3332": "gi\u00f9 ", "3333": "zon ", "3334": "c\u00e0n ", "3335": "zar ", "3336": "bol ", "3337": "fai ", "3338": "gis ", "3339": "sis ", "3340": "cor ", "3341": "fer ", "3342": "smo ", "3343": "f\u00e0s ", "3344": "bil ", "3345": "gea ", "3346": "tia ", "3347": "mie ", "3348": "e \u2019 ", "3349": "dea ", "3350": "tue ", "3351": "sen ", "3352": "s\u00f9e ", "3353": "rui ", "3354": "fu\u2019 ", "3355": "se\u2019 ", "3356": "cai ", "3357": "te\u2019 ", "3358": "nha ", "3359": "pio ", "3360": "tua ", "3361": "nio ", "3362": "ti\u2019 ", "3363": "tor ", "3364": "gei ", "3365": "tan ", "3366": "fan ", "3367": "a a ", "3368": "mei ", "3369": "peo ", "3370": "pi\u00e8 ", "3371": "za\u2019 ", "3372": "bir ", "3373": "cer ", "3374": "ver ", "3375": "mio ", "3376": "gan ", "3377": "ste ", "3378": "cre ", "3379": "sma ", "3380": "d\u00ect ", "3381": "mii ", "3382": "tun ", "3383": "ros ", "3384": "cem ", "3385": "gua ", "3386": "b\u00e0l ", "3387": "nia ", "3388": "t\u00e0n ", "3389": "st\u00ec ", "3390": "lui ", "3391": "mul ", "3392": "r\u00ecb ", "3393": "num ", "3394": "lor ", "3395": "nin ", "3396": "sco ", "3397": "car ", "3398": "tea ", "3399": "bui ", "3400": "bar ", "3401": "rel ", "3402": "van ", "3403": "gal ", "3404": "ahi ", "3405": "lu\u2019 ", "3406": "est ", "3407": "nil ", "3408": "dre ", "3409": "di\u00e8 ", "3410": "beo ", "3411": "d\u00ece ", "3412": "o e ", "3413": "sie ", "3414": "de\u2019 ", "3415": "mer ", "3416": "vol ", "3417": "p\u00f2s ", "3418": "pr\u00e0 ", "3419": "lei ", "3420": "vai ", "3421": "cal ", "3422": "gi\u2019 ", "3423": "fia ", "3424": "qui ", "3425": "noi ", "3426": "gar ", "3427": "sc\u00ec ", "3428": "\u2018te ", "3429": "n\u00f2i ", "3430": "sce ", "3431": "voi ", "3432": "sca ", "3433": "duo ", "3434": "gia ", "3435": "tin ", "3436": "gon ", "3437": "sii ", "3438": "far ", "3439": "lia ", "3440": "l\u00e8m ", "3441": "mus ", "3442": "tel ", "3443": "sua ", "3444": "pu\u00f2 ", "3445": "dii ", "3446": "cut ", "3447": "nan ", "3448": "sue ", "3449": "cei ", "3450": "tes ", "3451": "del ", "3452": "gin ", "3453": "fio ", "3454": "mun ", "3455": "dui ", "3456": "sui ", "3457": "nal ", "3458": "pem ", "3459": "st\u00f9 ", "3460": "ven ", "3461": "pia ", "3462": "vii ", "3463": "rem ", "3464": "fi\u2019 ", "3465": "mal ", "3466": "fil ", "3467": "sci ", "3468": "r\u00ecs ", "3469": "du\u2019 ", "3470": "gi\u00e0 ", "3471": "ran ", "3472": "b\u00e8l ", "3473": "bis ", "3474": "tus ", "3475": "dei ", "3476": "tis ", "3477": "o a ", "3478": "tio ", "3479": "coi ", "3480": "a e ", "3481": "ren ", "3482": "bee ", "3483": "dro ", "3484": "que ", "3485": "s\u00ece ", "3486": "gra ", "3487": "din ", "3488": "som ", "3489": "mi\u2019 ", "3490": "gor ", "3491": "r\u00f2l ", "3492": "sul ", "3493": "ma\u2019 ", "3494": "chi ", "3495": "sir ", "3496": "fe\u2019 ", "3497": "len ", "3498": "gro ", "3499": "spa ", "3500": "\u2019ve ", "3501": "par ", "3502": "cil ", "3503": "sem ", "3504": "des ", "3505": "gui ", "3506": "ror ", "3507": "unt ", "3508": "gi\u00f2 ", "3509": "vau ", "3510": "vam ", "3511": "nea ", "3512": "uo\u2019 ", "3513": "zul ", "3514": "cum ", "3515": "zan ", "3516": "s\u00f3n ", "3517": "sar ", "3518": "por ", "3519": "mee ", "3520": "ian ", "3521": "lea ", "3522": "bio ", "3523": "v\u00ecd ", "3524": "mon ", "3525": "die ", "3526": "due ", "3527": "min ", "3528": "nii ", "3529": "deh ", "3530": "nir ", "3531": "ch\u00e9 ", "3532": "ieu ", "3533": "leo ", "3534": "cin ", "3535": "rie ", "3536": "f\u00f3n ", "3537": "vas ", "3538": "bin ", "3539": "sto ", "3540": "rao ", "3541": "z\u00f2n ", "3542": "dan ", "3543": "bia ", "3544": "zie ", "3545": "ral ", "3546": "fra ", "3547": "dean ", "3548": "cria ", "3549": "blio ", "3550": "blia ", "3551": "fian ", "3552": "chi\u00f2 ", "3553": "svia ", "3554": "pia\u2019 ", "3555": "ne o ", "3556": "ti e ", "3557": "stin ", "3558": "a \u2019l ", "3559": "prei ", "3560": "si e ", "3561": "me a ", "3562": "ghie ", "3563": "cl\u00e8s ", "3564": "piar ", "3565": "tra\u2019 ", "3566": "nien ", "3567": "tran ", "3568": "frui ", "3569": "o un ", "3570": "glio ", "3571": "scea ", "3572": "nier ", "3573": "dail ", "3574": "nian ", "3575": "se a ", "3576": "sie\u2019 ", "3577": "do a ", "3578": "va a ", "3579": "fiar ", "3580": "gnon ", "3581": "ri e ", "3582": "se i ", "3583": "brio ", "3584": "pien ", "3585": "vuoi ", "3586": "vi \u00e8 ", "3587": "sa o ", "3588": "breo ", "3589": "f\u00e9 i ", "3590": "quei ", "3591": "ca a ", "3592": "vaio ", "3593": "schi ", "3594": "dria ", "3595": "guis ", "3596": "de e ", "3597": "cion ", "3598": "sti\u00f2 ", "3599": "to e ", "3600": "chel ", "3601": "o il ", "3602": "e in ", "3603": "die\u2019 ", "3604": "ched ", "3605": "e \u2019n ", "3606": "fi e ", "3607": "n\u2019 \u00e8 ", "3608": "li o ", "3609": "runt ", "3610": "me \u00e8 ", "3611": "vien ", "3612": "li \u00e8 ", "3613": "d\u2019 \u00e8 ", "3614": "za e ", "3615": "ro e ", "3616": "no a ", "3617": "ce i ", "3618": "le i ", "3619": "de \u00e8 ", "3620": "tria ", "3621": "gual ", "3622": "viam ", "3623": "stea ", "3624": "scio ", "3625": "muor ", "3626": "stil ", "3627": "sci\u2019 ", "3628": "cuor ", "3629": "pa \u00e8 ", "3630": "fuor ", "3631": "la o ", "3632": "naut ", "3633": "gioi ", "3634": "c\u2019 \u00e8 ", "3635": "frir ", "3636": "que\u2019 ", "3637": "gion ", "3638": "to a ", "3639": "c\u00f2th ", "3640": "te o ", "3641": "v\u2019 a ", "3642": "ne a ", "3643": "ne i ", "3644": "mi e ", "3645": "ciol ", "3646": "ti a ", "3647": "te i ", "3648": "tu i ", "3649": "bia\u2019 ", "3650": "sa i ", "3651": "co a ", "3652": "chia ", "3653": "guan ", "3654": "crin ", "3655": "scie ", "3656": "se \u00e8 ", "3657": "quie ", "3658": "va o ", "3659": "te e ", "3660": "gnes ", "3661": "slao ", "3662": "ciai ", "3663": "gnum ", "3664": "ghio ", "3665": "fren ", "3666": "lo \u00e8 ", "3667": "trui ", "3668": "ver\u2019 ", "3669": "gnin ", "3670": "brar ", "3671": "ri a ", "3672": "cheo ", "3673": "biar ", "3674": "re e ", "3675": "da a ", "3676": "bent ", "3677": "trea ", "3678": "bo a ", "3679": "go \u00e8 ", "3680": "bi e ", "3681": "ra i ", "3682": "gnus ", "3683": "\u00e8 il ", "3684": "ma a ", "3685": "di i ", "3686": "fier ", "3687": "va e ", "3688": "quel ", "3689": "ge a ", "3690": "gi a ", "3691": "re \u00e8 ", "3692": "ca \u00e8 ", "3693": "ra a ", "3694": "stei ", "3695": "ciel ", "3696": "na o ", "3697": "sian ", "3698": "giun ", "3699": "ga e ", "3700": "spir ", "3701": "drir ", "3702": "mi i ", "3703": "ti \u00e8 ", "3704": "vian ", "3705": "scir ", "3706": "lo i ", "3707": "quae ", "3708": "suol ", "3709": "rean ", "3710": "br\u00f2t ", "3711": "giar ", "3712": "d\u00ec i ", "3713": "rent ", "3714": "pa e ", "3715": "de i ", "3716": "la \u00e8 ", "3717": "pron ", "3718": "pria ", "3719": "stai ", "3720": "duol ", "3721": "zion ", "3722": "sier ", "3723": "po a ", "3724": "si a ", "3725": "buoi ", "3726": "do e ", "3727": "ci\u00f2l ", "3728": "prec ", "3729": "li e ", "3730": "la e ", "3731": "te a ", "3732": "se e ", "3733": "maio ", "3734": "pian ", "3735": "chin ", "3736": "laia ", "3737": "ti i ", "3738": "ciar ", "3739": "sci\u00f2 ", "3740": "i il ", "3741": "so i ", "3742": "ci \u00e8 ", "3743": "laio ", "3744": "stia ", "3745": "vuo\u2019 ", "3746": "t\u2019 \u00e8 ", "3747": "ve o ", "3748": "fior ", "3749": "to o ", "3750": "ghia ", "3751": "a al ", "3752": "ba e ", "3753": "no i ", "3754": "la a ", "3755": "cian ", "3756": "me i ", "3757": "ce a ", "3758": "no e ", "3759": "maia ", "3760": "glie ", "3761": "ziar ", "3762": "stor ", "3763": "vuol ", "3764": "r\u2019 a ", "3765": "di a ", "3766": "tien ", "3767": "za o ", "3768": "po i ", "3769": "bran ", "3770": "t\u2019 i ", "3771": "giai ", "3772": "su i ", "3773": "quai ", "3774": "ma \u00e8 ", "3775": "io e ", "3776": "ra o ", "3777": "trai ", "3778": "gaio ", "3779": "spro ", "3780": "vi o ", "3781": "po \u00e8 ", "3782": "ne \u00e8 ", "3783": "sien ", "3784": "qual ", "3785": "go o ", "3786": "ni o ", "3787": "lo a ", "3788": "quia ", "3789": "ta e ", "3790": "mo e ", "3791": "giam ", "3792": "va i ", "3793": "da e ", "3794": "m\u2019 \u00e8 ", "3795": "vier ", "3796": "co o ", "3797": "caio ", "3798": "te \u00e8 ", "3799": "co e ", "3800": "tram ", "3801": "me e ", "3802": "ro o ", "3803": "vo e ", "3804": "d\u00e8ch ", "3805": "le a ", "3806": "re o ", "3807": "brei ", "3808": "dier ", "3809": "sche ", "3810": "drel ", "3811": "be i ", "3812": "za \u00e8 ", "3813": "po o ", "3814": "rien ", "3815": "spia ", "3816": "gior ", "3817": "ge \u00e8 ", "3818": "com\u2019 ", "3819": "dien ", "3820": "muoi ", "3821": "go a ", "3822": "ghin ", "3823": "rian ", "3824": "scon ", "3825": "prie ", "3826": "di o ", "3827": "guon ", "3828": "pi\u00e9r ", "3829": "gi e ", "3830": "do o ", "3831": "ghi\u00f2 ", "3832": "ta \u00e8 ", "3833": "diam ", "3834": "gnar ", "3835": "ca e ", "3836": "re i ", "3837": "dron ", "3838": "pier ", "3839": "be a ", "3840": "trei ", "3841": "de a ", "3842": "li a ", "3843": "tuo\u2019 ", "3844": "pe i ", "3845": "bria ", "3846": "ca o ", "3847": "ph\u00e8l ", "3848": "v\u2019 \u00e8 ", "3849": "ma i ", "3850": "gean ", "3851": "nean ", "3852": "saia ", "3853": "bion ", "3854": "tuon ", "3855": "o al ", "3856": "toio ", "3857": "guio ", "3858": "ce o ", "3859": "ri o ", "3860": "luia ", "3861": "bi i ", "3862": "gian ", "3863": "ro \u00e8 ", "3864": "pe e ", "3865": "sunt ", "3866": "ti o ", "3867": "za i ", "3868": "ni \u00e8 ", "3869": "guir ", "3870": "gnel ", "3871": "pri\u2019 ", "3872": "zi a ", "3873": "ve a ", "3874": "s\u2019 a ", "3875": "ve i ", "3876": "e or ", "3877": "za a ", "3878": "stri ", "3879": "ta a ", "3880": "le o ", "3881": "zi \u00e8 ", "3882": "sa a ", "3883": "\u00e8 \u2019n ", "3884": "chie ", "3885": "ni e ", "3886": "stie ", "3887": "mo \u00e8 ", "3888": "naio ", "3889": "guai ", "3890": "di e ", "3891": "lian ", "3892": "quar ", "3893": "nail ", "3894": "zi e ", "3895": "se o ", "3896": "sc\u00eco ", "3897": "fien ", "3898": "to \u00e8 ", "3899": "tuoi ", "3900": "trio ", "3901": "star ", "3902": "i in ", "3903": "pi\u00f9e ", "3904": "gier ", "3905": "trae ", "3906": "stra ", "3907": "cia\u2019 ", "3908": "lien ", "3909": "vria ", "3910": "sa e ", "3911": "gien ", "3912": "prun ", "3913": "a in ", "3914": "suon ", "3915": "ve e ", "3916": "e \u2019l ", "3917": "plor ", "3918": "ze o ", "3919": "stan ", "3920": "tiam ", "3921": "ciam ", "3922": "go e ", "3923": "ma e ", "3924": "vi a ", "3925": "da i ", "3926": "so e ", "3927": "no o ", "3928": "cral ", "3929": "ne e ", "3930": "st\u00f2r ", "3931": "ce e ", "3932": "drai ", "3933": "steo ", "3934": "mo a ", "3935": "st\u00e8r ", "3936": "ro i ", "3937": "gli\u00f2 ", "3938": "vi e ", "3939": "si i ", "3940": "be e ", "3941": "miei ", "3942": "do \u00e8 ", "3943": "l\u2019 \u00e8 ", "3944": "scel ", "3945": "sa \u00e8 ", "3946": "bo e ", "3947": "so a ", "3948": "ge e ", "3949": "o in ", "3950": "tier ", "3951": "o \u2019n ", "3952": "vo a ", "3953": "so o ", "3954": "so \u00e8 ", "3955": "stre ", "3956": "a il ", "3957": "buon ", "3958": "bian ", "3959": "ni a ", "3960": "d\u2019 i ", "3961": "no \u00e8 ", "3962": "po e ", "3963": "la i ", "3964": "pa a ", "3965": "gnia ", "3966": "grue ", "3967": "siam ", "3968": "suoi ", "3969": "drea ", "3970": "gner ", "3971": "trar ", "3972": "puoi ", "3973": "ciul ", "3974": "ta i ", "3975": "sper ", "3976": "s\u00e9 i ", "3977": "zo a ", "3978": "\u00e8 in ", "3979": "\u00e8 \u2019l ", "3980": "ro a ", "3981": "ga a ", "3982": "le e ", "3983": "ci o ", "3984": "bi a ", "3985": "co i ", "3986": "pi e ", "3987": "chio ", "3988": "tree ", "3989": "spri ", "3990": "mi a ", "3991": "glia ", "3992": "quam ", "3993": "prir ", "3994": "tean ", "3995": "plar ", "3996": "ce \u00e8 ", "3997": "ra \u00e8 ", "3998": "scia ", "3999": "cean ", "4000": "re a ", "4001": "fe e ", "4002": "suo\u2019 ", "4003": "guia ", "4004": "co \u00e8 ", "4005": "stel ", "4006": "mo i ", "4007": "gnor ", "4008": "fo \u00e8 ", "4009": "na a ", "4010": "fu a ", "4011": "ta o ", "4012": "na \u00e8 ", "4013": "ga o ", "4014": "scar ", "4015": "tu \u2019 ", "4016": "prai ", "4017": "da o ", "4018": "li i ", "4019": "gi\u00f9e ", "4020": "sfar ", "4021": "zo e ", "4022": "si \u00e8 ", "4023": "mie\u2019 ", "4024": "ci a ", "4025": "pion ", "4026": "ma o ", "4027": "stro ", "4028": "niam ", "4029": "quod ", "4030": "do i ", "4031": "sion ", "4032": "pluo ", "4033": "gran ", "4034": "vean ", "4035": "bree ", "4036": "prio ", "4037": "ci e ", "4038": "na e ", "4039": "stui ", "4040": "l\u00ec \u00e8 ", "4041": "tris ", "4042": "zian ", "4043": "quor ", "4044": "si o ", "4045": "de o ", "4046": "lier ", "4047": "tr\u00e0s ", "4048": "s\u2019 \u00e8 ", "4049": "l\u00e0 i ", "4050": "ra e ", "4051": "riai ", "4052": "grin ", "4053": "scun ", "4054": "gnan ", "4055": "crea ", "4056": "gnun ", "4057": "scer ", "4058": "mian ", "4059": "le \u00e8 ", "4060": "ze e ", "4061": "to i ", "4062": "dra\u2019 ", "4063": "lo e ", "4064": "\u2018qui ", "4065": "str\u00f2 ", "4066": "za il ", "4067": "che i ", "4068": "n\u00f2 \u2019l ", "4069": "ta il ", "4070": "dre e ", "4071": "vi in ", "4072": "ma un ", "4073": "na or ", "4074": "ra ed ", "4075": "ri a\u2019 ", "4076": "su \u2019l ", "4077": "da \u2019l ", "4078": "no in ", "4079": "gno i ", "4080": "l\u2019 ho ", "4081": "zo \u2019l ", "4082": "sto e ", "4083": "zi un ", "4084": "so a\u2019 ", "4085": "te il ", "4086": "me \u2019l ", "4087": "tr\u2019 \u00e8 ", "4088": "ch\u2019 \u00e8 ", "4089": "lo il ", "4090": "ta or ", "4091": "la al ", "4092": "gno \u00e8 ", "4093": "bo in ", "4094": "t\u00ec \u2019l ", "4095": "schio ", "4096": "lo un ", "4097": "bra e ", "4098": "ro od ", "4099": "zo in ", "4100": "m\u2019 io ", "4101": "ta io ", "4102": "si el ", "4103": "no al ", "4104": "cia i ", "4105": "me ed ", "4106": "po in ", "4107": "si il ", "4108": "gua e ", "4109": "va \u2019n ", "4110": "d\u2019 un ", "4111": "da un ", "4112": "re in ", "4113": "ri \u2019l ", "4114": "ci or ", "4115": "ci a\u2019 ", "4116": "cio a ", "4117": "glior ", "4118": "to i\u2019 ", "4119": "stran ", "4120": "ce u\u2019 ", "4121": "sci a ", "4122": "se or ", "4123": "gia \u00e8 ", "4124": "v\u2019 e\u2019 ", "4125": "co il ", "4126": "ria \u2019 ", "4127": "li in ", "4128": "za al ", "4129": "dro e ", "4130": "de un ", "4131": "s\u2019 ei ", "4132": "va io ", "4133": "sciar ", "4134": "ti io ", "4135": "ma \u2019l ", "4136": "do a\u2019 ", "4137": "si ad ", "4138": "pr\u2019 a ", "4139": "fa \u2019l ", "4140": "di or ", "4141": "va ai ", "4142": "mo in ", "4143": "ni il ", "4144": "gi il ", "4145": "so al ", "4146": "se un ", "4147": "ghiar ", "4148": "gi un ", "4149": "stier ", "4150": "de \u2019l ", "4151": "se a\u2019 ", "4152": "sco e ", "4153": "mi in ", "4154": "qua e ", "4155": "dri e ", "4156": "l\u00e0 il ", "4157": "su in ", "4158": "co or ", "4159": "ce ed ", "4160": "te \u2019l ", "4161": "gna \u00e8 ", "4162": "co ad ", "4163": "t\u00f2 \u2019l ", "4164": "s\u2019 e\u2019 ", "4165": "ro ed ", "4166": "no ad ", "4167": "glier ", "4168": "gliel ", "4169": "zio \u00e8 ", "4170": "me ai ", "4171": "ta ha ", "4172": "ti ai ", "4173": "te i\u2019 ", "4174": "di ed ", "4175": "ra \u2019l ", "4176": "sti e ", "4177": "za or ", "4178": "ha \u2019l ", "4179": "cia a ", "4180": "va un ", "4181": "sta e ", "4182": "se \u2019l ", "4183": "ge in ", "4184": "gia e ", "4185": "na al ", "4186": "no ei ", "4187": "no ai ", "4188": "si u\u2019 ", "4189": "po ed ", "4190": "gli e ", "4191": "le ad ", "4192": "ce al ", "4193": "ge al ", "4194": "ge il ", "4195": "strai ", "4196": "ce a\u2019 ", "4197": "so in ", "4198": "ne ha ", "4199": "pi un ", "4200": "ge ad ", "4201": "ste a ", "4202": "di ha ", "4203": "pra e ", "4204": "si \u2019l ", "4205": "gna e ", "4206": "mo un ", "4207": "do ha ", "4208": "te ai ", "4209": "gue e ", "4210": "to \u2019n ", "4211": "lo al ", "4212": "sti a ", "4213": "pio a ", "4214": "st\u2019 \u00e8 ", "4215": "dre a ", "4216": "di in ", "4217": "r\u2019 io ", "4218": "le al ", "4219": "va al ", "4220": "pi in ", "4221": "mi ed ", "4222": "ci il ", "4223": "stian ", "4224": "li ei ", "4225": "ria o ", "4226": "pe ad ", "4227": "zi \u2019l ", "4228": "ro il ", "4229": "s\u00ec \u2019l ", "4230": "g\u00ec \u2019l ", "4231": "zi ai ", "4232": "ro in ", "4233": "t\u2019 ho ", "4234": "lio e ", "4235": "vo in ", "4236": "se ho ", "4237": "que e ", "4238": "de ad ", "4239": "mo ha ", "4240": "t\u00f2 un ", "4241": "to or ", "4242": "ro or ", "4243": "me \u2019n ", "4244": "tro \u00e8 ", "4245": "zia \u00e8 ", "4246": "ti ed ", "4247": "ch\u00e9 a ", "4248": "ri in ", "4249": "sta a ", "4250": "lo ad ", "4251": "tra \u2019 ", "4252": "to io ", "4253": "sce e ", "4254": "na un ", "4255": "ti un ", "4256": "ghe e ", "4257": "gua a ", "4258": "ra il ", "4259": "sa \u2019l ", "4260": "dro o ", "4261": "pa ed ", "4262": "le un ", "4263": "sti o ", "4264": "c\u2019 ho ", "4265": "le ha ", "4266": "chion ", "4267": "pa ho ", "4268": "sciai ", "4269": "stial ", "4270": "sto a ", "4271": "li ha ", "4272": "sa il ", "4273": "gi\u00e0 i ", "4274": "lo ed ", "4275": "mo ed ", "4276": "v\u2019 or ", "4277": "ro a\u2019 ", "4278": "to il ", "4279": "re ad ", "4280": "ra al ", "4281": "po ha ", "4282": "re ho ", "4283": "li io ", "4284": "pre a ", "4285": "re ha ", "4286": "ma il ", "4287": "t\u2019 el ", "4288": "praia ", "4289": "de al ", "4290": "ria i ", "4291": "puesc ", "4292": "do al ", "4293": "ra \u2019n ", "4294": "que a ", "4295": "do ed ", "4296": "gluol ", "4297": "so \u00e8e ", "4298": "mi il ", "4299": "ra a\u2019 ", "4300": "d\u2019 i\u2019 ", "4301": "lo ha ", "4302": "mi al ", "4303": "g\u2019 io ", "4304": "se in ", "4305": "sce a ", "4306": "sta o ", "4307": "za in ", "4308": "mi a\u2019 ", "4309": "no a\u2019 ", "4310": "be un ", "4311": "da io ", "4312": "be or ", "4313": "bi in ", "4314": "va ed ", "4315": "rio e ", "4316": "bre e ", "4317": "m\u2019 ha ", "4318": "ma a\u2019 ", "4319": "bra a ", "4320": "re ed ", "4321": "ne in ", "4322": "za i\u2019 ", "4323": "se il ", "4324": "sto \u00e8 ", "4325": "tri a ", "4326": "sia e ", "4327": "l\u2019 om ", "4328": "re un ", "4329": "na ed ", "4330": "ne il ", "4331": "ro i\u2019 ", "4332": "gnaio ", "4333": "di un ", "4334": "ca al ", "4335": "qua o ", "4336": "le i\u2019 ", "4337": "zia a ", "4338": "gno a ", "4339": "tro e ", "4340": "di \u2019l ", "4341": "t\u00e9 \u2019l ", "4342": "ne ai ", "4343": "sco i ", "4344": "te ha ", "4345": "re a\u2019 ", "4346": "lo in ", "4347": "sa un ", "4348": "te \u2019n ", "4349": "ia ed ", "4350": "le io ", "4351": "ti a\u2019 ", "4352": "to un ", "4353": "ia oh ", "4354": "se al ", "4355": "zi il ", "4356": "zo il ", "4357": "li i\u2019 ", "4358": "no ed ", "4359": "che \u2019 ", "4360": "co i\u2019 ", "4361": "gio e ", "4362": "d\u2019 ir ", "4363": "pri a ", "4364": "d\u2019 io ", "4365": "staio ", "4366": "da in ", "4367": "do in ", "4368": "sce i ", "4369": "ti \u2019l ", "4370": "se e\u2019 ", "4371": "p\u2019 io ", "4372": "v\u2019 io ", "4373": "zia e ", "4374": "n\u00e9 \u2019l ", "4375": "pa in ", "4376": "na ad ", "4377": "qua a ", "4378": "gia a ", "4379": "ti al ", "4380": "ga in ", "4381": "se ad ", "4382": "me io ", "4383": "ve in ", "4384": "ne al ", "4385": "glien ", "4386": "ri al ", "4387": "ge or ", "4388": "le or ", "4389": "l\u00e0 \u2019l ", "4390": "che a ", "4391": "to ad ", "4392": "gue a ", "4393": "bi \u2019l ", "4394": "ro un ", "4395": "sa ad ", "4396": "rio a ", "4397": "di il ", "4398": "gna i ", "4399": "tri e ", "4400": "no ha ", "4401": "gliea ", "4402": "ti ei ", "4403": "po il ", "4404": "ge un ", "4405": "ne ed ", "4406": "ve al ", "4407": "re al ", "4408": "co io ", "4409": "lia e ", "4410": "ni or ", "4411": "bo a\u2019 ", "4412": "lio a ", "4413": "ra ha ", "4414": "vrien ", "4415": "pe \u2019l ", "4416": "co u\u2019 ", "4417": "se i\u2019 ", "4418": "za ha ", "4419": "ra un ", "4420": "dio e ", "4421": "mi \u2019l ", "4422": "li un ", "4423": "ma io ", "4424": "zo al ", "4425": "ro al ", "4426": "cia o ", "4427": "so un ", "4428": "ghe a ", "4429": "no i\u2019 ", "4430": "dia i ", "4431": "tro a ", "4432": "ta ho ", "4433": "que \u00e8 ", "4434": "v\u2019 ha ", "4435": "me al ", "4436": "v\u00f2 \u2019l ", "4437": "t\u2019 i\u2019 ", "4438": "ni \u2019l ", "4439": "li ad ", "4440": "ia il ", "4441": "s\u2019 i\u2019 ", "4442": "te ed ", "4443": "zio a ", "4444": "d\u2019 el ", "4445": "ci \u2019l ", "4446": "v\u2019 el ", "4447": "v\u2019 ho ", "4448": "gue \u00e8 ", "4449": "fo or ", "4450": "stion ", "4451": "vi \u2019l ", "4452": "ha in ", "4453": "va or ", "4454": "da i\u2019 ", "4455": "re or ", "4456": "za ed ", "4457": "be ed ", "4458": "gio o ", "4459": "dro a ", "4460": "gna o ", "4461": "me ad ", "4462": "t\u2019 om ", "4463": "bre a ", "4464": "ne \u2019l ", "4465": "gno e ", "4466": "pio e ", "4467": "\u2019v\u2019 \u00e8 ", "4468": "n\u2019 ha ", "4469": "zi or ", "4470": "glion ", "4471": "re ir ", "4472": "so \u2019l ", "4473": "mo il ", "4474": "ba il ", "4475": "z\u00f2 il ", "4476": "sio e ", "4477": "lio \u00e8 ", "4478": "ta \u2019l ", "4479": "ti il ", "4480": "pri e ", "4481": "lo a\u2019 ", "4482": "mi un ", "4483": "mia e ", "4484": "na \u2019n ", "4485": "va a\u2019 ", "4486": "so ad ", "4487": "d\u2019 e\u2019 ", "4488": "te in ", "4489": "ta in ", "4490": "ce il ", "4491": "r\u00ec \u2019l ", "4492": "go \u2019l ", "4493": "ge ai ", "4494": "s\u2019 el ", "4495": "bro \u00e8 ", "4496": "ia in ", "4497": "to al ", "4498": "r\u00f2 \u2019l ", "4499": "ch\u2019 a ", "4500": "na in ", "4501": "ca in ", "4502": "de ed ", "4503": "me un ", "4504": "di \u00e8e ", "4505": "na ei ", "4506": "te or ", "4507": "v\u2019 \u00e8n ", "4508": "fu \u2019l ", "4509": "ve il ", "4510": "mi ad ", "4511": "va il ", "4512": "ve \u2019l ", "4513": "mo al ", "4514": "ra in ", "4515": "to ir ", "4516": "sta \u00e8 ", "4517": "la \u2019l ", "4518": "ste e ", "4519": "tu \u2019l ", "4520": "re \u2019n ", "4521": "lo or ", "4522": "ne ad ", "4523": "pa \u2019l ", "4524": "tra e ", "4525": "no un ", "4526": "ste i ", "4527": "va \u2019l ", "4528": "ci in ", "4529": "te a\u2019 ", "4530": "ti in ", "4531": "z\u00f2 \u2019l ", "4532": "te ho ", "4533": "ce in ", "4534": "di io ", "4535": "gni a ", "4536": "ti \u2019n ", "4537": "zi ad ", "4538": "ria a ", "4539": "mo ei ", "4540": "za \u2019l ", "4541": "ta ad ", "4542": "to ha ", "4543": "ra or ", "4544": "co a\u2019 ", "4545": "gra o ", "4546": "chian ", "4547": "po io ", "4548": "ve a\u2019 ", "4549": "stral ", "4550": "ve ad ", "4551": "da or ", "4552": "li al ", "4553": "le il ", "4554": "se io ", "4555": "s\u00e9 in ", "4556": "za oh ", "4557": "li \u2019l ", "4558": "sca i ", "4559": "le \u2019l ", "4560": "co in ", "4561": "qui e ", "4562": "zi al ", "4563": "scian ", "4564": "sa in ", "4565": "dia e ", "4566": "na il ", "4567": "la ed ", "4568": "cio e ", "4569": "ra io ", "4570": "li or ", "4571": "stiam ", "4572": "chiai ", "4573": "vi un ", "4574": "l\u2019 ha ", "4575": "chi \u00e8 ", "4576": "la in ", "4577": "n\u2019 ei ", "4578": "se ir ", "4579": "de il ", "4580": "ne io ", "4581": "g\u00f2 \u2019l ", "4582": "no u\u2019 ", "4583": "ne un ", "4584": "bro e ", "4585": "temps ", "4586": "me il ", "4587": "gli a ", "4588": "tri o ", "4589": "te ad ", "4590": "b\u00f2 il ", "4591": "do un ", "4592": "na ha ", "4593": "ne or ", "4594": "no io ", "4595": "ba in ", "4596": "la a\u2019 ", "4597": "chier ", "4598": "do \u2019l ", "4599": "s\u00e9 il ", "4600": "d\u2019 ei ", "4601": "dio a ", "4602": "gri e ", "4603": "gi \u2019l ", "4604": "de in ", "4605": "la il ", "4606": "to in ", "4607": "s\u2019 io ", "4608": "to \u2019l ", "4609": "gui i ", "4610": "se ai ", "4611": "te u\u2019 ", "4612": "be \u2019l ", "4613": "do or ", "4614": "ch\u00e9 i ", "4615": "ci al ", "4616": "si \u2019n ", "4617": "gliai ", "4618": "pe il ", "4619": "gio a ", "4620": "te io ", "4621": "cia e ", "4622": "pie a ", "4623": "pre i ", "4624": "strar ", "4625": "sme e ", "4626": "chi a ", "4627": "go al ", "4628": "le ab ", "4629": "l\u2019 un ", "4630": "ta ed ", "4631": "da al ", "4632": "smo a ", "4633": "di al ", "4634": "di \u2019n ", "4635": "scuoi ", "4636": "go il ", "4637": "me in ", "4638": "so il ", "4639": "qua \u00e8 ", "4640": "zia o ", "4641": "gliar ", "4642": "pa or ", "4643": "ni al ", "4644": "ria e ", "4645": "va in ", "4646": "ni in ", "4647": "le ir ", "4648": "po al ", "4649": "mo ad ", "4650": "ce ha ", "4651": "co ai ", "4652": "tra \u00e8 ", "4653": "fu al ", "4654": "bia e ", "4655": "t\u2019 il ", "4656": "c\u2019 ha ", "4657": "t\u2019 io ", "4658": "va ad ", "4659": "t\u2019 ha ", "4660": "do ad ", "4661": "chi e ", "4662": "gui e ", "4663": "mo \u2019l ", "4664": "ca il ", "4665": "bi il ", "4666": "di a\u2019 ", "4667": "si or ", "4668": "d\u00f2 \u2019l ", "4669": "sti \u00e8 ", "4670": "ti ha ", "4671": "s\u2019 ha ", "4672": "lo ai ", "4673": "za un ", "4674": "no il ", "4675": "ria \u00e8 ", "4676": "li oh ", "4677": "tra a ", "4678": "chiar ", "4679": "ro ad ", "4680": "v\u2019 ei ", "4681": "to ai ", "4682": "gi al ", "4683": "t\u00e0 \u2019l ", "4684": "ga il ", "4685": "to a\u2019 ", "4686": "to ed ", "4687": "do io ", "4688": "ma in ", "4689": "bi un ", "4690": "tre e ", "4691": "s\u2019 un ", "4692": "ghi e ", "4693": "r\u2019 al ", "4694": "svuol ", "4695": "b\u2019 io ", "4696": "r\u00f2 il ", "4697": "f\u00e9 \u2019l ", "4698": "zio e ", "4699": "re il ", "4700": "co un ", "4701": "bio e ", "4702": "ti ad ", "4703": "te un ", "4704": "da il ", "4705": "ni ed ", "4706": "be in ", "4707": "le in ", "4708": "si in ", "4709": "me a\u2019 ", "4710": "ma \u2019n ", "4711": "voill ", "4712": "si un ", "4713": "te al ", "4714": "vi il ", "4715": "be al ", "4716": "n\u2019 io ", "4717": "tr\u2019 a ", "4718": "tra i ", "4719": "v\u2019 i\u2019 ", "4720": "ta un ", "4721": "li il ", "4722": "re io ", "4723": "po \u2019l ", "4724": "ghiai ", "4725": "ca io ", "4726": "se \u2019n ", "4727": "scion ", "4728": "che e ", "4729": "vra i ", "4730": "ra ad ", "4731": "bra o ", "4732": "co al ", "4733": "pre e ", "4734": "no \u2019l ", "4735": "be il ", "4736": "do il ", "4737": "ne a\u2019 ", "4738": "di ad ", "4739": "gna a ", "4740": "gni e ", "4741": "tri \u00e8 ", "4742": "ci ha ", "4743": "la un ", "4744": "ce un ", "4745": "be i\u2019 ", "4746": "la io ", "4747": "glian ", "4748": "ta al ", "4749": "fu il ", "4750": "ve un ", "4751": "tro i ", "4752": "gia o ", "4753": "co \u2019l ", "4754": "ci io ", "4755": "re i\u2019 ", "4756": "si al ", "4757": "n\u00f2 in ", "4758": "c\u2019 io ", "4759": "chi \u2019n ", "4760": "sc\u00ec \u2019l ", "4761": "sti \u2019l ", "4762": "chio e ", "4763": "tro ha ", "4764": "gua in ", "4765": "ne e \u2019 ", "4766": "t\u2019 hai ", "4767": "chio \u00e8 ", "4768": "s\u2019 hai ", "4769": "sta \u2019n ", "4770": "que or ", "4771": "ch\u2019 ai ", "4772": "cia ir ", "4773": "gne al ", "4774": "sto in ", "4775": "glia e ", "4776": "pra ed ", "4777": "glio o ", "4778": "schiar ", "4779": "gli\u00f2 i ", "4780": "scia o ", "4781": "tra al ", "4782": "ch\u2019 ad ", "4783": "tra in ", "4784": "sce il ", "4785": "sta al ", "4786": "ch\u2019 el ", "4787": "ci\u00f2 il ", "4788": "gli al ", "4789": "chia e ", "4790": "smo in ", "4791": "cia al ", "4792": "cio ed ", "4793": "so\u2019 \u2019n ", "4794": "gu\u00ec \u2019l ", "4795": "sti ha ", "4796": "que il ", "4797": "ni e i ", "4798": "tri ad ", "4799": "stro a ", "4800": "qua in ", "4801": "si e \u2019 ", "4802": "ria al ", "4803": "rio ho ", "4804": "me e \u2019 ", "4805": "que ad ", "4806": "n\u2019 uom ", "4807": "tr\u2019 io ", "4808": "glia \u00e8 ", "4809": "sia \u2019l ", "4810": "pi\u00e9 \u2019l ", "4811": "gi\u00e0 \u2019l ", "4812": "te han ", "4813": "smo al ", "4814": "gno ed ", "4815": "scia e ", "4816": "vea \u2019l ", "4817": "ci e \u2019 ", "4818": "che il ", "4819": "va e i ", "4820": "bia in ", "4821": "c\u2019 hai ", "4822": "stro o ", "4823": "se uom ", "4824": "tri il ", "4825": "zie al ", "4826": "tr\u2019 a\u2019 ", "4827": "qui \u2019l ", "4828": "stri e ", "4829": "t\u2019 ha\u2019 ", "4830": "gna un ", "4831": "sta un ", "4832": "ch\u2019 or ", "4833": "sco il ", "4834": "che al ", "4835": "tre un ", "4836": "sti in ", "4837": "pria e ", "4838": "ghi in ", "4839": "tro al ", "4840": "bio ed ", "4841": "ch\u2019 al ", "4842": "cia un ", "4843": "che \u2019l ", "4844": "tro in ", "4845": "l\u2019 uom ", "4846": "chi \u2019l ", "4847": "tre il ", "4848": "ria il ", "4849": "tre i\u2019 ", "4850": "to hai ", "4851": "vra \u2019l ", "4852": "ro hai ", "4853": "m\u2019 han ", "4854": "po e \u2019 ", "4855": "glia a ", "4856": "pa e \u2019 ", "4857": "gl\u2019 io ", "4858": "se\u2019 in ", "4859": "sto al ", "4860": "pre \u2019l ", "4861": "gliaio ", "4862": "tre in ", "4863": "gio ha ", "4864": "cia in ", "4865": "qua io ", "4866": "due \u2019l ", "4867": "sto ad ", "4868": "tro un ", "4869": "che \u2019n ", "4870": "gno ha ", "4871": "chi in ", "4872": "sc\u2019 io ", "4873": "sto io ", "4874": "schi o ", "4875": "ste il ", "4876": "que a\u2019 ", "4877": "pre ha ", "4878": "pia in ", "4879": "ri e \u2019 ", "4880": "lio ed ", "4881": "bre a\u2019 ", "4882": "che un ", "4883": "che a\u2019 ", "4884": "gro un ", "4885": "cia il ", "4886": "gno ad ", "4887": "dria e ", "4888": "che io ", "4889": "scia a ", "4890": "rio in ", "4891": "pu\u00f2 \u2019l ", "4892": "que al ", "4893": "ghio e ", "4894": "stra \u00e8 ", "4895": "gio in ", "4896": "gno il ", "4897": "pra al ", "4898": "gno a\u2019 ", "4899": "sa e \u2019 ", "4900": "ti e i ", "4901": "gia un ", "4902": "sto ha ", "4903": "gli un ", "4904": "gue in ", "4905": "strans ", "4906": "stro \u00e8 ", "4907": "stro i ", "4908": "gio al ", "4909": "tro io ", "4910": "nia il ", "4911": "gna \u2019l ", "4912": "mia al ", "4913": "ch\u2019 un ", "4914": "tro ed ", "4915": "ch\u2019 e\u2019 ", "4916": "c\u2019 han ", "4917": "dio in ", "4918": "gue il ", "4919": "gi\u00e0 il ", "4920": "sce in ", "4921": "ch\u2019 i\u2019 ", "4922": "fia il ", "4923": "so hai ", "4924": "fra \u2019l ", "4925": "di e \u2019 ", "4926": "tri or ", "4927": "gno in ", "4928": "tri \u2019l ", "4929": "lia il ", "4930": "que in ", "4931": "spra e ", "4932": "dia in ", "4933": "chio a ", "4934": "pi\u00f9 \u2019l ", "4935": "do hai ", "4936": "que io ", "4937": "tra il ", "4938": "tro i\u2019 ", "4939": "pre al ", "4940": "d\u2019 uom ", "4941": "ch\u2019 \u00e8i ", "4942": "tro a\u2019 ", "4943": "stro e ", "4944": "chi ei ", "4945": "que i\u2019 ", "4946": "glio a ", "4947": "ch\u2019 ei ", "4948": "ghiaio ", "4949": "li han ", "4950": "c\u2019 ha\u2019 ", "4951": "chi a\u2019 ", "4952": "qua al ", "4953": "ghi \u2019l ", "4954": "stio e ", "4955": "gia il ", "4956": "gno al ", "4957": "chi ha ", "4958": "glie e ", "4959": "gna a\u2019 ", "4960": "ba e \u2019 ", "4961": "stie e ", "4962": "dro in ", "4963": "stia e ", "4964": "pra \u2019l ", "4965": "gni in ", "4966": "tro ad ", "4967": "li ha\u2019 ", "4968": "gi\u00f9 \u2019l ", "4969": "qui un ", "4970": "bra od ", "4971": "glio e ", "4972": "st\u2019 ho ", "4973": "ch\u2019 om ", "4974": "glia o ", "4975": "ch\u2019 a\u2019 ", "4976": "bra ad ", "4977": "dia \u2019l ", "4978": "rio ha ", "4979": "gio il ", "4980": "ni e \u2019 ", "4981": "tro ai ", "4982": "l\u2019 hai ", "4983": "stra a ", "4984": "tre al ", "4985": "zio al ", "4986": "sto il ", "4987": "bia \u2019l ", "4988": "ci\u00f2 \u2019l ", "4989": "ne han ", "4990": "gna il ", "4991": "ghia a ", "4992": "ti e \u2019 ", "4993": "ch\u2019 io ", "4994": "nio al ", "4995": "gia \u2019l ", "4996": "tro il ", "4997": "dre al ", "4998": "gliuoi ", "4999": "scio a ", "5000": "qua il ", "5001": "gne \u2019l ", "5002": "sche o ", "5003": "m\u2019 hai ", "5004": "pria o ", "5005": "tra i\u2019 ", "5006": "stra e ", "5007": "gia or ", "5008": "cia ad ", "5009": "ch\u2019 in ", "5010": "pra in ", "5011": "tr\u2019 al ", "5012": "tra \u2019l ", "5013": "bra in ", "5014": "sta in ", "5015": "pre in ", "5016": "ra han ", "5017": "ne e i ", "5018": "di\u2019 \u2019l ", "5019": "gliuol ", "5020": "na\u2019 il ", "5021": "chi al ", "5022": "ra hai ", "5023": "ch\u00e9 \u2019l ", "5024": "sta il ", "5025": "pre a\u2019 ", "5026": "rio il ", "5027": "gio ad ", "5028": "ro e \u2019 ", "5029": "tro \u2019l ", "5030": "dri ai ", "5031": "gna in ", "5032": "qu\u2019 io ", "5033": "zia in ", "5034": "ste in ", "5035": "ti han ", "5036": "zia il ", "5037": "\u2019ve \u2019l ", "5038": "che in ", "5039": "ghi al ", "5040": "ch\u00e9 il ", "5041": "schi a ", "5042": "trio e ", "5043": "ch\u00e9 \u2019n ", "5044": "sti il ", "5045": "gno or ", "5046": "chi il ", "5047": "cea il ", "5048": "ci e \u2019l ", "5049": "po e \u2019l ", "5050": "la e \u2019l ", "5051": "tr\u2019 ier ", "5052": "zo e \u2019l ", "5053": "bo e \u2019l ", "5054": "dre e \u2019 ", "5055": "dia e i ", "5056": "le e il ", "5057": "to o al ", "5058": "schio e ", "5059": "glio ai ", "5060": "l\u2019 \u00e8 \u2019l ", "5061": "de e \u2019l ", "5062": "stia ad ", "5063": "scia il ", "5064": "glia un ", "5065": "to e \u2019l ", "5066": "lio e i ", "5067": "vo e \u2019l ", "5068": "glio or ", "5069": "ta e \u2019l ", "5070": "schia e ", "5071": "stra \u2019l ", "5072": "ma e \u2019l ", "5073": "ch\u2019 uom ", "5074": "ce e \u2019l ", "5075": "chia al ", "5076": "de e \u2019n ", "5077": "che e \u2019 ", "5078": "to \u00e8 \u2019l ", "5079": "no e \u2019l ", "5080": "glia in ", "5081": "ro e \u2019l ", "5082": "m\u2019 \u00e8 \u2019l ", "5083": "be e \u2019l ", "5084": "chio al ", "5085": "le e \u2019l ", "5086": "m\u2019 \u00e8 il ", "5087": "se e \u2019l ", "5088": "ti e \u2019l ", "5089": "me e \u2019n ", "5090": "go e \u2019l ", "5091": "stri in ", "5092": "stra il ", "5093": "chio in ", "5094": "glie \u2019l ", "5095": "me e \u2019l ", "5096": "bre e \u2019 ", "5097": "sa e \u2019l ", "5098": "re e \u2019l ", "5099": "va e \u2019l ", "5100": "gne uom ", "5101": "te e \u2019n ", "5102": "so e \u2019l ", "5103": "go \u00e8 in ", "5104": "ra e \u2019l ", "5105": "ga e \u2019l ", "5106": "mo e \u2019l ", "5107": "ta e \u2019n ", "5108": "stro il ", "5109": "tra e \u2019 ", "5110": "na e \u2019l ", "5111": "ca e \u2019l ", "5112": "glie in ", "5113": "glio in ", "5114": "chio ha ", "5115": "v\u2019 \u00e8 \u2019l ", "5116": "te e \u2019l ", "5117": "si e \u2019l ", "5118": "lo \u00e8 in ", "5119": "stro in ", "5120": "va e \u2019n ", "5121": "re e in ", "5122": "stro or ", "5123": "za e \u2019l ", "5124": "ne e \u2019l ", "5125": "glia il ", "5126": "sci\u00f2 il ", "5127": "chio il ", "5128": "do e \u2019n ", "5129": "stro ed ", "5130": "mi e \u2019l ", "5131": "co e \u2019l ", "5132": "qu\u2019 ieu ", "5133": "glia al ", "5134": "v\u2019 \u00e8 in ", "5135": "d\u2019 io \u2019l ", "5136": "tra e \u2019l ", "5137": "tre e \u2019l ", "5138": "so ha \u2019l ", "5139": "tri e \u2019l ", "5140": "zie e \u2019l ", "5141": "bra e \u2019l ", "5142": "chi e \u2019l ", "5143": "ria e \u2019l ", "5144": "pra e \u2019l ", "5145": "gli e in ", "5146": "dre e \u2019l ", "5147": "sta e \u2019l ", "5148": "cia e \u2019l ", "5149": "c\u2019 ha \u2019l ", "5150": "que e \u2019l ", "5151": "schi uom ", "5152": "l\u2019 ha in ", "5153": "to ha \u2019l ", "5154": "ria \u00e8 \u2019l ", "5155": "bia e \u2019l ", "5156": "te ha in ", "5157": "v\u2019 ha \u2019l ", "5158": "dio \u00e8 \u2019l ", "5159": "stie hai ", "5160": "zio e \u2019l ", "5161": "st\u2019 \u00e8 \u2019l ", "5162": "tr\u2019 \u00e8 \u2019l ", "5163": "gio e \u2019l ", "5164": "s\u2019 i\u2019 \u2019l ", "5165": "sta \u00e8 in ", "5166": "dio e \u2019l ", "5167": "tro e \u2019l ", "5168": "sti \u00e8 \u2019l ", "5169": "ch\u2019 \u00e8 in ", "5170": "ch\u2019 i\u2019 \u2019l ", "5171": "glio e \u2019l ", "5172": "chio e \u2019l ", "5173": "scia e \u2019l ", "5174": "stro e \u2019l ", "5175": "chie e \u2019n ", "5176": "ch\u2019 io \u2019l ", "5177": "chio o \u2019l "}