{"0": "", "1": "<v>", "2": "</v>", "3": "<t><v>", "4": "c", "5": "\u00ef", "6": "u", "7": "i", "8": "a", "9": "o", "10": "\u00f2", "11": "\u00e8", "12": "\u00e9", "13": "\u00fc", "14": "g", "15": "s", "16": "v", "17": "e", "18": "s\u00eb", "19": "et", "20": "ra", "21": "g\u00eb", "22": "m\u00ec", "23": "hi", "24": "im", "25": "ov", "26": "f\u00f3", "27": "on", "28": "co", "29": "f\u00e9", "30": "mu", "31": "in", "32": "p\u00e8", "33": "or", "34": "io", "35": "fu", "36": "av", "37": "sa", "38": "ho", "39": "ar", "40": "ci", "41": "ta", "42": "m\u00e8", "43": "ab", "44": "zi", "45": "n\u00fc", "46": "ur", "47": "c\u00ec", "48": "b\u00ef", "49": "ze", "50": "er", "51": "te", "52": "nu", "53": "d\u00ef", "54": "s\u00ef", "55": "r\u00f3", "56": "g\u00e8", "57": "em", "58": "li", "59": "da", "60": "go", "61": "xi", "62": " u", "63": "vo", "64": "bu", "65": "de", "66": "ca", "67": "op", "68": "v\u00eb", "69": "c\u00fc", "70": "r\u00e8", "71": "si", "72": "l\u00eb", "73": "gi", "74": "t\u00e4", "75": "d\u00e8", "76": "ce", "77": "su", "78": "af", "79": "ac", "80": "b\u00eb", "81": "v\u00e8", "82": "om", "83": "p\u00f2", "84": "z\u00ef", "85": "po", "86": "v\u00f2", "87": "ma", "88": "d\u00e9", "89": "as", "90": "se", "91": "l\u00e0", "92": "is", "93": "uo", "94": "no", "95": "so", "96": "ri", "97": "fa", "98": "cu", "99": "ha", "100": "n\u00eb", "101": "at", "102": "fo", "103": "n\u00f2", "104": "id", "105": "p\u00fc", "106": "d\u00fc", "107": "en", "108": "ef", "109": "ru", "110": "re", "111": "l\u00ec", "112": "\u00f2s", "113": "du", "114": "m\u00eb", "115": "t\u00f2", "116": "iu", "117": "s\u00fc", "118": "n\u00ef", "119": "l\u00f2", "120": "g\u00ef", "121": "al", "122": "p\u00ec", "123": "be", "124": "c\u00f9", "125": "r\u00e0", "126": "ot", "127": "t\u00eb", "128": "t\u00fc", "129": "di", "130": "d\u00eb", "131": "s\u00f9", "132": "ad", "133": "gu", "134": "s\u00e9", "135": "m\u00ef", "136": "ul", "137": "l\u00f6", "138": "do", "139": "v\u00ef", "140": "ec", "141": "\u00e8v", "142": "ba", "143": "qu", "144": "za", "145": "t\u00ec", "146": "el", "147": "ie", "148": "mo", "149": "l\u00ef", "150": "me", "151": "am", "152": "oc", "153": "pe", "154": "c\u00ef", "155": "pa", "156": "fe", "157": "va", "158": "vu", "159": "p\u00eb", "160": "le", "161": "ap", "162": "ag", "163": "il", "164": "of", "165": "g\u00f3", "166": "t\u00e8", "167": "v\u00e9", "168": "pu", "169": "bi", "170": "ae", "171": "ai", "172": "g\u00fc", "173": "lo", "174": "ne", "175": "az", "176": "ia", "177": "f\u00ef", "178": "to", "179": "es", "180": "l\u00fc", "181": "la", "182": "og", "183": "uc", "184": "ro", "185": "s\u00f2", "186": "c\u00eb", "187": "ve", "188": "ni", "189": "m\u00e4", "190": "eu", "191": "l\u00e8", "192": "r\u00ef", "193": "eb", "194": "an", "195": "ob", "196": "zo", "197": "lu", "198": "s\u00e0", "199": "n\u00e8", "200": "na", "201": "ol", "202": "f\u00eb", "203": "tu", "204": "p\u00ef", "205": "\u00e8n", "206": "t\u00ef", "207": "os", "208": "pi", "209": "ge", "210": "bo", "211": "fi", "212": "vi", "213": "ex", "214": "un", "215": "ti", "216": "r\u00eb", "217": "mi", "218": "ga", "219": "au", "220": "mez", "221": "nar", "222": "dot", "223": "duo", "224": "sac", "225": "ric", "226": "mur", "227": "sve", "228": "lit", "229": "mun", "230": "nic", "231": "lul", "232": "guz", "233": "rot", "234": "gru", "235": "lac", "236": "dra", "237": "zuf", "238": "fuc", "239": "gre", "240": "rie", "241": "bio", "242": "tec", "243": "tea", "244": "pal", "245": "cul", "246": "fan", "247": "dr\u00e4", "248": "mir", "249": "bul", "250": "nim", "251": "lic", "252": "ses", "253": "qu\u00ef", "254": "pio", "255": "smo", "256": "ril", "257": "iat", "258": "cle", "259": "sat", "260": "fon", "261": "soz", "262": "fla", "263": "men", "264": "plu", "265": "bur", "266": "sde", "267": "sfa", "268": "sla", "269": "lui", "270": "p\u00f2s", "271": "sba", "272": "ste", "273": "sra", "274": "zac", "275": "tet", "276": "gam", "277": "a a", "278": "sci", "279": "res", "280": "fum", "281": "nul", "282": "rav", "283": "cef", "284": "buf", "285": "san", "286": "les", "287": "vor", "288": "mug", "289": "pit", "290": "fit", "291": "nur", "292": "top", "293": "sgo", "294": "vie", "295": "viz", "296": "lec", "297": "dus", "298": "p\u00e0r", "299": "tho", "300": "giu", "301": "sum", "302": "com", "303": "ciu", "304": "cen", "305": "pan", "306": "fog", "307": "tor", "308": "flu", "309": "scu", "310": "pra", "311": "buo", "312": "pin", "313": "gol", "314": "dop", "315": "rut", "316": "t\u00f2m", "317": "set", "318": "las", "319": "ris", "320": "fro", "321": "lut", "322": "fam", "323": "cos", "324": "sit", "325": "spo", "326": "pic", "327": "loc", "328": "xil", "329": "vel", "330": "don", "331": "toc", "332": "gue", "333": "non", "334": "lel", "335": "sov", "336": "guo", "337": "sal", "338": "bab", "339": "sti", "340": "dom", "341": "mes", "342": "ven", "343": "spa", "344": "sas", "345": "dam", "346": "pos", "347": "niz", "348": "bon", "349": "son", "350": "sta", "351": "sob", "352": "ban", "353": "fru", "354": "gau", "355": "dau", "356": "sub", "357": "ral", "358": "vul", "359": "soc", "360": "geo", "361": "goz", "362": "dun", "363": "sga", "364": "pon", "365": "glo", "366": "pul", "367": "gli", "368": "fig", "369": "mil", "370": "fab", "371": "gab", "372": "sle", "373": "var", "374": "lie", "375": "die", "376": "fom", "377": "svi", "378": "suf", "379": "mar", "380": "sec", "381": "f\u00e9l", "382": "put", "383": "ruo", "384": "ser", "385": "rol", "386": "cui", "387": "sca", "388": "lav", "389": "rem", "390": "bet", "391": "pun", "392": "buc", "393": "lam", "394": "pie", "395": "fos", "396": "lai", "397": "pec", "398": "c\u00f3l", "399": "gia", "400": "che", "401": "cin", "402": "tri", "403": "gna", "404": "nie", "405": "noz", "406": "met", "407": "bev", "408": "lur", "409": "cas", "410": "lin", "411": "nin", "412": "ner", "413": "ren", "414": "pet", "415": "sem", "416": "lim", "417": "nen", "418": "bol", "419": "fen", "420": "dan", "421": "ben", "422": "dit", "423": "sun", "424": "tre", "425": "cuc", "426": "bun", "427": "raz", "428": "noc", "429": "pro", "430": "puc", "431": "giz", "432": "cr\u00e0", "433": "luo", "434": "fer", "435": "a u", "436": "sic", "437": "nis", "438": "con", "439": "vag", "440": "ram", "441": "cia", "442": "sup", "443": "nob", "444": "tez", "445": "tra", "446": "ran", "447": "tun", "448": "fug", "449": "tis", "450": "ch\u00ef", "451": "cop", "452": "fia", "453": "bie", "454": "net", "455": "e a", "456": "reg", "457": "cau", "458": "dat", "459": "tos", "460": "hon", "461": "puo", "462": "lis", "463": "pil", "464": "leg", "465": "git", "466": "dim", "467": "pir", "468": "piu", "469": "cea", "470": "das", "471": "dez", "472": "pl\u00ec", "473": "ger", "474": "coz", "475": "deb", "476": "fio", "477": "vec", "478": "nag", "479": "lon", "480": "o a", "481": "rap", "482": "ruc", "483": "gel", "484": "vem", "485": "nas", "486": "dub", "487": "ves", "488": "rac", "489": "pas", "490": "gua", "491": "rat", "492": "ful", "493": "puz", "494": "ten", "495": "vom", "496": "cro", "497": "sia", "498": "piz", "499": "rog", "500": "cl\u00ef", "501": "tuf", "502": "cor", "503": "bli", "504": "tas", "505": "smu", "506": "bro", "507": "m\u00e9z", "508": "sin", "509": "fac", "510": "fat", "511": "cic", "512": "tan", "513": "car", "514": "dob", "515": "laz", "516": "ros", "517": "lup", "518": "sno", "519": "que", "520": "nol", "521": "dea", "522": "zio", "523": "ras", "524": "r\u00e8g", "525": "bar", "526": "mal", "527": "gob", "528": "sot", "529": "o i", "530": "bru", "531": "tad", "532": "cra", "533": "cum", "534": "dul", "535": "but", "536": "dru", "537": "dut", "538": "gar", "539": "sce", "540": "cap", "541": "pat", "542": "neg", "543": "cag", "544": "o u", "545": "sor", "546": "bug", "547": "tol", "548": "zia", "549": "bac", "550": "per", "551": "v\u00f2l", "552": "pla", "553": "dec", "554": "t\u00f2r", "555": "bec", "556": "pia", "557": "clu", "558": "von", "559": "fic", "560": "sus", "561": "val", "562": "bre", "563": "bat", "564": "zuc", "565": "lez", "566": "get", "567": "vat", "568": "lep", "569": "mol", "570": "nia", "571": "iar", "572": "sio", "573": "ber", "574": "nef", "575": "gra", "576": "gnu", "577": "dor", "578": "nun", "579": "nac", "580": "nal", "581": "som", "582": "pri", "583": "nio", "584": "fri", "585": "zel", "586": "vol", "587": "meg", "588": "bef", "589": "sil", "590": "coc", "591": "pis", "592": "vet", "593": "reb", "594": "plo", "595": "vas", "596": "neb", "597": "mor", "598": "ter", "599": "lus", "600": "sol", "601": "des", "602": "tem", "603": "rup", "604": "rit", "605": "sme", "606": "gno", "607": "gib", "608": "tac", "609": "mon", "610": "guc", "611": "teg", "612": "let", "613": "fib", "614": "rez", "615": "iep", "616": "far", "617": "rel", "618": "luz", "619": "o e", "620": "nev", "621": "suo", "622": "for", "623": "sie", "624": "rom", "625": "sug", "626": "pli", "627": "sab", "628": "cli", "629": "mia", "630": "clo", "631": "svo", "632": "lem", "633": "fes", "634": "tel", "635": "sos", "636": "stu", "637": "cez", "638": "deg", "639": "tr\u00ef", "640": "sp\u00ef", "641": "bal", "642": "tle", "643": "feg", "644": "lia", "645": "vis", "646": "poz", "647": "dol", "648": "muc", "649": "sur", "650": "cur", "651": "gem", "652": "poc", "653": "dil", "654": "bor", "655": "st\u00ef", "656": "veg", "657": "cep", "658": "roz", "659": "gaz", "660": "boz", "661": "tut", "662": "bot", "663": "nes", "664": "tar", "665": "din", "666": "nil", "667": "rab", "668": "nir", "669": "cie", "670": "lip", "671": "sto", "672": "ghe", "673": "can", "674": "pac", "675": "maz", "676": "muo", "677": "gat", "678": "tat", "679": "mag", "680": "sma", "681": "sr\u00e4", "682": "mem", "683": "bl\u00ef", "684": "mos", "685": "gil", "686": "cio", "687": "peg", "688": "sof", "689": "pub", "690": "bri", "691": "tuc", "692": "cem", "693": "rig", "694": "cob", "695": "fal", "696": "gag", "697": "tom", "698": "dem", "699": "dar", "700": "sbi", "701": "tim", "702": "bea", "703": "cal", "704": "sen", "705": "bis", "706": "gie", "707": "tro", "708": "gur", "709": "fie", "710": "zaf", "711": "goc", "712": "gom", "713": "dur", "714": "pes", "715": "ver", "716": "mer", "717": "rec", "718": "vez", "719": "run", "720": "lil", "721": "rag", "722": "van", "723": "boc", "724": "sop", "725": "cer", "726": "vir", "727": "gas", "728": "len", "729": "ian", "730": "sar", "731": "red", "732": "dis", "733": "pot", "734": "mam", "735": "cre", "736": "dei", "737": "sud", "738": "ges", "739": "vei", "740": "nom", "741": "fin", "742": "e u", "743": "seg", "744": "fol", "745": "cil", "746": "tir", "747": "vil", "748": "pog", "749": "fle", "750": "nig", "751": "gea", "752": "sam", "753": "bel", "754": "lab", "755": "lir", "756": "nem", "757": "por", "758": "par", "759": "m\u00e8c", "760": "man", "761": "ghi", "762": "dug", "763": "fur", "764": "br\u00ef", "765": "ial", "766": "ret", "767": "sfe", "768": "tag", "769": "nat", "770": "tie", "771": "diz", "772": "pre", "773": "chi", "774": "cit", "775": "zon", "776": "dir", "777": "sap", "778": "muf", "779": "dos", "780": "not", "781": "rin", "782": "qui", "783": "pi\u00e9", "784": "pap", "785": "pue", "786": "vin", "787": "sis", "788": "fiu", "789": "til", "790": "lot", "791": "moz", "792": "cot", "793": "dal", "794": "cet", "795": "vuo", "796": "ior", "797": "nea", "798": "dri", "799": "vam", "800": "dia", "801": "raf", "802": "ler", "803": "han", "804": "mac", "805": "smi", "806": "cru", "807": "fem", "808": "mic", "809": "jau", "810": "ron", "811": "c\u00e9r", "812": "sfo", "813": "fet", "814": "den", "815": "pop", "816": "lop", "817": "dif", "818": "fis", "819": "tur", "820": "rid", "821": "feb", "822": "pel", "823": "nan", "824": "leb", "825": "dic", "826": "pru", "827": "gui", "828": "tru", "829": "lau", "830": "gor", "831": "gir", "832": "fre", "833": "sog", "834": "rir", "835": "dio", "836": "min", "837": "bia", "838": "tes", "839": "mai", "840": "gon", "841": "lom", "842": "gis", "843": "fra", "844": "rof", "845": "rim", "846": "vac", "847": "sag", "848": "nor", "849": "tin", "850": "dro", "851": "ple", "852": "pen", "853": "nez", "854": "sc\u00ef", "855": "ton", "856": "mat", "857": "sco", "858": "gan", "859": "rug", "860": "bas", "861": "spu", "862": "tic", "863": "qua", "864": "tam", "865": "fas", "866": "vid", "867": "sod", "868": "sep", "869": "paz", "870": "cis", "871": "suc", "872": "cel", "873": "sel", "874": "gim", "875": "bui", "876": "cir", "877": "ch\u00ec", "878": "det", "879": "quo", "880": "nuo", "881": "bra", "882": "tuo", "883": "lat", "884": "caf", "885": "del", "886": "vit", "887": "gni", "888": "nec", "889": "riz", "890": "cam", "891": "rob", "892": "lun", "893": "f\u00e0c", "894": "sez", "895": "lar", "896": "mul", "897": "doc", "898": "tal", "899": "mel", "900": "gal", "901": "luc", "902": "pur", "903": "spi", "904": "cri", "905": "sna", "906": "cac", "907": "lap", "908": "cuo", "909": "lor", "910": "gen", "911": "pom", "912": "nel", "913": "saf", "914": "dre", "915": "fel", "916": "gne", "917": "roc", "918": "ier", "919": "cad", "920": "sv\u00ef", "921": "zur", "922": "col", "923": "gri", "924": "lan", "925": "mas", "926": "dr\u00ef", "927": "rar", "928": "der", "929": "mot", "930": "fun", "931": "bil", "932": "leo", "933": "rea", "934": "spe", "935": "tau", "936": "bin", "937": "pau", "938": "nuc", "939": "zan", "940": "cun", "941": "cat", "942": "pig", "943": "ria", "944": "gio", "945": "zar", "946": "dov", "947": "fuo", "948": "gad", "949": "biz", "950": "ruf", "951": "lea", "952": "ces", "953": "mie", "954": "pol", "955": "bom", "956": "rio", "957": "cla", "958": "cov", "959": "got", "960": "ciel", "961": "trag", "962": "scel", "963": "za a", "964": "t\u2019 e", "965": "si i", "966": "lev\u00e4", "967": "l\u2019 a", "968": "dien", "969": "scia", "970": "li e", "971": "spun", "972": "tror", "973": "chiu", "974": "gi u", "975": "brut", "976": "ro i", "977": "si a", "978": "clau", "979": "na u", "980": "chia", "981": "di e", "982": "ghil", "983": "ve a", "984": "cras", "985": "po a", "986": "gian", "987": "proc", "988": "ve i", "989": "di a", "990": "trul", "991": "no e", "992": "scoc", "993": "smoz", "994": "guiz", "995": "tram", "996": "grat", "997": "trac", "998": "li u", "999": "scro", "1000": "va u", "1001": "mo a", "1002": "ghia", "1003": "gron", "1004": "c\u2019 o", "1005": "gnon", "1006": "ce e", "1007": "chez", "1008": "chis", "1009": "sdru", "1010": "scis", "1011": "cias", "1012": "spie", "1013": "sgor", "1014": "zi e", "1015": "ce i", "1016": "quil", "1017": "glet", "1018": "smor", "1019": "lo a", "1020": "scop", "1021": "quis", "1022": "fioc", "1023": "scet", "1024": "sbar", "1025": "na o", "1026": "s\u2019 e", "1027": "ciom", "1028": "c\u2019 e", "1029": "vo o", "1030": "gnen", "1031": "bran", "1032": "ra o", "1033": "ra u", "1034": "z\u2019 a", "1035": "ni u", "1036": "ti o", "1037": "spes", "1038": "cioc", "1039": "dhae", "1040": "guag", "1041": "gioi", "1042": "truo", "1043": "chie", "1044": "gros", "1045": "va i", "1046": "biet", "1047": "di i", "1048": "stul", "1049": "le i", "1050": "d\u2019 \u00eb", "1051": "cheg", "1052": "re e", "1053": "gien", "1054": "ce a", "1055": "pe e", "1056": "quen", "1057": "sfer", "1058": "do a", "1059": "trap", "1060": "zian", "1061": "biac", "1062": "de o", "1063": "ciot", "1064": "le a", "1065": "zo e", "1066": "clis", "1067": "gnas", "1068": "flig", "1069": "le e", "1070": "bo i", "1071": "bion", "1072": "trom", "1073": "le o", "1074": "ri e", "1075": "spin", "1076": "gi e", "1077": "o ar", "1078": "n\u2019 e", "1079": "piez", "1080": "ni o", "1081": "za o", "1082": "p\u2019 e", "1083": "v\u2019 e", "1084": "fred", "1085": "smon", "1086": "na i", "1087": "gnuo", "1088": "scic", "1089": "dram", "1090": "scri", "1091": "fret", "1092": "to o", "1093": "t\u2019 o", "1094": "se e", "1095": "squi", "1096": "ci e", "1097": "sa a", "1098": "m\u00e8 a", "1099": "crol", "1100": "cian", "1101": "brac", "1102": "pran", "1103": "stet", "1104": "so o", "1105": "glau", "1106": "a in", "1107": "scie", "1108": "brul", "1109": "co u", "1110": "r\u00ec u", "1111": "s\u00ec o", "1112": "stil", "1113": "grap", "1114": "ie a", "1115": "sver", "1116": "to u", "1117": "d\u2019 a", "1118": "dian", "1119": "de e", "1120": "io a", "1121": "spol", "1122": "guen", "1123": "brug", "1124": "gres", "1125": "scab", "1126": "\u00e8 on", "1127": "t\u2019 u", "1128": "spal", "1129": "ta u", "1130": "zo a", "1131": "fa i", "1132": "pien", "1133": "me a", "1134": "grie", "1135": "flet", "1136": "d\u2019 u", "1137": "trar", "1138": "spon", "1139": "chet", "1140": "v\u2019 a", "1141": "quat", "1142": "z\u2019 o", "1143": "bias", "1144": "pres", "1145": "lo e", "1146": "la e", "1147": "le u", "1148": "vien", "1149": "treb", "1150": "scan", "1151": "co o", "1152": "ciuf", "1153": "pa u", "1154": "gheg", "1155": "guel", "1156": "ghie", "1157": "greg", "1158": "slac", "1159": "s\u2019 i", "1160": "zi o", "1161": "ze o", "1162": "se a", "1163": "s\u2019 a", "1164": "flit", "1165": "sgan", "1166": "ro a", "1167": "gras", "1168": "vuol", "1169": "dies", "1170": "gnel", "1171": "zi u", "1172": "s\u2019 u", "1173": "stor", "1174": "ci a", "1175": "sper", "1176": "go e", "1177": "vi o", "1178": "guan", "1179": "svel", "1180": "o al", "1181": "ster", "1182": "sbra", "1183": "gior", "1184": "l\u2019 \u00f2", "1185": "ca a", "1186": "gnaz", "1187": "stre", "1188": "spia", "1189": "r\u2019 u", "1190": "bren", "1191": "mo o", "1192": "la i", "1193": "sven", "1194": "l\u2019 o", "1195": "scuo", "1196": "l\u2019 u", "1197": "ciuo", "1198": "spic", "1199": "pron", "1200": "m\u2019 i", "1201": "stiz", "1202": "sgri", "1203": "stem", "1204": "ne e", "1205": "span", "1206": "smen", "1207": "ghio", "1208": "bi a", "1209": "glia", "1210": "ce o", "1211": "gnem", "1212": "scin", "1213": "tran", "1214": "grez", "1215": "te i", "1216": "ta i", "1217": "so e", "1218": "stec", "1219": "la o", "1220": "be i", "1221": "va e", "1222": "te o", "1223": "se \u00eb", "1224": "ge a", "1225": "li \u2019", "1226": "na e", "1227": "stru", "1228": "ro o", "1229": "s\u2019 o", "1230": "g\u2019 \u00ef", "1231": "ce u", "1232": "scre", "1233": "fian", "1234": "stuc", "1235": "de a", "1236": "ciul", "1237": "sman", "1238": "stuo", "1239": "e \u2019n", "1240": "stop", "1241": "tren", "1242": "lo o", "1243": "ri u", "1244": "sneb", "1245": "m\u2019 o", "1246": "po e", "1247": "pruo", "1248": "gnie", "1249": "s\u00ec u", "1250": "pi a", "1251": "sden", "1252": "piat", "1253": "stas", "1254": "d\u2019 e", "1255": "bris", "1256": "gram", "1257": "stes", "1258": "broc", "1259": "me e", "1260": "quan", "1261": "m\u2019 a", "1262": "sa e", "1263": "d\u2019 \u00ef", "1264": "quin", "1265": "gnor", "1266": "me i", "1267": "stam", "1268": "be a", "1269": "schi", "1270": "so i", "1271": "mi o", "1272": "scim", "1273": "plan", "1274": "gner", "1275": "guit", "1276": "sbri", "1277": "scor", "1278": "scem", "1279": "me u", "1280": "ni e", "1281": "ze e", "1282": "n\u2019 u", "1283": "scuf", "1284": "fles", "1285": "drap", "1286": "scen", "1287": "frat", "1288": "buon", "1289": "na a", "1290": "pric", "1291": "d\u2019 o", "1292": "trat", "1293": "scon", "1294": "ti i", "1295": "spaz", "1296": "ne u", "1297": "si o", "1298": "plau", "1299": "s\u00ec i", "1300": "ghel", "1301": "gher", "1302": "da u", "1303": "o av", "1304": "s\u00ec a", "1305": "so u", "1306": "grop", "1307": "cien", "1308": "guer", "1309": "mo e", "1310": "trop", "1311": "lo u", "1312": "fiot", "1313": "mian", "1314": "cion", "1315": "ra a", "1316": "l\u2019 e", "1317": "stio", "1318": "frut", "1319": "sfac", "1320": "fiac", "1321": "bron", "1322": "dras", "1323": "no i", "1324": "smar", "1325": "ta a", "1326": "vi a", "1327": "spec", "1328": "scam", "1329": "gnan", "1330": "de i", "1331": "pian", "1332": "spet", "1333": "ciac", "1334": "stal", "1335": "star", "1336": "n\u2019 a", "1337": "mo u", "1338": "ta o", "1339": "fior", "1340": "giam", "1341": "spor", "1342": "ga e", "1343": "prin", "1344": "te a", "1345": "spir", "1346": "ta e", "1347": "gran", "1348": "cher", "1349": "ti e", "1350": "po o", "1351": "dria", "1352": "ra i", "1353": "squa", "1354": "vi e", "1355": "prie", "1356": "brez", "1357": "ma u", "1358": "smal", "1359": "pier", "1360": "pe i", "1361": "no a", "1362": "d\u2019 i", "1363": "ge o", "1364": "do u", "1365": "m\u2019 e", "1366": "crea", "1367": "ca o", "1368": "sfor", "1369": "co e", "1370": "ro u", "1371": "pris", "1372": "te u", "1373": "ci u", "1374": "str\u00e0", "1375": "pa e", "1376": "se o", "1377": "guet", "1378": "graf", "1379": "l\u00ec a", "1380": "be e", "1381": "stan", "1382": "sa o", "1383": "scos", "1384": "ne o", "1385": "liev", "1386": "stra", "1387": "sfre", "1388": "da o", "1389": "scev", "1390": "\u00e8 in", "1391": "pi e", "1392": "di o", "1393": "da e", "1394": "spre", "1395": "tu i", "1396": "trec", "1397": "se i", "1398": "ti a", "1399": "giun", "1400": "spro", "1401": "piom", "1402": "guef", "1403": "chil", "1404": "stol", "1405": "a am", "1406": "egyp", "1407": "a ef", "1408": "stel", "1409": "scar", "1410": "sa u", "1411": "ghez", "1412": "io e", "1413": "sgra", "1414": "ma e", "1415": "a al", "1416": "ra e", "1417": "sfar", "1418": "io u", "1419": "tu a", "1420": "la u", "1421": "tier", "1422": "no o", "1423": "scov", "1424": "snel", "1425": "driz", "1426": "sban", "1427": "tret", "1428": "brie", "1429": "re a", "1430": "scot", "1431": "piov", "1432": "stro", "1433": "troc", "1434": "di u", "1435": "co a", "1436": "me o", "1437": "drit", "1438": "go a", "1439": "ca e", "1440": "quel", "1441": "dran", "1442": "glio", "1443": "guar", "1444": "sdet", "1445": "la a", "1446": "s\u2019 \u00ef", "1447": "da i", "1448": "l\u2019 i", "1449": "stri", "1450": "stia", "1451": "ghes", "1452": "ro e", "1453": "v\u2019 o", "1454": "spuo", "1455": "cruc", "1456": "scir", "1457": "c\u2019 \u00ef", "1458": "trie", "1459": "chio", "1460": "bo e", "1461": "sgom", "1462": "ciar", "1463": "grep", "1464": "tras", "1465": "guil", "1466": "z\u2019 i", "1467": "mi e", "1468": "da a", "1469": "scac", "1470": "giuo", "1471": "pria", "1472": "quer", "1473": "mi u", "1474": "to e", "1475": "brol", "1476": "tien", "1477": "spit", "1478": "ci o", "1479": "scer", "1480": "scol", "1481": "ma a", "1482": "do o", "1483": "prez", "1484": "li o", "1485": "gnar", "1486": "za i", "1487": "ciap", "1488": "grom", "1489": "brot", "1490": "trot", "1491": "scal", "1492": "ti u", "1493": "bian", "1494": "stin", "1495": "pren", "1496": "grot", "1497": "pros", "1498": "fron", "1499": "gias", "1500": "li a", "1501": "ve u", "1502": "ziar", "1503": "no u", "1504": "fiam", "1505": "puom", "1506": "tron", "1507": "a es", "1508": "de u", "1509": "viem", "1510": "t\u2019 a", "1511": "giug", "1512": "fran", "1513": "sche", "1514": "po u", "1515": "blan", "1516": "stis", "1517": "quar", "1518": "creb", "1519": "e in", "1520": "nian", "1521": "sber", "1522": "to a", "1523": "re i", "1524": "\u00e8 im", "1525": "be o", "1526": "guic", "1527": "te e", "1528": "sfin", "1529": "r\u2019 o", "1530": "piag", "1531": "ghir", "1532": "ma o", "1533": "va o", "1534": "a ac", "1535": "guaz", "1536": "gual", "1537": "spez", "1538": "sfio", "1539": "si u", "1540": "puol", "1541": "giac", "1542": "spel", "1543": "scio", "1544": "tu e", "1545": "stig", "1546": "spar", "1547": "sten", "1548": "se u", "1549": "mo i", "1550": "giar", "1551": "l\u00ec e", "1552": "bo a", "1553": "scom", "1554": "ghet", "1555": "so a", "1556": "va a", "1557": "gial", "1558": "re o", "1559": "pi i", "1560": "spen", "1561": "ne a", "1562": "giot", "1563": "to i", "1564": "puos", "1565": "sfam", "1566": "be u", "1567": "si e", "1568": "glie", "1569": "do e", "1570": "ga o", "1571": "stav", "1572": "sfat", "1573": "guir", "1574": "re u", "1575": "dier", "1576": "sciu", "1577": "sfan", "1578": "scaz", "1579": "stie", "1580": "piac", "1581": "cric", "1582": "ni a", "1583": "piog", "1584": "za u", "1585": "do i", "1586": "grem", "1587": "n\u2019 o", "1588": "prir", "1589": "clas", "1590": "qual", "1591": "tiem", "1592": "ples", "1593": "ca u", "1594": "do on", "1595": "l\u2019 an", "1596": "no av", "1597": "schio", "1598": "li on", "1599": "de am", "1600": "lo of", "1601": "ve es", "1602": "ch\u2019 a", "1603": "l\u2019 av", "1604": "do an", "1605": "to ov", "1606": "ne em", "1607": "lo eb", "1608": "ti al", "1609": "s\u2019 el", "1610": "le in", "1611": "m\u2019 im", "1612": "to af", "1613": "te as", "1614": "d\u2019 ot", "1615": "d\u2019 or", "1616": "d\u2019 am", "1617": "d\u2019 en", "1618": "se ol", "1619": "zio u", "1620": "li au", "1621": "s\u2019 en", "1622": "leo e", "1623": "mo at", "1624": "so es", "1625": "z\u2019 ar", "1626": "vo au", "1627": "ti as", "1628": "si or", "1629": "ge an", "1630": "vi av", "1631": "vea u", "1632": "tri e", "1633": "li in", "1634": "ra uc", "1635": "n\u2019 ag", "1636": "za am", "1637": "no as", "1638": "ge in", "1639": "l\u00ec en", "1640": "stret", "1641": "fo et", "1642": "to ef", "1643": "so of", "1644": "m\u2019 ar", "1645": "ma ac", "1646": "li et", "1647": "se op", "1648": "to es", "1649": "do or", "1650": "mo al", "1651": "gia o", "1652": "la av", "1653": "st\u2019 u", "1654": "na av", "1655": "l\u2019 oc", "1656": "t\u2019 at", "1657": "vi ac", "1658": "zi \u2019m", "1659": "tri a", "1660": "ro ac", "1661": "so at", "1662": "le uc", "1663": "l\u2019 ag", "1664": "re es", "1665": "li em", "1666": "ch\u2019 e", "1667": "se es", "1668": "m\u2019 ap", "1669": "schem", "1670": "bo al", "1671": "s\u2019 ag", "1672": "ge un", "1673": "n\u2019 om", "1674": "t\u00e8 an", "1675": "st\u2019 o", "1676": "re on", "1677": "po an", "1678": "ste i", "1679": "so ab", "1680": "se al", "1681": "ci an", "1682": "zio a", "1683": "ze es", "1684": "sce a", "1685": "li ap", "1686": "de as", "1687": "ra at", "1688": "no es", "1689": "se \u2019n", "1690": "la ol", "1691": "scher", "1692": "zo in", "1693": "mo ar", "1694": "ma es", "1695": "d\u2019 om", "1696": "do ol", "1697": "bi al", "1698": "mi am", "1699": "ci am", "1700": "te on", "1701": "si er", "1702": "zio e", "1703": "v\u2019 ap", "1704": "di ad", "1705": "que u", "1706": "co at", "1707": "lo ef", "1708": "scial", "1709": "la \u2019n", "1710": "li eb", "1711": "ti et", "1712": "lo an", "1713": "to an", "1714": "di im", "1715": "lia a", "1716": "tra i", "1717": "ro av", "1718": "si am", "1719": "ze et", "1720": "ce ar", "1721": "ch\u2019 \u00ef", "1722": "ci al", "1723": "li oc", "1724": "ne ap", "1725": "te ad", "1726": "d\u2019 ar", "1727": "r\u2019 an", "1728": "ce eu", "1729": "cea u", "1730": "chioc", "1731": "ni in", "1732": "ri on", "1733": "s\u2019 os", "1734": "n\u2019 an", "1735": "vi on", "1736": "ra ap", "1737": "si en", "1738": "glies", "1739": "ri an", "1740": "l\u2019 ai", "1741": "fu im", "1742": "ha al", "1743": "d\u2019 eu", "1744": "no im", "1745": "re al", "1746": "sci\u00e0n", "1747": "do ap", "1748": "strat", "1749": "tra e", "1750": "lo \u2019n", "1751": "di an", "1752": "gi an", "1753": "v\u2019 in", "1754": "mi in", "1755": "me of", "1756": "s\u2019 as", "1757": "le ol", "1758": "ce es", "1759": "ro at", "1760": "so al", "1761": "s\u00ec in", "1762": "r\u2019 es", "1763": "s\u00ec \u2019n", "1764": "to ap", "1765": "se ac", "1766": "ro in", "1767": "le of", "1768": "mo af", "1769": "no et", "1770": "v\u2019 eb", "1771": "ce on", "1772": "sciam", "1773": "fu in", "1774": "ta as", "1775": "ta im", "1776": "\u2019v\u2019 u", "1777": "ni as", "1778": "no ag", "1779": "tro a", "1780": "ci af", "1781": "gi\u00e0 e", "1782": "de \u2019n", "1783": "t\u2019 ac", "1784": "ha \u2019n", "1785": "co av", "1786": "s\u2019 ac", "1787": "ga as", "1788": "d\u2019 im", "1789": "l\u2019 ad", "1790": "sa an", "1791": "d\u2019 ac", "1792": "sa ol", "1793": "scrip", "1794": "ne \u2019m", "1795": "li ad", "1796": "m\u2019 af", "1797": "sta e", "1798": "ma \u2019n", "1799": "ta es", "1800": "to ac", "1801": "cio a", "1802": "ro ar", "1803": "tro u", "1804": "do er", "1805": "na eb", "1806": "fu oc", "1807": "ra am", "1808": "se un", "1809": "t\u2019 ab", "1810": "ra ot", "1811": "d\u2019 an", "1812": "co in", "1813": "la or", "1814": "lo av", "1815": "ni am", "1816": "gliuo", "1817": "tra u", "1818": "v\u2019 ac", "1819": "ce et", "1820": "m\u2019 av", "1821": "fo im", "1822": "ta ar", "1823": "io al", "1824": "do in", "1825": "s\u2019 an", "1826": "co et", "1827": "la ap", "1828": "ra et", "1829": "de of", "1830": "za et", "1831": "te al", "1832": "s\u2019 er", "1833": "scioc", "1834": "de ar", "1835": "ze or", "1836": "t\u2019 or", "1837": "do af", "1838": "po av", "1839": "te ar", "1840": "co ar", "1841": "to et", "1842": "stram", "1843": "stras", "1844": "d\u2019 er", "1845": "d\u2019 et", "1846": "ra im", "1847": "sti o", "1848": "suo a", "1849": "l\u2019 on", "1850": "stran", "1851": "ghien", "1852": "chian", "1853": "ta ac", "1854": "fu el", "1855": "le at", "1856": "la of", "1857": "l\u2019 ab", "1858": "da an", "1859": "vo ac", "1860": "ma in", "1861": "mi ap", "1862": "re af", "1863": "de on", "1864": "di ab", "1865": "sto a", "1866": "le on", "1867": "l\u2019 \u00e0n", "1868": "va eb", "1869": "n\u2019 ar", "1870": "vi en", "1871": "to ad", "1872": "l\u2019 ef", "1873": "fu ap", "1874": "pa in", "1875": "ti ac", "1876": "re at", "1877": "gli u", "1878": "zi at", "1879": "ra ad", "1880": "no au", "1881": "re ar", "1882": "sa on", "1883": "me af", "1884": "n\u2019 ac", "1885": "to as", "1886": "ria \u00f2", "1887": "s\u2019 al", "1888": "vi in", "1889": "d\u2019 au", "1890": "no ab", "1891": "cu\u2019 i", "1892": "no af", "1893": "pa es", "1894": "ce av", "1895": "t\u2019 av", "1896": "ne an", "1897": "to or", "1898": "l\u2019 uo", "1899": "be al", "1900": "cia e", "1901": "l\u2019 os", "1902": "de au", "1903": "le ar", "1904": "ga an", "1905": "ta op", "1906": "va an", "1907": "m\u2019 ad", "1908": "ro eb", "1909": "ra al", "1910": "ta et", "1911": "do im", "1912": "l\u2019 eb", "1913": "va al", "1914": "to ag", "1915": "d\u2019 al", "1916": "sta a", "1917": "v\u2019 ab", "1918": "ri al", "1919": "gliam", "1920": "li uo", "1921": "n\u2019 at", "1922": "co on", "1923": "ri in", "1924": "le al", "1925": "de in", "1926": "me ap", "1927": "re ad", "1928": "no ac", "1929": "si ad", "1930": "ci or", "1931": "la au", "1932": "te ap", "1933": "le id", "1934": "chiet", "1935": "ta el", "1936": "di az", "1937": "do eb", "1938": "ro ap", "1939": "t\u2019 af", "1940": "vo al", "1941": "so \u2019n", "1942": "no al", "1943": "ce ac", "1944": "ch\u2019 u", "1945": "ghiot", "1946": "zie o", "1947": "triar", "1948": "si im", "1949": "d\u2019 az", "1950": "no ec", "1951": "te im", "1952": "so as", "1953": "de er", "1954": "t\u2019 al", "1955": "sciut", "1956": "te iu", "1957": "l\u2019 el", "1958": "r\u2019 al", "1959": "me at", "1960": "fa ir", "1961": "si as", "1962": "n\u2019 eb", "1963": "la en", "1964": "re ol", "1965": "glian", "1966": "di af", "1967": "po in", "1968": "so eb", "1969": "t\u2019 el", "1970": "ve oc", "1971": "do ac", "1972": "gliel", "1973": "m\u2019 in", "1974": "li or", "1975": "s\u2019 eb", "1976": "lo \u2019m", "1977": "bra u", "1978": "m\u2019 es", "1979": "le am", "1980": "lo es", "1981": "zi ap", "1982": "to ol", "1983": "se an", "1984": "no er", "1985": "de om", "1986": "le an", "1987": "ne et", "1988": "mi an", "1989": "si in", "1990": "t\u2019 am", "1991": "l\u2019 en", "1992": "l\u2019 al", "1993": "ti or", "1994": "na at", "1995": "li af", "1996": "ne im", "1997": "m\u2019 ol", "1998": "na ac", "1999": "po on", "2000": "tr\u2019 e", "2001": "de al", "2002": "ve ap", "2003": "to at", "2004": "m\u2019 om", "2005": "gne u", "2006": "v\u2019 ar", "2007": "l\u2019 ae", "2008": "co an", "2009": "sto o", "2010": "na or", "2011": "na ar", "2012": "bo av", "2013": "di uo", "2014": "t\u00e0 in", "2015": "l\u2019 ar", "2016": "sguar", "2017": "ma or", "2018": "si ac", "2019": "v\u2019 er", "2020": "ne as", "2021": "l\u2019 ec", "2022": "do el", "2023": "m\u2019 at", "2024": "re ac", "2025": "v\u2019 al", "2026": "la in", "2027": "gna a", "2028": "ca an", "2029": "que o", "2030": "ne in", "2031": "so ar", "2032": "ta ad", "2033": "ci at", "2034": "t\u2019 an", "2035": "d\u2019 es", "2036": "se as", "2037": "s\u2019 of", "2038": "gliar", "2039": "ta on", "2040": "l\u2019 un", "2041": "ra an", "2042": "n\u2019 on", "2043": "me au", "2044": "li ac", "2045": "d\u2019 of", "2046": "n\u2019 uo", "2047": "ci ar", "2048": "ca en", "2049": "ve at", "2050": "to uc", "2051": "mi\u2019 a", "2052": "ro an", "2053": "se\u2019 a", "2054": "na ab", "2055": "za an", "2056": "li es", "2057": "tr\u2019 a", "2058": "za in", "2059": "me ac", "2060": "mi \u2019n", "2061": "ta in", "2062": "te ac", "2063": "na af", "2064": "to al", "2065": "cro a", "2066": "l\u2019 ap", "2067": "strut", "2068": "do as", "2069": "l\u2019 af", "2070": "ne ag", "2071": "re om", "2072": "stric", "2073": "bo on", "2074": "chi a", "2075": "tri o", "2076": "d\u2019 on", "2077": "be ar", "2078": "ca er", "2079": "sciol", "2080": "ri ar", "2081": "ci as", "2082": "dio e", "2083": "s\u2019 em", "2084": "ti av", "2085": "dio i", "2086": "me an", "2087": "tro o", "2088": "l\u2019 ul", "2089": "ch\u2019 o", "2090": "li \u2019n", "2091": "me ef", "2092": "che o", "2093": "d\u2019 el", "2094": "li am", "2095": "te ol", "2096": "te an", "2097": "fu av", "2098": "ga in", "2099": "sti a", "2100": "do al", "2101": "ve al", "2102": "te es", "2103": "stroz", "2104": "ra eb", "2105": "l\u2019 as", "2106": "me in", "2107": "no or", "2108": "l\u2019 ov", "2109": "s\u2019 af", "2110": "te er", "2111": "n\u2019 ap", "2112": "ra es", "2113": "ge et", "2114": "t\u2019 ap", "2115": "na of", "2116": "so in", "2117": "na ap", "2118": "ger e", "2119": "l\u2019 in", "2120": "ro al", "2121": "t\u2019 in", "2122": "li un", "2123": "mo ac", "2124": "che a", "2125": "v\u2019 el", "2126": "ne ov", "2127": "n\u2019 ab", "2128": "to av", "2129": "gliet", "2130": "schet", "2131": "ste a", "2132": "mo an", "2133": "no an", "2134": "sa ac", "2135": "po ar", "2136": "do oc", "2137": "ta un", "2138": "ni av", "2139": "co ad", "2140": "dio o", "2141": "co ap", "2142": "d\u2019 af", "2143": "ti am", "2144": "che u", "2145": "lo as", "2146": "si \u2019m", "2147": "re im", "2148": "n\u2019 in", "2149": "ro ab", "2150": "me el", "2151": "tu ha", "2152": "no \u2019n", "2153": "bra a", "2154": "sgiun", "2155": "l\u2019 at", "2156": "le or", "2157": "ni on", "2158": "c\u2019 im", "2159": "strug", "2160": "l\u2019 et", "2161": "di ac", "2162": "za on", "2163": "re in", "2164": "ne on", "2165": "di es", "2166": "na es", "2167": "va in", "2168": "n\u2019 al", "2169": "scrit", "2170": "se af", "2171": "ci av", "2172": "mi ac", "2173": "no om", "2174": "st\u2019 a", "2175": "me al", "2176": "vi ar", "2177": "to in", "2178": "chiar", "2179": "to im", "2180": "stroc", "2181": "di ol", "2182": "gia e", "2183": "no ad", "2184": "re ab", "2185": "c\u2019 en", "2186": "m\u2019 of", "2187": "sco o", "2188": "zi ag", "2189": "ra av", "2190": "re et", "2191": "ca on", "2192": "la es", "2193": "mo ol", "2194": "schiu", "2195": "ce an", "2196": "p\u00e8 al", "2197": "ce ne", "2198": "me ar", "2199": "so ad", "2200": "mo ec", "2201": "lo at", "2202": "mo in", "2203": "lo il", "2204": "si av", "2205": "ti in", "2206": "si of", "2207": "s\u00ec \u2019m", "2208": "na on", "2209": "vo as", "2210": "ba un", "2211": "gne a", "2212": "sgrie", "2213": "li ul", "2214": "ci in", "2215": "ra of", "2216": "ne ac", "2217": "li av", "2218": "za er", "2219": "di or", "2220": "mo of", "2221": "l\u2019 of", "2222": "s\u2019 am", "2223": "m\u2019 eb", "2224": "strel", "2225": "sta o", "2226": "t\u2019 as", "2227": "na in", "2228": "te au", "2229": "z\u2019 al", "2230": "gne o", "2231": "vi an", "2232": "mo im", "2233": "s\u2019 ap", "2234": "squar", "2235": "le ad", "2236": "ro on", "2237": "te em", "2238": "pr\u2019 e", "2239": "mo or", "2240": "s\u2019 ad", "2241": "splen", "2242": "tro e", "2243": "za im", "2244": "schie", "2245": "s\u2019 at", "2246": "ma al", "2247": "la al", "2248": "te en", "2249": "l\u2019 im", "2250": "ti of", "2251": "si ol", "2252": "ra ab", "2253": "ri ap", "2254": "sa in", "2255": "zia o", "2256": "b\u2019 es", "2257": "ci ad", "2258": "ve ar", "2259": "to of", "2260": "sa ap", "2261": "va at", "2262": "co er", "2263": "te om", "2264": "chiap", "2265": "ra ac", "2266": "gno a", "2267": "ro im", "2268": "n\u2019 ol", "2269": "ma of", "2270": "li uc", "2271": "t\u2019 om", "2272": "dea u", "2273": "di om", "2274": "che e", "2275": "di av", "2276": "de ag", "2277": "v\u2019 et", "2278": "si al", "2279": "te or", "2280": "m\u2019 ag", "2281": "de eu", "2282": "le ap", "2283": "sciau", "2284": "de an", "2285": "stren", "2286": "ni en", "2287": "se at", "2288": "ti ad", "2289": "re an", "2290": "mio a", "2291": "qu\u2019 e", "2292": "fa az", "2293": "li ag", "2294": "z\u2019 es", "2295": "r\u2019 el", "2296": "qu\u2019 o", "2297": "t\u2019 ag", "2298": "di og", "2299": "si at", "2300": "sfran", "2301": "lo im", "2302": "vi of", "2303": "l\u2019 em", "2304": "lo af", "2305": "v\u2019 of", "2306": "t\u2019 ar", "2307": "se ap", "2308": "do at", "2309": "n\u2019 er", "2310": "chias", "2311": "ro or", "2312": "scian", "2313": "te ag", "2314": "me as", "2315": "l\u2019 es", "2316": "ni al", "2317": "vo at", "2318": "li ab", "2319": "vi am", "2320": "bre a", "2321": "ba in", "2322": "m\u2019 ac", "2323": "strin", "2324": "so ap", "2325": "be av", "2326": "ra ec", "2327": "s\u2019 ar", "2328": "b\u00ec al", "2329": "ce im", "2330": "strac", "2331": "fu of", "2332": "vi al", "2333": "go al", "2334": "v\u2019 am", "2335": "ne af", "2336": "s\u2019 av", "2337": "da in", "2338": "do ar", "2339": "co al", "2340": "ti im", "2341": "pra a", "2342": "mo es", "2343": "mi er", "2344": "ni ap", "2345": "ro um", "2346": "le es", "2347": "ne ar", "2348": "tro i", "2349": "ni es", "2350": "ne \u2019n", "2351": "schic", "2352": "vo an", "2353": "no am", "2354": "s\u2019 es", "2355": "me am", "2356": "so et", "2357": "scheg", "2358": "si el", "2359": "sciom", "2360": "bre o", "2361": "di al", "2362": "l\u2019 au", "2363": "va id", "2364": "lo ac", "2365": "de af", "2366": "ghiac", "2367": "de or", "2368": "v\u2019 an", "2369": "d\u2019 ap", "2370": "m\u2019 ab", "2371": "ci ap", "2372": "ra el", "2373": "re ap", "2374": "li at", "2375": "so en", "2376": "s\u2019 op", "2377": "chiun", "2378": "squil", "2379": "to eb", "2380": "ro am", "2381": "fu al", "2382": "scris", "2383": "s\u2019 in", "2384": "li er", "2385": "spraz", "2386": "pi ap", "2387": "n\u2019 av", "2388": "to ec", "2389": "re oc", "2390": "no in", "2391": "ca in", "2392": "dio a", "2393": "spres", "2394": "gi ar", "2395": "co eb", "2396": "te is", "2397": "me on", "2398": "gni e", "2399": "chi o", "2400": "vi as", "2401": "sa es", "2402": "di in", "2403": "li al", "2404": "ne al", "2405": "si \u2019n", "2406": "ro oc", "2407": "li om", "2408": "to ar", "2409": "d\u2019 os", "2410": "l\u2019 ot", "2411": "re ag", "2412": "so on", "2413": "re em", "2414": "sa og", "2415": "te af", "2416": "cia a", "2417": "mi ad", "2418": "m\u2019 al", "2419": "qua e", "2420": "sco u", "2421": "to oc", "2422": "re as", "2423": "lo in", "2424": "ta eu", "2425": "ti ar", "2426": "ia al", "2427": "li as", "2428": "re av", "2429": "tu en", "2430": "sto e", "2431": "ro as", "2432": "te in", "2433": "re ot", "2434": "li \u2019m", "2435": "d\u2019 og", "2436": "go in", "2437": "streg", "2438": "na \u2019n", "2439": "to on", "2440": "si uo", "2441": "scias", "2442": "va im", "2443": "te ab", "2444": "lo on", "2445": "ti \u2019m", "2446": "ce at", "2447": "d\u2019 eb", "2448": "le av", "2449": "ne av", "2450": "ta an", "2451": "ra in", "2452": "pre e", "2453": "n\u2019 au", "2454": "ta al", "2455": "ri ac", "2456": "t\u2019 em", "2457": "la an", "2458": "d\u2019 ur", "2459": "so an", "2460": "pre a", "2461": "do es", "2462": "rio a", "2463": "ia an", "2464": "ce au", "2465": "ce in", "2466": "ta am", "2467": "di of", "2468": "za al", "2469": "re am", "2470": "pi in", "2471": "di on", "2472": "s\u2019 im", "2473": "s\u2019 ab", "2474": "z\u00f2 in", "2475": "le \u2019n", "2476": "re il", "2477": "d\u2019 ol", "2478": "sa im", "2479": "s\u2019 et", "2480": "lo al", "2481": "re en", "2482": "zo ar", "2483": "l\u2019 ol", "2484": "te \u2019n", "2485": "smo a", "2486": "v\u2019 es", "2487": "za \u2019n", "2488": "la \u2019m", "2489": "ce al", "2490": "se on", "2491": "ti en", "2492": "t\u2019 im", "2493": "d\u2019 oc", "2494": "be as", "2495": "si og", "2496": "si an", "2497": "va \u2019n", "2498": "t\u2019 es", "2499": "d\u2019 at", "2500": "ahi a", "2501": "re au", "2502": "cio e", "2503": "ti oc", "2504": "mo eb", "2505": "vi \u2019m", "2506": "de ac", "2507": "zo an", "2508": "so am", "2509": "te os", "2510": "zi al", "2511": "zia e", "2512": "l\u2019 ac", "2513": "d\u2019 in", "2514": "\u2019v\u2019 e", "2515": "n\u2019 am", "2516": "d\u2019 as", "2517": "no ar", "2518": "li im", "2519": "le \u2019m", "2520": "ma on", "2521": "tra a", "2522": "ce af", "2523": "sta u", "2524": "cia o", "2525": "l\u2019 er", "2526": "l\u2019 uc", "2527": "ma ap", "2528": "ra on", "2529": "sta i", "2530": "ce as", "2531": "zi as", "2532": "strar", "2533": "m\u2019 as", "2534": "ma an", "2535": "scran", "2536": "ve an", "2537": "ta of", "2538": "strom", "2539": "bi et", "2540": "sciar", "2541": "va ar", "2542": "re eb", "2543": "la on", "2544": "spiac", "2545": "li ar", "2546": "schia", "2547": "le oc", "2548": "ro of", "2549": "ro au", "2550": "tio i", "2551": "ro es", "2552": "l\u2019 am", "2553": "ra as", "2554": "ta ab", "2555": "mi al", "2556": "do am", "2557": "ch\u2019 i", "2558": "de ap", "2559": "le as", "2560": "spran", "2561": "ta at", "2562": "ta om", "2563": "no ap", "2564": "l\u2019 op", "2565": "no at", "2566": "go es", "2567": "gno u", "2568": "te of", "2569": "fe et", "2570": "ne es", "2571": "ghian", "2572": "ti at", "2573": "se in", "2574": "mo on", "2575": "bra e", "2576": "po al", "2577": "te at", "2578": "chi u", "2579": "pi or", "2580": "pie e", "2581": "d\u2019 ab", "2582": "l\u2019 um", "2583": "l\u2019 or", "2584": "la el", "2585": "ci \u2019n", "2586": "hi om", "2587": "be on", "2588": "m\u2019 an", "2589": "si ar", "2590": "sgher", "2591": "co ac", "2592": "dre e", "2593": "ni an", "2594": "glien", "2595": "lo er", "2596": "li of", "2597": "ti \u2019n", "2598": "chi e", "2599": "to ab", "2600": "mi ef", "2601": "l\u2019 om", "2602": "zo as", "2603": "ti an", "2604": "sbe a", "2605": "lo ar", "2606": "li an", "2607": "ch\u2019 er", "2608": "tri of", "2609": "chio u", "2610": "sce al", "2611": "chi al", "2612": "tro av", "2613": "sco al", "2614": "tro ab", "2615": "tro on", "2616": "tri ap", "2617": "tr\u2019 al", "2618": "che ar", "2619": "sta an", "2620": "sto es", "2621": "st\u2019 in", "2622": "sto on", "2623": "tro im", "2624": "tra ef", "2625": "tro ap", "2626": "bia in", "2627": "ch\u2019 en", "2628": "chi ar", "2629": "lio in", "2630": "stro a", "2631": "gna in", "2632": "chi ac", "2633": "tro an", "2634": "tro of", "2635": "ghe on", "2636": "sta im", "2637": "dre an", "2638": "bia an", "2639": "schiet", "2640": "sti or", "2641": "pie or", "2642": "lio an", "2643": "che ha", "2644": "sto in", "2645": "st\u2019 ot", "2646": "gue or", "2647": "che \u2019n", "2648": "ch\u2019 ac", "2649": "c\u2019 han", "2650": "stra a", "2651": "scia e", "2652": "pre in", "2653": "gno al", "2654": "sto of", "2655": "dre as", "2656": "tr\u2019 ar", "2657": "tre os", "2658": "tro \u2019m", "2659": "sta ai", "2660": "ch\u2019 al", "2661": "glio e", "2662": "sti al", "2663": "chio o", "2664": "ch\u2019 ag", "2665": "sta al", "2666": "lia an", "2667": "dia as", "2668": "sti oc", "2669": "ne han", "2670": "te han", "2671": "tro ac", "2672": "qu\u2019 an", "2673": "cio ap", "2674": "pre al", "2675": "gno af", "2676": "gio in", "2677": "ch\u2019 at", "2678": "zia on", "2679": "che om", "2680": "sto ac", "2681": "sio an", "2682": "cia im", "2683": "st\u2019 es", "2684": "ch\u2019 ar", "2685": "mio in", "2686": "cio et", "2687": "sto \u2019m", "2688": "gia in", "2689": "do o e", "2690": "stro u", "2691": "re o u", "2692": "ria in", "2693": "tro in", "2694": "sta ol", "2695": "gne al", "2696": "rio an", "2697": "dre al", "2698": "sto at", "2699": "sta on", "2700": "schiat", "2701": "st\u2019 ul", "2702": "gi\u00f2 in", "2703": "scio e", "2704": "gne uo", "2705": "sma in", "2706": "gio ol", "2707": "che an", "2708": "bra in", "2709": "pio on", "2710": "pre es", "2711": "ch\u2019 ab", "2712": "stri a", "2713": "dre es", "2714": "gio uc", "2715": "tro et", "2716": "sto al", "2717": "tri af", "2718": "chio a", "2719": "ch\u2019 ap", "2720": "gne im", "2721": "ria on", "2722": "vio in", "2723": "chi an", "2724": "ch\u2019 eb", "2725": "mia \u2019n", "2726": "vea \u2019m", "2727": "sti er", "2728": "gne in", "2729": "ste an", "2730": "co e i", "2731": "sta in", "2732": "cia ar", "2733": "sti el", "2734": "str\u2019 u", "2735": "tri in", "2736": "qua on", "2737": "pre ar", "2738": "stra i", "2739": "pre at", "2740": "bra av", "2741": "tre in", "2742": "gh\u2019 es", "2743": "chi in", "2744": "tri as", "2745": "gia ar", "2746": "zia il", "2747": "sti in", "2748": "stra u", "2749": "stro o", "2750": "nea av", "2751": "ri han", "2752": "pi\u00f9 in", "2753": "bri ap", "2754": "stri o", "2755": "tro al", "2756": "tra an", "2757": "stra e", "2758": "tra or", "2759": "dio an", "2760": "tri es", "2761": "gio on", "2762": "d\u2019 han", "2763": "cio as", "2764": "cio al", "2765": "tro ar", "2766": "sce an", "2767": "gno in", "2768": "qua im", "2769": "ber\u2019 o", "2770": "gno am", "2771": "lio as", "2772": "sce el", "2773": "st\u2019 ac", "2774": "sti on", "2775": "scun e", "2776": "ch\u2019 av", "2777": "tre an", "2778": "zia or", "2779": "n\u2019 han", "2780": "pi\u00f9 \u2019n", "2781": "che in", "2782": "sce as", "2783": "ch\u2019 el", "2784": "bre et", "2785": "bre in", "2786": "t\u2019 han", "2787": "glia u", "2788": "qua in", "2789": "nio im", "2790": "gia al", "2791": "che \u2019m", "2792": "glia a", "2793": "ch\u2019 es", "2794": "chi am", "2795": "tra \u2019m", "2796": "qua of", "2797": "sco an", "2798": "sto an", "2799": "gne ef", "2800": "stro e", "2801": "glio o", "2802": "sto ar", "2803": "sti es", "2804": "gni al", "2805": "ch\u2019 og", "2806": "sti av", "2807": "tra op", "2808": "gne er", "2809": "cie in", "2810": "st\u2019 an", "2811": "gni an", "2812": "com\u2019 u", "2813": "ch\u2019 in", "2814": "sti an", "2815": "ch\u2019 am", "2816": "mio av", "2817": "cia on", "2818": "ria of", "2819": "tro as", "2820": "gio et", "2821": "st\u2019 ar", "2822": "l\u2019 han", "2823": "ch\u2019 or", "2824": "com\u2019 a", "2825": "ch\u2019 an", "2826": "ti han", "2827": "gue an", "2828": "que al", "2829": "m\u2019 han", "2830": "st\u2019 of", "2831": "sta og", "2832": "cio an", "2833": "sti un", "2834": "schian", "2835": "chi on", "2836": "dre eb", "2837": "glia o", "2838": "ch\u2019 et", "2839": "sio in", "2840": "zie ec", "2841": "tr\u2019 om", "2842": "ste in", "2843": "pre ac", "2844": "tra av", "2845": "ch\u2019 ad", "2846": "glio u", "2847": "que es", "2848": "tr\u2019 am", "2849": "sto im", "2850": "pr\u2019 ar", "2851": "mio \u2019n", "2852": "sto \u2019n", "2853": "ch\u2019 as", "2854": "sto ap", "2855": "gue on", "2856": "gne ac", "2857": "go han", "2858": "bre an", "2859": "li han", "2860": "gna as", "2861": "chi ap", "2862": "st\u2019 al", "2863": "gno ae", "2864": "glia es", "2865": "sche er", "2866": "s\u2019 i\u2019 o", "2867": "stri an", "2868": "ti e \u2019n", "2869": "glio es", "2870": "glio an", "2871": "gio o e", "2872": "vria es", "2873": "stro es", "2874": "stri af", "2875": "pria av", "2876": "li \u00e8 in", "2877": "dio han", "2878": "stro in", "2879": "chie et", "2880": "d\u2019 i\u2019 a", "2881": "l\u00e0 \u2019vun", "2882": "si e \u2019n", "2883": "stra in", "2884": "stri ef", "2885": "chio in", "2886": "stra ap", "2887": "stri al", "2888": "glia ac", "2889": "stro im", "2890": "stro an", "2891": "stro ac", "2892": "glia as", "2893": "chio at", "2894": "stra ef", "2895": "str\u2019 or", "2896": "sche ab", "2897": "stri av", "2898": "stro oc", "2899": "scia al", "2900": "glio as", "2901": "n\u2019 \u00e8 im", "2902": "glie an", "2903": "stri at", "2904": "lo e \u2019n", "2905": "chio an", "2906": "glie eb", "2907": "glie al", "2908": "glia in", "2909": "glia al", "2910": "stro eb", "2911": "trio al", "2912": "stre in", "2913": "chia of", "2914": "glio on", "2915": "stro av", "2916": "stro uc", "2917": "re a \u2019n", "2918": "scia an", "2919": "glio in", "2920": "stro al", "2921": "str\u2019 ar", "2922": "stro as", "2923": "chia an", "2924": "ch\u2019 i\u2019 e", "2925": "ch\u2019 i\u2019 o", "2926": "sti a \u2019n", "2927": "t\u2019 ho in", "2928": "ch\u2019 io \u2019n", "2929": "ch\u2019 e\u2019 \u2019n", "2930": "\u00ef ", "2931": "i ", "2932": "\u00ec ", "2933": "e ", "2934": "\u00f9 ", "2935": "o ", "2936": "\u00f2 ", "2937": "s ", "2938": "\u00e8 ", "2939": "a ", "2940": "\u00f3n ", "2941": "me ", "2942": "ei ", "2943": "ve ", "2944": "g\u00f2 ", "2945": "ar ", "2946": "\u00f2n ", "2947": "\u00f2s ", "2948": "li ", "2949": "v\u00ec ", "2950": "fu ", "2951": "s\u00e9 ", "2952": "m\u2019 ", "2953": "r\u00ec ", "2954": "gi ", "2955": "m\u00e8 ", "2956": "t\u00f2 ", "2957": "ne ", "2958": "n\u00e0 ", "2959": "io ", "2960": "ia ", "2961": "an ", "2962": "ie ", "2963": "ni ", "2964": "da ", "2965": "fi ", "2966": "\u00e8e ", "2967": "tu ", "2968": "b\u00f9 ", "2969": "ga ", "2970": "st ", "2971": "\u00e0m ", "2972": "do ", "2973": "m\u00f2 ", "2974": "le ", "2975": "t\u00ec ", "2976": "th ", "2977": "ho ", "2978": "pi ", "2979": "zo ", "2980": "pe ", "2981": "u\u2019 ", "2982": "f\u00e0 ", "2983": "i\u2019 ", "2984": "et ", "2985": "co ", "2986": "l\u00e0 ", "2987": "so ", "2988": "l\u00e8 ", "2989": "as ", "2990": "il ", "2991": "t\u00e9 ", "2992": "vi ", "2993": "ze ", "2994": "t\u00e8 ", "2995": "\u00e9n ", "2996": "no ", "2997": "zi ", "2998": "ae ", "2999": "ra ", "3000": "c\u00e9 ", "3001": "n\u00e8 ", "3002": "si ", "3003": "\u00ecs ", "3004": "z\u00f2 ", "3005": "p\u00e8 ", "3006": "se ", "3007": "fo ", "3008": "n\u00f2 ", "3009": "na ", "3010": "el ", "3011": "bo ", "3012": "ba ", "3013": "\u00e0s ", "3014": "su ", "3015": "or ", "3016": "za ", "3017": "te ", "3018": "a\u2019 ", "3019": "fa ", "3020": "fe ", "3021": "mo ", "3022": "d\u00f2 ", "3023": "lo ", "3024": "f\u00f2 ", "3025": "d\u00e9 ", "3026": "un ", "3027": "on ", "3028": "od ", "3029": "de ", "3030": "\u00e8l ", "3031": "n\u00ec ", "3032": "la ", "3033": "ca ", "3034": "sa ", "3035": "re ", "3036": "in ", "3037": "b\u00f2 ", "3038": "\u00e0r ", "3039": "ed ", "3040": "va ", "3041": "ta ", "3042": "b\u00e8 ", "3043": "p\u00f2 ", "3044": "ri ", "3045": "os ", "3046": "ai ", "3047": "us ", "3048": "g\u00ec ", "3049": "ab ", "3050": "s\u00f9 ", "3051": "ha ", "3052": "e\u2019 ", "3053": "po ", "3054": "d\u00e0 ", "3055": "c\u00f2 ", "3056": "di ", "3057": "vo ", "3058": "c\u00e8 ", "3059": "pa ", "3060": "ma ", "3061": "ro ", "3062": "d\u00ec ", "3063": "n\u00e9 ", "3064": "om ", "3065": "to ", "3066": "ti ", "3067": "r\u00e0 ", "3068": "go ", "3069": "l\u00ec ", "3070": "oh ", "3071": "ge ", "3072": "t\u00e0 ", "3073": "ce ", "3074": "ut ", "3075": "ci ", "3076": "r\u00f2 ", "3077": "mi ", "3078": "al ", "3079": "v\u00f2 ", "3080": "t\u00f9 ", "3081": "\u00f9l ", "3082": "s\u00ec ", "3083": "s\u00e8 ", "3084": "bi ", "3085": "ir ", "3086": "sc ", "3087": "s\u00f2 ", "3088": "f\u00e9 ", "3089": "ad ", "3090": "be ", "3091": "l\u00f2 ", "3092": "bra ", "3093": "st\u00ec ", "3094": "pre ", "3095": "can ", "3096": "f\u00e0t ", "3097": "mar ", "3098": "st\u00e0 ", "3099": "n\u00eca ", "3100": "dor ", "3101": "gon ", "3102": "v\u00ecd ", "3103": "chi ", "3104": "des ", "3105": "du\u2019 ", "3106": "mei ", "3107": "f\u00e9e ", "3108": "deh ", "3109": "val ", "3110": "sin ", "3111": "tes ", "3112": "cle ", "3113": "t\u00f2r ", "3114": "mae ", "3115": "pur ", "3116": "bil ", "3117": "vas ", "3118": "vem ", "3119": "qua ", "3120": "nar ", "3121": "gol ", "3122": "gra ", "3123": "ma\u2019 ", "3124": "te\u2019 ", "3125": "uom ", "3126": "lin ", "3127": "ler ", "3128": "cun ", "3129": "fra ", "3130": "di\u00e8 ", "3131": "ran ", "3132": "de\u2019 ", "3133": "tuo ", "3134": "fie ", "3135": "tio ", "3136": "dra ", "3137": "p\u00f2s ", "3138": "ver ", "3139": "f\u00e0s ", "3140": "t\u00e9r ", "3141": "zar ", "3142": "sir ", "3143": "cut ", "3144": "tin ", "3145": "me\u2019 ", "3146": "sai ", "3147": "dil ", "3148": "gru ", "3149": "di\u2019 ", "3150": "pra ", "3151": "b\u00eca ", "3152": "mon ", "3153": "n\u00ect ", "3154": "zai ", "3155": "ber ", "3156": "st\u00e9 ", "3157": "gi\u00e0 ", "3158": "cai ", "3159": "ceo ", "3160": "na\u2019 ", "3161": "clo ", "3162": "n\u00f2s ", "3163": "gno ", "3164": "pel ", "3165": "gi\u00f9 ", "3166": "ga\u2019 ", "3167": "gio ", "3168": "rua ", "3169": "d\u00ect ", "3170": "mer ", "3171": "cui ", "3172": "gan ", "3173": "fai ", "3174": "fer ", "3175": "cor ", "3176": "r\u00ece ", "3177": "deo ", "3178": "za\u2019 ", "3179": "nem ", "3180": "bor ", "3181": "vos ", "3182": "nan ", "3183": "ieu ", "3184": "cer ", "3185": "vra ", "3186": "a i ", "3187": "tr\u00f2 ", "3188": "se\u2019 ", "3189": "c\u00f2b ", "3190": "su\u00e8 ", "3191": "ion ", "3192": "num ", "3193": "dea ", "3194": "gui ", "3195": "t\u00f3n ", "3196": "spa ", "3197": "cu\u2019 ", "3198": "sen ", "3199": "lia ", "3200": "sa\u2019 ", "3201": "rii ", "3202": "nis ", "3203": "gar ", "3204": "bon ", "3205": "von ", "3206": "sit ", "3207": "len ", "3208": "b\u00e8l ", "3209": "dr\u00ec ", "3210": "ta\u2019 ", "3211": "tri ", "3212": "bol ", "3213": "pi\u00e8 ", "3214": "cin ", "3215": "\u2019ve ", "3216": "dii ", "3217": "tea ", "3218": "gia ", "3219": "bir ", "3220": "r\u00ecs ", "3221": "tr\u2019 ", "3222": "ten ", "3223": "pro ", "3224": "ra\u2019 ", "3225": "dia ", "3226": "smi ", "3227": "pal ", "3228": "nea ", "3229": "sub ", "3230": "bui ", "3231": "zul ", "3232": "rin ", "3233": "vea ", "3234": "pin ", "3235": "lem ", "3236": "sta ", "3237": "mor ", "3238": "gei ", "3239": "o e ", "3240": "rio ", "3241": "lan ", "3242": "tum ", "3243": "sua ", "3244": "nal ", "3245": "cea ", "3246": "dr\u00e0 ", "3247": "gne ", "3248": "bar ", "3249": "tr\u00e0 ", "3250": "por ", "3251": "tei ", "3252": "mea ", "3253": "som ", "3254": "feo ", "3255": "lir ", "3256": "vin ", "3257": "gi\u2019 ", "3258": "dei ", "3259": "pei ", "3260": "no\u2019 ", "3261": "seo ", "3262": "rer ", "3263": "t\u00f2n ", "3264": "co\u2019 ", "3265": "poi ", "3266": "ban ", "3267": "uo\u2019 ", "3268": "sal ", "3269": "tai ", "3270": "pr\u00ec ", "3271": "der ", "3272": "mas ", "3273": "due ", "3274": "vel ", "3275": "d\u00e8i ", "3276": "cul ", "3277": "mal ", "3278": "lon ", "3279": "reo ", "3280": "spe ", "3281": "zie ", "3282": "ros ", "3283": "m\u00ecs ", "3284": "ti\u2019 ", "3285": "pie ", "3286": "gna ", "3287": "fui ", "3288": "gue ", "3289": "tar ", "3290": "zio ", "3291": "mie ", "3292": "r\u00f2l ", "3293": "peo ", "3294": "gro ", "3295": "rar ", "3296": "s\u00f3n ", "3297": "qui ", "3298": "rum ", "3299": "bin ", "3300": "que ", "3301": "vam ", "3302": "for ", "3303": "cre ", "3304": "l\u00e8m ", "3305": "sce ", "3306": "n\u00ece ", "3307": "rel ", "3308": "sar ", "3309": "sie ", "3310": "neo ", "3311": "g\u00f3r ", "3312": "cen ", "3313": "pr\u00e0 ", "3314": "die ", "3315": "ger ", "3316": "ges ", "3317": "fin ", "3318": "rea ", "3319": "cia ", "3320": "sc\u00ec ", "3321": "plo ", "3322": "gri ", "3323": "bia ", "3324": "sun ", "3325": "tis ", "3326": "ben ", "3327": "cra ", "3328": "tro ", "3329": "re\u2019 ", "3330": "pu\u00f2 ", "3331": "noi ", "3332": "dee ", "3333": "non ", "3334": "vei ", "3335": "dr\u00f2 ", "3336": "f\u00e8l ", "3337": "m\u00eca ", "3338": "son ", "3339": "nio ", "3340": "dui ", "3341": "st\u00f2 ", "3342": "han ", "3343": "a e ", "3344": "sui ", "3345": "fue ", "3346": "zan ", "3347": "var ", "3348": "rui ", "3349": "gin ", "3350": "p\u00eca ", "3351": "cis ", "3352": "dem ", "3353": "n\u00f2i ", "3354": "pol ", "3355": "gua ", "3356": "par ", "3357": "lui ", "3358": "rai ", "3359": "gu\u00ec ", "3360": "beo ", "3361": "voi ", "3362": "tre ", "3363": "c\u00f2l ", "3364": "mun ", "3365": "pii ", "3366": "bue ", "3367": "l\u00f2n ", "3368": "san ", "3369": "dir ", "3370": "meo ", "3371": "bee ", "3372": "fal ", "3373": "smo ", "3374": "mia ", "3375": "da\u2019 ", "3376": "fi\u2019 ", "3377": "gre ", "3378": "pon ", "3379": "gni ", "3380": "col ", "3381": "nei ", "3382": "lea ", "3383": "pri ", "3384": "gea ", "3385": "sci ", "3386": "ahi ", "3387": "nie ", "3388": "gn\u00ec ", "3389": "suo ", "3390": "gis ", "3391": "lei ", "3392": "bei ", "3393": "bro ", "3394": "cum ", "3395": "cio ", "3396": "ton ", "3397": "nha ", "3398": "mum ", "3399": "lio ", "3400": "bus ", "3401": "nai ", "3402": "bri ", "3403": "sto ", "3404": "cem ", "3405": "nii ", "3406": "rie ", "3407": "ria ", "3408": "r\u00f3n ", "3409": "sel ", "3410": "pea ", "3411": "l\u00eco ", "3412": "nia ", "3413": "bre ", "3414": "gor ", "3415": "sis ", "3416": "gel ", "3417": "pia ", "3418": "n\u00e8s ", "3419": "dar ", "3420": "nin ", "3421": "con ", "3422": "van ", "3423": "gal ", "3424": "rem ", "3425": "s\u00f9e ", "3426": "tem ", "3427": "sor ", "3428": "far ", "3429": "l\u00eca ", "3430": "mio ", "3431": "lu\u2019 ", "3432": " in ", "3433": "ean ", "3434": "tel ", "3435": "sia ", "3436": "sma ", "3437": "ram ", "3438": "dro ", "3439": "gir ", "3440": "bio ", "3441": "r\u00ecb ", "3442": "bel ", "3443": "del ", "3444": "fu\u2019 ", "3445": "sti ", "3446": "dan ", "3447": "ne\u2019 ", "3448": "mus ", "3449": "min ", "3450": "tui ", "3451": "ner ", "3452": "cal ", "3453": "ci\u00f2 ", "3454": "gu\u00f2 ", "3455": "ree ", "3456": "tir ", "3457": "vil ", "3458": "vau ", "3459": "cil ", "3460": "don ", "3461": "dri ", "3462": "cie ", "3463": "tue ", "3464": "lar ", "3465": "teo ", "3466": "vai ", "3467": "nir ", "3468": "che ", "3469": "zia ", "3470": "ghe ", "3471": "mil ", "3472": "gi\u00f2 ", "3473": "ces ", "3474": "st\u00f9 ", "3475": "d\u00eca ", "3476": "pir ", "3477": "dai ", "3478": "joi ", "3479": "fon ", "3480": "dio ", "3481": "fan ", "3482": "men ", "3483": "ian ", "3484": "tor ", "3485": "c\u00e0n ", "3486": "tal ", "3487": "nol ", "3488": "z\u00f2n ", "3489": "res ", "3490": "t\u00e0n ", "3491": "la\u2019 ", "3492": "ser ", "3493": "pio ", "3494": "ter ", "3495": "lai ", "3496": "tra ", "3497": "ri\u2019 ", "3498": "e i ", "3499": "gli ", "3500": "ste ", "3501": "dur ", "3502": "vio ", "3503": "su\u2019 ", "3504": "via ", "3505": "pem ", "3506": "sco ", "3507": "sei ", "3508": "ch\u00e9 ", "3509": "sca ", "3510": "sue ", "3511": "bi\u00f2 ", "3512": "lor ", "3513": "dal ", "3514": "fio ", "3515": "mai ", "3516": "sii ", "3517": "vol ", "3518": "man ", "3519": "cel ", "3520": "bis ", "3521": "nil ", "3522": "mul ", "3523": "uhi ", "3524": "ier ", "3525": "a a ", "3526": "car ", "3527": "sol ", "3528": "vo\u2019 ", "3529": "g\u00f3n ", "3530": "leo ", "3531": "fe\u2019 ", "3532": "e \u2019 ", "3533": "fur ", "3534": "lie ", "3535": "sio ", "3536": "ril ", "3537": "duo ", "3538": "tol ", "3539": "hai ", "3540": "vii ", "3541": "tus ", "3542": "ror ", "3543": "til ", "3544": "ve\u2019 ", "3545": "fia ", "3546": "dua ", "3547": "d\u00ece ", "3548": "nor ", "3549": "tia ", "3550": "cei ", "3551": "coi ", "3552": "pi\u00e9 ", "3553": "nel ", "3554": "fei ", "3555": "vie ", "3556": "rir ", "3557": "ven ", "3558": "gai ", "3559": "tan ", "3560": "mii ", "3561": "ron ", "3562": "rei ", "3563": "o a ", "3564": "lee ", "3565": "ren ", "3566": "pi\u00f9 ", "3567": "b\u00e0l ", "3568": "cro ", "3569": "dre ", "3570": "mee ", "3571": "cur ", "3572": "fil ", "3573": "zon ", "3574": "tua ", "3575": "sul ", "3576": "sem ", "3577": "tun ", "3578": "ral ", "3579": "din ", "3580": "unt ", "3581": "per ", "3582": "tii ", "3583": "va\u2019 ", "3584": "pan ", "3585": "ghi ", "3586": "s\u00ece ", "3587": "f\u00f3n ", "3588": "cri ", "3589": "rao ", "3590": "suo\u2019 ", "3591": "siam ", "3592": "li o ", "3593": "m\u2019 \u00e8 ", "3594": "la \u00e8 ", "3595": "fuor ", "3596": "viam ", "3597": "que\u2019 ", "3598": "grue ", "3599": "si a ", "3600": "za \u00e8 ", "3601": "ne o ", "3602": "s\u2019 a ", "3603": "trio ", "3604": "gnan ", "3605": "laia ", "3606": "scie ", "3607": "ta a ", "3608": "guan ", "3609": "za i ", "3610": "gaio ", "3611": "re o ", "3612": "ghio ", "3613": "cean ", "3614": "va a ", "3615": "ra e ", "3616": "ni o ", "3617": "frui ", "3618": "drai ", "3619": "ne a ", "3620": "ciai ", "3621": "si \u00e8 ", "3622": "ni e ", "3623": "gier ", "3624": "sunt ", "3625": "ce o ", "3626": "c\u2019 \u00e8 ", "3627": "ghie ", "3628": "ro o ", "3629": "t\u2019 i ", "3630": "ci\u00f2l ", "3631": "zian ", "3632": "gnia ", "3633": "po o ", "3634": "vi o ", "3635": "pa e ", "3636": "chia ", "3637": "ched ", "3638": "breo ", "3639": "quei ", "3640": "me e ", "3641": "po \u00e8 ", "3642": "muel ", "3643": "com\u2019 ", "3644": "no i ", "3645": "nian ", "3646": "gnel ", "3647": "stri ", "3648": "na \u00e8 ", "3649": "vi e ", "3650": "scel ", "3651": "prec ", "3652": "bo e ", "3653": "biar ", "3654": "vien ", "3655": "tu \u2019 ", "3656": "di i ", "3657": "ga o ", "3658": "o in ", "3659": "vo a ", "3660": "sier ", "3661": "ti o ", "3662": "giun ", "3663": "ga e ", "3664": "stui ", "3665": "str\u00f2 ", "3666": "mo \u00e8 ", "3667": "glio ", "3668": "mi a ", "3669": "gnon ", "3670": "spre ", "3671": "le \u00e8 ", "3672": "mi i ", "3673": "chel ", "3674": "a al ", "3675": "gnes ", "3676": "gioi ", "3677": "da a ", "3678": "za a ", "3679": "so o ", "3680": "si e ", "3681": "lian ", "3682": "ve o ", "3683": "lien ", "3684": "sa \u00e8 ", "3685": "li \u00e8 ", "3686": "de o ", "3687": "va o ", "3688": "pier ", "3689": "po i ", "3690": "cian ", "3691": "ph\u00e8l ", "3692": "tria ", "3693": "so a ", "3694": "ma a ", "3695": "ma e ", "3696": "n\u2019 \u00e8 ", "3697": "\u00e8 in ", "3698": "sche ", "3699": "fe e ", "3700": "ma i ", "3701": "bion ", "3702": "ve i ", "3703": "deum ", "3704": "stil ", "3705": "ri o ", "3706": "puoi ", "3707": "brio ", "3708": "ci e ", "3709": "bo a ", "3710": "suoi ", "3711": "fren ", "3712": "s\u2019 \u00e8 ", "3713": "da i ", "3714": "scun ", "3715": "die\u2019 ", "3716": "giar ", "3717": "nean ", "3718": "sc\u00eco ", "3719": "stei ", "3720": "crin ", "3721": "te a ", "3722": "no a ", "3723": "prei ", "3724": "pron ", "3725": "li e ", "3726": "sa e ", "3727": "tran ", "3728": "buon ", "3729": "prir ", "3730": "drir ", "3731": "dien ", "3732": "me o ", "3733": "v\u2019 a ", "3734": "bent ", "3735": "tris ", "3736": "ta i ", "3737": "se a ", "3738": "r\u2019 a ", "3739": "ti \u00e8 ", "3740": "or d ", "3741": "stel ", "3742": "pi\u00f9e ", "3743": "fo \u00e8 ", "3744": "la i ", "3745": "blia ", "3746": "runt ", "3747": "gi e ", "3748": "ce \u00e8 ", "3749": "trar ", "3750": "pa a ", "3751": "quod ", "3752": "mi e ", "3753": "ro i ", "3754": "ra a ", "3755": "di e ", "3756": "star ", "3757": "bi i ", "3758": "duol ", "3759": "scon ", "3760": "maio ", "3761": "suon ", "3762": "sper ", "3763": "te e ", "3764": "d\u2019 i ", "3765": "vria ", "3766": "gnus ", "3767": "stra ", "3768": "scea ", "3769": "te o ", "3770": "or l ", "3771": "gli\u00f2 ", "3772": "nien ", "3773": "brei ", "3774": "so e ", "3775": "co e ", "3776": "quie ", "3777": "to i ", "3778": "spia ", "3779": "di o ", "3780": "dean ", "3781": "ci a ", "3782": "i il ", "3783": "pa \u00e8 ", "3784": "niam ", "3785": "se e ", "3786": "ciar ", "3787": "co \u00e8 ", "3788": "gi\u00f9e ", "3789": "si o ", "3790": "le e ", "3791": "spir ", "3792": "giai ", "3793": "te \u00e8 ", "3794": "o il ", "3795": "te i ", "3796": "co a ", "3797": "l\u2019 \u00e8 ", "3798": "la o ", "3799": "spri ", "3800": "go o ", "3801": "trea ", "3802": "do i ", "3803": "po e ", "3804": "glia ", "3805": "ciel ", "3806": "plar ", "3807": "so i ", "3808": "scir ", "3809": "suol ", "3810": "a il ", "3811": "go e ", "3812": "zi e ", "3813": "se i ", "3814": "d\u2019 \u00e8 ", "3815": "ch e ", "3816": "re i ", "3817": "ziar ", "3818": "ri a ", "3819": "gnum ", "3820": "guai ", "3821": "quar ", "3822": "stai ", "3823": "vean ", "3824": "va i ", "3825": "ma o ", "3826": "rent ", "3827": "be a ", "3828": "bran ", "3829": "prun ", "3830": "bia\u2019 ", "3831": "me a ", "3832": "guon ", "3833": "gual ", "3834": "ta o ", "3835": "mie\u2019 ", "3836": "trai ", "3837": "to o ", "3838": "ra o ", "3839": "vuo\u2019 ", "3840": "tr\u00e0s ", "3841": "ne e ", "3842": "ne i ", "3843": "se o ", "3844": "tram ", "3845": "bian ", "3846": "no o ", "3847": "scio ", "3848": "o un ", "3849": "cheo ", "3850": "fier ", "3851": "le i ", "3852": "quel ", "3853": "tu i ", "3854": "da o ", "3855": "riai ", "3856": "di a ", "3857": "st\u00f2r ", "3858": "go \u00e8 ", "3859": "t\u2019 \u00e8 ", "3860": "ti a ", "3861": "quam ", "3862": "tien ", "3863": "si i ", "3864": "stea ", "3865": "chi\u00f2 ", "3866": "co i ", "3867": "dail ", "3868": "vian ", "3869": "vier ", "3870": "gran ", "3871": "stin ", "3872": "ne \u00e8 ", "3873": "tra\u2019 ", "3874": "de i ", "3875": "l\u00e0 i ", "3876": "ni a ", "3877": "fien ", "3878": "tuo\u2019 ", "3879": "guia ", "3880": "muoi ", "3881": "vuol ", "3882": "sa a ", "3883": "drel ", "3884": "e \u2019n ", "3885": "ver\u2019 ", "3886": "fu o ", "3887": "zion ", "3888": "piar ", "3889": "st\u00e8r ", "3890": "fi e ", "3891": "sion ", "3892": "ce a ", "3893": "tuon ", "3894": "s\u00ec e ", "3895": "stan ", "3896": "mo i ", "3897": "me \u00e8 ", "3898": "ni \u00e8 ", "3899": "e \u2019l ", "3900": "dier ", "3901": "gnun ", "3902": "s\u00e9 i ", "3903": "v\u2019 \u00e8 ", "3904": "de e ", "3905": "ci \u00e8 ", "3906": "go a ", "3907": "c\u00f2th ", "3908": "chin ", "3909": "to \u00e8 ", "3910": "da e ", "3911": "trei ", "3912": "pi e ", "3913": "ve a ", "3914": "lo e ", "3915": "pe i ", "3916": "ciam ", "3917": "ra i ", "3918": "le o ", "3919": "za o ", "3920": "guir ", "3921": "a \u2019l ", "3922": "do a ", "3923": "to e ", "3924": "steo ", "3925": "be e ", "3926": "gian ", "3927": "sien ", "3928": "blio ", "3929": "po a ", "3930": "zi a ", "3931": "d\u00ec i ", "3932": "chie ", "3933": "muor ", "3934": "quai ", "3935": "to a ", "3936": "cain ", "3937": "pe e ", "3938": "stie ", "3939": "fu e ", "3940": "li a ", "3941": "do o ", "3942": "ti e ", "3943": "rean ", "3944": "gi a ", "3945": "cia\u2019 ", "3946": "ciul ", "3947": "plor ", "3948": "quae ", "3949": "vuoi ", "3950": "de \u00e8 ", "3951": "n\u00e9 i ", "3952": "stor ", "3953": "crea ", "3954": "scer ", "3955": "ca o ", "3956": "vi a ", "3957": "fu a ", "3958": "pi\u00e9r ", "3959": "trae ", "3960": "gnor ", "3961": "cuor ", "3962": "pluo ", "3963": "ta e ", "3964": "ge e ", "3965": "rien ", "3966": "gnin ", "3967": "ze e ", "3968": "me i ", "3969": "ra \u00e8 ", "3970": "spro ", "3971": "dria ", "3972": "cl\u00e8s ", "3973": "ci o ", "3974": "slao ", "3975": "naio ", "3976": "qual ", "3977": "buoi ", "3978": "scar ", "3979": "dron ", "3980": "saia ", "3981": "fiar ", "3982": "ca \u00e8 ", "3983": "ro e ", "3984": "stre ", "3985": "quor ", "3986": "chio ", "3987": "tuoi ", "3988": "le a ", "3989": "vo e ", "3990": "schi ", "3991": "do \u00e8 ", "3992": "no e ", "3993": "pia\u2019 ", "3994": "miei ", "3995": "grin ", "3996": "sa i ", "3997": "brar ", "3998": "ghin ", "3999": "i in ", "4000": "vi \u00e8 ", "4001": "nier ", "4002": "gnar ", "4003": "ta \u00e8 ", "4004": "ri e ", "4005": "prai ", "4006": "va e ", "4007": "laio ", "4008": "stro ", "4009": "glie ", "4010": "doan ", "4011": "gior ", "4012": "li i ", "4013": "se \u00e8 ", "4014": "gner ", "4015": "su i ", "4016": "na o ", "4017": "mian ", "4018": "so \u00e8 ", "4019": "pria ", "4020": "br\u00f2t ", "4021": "pien ", "4022": "ma \u00e8 ", "4023": "or i ", "4024": "sian ", "4025": "mo a ", "4026": "lo i ", "4027": "tu e ", "4028": "re a ", "4029": "ge \u00e8 ", "4030": "io o ", "4031": "zi \u00e8 ", "4032": "\u00e8 \u2019l ", "4033": "frir ", "4034": "lier ", "4035": "drea ", "4036": "a in ", "4037": "tree ", "4038": "za e ", "4039": "giam ", "4040": "mo e ", "4041": "sfar ", "4042": "t\u00e8 a ", "4043": "co o ", "4044": "prio ", "4045": "f\u00e9 i ", "4046": "la a ", "4047": "lo \u00e8 ", "4048": "re \u00e8 ", "4049": "dra\u2019 ", "4050": "ro a ", "4051": "sti\u00f2 ", "4052": "lo a ", "4053": "bi a ", "4054": "scia ", "4055": "cria ", "4056": "fior ", "4057": "gien ", "4058": "ciol ", "4059": "cion ", "4060": "ca e ", "4061": "sa o ", "4062": "ba e ", "4063": "de a ", "4064": "ghia ", "4065": "sci\u2019 ", "4066": "trui ", "4067": "na a ", "4068": "sie\u2019 ", "4069": "o \u2019n ", "4070": "ce i ", "4071": "ga a ", "4072": "tier ", "4073": "ve e ", "4074": "ti i ", "4075": "diam ", "4076": "stia ", "4077": "t\u00f2 e ", "4078": "te p ", "4079": "\u00e8 \u2019n ", "4080": "ce e ", "4081": "sci\u00f2 ", "4082": "o al ", "4083": "nail ", "4084": "no \u00e8 ", "4085": "io e ", "4086": "fa e ", "4087": "pian ", "4088": "zo e ", "4089": "ro \u00e8 ", "4090": "pri\u2019 ", "4091": "bree ", "4092": "ca a ", "4093": "rian ", "4094": "zo a ", "4095": "pion ", "4096": "ge a ", "4097": "ghi\u00f2 ", "4098": "ze o ", "4099": "bi e ", "4100": "tiam ", "4101": "do e ", "4102": "tean ", "4103": "\u00e8 il ", "4104": "l\u00ec \u00e8 ", "4105": "gion ", "4106": "prie ", "4107": "svia ", "4108": "be i ", "4109": "cral ", "4110": "fian ", "4111": "gean ", "4112": "la e ", "4113": "re e ", "4114": "na e ", "4115": "gi un ", "4116": "m\u2019 io ", "4117": "va ad ", "4118": "stier ", "4119": "vi il ", "4120": "ra a\u2019 ", "4121": "va il ", "4122": "gno e ", "4123": "ga in ", "4124": "ni or ", "4125": "ghe a ", "4126": "che a ", "4127": "qua a ", "4128": "te or ", "4129": "ne ai ", "4130": "lui a ", "4131": "fa il ", "4132": "za in ", "4133": "c\u2019 ha ", "4134": "ve il ", "4135": "me il ", "4136": "ni ed ", "4137": "b\u00f2 il ", "4138": "ti \u2019n ", "4139": "stran ", "4140": "ce in ", "4141": "va a\u2019 ", "4142": "ha \u2019l ", "4143": "sta \u00e8 ", "4144": "glien ", "4145": "bo in ", "4146": "ra il ", "4147": "ce un ", "4148": "ro al ", "4149": "co ad ", "4150": "g\u2019 io ", "4151": "via e ", "4152": "che \u2019 ", "4153": "ti ai ", "4154": "do ed ", "4155": "gue a ", "4156": "na un ", "4157": "lo ed ", "4158": "se or ", "4159": "bi in ", "4160": "to ed ", "4161": "staio ", "4162": "l\u2019 un ", "4163": "co i\u2019 ", "4164": "stral ", "4165": "va al ", "4166": "r\u00f2 \u2019l ", "4167": "gio e ", "4168": "mi ad ", "4169": "re al ", "4170": "svuol ", "4171": "temps ", "4172": "gno i ", "4173": "te ed ", "4174": "ste e ", "4175": "bro e ", "4176": "zi ai ", "4177": "da il ", "4178": "gliar ", "4179": "ste a ", "4180": "bro \u00e8 ", "4181": "te un ", "4182": "ne \u2019l ", "4183": "ne ed ", "4184": "re i\u2019 ", "4185": "si u\u2019 ", "4186": "gua e ", "4187": "ra ed ", "4188": "sce i ", "4189": "lo ai ", "4190": "vi un ", "4191": "vra i ", "4192": "la a\u2019 ", "4193": "tri e ", "4194": "cio a ", "4195": "gi al ", "4196": "ti un ", "4197": "s\u2019 ei ", "4198": "ve un ", "4199": "fu in ", "4200": "mi ed ", "4201": "ge al ", "4202": "zia e ", "4203": "leo e ", "4204": "s\u00ec al ", "4205": "ra io ", "4206": "sco i ", "4207": "ghiai ", "4208": "le un ", "4209": "do io ", "4210": "va un ", "4211": "dia i ", "4212": "sco e ", "4213": "tro i ", "4214": "tr\u2019 \u00e8 ", "4215": "da or ", "4216": "dre a ", "4217": "p\u2019 io ", "4218": "sce e ", "4219": "gna e ", "4220": "gi il ", "4221": "za un ", "4222": "gui i ", "4223": "n\u2019 ei ", "4224": "za \u2019l ", "4225": "na ei ", "4226": "se i\u2019 ", "4227": "pra e ", "4228": "ria \u00e8 ", "4229": "si il ", "4230": "ria \u2019 ", "4231": "ni in ", "4232": "ria i ", "4233": "ch\u00e9 a ", "4234": "za or ", "4235": "te ha ", "4236": "ch\u2019 a ", "4237": "pa ed ", "4238": "scion ", "4239": "la il ", "4240": "v\u2019 e\u2019 ", "4241": "zo al ", "4242": "pe ad ", "4243": "te io ", "4244": "ra ha ", "4245": "tre e ", "4246": "de un ", "4247": "strar ", "4248": "ch\u2019 \u00e8 ", "4249": "z\u00f2 \u2019l ", "4250": "le il ", "4251": "ci io ", "4252": "gliai ", "4253": "za oh ", "4254": "zii e ", "4255": "te \u2019l ", "4256": "l\u2019 om ", "4257": "za i\u2019 ", "4258": "le ab ", "4259": "s\u00e9 il ", "4260": "ta or ", "4261": "so \u00e8e ", "4262": "l\u00e0 il ", "4263": "b\u2019 io ", "4264": "zia o ", "4265": "ne ad ", "4266": "de il ", "4267": "fu al ", "4268": "la io ", "4269": "tu \u2019l ", "4270": "bra e ", "4271": "do a\u2019 ", "4272": "la ed ", "4273": "zio \u00e8 ", "4274": "me a\u2019 ", "4275": "di or ", "4276": "n\u00f2 \u2019l ", "4277": "do or ", "4278": "da i\u2019 ", "4279": "ia oh ", "4280": "mi un ", "4281": "bre e ", "4282": "sia e ", "4283": "co al ", "4284": "tr\u2019 a ", "4285": "li \u2019l ", "4286": "re in ", "4287": "ma il ", "4288": "no ai ", "4289": "ne il ", "4290": "ge il ", "4291": "ra in ", "4292": "dro e ", "4293": "ta in ", "4294": "vo in ", "4295": "li ei ", "4296": "fa \u2019l ", "4297": "se io ", "4298": "n\u00f2 in ", "4299": "cea o ", "4300": "gnaio ", "4301": "no i\u2019 ", "4302": "te a\u2019 ", "4303": "gno a ", "4304": "d\u2019 un ", "4305": "na \u2019n ", "4306": "ro in ", "4307": "ci or ", "4308": "do \u2019l ", "4309": "le io ", "4310": "le ir ", "4311": "la \u2019l ", "4312": "da al ", "4313": "na il ", "4314": "no un ", "4315": "chian ", "4316": "si or ", "4317": "ce al ", "4318": "va in ", "4319": "lio \u00e8 ", "4320": "me ad ", "4321": "da un ", "4322": "di il ", "4323": "ci\u00f2 a ", "4324": "ta ed ", "4325": "ne a\u2019 ", "4326": "ba in ", "4327": "be or ", "4328": "do ad ", "4329": "t\u00ec \u2019l ", "4330": "no io ", "4331": "segn\u00f2 ", "4332": "do il ", "4333": "be un ", "4334": "zo \u2019l ", "4335": "gli e ", "4336": "tro a ", "4337": "ro il ", "4338": "sti e ", "4339": "dre e ", "4340": "ta al ", "4341": "ta un ", "4342": "sme e ", "4343": "vi \u2019l ", "4344": "pre a ", "4345": "pr\u2019 a ", "4346": "chi a ", "4347": "te i\u2019 ", "4348": "to i\u2019 ", "4349": "si in ", "4350": "l\u2019 ha ", "4351": "zio e ", "4352": "t\u2019 io ", "4353": "g\u00f2 \u2019l ", "4354": "le al ", "4355": "pe il ", "4356": "que a ", "4357": "pri e ", "4358": "zi un ", "4359": "no ad ", "4360": "do in ", "4361": "v\u2019 ei ", "4362": "re or ", "4363": "no a\u2019 ", "4364": "tro e ", "4365": "ne in ", "4366": "t\u2019 ho ", "4367": "pri a ", "4368": "mo il ", "4369": "stian ", "4370": "ti al ", "4371": "stial ", "4372": "ra al ", "4373": "sio e ", "4374": "se un ", "4375": "f\u00e9 \u2019l ", "4376": "te \u2019n ", "4377": "ne or ", "4378": "vrien ", "4379": "zio a ", "4380": "gna a ", "4381": "di ed ", "4382": "va \u2019n ", "4383": "glior ", "4384": "di in ", "4385": "me \u2019n ", "4386": "so a\u2019 ", "4387": "bi un ", "4388": "tra e ", "4389": "pre e ", "4390": "ta ho ", "4391": "na ed ", "4392": "se a\u2019 ", "4393": "di al ", "4394": "ha in ", "4395": "rio a ", "4396": "ro ed ", "4397": "po ed ", "4398": "v\u2019 ha ", "4399": "te il ", "4400": "do ha ", "4401": "li ad ", "4402": "v\u2019 ho ", "4403": "se \u2019n ", "4404": "so \u2019l ", "4405": "ta il ", "4406": "bo a\u2019 ", "4407": "ti a\u2019 ", "4408": "mia e ", "4409": "no al ", "4410": "to \u2019n ", "4411": "mi a\u2019 ", "4412": "le i\u2019 ", "4413": "glian ", "4414": "li i\u2019 ", "4415": "sto e ", "4416": "mio e ", "4417": "lio e ", "4418": "tra \u00e8 ", "4419": "bi \u2019l ", "4420": "pa in ", "4421": "ce il ", "4422": "mi \u2019l ", "4423": "r\u2019 al ", "4424": "l\u00e0 \u2019l ", "4425": "va ed ", "4426": "me or ", "4427": "no \u2019l ", "4428": "co a\u2019 ", "4429": "ce ed ", "4430": "ro a\u2019 ", "4431": "que e ", "4432": "mi in ", "4433": "rio e ", "4434": "bra a ", "4435": "zia \u00e8 ", "4436": "sto \u00e8 ", "4437": "rai e ", "4438": "ro od ", "4439": "to un ", "4440": "r\u00f2 il ", "4441": "ia in ", "4442": "re ha ", "4443": "voill ", "4444": "ta io ", "4445": "lo in ", "4446": "sti a ", "4447": "ge ai ", "4448": "sti \u00e8 ", "4449": "tra \u2019 ", "4450": "pa or ", "4451": "ne ha ", "4452": "ch\u00e9 i ", "4453": "gni e ", "4454": "sci a ", "4455": "s\u2019 io ", "4456": "dio a ", "4457": "bra o ", "4458": "gno \u00e8 ", "4459": "si un ", "4460": "dia e ", "4461": "di \u2019l ", "4462": "ti in ", "4463": "cio e ", "4464": "chier ", "4465": "di ha ", "4466": "po il ", "4467": "fu \u2019l ", "4468": "va ai ", "4469": "be i\u2019 ", "4470": "chiai ", "4471": "me ed ", "4472": "lo ad ", "4473": "gi \u2019l ", "4474": "m\u2019 ha ", "4475": "fo or ", "4476": "sce a ", "4477": "ro i\u2019 ", "4478": "do un ", "4479": "re \u2019n ", "4480": "de al ", "4481": "ca io ", "4482": "ci al ", "4483": "st\u2019 \u00e8 ", "4484": "va \u2019l ", "4485": "le \u2019l ", "4486": "sa in ", "4487": "ia ed ", "4488": "li or ", "4489": "d\u2019 e\u2019 ", "4490": "to \u2019l ", "4491": "sta e ", "4492": "ge ad ", "4493": "to ir ", "4494": "co il ", "4495": "zi or ", "4496": "t\u2019 il ", "4497": "ba il ", "4498": "me un ", "4499": "ti ed ", "4500": "pie a ", "4501": "smo a ", "4502": "ci in ", "4503": "co in ", "4504": "cea a ", "4505": "cia i ", "4506": "me al ", "4507": "ce u\u2019 ", "4508": "te ad ", "4509": "to io ", "4510": "chion ", "4511": "ne io ", "4512": "da \u2019l ", "4513": "qua o ", "4514": "co ai ", "4515": "r\u00e0 ed ", "4516": "co or ", "4517": "le ad ", "4518": "lo or ", "4519": "n\u00e9 \u2019l ", "4520": "v\u2019 \u00e8n ", "4521": "zi ad ", "4522": "lio a ", "4523": "ci il ", "4524": "chi e ", "4525": "lo un ", "4526": "cia a ", "4527": "te in ", "4528": "ti ha ", "4529": "gliea ", "4530": "se ho ", "4531": "zo il ", "4532": "gia o ", "4533": "sa un ", "4534": "che i ", "4535": "d\u00f2 \u2019l ", "4536": "ti \u2019l ", "4537": "strai ", "4538": "gia a ", "4539": "la in ", "4540": "mi il ", "4541": "s\u00ec \u2019l ", "4542": "sa il ", "4543": "mo in ", "4544": "va or ", "4545": "no u\u2019 ", "4546": "la un ", "4547": "ce ha ", "4548": "gioir ", "4549": "co u\u2019 ", "4550": "ve \u2019l ", "4551": "gue e ", "4552": "pi in ", "4553": "sta a ", "4554": "ri a\u2019 ", "4555": "ta ad ", "4556": "ra or ", "4557": "be il ", "4558": "li oh ", "4559": "scian ", "4560": "sca i ", "4561": "lia e ", "4562": "so un ", "4563": "gluol ", "4564": "no in ", "4565": "zi al ", "4566": "to or ", "4567": "pa \u2019l ", "4568": "gia e ", "4569": "di ad ", "4570": "lo ha ", "4571": "ta \u2019l ", "4572": "bre a ", "4573": "d\u2019 ir ", "4574": "to ai ", "4575": "de in ", "4576": "zia a ", "4577": "re ho ", "4578": "qui e ", "4579": "po ha ", "4580": "ge in ", "4581": "lo a\u2019 ", "4582": "ve ad ", "4583": "li ha ", "4584": "mi al ", "4585": "da io ", "4586": "ma \u2019n ", "4587": "io il ", "4588": "le ha ", "4589": "ro or ", "4590": "ve a\u2019 ", "4591": "ti ei ", "4592": "ma un ", "4593": "s\u2019 un ", "4594": "do al ", "4595": "t\u2019 el ", "4596": "d\u2019 io ", "4597": "se il ", "4598": "te ai ", "4599": "lo al ", "4600": "ri al ", "4601": "ve al ", "4602": "so ad ", "4603": "schio ", "4604": "gui e ", "4605": "ce a\u2019 ", "4606": "ra \u2019l ", "4607": "si al ", "4608": "d\u2019 el ", "4609": "se e\u2019 ", "4610": "na ha ", "4611": "gli a ", "4612": "ia il ", "4613": "de ad ", "4614": "dro a ", "4615": "di \u00e8e ", "4616": "no ha ", "4617": "g\u00ec \u2019l ", "4618": "go \u2019l ", "4619": "to al ", "4620": "glier ", "4621": "ra ad ", "4622": "zo in ", "4623": "de ed ", "4624": "li io ", "4625": "se ad ", "4626": "gia \u00e8 ", "4627": "ni\u2019 e ", "4628": "l\u2019 ho ", "4629": "ri \u2019l ", "4630": "re un ", "4631": "c\u2019 ho ", "4632": "v\u00f2 \u2019l ", "4633": "stion ", "4634": "bio e ", "4635": "be al ", "4636": "go il ", "4637": "za il ", "4638": "la al ", "4639": "ca al ", "4640": "re il ", "4641": "v\u2019 i\u2019 ", "4642": "glion ", "4643": "r\u00e0 in ", "4644": "tro \u00e8 ", "4645": "se al ", "4646": "gna \u00e8 ", "4647": "to ad ", "4648": "li un ", "4649": "ti ad ", "4650": "ne al ", "4651": "ge un ", "4652": "mo al ", "4653": "so il ", "4654": "tri \u00e8 ", "4655": "qua \u00e8 ", "4656": "be ed ", "4657": "ti il ", "4658": "ci \u2019l ", "4659": "pre i ", "4660": "co \u2019l ", "4661": "na al ", "4662": "ria e ", "4663": "se ir ", "4664": "vi in ", "4665": "ri in ", "4666": "le or ", "4667": "ma in ", "4668": "ci ha ", "4669": "pa ho ", "4670": "gna o ", "4671": "ne un ", "4672": "dri e ", "4673": "mo ha ", "4674": "si el ", "4675": "se \u2019l ", "4676": "ge or ", "4677": "tra i ", "4678": "t\u00e0 \u2019l ", "4679": "ma \u2019l ", "4680": "be in ", "4681": "va io ", "4682": "mo un ", "4683": "li in ", "4684": "re ir ", "4685": "che e ", "4686": "sciai ", "4687": "no ed ", "4688": "po \u2019l ", "4689": "co io ", "4690": "ve in ", "4691": "pi un ", "4692": "cia e ", "4693": "t\u2019 ha ", "4694": "re ad ", "4695": "tra a ", "4696": "se ai ", "4697": "za ed ", "4698": "ro un ", "4699": "scuoi ", "4700": "t\u00f2 \u2019l ", "4701": "mo ad ", "4702": "v\u2019 io ", "4703": "pio a ", "4704": "sa \u2019l ", "4705": "s\u2019 i\u2019 ", "4706": "t\u00f2 un ", "4707": "da in ", "4708": "ti io ", "4709": "mo ei ", "4710": "te al ", "4711": "chi \u00e8 ", "4712": "ca il ", "4713": "su \u2019l ", "4714": "se in ", "4715": "dro o ", "4716": "ni \u2019l ", "4717": "po in ", "4718": "be \u2019l ", "4719": "d\u2019 ei ", "4720": "gri e ", "4721": "t\u2019 om ", "4722": "gra o ", "4723": "gio a ", "4724": "non e ", "4725": "tri a ", "4726": "le in ", "4727": "li al ", "4728": "stiam ", "4729": "po al ", "4730": "te ho ", "4731": "za ha ", "4732": "ghiar ", "4733": "gue \u00e8 ", "4734": "ca in ", "4735": "d\u00f2 in ", "4736": "di \u2019n ", "4737": "di un ", "4738": "di io ", "4739": "s\u2019 ha ", "4740": "so in ", "4741": "sa ad ", "4742": "si ad ", "4743": "dio e ", "4744": "bia e ", "4745": "pe \u2019l ", "4746": "na in ", "4747": "re a\u2019 ", "4748": "sti o ", "4749": "gna i ", "4750": "tri o ", "4751": "t\u00e9 \u2019l ", "4752": "bi il ", "4753": "mo ed ", "4754": "sto a ", "4755": "ta ha ", "4756": "fu il ", "4757": "si \u2019l ", "4758": "r\u00ec \u2019l ", "4759": "to in ", "4760": "v\u2019 el ", "4761": "no ei ", "4762": "me in ", "4763": "qua e ", "4764": "di a\u2019 ", "4765": "de \u2019l ", "4766": "so al ", "4767": "d\u2019 i\u2019 ", "4768": "ste i ", "4769": "v\u2019 or ", "4770": "ra \u2019n ", "4771": "to ha ", "4772": "nia a ", "4773": "ga il ", "4774": "te u\u2019 ", "4775": "si \u2019n ", "4776": "cia o ", "4777": "chiar ", "4778": "na or ", "4779": "zi \u2019l ", "4780": "no il ", "4781": "po io ", "4782": "ma a\u2019 ", "4783": "n\u2019 ha ", "4784": "s\u2019 el ", "4785": "t\u2019 i\u2019 ", "4786": "na ad ", "4787": "pio e ", "4788": "za al ", "4789": "ra un ", "4790": "to a\u2019 ", "4791": "sciar ", "4792": "ni il ", "4793": "co un ", "4794": "s\u2019 e\u2019 ", "4795": "z\u00f2 il ", "4796": "gni a ", "4797": "que \u00e8 ", "4798": "mo \u2019l ", "4799": "lo il ", "4800": "me \u2019l ", "4801": "sevra ", "4802": "ro ad ", "4803": "ni al ", "4804": "gua a ", "4805": "su in ", "4806": "c\u2019 io ", "4807": "n\u2019 io ", "4808": "me ai ", "4809": "zi il ", "4810": "ria a ", "4811": "sta o ", "4812": "ci a\u2019 ", "4813": "ghe e ", "4814": "to il ", "4815": "ria o ", "4816": "gi\u00e0 i ", "4817": "\u2019v\u2019 \u00e8 ", "4818": "gliel ", "4819": "go al ", "4820": "li il ", "4821": "re ed ", "4822": "ghi e ", "4823": "cea il ", "4824": "ch\u2019 un ", "4825": "rio in ", "4826": "zia in ", "4827": "tre il ", "4828": "c\u2019 hai ", "4829": "ghia a ", "4830": "lio ed ", "4831": "sdegn\u00f2 ", "4832": "ri e \u2019 ", "4833": "gi\u00f9 al ", "4834": "se\u2019 in ", "4835": "rio ha ", "4836": "gu\u00ec \u2019l ", "4837": "tro \u2019l ", "4838": "glio a ", "4839": "qua al ", "4840": "t\u2019 ha\u2019 ", "4841": "glia \u00e8 ", "4842": "glio e ", "4843": "gio in ", "4844": "pi\u00e9 \u2019l ", "4845": "tr\u2019 io ", "4846": "fia il ", "4847": "qua in ", "4848": "stra \u00e8 ", "4849": "stie e ", "4850": "gue in ", "4851": "vea \u2019l ", "4852": "smo al ", "4853": "ch\u2019 io ", "4854": "chia e ", "4855": "tro ad ", "4856": "s\u2019 hai ", "4857": "sta \u2019n ", "4858": "sti \u2019l ", "4859": "n\u2019 uom ", "4860": "lea il ", "4861": "gua in ", "4862": "tro il ", "4863": "tri or ", "4864": "ni e i ", "4865": "c\u2019 han ", "4866": "ghi in ", "4867": "pi\u00f9 \u2019l ", "4868": "gi\u00e0 \u2019l ", "4869": "cea in ", "4870": "po e \u2019 ", "4871": "gli un ", "4872": "ba e \u2019 ", "4873": "pi\u00f9 ir ", "4874": "pra \u2019l ", "4875": "dro in ", "4876": "stri e ", "4877": "bria e ", "4878": "sta in ", "4879": "ghi \u2019l ", "4880": "tra il ", "4881": "sia il ", "4882": "tri il ", "4883": "stro o ", "4884": "tri \u2019l ", "4885": "che a\u2019 ", "4886": "c\u2019 ha\u2019 ", "4887": "gna un ", "4888": "ci\u00f2 \u2019l ", "4889": "che \u2019n ", "4890": "sco il ", "4891": "ch\u2019 in ", "4892": "ch\u00e9 il ", "4893": "gia il ", "4894": "si e \u2019 ", "4895": "che il ", "4896": "due \u2019l ", "4897": "ch\u2019 or ", "4898": "sto ha ", "4899": "tra \u2019l ", "4900": "bio ed ", "4901": "ro hai ", "4902": "l\u2019 uom ", "4903": "tre in ", "4904": "dia in ", "4905": "ria al ", "4906": "lui i\u2019 ", "4907": "stio e ", "4908": "pra in ", "4909": "fra \u2019l ", "4910": "rio il ", "4911": "spra e ", "4912": "stra a ", "4913": "chi a\u2019 ", "4914": "pi\u00e8 al ", "4915": "ch\u2019 a\u2019 ", "4916": "pu\u00f2 \u2019l ", "4917": "tr\u2019 al ", "4918": "vra \u2019l ", "4919": "que or ", "4920": "li han ", "4921": "stro a ", "4922": "va e i ", "4923": "sc\u2019 io ", "4924": "gno ad ", "4925": "chi \u2019n ", "4926": "tro ha ", "4927": "dio in ", "4928": "stia e ", "4929": "sce il ", "4930": "cia al ", "4931": "di e \u2019 ", "4932": "d\u2019 uom ", "4933": "scia o ", "4934": "me e \u2019 ", "4935": "l\u2019 hai ", "4936": "t\u2019 hai ", "4937": "ch\u2019 al ", "4938": "gno il ", "4939": "bre a\u2019 ", "4940": "pre ha ", "4941": "bia \u2019l ", "4942": "sti ha ", "4943": "ci\u00f2 io ", "4944": "ch\u00e9 \u2019n ", "4945": "que il ", "4946": "lia al ", "4947": "gne \u2019l ", "4948": "ti e \u2019 ", "4949": "dria e ", "4950": "ste in ", "4951": "gno ha ", "4952": "chi \u2019l ", "4953": "que a\u2019 ", "4954": "sti il ", "4955": "sto al ", "4956": "sche o ", "4957": "ria il ", "4958": "ghiaio ", "4959": "chio e ", "4960": "mio il ", "4961": "sta il ", "4962": "di\u2019 \u2019l ", "4963": "glio o ", "4964": "gno or ", "4965": "ghio e ", "4966": "cia il ", "4967": "gio il ", "4968": "gi\u00f9 in ", "4969": "pria e ", "4970": "gi\u00f9 il ", "4971": "gio ha ", "4972": "st\u2019 ho ", "4973": "so\u2019 \u2019n ", "4974": "gia un ", "4975": "sto in ", "4976": "tri ad ", "4977": "te han ", "4978": "cria o ", "4979": "ch\u2019 ad ", "4980": "na\u2019 il ", "4981": "gna a\u2019 ", "4982": "dia \u2019l ", "4983": "chi il ", "4984": "fi\u00f2 il ", "4985": "qui \u2019l ", "4986": "tro i\u2019 ", "4987": "ch\u2019 i\u2019 ", "4988": "gna il ", "4989": "bra in ", "4990": "nia il ", "4991": "ch\u2019 ai ", "4992": "que in ", "4993": "gne al ", "4994": "sto ad ", "4995": "diam i ", "4996": "sia \u2019l ", "4997": "trio e ", "4998": "que ad ", "4999": "stra e ", "5000": "to hai ", "5001": "ci\u00f2 il ", "5002": "ste il ", "5003": "se uom ", "5004": "tr\u2019 a\u2019 ", "5005": "cio ed ", "5006": "ti han ", "5007": "pre in ", "5008": "pre \u2019l ", "5009": "gno in ", "5010": "zie al ", "5011": "gno a\u2019 ", "5012": "gio ad ", "5013": "gi\u00f9 \u2019l ", "5014": "mia al ", "5015": "schi o ", "5016": "tro ai ", "5017": "pra ed ", "5018": "gl\u2019 io ", "5019": "ch\u00e9 \u2019l ", "5020": "bia in ", "5021": "qu\u2019 io ", "5022": "pi e i ", "5023": "pre a\u2019 ", "5024": "m\u2019 han ", "5025": "stro e ", "5026": "r\u00f3n il ", "5027": "tra al ", "5028": "glia e ", "5029": "tre i\u2019 ", "5030": "tro ed ", "5031": "sa e \u2019 ", "5032": "ch\u2019 ei ", "5033": "pi\u00f9 il ", "5034": "qua il ", "5035": "que al ", "5036": "mio in ", "5037": "va\u2019 il ", "5038": "gno ed ", "5039": "m\u2019 hai ", "5040": "sce in ", "5041": "glia a ", "5042": "nio al ", "5043": "tre un ", "5044": "pra al ", "5045": "pa e \u2019 ", "5046": "strans ", "5047": "li ha\u2019 ", "5048": "tre a\u2019 ", "5049": "schiar ", "5050": "glia o ", "5051": "gi\u00e0 il ", "5052": "che in ", "5053": "gna \u2019l ", "5054": "gi\u2019 or ", "5055": "ti e i ", "5056": "tre al ", "5057": "do i p ", "5058": "rio ho ", "5059": "gia \u2019l ", "5060": "gue il ", "5061": "sta un ", "5062": "pi\u00f9 al ", "5063": "sc\u00ec \u2019l ", "5064": "gno al ", "5065": "chi al ", "5066": "ne e \u2019 ", "5067": "dri ai ", "5068": "ti\u2019 un ", "5069": "schi a ", "5070": "ci e \u2019 ", "5071": "ra han ", "5072": "dr\u00e0 il ", "5073": "scia e ", "5074": "sti in ", "5075": "chio \u00e8 ", "5076": "gliuol ", "5077": "ro e o ", "5078": "ni e \u2019 ", "5079": "pre al ", "5080": "ch\u2019 e\u2019 ", "5081": "tro in ", "5082": "gni in ", "5083": "dea in ", "5084": "bra ad ", "5085": "ghi al ", "5086": "cia ir ", "5087": "stro \u00e8 ", "5088": "tra i\u2019 ", "5089": "ne han ", "5090": "che \u2019l ", "5091": "chi in ", "5092": "\u2019ve \u2019l ", "5093": "tro un ", "5094": "ro e \u2019 ", "5095": "ciai o ", "5096": "cheo e ", "5097": "ch\u2019 el ", "5098": "gli\u00f2 i ", "5099": "cia in ", "5100": "gna in ", "5101": "cia ad ", "5102": "bra od ", "5103": "sta al ", "5104": "sto il ", "5105": "scia a ", "5106": "chio a ", "5107": "gia or ", "5108": "smo in ", "5109": "la \u2019ve ", "5110": "ch\u2019 \u00e8i ", "5111": "ne e i ", "5112": "gio al ", "5113": "gli al ", "5114": "lia il ", "5115": "chi ei ", "5116": "gliuoi ", "5117": "ch\u2019 om ", "5118": "sto io ", "5119": "glie e ", "5120": "zio al ", "5121": "tro a\u2019 ", "5122": "zia il ", "5123": "che al ", "5124": "pria o ", "5125": "tro io ", "5126": "pia in ", "5127": "que i\u2019 ", "5128": "tro al ", "5129": "cia un ", "5130": "tra in ", "5131": "so hai ", "5132": "dre al ", "5133": "chi ha ", "5134": "scio a ", "5135": "che un ", "5136": "gro un ", "5137": "stro i ", "5138": "to e \u2019l ", "5139": "ta e \u2019n ", "5140": "qu\u2019 ieu ", "5141": "go e \u2019l ", "5142": "na e \u2019l ", "5143": "ci e \u2019l ", "5144": "de e \u2019n ", "5145": "tra e \u2019 ", "5146": "dre e \u2019 ", "5147": "le e \u2019l ", "5148": "stia ad ", "5149": "to o al ", "5150": "zo e \u2019l ", "5151": "be e \u2019l ", "5152": "me e \u2019l ", "5153": "go \u00e8 in ", "5154": "stro or ", "5155": "stri in ", "5156": "mo e \u2019l ", "5157": "ciai oh ", "5158": "ce e \u2019l ", "5159": "si e \u2019l ", "5160": "stro in ", "5161": "bre e \u2019 ", "5162": "ch\u2019 uom ", "5163": "so e \u2019l ", "5164": "m\u2019 \u00e8 \u2019l ", "5165": "no e \u2019l ", "5166": "ro e \u2019l ", "5167": "to \u00e8 \u2019l ", "5168": "ta e \u2019l ", "5169": "dia e i ", "5170": "va e \u2019l ", "5171": "te e \u2019n ", "5172": "te e \u2019l ", "5173": "ma e \u2019l ", "5174": "l\u2019 \u00e8 \u2019l ", "5175": "sa e \u2019l ", "5176": "naio in ", "5177": "glio in ", "5178": "che e \u2019 ", "5179": "glia in ", "5180": "scia il ", "5181": "se e \u2019l ", "5182": "vo e \u2019l ", "5183": "ca e \u2019l ", "5184": "gnia in ", "5185": "sci\u00f2 il ", "5186": "ga e \u2019l ", "5187": "stra \u2019l ", "5188": "za e \u2019l ", "5189": "glia un ", "5190": "ciai el ", "5191": "s\u2019 io e ", "5192": "lio e i ", "5193": "re e \u2019l ", "5194": "po e \u2019l ", "5195": "glie \u2019l ", "5196": "chio in ", "5197": "stra il ", "5198": "giai al ", "5199": "ti e \u2019l ", "5200": "gnia ad ", "5201": "va e \u2019n ", "5202": "v\u2019 \u00e8 \u2019l ", "5203": "bo e \u2019l ", "5204": "schio e ", "5205": "glio or ", "5206": "chio ha ", "5207": "lo \u00e8 in ", "5208": "de e \u2019l ", "5209": "chia al ", "5210": "la e \u2019l ", "5211": "co e \u2019l ", "5212": "glio ai ", "5213": "glie in ", "5214": "schia e ", "5215": "m\u2019 \u00e8 il ", "5216": "chio il ", "5217": "glia il ", "5218": "glia al ", "5219": "ne e \u2019l ", "5220": "gne uom ", "5221": "mi e \u2019l ", "5222": "chio al ", "5223": "ra e \u2019l ", "5224": "do e \u2019n ", "5225": "stro il ", "5226": "me e \u2019n ", "5227": "stro ed ", "5228": "d\u2019 io \u2019l ", "5229": "que e \u2019l ", "5230": "tra e \u2019l ", "5231": "zie e \u2019l ", "5232": "st\u2019 \u00e8 \u2019l ", "5233": "ria \u00e8 \u2019l ", "5234": "tre e \u2019l ", "5235": "sio e \u2019l ", "5236": "ria e \u2019l ", "5237": "sti \u00e8 \u2019l ", "5238": "bra e \u2019l ", "5239": "te ha in ", "5240": "to ha \u2019l ", "5241": "pra e \u2019l ", "5242": "dre e \u2019l ", "5243": "dio e \u2019l ", "5244": "chi e \u2019l ", "5245": "tr\u2019 \u00e8 \u2019l ", "5246": "v\u2019 ha \u2019l ", "5247": "tri e \u2019l ", "5248": "cia e \u2019l ", "5249": "sta e \u2019l ", "5250": "bia e \u2019l ", "5251": "zio e \u2019l ", "5252": "l\u2019 avria ", "5253": "li ha in ", "5254": "so ha \u2019l ", "5255": "c\u2019 ha \u2019l ", "5256": "gio e \u2019l ", "5257": "schi uom ", "5258": "s\u2019 i\u2019 \u2019l ", "5259": "ch\u2019 io \u2019l ", "5260": "chio o \u2019l ", "5261": "scia e \u2019l ", "5262": "ch\u2019 i\u2019 \u2019l ", "5263": "chie e \u2019n ", "5264": "re avrian ", "5265": "li er\u2019 io ", "5266": "stro e \u2019l ", "5267": "glio e \u2019l ", "5268": "chio e \u2019l ", "5269": "s\u2019 io e \u2019l ", "5270": "r\u00e0tro e \u2019l "}