{"0": "", "1": "<t>", "2": "<v>", "3": "<s>", "4": "</v>", "5": "\u2019", "6": "o", "7": "\u00f9", "8": "\u00ef", "9": "\u00eb", "10": "a", "11": "\u00e8", "12": "\u00fc", "13": "e", "14": "\u00f2", "15": "s", "16": "\u00e9", "17": "u", "18": "i", "19": "uo", "20": "at", "21": "va", "22": "az", "23": "d\u00eb", "24": "zi", "25": "bo", "26": "on", "27": "g\u00f2", "28": "d\u00e8", "29": "go", "30": "gu", "31": "ne", "32": "ef", "33": "bi", "34": "di", "35": "n\u00e0", "36": "ho", "37": "vu", "38": "eb", "39": "gi", "40": "da", "41": "p\u2019", "42": "de", "43": "f\u00f3", "44": "ae", "45": "\u00e0s", "46": "do", "47": "ru", "48": "ze", "49": "t\u00ef", "50": "oh", "51": "m\u2019", "52": "l\u00f6", "53": "am", "54": "ob", "55": "be", "56": "un", "57": "mo", "58": "te", "59": "fo", "60": "d\u00e9", "61": "ur", "62": "ad", "63": "po", "64": "od", "65": "fe", "66": "f\u00f2", "67": "oc", "68": "se", "69": "l\u00ec", "70": "em", "71": "n\u00e9", "72": "ro", "73": "l\u00f2", "74": "so", "75": "v\u00ef", "76": "ei", "77": "ga", "78": "\u00e8v", "79": "hi", "80": "t\u2019", "81": "m\u00e8", "82": "ve", "83": "m\u00e4", "84": "d\u00fc", "85": "d\u00f2", "86": "d\u00ef", "87": "os", "88": "t\u00e0", "89": "ia", "90": "ca", "91": "p\u00f2", "92": "v\u00f2", "93": "su", "94": "\u00e8i", "95": "l\u00eb", "96": "g\u00f3", "97": "m\u00eb", "98": "r\u2019", "99": "\u00e8l", "100": "ba", "101": "c\u00f2", "102": "\u2019l", "103": "l\u2019", "104": "s\u00e9", "105": "s\u00e8", "106": "na", "107": "f\u00e9", "108": "si", "109": "\u00e0n", "110": "ce", "111": "ag", "112": "\u00e9n", "113": "op", "114": "fu", "115": "f\u00e0", "116": "le", "117": "ri", "118": "b\u00ef", "119": "lo", "120": "el", "121": "z\u00f2", "122": "m\u00f2", "123": "re", "124": "b\u00f9", "125": "vi", "126": "pu", "127": "s\u00ec", "128": "an", "129": "b\u00e8", "130": "v\u00e8", "131": "f\u00eb", "132": "t\u00f9", "133": "s\u00f2", "134": "sa", "135": "ta", "136": "al", "137": "um", "138": "et", "139": "ar", "140": "za", "141": "t\u00e8", "142": "r\u00ef", "143": "s\u00eb", "144": "a\u2019", "145": "il", "146": "\u00e0m", "147": "du", "148": "b\u2019", "149": "g\u00ec", "150": "p\u00fc", "151": "ha", "152": "l\u00fc", "153": "of", "154": "ge", "155": "\u00f3n", "156": "ot", "157": "c\u00e9", "158": "l\u00e0", "159": "s\u2019", "160": "c\u00f9", "161": "v\u00ec", "162": "nu", "163": "io", "164": "pi", "165": "r\u00ec", "166": "c\u2019", "167": "r\u00e8", "168": "g\u00e8", "169": "ra", "170": "t\u00f2", "171": "ni", "172": "og", "173": "pa", "174": "ir", "175": "l\u00ef", "176": "m\u00ef", "177": "eu", "178": "\u2019n", "179": "co", "180": "b\u00eb", "181": "af", "182": "v\u00eb", "183": "f\u00ef", "184": "g\u00eb", "185": "t\u00e9", "186": "r\u00f3", "187": "om", "188": "c\u00ef", "189": "ci", "190": "ie", "191": "id", "192": "ec", "193": "lu", "194": "n\u00fc", "195": "is", "196": "r\u00f2", "197": "ap", "198": "fa", "199": "no", "200": "v\u2019", "201": "ac", "202": "u\u2019", "203": "g\u00ef", "204": "g\u2019", "205": "i\u2019", "206": "au", "207": "c\u00fc", "208": "ed", "209": "pe", "210": "av", "211": "es", "212": "uc", "213": "c\u00ec", "214": "m\u00ec", "215": "me", "216": "s\u00e0", "217": "mi", "218": "p\u00ec", "219": "iu", "220": "l\u00e8", "221": "ab", "222": "ut", "223": "r\u00e0", "224": "t\u00e4", "225": "fi", "226": "n\u00ec", "227": "t\u00eb", "228": "n\u00ef", "229": "la", "230": "p\u00ef", "231": "us", "232": "n\u00eb", "233": "to", "234": "as", "235": "im", "236": "mu", "237": "li", "238": "n\u2019", "239": "ov", "240": "bu", "241": "z\u2019", "242": "n\u00f2", "243": "ma", "244": "c\u00eb", "245": "s\u00fc", "246": "t\u00fc", "247": "vo", "248": "n\u00e8", "249": "\u2019m", "250": "zo", "251": "ti", "252": "p\u00e8", "253": "p\u00eb", "254": "qu", "255": "d\u2019", "256": "e\u2019", "257": "or", "258": "\u00f9l", "259": "\u00e0r", "260": "ol", "261": "ch", "262": "t\u00ec", "263": "r\u00eb", "264": "s\u00ef", "265": "er", "266": "z\u00ef", "267": "en", "268": "d\u00ec", "269": "tu", "270": "cu", "271": "ul", "272": "ai", "273": "\u00e8n", "274": "b\u00f2", "275": "\u00f2s", "276": "in", "277": "s\u00f9", "278": "d\u00e0", "279": "du\u2019", "280": "ger", "281": "rat", "282": "pir", "283": "meg", "284": "d\u00e8i", "285": "sna", "286": "pac", "287": "lec", "288": "suf", "289": "fre", "290": "gh\u2019", "291": "sog", "292": "nie", "293": "pil", "294": "fuc", "295": "fig", "296": "gob", "297": "nis", "298": "gar", "299": "buo", "300": "coc", "301": "zan", "302": "met", "303": "tir", "304": "cap", "305": "n\u00eca", "306": "vit", "307": "sci", "308": "co\u2019", "309": "cac", "310": "fol", "311": "n\u00ect", "312": "tag", "313": "cen", "314": "bet", "315": "fen", "316": "cel", "317": "ler", "318": "nea", "319": "gad", "320": "hon", "321": "uom", "322": "lon", "323": "vam", "324": "dub", "325": "pi\u00e9", "326": "l\u00eco", "327": "sio", "328": "cez", "329": "nar", "330": "men", "331": "noi", "332": "nez", "333": "bat", "334": "fra", "335": "bie", "336": "st\u00e9", "337": "piu", "338": "cui", "339": "fib", "340": "por", "341": "plo", "342": "bul", "343": "qui", "344": "tr\u2019", "345": "pie", "346": "iar", "347": "col", "348": "dea", "349": "peg", "350": "lot", "351": "feo", "352": "sar", "353": "vio", "354": "fum", "355": "gro", "356": "vor", "357": "tas", "358": "puz", "359": "cob", "360": "pin", "361": "nul", "362": "fiu", "363": "pap", "364": "gu\u00f2", "365": "pat", "366": "svo", "367": "ras", "368": "mug", "369": "nur", "370": "lis", "371": "ne\u2019", "372": "vel", "373": "nev", "374": "lin", "375": "gra", "376": "paz", "377": "for", "378": "dai", "379": "bra", "380": "fin", "381": "deg", "382": "gne", "383": "ter", "384": "dio", "385": "suo", "386": "neb", "387": "vat", "388": "luz", "389": "pen", "390": "gat", "391": "lop", "392": "run", "393": "bus", "394": "noc", "395": "rav", "396": "gio", "397": "dun", "398": "tr\u00f2", "399": "sc\u2019", "400": "va\u2019", "401": "cia", "402": "mic", "403": "rob", "404": "ma\u2019", "405": "tal", "406": "sce", "407": "cat", "408": "res", "409": "gie", "410": "cau", "411": "nol", "412": "len", "413": "tat", "414": "c\u00e0n", "415": "feg", "416": "vet", "417": "ser", "418": "ian", "419": "nel", "420": "nef", "421": "cag", "422": "pol", "423": "pia", "424": "les", "425": "giz", "426": "til", "427": "sud", "428": "san", "429": "buc", "430": "rie", "431": "lit", "432": "d\u00eca", "433": "fer", "434": "tle", "435": "cam", "436": "min", "437": "tie", "438": "scu", "439": "che", "440": "bal", "441": "tru", "442": "bl\u00ef", "443": "zai", "444": "m\u00ecs", "445": "rag", "446": "fan", "447": "\u2018te", "448": "maz", "449": "zii", "450": "man", "451": "tom", "452": "t\u00e0n", "453": "gl\u2019", "454": "neo", "455": "tur", "456": "vei", "457": "nic", "458": "dez", "459": "nil", "460": "pis", "461": "loc", "462": "tet", "463": "dus", "464": "cil", "465": "mio", "466": "gia", "467": "mol", "468": "dal", "469": "sla", "470": "mam", "471": "ror", "472": "sod", "473": "nig", "474": "ria", "475": "ch\u00ef", "476": "mil", "477": "rum", "478": "rao", "479": "fal", "480": "gui", "481": "dan", "482": "cea", "483": "ris", "484": "cov", "485": "gim", "486": "sun", "487": "bis", "488": "nag", "489": "zia", "490": "pot", "491": "tre", "492": "dru", "493": "f\u00e8l", "494": "don", "495": "dri", "496": "lac", "497": "lom", "498": "nat", "499": "\u2018la", "500": "ci\u00f2", "501": "bi\u00f2", "502": "di\u00e8", "503": "pr\u2019", "504": "rec", "505": "tic", "506": "ner", "507": "f\u00f3n", "508": "guz", "509": "dir", "510": "rol", "511": "vag", "512": "tuf", "513": "tel", "514": "gem", "515": "sot", "516": "fie", "517": "da\u2019", "518": "rid", "519": "dem", "520": "sum", "521": "rup", "522": "cio", "523": "su\u2019", "524": "sle", "525": "nem", "526": "pro", "527": "gu\u00ec", "528": "quo", "529": "n\u00e8s", "530": "dif", "531": "vir", "532": "suc", "533": "mia", "534": "poi", "535": "got", "536": "bru", "537": "tei", "538": "cer", "539": "t\u00f3n", "540": "l\u00e8m", "541": "cuc", "542": "deh", "543": "per", "544": "ron", "545": "mes", "546": "gag", "547": "sii", "548": "mur", "549": "tor", "550": "pon", "551": "lei", "552": "rea", "553": "pom", "554": "com", "555": "mai", "556": "rog", "557": "sgo", "558": "rug", "559": "feb", "560": "mar", "561": "las", "562": "so\u2019", "563": "sue", "564": "top", "565": "pu\u00f2", "566": "gib", "567": "fun", "568": "sve", "569": "vra", "570": "sba", "571": "fic", "572": "tim", "573": "muo", "574": "not", "575": "ril", "576": "cun", "577": "nim", "578": "ahi", "579": "cuo", "580": "ges", "581": "far", "582": "giu", "583": "cal", "584": "gin", "585": "tus", "586": "mas", "587": "f\u00e0s", "588": "cem", "589": "bue", "590": "seg", "591": "sac", "592": "gab", "593": "gi\u00e0", "594": "p\u00f2s", "595": "rar", "596": "sfo", "597": "ra\u2019", "598": "sep", "599": "gaz", "600": "rem", "601": "nun", "602": "gno", "603": "de\u2019", "604": "cul", "605": "mir", "606": "vie", "607": "mae", "608": "tia", "609": "num", "610": "ri\u2019", "611": "c\u00f2l", "612": "viz", "613": "st\u00ec", "614": "gua", "615": "fog", "616": "vas", "617": "qu\u2019", "618": "zur", "619": "van", "620": "vis", "621": "pla", "622": "rac", "623": "cl\u00ef", "624": "fur", "625": "lut", "626": "der", "627": "ghe", "628": "lir", "629": "mot", "630": "tr\u00e0", "631": "duo", "632": "dil", "633": "zuf", "634": "bur", "635": "b\u00e0l", "636": "lab", "637": "c\u00f2b", "638": "ruc", "639": "v\u00f2l", "640": "mac", "641": "car", "642": "peo", "643": "tun", "644": "ren", "645": "ch\u00e9", "646": "pli", "647": "gai", "648": "vez", "649": "f\u00e0c", "650": "lic", "651": "lan", "652": "fug", "653": "leb", "654": "no\u2019", "655": "gri", "656": "roz", "657": "cru", "658": "lau", "659": "get", "660": "bel", "661": "pem", "662": "sto", "663": "tro", "664": "rez", "665": "bas", "666": "let", "667": "sca", "668": "mun", "669": "von", "670": "ta\u2019", "671": "coi", "672": "bil", "673": "re\u2019", "674": "pri", "675": "niz", "676": "pau", "677": "mon", "678": "set", "679": "dot", "680": "teg", "681": "f\u00e9l", "682": "mei", "683": "pre", "684": "lip", "685": "sap", "686": "put", "687": "sir", "688": "rer", "689": "vau", "690": "pas", "691": "tea", "692": "tes", "693": "smo", "694": "clo", "695": "tis", "696": "nor", "697": "g\u00f3n", "698": "sec", "699": "rai", "700": "sbi", "701": "qu\u00ef", "702": "rab", "703": "dre", "704": "ruf", "705": "vol", "706": "dec", "707": "son", "708": "r\u00ecs", "709": "muf", "710": "bir", "711": "dug", "712": "tuo", "713": "sua", "714": "st\u2019", "715": "pes", "716": "pel", "717": "glo", "718": "dei", "719": "gal", "720": "biz", "721": "rof", "722": "fro", "723": "due", "724": "fui", "725": "rel", "726": "cla", "727": "lor", "728": "st\u00f2", "729": "tec", "730": "bia", "731": "fei", "732": "ban", "733": "bro", "734": "n\u00f2s", "735": "nal", "736": "lur", "737": "sma", "738": "tem", "739": "dol", "740": "sag", "741": "xil", "742": "ram", "743": "val", "744": "vil", "745": "cet", "746": "ha\u2019", "747": "rig", "748": "tut", "749": "bea", "750": "l\u00f2n", "751": "lep", "752": "sup", "753": "na\u2019", "754": "cai", "755": "gue", "756": "den", "757": "lia", "758": "dis", "759": "nuc", "760": "raz", "761": "zel", "762": "c\u00f3l", "763": "bun", "764": "sol", "765": "soz", "766": "bei", "767": "st\u00e0", "768": "dee", "769": "gas", "770": "sem", "771": "se\u2019", "772": "lee", "773": "sug", "774": "dr\u00e4", "775": "rin", "776": "teo", "777": "han", "778": "sof", "779": "gam", "780": "poz", "781": "lam", "782": "gir", "783": "ruo", "784": "pan", "785": "plu", "786": "lar", "787": "spu", "788": "mal", "789": "fil", "790": "ghi", "791": "gli", "792": "lat", "793": "tho", "794": "dor", "795": "st\u00f9", "796": "st\u00ef", "797": "dr\u00f2", "798": "ver", "799": "det", "800": "roc", "801": "bac", "802": "sie", "803": "tua", "804": "din", "805": "rom", "806": "nin", "807": "sez", "808": "nob", "809": "puo", "810": "sno", "811": "dau", "812": "leo", "813": "cad", "814": "mem", "815": "rio", "816": "nir", "817": "som", "818": "tra", "819": "rit", "820": "bev", "821": "ial", "822": "sti", "823": "fam", "824": "di\u2019", "825": "can", "826": "ten", "827": "\u2019ve", "828": "nes", "829": "tol", "830": "ior", "831": "sra", "832": "vai", "833": "sc\u00ef", "834": "dra", "835": "fru", "836": "sal", "837": "chi", "838": "lav", "839": "net", "840": "r\u00e8g", "841": "ful", "842": "mer", "843": "dob", "844": "dos", "845": "lem", "846": "nec", "847": "gei", "848": "fu\u2019", "849": "neg", "850": "cep", "851": "muc", "852": "cos", "853": "zaf", "854": "bot", "855": "ch\u00ec", "856": "pun", "857": "vea", "858": "dov", "859": "ros", "860": "diz", "861": "cit", "862": "raf", "863": "dom", "864": "ben", "865": "vom", "866": "gen", "867": "r\u00ecb", "868": "fia", "869": "t\u00e9r", "870": "me\u2019", "871": "que", "872": "riz", "873": "tau", "874": "con", "875": "rei", "876": "goz", "877": "nan", "878": "sov", "879": "sia", "880": "die", "881": "ves", "882": "ve\u2019", "883": "ric", "884": "non", "885": "fem", "886": "zar", "887": "sat", "888": "sas", "889": "gea", "890": "dar", "891": "var", "892": "but", "893": "tam", "894": "te\u2019", "895": "vuo", "896": "nuo", "897": "fet", "898": "g\u00f3r", "899": "bli", "900": "lim", "901": "tac", "902": "leg", "903": "nac", "904": "cu\u2019", "905": "dul", "906": "m\u00eca", "907": "vid", "908": "git", "909": "gi\u00f2", "910": "pl\u00ec", "911": "rap", "912": "sbe", "913": "cis", "914": "sa\u2019", "915": "dia", "916": "pub", "917": "gi\u00f9", "918": "bom", "919": "dam", "920": "fat", "921": "smi", "922": "sme", "923": "smu", "924": "pit", "925": "bab", "926": "lun", "927": "sfe", "928": "ber", "929": "gi\u2019", "930": "ran", "931": "sin", "932": "fas", "933": "voi", "934": "boz", "935": "pio", "936": "pi\u00f9", "937": "fos", "938": "soc", "939": "qua", "940": "ste", "941": "dop", "942": "fon", "943": "bef", "944": "gni", "945": "sc\u00ec", "946": "zuc", "947": "cie", "948": "ga\u2019", "949": "sic", "950": "ieu", "951": "fla", "952": "iat", "953": "zac", "954": "pop", "955": "pos", "956": "tri", "957": "p\u00e0r", "958": "rot", "959": "fe\u2019", "960": "sei", "961": "cur", "962": "stu", "963": "cir", "964": "gna", "965": "nei", "966": "lu\u2019", "967": "flu", "968": "dat", "969": "gn\u00ec", "970": "nen", "971": "sfa", "972": "cor", "973": "fuo", "974": "c\u00e9r", "975": "pr\u00ec", "976": "ple", "977": "vin", "978": "moz", "979": "caf", "980": "luc", "981": "r\u00f3n", "982": "clu", "983": "bio", "984": "fac", "985": "cas", "986": "cro", "987": "bec", "988": "lea", "989": "sub", "990": "tan", "991": "puc", "992": "sen", "993": "mos", "994": "sga", "995": "unt", "996": "pru", "997": "vul", "998": "vo\u2019", "999": "sit", "1000": "fis", "1001": "gor", "1002": "cri", "1003": "deb", "1004": "ean", "1005": "tez", "1006": "bol", "1007": "veg", "1008": "bor", "1009": "mor", "1010": "gom", "1011": "t\u00f2r", "1012": "sis", "1013": "laz", "1014": "sai", "1015": "sco", "1016": "spi", "1017": "ti\u2019", "1018": "tar", "1019": "nia", "1020": "sta", "1021": "vem", "1022": "b\u00eca", "1023": "mag", "1024": "poc", "1025": "lup", "1026": "meo", "1027": "dic", "1028": "\u2019v\u2019", "1029": "gan", "1030": "spo", "1031": "via", "1032": "sam", "1033": "pul", "1034": "fi\u2019", "1035": "dim", "1036": "ier", "1037": "fio", "1038": "saf", "1039": "pal", "1040": "red", "1041": "goc", "1042": "noz", "1043": "luo", "1044": "guc", "1045": "pr\u00e0", "1046": "m\u00e9z", "1047": "lie", "1048": "coz", "1049": "par", "1050": "lap", "1051": "rim", "1052": "lil", "1053": "reo", "1054": "sel", "1055": "vac", "1056": "ces", "1057": "tr\u00ef", "1058": "sos", "1059": "rut", "1060": "zul", "1061": "cli", "1062": "reg", "1063": "zio", "1064": "lel", "1065": "sur", "1066": "nio", "1067": "lus", "1068": "zon", "1069": "cra", "1070": "zie", "1071": "bee", "1072": "rir", "1073": "pec", "1074": "pog", "1075": "svi", "1076": "bri", "1077": "gol", "1078": "fab", "1079": "nha", "1080": "nas", "1081": "fel", "1082": "guo", "1083": "t\u00f2m", "1084": "des", "1085": "r\u00f2l", "1086": "gru", "1087": "br\u00ef", "1088": "f\u00e0t", "1089": "mel", "1090": "cef", "1091": "bin", "1092": "mie", "1093": "nai", "1094": "gil", "1095": "hai", "1096": "geo", "1097": "sv\u00ef", "1098": "mez", "1099": "fes", "1100": "dut", "1101": "nom", "1102": "tuc", "1103": "spa", "1104": "boc", "1105": "fai", "1106": "cin", "1107": "bre", "1108": "sop", "1109": "pig", "1110": "vec", "1111": "ret", "1112": "piz", "1113": "cle", "1114": "ion", "1115": "fit", "1116": "tio", "1117": "ses", "1118": "lez", "1119": "gre", "1120": "cei", "1121": "lio", "1122": "sor", "1123": "doc", "1124": "sus", "1125": "ven", "1126": "sui", "1127": "fle", "1128": "pur", "1129": "toc", "1130": "sab", "1131": "dit", "1132": "pei", "1133": "ton", "1134": "gel", "1135": "reb", "1136": "mul", "1137": "uo\u2019", "1138": "cr\u00e0", "1139": "del", "1140": "ral", "1141": "buf", "1142": "gis", "1143": "cre", "1144": "pet", "1145": "gnu", "1146": "dur", "1147": "v\u00ecd", "1148": "gon", "1149": "ch\u2019", "1150": "cot", "1151": "pi\u00e8", "1152": "sde", "1153": "sob", "1154": "cum", "1155": "deo", "1156": "tue", "1157": "das", "1158": "mat", "1159": "pea", "1160": "sul", "1161": "spe", "1162": "s\u00f3n", "1163": "dr\u00e0", "1164": "sil", "1165": "sp\u00ef", "1166": "pic", "1167": "bar", "1168": "gur", "1169": "lai", "1170": "tin", "1171": "fri", "1172": "dr\u00ef", "1173": "bon", "1174": "lui", "1175": "lul", "1176": "tai", "1177": "pra", "1178": "cop", "1179": "cic", "1180": "dro", "1181": "fom", "1182": "za\u2019", "1183": "ciu", "1184": "gau", "1185": "ciap", "1186": "br\u00f2t", "1187": "trai", "1188": "fuor", "1189": "gior", "1190": "puom", "1191": "stas", "1192": "drit", "1193": "miei", "1194": "trui", "1195": "suon", "1196": "viem", "1197": "guic", "1198": "lier", "1199": "greg", "1200": "grap", "1201": "spes", "1202": "die\u2019", "1203": "slac", "1204": "guai", "1205": "trop", "1206": "fioc", "1207": "gher", "1208": "svel", "1209": "snel", "1210": "pi\u00e9r", "1211": "cruc", "1212": "gual", "1213": "creb", "1214": "mian", "1215": "clis", "1216": "gnaz", "1217": "spit", "1218": "chet", "1219": "stra", "1220": "proc", "1221": "dram", "1222": "spar", "1223": "chin", "1224": "scop", "1225": "st\u00f2r", "1226": "gnem", "1227": "pron", "1228": "ples", "1229": "niam", "1230": "spon", "1231": "cria", "1232": "lian", "1233": "guan", "1234": "drap", "1235": "stri", "1236": "brut", "1237": "guia", "1238": "fran", "1239": "stin", "1240": "tras", "1241": "crol", "1242": "flig", "1243": "trae", "1244": "chi\u00f2", "1245": "sciu", "1246": "clau", "1247": "spre", "1248": "scer", "1249": "ched", "1250": "spia", "1251": "bion", "1252": "chis", "1253": "dean", "1254": "sti\u00f2", "1255": "suoi", "1256": "stor", "1257": "pia\u2019", "1258": "cral", "1259": "scel", "1260": "cher", "1261": "stil", "1262": "troc", "1263": "sian", "1264": "spro", "1265": "flet", "1266": "tiam", "1267": "sion", "1268": "gheg", "1269": "tron", "1270": "sver", "1271": "sci\u2019", "1272": "stai", "1273": "spor", "1274": "spri", "1275": "trar", "1276": "trag", "1277": "scab", "1278": "trie", "1279": "puos", "1280": "bron", "1281": "scir", "1282": "guiz", "1283": "pren", "1284": "fles", "1285": "gli\u00f2", "1286": "ciol", "1287": "buon", "1288": "sfre", "1289": "prez", "1290": "stam", "1291": "quam", "1292": "fret", "1293": "scia", "1294": "grom", "1295": "brie", "1296": "giug", "1297": "com\u2019", "1298": "ciom", "1299": "piov", "1300": "pri\u2019", "1301": "stec", "1302": "graf", "1303": "spel", "1304": "nian", "1305": "quod", "1306": "broc", "1307": "drai", "1308": "brar", "1309": "dian", "1310": "naio", "1311": "tren", "1312": "scov", "1313": "scor", "1314": "scri", "1315": "spal", "1316": "bias", "1317": "dra\u2019", "1318": "trom", "1319": "tiem", "1320": "giam", "1321": "piez", "1322": "guef", "1323": "smen", "1324": "dien", "1325": "stis", "1326": "stio", "1327": "dran", "1328": "pria", "1329": "quel", "1330": "pien", "1331": "brio", "1332": "piar", "1333": "dras", "1334": "stei", "1335": "truo", "1336": "ciul", "1337": "vuol", "1338": "gnun", "1339": "scro", "1340": "bren", "1341": "sfin", "1342": "stro", "1343": "nean", "1344": "sper", "1345": "sie\u2019", "1346": "cias", "1347": "plor", "1348": "fiot", "1349": "bia\u2019", "1350": "gnum", "1351": "trap", "1352": "frut", "1353": "gion", "1354": "biet", "1355": "scis", "1356": "blan", "1357": "siam", "1358": "zion", "1359": "sien", "1360": "ghez", "1361": "scet", "1362": "stes", "1363": "spun", "1364": "scom", "1365": "piac", "1366": "stia", "1367": "drir", "1368": "sc\u00eco", "1369": "sfio", "1370": "stie", "1371": "gian", "1372": "stal", "1373": "tien", "1374": "muor", "1375": "gnan", "1376": "grat", "1377": "guaz", "1378": "piom", "1379": "pion", "1380": "spic", "1381": "cion", "1382": "ciar", "1383": "brot", "1384": "trac", "1385": "liev", "1386": "vier", "1387": "grot", "1388": "guil", "1389": "nier", "1390": "quer", "1391": "diam", "1392": "suol", "1393": "chia", "1394": "sier", "1395": "glie", "1396": "sfor", "1397": "scun", "1398": "spec", "1399": "stet", "1400": "puoi", "1401": "scim", "1402": "dail", "1403": "breo", "1404": "trio", "1405": "ziar", "1406": "tror", "1407": "guel", "1408": "gnar", "1409": "spaz", "1410": "prei", "1411": "ghes", "1412": "frat", "1413": "qual", "1414": "lien", "1415": "vien", "1416": "nien", "1417": "ver\u2019", "1418": "gras", "1419": "spie", "1420": "sdet", "1421": "tria", "1422": "flit", "1423": "grin", "1424": "gial", "1425": "guar", "1426": "scam", "1427": "bris", "1428": "ciac", "1429": "frir", "1430": "quis", "1431": "duol", "1432": "spet", "1433": "tuoi", "1434": "grie", "1435": "clas", "1436": "gron", "1437": "fiam", "1438": "spol", "1439": "bent", "1440": "tret", "1441": "stuc", "1442": "fiac", "1443": "sfat", "1444": "sgor", "1445": "sbra", "1446": "fien", "1447": "vuo\u2019", "1448": "scos", "1449": "stop", "1450": "plan", "1451": "fren", "1452": "guet", "1453": "guag", "1454": "stre", "1455": "guir", "1456": "spen", "1457": "pris", "1458": "plau", "1459": "ciuo", "1460": "giar", "1461": "scac", "1462": "guon", "1463": "scen", "1464": "str\u2019", "1465": "cl\u00e8s", "1466": "chie", "1467": "spra", "1468": "scio", "1469": "sneb", "1470": "tuon", "1471": "quen", "1472": "scie", "1473": "smon", "1474": "brul", "1475": "viam", "1476": "biac", "1477": "zian", "1478": "slao", "1479": "ghie", "1480": "scon", "1481": "stui", "1482": "dria", "1483": "gran", "1484": "driz", "1485": "scar", "1486": "bian", "1487": "ciuf", "1488": "dier", "1489": "tram", "1490": "pran", "1491": "stuo", "1492": "scoc", "1493": "gnie", "1494": "fiar", "1495": "fior", "1496": "ghir", "1497": "piog", "1498": "chel", "1499": "gnuo", "1500": "plar", "1501": "prio", "1502": "cian", "1503": "sbri", "1504": "ghet", "1505": "gner", "1506": "quil", "1507": "brei", "1508": "prun", "1509": "que\u2019", "1510": "gres", "1511": "stel", "1512": "gias", "1513": "trat", "1514": "cien", "1515": "scin", "1516": "spir", "1517": "gean", "1518": "sci\u00f2", "1519": "chio", "1520": "sfer", "1521": "str\u00e0", "1522": "puol", "1523": "piat", "1524": "cuor", "1525": "fred", "1526": "brac", "1527": "quan", "1528": "pros", "1529": "trei", "1530": "stol", "1531": "smoz", "1532": "pier", "1533": "cras", "1534": "fron", "1535": "cheg", "1536": "stig", "1537": "scuf", "1538": "sgan", "1539": "trec", "1540": "gier", "1541": "scem", "1542": "squa", "1543": "laio", "1544": "stav", "1545": "quar", "1546": "prin", "1547": "runt", "1548": "gram", "1549": "scan", "1550": "smor", "1551": "str\u00f2", "1552": "scol", "1553": "scea", "1554": "trul", "1555": "ghil", "1556": "schi", "1557": "piag", "1558": "pian", "1559": "brol", "1560": "chiu", "1561": "sfac", "1562": "stul", "1563": "vria", "1564": "scaz", "1565": "ghel", "1566": "stem", "1567": "gnia", "1568": "ciai", "1569": "cia\u2019", "1570": "prir", "1571": "ciot", "1572": "quin", "1573": "quat", "1574": "vean", "1575": "gnen", "1576": "gnas", "1577": "chil", "1578": "glio", "1579": "scal", "1580": "glet", "1581": "grez", "1582": "cioc", "1583": "rien", "1584": "giuo", "1585": "ghio", "1586": "ster", "1587": "vuoi", "1588": "giun", "1589": "sfam", "1590": "ghia", "1591": "trot", "1592": "spez", "1593": "grep", "1594": "guen", "1595": "gien", "1596": "treb", "1597": "fier", "1598": "spin", "1599": "sfar", "1600": "sban", "1601": "smar", "1602": "bran", "1603": "giac", "1604": "spuo", "1605": "gnus", "1606": "fian", "1607": "sgri", "1608": "scot", "1609": "pres", "1610": "suo\u2019", "1611": "guer", "1612": "brug", "1613": "sgom", "1614": "gnel", "1615": "squi", "1616": "mie\u2019", "1617": "rian", "1618": "vian", "1619": "rean", "1620": "gnon", "1621": "tran", "1622": "chez", "1623": "scre", "1624": "dron", "1625": "sman", "1626": "prie", "1627": "giot", "1628": "gnin", "1629": "cean", "1630": "sven", "1631": "guit", "1632": "ghi\u00f2", "1633": "glau", "1634": "grue", "1635": "scic", "1636": "ghin", "1637": "quor", "1638": "biar", "1639": "gnor", "1640": "sbar", "1641": "tier", "1642": "quei", "1643": "stiz", "1644": "star", "1645": "tra\u2019", "1646": "buoi", "1647": "sden", "1648": "stea", "1649": "pric", "1650": "glia", "1651": "\u2018glo", "1652": "smal", "1653": "sfan", "1654": "sten", "1655": "ciam", "1656": "sunt", "1657": "tean", "1658": "maio", "1659": "pruo", "1660": "drel", "1661": "tr\u00e0s", "1662": "crin", "1663": "stan", "1664": "stru", "1665": "sche", "1666": "ciel", "1667": "brez", "1668": "grop", "1669": "sgra", "1670": "ci\u00f2l", "1671": "quai", "1672": "grem", "1673": "sber", "1674": "nail", "1675": "prai", "1676": "crea", "1677": "gros", "1678": "quie", "1679": "span", "1680": "scuo", "1681": "schia", "1682": "sfran", "1683": "spiac", "1684": "gliea", "1685": "splen", "1686": "sgrie", "1687": "gliet", "1688": "squar", "1689": "stral", "1690": "gliar", "1691": "chian", "1692": "chiap", "1693": "spres", "1694": "stion", "1695": "sgiun", "1696": "schio", "1697": "glian", "1698": "glior", "1699": "sciom", "1700": "scial", "1701": "scian", "1702": "strel", "1703": "spraz", "1704": "ghiar", "1705": "strut", "1706": "sci\u00e0n", "1707": "scrit", "1708": "ghian", "1709": "chias", "1710": "scion", "1711": "scheg", "1712": "stram", "1713": "chier", "1714": "strac", "1715": "spran", "1716": "strar", "1717": "gliuo", "1718": "glion", "1719": "scher", "1720": "sciai", "1721": "glier", "1722": "stras", "1723": "glies", "1724": "sciau", "1725": "stret", "1726": "strin", "1727": "ghiac", "1728": "scias", "1729": "chion", "1730": "stian", "1731": "gliel", "1732": "scris", "1733": "stroc", "1734": "chiar", "1735": "scioc", "1736": "temps", "1737": "scrip", "1738": "scran", "1739": "sciar", "1740": "ghiot", "1741": "sciol", "1742": "stiam", "1743": "stial", "1744": "glien", "1745": "vrien", "1746": "schet", "1747": "stric", "1748": "schic", "1749": "chiet", "1750": "gluol", "1751": "sciut", "1752": "strug", "1753": "stroz", "1754": "strai", "1755": "chiai", "1756": "sguar", "1757": "stren", "1758": "svuol", "1759": "strom", "1760": "streg", "1761": "gliam", "1762": "strat", "1763": "schem", "1764": "sciam", "1765": "stran", "1766": "schie", "1767": "ghien", "1768": "chioc", "1769": "squil", "1770": "schiu", "1771": "stier", "1772": "ghiaio", "1773": "schian", "1774": "schiat", "1775": "gliuol", "1776": "schiet", "1777": "gliuoi", "1778": "schiar"}