{"0": "", "1": "<v>", "2": "</v>", "3": "<t>", "4": "</t>", "5": "\u00fc", "6": "i", "7": "a", "8": "u", "9": "s", "10": "\u00ef", "11": "e", "12": "\u00e9", "13": "g", "14": "v", "15": "c", "16": "\u00e8", "17": "\u00f2", "18": "o", "19": "l\u00f2", "20": "bi", "21": "ti", "22": "zi", "23": "vo", "24": "l\u00ec", "25": "ab", "26": "t\u00fc", "27": "de", "28": "l\u00eb", "29": "el", "30": "ad", "31": "l\u00ef", "32": "s\u00f9", "33": "v\u00e9", "34": "le", "35": "al", "36": "po", "37": "en", "38": "l\u00e8", "39": "ae", "40": "ci", "41": "n\u00e8", "42": "te", "43": "d\u00eb", "44": "gu", "45": "n\u00ef", "46": "l\u00fc", "47": "mu", "48": "b\u00eb", "49": "s\u00e0", "50": "r\u00eb", "51": " u", "52": "c\u00eb", "53": "sa", "54": "af", "55": "un", "56": "t\u00ec", "57": "g\u00ef", "58": "et", "59": "f\u00eb", "60": "ce", "61": "f\u00f3", "62": "g\u00eb", "63": "hi", "64": "ec", "65": "p\u00eb", "66": "p\u00ef", "67": "uo", "68": "lu", "69": "ma", "70": "p\u00f2", "71": "v\u00e8", "72": "tu", "73": "no", "74": "c\u00ec", "75": "la", "76": "du", "77": "p\u00fc", "78": "t\u00f2", "79": "ia", "80": "su", "81": "v\u00eb", "82": "n\u00fc", "83": "ba", "84": "ot", "85": "eu", "86": "re", "87": "va", "88": "g\u00f3", "89": "im", "90": "p\u00ec", "91": "am", "92": "ob", "93": "ag", "94": "be", "95": "g\u00e8", "96": "m\u00e8", "97": "fe", "98": "er", "99": "ge", "100": "za", "101": "on", "102": "ac", "103": "of", "104": "vi", "105": "ol", "106": "iu", "107": "id", "108": "do", "109": "oc", "110": "d\u00e9", "111": "go", "112": "n\u00eb", "113": "co", "114": "f\u00ef", "115": "l\u00e0", "116": "pe", "117": "ul", "118": "ov", "119": "na", "120": "c\u00f9", "121": "op", "122": "ta", "123": "c\u00ef", "124": "av", "125": "s\u00eb", "126": "eb", "127": "s\u00e9", "128": "si", "129": "ne", "130": "so", "131": "ur", "132": "b\u00ef", "133": "in", "134": "m\u00ec", "135": "m\u00eb", "136": "mo", "137": "ni", "138": "zo", "139": "fu", "140": "r\u00e0", "141": "au", "142": "v\u00f2", "143": "pu", "144": "ve", "145": "pi", "146": "ze", "147": "ho", "148": "bu", "149": "io", "150": "ro", "151": "to", "152": "es", "153": "fi", "154": "gi", "155": "t\u00eb", "156": "t\u00e4", "157": "\u00e8n", "158": "r\u00f3", "159": "il", "160": "at", "161": "ra", "162": "qu", "163": "os", "164": "s\u00fc", "165": "pa", "166": "r\u00e8", "167": "uc", "168": "l\u00f6", "169": "bo", "170": "om", "171": "m\u00e4", "172": "\u00f2s", "173": "ai", "174": "d\u00fc", "175": "fo", "176": "r\u00ef", "177": "s\u00f2", "178": "az", "179": "li", "180": "ap", "181": "xi", "182": "ri", "183": "n\u00f2", "184": "di", "185": "s\u00ef", "186": "an", "187": "ef", "188": "mi", "189": "d\u00e8", "190": "g\u00fc", "191": "\u00e8v", "192": "ie", "193": "me", "194": "se", "195": "t\u00ef", "196": "ca", "197": "c\u00fc", "198": "p\u00e8", "199": "ha", "200": "t\u00e8", "201": "as", "202": "ru", "203": "da", "204": "ex", "205": "d\u00ef", "206": "f\u00e9", "207": "fa", "208": "ga", "209": "z\u00ef", "210": "or", "211": "em", "212": "v\u00ef", "213": "ar", "214": "m\u00ef", "215": "cu", "216": "vu", "217": "nu", "218": "lo", "219": "is", "220": "og", "221": "sag", "222": "bug", "223": "sta", "224": "ces", "225": "tat", "226": "neg", "227": "raz", "228": "lem", "229": "v\u00f2l", "230": "nio", "231": "cui", "232": "clu", "233": "mie", "234": "bri", "235": "dio", "236": "vem", "237": "qui", "238": "fer", "239": "smi", "240": "bel", "241": "gri", "242": "dur", "243": "sen", "244": "nat", "245": "nuc", "246": "val", "247": "vac", "248": "p\u00f2s", "249": "spe", "250": "pac", "251": "iat", "252": "lop", "253": "nol", "254": "tut", "255": "lat", "256": "col", "257": "fal", "258": "tag", "259": "gui", "260": "lar", "261": "cic", "262": "sud", "263": "pau", "264": "rig", "265": "ple", "266": "viz", "267": "que", "268": "tis", "269": "ves", "270": "sop", "271": "fum", "272": "rir", "273": "gas", "274": "top", "275": "ful", "276": "pri", "277": "lec", "278": "dop", "279": "sec", "280": "goc", "281": "cla", "282": "git", "283": "mun", "284": "fru", "285": "mat", "286": "ton", "287": "seg", "288": "f\u00e9l", "289": "mur", "290": "sba", "291": "pig", "292": "cau", "293": "die", "294": "non", "295": "vin", "296": "fem", "297": "run", "298": "pis", "299": "sel", "300": "rez", "301": "lup", "302": "sia", "303": "pir", "304": "tre", "305": "hon", "306": "o u", "307": "sio", "308": "lom", "309": "m\u00e8c", "310": "fur", "311": "gio", "312": "gru", "313": "fia", "314": "rac", "315": "cum", "316": "bin", "317": "lun", "318": "vis", "319": "rog", "320": "gue", "321": "bon", "322": "giz", "323": "st\u00ef", "324": "ciu", "325": "gau", "326": "ghi", "327": "suf", "328": "lic", "329": "zia", "330": "fuo", "331": "dei", "332": "vit", "333": "fro", "334": "pil", "335": "cia", "336": "pec", "337": "ban", "338": "sde", "339": "vec", "340": "tal", "341": "pas", "342": "dug", "343": "mal", "344": "mir", "345": "sos", "346": "bil", "347": "fle", "348": "cac", "349": "pl\u00ec", "350": "fio", "351": "goz", "352": "cet", "353": "gnu", "354": "ris", "355": "plu", "356": "saf", "357": "lel", "358": "diz", "359": "rec", "360": "pro", "361": "cir", "362": "fie", "363": "mon", "364": "ter", "365": "cef", "366": "pre", "367": "tin", "368": "tos", "369": "sra", "370": "suo", "371": "sum", "372": "leb", "373": "spi", "374": "tuf", "375": "stu", "376": "mac", "377": "dol", "378": "lip", "379": "sal", "380": "lan", "381": "t\u00f2r", "382": "cra", "383": "gol", "384": "bun", "385": "zuc", "386": "bra", "387": "zaf", "388": "ier", "389": "tec", "390": "zur", "391": "a u", "392": "fis", "393": "piz", "394": "fon", "395": "gat", "396": "giu", "397": "pul", "398": "fam", "399": "pom", "400": "ria", "401": "gel", "402": "rin", "403": "zar", "404": "len", "405": "got", "406": "les", "407": "mas", "408": "pos", "409": "ral", "410": "ruf", "411": "fug", "412": "dot", "413": "sto", "414": "sat", "415": "vel", "416": "ner", "417": "ger", "418": "che", "419": "min", "420": "gag", "421": "cap", "422": "cal", "423": "mol", "424": "von", "425": "ten", "426": "lut", "427": "ses", "428": "bor", "429": "vet", "430": "fun", "431": "lab", "432": "fri", "433": "fes", "434": "pic", "435": "vuo", "436": "zel", "437": "mic", "438": "mes", "439": "rio", "440": "cit", "441": "rut", "442": "vei", "443": "met", "444": "rea", "445": "cuc", "446": "fin", "447": "gna", "448": "fre", "449": "cle", "450": "das", "451": "cru", "452": "bui", "453": "mor", "454": "iep", "455": "ghe", "456": "ven", "457": "cas", "458": "ram", "459": "zac", "460": "bur", "461": "nis", "462": "sti", "463": "cot", "464": "nea", "465": "cli", "466": "fac", "467": "gan", "468": "tim", "469": "pru", "470": "san", "471": "del", "472": "plo", "473": "can", "474": "soc", "475": "dul", "476": "dov", "477": "ret", "478": "vom", "479": "dau", "480": "fog", "481": "tau", "482": "fra", "483": "mul", "484": "rim", "485": "sod", "486": "cos", "487": "pog", "488": "nez", "489": "sem", "490": "rit", "491": "cro", "492": "bar", "493": "gen", "494": "gre", "495": "noc", "496": "cr\u00e0", "497": "sus", "498": "rav", "499": "paz", "500": "p\u00e0r", "501": "muc", "502": "zan", "503": "qua", "504": "iar", "505": "bab", "506": "nin", "507": "sp\u00ef", "508": "mem", "509": "nia", "510": "dra", "511": "nob", "512": "o e", "513": "nem", "514": "fit", "515": "lea", "516": "vol", "517": "ril", "518": "lim", "519": "gal", "520": "bru", "521": "sub", "522": "cl\u00ef", "523": "leg", "524": "dem", "525": "sas", "526": "rel", "527": "tor", "528": "sun", "529": "fab", "530": "quo", "531": "peg", "532": "bli", "533": "rot", "534": "dic", "535": "dec", "536": "ser", "537": "ges", "538": "rof", "539": "far", "540": "tom", "541": "fel", "542": "tir", "543": "xil", "544": "nim", "545": "sfo", "546": "tri", "547": "geo", "548": "pra", "549": "bie", "550": "ruc", "551": "nec", "552": "sov", "553": "tic", "554": "nef", "555": "buf", "556": "sfa", "557": "lav", "558": "nal", "559": "dim", "560": "man", "561": "sez", "562": "veg", "563": "nan", "564": "niz", "565": "pla", "566": "dut", "567": "zio", "568": "vor", "569": "sbi", "570": "put", "571": "sce", "572": "fos", "573": "rar", "574": "gli", "575": "fla", "576": "reg", "577": "biz", "578": "tuc", "579": "ver", "580": "red", "581": "gua", "582": "teg", "583": "roc", "584": "pin", "585": "ber", "586": "sla", "587": "bom", "588": "tel", "589": "let", "590": "svi", "591": "for", "592": "tes", "593": "mez", "594": "sr\u00e4", "595": "sor", "596": "lez", "597": "lap", "598": "bia", "599": "tea", "600": "get", "601": "coc", "602": "fen", "603": "smo", "604": "mel", "605": "gad", "606": "pun", "607": "guz", "608": "bet", "609": "piu", "610": "mil", "611": "gni", "612": "cin", "613": "pli", "614": "dat", "615": "pen", "616": "ior", "617": "sam", "618": "bro", "619": "des", "620": "guc", "621": "per", "622": "nor", "623": "pia", "624": "dan", "625": "vas", "626": "sie", "627": "dil", "628": "por", "629": "luo", "630": "cag", "631": "fan", "632": "gia", "633": "lus", "634": "sep", "635": "dar", "636": "loc", "637": "e a", "638": "cez", "639": "t\u00f2m", "640": "dif", "641": "fig", "642": "buo", "643": "leo", "644": "fuc", "645": "ric", "646": "ste", "647": "jau", "648": "lam", "649": "bio", "650": "raf", "651": "deg", "652": "der", "653": "pur", "654": "dea", "655": "cob", "656": "tru", "657": "flu", "658": "puz", "659": "sog", "660": "sic", "661": "vat", "662": "dor", "663": "pit", "664": "nic", "665": "ian", "666": "cie", "667": "mer", "668": "tun", "669": "coz", "670": "guo", "671": "pat", "672": "dos", "673": "sc\u00ef", "674": "cur", "675": "pot", "676": "lis", "677": "nac", "678": "cor", "679": "sgo", "680": "gob", "681": "pi\u00e9", "682": "som", "683": "mug", "684": "e u", "685": "lin", "686": "sga", "687": "mos", "688": "tan", "689": "dam", "690": "bac", "691": "dru", "692": "tra", "693": "bis", "694": "tle", "695": "fic", "696": "nig", "697": "fol", "698": "bl\u00ef", "699": "lot", "700": "dit", "701": "muo", "702": "vie", "703": "sin", "704": "lir", "705": "net", "706": "o a", "707": "muf", "708": "bat", "709": "qu\u00ef", "710": "rug", "711": "rag", "712": "ran", "713": "gon", "714": "tac", "715": "spo", "716": "sca", "717": "nas", "718": "lil", "719": "nom", "720": "luc", "721": "ial", "722": "rom", "723": "gea", "724": "car", "725": "gno", "726": "cel", "727": "cem", "728": "sna", "729": "bul", "730": "gir", "731": "pie", "732": "mag", "733": "gor", "734": "reb", "735": "sob", "736": "sil", "737": "tet", "738": "c\u00f3l", "739": "meg", "740": "cis", "741": "son", "742": "tro", "743": "rat", "744": "las", "745": "feb", "746": "rem", "747": "r\u00e8g", "748": "svo", "749": "tez", "750": "sfe", "751": "lur", "752": "tie", "753": "van", "754": "maz", "755": "pue", "756": "rob", "757": "nel", "758": "han", "759": "bas", "760": "sme", "761": "ron", "762": "rup", "763": "sit", "764": "fet", "765": "gaz", "766": "ruo", "767": "con", "768": "o i", "769": "boz", "770": "ras", "771": "smu", "772": "cea", "773": "tar", "774": "dri", "775": "f\u00e0c", "776": "sle", "777": "fib", "778": "lai", "779": "fom", "780": "nag", "781": "pan", "782": "pop", "783": "bal", "784": "mot", "785": "poz", "786": "puo", "787": "tam", "788": "dez", "789": "dr\u00e4", "790": "gra", "791": "gom", "792": "bea", "793": "dre", "794": "vid", "795": "dia", "796": "cov", "797": "bef", "798": "c\u00e9r", "799": "cun", "800": "dub", "801": "tol", "802": "pal", "803": "cat", "804": "nil", "805": "til", "806": "zon", "807": "spu", "808": "bev", "809": "rid", "810": "sac", "811": "noz", "812": "tho", "813": "soz", "814": "gim", "815": "lit", "816": "bre", "817": "vul", "818": "nie", "819": "puc", "820": "fiu", "821": "ch\u00ef", "822": "lor", "823": "det", "824": "vil", "825": "sap", "826": "mar", "827": "dun", "828": "vez", "829": "sur", "830": "cul", "831": "sot", "832": "sol", "833": "gib", "834": "cam", "835": "toc", "836": "sci", "837": "clo", "838": "sma", "839": "fas", "840": "gab", "841": "nuo", "842": "lul", "843": "nen", "844": "gie", "845": "sco", "846": "sno", "847": "pol", "848": "ler", "849": "lep", "850": "var", "851": "sup", "852": "mia", "853": "lia", "854": "dir", "855": "br\u00ef", "856": "din", "857": "pet", "858": "pio", "859": "cop", "860": "pes", "861": "lon", "862": "duo", "863": "doc", "864": "zuf", "865": "cad", "866": "lau", "867": "moz", "868": "buc", "869": "sve", "870": "rab", "871": "nes", "872": "gar", "873": "tur", "874": "lui", "875": "caf", "876": "riz", "877": "poc", "878": "vam", "879": "bol", "880": "gis", "881": "tas", "882": "sof", "883": "nir", "884": "nev", "885": "nun", "886": "don", "887": "dal", "888": "tr\u00ef", "889": "pel", "890": "cio", "891": "bec", "892": "mam", "893": "chi", "894": "sis", "895": "dus", "896": "sar", "897": "set", "898": "gil", "899": "dob", "900": "cre", "901": "suc", "902": "roz", "903": "dro", "904": "ch\u00ec", "905": "ben", "906": "gam", "907": "res", "908": "den", "909": "boc", "910": "rie", "911": "vag", "912": "tuo", "913": "lac", "914": "cer", "915": "tem", "916": "ren", "917": "vir", "918": "pub", "919": "gem", "920": "mai", "921": "sab", "922": "lie", "923": "sug", "924": "dis", "925": "pap", "926": "cri", "927": "rap", "928": "dr\u00ef", "929": "nar", "930": "glo", "931": "rol", "932": "sv\u00ef", "933": "luz", "934": "a a", "935": "par", "936": "cep", "937": "cen", "938": "feg", "939": "men", "940": "nur", "941": "com", "942": "m\u00e9z", "943": "cuo", "944": "bot", "945": "gur", "946": "not", "947": "gne", "948": "pon", "949": "cil", "950": "dom", "951": "tad", "952": "spa", "953": "fat", "954": "neb", "955": "nul", "956": "scu", "957": "deb", "958": "laz", "959": "ros", "960": "but", "961": "gioi", "962": "trar", "963": "schi", "964": "ga e", "965": "piog", "966": "ne e", "967": "glio", "968": "no a", "969": "sban", "970": "guir", "971": "scel", "972": "dria", "973": "gres", "974": "sten", "975": "brug", "976": "smar", "977": "bi a", "978": "giac", "979": "biac", "980": "prin", "981": "scet", "982": "ghia", "983": "pe i", "984": "ze e", "985": "ma e", "986": "l\u2019 i", "987": "sgom", "988": "prez", "989": "sa o", "990": "scos", "991": "smal", "992": "do o", "993": "vuol", "994": "liev", "995": "gior", "996": "si i", "997": "s\u2019 u", "998": "te o", "999": "li u", "1000": "stan", "1001": "to u", "1002": "proc", "1003": "gias", "1004": "cias", "1005": "clis", "1006": "le a", "1007": "guaz", "1008": "spro", "1009": "ghil", "1010": "me i", "1011": "io a", "1012": "o av", "1013": "cheg", "1014": "a ac", "1015": "so o", "1016": "guer", "1017": "pi e", "1018": "guil", "1019": "sver", "1020": "squi", "1021": "pran", "1022": "do a", "1023": "ciuo", "1024": "na o", "1025": "spie", "1026": "di e", "1027": "glet", "1028": "star", "1029": "stol", "1030": "so e", "1031": "giam", "1032": "ni e", "1033": "le o", "1034": "ti o", "1035": "na i", "1036": "z\u2019 o", "1037": "ge o", "1038": "stuc", "1039": "clau", "1040": "me a", "1041": "chez", "1042": "la e", "1043": "fian", "1044": "vien", "1045": "broc", "1046": "grem", "1047": "trot", "1048": "tran", "1049": "gnan", "1050": "ciom", "1051": "di i", "1052": "ze o", "1053": "te a", "1054": "gras", "1055": "pi a", "1056": "dran", "1057": "sfar", "1058": "grat", "1059": "mian", "1060": "co u", "1061": "quar", "1062": "le e", "1063": "z\u2019 i", "1064": "re i", "1065": "stam", "1066": "va e", "1067": "smon", "1068": "scis", "1069": "bo e", "1070": "ni o", "1071": "trec", "1072": "giun", "1073": "s\u2019 \u00ef", "1074": "ciul", "1075": "re a", "1076": "gial", "1077": "pian", "1078": "fron", "1079": "sbra", "1080": "ne a", "1081": "spez", "1082": "guit", "1083": "te u", "1084": "pres", "1085": "v\u2019 e", "1086": "do e", "1087": "scia", "1088": "spes", "1089": "tu i", "1090": "spin", "1091": "ci u", "1092": "stig", "1093": "bo a", "1094": "ciuf", "1095": "tras", "1096": "str\u00e0", "1097": "scem", "1098": "stra", "1099": "d\u2019 a", "1100": "e in", "1101": "pros", "1102": "spel", "1103": "la o", "1104": "trat", "1105": "ta e", "1106": "egyp", "1107": "gnar", "1108": "di o", "1109": "snel", "1110": "piag", "1111": "se u", "1112": "ci o", "1113": "sfor", "1114": "scon", "1115": "grom", "1116": "tron", "1117": "sa a", "1118": "stul", "1119": "n\u2019 o", "1120": "ti i", "1121": "de i", "1122": "frat", "1123": "gnas", "1124": "treb", "1125": "be a", "1126": "ni u", "1127": "mi o", "1128": "a am", "1129": "l\u2019 u", "1130": "ghir", "1131": "va i", "1132": "scic", "1133": "scer", "1134": "me o", "1135": "e \u2019n", "1136": "fioc", "1137": "ghet", "1138": "spol", "1139": "smen", "1140": "ciap", "1141": "brot", "1142": "\u00e8 im", "1143": "scar", "1144": "puos", "1145": "giot", "1146": "pa u", "1147": "ro a", "1148": "guef", "1149": "c\u2019 e", "1150": "glie", "1151": "spun", "1152": "trie", "1153": "chio", "1154": "fret", "1155": "ce u", "1156": "to e", "1157": "spuo", "1158": "ciel", "1159": "mo e", "1160": "sfam", "1161": "stre", "1162": "spec", "1163": "viem", "1164": "bian", "1165": "guic", "1166": "gnor", "1167": "brut", "1168": "bren", "1169": "da u", "1170": "\u00e8 in", "1171": "v\u2019 a", "1172": "spaz", "1173": "lo a", "1174": "stio", "1175": "gi u", "1176": "grep", "1177": "s\u2019 a", "1178": "ma a", "1179": "brie", "1180": "l\u2019 \u00f2", "1181": "zi e", "1182": "drap", "1183": "ra i", "1184": "dras", "1185": "m\u2019 o", "1186": "pa e", "1187": "mo o", "1188": "scim", "1189": "li o", "1190": "sfat", "1191": "tien", "1192": "d\u2019 \u00eb", "1193": "se \u00eb", "1194": "scio", "1195": "span", "1196": "grop", "1197": "za a", "1198": "zo a", "1199": "po a", "1200": "spon", "1201": "sciu", "1202": "trul", "1203": "scan", "1204": "ie a", "1205": "be o", "1206": "mo a", "1207": "cras", "1208": "pruo", "1209": "chis", "1210": "ca o", "1211": "spir", "1212": "stuo", "1213": "pria", "1214": "greg", "1215": "driz", "1216": "ro e", "1217": "giar", "1218": "l\u00ec a", "1219": "va a", "1220": "grap", "1221": "sfin", "1222": "ziar", "1223": "smor", "1224": "t\u2019 a", "1225": "tren", "1226": "go e", "1227": "prir", "1228": "ga o", "1229": "sche", "1230": "ca a", "1231": "svel", "1232": "scin", "1233": "a es", "1234": "a ef", "1235": "va u", "1236": "guag", "1237": "scaz", "1238": "ne o", "1239": "scop", "1240": "ni a", "1241": "bo i", "1242": "fred", "1243": "stiz", "1244": "d\u2019 \u00ef", "1245": "stro", "1246": "lev\u00e4", "1247": "fiot", "1248": "gien", "1249": "to i", "1250": "ra o", "1251": "gner", "1252": "brol", "1253": "mo u", "1254": "stis", "1255": "dhae", "1256": "ce e", "1257": "lo u", "1258": "trap", "1259": "spen", "1260": "te e", "1261": "stes", "1262": "scre", "1263": "dier", "1264": "l\u2019 e", "1265": "va o", "1266": "m\u00e8 a", "1267": "re o", "1268": "biet", "1269": "to o", "1270": "ne u", "1271": "zi u", "1272": "pier", "1273": "quil", "1274": "sfer", "1275": "p\u2019 e", "1276": "sgri", "1277": "sgan", "1278": "scac", "1279": "trac", "1280": "stel", "1281": "drit", "1282": "spar", "1283": "za i", "1284": "l\u2019 o", "1285": "d\u2019 e", "1286": "piom", "1287": "guel", "1288": "bron", "1289": "ti a", "1290": "m\u2019 a", "1291": "go a", "1292": "guiz", "1293": "s\u00ec a", "1294": "ra e", "1295": "scor", "1296": "spre", "1297": "stav", "1298": "dian", "1299": "scuf", "1300": "li a", "1301": "scen", "1302": "co e", "1303": "truo", "1304": "fles", "1305": "piat", "1306": "ghio", "1307": "tiem", "1308": "di a", "1309": "se a", "1310": "d\u2019 o", "1311": "scal", "1312": "be u", "1313": "lo o", "1314": "trop", "1315": "ce a", "1316": "so a", "1317": "da e", "1318": "na a", "1319": "\u00e8 on", "1320": "fiac", "1321": "stor", "1322": "glau", "1323": "da i", "1324": "s\u00ec u", "1325": "scir", "1326": "tram", "1327": "da a", "1328": "vi e", "1329": "bion", "1330": "po e", "1331": "gnel", "1332": "prie", "1333": "ghie", "1334": "sgra", "1335": "gnaz", "1336": "quis", "1337": "tier", "1338": "gian", "1339": "crea", "1340": "mi u", "1341": "le u", "1342": "scri", "1343": "guet", "1344": "be i", "1345": "scov", "1346": "cric", "1347": "creb", "1348": "do u", "1349": "re e", "1350": "no e", "1351": "ciot", "1352": "brul", "1353": "stri", "1354": "ta u", "1355": "r\u2019 o", "1356": "di u", "1357": "qual", "1358": "ciar", "1359": "ve u", "1360": "do i", "1361": "sden", "1362": "scom", "1363": "za o", "1364": "pron", "1365": "grie", "1366": "ghes", "1367": "o al", "1368": "plau", "1369": "dram", "1370": "tu a", "1371": "spor", "1372": "trom", "1373": "spal", "1374": "d\u2019 i", "1375": "le i", "1376": "stie", "1377": "giuo", "1378": "li e", "1379": "quen", "1380": "stil", "1381": "be e", "1382": "sper", "1383": "stia", "1384": "la a", "1385": "io e", "1386": "se e", "1387": "tret", "1388": "gran", "1389": "so u", "1390": "a in", "1391": "gnon", "1392": "mo i", "1393": "flet", "1394": "sa u", "1395": "sdet", "1396": "gheg", "1397": "l\u00ec e", "1398": "ge a", "1399": "bran", "1400": "mi e", "1401": "troc", "1402": "r\u00ec u", "1403": "lo e", "1404": "ghez", "1405": "li \u2019", "1406": "pren", "1407": "ce i", "1408": "d\u2019 u", "1409": "sber", "1410": "sfre", "1411": "gnuo", "1412": "cher", "1413": "brac", "1414": "co o", "1415": "glia", "1416": "gnen", "1417": "scro", "1418": "la i", "1419": "puol", "1420": "t\u2019 e", "1421": "scie", "1422": "ti e", "1423": "ro o", "1424": "smoz", "1425": "pi i", "1426": "ve a", "1427": "de a", "1428": "te i", "1429": "spet", "1430": "scab", "1431": "slac", "1432": "chil", "1433": "ples", "1434": "na e", "1435": "s\u00ec i", "1436": "quer", "1437": "stal", "1438": "chet", "1439": "zi o", "1440": "puom", "1441": "gron", "1442": "po o", "1443": "quel", "1444": "l\u2019 a", "1445": "ro u", "1446": "stem", "1447": "scoc", "1448": "no i", "1449": "quat", "1450": "ghel", "1451": "brez", "1452": "chiu", "1453": "z\u2019 a", "1454": "fior", "1455": "se o", "1456": "de e", "1457": "c\u2019 o", "1458": "t\u2019 u", "1459": "sneb", "1460": "stin", "1461": "quin", "1462": "sfio", "1463": "la u", "1464": "gnie", "1465": "nian", "1466": "scol", "1467": "de o", "1468": "stas", "1469": "ra a", "1470": "sman", "1471": "ri e", "1472": "io u", "1473": "de u", "1474": "fa i", "1475": "me e", "1476": "t\u2019 o", "1477": "s\u2019 o", "1478": "giug", "1479": "so i", "1480": "ve i", "1481": "cruc", "1482": "si u", "1483": "scuo", "1484": "tu e", "1485": "buon", "1486": "n\u2019 u", "1487": "tror", "1488": "n\u2019 a", "1489": "spic", "1490": "m\u2019 i", "1491": "no u", "1492": "cian", "1493": "spit", "1494": "sgor", "1495": "graf", "1496": "pris", "1497": "flit", "1498": "ciac", "1499": "grot", "1500": "pe e", "1501": "se i", "1502": "vi a", "1503": "r\u2019 u", "1504": "gram", "1505": "ta i", "1506": "gi e", "1507": "sbri", "1508": "ca e", "1509": "guan", "1510": "g\u2019 \u00ef", "1511": "ca u", "1512": "fran", "1513": "piac", "1514": "s\u2019 e", "1515": "flig", "1516": "no o", "1517": "ra u", "1518": "a al", "1519": "si e", "1520": "po u", "1521": "squa", "1522": "na u", "1523": "ro i", "1524": "ster", "1525": "chie", "1526": "crol", "1527": "me u", "1528": "scev", "1529": "pric", "1530": "to a", "1531": "zo e", "1532": "si o", "1533": "da o", "1534": "guen", "1535": "guar", "1536": "quan", "1537": "ta a", "1538": "sfan", "1539": "ma u", "1540": "zian", "1541": "cioc", "1542": "dien", "1543": "spia", "1544": "ma o", "1545": "sa e", "1546": "scam", "1547": "vo o", "1548": "blan", "1549": "sfac", "1550": "sven", "1551": "cion", "1552": "gros", "1553": "sbar", "1554": "ta o", "1555": "gnem", "1556": "v\u2019 o", "1557": "scot", "1558": "bris", "1559": "s\u00ec o", "1560": "si a", "1561": "gher", "1562": "stet", "1563": "sdru", "1564": "c\u2019 \u00ef", "1565": "stru", "1566": "dies", "1567": "m\u2019 e", "1568": "chia", "1569": "ce o", "1570": "piez", "1571": "fiam", "1572": "stec", "1573": "trag", "1574": "bias", "1575": "ci e", "1576": "re u", "1577": "o ar", "1578": "piov", "1579": "gual", "1580": "clas", "1581": "ci a", "1582": "vi o", "1583": "cien", "1584": "ti u", "1585": "frut", "1586": "grez", "1587": "ri u", "1588": "za u", "1589": "co a", "1590": "plan", "1591": "pien", "1592": "stop", "1593": "s\u2019 i", "1594": "n\u2019 e", "1595": "ti et", "1596": "to of", "1597": "stroc", "1598": "v\u2019 of", "1599": "ro ac", "1600": "fu ap", "1601": "dea u", "1602": "li oc", "1603": "ta ac", "1604": "ge et", "1605": "ch\u2019 i", "1606": "co ar", "1607": "la es", "1608": "za am", "1609": "lo al", "1610": "ci ar", "1611": "lo ar", "1612": "se as", "1613": "ne an", "1614": "s\u2019 el", "1615": "za an", "1616": "s\u2019 af", "1617": "r\u2019 al", "1618": "ne ap", "1619": "na af", "1620": "di uo", "1621": "no av", "1622": "no \u2019n", "1623": "sgrie", "1624": "sci\u00e0n", "1625": "le in", "1626": "l\u2019 \u00e0n", "1627": "l\u2019 ov", "1628": "to ec", "1629": "ca er", "1630": "ze or", "1631": "m\u2019 in", "1632": "tr\u2019 a", "1633": "li ac", "1634": "ro or", "1635": "li am", "1636": "te ab", "1637": "ra ab", "1638": "d\u2019 ot", "1639": "lo er", "1640": "chioc", "1641": "de in", "1642": "ro eb", "1643": "ta al", "1644": "no or", "1645": "te os", "1646": "zi as", "1647": "no ad", "1648": "me of", "1649": "do ol", "1650": "ri ar", "1651": "ta in", "1652": "do eb", "1653": "ro ab", "1654": "m\u2019 al", "1655": "s\u00ec \u2019m", "1656": "lo \u2019m", "1657": "za im", "1658": "le ol", "1659": "li of", "1660": "chiap", "1661": "pie e", "1662": "la av", "1663": "ria \u00f2", "1664": "tri o", "1665": "ce ac", "1666": "bi et", "1667": "do el", "1668": "ro oc", "1669": "ta ar", "1670": "se in", "1671": "re ab", "1672": "ne as", "1673": "so al", "1674": "s\u2019 et", "1675": "scran", "1676": "no al", "1677": "ri in", "1678": "lia a", "1679": "hi om", "1680": "la en", "1681": "ta an", "1682": "do as", "1683": "pr\u2019 e", "1684": "ra ot", "1685": "gia e", "1686": "ta as", "1687": "pre e", "1688": "de on", "1689": "me at", "1690": "na ab", "1691": "ga in", "1692": "l\u2019 al", "1693": "ghian", "1694": "ma ap", "1695": "za al", "1696": "m\u2019 ab", "1697": "ni en", "1698": "sgher", "1699": "co an", "1700": "li eb", "1701": "bra a", "1702": "glien", "1703": "sguar", "1704": "le es", "1705": "m\u2019 ap", "1706": "gliel", "1707": "tra a", "1708": "n\u2019 ol", "1709": "l\u00ec en", "1710": "to on", "1711": "tro u", "1712": "do ap", "1713": "ro in", "1714": "ze es", "1715": "di in", "1716": "n\u2019 av", "1717": "vo au", "1718": "be al", "1719": "re ol", "1720": "l\u2019 un", "1721": "s\u2019 ar", "1722": "la or", "1723": "so \u2019n", "1724": "che a", "1725": "d\u2019 au", "1726": "d\u2019 on", "1727": "le uc", "1728": "mi am", "1729": "li ag", "1730": "dre e", "1731": "fu of", "1732": "l\u2019 af", "1733": "ve an", "1734": "mo on", "1735": "do es", "1736": "to ab", "1737": "gne u", "1738": "sto e", "1739": "t\u2019 an", "1740": "te or", "1741": "re il", "1742": "tu ha", "1743": "t\u2019 ar", "1744": "l\u2019 ai", "1745": "te er", "1746": "so as", "1747": "l\u2019 uo", "1748": "l\u2019 uc", "1749": "d\u2019 an", "1750": "si \u2019n", "1751": "stret", "1752": "la \u2019m", "1753": "le on", "1754": "li ad", "1755": "ra ac", "1756": "ga as", "1757": "so ab", "1758": "v\u2019 ac", "1759": "se \u2019n", "1760": "ne et", "1761": "ha \u2019n", "1762": "l\u2019 eb", "1763": "mo al", "1764": "co ad", "1765": "tro i", "1766": "tra i", "1767": "se\u2019 a", "1768": "ni in", "1769": "ra an", "1770": "le am", "1771": "streg", "1772": "si uo", "1773": "do af", "1774": "li on", "1775": "de ac", "1776": "to ar", "1777": "triar", "1778": "so an", "1779": "ro al", "1780": "ni as", "1781": "la of", "1782": "s\u2019 en", "1783": "ro ar", "1784": "m\u2019 ad", "1785": "si or", "1786": "r\u2019 an", "1787": "ci at", "1788": "re ag", "1789": "d\u2019 am", "1790": "li \u2019m", "1791": "io al", "1792": "c\u2019 im", "1793": "do im", "1794": "ta am", "1795": "l\u2019 um", "1796": "m\u2019 ac", "1797": "l\u2019 os", "1798": "re on", "1799": "me ar", "1800": "do ac", "1801": "si av", "1802": "do on", "1803": "re em", "1804": "ra eb", "1805": "re as", "1806": "co av", "1807": "l\u2019 ae", "1808": "se ol", "1809": "sa og", "1810": "ci av", "1811": "te iu", "1812": "ve at", "1813": "to et", "1814": "di an", "1815": "ti in", "1816": "se af", "1817": "s\u2019 ab", "1818": "ra ec", "1819": "tri a", "1820": "ce et", "1821": "l\u2019 of", "1822": "le oc", "1823": "s\u2019 er", "1824": "tro a", "1825": "s\u2019 im", "1826": "strar", "1827": "lo \u2019n", "1828": "d\u2019 af", "1829": "n\u2019 in", "1830": "zi at", "1831": "to at", "1832": "de of", "1833": "no am", "1834": "sco u", "1835": "mi\u2019 a", "1836": "v\u2019 ar", "1837": "lo ef", "1838": "co on", "1839": "te ac", "1840": "di ol", "1841": "le of", "1842": "z\u2019 al", "1843": "ci as", "1844": "pra a", "1845": "chiet", "1846": "sco o", "1847": "ne em", "1848": "ti an", "1849": "sciol", "1850": "sta i", "1851": "mi al", "1852": "gno a", "1853": "zo as", "1854": "qu\u2019 e", "1855": "ro of", "1856": "vi av", "1857": "le ar", "1858": "ra am", "1859": "ci af", "1860": "to ov", "1861": "d\u2019 as", "1862": "d\u2019 im", "1863": "schie", "1864": "ne \u2019m", "1865": "v\u2019 et", "1866": "va at", "1867": "za in", "1868": "ro es", "1869": "ci in", "1870": "lo af", "1871": "te \u2019n", "1872": "lo on", "1873": "ci ad", "1874": "se op", "1875": "le at", "1876": "d\u2019 es", "1877": "m\u2019 as", "1878": "qua e", "1879": "mo at", "1880": "m\u2019 es", "1881": "do ar", "1882": "s\u2019 of", "1883": "ti or", "1884": "l\u2019 es", "1885": "le \u2019n", "1886": "lo at", "1887": "zi ag", "1888": "l\u2019 an", "1889": "ge un", "1890": "sto o", "1891": "ti oc", "1892": "p\u00e8 al", "1893": "re ad", "1894": "strut", "1895": "n\u2019 at", "1896": "di ac", "1897": "s\u2019 in", "1898": "l\u2019 as", "1899": "n\u2019 om", "1900": "ne av", "1901": "no es", "1902": "zia o", "1903": "t\u2019 es", "1904": "re ar", "1905": "scian", "1906": "li au", "1907": "st\u2019 u", "1908": "schio", "1909": "dio a", "1910": "ro am", "1911": "t\u2019 af", "1912": "ta et", "1913": "vi ac", "1914": "ve al", "1915": "chiun", "1916": "se at", "1917": "ra av", "1918": "na on", "1919": "m\u2019 ol", "1920": "mi ef", "1921": "d\u2019 eb", "1922": "n\u2019 on", "1923": "sciut", "1924": "chi o", "1925": "te af", "1926": "scris", "1927": "le id", "1928": "ce au", "1929": "l\u2019 ag", "1930": "to ac", "1931": "de al", "1932": "te em", "1933": "di av", "1934": "co ac", "1935": "ni ap", "1936": "si ar", "1937": "sta o", "1938": "l\u2019 oc", "1939": "s\u2019 al", "1940": "va al", "1941": "l\u2019 ap", "1942": "d\u2019 et", "1943": "li \u2019n", "1944": "z\u00f2 in", "1945": "d\u2019 or", "1946": "to eb", "1947": "so in", "1948": "zo an", "1949": "strel", "1950": "t\u2019 al", "1951": "vo al", "1952": "li or", "1953": "te es", "1954": "vo as", "1955": "ma al", "1956": "de au", "1957": "se es", "1958": "be ar", "1959": "v\u2019 ap", "1960": "le \u2019m", "1961": "ne ac", "1962": "d\u2019 at", "1963": "ce av", "1964": "to es", "1965": "go in", "1966": "li av", "1967": "strac", "1968": "si im", "1969": "di ab", "1970": "me ef", "1971": "ba un", "1972": "li em", "1973": "chiar", "1974": "z\u2019 ar", "1975": "sa ap", "1976": "ca an", "1977": "to al", "1978": "sta u", "1979": "to ap", "1980": "ti ad", "1981": "za \u2019n", "1982": "fu av", "1983": "t\u2019 im", "1984": "ro av", "1985": "tro e", "1986": "me af", "1987": "dio e", "1988": "n\u2019 ab", "1989": "l\u2019 am", "1990": "t\u2019 em", "1991": "do er", "1992": "li at", "1993": "sce a", "1994": "sa in", "1995": "scial", "1996": "zo ar", "1997": "to ef", "1998": "m\u2019 an", "1999": "te al", "2000": "si og", "2001": "li ab", "2002": "bre a", "2003": "na es", "2004": "se un", "2005": "bra u", "2006": "stric", "2007": "mo ar", "2008": "di of", "2009": "re es", "2010": "ha al", "2011": "ne af", "2012": "schic", "2013": "ne ov", "2014": "te en", "2015": "se al", "2016": "di af", "2017": "ger e", "2018": "cia e", "2019": "t\u00e8 an", "2020": "d\u2019 eu", "2021": "tr\u2019 e", "2022": "tro o", "2023": "co al", "2024": "vi in", "2025": "que o", "2026": "va id", "2027": "ce es", "2028": "re en", "2029": "ce in", "2030": "v\u2019 el", "2031": "ri on", "2032": "ma es", "2033": "to or", "2034": "li an", "2035": "sto a", "2036": "me au", "2037": "ce im", "2038": "s\u2019 eb", "2039": "de am", "2040": "v\u2019 es", "2041": "do oc", "2042": "n\u2019 eb", "2043": "scioc", "2044": "sciam", "2045": "ra es", "2046": "za er", "2047": "ia an", "2048": "de er", "2049": "scias", "2050": "s\u2019 es", "2051": "l\u2019 ar", "2052": "b\u00ec al", "2053": "sciom", "2054": "po in", "2055": "fo et", "2056": "m\u2019 av", "2057": "ve ap", "2058": "li as", "2059": "mi ac", "2060": "ro an", "2061": "si ol", "2062": "sfran", "2063": "glian", "2064": "te is", "2065": "tri e", "2066": "v\u2019 in", "2067": "ghiac", "2068": "zo in", "2069": "go es", "2070": "v\u2019 al", "2071": "ze et", "2072": "te at", "2073": "ti of", "2074": "te on", "2075": "ro um", "2076": "la \u2019n", "2077": "st\u2019 a", "2078": "sa im", "2079": "to as", "2080": "ce al", "2081": "zi al", "2082": "cia a", "2083": "me am", "2084": "ce as", "2085": "ge in", "2086": "v\u2019 er", "2087": "di or", "2088": "n\u2019 au", "2089": "t\u2019 in", "2090": "l\u2019 in", "2091": "zi \u2019m", "2092": "te om", "2093": "di es", "2094": "ta ad", "2095": "di om", "2096": "ta un", "2097": "sta a", "2098": "li es", "2099": "mo in", "2100": "s\u00ec \u2019n", "2101": "se an", "2102": "l\u2019 op", "2103": "po av", "2104": "r\u2019 el", "2105": "gi an", "2106": "lo as", "2107": "t\u2019 ab", "2108": "l\u2019 el", "2109": "ti en", "2110": "n\u2019 ag", "2111": "fa ir", "2112": "si an", "2113": "to ad", "2114": "ve es", "2115": "li al", "2116": "de eu", "2117": "schia", "2118": "ga an", "2119": "v\u2019 an", "2120": "no ac", "2121": "gi\u00e0 e", "2122": "mo es", "2123": "se on", "2124": "l\u2019 ab", "2125": "ro on", "2126": "c\u2019 en", "2127": "so eb", "2128": "ghien", "2129": "li ul", "2130": "s\u2019 am", "2131": "s\u2019 as", "2132": "de an", "2133": "n\u2019 an", "2134": "splen", "2135": "no ag", "2136": "t\u2019 as", "2137": "stroz", "2138": "scrip", "2139": "li er", "2140": "la in", "2141": "te in", "2142": "si el", "2143": "ci am", "2144": "squar", "2145": "sciau", "2146": "ne ag", "2147": "s\u2019 av", "2148": "l\u2019 on", "2149": "fe et", "2150": "re om", "2151": "me el", "2152": "co at", "2153": "li in", "2154": "de ar", "2155": "li ap", "2156": "re oc", "2157": "t\u00e0 in", "2158": "ta es", "2159": "chi u", "2160": "co et", "2161": "ro at", "2162": "n\u2019 ar", "2163": "re am", "2164": "ma an", "2165": "be av", "2166": "d\u2019 az", "2167": "qu\u2019 o", "2168": "fu el", "2169": "ahi a", "2170": "n\u2019 am", "2171": "gna a", "2172": "smo a", "2173": "te ag", "2174": "\u2019v\u2019 u", "2175": "l\u2019 ad", "2176": "d\u2019 og", "2177": "fu im", "2178": "le as", "2179": "te au", "2180": "re au", "2181": "va in", "2182": "l\u2019 or", "2183": "te an", "2184": "de ag", "2185": "go al", "2186": "ce ar", "2187": "l\u2019 ul", "2188": "la al", "2189": "pi or", "2190": "mi an", "2191": "ri al", "2192": "l\u2019 at", "2193": "le al", "2194": "de af", "2195": "re in", "2196": "re at", "2197": "ti at", "2198": "l\u2019 er", "2199": "ra al", "2200": "so es", "2201": "l\u2019 et", "2202": "ta of", "2203": "ce af", "2204": "chi e", "2205": "ra on", "2206": "leo e", "2207": "strat", "2208": "vi ar", "2209": "vi of", "2210": "fo im", "2211": "ni es", "2212": "ri ap", "2213": "na ac", "2214": "squil", "2215": "da in", "2216": "de as", "2217": "que u", "2218": "sti o", "2219": "le or", "2220": "mo eb", "2221": "se ac", "2222": "la el", "2223": "do an", "2224": "so ar", "2225": "to oc", "2226": "no im", "2227": "vi am", "2228": "ce at", "2229": "n\u2019 er", "2230": "spraz", "2231": "me in", "2232": "ta el", "2233": "la on", "2234": "vi \u2019m", "2235": "mi ad", "2236": "za et", "2237": "to im", "2238": "re ot", "2239": "fa az", "2240": "la ol", "2241": "si as", "2242": "re an", "2243": "ia al", "2244": "stras", "2245": "si ad", "2246": "do or", "2247": "strom", "2248": "sa on", "2249": "che e", "2250": "fu al", "2251": "no in", "2252": "na or", "2253": "t\u2019 el", "2254": "ca en", "2255": "ni an", "2256": "na of", "2257": "gliet", "2258": "gne a", "2259": "v\u2019 ab", "2260": "ta on", "2261": "so et", "2262": "vo ac", "2263": "pi in", "2264": "ci an", "2265": "m\u2019 of", "2266": "na eb", "2267": "no at", "2268": "de \u2019n", "2269": "te ol", "2270": "cea u", "2271": "na ap", "2272": "gia o", "2273": "chi a", "2274": "suo a", "2275": "co er", "2276": "t\u2019 ap", "2277": "re ac", "2278": "ba in", "2279": "strin", "2280": "ma on", "2281": "l\u2019 au", "2282": "ne es", "2283": "cia o", "2284": "no er", "2285": "d\u2019 ab", "2286": "bo av", "2287": "n\u2019 al", "2288": "li af", "2289": "do al", "2290": "m\u2019 af", "2291": "ra ad", "2292": "zie o", "2293": "chian", "2294": "dio o", "2295": "va im", "2296": "pa in", "2297": "ne in", "2298": "lo in", "2299": "t\u2019 ac", "2300": "te as", "2301": "no ar", "2302": "ti ar", "2303": "no as", "2304": "tu en", "2305": "m\u2019 eb", "2306": "re et", "2307": "va ar", "2308": "bre o", "2309": "lo eb", "2310": "no ap", "2311": "ne al", "2312": "te im", "2313": "l\u2019 om", "2314": "ni al", "2315": "m\u2019 ag", "2316": "n\u2019 ap", "2317": "scheg", "2318": "ni on", "2319": "d\u2019 el", "2320": "ne on", "2321": "mo ec", "2322": "schiu", "2323": "gliam", "2324": "s\u2019 op", "2325": "ch\u2019 a", "2326": "t\u2019 am", "2327": "si \u2019m", "2328": "lo es", "2329": "d\u2019 in", "2330": "si al", "2331": "si en", "2332": "l\u2019 ac", "2333": "la ap", "2334": "si ac", "2335": "cro a", "2336": "s\u00ec in", "2337": "se ap", "2338": "po on", "2339": "ra ap", "2340": "to ag", "2341": "n\u2019 ac", "2342": "ma of", "2343": "pa es", "2344": "na ar", "2345": "t\u2019 at", "2346": "ne im", "2347": "di on", "2348": "s\u2019 an", "2349": "dio i", "2350": "spran", "2351": "mio a", "2352": "ca on", "2353": "s\u2019 ap", "2354": "me on", "2355": "che o", "2356": "d\u2019 er", "2357": "ra uc", "2358": "lo an", "2359": "l\u2019 en", "2360": "fu in", "2361": "sa an", "2362": "do in", "2363": "ce on", "2364": "ne \u2019n", "2365": "ri an", "2366": "l\u2019 em", "2367": "no ec", "2368": "bi al", "2369": "ta op", "2370": "za on", "2371": "l\u2019 ot", "2372": "s\u2019 ag", "2373": "so on", "2374": "scrit", "2375": "cio e", "2376": "s\u2019 ad", "2377": "ma or", "2378": "fu oc", "2379": "ta at", "2380": "d\u2019 ar", "2381": "ro im", "2382": "lo ac", "2383": "zi ap", "2384": "co in", "2385": "strug", "2386": "di az", "2387": "spiac", "2388": "to af", "2389": "re im", "2390": "me al", "2391": "l\u2019 im", "2392": "li un", "2393": "sa es", "2394": "do am", "2395": "ch\u2019 \u00ef", "2396": "ci or", "2397": "d\u2019 ac", "2398": "s\u2019 at", "2399": "va \u2019n", "2400": "t\u2019 av", "2401": "mo im", "2402": "vi al", "2403": "st\u2019 o", "2404": "be on", "2405": "lo of", "2406": "t\u2019 ag", "2407": "ra at", "2408": "ra im", "2409": "sa ac", "2410": "re eb", "2411": "ma ac", "2412": "si in", "2413": "di og", "2414": "mo af", "2415": "te of", "2416": "ge an", "2417": "vo at", "2418": "vo an", "2419": "stram", "2420": "na at", "2421": "gno u", "2422": "li im", "2423": "na in", "2424": "no om", "2425": "ro ap", "2426": "si at", "2427": "ti av", "2428": "l\u2019 ef", "2429": "le av", "2430": "v\u2019 eb", "2431": "z\u2019 es", "2432": "re ap", "2433": "te ar", "2434": "d\u2019 ol", "2435": "no au", "2436": "no af", "2437": "ne ar", "2438": "gliuo", "2439": "bo on", "2440": "cu\u2019 i", "2441": "ch\u2019 o", "2442": "n\u2019 uo", "2443": "ci ap", "2444": "sbe a", "2445": "sta e", "2446": "ra et", "2447": "so en", "2448": "ro au", "2449": "rio a", "2450": "che u", "2451": "so am", "2452": "t\u2019 or", "2453": "de or", "2454": "d\u2019 ap", "2455": "vea u", "2456": "ti ac", "2457": "ve oc", "2458": "di al", "2459": "gni e", "2460": "chias", "2461": "l\u2019 ol", "2462": "zia e", "2463": "sa ol", "2464": "ri ac", "2465": "ra el", "2466": "do at", "2467": "pi ap", "2468": "ti \u2019n", "2469": "ce eu", "2470": "po ar", "2471": "ce ne", "2472": "mi \u2019n", "2473": "lo il", "2474": "mo an", "2475": "m\u2019 ar", "2476": "stren", "2477": "no an", "2478": "schem", "2479": "s\u2019 em", "2480": "ghiot", "2481": "l\u2019 av", "2482": "ro as", "2483": "so at", "2484": "da an", "2485": "re av", "2486": "ca in", "2487": "na av", "2488": "d\u2019 al", "2489": "te ad", "2490": "to in", "2491": "li et", "2492": "cio a", "2493": "scher", "2494": "me an", "2495": "d\u2019 of", "2496": "po an", "2497": "le ad", "2498": "ce an", "2499": "me as", "2500": "di im", "2501": "de ap", "2502": "bo al", "2503": "no ab", "2504": "ve ar", "2505": "lo im", "2506": "tra e", "2507": "la au", "2508": "to an", "2509": "le ap", "2510": "ra of", "2511": "to uc", "2512": "me ap", "2513": "ti im", "2514": "m\u2019 at", "2515": "schet", "2516": "mo ol", "2517": "glies", "2518": "s\u2019 ac", "2519": "d\u2019 en", "2520": "ch\u2019 u", "2521": "sgiun", "2522": "va eb", "2523": "me ac", "2524": "pre a", "2525": "re af", "2526": "ci al", "2527": "gne o", "2528": "sciar", "2529": "ste a", "2530": "li uc", "2531": "ta ab", "2532": "zio a", "2533": "va an", "2534": "d\u2019 ur", "2535": "ti as", "2536": "ti am", "2537": "ni av", "2538": "zio e", "2539": "stran", "2540": "t\u2019 om", "2541": "ma \u2019n", "2542": "ta im", "2543": "si er", "2544": "gi ar", "2545": "d\u2019 oc", "2546": "le an", "2547": "no et", "2548": "co ap", "2549": "ta om", "2550": "b\u2019 es", "2551": "si am", "2552": "te ap", "2553": "\u2019v\u2019 e", "2554": "ta eu", "2555": "bra e", "2556": "so ad", "2557": "s\u2019 os", "2558": "li uo", "2559": "ma in", "2560": "po al", "2561": "m\u2019 im", "2562": "spres", "2563": "zio u", "2564": "ti \u2019m", "2565": "d\u2019 os", "2566": "so of", "2567": "so ap", "2568": "ste i", "2569": "mo ac", "2570": "d\u2019 om", "2571": "de om", "2572": "li ar", "2573": "di ad", "2574": "v\u2019 am", "2575": "to ol", "2576": "lo av", "2577": "gliar", "2578": "mi er", "2579": "re al", "2580": "mo of", "2581": "ci \u2019n", "2582": "li om", "2583": "mo or", "2584": "si of", "2585": "ra in", "2586": "vi an", "2587": "sti a", "2588": "be as", "2589": "to av", "2590": "l\u2019 ec", "2591": "m\u2019 om", "2592": "tra u", "2593": "vi en", "2594": "vi as", "2595": "tio i", "2596": "co eb", "2597": "gli u", "2598": "ch\u2019 e", "2599": "na \u2019n", "2600": "mi ap", "2601": "ra as", "2602": "r\u2019 es", "2603": "vi on", "2604": "la an", "2605": "ti al", "2606": "mi in", "2607": "ni am", "2608": "st\u2019 es", "2609": "chi an", "2610": "st\u2019 an", "2611": "stri o", "2612": "nea av", "2613": "tra or", "2614": "re o u", "2615": "st\u2019 al", "2616": "ch\u2019 in", "2617": "dre an", "2618": "gne in", "2619": "tri ap", "2620": "st\u2019 ot", "2621": "sta al", "2622": "st\u2019 in", "2623": "bra in", "2624": "gio ol", "2625": "sto on", "2626": "ch\u2019 or", "2627": "st\u2019 ac", "2628": "gh\u2019 es", "2629": "gne ef", "2630": "gne uo", "2631": "bri ap", "2632": "pre ar", "2633": "stro o", "2634": "tro ac", "2635": "ste an", "2636": "bra av", "2637": "che \u2019m", "2638": "st\u2019 of", "2639": "gne al", "2640": "que es", "2641": "cio as", "2642": "tr\u2019 al", "2643": "sti al", "2644": "gne er", "2645": "ch\u2019 et", "2646": "te han", "2647": "go han", "2648": "che an", "2649": "gno in", "2650": "qua in", "2651": "pr\u2019 ar", "2652": "pio on", "2653": "ri han", "2654": "com\u2019 a", "2655": "sti es", "2656": "tro im", "2657": "dre es", "2658": "lio an", "2659": "lia an", "2660": "sti el", "2661": "que al", "2662": "glio u", "2663": "ch\u2019 es", "2664": "gna as", "2665": "tro et", "2666": "vio in", "2667": "chi ac", "2668": "sta an", "2669": "str\u2019 u", "2670": "chi al", "2671": "scia e", "2672": "pie or", "2673": "pi\u00f9 \u2019n", "2674": "ch\u2019 eb", "2675": "sti on", "2676": "gni al", "2677": "zia on", "2678": "sta in", "2679": "glio e", "2680": "tro an", "2681": "m\u2019 han", "2682": "n\u2019 han", "2683": "chio a", "2684": "sto al", "2685": "tro \u2019m", "2686": "chio o", "2687": "pre ac", "2688": "che in", "2689": "stro e", "2690": "tri es", "2691": "sio an", "2692": "st\u2019 ar", "2693": "vea \u2019m", "2694": "qua on", "2695": "stra i", "2696": "ch\u2019 ab", "2697": "ch\u2019 as", "2698": "l\u2019 han", "2699": "stra a", "2700": "sto of", "2701": "ch\u2019 al", "2702": "che om", "2703": "sti oc", "2704": "com\u2019 u", "2705": "cia im", "2706": "gio et", "2707": "nio im", "2708": "d\u2019 han", "2709": "co e i", "2710": "pre at", "2711": "sto ar", "2712": "gia al", "2713": "sto es", "2714": "sti av", "2715": "glia o", "2716": "tri of", "2717": "gio uc", "2718": "sto \u2019n", "2719": "che \u2019n", "2720": "sce as", "2721": "ne han", "2722": "chi am", "2723": "tro on", "2724": "cia ar", "2725": "cia on", "2726": "zie ec", "2727": "dre eb", "2728": "tri af", "2729": "c\u2019 han", "2730": "ste in", "2731": "stri a", "2732": "gno af", "2733": "tri in", "2734": "sto ap", "2735": "tr\u2019 ar", "2736": "sto an", "2737": "li han", "2738": "tre os", "2739": "cio et", "2740": "sti or", "2741": "zia il", "2742": "zia or", "2743": "chi ar", "2744": "sto ac", "2745": "tra \u2019m", "2746": "ch\u2019 og", "2747": "ch\u2019 ap", "2748": "ch\u2019 en", "2749": "tra ef", "2750": "sta ai", "2751": "dre al", "2752": "ch\u2019 el", "2753": "ch\u2019 am", "2754": "tra an", "2755": "tro as", "2756": "tri as", "2757": "gia ar", "2758": "bia an", "2759": "schiat", "2760": "sto in", "2761": "gno ae", "2762": "t\u2019 han", "2763": "do o e", "2764": "tro al", "2765": "tre in", "2766": "st\u2019 ul", "2767": "tro av", "2768": "chi on", "2769": "stra e", "2770": "stra u", "2771": "ghe on", "2772": "che ar", "2773": "tro in", "2774": "gue on", "2775": "tr\u2019 am", "2776": "sta og", "2777": "lio as", "2778": "sti er", "2779": "gio in", "2780": "sto at", "2781": "bre et", "2782": "sco an", "2783": "dre as", "2784": "ti han", "2785": "sti an", "2786": "qua of", "2787": "sto im", "2788": "mio av", "2789": "bre in", "2790": "tro ab", "2791": "sce an", "2792": "ch\u2019 ac", "2793": "gia in", "2794": "ria on", "2795": "tr\u2019 om", "2796": "tre an", "2797": "lio in", "2798": "gio on", "2799": "sta im", "2800": "chi in", "2801": "sta ol", "2802": "schian", "2803": "scun e", "2804": "sco al", "2805": "ch\u2019 at", "2806": "glia a", "2807": "gno am", "2808": "qua im", "2809": "dio an", "2810": "gna in", "2811": "mio \u2019n", "2812": "sce el", "2813": "glio o", "2814": "gue an", "2815": "ch\u2019 ad", "2816": "ch\u2019 ag", "2817": "dia as", "2818": "gi\u00f2 in", "2819": "cio al", "2820": "pre in", "2821": "cie in", "2822": "cio ap", "2823": "mia \u2019n", "2824": "qu\u2019 an", "2825": "gne im", "2826": "ch\u2019 an", "2827": "scio e", "2828": "pre es", "2829": "ch\u2019 av", "2830": "rio an", "2831": "ria in", "2832": "tra av", "2833": "glia u", "2834": "sto \u2019m", "2835": "gue or", "2836": "ch\u2019 ar", "2837": "bre an", "2838": "pre al", "2839": "stro a", "2840": "sta on", "2841": "cio an", "2842": "sti in", "2843": "tro ar", "2844": "gni an", "2845": "sti un", "2846": "tro of", "2847": "sce al", "2848": "sma in", "2849": "schiet", "2850": "chio u", "2851": "ch\u2019 er", "2852": "ber\u2019 o", "2853": "pi\u00f9 in", "2854": "sio in", "2855": "gno al", "2856": "ria of", "2857": "tro ap", "2858": "bia in", "2859": "che ha", "2860": "gne ac", "2861": "stro u", "2862": "chi ap", "2863": "tra op", "2864": "mio in", "2865": "si e \u2019n", "2866": "stro ac", "2867": "stro eb", "2868": "scia an", "2869": "chio in", "2870": "str\u2019 or", "2871": "glia as", "2872": "li \u00e8 in", "2873": "sche ab", "2874": "vria es", "2875": "sche er", "2876": "re a \u2019n", "2877": "stro an", "2878": "stro oc", "2879": "glia in", "2880": "chia an", "2881": "glie al", "2882": "glio as", "2883": "pria av", "2884": "stre in", "2885": "chia of", "2886": "scia al", "2887": "glia al", "2888": "chie et", "2889": "stro im", "2890": "gio o e", "2891": "chio at", "2892": "glia es", "2893": "ti e \u2019n", "2894": "stro uc", "2895": "stri at", "2896": "stri ef", "2897": "lo e \u2019n", "2898": "stro es", "2899": "stra ap", "2900": "glio es", "2901": "trio al", "2902": "glio in", "2903": "stri af", "2904": "glio on", "2905": "stri al", "2906": "s\u2019 i\u2019 o", "2907": "d\u2019 i\u2019 a", "2908": "stro av", "2909": "stro in", "2910": "stra ef", "2911": "stro al", "2912": "glie an", "2913": "dio han", "2914": "glio an", "2915": "stri an", "2916": "l\u00e0 \u2019vun", "2917": "stra in", "2918": "glia ac", "2919": "chio an", "2920": "stri av", "2921": "str\u2019 ar", "2922": "glie eb", "2923": "stro as", "2924": "n\u2019 \u00e8 im", "2925": "ch\u2019 i\u2019 o", "2926": "sti a \u2019n", "2927": "ch\u2019 i\u2019 e", "2928": "t\u2019 ho in", "2929": "ch\u2019 io \u2019n", "2930": "ch\u2019 e\u2019 \u2019n", "2931": "\u00f2 ", "2932": "a ", "2933": "e ", "2934": "\u00ef ", "2935": "o ", "2936": "\u00ec ", "2937": "\u00e8 ", "2938": "s ", "2939": "\u00f9 ", "2940": "i ", "2941": "s\u00ec ", "2942": "b\u00f2 ", "2943": "ar ", "2944": "l\u00f2 ", "2945": "g\u00ec ", "2946": "d\u00ec ", "2947": "ab ", "2948": "\u00e0m ", "2949": "zi ", "2950": "ir ", "2951": "di ", "2952": "\u00e8e ", "2953": "ti ", "2954": "v\u00ec ", "2955": "le ", "2956": "c\u00e8 ", "2957": "ai ", "2958": "th ", "2959": "vi ", "2960": "t\u00f2 ", "2961": "ra ", "2962": "oh ", "2963": "go ", "2964": "s\u00e8 ", "2965": "co ", "2966": "p\u00f2 ", "2967": "d\u00f2 ", "2968": "be ", "2969": "s\u00e9 ", "2970": "lo ", "2971": "fa ", "2972": "da ", "2973": "u\u2019 ", "2974": "e\u2019 ", "2975": "n\u00ec ", "2976": "us ", "2977": "ro ", "2978": "ga ", "2979": "n\u00e9 ", "2980": "el ", "2981": "l\u00e0 ", "2982": "m\u2019 ", "2983": "bi ", "2984": "fi ", "2985": "i\u2019 ", "2986": "z\u00f2 ", "2987": "r\u00f2 ", "2988": "ve ", "2989": "m\u00e8 ", "2990": "fo ", "2991": "t\u00e8 ", "2992": "vo ", "2993": "un ", "2994": "l\u00ec ", "2995": "sa ", "2996": "n\u00f2 ", "2997": "\u00f2s ", "2998": "t\u00f9 ", "2999": "f\u00e9 ", "3000": "\u00f3n ", "3001": "zo ", "3002": "ge ", "3003": "ta ", "3004": "r\u00e0 ", "3005": "do ", "3006": "an ", "3007": "me ", "3008": "ae ", "3009": "as ", "3010": "ed ", "3011": "ho ", "3012": "po ", "3013": "ma ", "3014": "s\u00f2 ", "3015": "s\u00f9 ", "3016": "so ", "3017": "io ", "3018": "on ", "3019": "fe ", "3020": "t\u00e0 ", "3021": "ei ", "3022": "ba ", "3023": "t\u00e9 ", "3024": "v\u00f2 ", "3025": "\u00f9l ", "3026": "al ", "3027": "il ", "3028": "c\u00f2 ", "3029": "\u00e8l ", "3030": "c\u00e9 ", "3031": "\u00e0s ", "3032": "to ", "3033": "ie ", "3034": "na ", "3035": "ce ", "3036": "ha ", "3037": "et ", "3038": "ca ", "3039": "l\u00e8 ", "3040": "r\u00ec ", "3041": "a\u2019 ", "3042": "ci ", "3043": "gi ", "3044": "d\u00e9 ", "3045": "li ", "3046": "n\u00e0 ", "3047": "od ", "3048": "f\u00f2 ", "3049": "p\u00e8 ", "3050": "or ", "3051": "se ", "3052": "za ", "3053": "n\u00e8 ", "3054": "tu ", "3055": "\u00f2n ", "3056": "st ", "3057": "ut ", "3058": "de ", "3059": "fu ", "3060": "si ", "3061": "in ", "3062": "te ", "3063": "su ", "3064": "\u00e9n ", "3065": "ne ", "3066": "b\u00e8 ", "3067": "f\u00e0 ", "3068": "re ", "3069": "pi ", "3070": "ri ", "3071": "no ", "3072": "d\u00e0 ", "3073": "g\u00f2 ", "3074": "b\u00f9 ", "3075": "\u00e0r ", "3076": "sc ", "3077": "pa ", "3078": "om ", "3079": "pe ", "3080": "t\u00ec ", "3081": "m\u00f2 ", "3082": "va ", "3083": "ni ", "3084": "mi ", "3085": "bo ", "3086": "\u00ecs ", "3087": "ad ", "3088": "mo ", "3089": "os ", "3090": "ia ", "3091": "la ", "3092": "ze ", "3093": "sto ", "3094": "sen ", "3095": "za\u2019 ", "3096": "sol ", "3097": "sie ", "3098": "tum ", "3099": "dri ", "3100": "b\u00eca ", "3101": "tra ", "3102": "b\u00e0l ", "3103": "pur ", "3104": "rem ", "3105": "fie ", "3106": "tea ", "3107": "cra ", "3108": "bre ", "3109": "via ", "3110": "ben ", "3111": "co\u2019 ", "3112": "reo ", "3113": "pi\u00e8 ", "3114": "pel ", "3115": "ga\u2019 ", "3116": "bir ", "3117": "fia ", "3118": "re\u2019 ", "3119": "neo ", "3120": "na\u2019 ", "3121": "rir ", "3122": "dui ", "3123": "qua ", "3124": "rel ", "3125": "rar ", "3126": "ch\u00e9 ", "3127": "rei ", "3128": "dee ", "3129": "ier ", "3130": "ban ", "3131": "sua ", "3132": "tel ", "3133": "bis ", "3134": "pol ", "3135": "bra ", "3136": "gu\u00f2 ", "3137": "uhi ", "3138": "mai ", "3139": "ser ", "3140": "hai ", "3141": "r\u00ecs ", "3142": "dre ", "3143": "bro ", "3144": "por ", "3145": "nem ", "3146": "gro ", "3147": "tir ", "3148": "fur ", "3149": "cea ", "3150": "gri ", "3151": "n\u00f2i ", "3152": "tor ", "3153": "tua ", "3154": "lei ", "3155": "cei ", "3156": "meo ", "3157": "mar ", "3158": "di\u2019 ", "3159": "gin ", "3160": "t\u00f2r ", "3161": "nin ", "3162": "fe\u2019 ", "3163": "nil ", "3164": "rum ", "3165": "ci\u00f2 ", "3166": "beo ", "3167": "leo ", "3168": "z\u00f2n ", "3169": "die ", "3170": "deh ", "3171": "con ", "3172": "cel ", "3173": "gui ", "3174": "cut ", "3175": "n\u00e8s ", "3176": "pi\u00f9 ", "3177": "vio ", "3178": "st\u00e0 ", "3179": "gre ", "3180": "dei ", "3181": "fil ", "3182": "tis ", "3183": "unt ", "3184": "fal ", "3185": "vei ", "3186": "ner ", "3187": "fui ", "3188": "var ", "3189": "mul ", "3190": "t\u00f3n ", "3191": "rii ", "3192": "sor ", "3193": "des ", "3194": "c\u00e0n ", "3195": "tia ", "3196": "dia ", "3197": "n\u00eca ", "3198": "lan ", "3199": "pr\u00ec ", "3200": "rin ", "3201": "zio ", "3202": "n\u00f2s ", "3203": "sul ", "3204": "nar ", "3205": "s\u00f9e ", "3206": "som ", "3207": "vra ", "3208": "st\u00f2 ", "3209": "gue ", "3210": "gal ", "3211": "for ", "3212": "ghi ", "3213": "tol ", "3214": "gu\u00ec ", "3215": "st\u00f9 ", "3216": "bel ", "3217": "ral ", "3218": "su\u2019 ", "3219": "vau ", "3220": "man ", "3221": "poi ", "3222": "cer ", "3223": "nai ", "3224": "pu\u00f2 ", "3225": "gn\u00ec ", "3226": "nan ", "3227": "fio ", "3228": "gi\u00e0 ", "3229": "di\u00e8 ", "3230": "nis ", "3231": "tro ", "3232": "cle ", "3233": "d\u00ece ", "3234": "s\u00f3n ", "3235": "pia ", "3236": "lia ", "3237": "ghe ", "3238": "joi ", "3239": "dea ", "3240": "gne ", "3241": "lor ", "3242": "per ", "3243": "d\u00ect ", "3244": "vil ", "3245": "pie ", "3246": "ler ", "3247": "rer ", "3248": "tar ", "3249": "mer ", "3250": "tr\u00e0 ", "3251": "nea ", "3252": "sei ", "3253": "lem ", "3254": "su\u00e8 ", "3255": "til ", "3256": "bri ", "3257": "nia ", "3258": "c\u00f2b ", "3259": "mio ", "3260": "sel ", "3261": "bue ", "3262": "l\u00e8m ", "3263": "clo ", "3264": "m\u00ecs ", "3265": "rai ", "3266": "fan ", "3267": "pem ", "3268": "cur ", "3269": "sti ", "3270": "ion ", "3271": "son ", "3272": "nal ", "3273": "ri\u2019 ", "3274": "f\u00e8l ", "3275": "bin ", "3276": "seo ", "3277": "mea ", "3278": "r\u00ece ", "3279": "fu\u2019 ", "3280": "me\u2019 ", "3281": "can ", "3282": "gra ", "3283": "smo ", "3284": "ria ", "3285": "ron ", "3286": "lin ", "3287": "mon ", "3288": "mun ", "3289": "cum ", "3290": "ti\u2019 ", "3291": "ree ", "3292": "mii ", "3293": "p\u00eca ", "3294": "lui ", "3295": "mas ", "3296": "sun ", "3297": "vos ", "3298": "ne\u2019 ", "3299": "coi ", "3300": "tui ", "3301": "pon ", "3302": "ber ", "3303": "cai ", "3304": "ta\u2019 ", "3305": "bei ", "3306": "smi ", "3307": "dir ", "3308": "bi\u00f2 ", "3309": "pii ", "3310": "num ", "3311": "dr\u00e0 ", "3312": "gua ", "3313": "va\u2019 ", "3314": "ma\u2019 ", "3315": "far ", "3316": "gis ", "3317": "cul ", "3318": "ean ", "3319": "del ", "3320": "pri ", "3321": "n\u00ece ", "3322": "sca ", "3323": "ter ", "3324": "dar ", "3325": "van ", "3326": "sub ", "3327": "pea ", "3328": "ve\u2019 ", "3329": "ges ", "3330": "nel ", "3331": "gan ", "3332": "gar ", "3333": "tio ", "3334": "ram ", "3335": "vel ", "3336": "rio ", "3337": "vin ", "3338": "lon ", "3339": "gli ", "3340": "spa ", "3341": "t\u00f2n ", "3342": "don ", "3343": "ver ", "3344": "se\u2019 ", "3345": "nio ", "3346": "bil ", "3347": "fon ", "3348": "ste ", "3349": "o e ", "3350": "mae ", "3351": "gir ", "3352": "cem ", "3353": "fue ", "3354": "sta ", "3355": "g\u00f3n ", "3356": "tan ", "3357": "vo\u2019 ", "3358": "uo\u2019 ", "3359": "que ", "3360": "tre ", "3361": "res ", "3362": "ieu ", "3363": "n\u00ect ", "3364": "sii ", "3365": "e i ", "3366": "t\u00e9r ", "3367": "bor ", "3368": "pal ", "3369": "dra ", "3370": "uom ", "3371": "dr\u00ec ", "3372": "che ", "3373": "l\u00eca ", "3374": "o a ", "3375": "f\u00f3n ", "3376": "col ", "3377": "sin ", "3378": "vea ", "3379": "mie ", "3380": "ten ", "3381": "cen ", "3382": "lu\u2019 ", "3383": "a i ", "3384": "dai ", "3385": "sa\u2019 ", "3386": "tal ", "3387": "dro ", "3388": "mal ", "3389": "cio ", "3390": "p\u00f2s ", "3391": "sce ", "3392": "par ", "3393": "zia ", "3394": "vem ", "3395": "due ", "3396": "dio ", "3397": "gio ", "3398": "gna ", "3399": "cil ", "3400": "ahi ", "3401": "fei ", "3402": "feo ", "3403": "sir ", "3404": "sci ", "3405": "spe ", "3406": "dan ", "3407": "pra ", "3408": "sis ", "3409": "suo ", "3410": "gor ", "3411": "sem ", "3412": "pan ", "3413": "ceo ", "3414": "deo ", "3415": "ian ", "3416": "lio ", "3417": "noi ", "3418": "cin ", "3419": "dua ", "3420": "gru ", "3421": "gai ", "3422": "bui ", "3423": "pre ", "3424": "cri ", "3425": "gia ", "3426": "lea ", "3427": "zie ", "3428": "tin ", "3429": "gi\u2019 ", "3430": "ril ", "3431": "cu\u2019 ", "3432": "zon ", "3433": "a e ", "3434": "pei ", "3435": "gi\u00f2 ", "3436": "cal ", "3437": "cre ", "3438": "bon ", "3439": "e \u2019 ", "3440": "nor ", "3441": "pi\u00e9 ", "3442": "gol ", "3443": "plo ", "3444": "gel ", "3445": "san ", "3446": "mee ", "3447": "men ", "3448": "f\u00e0t ", "3449": "han ", "3450": "\u2019ve ", "3451": "mum ", "3452": "vii ", "3453": "dor ", "3454": "r\u00f3n ", "3455": "zan ", "3456": " in ", "3457": "te\u2019 ", "3458": "ven ", "3459": "len ", "3460": "cis ", "3461": "sal ", "3462": "ren ", "3463": "dil ", "3464": "sia ", "3465": "ger ", "3466": "val ", "3467": "dem ", "3468": "mia ", "3469": "c\u00f2l ", "3470": "tue ", "3471": "gei ", "3472": "d\u00eca ", "3473": "l\u00eco ", "3474": "ror ", "3475": "tes ", "3476": "a a ", "3477": "sui ", "3478": "bar ", "3479": "lar ", "3480": "zai ", "3481": "cie ", "3482": "st\u00ec ", "3483": "mor ", "3484": "dal ", "3485": "car ", "3486": "t\u00e0n ", "3487": "nol ", "3488": "zul ", "3489": "ran ", "3490": "chi ", "3491": "ros ", "3492": "s\u00ece ", "3493": "pir ", "3494": "lai ", "3495": "min ", "3496": "tr\u2019 ", "3497": "vie ", "3498": "sio ", "3499": "r\u00f2l ", "3500": "ton ", "3501": "tei ", "3502": "cun ", "3503": "sc\u00ec ", "3504": "m\u00eca ", "3505": "r\u00ecb ", "3506": "bio ", "3507": "tii ", "3508": "g\u00f3r ", "3509": "mil ", "3510": "la\u2019 ", "3511": "gi\u00f9 ", "3512": "bia ", "3513": "bol ", "3514": "pio ", "3515": "fai ", "3516": "cor ", "3517": "nei ", "3518": "gno ", "3519": "b\u00e8l ", "3520": "cui ", "3521": "peo ", "3522": "fer ", "3523": "du\u2019 ", "3524": "nha ", "3525": "sco ", "3526": "da\u2019 ", "3527": "tri ", "3528": "dur ", "3529": "der ", "3530": "fin ", "3531": "rie ", "3532": "lee ", "3533": "bee ", "3534": "tr\u00f2 ", "3535": "dr\u00f2 ", "3536": "rao ", "3537": "gea ", "3538": "cia ", "3539": "tun ", "3540": "d\u00e8i ", "3541": "tus ", "3542": "mei ", "3543": "ra\u2019 ", "3544": "lie ", "3545": "sai ", "3546": "fra ", "3547": "tem ", "3548": "nii ", "3549": "sar ", "3550": "vam ", "3551": "qui ", "3552": "gni ", "3553": "mus ", "3554": "rea ", "3555": "nie ", "3556": "non ", "3557": "tai ", "3558": "tuo ", "3559": "vai ", "3560": "fi\u2019 ", "3561": "pin ", "3562": "sma ", "3563": "teo ", "3564": "l\u00f2n ", "3565": "st\u00e9 ", "3566": "lir ", "3567": "din ", "3568": "f\u00e9e ", "3569": "zar ", "3570": "dii ", "3571": "vol ", "3572": "no\u2019 ", "3573": "pro ", "3574": "sue ", "3575": "sit ", "3576": "rua ", "3577": "duo ", "3578": "v\u00ecd ", "3579": "nir ", "3580": "rui ", "3581": "f\u00e0s ", "3582": "pr\u00e0 ", "3583": "de\u2019 ", "3584": "bus ", "3585": "gon ", "3586": "von ", "3587": "cro ", "3588": "vas ", "3589": "voi ", "3590": "ces ", "3591": "suo\u2019 ", "3592": "gnan ", "3593": "c\u00f2th ", "3594": "mo a ", "3595": "po i ", "3596": "fren ", "3597": "ta a ", "3598": "scun ", "3599": "fu e ", "3600": "siam ", "3601": "ve o ", "3602": "fe e ", "3603": "sa a ", "3604": "vuoi ", "3605": "po e ", "3606": "ne i ", "3607": "nien ", "3608": "vo a ", "3609": "li i ", "3610": "me o ", "3611": "su i ", "3612": "ne o ", "3613": "quae ", "3614": "ciol ", "3615": "di i ", "3616": "biar ", "3617": "miei ", "3618": "vi \u00e8 ", "3619": "io e ", "3620": "fu a ", "3621": "ti i ", "3622": "duol ", "3623": "d\u00ec i ", "3624": "mo \u00e8 ", "3625": "suon ", "3626": "stro ", "3627": "prio ", "3628": "n\u00e9 i ", "3629": "ni \u00e8 ", "3630": "muor ", "3631": "sc\u00eco ", "3632": "t\u2019 \u00e8 ", "3633": "drea ", "3634": "bion ", "3635": "za e ", "3636": "ni a ", "3637": "piar ", "3638": "zo a ", "3639": "tr\u00e0s ", "3640": "sie\u2019 ", "3641": "or l ", "3642": "l\u00e0 i ", "3643": "fian ", "3644": "ti a ", "3645": "scia ", "3646": "bo a ", "3647": "ra \u00e8 ", "3648": "trea ", "3649": "sfar ", "3650": "de a ", "3651": "br\u00f2t ", "3652": "ce i ", "3653": "schi ", "3654": "ver\u2019 ", "3655": "gnel ", "3656": "gean ", "3657": "de i ", "3658": "ca a ", "3659": "gnus ", "3660": "zi a ", "3661": "gior ", "3662": "cral ", "3663": "r\u2019 a ", "3664": "dier ", "3665": "scon ", "3666": "do e ", "3667": "bo e ", "3668": "plor ", "3669": "tiam ", "3670": "spre ", "3671": "quei ", "3672": "za i ", "3673": "si o ", "3674": "laio ", "3675": "naio ", "3676": "do i ", "3677": "trei ", "3678": "no a ", "3679": "giar ", "3680": "le e ", "3681": "sion ", "3682": "e \u2019n ", "3683": "na a ", "3684": "laia ", "3685": "me e ", "3686": "bi i ", "3687": "ge \u00e8 ", "3688": "frir ", "3689": "gien ", "3690": "saia ", "3691": "de \u00e8 ", "3692": "vria ", "3693": "ciai ", "3694": "prir ", "3695": "giai ", "3696": "brio ", "3697": "trio ", "3698": "pian ", "3699": "ched ", "3700": "pluo ", "3701": "pri\u2019 ", "3702": "quie ", "3703": "v\u2019 \u00e8 ", "3704": "stor ", "3705": "za a ", "3706": "l\u00ec \u00e8 ", "3707": "tuo\u2019 ", "3708": "s\u2019 a ", "3709": "scel ", "3710": "ghio ", "3711": "no o ", "3712": "re o ", "3713": "si \u00e8 ", "3714": "guan ", "3715": "gion ", "3716": "ghi\u00f2 ", "3717": "stia ", "3718": "prei ", "3719": "pia\u2019 ", "3720": "ph\u00e8l ", "3721": "pria ", "3722": "guai ", "3723": "gnar ", "3724": "cion ", "3725": "ne a ", "3726": "a in ", "3727": "trui ", "3728": "diam ", "3729": "go \u00e8 ", "3730": "la i ", "3731": "co \u00e8 ", "3732": "ciul ", "3733": "ma i ", "3734": "gnor ", "3735": "vier ", "3736": "te e ", "3737": "ge e ", "3738": "gli\u00f2 ", "3739": "ga o ", "3740": "stri ", "3741": "go e ", "3742": "tu \u2019 ", "3743": "niam ", "3744": "bi e ", "3745": "grin ", "3746": "gner ", "3747": "te p ", "3748": "gnum ", "3749": "bian ", "3750": "be e ", "3751": "blia ", "3752": "pi e ", "3753": "dean ", "3754": "que\u2019 ", "3755": "ce o ", "3756": "dail ", "3757": "de e ", "3758": "ci o ", "3759": "vuo\u2019 ", "3760": "si i ", "3761": "gnin ", "3762": "rean ", "3763": "go a ", "3764": "pien ", "3765": "la \u00e8 ", "3766": "stan ", "3767": "fior ", "3768": "tean ", "3769": "ma \u00e8 ", "3770": "na o ", "3771": "sian ", "3772": "zo e ", "3773": "di e ", "3774": "scie ", "3775": "da a ", "3776": "da o ", "3777": "tien ", "3778": "glia ", "3779": "\u00e8 \u2019l ", "3780": "sa e ", "3781": "pion ", "3782": "slao ", "3783": "le o ", "3784": "gi a ", "3785": "li a ", "3786": "ma a ", "3787": "scio ", "3788": "do o ", "3789": "sa o ", "3790": "o \u2019n ", "3791": "na \u00e8 ", "3792": "trai ", "3793": "pier ", "3794": "chio ", "3795": "mi e ", "3796": "lier ", "3797": "la a ", "3798": "st\u00f2r ", "3799": "a il ", "3800": "frui ", "3801": "ta e ", "3802": "zi \u00e8 ", "3803": "sche ", "3804": "quor ", "3805": "trae ", "3806": "ni o ", "3807": "ri e ", "3808": "buon ", "3809": "ga a ", "3810": "quam ", "3811": "te \u00e8 ", "3812": "le \u00e8 ", "3813": "grue ", "3814": "giun ", "3815": "no i ", "3816": "plar ", "3817": "scir ", "3818": "cia\u2019 ", "3819": "scar ", "3820": "so a ", "3821": "mian ", "3822": "za o ", "3823": "va o ", "3824": "cheo ", "3825": "gnia ", "3826": "so o ", "3827": "me i ", "3828": "fier ", "3829": "na e ", "3830": "ca e ", "3831": "\u00e8 il ", "3832": "te a ", "3833": "st\u00e8r ", "3834": "stil ", "3835": "mo e ", "3836": "vo e ", "3837": "sien ", "3838": "ti o ", "3839": "i in ", "3840": "gnes ", "3841": "pi\u00e9r ", "3842": "po \u00e8 ", "3843": "tram ", "3844": "sci\u2019 ", "3845": "da e ", "3846": "sci\u00f2 ", "3847": "breo ", "3848": "star ", "3849": "vi a ", "3850": "lo a ", "3851": "guon ", "3852": "gioi ", "3853": "riai ", "3854": "gran ", "3855": "va e ", "3856": "be i ", "3857": "do a ", "3858": "bran ", "3859": "muel ", "3860": "sti\u00f2 ", "3861": "be a ", "3862": "stui ", "3863": "io o ", "3864": "s\u00e9 i ", "3865": "i il ", "3866": "m\u2019 \u00e8 ", "3867": "pa e ", "3868": "ra i ", "3869": "se o ", "3870": "pa \u00e8 ", "3871": "di a ", "3872": "to a ", "3873": "doan ", "3874": "sunt ", "3875": "bia\u2019 ", "3876": "nier ", "3877": "ve a ", "3878": "s\u00ec e ", "3879": "mie\u2019 ", "3880": "stie ", "3881": "ca \u00e8 ", "3882": "ghin ", "3883": "ta i ", "3884": "puoi ", "3885": "ro o ", "3886": "tuon ", "3887": "stea ", "3888": "spia ", "3889": "tria ", "3890": "gier ", "3891": "maio ", "3892": "suol ", "3893": "vean ", "3894": "fiar ", "3895": "ve e ", "3896": "nean ", "3897": "a al ", "3898": "re a ", "3899": "ga e ", "3900": "stin ", "3901": "lian ", "3902": "cria ", "3903": "svia ", "3904": "sier ", "3905": "ri o ", "3906": "gi\u00f9e ", "3907": "ro \u00e8 ", "3908": "drel ", "3909": "prie ", "3910": "e \u2019l ", "3911": "fa e ", "3912": "f\u00e9 i ", "3913": "se \u00e8 ", "3914": "ta o ", "3915": "drai ", "3916": "fo \u00e8 ", "3917": "rien ", "3918": "cl\u00e8s ", "3919": "chie ", "3920": "da i ", "3921": "c\u2019 \u00e8 ", "3922": "za \u00e8 ", "3923": "so \u00e8 ", "3924": "ciar ", "3925": "suoi ", "3926": "stre ", "3927": "scer ", "3928": "pe e ", "3929": "runt ", "3930": "lien ", "3931": "tree ", "3932": "o in ", "3933": "vien ", "3934": "tu e ", "3935": "ne e ", "3936": "quai ", "3937": "li \u00e8 ", "3938": "brei ", "3939": "no \u00e8 ", "3940": "me a ", "3941": "lo i ", "3942": "ghie ", "3943": "vian ", "3944": "vuol ", "3945": "prun ", "3946": "tris ", "3947": "vi e ", "3948": "v\u2019 a ", "3949": "co a ", "3950": "lo e ", "3951": "or i ", "3952": "nail ", "3953": "buoi ", "3954": "tier ", "3955": "re i ", "3956": "quod ", "3957": "prai ", "3958": "gi e ", "3959": "tran ", "3960": "va i ", "3961": "bi a ", "3962": "pe i ", "3963": "ri a ", "3964": "spro ", "3965": "li e ", "3966": "stel ", "3967": "bree ", "3968": "to o ", "3969": "re e ", "3970": "ve i ", "3971": "te i ", "3972": "pa a ", "3973": "bent ", "3974": "to e ", "3975": "ge a ", "3976": "ma o ", "3977": "co i ", "3978": "to \u00e8 ", "3979": "gual ", "3980": "la o ", "3981": "sper ", "3982": "po o ", "3983": "ce a ", "3984": "o un ", "3985": "ci\u00f2l ", "3986": "ti e ", "3987": "crea ", "3988": "me \u00e8 ", "3989": "ch e ", "3990": "guir ", "3991": "si a ", "3992": "giam ", "3993": "guia ", "3994": "fuor ", "3995": "si e ", "3996": "co o ", "3997": "ze e ", "3998": "ciel ", "3999": "no e ", "4000": "t\u00e8 a ", "4001": "vi o ", "4002": "re \u00e8 ", "4003": "spri ", "4004": "d\u2019 i ", "4005": "ce \u00e8 ", "4006": "fi e ", "4007": "ni e ", "4008": "mi a ", "4009": "drir ", "4010": "le a ", "4011": "ra o ", "4012": "o al ", "4013": "le i ", "4014": "t\u00f2 e ", "4015": "ne \u00e8 ", "4016": "stai ", "4017": "ziar ", "4018": "die\u2019 ", "4019": "ze o ", "4020": "quel ", "4021": "zi e ", "4022": "de o ", "4023": "so e ", "4024": "brar ", "4025": "ci e ", "4026": "so i ", "4027": "ta \u00e8 ", "4028": "ro e ", "4029": "cuor ", "4030": "rent ", "4031": "ci \u00e8 ", "4032": "tuoi ", "4033": "va a ", "4034": "mo i ", "4035": "te o ", "4036": "ca o ", "4037": "se i ", "4038": "cean ", "4039": "ci a ", "4040": "ba e ", "4041": "go o ", "4042": "stei ", "4043": "dria ", "4044": "chia ", "4045": "to i ", "4046": "dra\u2019 ", "4047": "lo \u00e8 ", "4048": "ro i ", "4049": "gnon ", "4050": "zian ", "4051": "muoi ", "4052": "crin ", "4053": "ra a ", "4054": "do \u00e8 ", "4055": "cian ", "4056": "di o ", "4057": "s\u2019 \u00e8 ", "4058": "com\u2019 ", "4059": "deum ", "4060": "dron ", "4061": "po a ", "4062": "\u00e8 \u2019n ", "4063": "ma e ", "4064": "mi i ", "4065": "spir ", "4066": "pi\u00f9e ", "4067": "glio ", "4068": "d\u2019 \u00e8 ", "4069": "scea ", "4070": "tu i ", "4071": "fien ", "4072": "chel ", "4073": "blio ", "4074": "o il ", "4075": "glie ", "4076": "\u00e8 in ", "4077": "viam ", "4078": "steo ", "4079": "gian ", "4080": "a \u2019l ", "4081": "la e ", "4082": "cain ", "4083": "li o ", "4084": "prec ", "4085": "n\u2019 \u00e8 ", "4086": "chin ", "4087": "fu o ", "4088": "rian ", "4089": "ti \u00e8 ", "4090": "ciam ", "4091": "ce e ", "4092": "str\u00f2 ", "4093": "trar ", "4094": "quar ", "4095": "gnun ", "4096": "or d ", "4097": "se e ", "4098": "ro a ", "4099": "ghia ", "4100": "ra e ", "4101": "t\u2019 i ", "4102": "chi\u00f2 ", "4103": "zion ", "4104": "pron ", "4105": "tra\u2019 ", "4106": "co e ", "4107": "l\u2019 \u00e8 ", "4108": "se a ", "4109": "stra ", "4110": "gaio ", "4111": "nian ", "4112": "dien ", "4113": "qual ", "4114": "sa \u00e8 ", "4115": "sa i ", "4116": "ra in ", "4117": "li oh ", "4118": "to ed ", "4119": "ti a\u2019 ", "4120": "sta e ", "4121": "za i\u2019 ", "4122": "te io ", "4123": "ca in ", "4124": "do ad ", "4125": "te a\u2019 ", "4126": "le un ", "4127": "la io ", "4128": "strai ", "4129": "fo or ", "4130": "n\u00e9 \u2019l ", "4131": "fa \u2019l ", "4132": "voill ", "4133": "no a\u2019 ", "4134": "staio ", "4135": "ca il ", "4136": "re ha ", "4137": "se \u2019n ", "4138": "dio a ", "4139": "ste e ", "4140": "b\u2019 io ", "4141": "gnaio ", "4142": "ria \u00e8 ", "4143": "pi in ", "4144": "ri al ", "4145": "do or ", "4146": "ne il ", "4147": "p\u2019 io ", "4148": "na \u2019n ", "4149": "gioir ", "4150": "sce e ", "4151": "be il ", "4152": "n\u2019 ei ", "4153": "lo a\u2019 ", "4154": "zo al ", "4155": "ve al ", "4156": "ria i ", "4157": "sco e ", "4158": "ci al ", "4159": "li i\u2019 ", "4160": "ce u\u2019 ", "4161": "ge il ", "4162": "mi ad ", "4163": "to \u2019n ", "4164": "ne ed ", "4165": "cio a ", "4166": "mo ad ", "4167": "go il ", "4168": "stian ", "4169": "gna \u00e8 ", "4170": "sia e ", "4171": "ta ha ", "4172": "bro e ", "4173": "sti \u00e8 ", "4174": "se io ", "4175": "che e ", "4176": "l\u2019 ha ", "4177": "sta \u00e8 ", "4178": "vi un ", "4179": "no ed ", "4180": "n\u2019 ha ", "4181": "ta or ", "4182": "vrien ", "4183": "tra \u2019 ", "4184": "vi il ", "4185": "lo un ", "4186": "ge in ", "4187": "t\u2019 io ", "4188": "ce ed ", "4189": "be in ", "4190": "se ir ", "4191": "za oh ", "4192": "ti al ", "4193": "da un ", "4194": "ghe e ", "4195": "me ad ", "4196": "so \u2019l ", "4197": "no ai ", "4198": "pri e ", "4199": "zia a ", "4200": "sto a ", "4201": "li in ", "4202": "mo un ", "4203": "zi ai ", "4204": "zi \u2019l ", "4205": "cea a ", "4206": "le in ", "4207": "ge ad ", "4208": "lo al ", "4209": "re i\u2019 ", "4210": "pe ad ", "4211": "ch\u00e9 a ", "4212": "mo in ", "4213": "tri o ", "4214": "gna i ", "4215": "ce ha ", "4216": "po ha ", "4217": "so a\u2019 ", "4218": "gna e ", "4219": "do il ", "4220": "ro i\u2019 ", "4221": "bra o ", "4222": "me \u2019l ", "4223": "ve il ", "4224": "ce a\u2019 ", "4225": "di a\u2019 ", "4226": "c\u2019 io ", "4227": "que a ", "4228": "z\u00f2 il ", "4229": "se a\u2019 ", "4230": "gi al ", "4231": "li un ", "4232": "su in ", "4233": "de un ", "4234": "vra i ", "4235": "ta io ", "4236": "mi in ", "4237": "ta al ", "4238": "zii e ", "4239": "ria e ", "4240": "di un ", "4241": "ti un ", "4242": "li io ", "4243": "gno i ", "4244": "va in ", "4245": "te ed ", "4246": "scian ", "4247": "s\u2019 el ", "4248": "te il ", "4249": "se al ", "4250": "te or ", "4251": "si \u2019n ", "4252": "do \u2019l ", "4253": "co il ", "4254": "na or ", "4255": "ste i ", "4256": "do in ", "4257": "va al ", "4258": "ra \u2019l ", "4259": "t\u2019 ha ", "4260": "r\u00e0 in ", "4261": "ma \u2019l ", "4262": "bi \u2019l ", "4263": "me in ", "4264": "qua a ", "4265": "be un ", "4266": "z\u00f2 \u2019l ", "4267": "na ei ", "4268": "ia oh ", "4269": "va ad ", "4270": "mo al ", "4271": "ve a\u2019 ", "4272": "tro a ", "4273": "chian ", "4274": "mo ei ", "4275": "tr\u2019 a ", "4276": "gua a ", "4277": "cia i ", "4278": "temps ", "4279": "me il ", "4280": "le or ", "4281": "co io ", "4282": "ta ed ", "4283": "ra ha ", "4284": "to ad ", "4285": "zio a ", "4286": "stier ", "4287": "te ai ", "4288": "go \u2019l ", "4289": "zo \u2019l ", "4290": "gra o ", "4291": "gno a ", "4292": "se \u2019l ", "4293": "d\u2019 el ", "4294": "ne \u2019l ", "4295": "ci io ", "4296": "ra a\u2019 ", "4297": "se in ", "4298": "te ha ", "4299": "sti a ", "4300": "ta un ", "4301": "ti ed ", "4302": "gliel ", "4303": "te ad ", "4304": "bio e ", "4305": "gue \u00e8 ", "4306": "to ir ", "4307": "chi a ", "4308": "to ai ", "4309": "ne in ", "4310": "bo in ", "4311": "sio e ", "4312": "pe \u2019l ", "4313": "so \u00e8e ", "4314": "pie a ", "4315": "co i\u2019 ", "4316": "do a\u2019 ", "4317": "re al ", "4318": "ca al ", "4319": "no i\u2019 ", "4320": "che \u2019 ", "4321": "schio ", "4322": "ni il ", "4323": "va \u2019l ", "4324": "cia e ", "4325": "sciar ", "4326": "to i\u2019 ", "4327": "le io ", "4328": "ta in ", "4329": "va ed ", "4330": "ni\u2019 e ", "4331": "ri in ", "4332": "t\u2019 ho ", "4333": "ci\u00f2 a ", "4334": "tri e ", "4335": "fu il ", "4336": "chiai ", "4337": "se e\u2019 ", "4338": "glier ", "4339": "gio a ", "4340": "ch\u2019 a ", "4341": "sca i ", "4342": "va il ", "4343": "me un ", "4344": "ia in ", "4345": "to \u2019l ", "4346": "ti in ", "4347": "no un ", "4348": "m\u2019 ha ", "4349": "se un ", "4350": "que \u00e8 ", "4351": "rio e ", "4352": "ti ad ", "4353": "ve un ", "4354": "ta ho ", "4355": "zi or ", "4356": "vi \u2019l ", "4357": "rai e ", "4358": "lio e ", "4359": "zia e ", "4360": "ti il ", "4361": "bi il ", "4362": "da i\u2019 ", "4363": "mo ha ", "4364": "de ed ", "4365": "r\u2019 al ", "4366": "f\u00e9 \u2019l ", "4367": "de al ", "4368": "pa or ", "4369": "co al ", "4370": "tra i ", "4371": "strar ", "4372": "gue a ", "4373": "sta o ", "4374": "t\u2019 il ", "4375": "t\u00ec \u2019l ", "4376": "la in ", "4377": "za in ", "4378": "le ab ", "4379": "segn\u00f2 ", "4380": "tro e ", "4381": "ne ai ", "4382": "ve in ", "4383": "gio e ", "4384": "se ai ", "4385": "lo il ", "4386": "di ha ", "4387": "mi ed ", "4388": "la un ", "4389": "vo in ", "4390": "ni \u2019l ", "4391": "sto e ", "4392": "t\u2019 i\u2019 ", "4393": "r\u00ec \u2019l ", "4394": "lo or ", "4395": "po io ", "4396": "ma in ", "4397": "be or ", "4398": "ma \u2019n ", "4399": "ia ed ", "4400": "zi al ", "4401": "ghe a ", "4402": "to io ", "4403": "stran ", "4404": "t\u2019 om ", "4405": "ni al ", "4406": "ra or ", "4407": "m\u2019 io ", "4408": "si \u2019l ", "4409": "dro a ", "4410": "za ha ", "4411": "ba in ", "4412": "se ad ", "4413": "st\u2019 \u00e8 ", "4414": "ce un ", "4415": "gluol ", "4416": "di ed ", "4417": "\u2019v\u2019 \u00e8 ", "4418": "pr\u2019 a ", "4419": "v\u2019 or ", "4420": "sa il ", "4421": "fa il ", "4422": "stiam ", "4423": "ti \u2019n ", "4424": "me a\u2019 ", "4425": "ria a ", "4426": "v\u2019 e\u2019 ", "4427": "smo a ", "4428": "re \u2019n ", "4429": "glion ", "4430": "gia \u00e8 ", "4431": "li \u2019l ", "4432": "tra \u00e8 ", "4433": "to al ", "4434": "ha \u2019l ", "4435": "ge al ", "4436": "s\u2019 ei ", "4437": "stion ", "4438": "no u\u2019 ", "4439": "ma un ", "4440": "r\u00e0 ed ", "4441": "le ad ", "4442": "ci in ", "4443": "bra a ", "4444": "gi il ", "4445": "ste a ", "4446": "te \u2019l ", "4447": "non e ", "4448": "ti \u2019l ", "4449": "ra ad ", "4450": "pri a ", "4451": "va un ", "4452": "fu al ", "4453": "lio a ", "4454": "vi in ", "4455": "mo ed ", "4456": "de ad ", "4457": "sce a ", "4458": "no il ", "4459": "ci \u2019l ", "4460": "cea o ", "4461": "te ho ", "4462": "za al ", "4463": "zi un ", "4464": "co un ", "4465": "sce i ", "4466": "scuoi ", "4467": "stral ", "4468": "gna a ", "4469": "leo e ", "4470": "va io ", "4471": "dre a ", "4472": "cia a ", "4473": "si ad ", "4474": "na ed ", "4475": "ro il ", "4476": "do ed ", "4477": "te in ", "4478": "le ir ", "4479": "d\u00f2 \u2019l ", "4480": "s\u2019 un ", "4481": "pio e ", "4482": "v\u2019 el ", "4483": "va ai ", "4484": "mi il ", "4485": "ti ei ", "4486": "gli e ", "4487": "v\u2019 io ", "4488": "svuol ", "4489": "ra il ", "4490": "cia o ", "4491": "se il ", "4492": "da il ", "4493": "gua e ", "4494": "ne a\u2019 ", "4495": "s\u00e9 il ", "4496": "bia e ", "4497": "d\u2019 io ", "4498": "che a ", "4499": "co ad ", "4500": "ga il ", "4501": "ro in ", "4502": "zio \u00e8 ", "4503": "la ed ", "4504": "sco i ", "4505": "ci il ", "4506": "s\u00ec al ", "4507": "ro un ", "4508": "se i\u2019 ", "4509": "gia e ", "4510": "ra al ", "4511": "v\u2019 ha ", "4512": "d\u2019 un ", "4513": "co in ", "4514": "be al ", "4515": "t\u00f2 \u2019l ", "4516": "zo in ", "4517": "se ho ", "4518": "so in ", "4519": "ne io ", "4520": "ch\u00e9 i ", "4521": "ro or ", "4522": "l\u00e0 il ", "4523": "te al ", "4524": "re in ", "4525": "to il ", "4526": "si il ", "4527": "dia e ", "4528": "n\u2019 io ", "4529": "na ha ", "4530": "ve ad ", "4531": "re a\u2019 ", "4532": "ta il ", "4533": "t\u2019 el ", "4534": "di \u2019n ", "4535": "l\u2019 un ", "4536": "si or ", "4537": "tro i ", "4538": "d\u2019 ei ", "4539": "to a\u2019 ", "4540": "tri \u00e8 ", "4541": "di in ", "4542": "ghiar ", "4543": "no io ", "4544": "v\u2019 \u00e8n ", "4545": "ve \u2019l ", "4546": "c\u2019 ha ", "4547": "na ad ", "4548": "li ha ", "4549": "v\u00f2 \u2019l ", "4550": "n\u00f2 \u2019l ", "4551": "ce in ", "4552": "lo ed ", "4553": "bre e ", "4554": "so ad ", "4555": "da \u2019l ", "4556": "te i\u2019 ", "4557": "ha in ", "4558": "gui i ", "4559": "tre e ", "4560": "ci or ", "4561": "si al ", "4562": "ghi e ", "4563": "chion ", "4564": "po \u2019l ", "4565": "li ad ", "4566": "da in ", "4567": "t\u00f2 un ", "4568": "pe il ", "4569": "me ai ", "4570": "no ha ", "4571": "ta \u2019l ", "4572": "ro ad ", "4573": "zia \u00e8 ", "4574": "pi un ", "4575": "che i ", "4576": "g\u00ec \u2019l ", "4577": "di \u2019l ", "4578": "ra \u2019n ", "4579": "fu in ", "4580": "gno \u00e8 ", "4581": "po in ", "4582": "ma a\u2019 ", "4583": "via e ", "4584": "ti io ", "4585": "ri a\u2019 ", "4586": "tra a ", "4587": "ti ha ", "4588": "mi un ", "4589": "sciai ", "4590": "ro a\u2019 ", "4591": "t\u00e9 \u2019l ", "4592": "ne al ", "4593": "rio a ", "4594": "co or ", "4595": "gia a ", "4596": "ch\u2019 \u00e8 ", "4597": "va \u2019n ", "4598": "qua o ", "4599": "gia o ", "4600": "te \u2019n ", "4601": "ni in ", "4602": "bi in ", "4603": "s\u00ec \u2019l ", "4604": "dro o ", "4605": "nia a ", "4606": "mo \u2019l ", "4607": "re un ", "4608": "sa un ", "4609": "s\u2019 i\u2019 ", "4610": "glian ", "4611": "l\u2019 om ", "4612": "dre e ", "4613": "d\u2019 ir ", "4614": "so un ", "4615": "gliai ", "4616": "scion ", "4617": "lo ai ", "4618": "sti e ", "4619": "so il ", "4620": "ne un ", "4621": "dia i ", "4622": "to in ", "4623": "re ho ", "4624": "gi \u2019l ", "4625": "sa \u2019l ", "4626": "ne ad ", "4627": "za \u2019l ", "4628": "ro ed ", "4629": "le al ", "4630": "ce il ", "4631": "la \u2019l ", "4632": "si el ", "4633": "gni e ", "4634": "tro \u00e8 ", "4635": "sti o ", "4636": "tra e ", "4637": "re ad ", "4638": "glien ", "4639": "za un ", "4640": "no al ", "4641": "no ei ", "4642": "pio a ", "4643": "bre a ", "4644": "d\u2019 i\u2019 ", "4645": "va a\u2019 ", "4646": "zo il ", "4647": "ri \u2019l ", "4648": "lia e ", "4649": "le i\u2019 ", "4650": "zi il ", "4651": "pre e ", "4652": "be \u2019l ", "4653": "le \u2019l ", "4654": "g\u2019 io ", "4655": "gni a ", "4656": "sci a ", "4657": "gri e ", "4658": "l\u00e0 \u2019l ", "4659": "de il ", "4660": "ta ad ", "4661": "pre a ", "4662": "di io ", "4663": "no \u2019l ", "4664": "lui a ", "4665": "pa \u2019l ", "4666": "gno e ", "4667": "mo il ", "4668": "le ha ", "4669": "ni or ", "4670": "za or ", "4671": "ria o ", "4672": "lo in ", "4673": "dio e ", "4674": "ti ai ", "4675": "te un ", "4676": "mio e ", "4677": "lo ad ", "4678": "bra e ", "4679": "d\u00f2 in ", "4680": "ge ai ", "4681": "ni ed ", "4682": "re ed ", "4683": "mi a\u2019 ", "4684": "la a\u2019 ", "4685": "zi ad ", "4686": "chiar ", "4687": "co ai ", "4688": "qua e ", "4689": "be i\u2019 ", "4690": "sa in ", "4691": "po al ", "4692": "stial ", "4693": "de in ", "4694": "io il ", "4695": "la il ", "4696": "do ha ", "4697": "chier ", "4698": "sa ad ", "4699": "t\u00e0 \u2019l ", "4700": "bo a\u2019 ", "4701": "fu \u2019l ", "4702": "di ad ", "4703": "di al ", "4704": "g\u00f2 \u2019l ", "4705": "le il ", "4706": "li il ", "4707": "co \u2019l ", "4708": "po il ", "4709": "li ei ", "4710": "no ad ", "4711": "na al ", "4712": "qua \u00e8 ", "4713": "sto \u00e8 ", "4714": "gue e ", "4715": "ra ed ", "4716": "do al ", "4717": "me ed ", "4718": "ra io ", "4719": "be ed ", "4720": "glior ", "4721": "lo ha ", "4722": "po ed ", "4723": "chi \u00e8 ", "4724": "ge or ", "4725": "ra un ", "4726": "pa in ", "4727": "co a\u2019 ", "4728": "la al ", "4729": "to or ", "4730": "pa ho ", "4731": "ghiai ", "4732": "qui e ", "4733": "ba il ", "4734": "mi \u2019l ", "4735": "co u\u2019 ", "4736": "c\u2019 ho ", "4737": "dri e ", "4738": "ga in ", "4739": "dro e ", "4740": "da al ", "4741": "va or ", "4742": "s\u2019 io ", "4743": "na in ", "4744": "se or ", "4745": "l\u2019 ho ", "4746": "ci a\u2019 ", "4747": "pre i ", "4748": "gli a ", "4749": "te u\u2019 ", "4750": "v\u2019 i\u2019 ", "4751": "na un ", "4752": "re ir ", "4753": "no in ", "4754": "gliar ", "4755": "pra e ", "4756": "re or ", "4757": "do io ", "4758": "sevra ", "4759": "ia il ", "4760": "v\u2019 ho ", "4761": "zia o ", "4762": "chi e ", "4763": "to ha ", "4764": "ce al ", "4765": "lio \u00e8 ", "4766": "r\u00f2 \u2019l ", "4767": "di or ", "4768": "za il ", "4769": "si u\u2019 ", "4770": "si un ", "4771": "me al ", "4772": "que e ", "4773": "ca io ", "4774": "do un ", "4775": "v\u2019 ei ", "4776": "b\u00f2 il ", "4777": "da io ", "4778": "s\u2019 e\u2019 ", "4779": "li al ", "4780": "tri a ", "4781": "ge un ", "4782": "go al ", "4783": "si in ", "4784": "mia e ", "4785": "de \u2019l ", "4786": "ci ha ", "4787": "me \u2019n ", "4788": "d\u2019 e\u2019 ", "4789": "di \u00e8e ", "4790": "sta a ", "4791": "sme e ", "4792": "ria \u2019 ", "4793": "na il ", "4794": "so al ", "4795": "re il ", "4796": "mi al ", "4797": "tu \u2019l ", "4798": "bi un ", "4799": "ro al ", "4800": "me or ", "4801": "da or ", "4802": "r\u00f2 il ", "4803": "ne or ", "4804": "ro od ", "4805": "gi\u00e0 i ", "4806": "di il ", "4807": "to un ", "4808": "cio e ", "4809": "ne ha ", "4810": "gna o ", "4811": "pa ed ", "4812": "s\u2019 ha ", "4813": "gliea ", "4814": "ma il ", "4815": "gui e ", "4816": "gi un ", "4817": "su \u2019l ", "4818": "li or ", "4819": "n\u00f2 in ", "4820": "za ed ", "4821": "tr\u2019 \u00e8 ", "4822": "bro \u00e8 ", "4823": "zio e ", "4824": "gna a\u2019 ", "4825": "cheo e ", "4826": "la \u2019ve ", "4827": "lia il ", "4828": "tro a\u2019 ", "4829": "lio ed ", "4830": "che in ", "4831": "tro \u2019l ", "4832": "gi\u2019 or ", "4833": "zio al ", "4834": "sto in ", "4835": "gio ad ", "4836": "tri ad ", "4837": "cia ir ", "4838": "que al ", "4839": "\u2019ve \u2019l ", "4840": "gno in ", "4841": "na\u2019 il ", "4842": "pi\u00f9 al ", "4843": "tro il ", "4844": "zie al ", "4845": "ch\u2019 in ", "4846": "gia or ", "4847": "glio o ", "4848": "gi\u00f9 il ", "4849": "que i\u2019 ", "4850": "schi a ", "4851": "pre ha ", "4852": "pre \u2019l ", "4853": "glia a ", "4854": "ni e \u2019 ", "4855": "se uom ", "4856": "tro ed ", "4857": "t\u2019 ha\u2019 ", "4858": "gno ha ", "4859": "pre a\u2019 ", "4860": "n\u2019 uom ", "4861": "pre in ", "4862": "ch\u2019 ei ", "4863": "pre al ", "4864": "gia \u2019l ", "4865": "gli al ", "4866": "gio al ", "4867": "qua il ", "4868": "tra \u2019l ", "4869": "glia e ", "4870": "bio ed ", "4871": "cia un ", "4872": "gi\u00f9 \u2019l ", "4873": "ci e \u2019 ", "4874": "sche o ", "4875": "sto il ", "4876": "smo al ", "4877": "sto ha ", "4878": "tri il ", "4879": "strans ", "4880": "ro hai ", "4881": "lea il ", "4882": "zia il ", "4883": "gia un ", "4884": "l\u2019 hai ", "4885": "che \u2019l ", "4886": "pi\u00f9 ir ", "4887": "tro io ", "4888": "sc\u2019 io ", "4889": "rio in ", "4890": "gno ed ", "4891": "qui \u2019l ", "4892": "so\u2019 \u2019n ", "4893": "gl\u2019 io ", "4894": "tre i\u2019 ", "4895": "bra od ", "4896": "ghi \u2019l ", "4897": "ci\u00f2 \u2019l ", "4898": "ch\u00e9 \u2019n ", "4899": "ghio e ", "4900": "dr\u00e0 il ", "4901": "va e i ", "4902": "cia ad ", "4903": "sa e \u2019 ", "4904": "tra al ", "4905": "dria e ", "4906": "nio al ", "4907": "dio in ", "4908": "pi\u00f9 il ", "4909": "stro i ", "4910": "stia e ", "4911": "mio il ", "4912": "cia in ", "4913": "que il ", "4914": "ch\u2019 e\u2019 ", "4915": "sti il ", "4916": "cio ed ", "4917": "fra \u2019l ", "4918": "gro un ", "4919": "ghi al ", "4920": "gio ha ", "4921": "pra ed ", "4922": "glia \u00e8 ", "4923": "tre un ", "4924": "pi\u00f9 \u2019l ", "4925": "sce in ", "4926": "glio a ", "4927": "to hai ", "4928": "bre a\u2019 ", "4929": "pra al ", "4930": "sta \u2019n ", "4931": "di e \u2019 ", "4932": "chi \u2019n ", "4933": "sti in ", "4934": "ch\u2019 or ", "4935": "bra ad ", "4936": "cea il ", "4937": "ti e i ", "4938": "tra in ", "4939": "bra in ", "4940": "ri e \u2019 ", "4941": "spra e ", "4942": "sce il ", "4943": "bia \u2019l ", "4944": "do i p ", "4945": "ch\u2019 io ", "4946": "nia il ", "4947": "rio ha ", "4948": "rio il ", "4949": "bia in ", "4950": "gu\u00ec \u2019l ", "4951": "tre in ", "4952": "ria al ", "4953": "mio in ", "4954": "gli un ", "4955": "chia e ", "4956": "gi\u00f9 in ", "4957": "stro o ", "4958": "stie e ", "4959": "dro in ", "4960": "va\u2019 il ", "4961": "ch\u2019 \u00e8i ", "4962": "ro e \u2019 ", "4963": "ste in ", "4964": "ch\u2019 ad ", "4965": "l\u2019 uom ", "4966": "dri ai ", "4967": "ch\u2019 om ", "4968": "scia o ", "4969": "chi \u2019l ", "4970": "cria o ", "4971": "gliuoi ", "4972": "zia in ", "4973": "gna un ", "4974": "chi ha ", "4975": "ni e i ", "4976": "tra il ", "4977": "gi\u00e0 \u2019l ", "4978": "c\u2019 ha\u2019 ", "4979": "stra a ", "4980": "sia il ", "4981": "po e \u2019 ", "4982": "trio e ", "4983": "glio e ", "4984": "ch\u2019 i\u2019 ", "4985": "due \u2019l ", "4986": "ti han ", "4987": "fia il ", "4988": "scia a ", "4989": "gna \u2019l ", "4990": "ch\u2019 un ", "4991": "chi a\u2019 ", "4992": "lui i\u2019 ", "4993": "ba e \u2019 ", "4994": "vra \u2019l ", "4995": "chio a ", "4996": "gni in ", "4997": "ti e \u2019 ", "4998": "sto ad ", "4999": "chi al ", "5000": "gno al ", "5001": "que or ", "5002": "ch\u2019 el ", "5003": "stio e ", "5004": "chio \u00e8 ", "5005": "gna il ", "5006": "te han ", "5007": "tr\u2019 al ", "5008": "sc\u00ec \u2019l ", "5009": "diam i ", "5010": "gue in ", "5011": "que a\u2019 ", "5012": "ch\u00e9 il ", "5013": "pia in ", "5014": "schiar ", "5015": "gliuol ", "5016": "pi\u00e9 \u2019l ", "5017": "m\u2019 han ", "5018": "mia al ", "5019": "gno ad ", "5020": "sta in ", "5021": "sti ha ", "5022": "ne e \u2019 ", "5023": "pra in ", "5024": "pi e i ", "5025": "tre al ", "5026": "chi ei ", "5027": "st\u2019 ho ", "5028": "dre al ", "5029": "tro ai ", "5030": "sco il ", "5031": "si e \u2019 ", "5032": "sta un ", "5033": "gio in ", "5034": "pra \u2019l ", "5035": "ghiaio ", "5036": "ch\u2019 a\u2019 ", "5037": "ne e i ", "5038": "tre a\u2019 ", "5039": "ghia a ", "5040": "pu\u00f2 \u2019l ", "5041": "d\u2019 uom ", "5042": "qu\u2019 io ", "5043": "ria il ", "5044": "c\u2019 han ", "5045": "gne al ", "5046": "scio a ", "5047": "tra i\u2019 ", "5048": "pria e ", "5049": "sia \u2019l ", "5050": "scia e ", "5051": "gno a\u2019 ", "5052": "gi\u00f9 al ", "5053": "ste il ", "5054": "stri e ", "5055": "chi il ", "5056": "sta al ", "5057": "dia in ", "5058": "gia il ", "5059": "ch\u00e9 \u2019l ", "5060": "gli\u00f2 i ", "5061": "c\u2019 hai ", "5062": "rio ho ", "5063": "smo in ", "5064": "vea \u2019l ", "5065": "chio e ", "5066": "bria e ", "5067": "che a\u2019 ", "5068": "que ad ", "5069": "di\u2019 \u2019l ", "5070": "ch\u2019 al ", "5071": "gne \u2019l ", "5072": "dea in ", "5073": "stra e ", "5074": "gue il ", "5075": "cea in ", "5076": "cia al ", "5077": "stro e ", "5078": "sto al ", "5079": "r\u00f3n il ", "5080": "tro un ", "5081": "sdegn\u00f2 ", "5082": "ti\u2019 un ", "5083": "cia il ", "5084": "li ha\u2019 ", "5085": "ro e o ", "5086": "fi\u00f2 il ", "5087": "s\u2019 hai ", "5088": "tri \u2019l ", "5089": "ciai o ", "5090": "li han ", "5091": "ch\u2019 ai ", "5092": "gna in ", "5093": "ghi in ", "5094": "tr\u2019 io ", "5095": "ci\u00f2 io ", "5096": "tro ad ", "5097": "che al ", "5098": "stra \u00e8 ", "5099": "pria o ", "5100": "tr\u2019 a\u2019 ", "5101": "chi in ", "5102": "stro \u00e8 ", "5103": "gi\u00e0 il ", "5104": "gio il ", "5105": "schi o ", "5106": "sta il ", "5107": "me e \u2019 ", "5108": "t\u2019 hai ", "5109": "que in ", "5110": "glia o ", "5111": "tro al ", "5112": "ra han ", "5113": "tri or ", "5114": "sti \u2019l ", "5115": "che \u2019n ", "5116": "dia \u2019l ", "5117": "pi\u00e8 al ", "5118": "se\u2019 in ", "5119": "che un ", "5120": "qua al ", "5121": "gua in ", "5122": "pa e \u2019 ", "5123": "tre il ", "5124": "glie e ", "5125": "lia al ", "5126": "che il ", "5127": "sto io ", "5128": "stro a ", "5129": "m\u2019 hai ", "5130": "tro in ", "5131": "tro ha ", "5132": "gno il ", "5133": "qua in ", "5134": "so hai ", "5135": "gno or ", "5136": "ne han ", "5137": "ci\u00f2 il ", "5138": "tro i\u2019 ", "5139": "te e \u2019l ", "5140": "bre e \u2019 ", "5141": "stro in ", "5142": "glio or ", "5143": "mi e \u2019l ", "5144": "ta e \u2019l ", "5145": "si e \u2019l ", "5146": "te e \u2019n ", "5147": "m\u2019 \u00e8 \u2019l ", "5148": "go e \u2019l ", "5149": "v\u2019 \u00e8 \u2019l ", "5150": "za e \u2019l ", "5151": "qu\u2019 ieu ", "5152": "ce e \u2019l ", "5153": "glia il ", "5154": "chio ha ", "5155": "stro il ", "5156": "de e \u2019n ", "5157": "tra e \u2019 ", "5158": "ti e \u2019l ", "5159": "se e \u2019l ", "5160": "vo e \u2019l ", "5161": "me e \u2019l ", "5162": "ch\u2019 uom ", "5163": "stro ed ", "5164": "schia e ", "5165": "che e \u2019 ", "5166": "to \u00e8 \u2019l ", "5167": "dia e i ", "5168": "glio in ", "5169": "lio e i ", "5170": "do e \u2019n ", "5171": "le e \u2019l ", "5172": "chio il ", "5173": "l\u2019 \u00e8 \u2019l ", "5174": "co e \u2019l ", "5175": "ca e \u2019l ", "5176": "so e \u2019l ", "5177": "de e \u2019l ", "5178": "to o al ", "5179": "chio in ", "5180": "scia il ", "5181": "me e \u2019n ", "5182": "ciai oh ", "5183": "glio ai ", "5184": "ma e \u2019l ", "5185": "to e \u2019l ", "5186": "gnia ad ", "5187": "naio in ", "5188": "va e \u2019l ", "5189": "glie in ", "5190": "glia al ", "5191": "stro or ", "5192": "stia ad ", "5193": "be e \u2019l ", "5194": "sa e \u2019l ", "5195": "ro e \u2019l ", "5196": "mo e \u2019l ", "5197": "ra e \u2019l ", "5198": "chio al ", "5199": "giai al ", "5200": "bo e \u2019l ", "5201": "la e \u2019l ", "5202": "ciai el ", "5203": "re e \u2019l ", "5204": "zo e \u2019l ", "5205": "po e \u2019l ", "5206": "s\u2019 io e ", "5207": "gnia in ", "5208": "glia un ", "5209": "gne uom ", "5210": "ga e \u2019l ", "5211": "lo \u00e8 in ", "5212": "glie \u2019l ", "5213": "ne e \u2019l ", "5214": "ci e \u2019l ", "5215": "stri in ", "5216": "na e \u2019l ", "5217": "m\u2019 \u00e8 il ", "5218": "ta e \u2019n ", "5219": "schio e ", "5220": "dre e \u2019 ", "5221": "sci\u00f2 il ", "5222": "stra il ", "5223": "glia in ", "5224": "no e \u2019l ", "5225": "stra \u2019l ", "5226": "go \u00e8 in ", "5227": "chia al ", "5228": "va e \u2019n ", "5229": "que e \u2019l ", "5230": "ria \u00e8 \u2019l ", "5231": "tri e \u2019l ", "5232": "tra e \u2019l ", "5233": "schi uom ", "5234": "pra e \u2019l ", "5235": "zio e \u2019l ", "5236": "st\u2019 \u00e8 \u2019l ", "5237": "tr\u2019 \u00e8 \u2019l ", "5238": "dio e \u2019l ", "5239": "dre e \u2019l ", "5240": "te ha in ", "5241": "to ha \u2019l ", "5242": "gio e \u2019l ", "5243": "sti \u00e8 \u2019l ", "5244": "bra e \u2019l ", "5245": "bia e \u2019l ", "5246": "tre e \u2019l ", "5247": "sta e \u2019l ", "5248": "d\u2019 io \u2019l ", "5249": "v\u2019 ha \u2019l ", "5250": "s\u2019 i\u2019 \u2019l ", "5251": "ria e \u2019l ", "5252": "cia e \u2019l ", "5253": "sio e \u2019l ", "5254": "zie e \u2019l ", "5255": "c\u2019 ha \u2019l ", "5256": "chi e \u2019l ", "5257": "li ha in ", "5258": "so ha \u2019l ", "5259": "l\u2019 avria ", "5260": "glio e \u2019l ", "5261": "chio e \u2019l ", "5262": "stro e \u2019l ", "5263": "re avrian ", "5264": "scia e \u2019l ", "5265": "ch\u2019 io \u2019l ", "5266": "li er\u2019 io ", "5267": "ch\u2019 i\u2019 \u2019l ", "5268": "chio o \u2019l ", "5269": "chie e \u2019n ", "5270": "r\u00e0tro e \u2019l ", "5271": "s\u2019 io e \u2019l "}