{"0": "", "1": "<t>", "2": "<v>", "3": "<s>", "4": "</v>", "5": "\u2019", "6": "\u00ef", "7": "\u00f2", "8": "l", "9": "e", "10": "\u00e8", "11": "\u00f9", "12": "d", "13": "o", "14": "i", "15": "s", "16": "p", "17": "u", "18": "\u00e9", "19": "\u00fc", "20": "a", "21": "er", "22": "au", "23": "m\u00e4", "24": "m\u2019", "25": "pe", "26": "mu", "27": "p\u2019", "28": "ed", "29": "al", "30": "ro", "31": "r\u2019", "32": "t\u2019", "33": "to", "34": "v\u00ef", "35": "d\u00f2", "36": "of", "37": "l\u00e8", "38": "l\u00e0", "39": "d\u00ec", "40": "g\u00eb", "41": "m\u00e8", "42": "ul", "43": "f\u00ef", "44": "og", "45": "em", "46": "t\u00f2", "47": "me", "48": "eu", "49": "\u00e8v", "50": "z\u00ef", "51": "n\u00eb", "52": "ch", "53": "s\u00e0", "54": "na", "55": "i\u2019", "56": "d\u00eb", "57": "d\u00e0", "58": "af", "59": "il", "60": "t\u00f9", "61": "c\u00f9", "62": "\u00e0m", "63": "an", "64": "vo", "65": "go", "66": "so", "67": "g\u00e8", "68": "l\u00ef", "69": "n\u00f2", "70": "la", "71": "e\u2019", "72": "ap", "73": "n\u00fc", "74": "en", "75": "c\u00ec", "76": "ad", "77": "t\u00e0", "78": "gi", "79": "es", "80": "b\u00e8", "81": "r\u00e8", "82": "ta", "83": "ce", "84": "fi", "85": "t\u00e4", "86": "s\u00f9", "87": "is", "88": "s\u00e8", "89": "ze", "90": "ur", "91": "or", "92": "ti", "93": "bi", "94": "cu", "95": "b\u00eb", "96": "v\u00ec", "97": "us", "98": "uc", "99": "ba", "100": "s\u00f2", "101": "av", "102": "v\u00f2", "103": "t\u00e8", "104": "n\u00ec", "105": "de", "106": "pa", "107": "se", "108": "po", "109": "un", "110": "ar", "111": "oh", "112": "g\u00f3", "113": "ei", "114": "\u00f2s", "115": "ob", "116": "ir", "117": "\u2019m", "118": "r\u00eb", "119": "ia", "120": "ae", "121": "p\u00f2", "122": "ge", "123": "s\u00ef", "124": "no", "125": "op", "126": "\u00e9n", "127": "f\u00f3", "128": "iu", "129": "ne", "130": "zo", "131": "r\u00e0", "132": "r\u00ec", "133": "m\u00ef", "134": "nu", "135": "c\u00e9", "136": "zi", "137": "c\u00fc", "138": "l\u00fc", "139": "lo", "140": "ci", "141": "pi", "142": "d\u00e9", "143": "ef", "144": "r\u00f3", "145": "et", "146": "c\u00f2", "147": "l\u00eb", "148": "ag", "149": "da", "150": "ga", "151": "s\u00fc", "152": "g\u00ef", "153": "vu", "154": "ab", "155": "\u2019n", "156": "\u00e0s", "157": "ca", "158": "d\u00ef", "159": "u\u2019", "160": "\u00e0r", "161": "fo", "162": "s\u00e9", "163": "v\u2019", "164": "qu", "165": "io", "166": "oc", "167": "t\u00ef", "168": "f\u00f2", "169": "ai", "170": "hi", "171": "el", "172": "b\u00f2", "173": "re", "174": "n\u00e8", "175": "l\u00ec", "176": "ha", "177": "s\u00ec", "178": "ve", "179": "ra", "180": "p\u00fc", "181": "\u00f3n", "182": "vi", "183": "\u00e8i", "184": "ov", "185": "l\u00f6", "186": "ri", "187": "f\u00eb", "188": "te", "189": "id", "190": "\u00e8l", "191": "m\u00f2", "192": "d\u00fc", "193": "as", "194": "c\u2019", "195": "f\u00e0", "196": "n\u00e9", "197": "ot", "198": "os", "199": "ol", "200": "p\u00ef", "201": "fe", "202": "gu", "203": "z\u00f2", "204": "g\u2019", "205": "z\u2019", "206": "eb", "207": "ni", "208": "du", "209": "su", "210": "a\u2019", "211": "am", "212": "l\u2019", "213": "f\u00e9", "214": "\u00e0n", "215": "az", "216": "om", "217": "r\u00f2", "218": "za", "219": "m\u00eb", "220": "p\u00ec", "221": "v\u00eb", "222": "\u00e8n", "223": "t\u00ec", "224": "r\u00ef", "225": "c\u00eb", "226": "fa", "227": "tu", "228": "li", "229": "sa", "230": "t\u00fc", "231": "bu", "232": "\u2019l", "233": "n\u00e0", "234": "b\u00f9", "235": "ec", "236": "um", "237": "pu", "238": "mo", "239": "m\u00ec", "240": "do", "241": "ut", "242": "mi", "243": "si", "244": "t\u00e9", "245": "di", "246": "ma", "247": "p\u00e8", "248": "ru", "249": "bo", "250": "od", "251": "im", "252": "g\u00f2", "253": "t\u00eb", "254": "va", "255": "le", "256": "n\u2019", "257": "c\u00ef", "258": "at", "259": "ie", "260": "b\u2019", "261": "s\u00eb", "262": "s\u2019", "263": "p\u00eb", "264": "d\u2019", "265": "n\u00ef", "266": "ho", "267": "v\u00e8", "268": "g\u00ec", "269": "on", "270": "fu", "271": "be", "272": "co", "273": "\u00f9l", "274": "d\u00e8", "275": "lu", "276": "uo", "277": "ac", "278": "l\u00f2", "279": "in", "280": "lot", "281": "di\u2019", "282": "nev", "283": "pru", "284": "tuo", "285": "tar", "286": "lul", "287": "smi", "288": "f\u00f3n", "289": "xil", "290": "cin", "291": "sv\u00ef", "292": "geo", "293": "cia", "294": "las", "295": "gel", "296": "dop", "297": "t\u00f2m", "298": "bom", "299": "pir", "300": "cet", "301": "sug", "302": "uo\u2019", "303": "tor", "304": "me\u2019", "305": "var", "306": "pri", "307": "sc\u00ef", "308": "lil", "309": "par", "310": "red", "311": "pis", "312": "gri", "313": "ma\u2019", "314": "leg", "315": "cli", "316": "gnu", "317": "que", "318": "da\u2019", "319": "fal", "320": "sio", "321": "st\u00e9", "322": "cro", "323": "sla", "324": "lan", "325": "ror", "326": "cun", "327": "vit", "328": "rav", "329": "piz", "330": "fru", "331": "der", "332": "gna", "333": "pog", "334": "fom", "335": "bas", "336": "nio", "337": "cef", "338": "lui", "339": "ril", "340": "c\u00f2l", "341": "qu\u2019", "342": "suf", "343": "giz", "344": "buc", "345": "nar", "346": "lor", "347": "git", "348": "nir", "349": "gi\u2019", "350": "gin", "351": "r\u00ecb", "352": "cre", "353": "ful", "354": "sic", "355": "chi", "356": "cag", "357": "vez", "358": "r\u00f2l", "359": "bru", "360": "l\u00f2n", "361": "don", "362": "p\u00f2s", "363": "gib", "364": "ren", "365": "nez", "366": "pl\u00ec", "367": "fog", "368": "pr\u2019", "369": "dot", "370": "qui", "371": "coi", "372": "tim", "373": "dim", "374": "bi\u00f2", "375": "nas", "376": "gis", "377": "gon", "378": "sob", "379": "bre", "380": "giu", "381": "rug", "382": "des", "383": "ian", "384": "duo", "385": "nun", "386": "vid", "387": "\u2018ne", "388": "raz", "389": "som", "390": "sp\u00ef", "391": "nea", "392": "dom", "393": "gol", "394": "gia", "395": "fuo", "396": "fre", "397": "pia", "398": "sca", "399": "feb", "400": "gu\u00ec", "401": "mez", "402": "hai", "403": "meo", "404": "fer", "405": "mae", "406": "mam", "407": "tat", "408": "ben", "409": "ion", "410": "pet", "411": "iar", "412": "ten", "413": "\u2018be", "414": "suo", "415": "lu\u2019", "416": "rao", "417": "t\u00f3n", "418": "fos", "419": "ch\u00ef", "420": "gie", "421": "tac", "422": "fie", "423": "st\u00e0", "424": "buf", "425": "pap", "426": "peg", "427": "ves", "428": "sor", "429": "mos", "430": "van", "431": "das", "432": "pur", "433": "dol", "434": "ne\u2019", "435": "sai", "436": "smu", "437": "gad", "438": "sbi", "439": "fel", "440": "cap", "441": "muc", "442": "n\u00ect", "443": "g\u00f3r", "444": "ger", "445": "fil", "446": "nef", "447": "tet", "448": "gam", "449": "sve", "450": "\u2019ve", "451": "tr\u00f2", "452": "dat", "453": "di\u00e8", "454": "pos", "455": "gim", "456": "lap", "457": "put", "458": "de\u2019", "459": "ciu", "460": "sot", "461": "sti", "462": "ria", "463": "rim", "464": "lit", "465": "c\u00e9r", "466": "mem", "467": "sus", "468": "nel", "469": "ti\u2019", "470": "leo", "471": "pig", "472": "det", "473": "rei", "474": "mie", "475": "luc", "476": "nei", "477": "bel", "478": "cie", "479": "got", "480": "fe\u2019", "481": "fac", "482": "f\u00e0s", "483": "cri", "484": "nes", "485": "pen", "486": "dri", "487": "sto", "488": "gir", "489": "muo", "490": "spi", "491": "gi\u00e0", "492": "bet", "493": "biz", "494": "gal", "495": "ver", "496": "tie", "497": "dit", "498": "zul", "499": "fen", "500": "mei", "501": "v\u00ecd", "502": "coz", "503": "gh\u2019", "504": "st\u00ef", "505": "sfo", "506": "fis", "507": "dia", "508": "pon", "509": "dra", "510": "gua", "511": "lin", "512": "meg", "513": "cer", "514": "spe", "515": "pra", "516": "sga", "517": "lon", "518": "rup", "519": "tau", "520": "dic", "521": "rai", "522": "lez", "523": "rog", "524": "pun", "525": "sat", "526": "sme", "527": "diz", "528": "cat", "529": "run", "530": "plo", "531": "viz", "532": "zie", "533": "tro", "534": "ha\u2019", "535": "cad", "536": "per", "537": "sei", "538": "tis", "539": "nha", "540": "luo", "541": "dam", "542": "pem", "543": "von", "544": "rid", "545": "nis", "546": "tr\u00e0", "547": "s\u00f3n", "548": "tem", "549": "fig", "550": "pi\u00e9", "551": "ret", "552": "sui", "553": "get", "554": "car", "555": "bal", "556": "cul", "557": "ric", "558": "cop", "559": "scu", "560": "vel", "561": "sco", "562": "ton", "563": "rer", "564": "mol", "565": "deb", "566": "gar", "567": "bun", "568": "col", "569": "cio", "570": "nul", "571": "dr\u00f2", "572": "dal", "573": "puz", "574": "rap", "575": "bur", "576": "ple", "577": "lop", "578": "ban", "579": "m\u00e9z", "580": "tir", "581": "pla", "582": "ruo", "583": "gor", "584": "dez", "585": "dr\u00e0", "586": "zar", "587": "unt", "588": "r\u00e8g", "589": "reb", "590": "vol", "591": "tru", "592": "dor", "593": "gur", "594": "vas", "595": "din", "596": "gai", "597": "vau", "598": "bie", "599": "pea", "600": "dee", "601": "sna", "602": "min", "603": "goz", "604": "dru", "605": "rea", "606": "pop", "607": "sec", "608": "st\u00ec", "609": "qu\u00ef", "610": "ges", "611": "mia", "612": "rof", "613": "ch\u2019", "614": "zuf", "615": "st\u00f2", "616": "sam", "617": "ra\u2019", "618": "fro", "619": "co\u2019", "620": "fug", "621": "svi", "622": "far", "623": "pol", "624": "veg", "625": "cos", "626": "n\u00e8s", "627": "vem", "628": "cru", "629": "nag", "630": "cob", "631": "gru", "632": "uom", "633": "caf", "634": "che", "635": "fib", "636": "bue", "637": "lea", "638": "va\u2019", "639": "du\u2019", "640": "ber", "641": "\u2019v\u2019", "642": "lam", "643": "ieu", "644": "dov", "645": "bab", "646": "tre", "647": "zaf", "648": "cau", "649": "gi\u00f2", "650": "lat", "651": "boz", "652": "rat", "653": "raf", "654": "smo", "655": "flu", "656": "bea", "657": "zon", "658": "bro", "659": "bor", "660": "dio", "661": "gi\u00f9", "662": "sul", "663": "pan", "664": "p\u00e0r", "665": "gue", "666": "bis", "667": "ruf", "668": "sfa", "669": "mes", "670": "pot", "671": "spu", "672": "mac", "673": "seg", "674": "cal", "675": "mai", "676": "rol", "677": "pal", "678": "boc", "679": "fab", "680": "dau", "681": "fra", "682": "tai", "683": "bev", "684": "soz", "685": "ci\u00f2", "686": "noc", "687": "sag", "688": "n\u00eca", "689": "fan", "690": "m\u00eca", "691": "dr\u00e4", "692": "iat", "693": "vec", "694": "vin", "695": "tua", "696": "sno", "697": "lic", "698": "vet", "699": "bol", "700": "m\u00ecs", "701": "cai", "702": "tr\u2019", "703": "tuf", "704": "bot", "705": "sel", "706": "sta", "707": "se\u2019", "708": "tho", "709": "gno", "710": "fla", "711": "vo\u2019", "712": "gil", "713": "nob", "714": "dir", "715": "vai", "716": "neo", "717": "tin", "718": "lis", "719": "lem", "720": "mat", "721": "pro", "722": "con", "723": "fat", "724": "nai", "725": "neg", "726": "mic", "727": "rem", "728": "mer", "729": "fet", "730": "fai", "731": "reo", "732": "cir", "733": "noi", "734": "ste", "735": "mio", "736": "nat", "737": "r\u00f3n", "738": "re\u2019", "739": "feo", "740": "sun", "741": "nur", "742": "pr\u00ec", "743": "sba", "744": "top", "745": "sia", "746": "gne", "747": "mur", "748": "nan", "749": "sur", "750": "pr\u00e0", "751": "bil", "752": "cea", "753": "rie", "754": "n\u00ece", "755": "buo", "756": "pec", "757": "f\u00e0c", "758": "dur", "759": "luz", "760": "pau", "761": "mel", "762": "gea", "763": "tri", "764": "rag", "765": "zai", "766": "sue", "767": "nuc", "768": "poi", "769": "sra", "770": "mil", "771": "man", "772": "bat", "773": "sci", "774": "fol", "775": "nil", "776": "noz", "777": "tea", "778": "vor", "779": "bon", "780": "nuo", "781": "mar", "782": "lec", "783": "sce", "784": "lai", "785": "qua", "786": "ga\u2019", "787": "lee", "788": "fu\u2019", "789": "sbe", "790": "lie", "791": "cil", "792": "pas", "793": "gan", "794": "na\u2019", "795": "bio", "796": "res", "797": "cor", "798": "gem", "799": "but", "800": "can", "801": "bar", "802": "stu", "803": "lip", "804": "son", "805": "tr\u00ef", "806": "muf", "807": "val", "808": "mug", "809": "ri\u2019", "810": "ghe", "811": "cl\u00ef", "812": "teg", "813": "tol", "814": "zii", "815": "dan", "816": "riz", "817": "pu\u00f2", "818": "iep", "819": "t\u00e9r", "820": "len", "821": "del", "822": "r\u00ecs", "823": "vag", "824": "teo", "825": "por", "826": "fio", "827": "dos", "828": "sal", "829": "fur", "830": "bac", "831": "lel", "832": "sua", "833": "roc", "834": "rut", "835": "sa\u2019", "836": "gab", "837": "cra", "838": "nem", "839": "nal", "840": "lun", "841": "due", "842": "sez", "843": "ier", "844": "sc\u00ec", "845": "sep", "846": "za\u2019", "847": "guo", "848": "cep", "849": "bir", "850": "tun", "851": "ior", "852": "tom", "853": "cur", "854": "lav", "855": "cum", "856": "lio", "857": "pub", "858": "tec", "859": "puc", "860": "voi", "861": "vuo", "862": "pei", "863": "rec", "864": "sin", "865": "gl\u2019", "866": "cez", "867": "t\u00f2r", "868": "spo", "869": "ler", "870": "cu\u2019", "871": "clu", "872": "sap", "873": "pre", "874": "fem", "875": "pes", "876": "neb", "877": "bl\u00ef", "878": "ran", "879": "st\u2019", "880": "gat", "881": "gre", "882": "sfe", "883": "cei", "884": "fui", "885": "tut", "886": "gaz", "887": "num", "888": "fia", "889": "ch\u00ec", "890": "han", "891": "lac", "892": "cla", "893": "cot", "894": "sle", "895": "deh", "896": "b\u00e0l", "897": "sie", "898": "fei", "899": "dec", "900": "br\u00ef", "901": "spa", "902": "nie", "903": "pac", "904": "zan", "905": "svo", "906": "cen", "907": "puo", "908": "suc", "909": "vea", "910": "lom", "911": "moz", "912": "sac", "913": "lir", "914": "clo", "915": "sog", "916": "pul", "917": "nen", "918": "cis", "919": "tag", "920": "cac", "921": "fam", "922": "laz", "923": "pio", "924": "dai", "925": "zio", "926": "nom", "927": "bli", "928": "ner", "929": "pic", "930": "su\u2019", "931": "lia", "932": "goc", "933": "dil", "934": "sar", "935": "bei", "936": "gu\u00f2", "937": "ces", "938": "plu", "939": "rum", "940": "dut", "941": "fri", "942": "cr\u00e0", "943": "ruc", "944": "tio", "945": "nim", "946": "reg", "947": "sos", "948": "dis", "949": "tra", "950": "mal", "951": "cuo", "952": "ral", "953": "guz", "954": "peo", "955": "dug", "956": "tle", "957": "tia", "958": "com", "959": "sas", "960": "sab", "961": "tel", "962": "let", "963": "cel", "964": "dus", "965": "fun", "966": "tuc", "967": "d\u00eca", "968": "bin", "969": "men", "970": "nol", "971": "ven", "972": "tus", "973": "fin", "974": "sov", "975": "vom", "976": "cic", "977": "non", "978": "bee", "979": "rot", "980": "sde", "981": "l\u00e8m", "982": "sen", "983": "bec", "984": "vei", "985": "nin", "986": "poz", "987": "vis", "988": "lur", "989": "ris", "990": "mas", "991": "lus", "992": "fum", "993": "f\u00e9l", "994": "tez", "995": "soc", "996": "ses", "997": "c\u00e0n", "998": "dre", "999": "dar", "1000": "tes", "1001": "dun", "1002": "mot", "1003": "rel", "1004": "zia", "1005": "poc", "1006": "vra", "1007": "dro", "1008": "cit", "1009": "vat", "1010": "nic", "1011": "gro", "1012": "st\u00f9", "1013": "zur", "1014": "sil", "1015": "tei", "1016": "pie", "1017": "pli", "1018": "te\u2019", "1019": "ron", "1020": "gei", "1021": "ve\u2019", "1022": "cas", "1023": "set", "1024": "gui", "1025": "mun", "1026": "b\u00eca", "1027": "zel", "1028": "nig", "1029": "rir", "1030": "fic", "1031": "pi\u00f9", "1032": "sub", "1033": "vul", "1034": "pom", "1035": "bef", "1036": "rab", "1037": "v\u00f2l", "1038": "til", "1039": "gom", "1040": "net", "1041": "cam", "1042": "feg", "1043": "mir", "1044": "fas", "1045": "f\u00e8l", "1046": "tam", "1047": "gob", "1048": "coc", "1049": "gag", "1050": "nac", "1051": "ser", "1052": "f\u00e0t", "1053": "glo", "1054": "dif", "1055": "lei", "1056": "rom", "1057": "ahi", "1058": "rob", "1059": "lim", "1060": "deo", "1061": "mon", "1062": "bia", "1063": "\u2018te", "1064": "c\u00f2b", "1065": "gas", "1066": "pi\u00e8", "1067": "sit", "1068": "d\u00e8i", "1069": "zac", "1070": "cle", "1071": "sum", "1072": "bul", "1073": "c\u00f3l", "1074": "rio", "1075": "san", "1076": "rac", "1077": "sma", "1078": "rar", "1079": "gra", "1080": "pel", "1081": "gio", "1082": "ram", "1083": "tur", "1084": "sis", "1085": "dob", "1086": "sud", "1087": "nec", "1088": "die", "1089": "nia", "1090": "sir", "1091": "dr\u00ef", "1092": "sop", "1093": "lup", "1094": "sgo", "1095": "guc", "1096": "dub", "1097": "ros", "1098": "fi\u2019", "1099": "rit", "1100": "ghi", "1101": "sii", "1102": "sem", "1103": "mul", "1104": "dul", "1105": "gli", "1106": "bus", "1107": "n\u00f2s", "1108": "sup", "1109": "vie", "1110": "lar", "1111": "tal", "1112": "ter", "1113": "pit", "1114": "leb", "1115": "dei", "1116": "tue", "1117": "niz", "1118": "no\u2019", "1119": "l\u00eco", "1120": "mor", "1121": "fon", "1122": "fes", "1123": "sof", "1124": "sc\u2019", "1125": "pil", "1126": "via", "1127": "lep", "1128": "cui", "1129": "ch\u00e9", "1130": "pat", "1131": "deg", "1132": "zuc", "1133": "den", "1134": "vio", "1135": "so\u2019", "1136": "rez", "1137": "not", "1138": "dem", "1139": "vir", "1140": "ean", "1141": "gni", "1142": "rig", "1143": "saf", "1144": "for", "1145": "les", "1146": "mag", "1147": "cov", "1148": "cem", "1149": "t\u00e0n", "1150": "g\u00f3n", "1151": "fuc", "1152": "vac", "1153": "paz", "1154": "fiu", "1155": "nor", "1156": "sod", "1157": "lut", "1158": "lau", "1159": "lab", "1160": "pin", "1161": "maz", "1162": "gen", "1163": "gn\u00ec", "1164": "bri", "1165": "hon", "1166": "fle", "1167": "dea", "1168": "rin", "1169": "ras", "1170": "toc", "1171": "cuc", "1172": "met", "1173": "roz", "1174": "tan", "1175": "sol", "1176": "doc", "1177": "fit", "1178": "piu", "1179": "vam", "1180": "gau", "1181": "quo", "1182": "tic", "1183": "bra", "1184": "vil", "1185": "tas", "1186": "ta\u2019", "1187": "guic", "1188": "driz", "1189": "scab", "1190": "stai", "1191": "quar", "1192": "stas", "1193": "sfac", "1194": "rian", "1195": "pier", "1196": "dria", "1197": "stuo", "1198": "vuoi", "1199": "treb", "1200": "pien", "1201": "gien", "1202": "clau", "1203": "sci\u2019", "1204": "stri", "1205": "graf", "1206": "die\u2019", "1207": "drit", "1208": "sien", "1209": "cher", "1210": "cean", "1211": "scic", "1212": "clis", "1213": "gnen", "1214": "viem", "1215": "prei", "1216": "scos", "1217": "stea", "1218": "smon", "1219": "chi\u00f2", "1220": "brac", "1221": "dian", "1222": "\u2018glo", "1223": "svel", "1224": "pran", "1225": "ciot", "1226": "gnas", "1227": "gras", "1228": "blan", "1229": "niam", "1230": "scol", "1231": "sber", "1232": "sten", "1233": "guit", "1234": "ciar", "1235": "stin", "1236": "gual", "1237": "scar", "1238": "bran", "1239": "sunt", "1240": "giug", "1241": "cian", "1242": "spin", "1243": "sfan", "1244": "pri\u2019", "1245": "stop", "1246": "trul", "1247": "guen", "1248": "scre", "1249": "trec", "1250": "quel", "1251": "giam", "1252": "scop", "1253": "crin", "1254": "scac", "1255": "smar", "1256": "cioc", "1257": "gres", "1258": "bron", "1259": "spez", "1260": "fred", "1261": "stil", "1262": "tria", "1263": "piog", "1264": "ghes", "1265": "piat", "1266": "smor", "1267": "grin", "1268": "giot", "1269": "trat", "1270": "chel", "1271": "trie", "1272": "trot", "1273": "spit", "1274": "ciuo", "1275": "glio", "1276": "grue", "1277": "viam", "1278": "gnie", "1279": "quam", "1280": "scia", "1281": "gron", "1282": "sneb", "1283": "scaz", "1284": "cheg", "1285": "broc", "1286": "pria", "1287": "piag", "1288": "quai", "1289": "pian", "1290": "grot", "1291": "biet", "1292": "truo", "1293": "tran", "1294": "guan", "1295": "trio", "1296": "plan", "1297": "guef", "1298": "brug", "1299": "dran", "1300": "gnel", "1301": "puom", "1302": "plar", "1303": "cia\u2019", "1304": "smoz", "1305": "spar", "1306": "gner", "1307": "bion", "1308": "spre", "1309": "stra", "1310": "fret", "1311": "giuo", "1312": "guag", "1313": "pres", "1314": "tier", "1315": "ghel", "1316": "frir", "1317": "ghir", "1318": "gias", "1319": "trag", "1320": "suoi", "1321": "brul", "1322": "ciel", "1323": "spra", "1324": "spal", "1325": "sfin", "1326": "ples", "1327": "spel", "1328": "tras", "1329": "trar", "1330": "quer", "1331": "rean", "1332": "gion", "1333": "gnaz", "1334": "sfor", "1335": "vria", "1336": "stuc", "1337": "guel", "1338": "bia\u2019", "1339": "creb", "1340": "dier", "1341": "prin", "1342": "gher", "1343": "scoc", "1344": "gian", "1345": "tuoi", "1346": "piov", "1347": "stro", "1348": "nean", "1349": "cria", "1350": "nian", "1351": "fiac", "1352": "diam", "1353": "cl\u00e8s", "1354": "drel", "1355": "trop", "1356": "quin", "1357": "fles", "1358": "biar", "1359": "nail", "1360": "maia", "1361": "scov", "1362": "piac", "1363": "grop", "1364": "chez", "1365": "stel", "1366": "ciol", "1367": "scio", "1368": "guiz", "1369": "stio", "1370": "sciu", "1371": "flit", "1372": "puol", "1373": "pion", "1374": "gnia", "1375": "gnus", "1376": "quil", "1377": "gnuo", "1378": "scet", "1379": "sbar", "1380": "vien", "1381": "zian", "1382": "brie", "1383": "brut", "1384": "tron", "1385": "sian", "1386": "laio", "1387": "glia", "1388": "sier", "1389": "giac", "1390": "ciam", "1391": "vian", "1392": "scri", "1393": "brio", "1394": "sie\u2019", "1395": "trae", "1396": "tean", "1397": "sche", "1398": "stem", "1399": "scim", "1400": "prir", "1401": "ghet", "1402": "scot", "1403": "chiu", "1404": "scem", "1405": "tiem", "1406": "gnem", "1407": "sman", "1408": "gnun", "1409": "saia", "1410": "str\u2019", "1411": "qual", "1412": "plau", "1413": "spon", "1414": "dien", "1415": "scom", "1416": "quan", "1417": "drai", "1418": "stiz", "1419": "glie", "1420": "ciap", "1421": "gheg", "1422": "brol", "1423": "stor", "1424": "fior", "1425": "lien", "1426": "grem", "1427": "slac", "1428": "chie", "1429": "zion", "1430": "piom", "1431": "flet", "1432": "slao", "1433": "guir", "1434": "stre", "1435": "stia", "1436": "puos", "1437": "trap", "1438": "spes", "1439": "scuo", "1440": "sbra", "1441": "fian", "1442": "squa", "1443": "spia", "1444": "fien", "1445": "glau", "1446": "vuo\u2019", "1447": "tram", "1448": "puoi", "1449": "scir", "1450": "cuor", "1451": "guaz", "1452": "sfio", "1453": "piez", "1454": "ghie", "1455": "fiam", "1456": "brei", "1457": "suon", "1458": "gran", "1459": "bias", "1460": "grap", "1461": "bren", "1462": "vean", "1463": "schi", "1464": "fren", "1465": "que\u2019", "1466": "ciom", "1467": "sdet", "1468": "maio", "1469": "breo", "1470": "span", "1471": "str\u00f2", "1472": "prun", "1473": "troc", "1474": "spen", "1475": "gnor", "1476": "tr\u00e0s", "1477": "quen", "1478": "quie", "1479": "chis", "1480": "proc", "1481": "trai", "1482": "scuf", "1483": "sgan", "1484": "st\u00f2r", "1485": "ziar", "1486": "tien", "1487": "sc\u00eco", "1488": "miei", "1489": "ghia", "1490": "greg", "1491": "chet", "1492": "scro", "1493": "chil", "1494": "quod", "1495": "brar", "1496": "spet", "1497": "tren", "1498": "trui", "1499": "vier", "1500": "gnan", "1501": "scel", "1502": "sper", "1503": "sgri", "1504": "crea", "1505": "cruc", "1506": "gros", "1507": "mian", "1508": "stul", "1509": "scev", "1510": "spic", "1511": "gli\u00f2", "1512": "com\u2019", "1513": "sgra", "1514": "stam", "1515": "bris", "1516": "naio", "1517": "dram", "1518": "scer", "1519": "rien", "1520": "dron", "1521": "pia\u2019", "1522": "cien", "1523": "sfam", "1524": "str\u00e0", "1525": "sden", "1526": "ciul", "1527": "flig", "1528": "fran", "1529": "fron", "1530": "chin", "1531": "lian", "1532": "piar", "1533": "bent", "1534": "ciac", "1535": "snel", "1536": "grie", "1537": "squi", "1538": "grom", "1539": "chia", "1540": "stei", "1541": "stru", "1542": "sbri", "1543": "ghio", "1544": "runt", "1545": "spec", "1546": "lier", "1547": "pren", "1548": "pris", "1549": "fioc", "1550": "siam", "1551": "dra\u2019", "1552": "gial", "1553": "frat", "1554": "quei", "1555": "muor", "1556": "fuor", "1557": "frut", "1558": "stui", "1559": "smen", "1560": "trei", "1561": "nien", "1562": "sven", "1563": "stie", "1564": "scea", "1565": "grez", "1566": "sgor", "1567": "scal", "1568": "gier", "1569": "ched", "1570": "stes", "1571": "quor", "1572": "quis", "1573": "buon", "1574": "vuol", "1575": "gean", "1576": "plor", "1577": "sfre", "1578": "guet", "1579": "tuon", "1580": "sci\u00f2", "1581": "pi\u00e9r", "1582": "stec", "1583": "giun", "1584": "scon", "1585": "gnon", "1586": "gram", "1587": "scin", "1588": "spir", "1589": "mie\u2019", "1590": "chio", "1591": "spuo", "1592": "spie", "1593": "guer", "1594": "spaz", "1595": "stig", "1596": "prie", "1597": "guil", "1598": "nier", "1599": "duol", "1600": "stan", "1601": "br\u00f2t", "1602": "tra\u2019", "1603": "suo\u2019", "1604": "fiot", "1605": "ghin", "1606": "cral", "1607": "scan", "1608": "ghez", "1609": "ghi\u00f2", "1610": "stol", "1611": "spor", "1612": "scam", "1613": "guon", "1614": "stis", "1615": "scie", "1616": "ciai", "1617": "smal", "1618": "guia", "1619": "dean", "1620": "spro", "1621": "spri", "1622": "pron", "1623": "trac", "1624": "pric", "1625": "stav", "1626": "ciuf", "1627": "giar", "1628": "cias", "1629": "clas", "1630": "biac", "1631": "grep", "1632": "\u2018qui", "1633": "bian", "1634": "gior", "1635": "buoi", "1636": "sfar", "1637": "ci\u00f2l", "1638": "spun", "1639": "gnin", "1640": "dail", "1641": "brez", "1642": "drap", "1643": "sgom", "1644": "tret", "1645": "suol", "1646": "scis", "1647": "ster", "1648": "grat", "1649": "guar", "1650": "crol", "1651": "guai", "1652": "prio", "1653": "stal", "1654": "cion", "1655": "ghil", "1656": "scor", "1657": "quat", "1658": "sfat", "1659": "liev", "1660": "sti\u00f2", "1661": "sfer", "1662": "gnum", "1663": "prai", "1664": "ver\u2019", "1665": "fiar", "1666": "glet", "1667": "scen", "1668": "drir", "1669": "stet", "1670": "sban", "1671": "fier", "1672": "tiam", "1673": "trom", "1674": "pruo", "1675": "cras", "1676": "spol", "1677": "prez", "1678": "sver", "1679": "pros", "1680": "sion", "1681": "star", "1682": "tror", "1683": "scun", "1684": "brot", "1685": "gnar", "1686": "dras", "1687": "stion", "1688": "spres", "1689": "squil", "1690": "strai", "1691": "schet", "1692": "stiam", "1693": "strel", "1694": "stial", "1695": "scris", "1696": "schie", "1697": "ghiot", "1698": "scrip", "1699": "stran", "1700": "gliel", "1701": "chias", "1702": "ghiac", "1703": "chiai", "1704": "stier", "1705": "chioc", "1706": "stren", "1707": "stroc", "1708": "stian", "1709": "sgiun", "1710": "sciut", "1711": "glian", "1712": "spraz", "1713": "stras", "1714": "stral", "1715": "stret", "1716": "scrit", "1717": "schio", "1718": "strug", "1719": "glion", "1720": "vrien", "1721": "scias", "1722": "glier", "1723": "chiet", "1724": "strat", "1725": "sciom", "1726": "spiac", "1727": "gliet", "1728": "stroz", "1729": "schem", "1730": "glior", "1731": "squar", "1732": "strin", "1733": "sciol", "1734": "temps", "1735": "chiar", "1736": "scial", "1737": "sciam", "1738": "sciau", "1739": "scran", "1740": "gliuo", "1741": "stram", "1742": "gliam", "1743": "ghien", "1744": "stric", "1745": "splen", "1746": "sgrie", "1747": "schic", "1748": "sciai", "1749": "glies", "1750": "streg", "1751": "glien", "1752": "chion", "1753": "chiap", "1754": "gluol", "1755": "chian", "1756": "strut", "1757": "strac", "1758": "sciar", "1759": "scher", "1760": "strar", "1761": "svuol", "1762": "gliar", "1763": "sguar", "1764": "sci\u00e0n", "1765": "scian", "1766": "gliea", "1767": "ghiar", "1768": "schiu", "1769": "scioc", "1770": "praia", "1771": "sfran", "1772": "scheg", "1773": "chier", "1774": "ghian", "1775": "strom", "1776": "schia", "1777": "scion", "1778": "spran", "1779": "schiar", "1780": "gliuol", "1781": "schian", "1782": "gliuoi", "1783": "ghiaio", "1784": "schiat", "1785": "schiet"}