{"0": "", "1": "<t>", "2": "<v>", "3": "<s>", "4": "</v>", "5": "\u2019", "6": "\u00ef", "7": "\u00f2", "8": "e", "9": "\u00e8", "10": "\u00f9", "11": "o", "12": "i", "13": "s", "14": "u", "15": "\u00eb", "16": "\u00e9", "17": "\u00fc", "18": "a", "19": "er", "20": "au", "21": "m\u00e4", "22": "m\u2019", "23": "pe", "24": "mu", "25": "p\u2019", "26": "ed", "27": "al", "28": "ro", "29": "r\u2019", "30": "t\u2019", "31": "to", "32": "v\u00ef", "33": "d\u00f2", "34": "of", "35": "l\u00e8", "36": "l\u00e0", "37": "d\u00ec", "38": "g\u00eb", "39": "m\u00e8", "40": "ul", "41": "f\u00ef", "42": "og", "43": "em", "44": "t\u00f2", "45": "me", "46": "eu", "47": "\u00e8v", "48": "z\u00ef", "49": "n\u00eb", "50": "ch", "51": "s\u00e0", "52": "na", "53": "i\u2019", "54": "d\u00eb", "55": "d\u00e0", "56": "af", "57": "il", "58": "t\u00f9", "59": "c\u00f9", "60": "\u00e0m", "61": "an", "62": "vo", "63": "go", "64": "so", "65": "g\u00e8", "66": "l\u00ef", "67": "n\u00f2", "68": "la", "69": "e\u2019", "70": "ap", "71": "n\u00fc", "72": "en", "73": "c\u00ec", "74": "ad", "75": "t\u00e0", "76": "gi", "77": "es", "78": "b\u00e8", "79": "r\u00e8", "80": "ta", "81": "ce", "82": "fi", "83": "t\u00e4", "84": "s\u00f9", "85": "is", "86": "s\u00e8", "87": "ze", "88": "ur", "89": "or", "90": "ti", "91": "bi", "92": "cu", "93": "b\u00eb", "94": "v\u00ec", "95": "us", "96": "uc", "97": "ba", "98": "s\u00f2", "99": "av", "100": "v\u00f2", "101": "t\u00e8", "102": "n\u00ec", "103": "de", "104": "b\u00ef", "105": "pa", "106": "se", "107": "po", "108": "un", "109": "ar", "110": "oh", "111": "g\u00f3", "112": "ei", "113": "\u00f2s", "114": "ob", "115": "ir", "116": "\u2019m", "117": "r\u00eb", "118": "ia", "119": "ae", "120": "p\u00f2", "121": "ge", "122": "s\u00ef", "123": "no", "124": "op", "125": "\u00e9n", "126": "f\u00f3", "127": "iu", "128": "ne", "129": "zo", "130": "r\u00e0", "131": "r\u00ec", "132": "m\u00ef", "133": "nu", "134": "c\u00e9", "135": "zi", "136": "c\u00fc", "137": "l\u00fc", "138": "lo", "139": "ci", "140": "pi", "141": "d\u00e9", "142": "ef", "143": "r\u00f3", "144": "et", "145": "c\u00f2", "146": "l\u00eb", "147": "ag", "148": "da", "149": "ga", "150": "s\u00fc", "151": "g\u00ef", "152": "vu", "153": "ab", "154": "\u2019n", "155": "\u00e0s", "156": "ca", "157": "d\u00ef", "158": "u\u2019", "159": "\u00e0r", "160": "fo", "161": "s\u00e9", "162": "v\u2019", "163": "qu", "164": "io", "165": "oc", "166": "t\u00ef", "167": "f\u00f2", "168": "ai", "169": "hi", "170": "el", "171": "b\u00f2", "172": "re", "173": "n\u00e8", "174": "l\u00ec", "175": "ha", "176": "s\u00ec", "177": "ve", "178": "ra", "179": "p\u00fc", "180": "\u00f3n", "181": "vi", "182": "\u00e8i", "183": "ov", "184": "l\u00f6", "185": "ri", "186": "f\u00eb", "187": "te", "188": "id", "189": "\u00e8l", "190": "m\u00f2", "191": "d\u00fc", "192": "as", "193": "c\u2019", "194": "f\u00e0", "195": "n\u00e9", "196": "ot", "197": "os", "198": "ol", "199": "p\u00ef", "200": "fe", "201": "gu", "202": "z\u00f2", "203": "g\u2019", "204": "z\u2019", "205": "eb", "206": "ni", "207": "du", "208": "su", "209": "a\u2019", "210": "am", "211": "l\u2019", "212": "f\u00e9", "213": "\u00e0n", "214": "az", "215": "om", "216": "r\u00f2", "217": "za", "218": "m\u00eb", "219": "p\u00ec", "220": "v\u00eb", "221": "\u00e8n", "222": "t\u00ec", "223": "r\u00ef", "224": "c\u00eb", "225": "fa", "226": "tu", "227": "li", "228": "sa", "229": "t\u00fc", "230": "bu", "231": "\u2019l", "232": "n\u00e0", "233": "b\u00f9", "234": "ec", "235": "um", "236": "pu", "237": "mo", "238": "m\u00ec", "239": "do", "240": "ut", "241": "mi", "242": "si", "243": "t\u00e9", "244": "di", "245": "ma", "246": "p\u00e8", "247": "ru", "248": "bo", "249": "od", "250": "im", "251": "g\u00f2", "252": "t\u00eb", "253": "va", "254": "le", "255": "n\u2019", "256": "c\u00ef", "257": "at", "258": "ie", "259": "b\u2019", "260": "s\u00eb", "261": "s\u2019", "262": "p\u00eb", "263": "d\u2019", "264": "n\u00ef", "265": "ho", "266": "v\u00e8", "267": "g\u00ec", "268": "on", "269": "fu", "270": "be", "271": "co", "272": "\u00f9l", "273": "d\u00e8", "274": "lu", "275": "uo", "276": "ac", "277": "l\u00f2", "278": "in", "279": "lot", "280": "di\u2019", "281": "nev", "282": "pru", "283": "tuo", "284": "tar", "285": "lul", "286": "smi", "287": "f\u00f3n", "288": "xil", "289": "cin", "290": "sv\u00ef", "291": "geo", "292": "cia", "293": "las", "294": "gel", "295": "dop", "296": "t\u00f2m", "297": "bom", "298": "pir", "299": "cet", "300": "sug", "301": "uo\u2019", "302": "tor", "303": "me\u2019", "304": "var", "305": "pri", "306": "sc\u00ef", "307": "lil", "308": "par", "309": "red", "310": "pis", "311": "gri", "312": "ma\u2019", "313": "leg", "314": "cli", "315": "\u2018la", "316": "gnu", "317": "que", "318": "da\u2019", "319": "fal", "320": "sio", "321": "st\u00e9", "322": "cro", "323": "sla", "324": "lan", "325": "ror", "326": "cun", "327": "vit", "328": "rav", "329": "piz", "330": "fru", "331": "der", "332": "gna", "333": "pog", "334": "fom", "335": "bas", "336": "nio", "337": "cef", "338": "lui", "339": "ril", "340": "c\u00f2l", "341": "qu\u2019", "342": "suf", "343": "giz", "344": "buc", "345": "nar", "346": "lor", "347": "git", "348": "nir", "349": "gi\u2019", "350": "gin", "351": "r\u00ecb", "352": "cre", "353": "ful", "354": "sic", "355": "chi", "356": "cag", "357": "vez", "358": "r\u00f2l", "359": "bru", "360": "l\u00f2n", "361": "don", "362": "p\u00f2s", "363": "gib", "364": "ren", "365": "nez", "366": "pl\u00ec", "367": "fog", "368": "pr\u2019", "369": "dot", "370": "qui", "371": "coi", "372": "tim", "373": "dim", "374": "bi\u00f2", "375": "nas", "376": "gis", "377": "gon", "378": "sob", "379": "bre", "380": "giu", "381": "rug", "382": "des", "383": "ian", "384": "duo", "385": "nun", "386": "vid", "387": "raz", "388": "som", "389": "sp\u00ef", "390": "nea", "391": "dom", "392": "gol", "393": "gia", "394": "fuo", "395": "fre", "396": "pia", "397": "sca", "398": "feb", "399": "gu\u00ec", "400": "mez", "401": "hai", "402": "meo", "403": "fer", "404": "mae", "405": "mam", "406": "tat", "407": "ben", "408": "ion", "409": "pet", "410": "iar", "411": "ten", "412": "suo", "413": "lu\u2019", "414": "rao", "415": "t\u00f3n", "416": "fos", "417": "ch\u00ef", "418": "gie", "419": "tac", "420": "fie", "421": "st\u00e0", "422": "buf", "423": "pap", "424": "peg", "425": "ves", "426": "sor", "427": "mos", "428": "van", "429": "das", "430": "pur", "431": "dol", "432": "ne\u2019", "433": "sai", "434": "smu", "435": "gad", "436": "sbi", "437": "fel", "438": "cap", "439": "muc", "440": "n\u00ect", "441": "g\u00f3r", "442": "ger", "443": "fil", "444": "nef", "445": "tet", "446": "gam", "447": "sve", "448": "\u2019ve", "449": "tr\u00f2", "450": "dat", "451": "di\u00e8", "452": "pos", "453": "gim", "454": "lap", "455": "put", "456": "de\u2019", "457": "ciu", "458": "sot", "459": "sti", "460": "ria", "461": "rim", "462": "lit", "463": "c\u00e9r", "464": "mem", "465": "sus", "466": "nel", "467": "ti\u2019", "468": "leo", "469": "pig", "470": "det", "471": "rei", "472": "mie", "473": "luc", "474": "nei", "475": "bel", "476": "cie", "477": "got", "478": "fe\u2019", "479": "fac", "480": "f\u00e0s", "481": "cri", "482": "nes", "483": "pen", "484": "dri", "485": "sto", "486": "gir", "487": "muo", "488": "spi", "489": "gi\u00e0", "490": "bet", "491": "biz", "492": "gal", "493": "ver", "494": "tie", "495": "dit", "496": "zul", "497": "fen", "498": "mei", "499": "v\u00ecd", "500": "coz", "501": "gh\u2019", "502": "st\u00ef", "503": "sfo", "504": "fis", "505": "dia", "506": "pon", "507": "dra", "508": "gua", "509": "lin", "510": "meg", "511": "cer", "512": "spe", "513": "pra", "514": "sga", "515": "lon", "516": "rup", "517": "tau", "518": "dic", "519": "rai", "520": "lez", "521": "rog", "522": "pun", "523": "sat", "524": "sme", "525": "diz", "526": "cat", "527": "run", "528": "plo", "529": "viz", "530": "zie", "531": "tro", "532": "ha\u2019", "533": "cad", "534": "per", "535": "sei", "536": "tis", "537": "nha", "538": "luo", "539": "dam", "540": "pem", "541": "von", "542": "rid", "543": "nis", "544": "tr\u00e0", "545": "s\u00f3n", "546": "tem", "547": "fig", "548": "pi\u00e9", "549": "ret", "550": "sui", "551": "get", "552": "car", "553": "bal", "554": "cul", "555": "ric", "556": "cop", "557": "scu", "558": "vel", "559": "sco", "560": "ton", "561": "rer", "562": "mol", "563": "deb", "564": "gar", "565": "bun", "566": "col", "567": "cio", "568": "nul", "569": "dr\u00f2", "570": "dal", "571": "puz", "572": "rap", "573": "bur", "574": "ple", "575": "lop", "576": "ban", "577": "m\u00e9z", "578": "tir", "579": "pla", "580": "ruo", "581": "gor", "582": "dez", "583": "dr\u00e0", "584": "zar", "585": "unt", "586": "r\u00e8g", "587": "reb", "588": "vol", "589": "tru", "590": "dor", "591": "gur", "592": "vas", "593": "din", "594": "gai", "595": "vau", "596": "bie", "597": "pea", "598": "dee", "599": "sna", "600": "min", "601": "goz", "602": "dru", "603": "rea", "604": "pop", "605": "sec", "606": "st\u00ec", "607": "qu\u00ef", "608": "ges", "609": "mia", "610": "rof", "611": "ch\u2019", "612": "zuf", "613": "st\u00f2", "614": "sam", "615": "ra\u2019", "616": "fro", "617": "co\u2019", "618": "fug", "619": "svi", "620": "far", "621": "pol", "622": "veg", "623": "cos", "624": "n\u00e8s", "625": "vem", "626": "cru", "627": "nag", "628": "cob", "629": "gru", "630": "uom", "631": "caf", "632": "che", "633": "fib", "634": "bue", "635": "lea", "636": "va\u2019", "637": "du\u2019", "638": "ber", "639": "\u2019v\u2019", "640": "lam", "641": "ieu", "642": "dov", "643": "bab", "644": "tre", "645": "zaf", "646": "cau", "647": "gi\u00f2", "648": "lat", "649": "boz", "650": "rat", "651": "raf", "652": "smo", "653": "flu", "654": "bea", "655": "zon", "656": "bro", "657": "bor", "658": "dio", "659": "gi\u00f9", "660": "sul", "661": "pan", "662": "p\u00e0r", "663": "gue", "664": "bis", "665": "ruf", "666": "sfa", "667": "mes", "668": "pot", "669": "spu", "670": "mac", "671": "seg", "672": "cal", "673": "mai", "674": "rol", "675": "pal", "676": "boc", "677": "fab", "678": "dau", "679": "fra", "680": "tai", "681": "bev", "682": "soz", "683": "ci\u00f2", "684": "noc", "685": "sag", "686": "n\u00eca", "687": "fan", "688": "m\u00eca", "689": "dr\u00e4", "690": "iat", "691": "vec", "692": "vin", "693": "tua", "694": "sno", "695": "lic", "696": "vet", "697": "bol", "698": "m\u00ecs", "699": "cai", "700": "tr\u2019", "701": "tuf", "702": "bot", "703": "sel", "704": "sta", "705": "se\u2019", "706": "tho", "707": "gno", "708": "fla", "709": "vo\u2019", "710": "gil", "711": "nob", "712": "dir", "713": "vai", "714": "neo", "715": "tin", "716": "lis", "717": "lem", "718": "mat", "719": "pro", "720": "con", "721": "fat", "722": "nai", "723": "neg", "724": "mic", "725": "rem", "726": "mer", "727": "fet", "728": "fai", "729": "reo", "730": "cir", "731": "noi", "732": "ste", "733": "mio", "734": "nat", "735": "r\u00f3n", "736": "re\u2019", "737": "feo", "738": "sun", "739": "nur", "740": "pr\u00ec", "741": "sba", "742": "top", "743": "sia", "744": "gne", "745": "mur", "746": "nan", "747": "sur", "748": "pr\u00e0", "749": "bil", "750": "cea", "751": "rie", "752": "buo", "753": "pec", "754": "f\u00e0c", "755": "dur", "756": "luz", "757": "pau", "758": "mel", "759": "gea", "760": "tri", "761": "rag", "762": "zai", "763": "sue", "764": "nuc", "765": "poi", "766": "sra", "767": "mil", "768": "man", "769": "bat", "770": "sci", "771": "fol", "772": "nil", "773": "noz", "774": "tea", "775": "vor", "776": "bon", "777": "nuo", "778": "mar", "779": "lec", "780": "sce", "781": "lai", "782": "qua", "783": "ga\u2019", "784": "lee", "785": "fu\u2019", "786": "sbe", "787": "lie", "788": "cil", "789": "pas", "790": "gan", "791": "na\u2019", "792": "bio", "793": "res", "794": "cor", "795": "gem", "796": "but", "797": "can", "798": "bar", "799": "stu", "800": "lip", "801": "son", "802": "tr\u00ef", "803": "muf", "804": "val", "805": "mug", "806": "ri\u2019", "807": "ghe", "808": "cl\u00ef", "809": "teg", "810": "tol", "811": "zii", "812": "dan", "813": "riz", "814": "pu\u00f2", "815": "t\u00e9r", "816": "len", "817": "del", "818": "r\u00ecs", "819": "vag", "820": "teo", "821": "por", "822": "fio", "823": "dos", "824": "sal", "825": "fur", "826": "bac", "827": "lel", "828": "sua", "829": "roc", "830": "rut", "831": "sa\u2019", "832": "gab", "833": "cra", "834": "nem", "835": "nal", "836": "lun", "837": "due", "838": "sez", "839": "ier", "840": "sc\u00ec", "841": "ial", "842": "sep", "843": "za\u2019", "844": "guo", "845": "cep", "846": "bir", "847": "tun", "848": "ior", "849": "tom", "850": "cur", "851": "lav", "852": "cum", "853": "lio", "854": "pub", "855": "tec", "856": "puc", "857": "voi", "858": "vuo", "859": "pei", "860": "rec", "861": "sin", "862": "gl\u2019", "863": "cez", "864": "t\u00f2r", "865": "spo", "866": "ler", "867": "cu\u2019", "868": "clu", "869": "sap", "870": "pre", "871": "fem", "872": "pes", "873": "neb", "874": "bl\u00ef", "875": "ran", "876": "st\u2019", "877": "gat", "878": "gre", "879": "sfe", "880": "cei", "881": "fui", "882": "tut", "883": "gaz", "884": "num", "885": "fia", "886": "ch\u00ec", "887": "han", "888": "lac", "889": "cla", "890": "cot", "891": "sle", "892": "deh", "893": "b\u00e0l", "894": "sie", "895": "fei", "896": "dec", "897": "br\u00ef", "898": "spa", "899": "nie", "900": "pac", "901": "zan", "902": "svo", "903": "cen", "904": "puo", "905": "suc", "906": "vea", "907": "lom", "908": "moz", "909": "sac", "910": "lir", "911": "clo", "912": "sog", "913": "pul", "914": "nen", "915": "cis", "916": "tag", "917": "cac", "918": "fam", "919": "laz", "920": "pio", "921": "dai", "922": "zio", "923": "nom", "924": "bli", "925": "ner", "926": "pic", "927": "su\u2019", "928": "lia", "929": "goc", "930": "dil", "931": "sar", "932": "bei", "933": "gu\u00f2", "934": "ces", "935": "plu", "936": "rum", "937": "dut", "938": "fri", "939": "cr\u00e0", "940": "ruc", "941": "tio", "942": "nim", "943": "reg", "944": "sos", "945": "dis", "946": "tra", "947": "mal", "948": "cuo", "949": "ral", "950": "guz", "951": "peo", "952": "dug", "953": "tle", "954": "tia", "955": "com", "956": "sas", "957": "sab", "958": "tel", "959": "let", "960": "cel", "961": "dus", "962": "fun", "963": "tuc", "964": "d\u00eca", "965": "bin", "966": "men", "967": "nol", "968": "ven", "969": "tus", "970": "fin", "971": "sov", "972": "vom", "973": "cic", "974": "non", "975": "bee", "976": "rot", "977": "sde", "978": "l\u00e8m", "979": "sen", "980": "bec", "981": "vei", "982": "nin", "983": "poz", "984": "vis", "985": "lur", "986": "ris", "987": "mas", "988": "lus", "989": "fum", "990": "f\u00e9l", "991": "tez", "992": "soc", "993": "ses", "994": "c\u00e0n", "995": "dre", "996": "dar", "997": "tes", "998": "dun", "999": "mot", "1000": "rel", "1001": "zia", "1002": "poc", "1003": "vra", "1004": "dro", "1005": "cit", "1006": "vat", "1007": "nic", "1008": "gro", "1009": "st\u00f9", "1010": "zur", "1011": "sil", "1012": "tei", "1013": "pie", "1014": "pli", "1015": "te\u2019", "1016": "ron", "1017": "gei", "1018": "ve\u2019", "1019": "cas", "1020": "set", "1021": "gui", "1022": "mun", "1023": "b\u00eca", "1024": "zel", "1025": "nig", "1026": "rir", "1027": "fic", "1028": "pi\u00f9", "1029": "sub", "1030": "vul", "1031": "pom", "1032": "bef", "1033": "rab", "1034": "v\u00f2l", "1035": "til", "1036": "gom", "1037": "net", "1038": "cam", "1039": "feg", "1040": "mir", "1041": "fas", "1042": "f\u00e8l", "1043": "tam", "1044": "gob", "1045": "coc", "1046": "gag", "1047": "nac", "1048": "ser", "1049": "f\u00e0t", "1050": "glo", "1051": "dif", "1052": "lei", "1053": "rom", "1054": "ahi", "1055": "rob", "1056": "lim", "1057": "deo", "1058": "mon", "1059": "bia", "1060": "\u2018te", "1061": "c\u00f2b", "1062": "gas", "1063": "pi\u00e8", "1064": "sit", "1065": "d\u00e8i", "1066": "zac", "1067": "cle", "1068": "sum", "1069": "bul", "1070": "c\u00f3l", "1071": "rio", "1072": "san", "1073": "rac", "1074": "sma", "1075": "rar", "1076": "gra", "1077": "pel", "1078": "gio", "1079": "ram", "1080": "tur", "1081": "sis", "1082": "dob", "1083": "sud", "1084": "nec", "1085": "die", "1086": "nia", "1087": "sir", "1088": "dr\u00ef", "1089": "sop", "1090": "lup", "1091": "sgo", "1092": "guc", "1093": "dub", "1094": "ros", "1095": "fi\u2019", "1096": "rit", "1097": "ghi", "1098": "sii", "1099": "sem", "1100": "mul", "1101": "dul", "1102": "gli", "1103": "bus", "1104": "n\u00f2s", "1105": "sup", "1106": "vie", "1107": "loc", "1108": "lar", "1109": "tal", "1110": "ter", "1111": "pit", "1112": "leb", "1113": "dei", "1114": "tue", "1115": "niz", "1116": "no\u2019", "1117": "l\u00eco", "1118": "mor", "1119": "fon", "1120": "fes", "1121": "sof", "1122": "sc\u2019", "1123": "pil", "1124": "via", "1125": "lep", "1126": "cui", "1127": "ch\u00e9", "1128": "pat", "1129": "deg", "1130": "zuc", "1131": "den", "1132": "vio", "1133": "so\u2019", "1134": "rez", "1135": "not", "1136": "dem", "1137": "vir", "1138": "ean", "1139": "gni", "1140": "rig", "1141": "saf", "1142": "for", "1143": "les", "1144": "mag", "1145": "cov", "1146": "cem", "1147": "t\u00e0n", "1148": "g\u00f3n", "1149": "fuc", "1150": "vac", "1151": "paz", "1152": "fiu", "1153": "nor", "1154": "sod", "1155": "lut", "1156": "lau", "1157": "lab", "1158": "pin", "1159": "maz", "1160": "gen", "1161": "gn\u00ec", "1162": "bri", "1163": "hon", "1164": "fle", "1165": "dea", "1166": "rin", "1167": "ras", "1168": "toc", "1169": "cuc", "1170": "met", "1171": "roz", "1172": "tan", "1173": "sol", "1174": "doc", "1175": "fit", "1176": "piu", "1177": "vam", "1178": "gau", "1179": "quo", "1180": "tic", "1181": "bra", "1182": "vil", "1183": "tas", "1184": "ta\u2019", "1185": "guic", "1186": "driz", "1187": "scab", "1188": "stai", "1189": "quar", "1190": "stas", "1191": "sfac", "1192": "rian", "1193": "pier", "1194": "dria", "1195": "stuo", "1196": "vuoi", "1197": "treb", "1198": "pien", "1199": "gien", "1200": "clau", "1201": "sci\u2019", "1202": "stri", "1203": "graf", "1204": "die\u2019", "1205": "drit", "1206": "sien", "1207": "cher", "1208": "cean", "1209": "scic", "1210": "clis", "1211": "gnen", "1212": "viem", "1213": "prei", "1214": "scos", "1215": "stea", "1216": "smon", "1217": "chi\u00f2", "1218": "brac", "1219": "dian", "1220": "\u2018glo", "1221": "svel", "1222": "pran", "1223": "ciot", "1224": "gnas", "1225": "gras", "1226": "blan", "1227": "niam", "1228": "scol", "1229": "sber", "1230": "sten", "1231": "guit", "1232": "ciar", "1233": "stin", "1234": "gual", "1235": "scar", "1236": "bran", "1237": "sunt", "1238": "giug", "1239": "cian", "1240": "spin", "1241": "sfan", "1242": "pri\u2019", "1243": "stop", "1244": "trul", "1245": "guen", "1246": "scre", "1247": "trec", "1248": "quel", "1249": "giam", "1250": "scop", "1251": "crin", "1252": "scac", "1253": "smar", "1254": "cioc", "1255": "gres", "1256": "bron", "1257": "spez", "1258": "fred", "1259": "stil", "1260": "tria", "1261": "piog", "1262": "ghes", "1263": "piat", "1264": "smor", "1265": "grin", "1266": "giot", "1267": "trat", "1268": "chel", "1269": "trie", "1270": "trot", "1271": "spit", "1272": "ciuo", "1273": "glio", "1274": "grue", "1275": "viam", "1276": "gnie", "1277": "quam", "1278": "scia", "1279": "gron", "1280": "sneb", "1281": "scaz", "1282": "cheg", "1283": "broc", "1284": "pria", "1285": "piag", "1286": "quai", "1287": "pian", "1288": "grot", "1289": "biet", "1290": "truo", "1291": "tran", "1292": "guan", "1293": "trio", "1294": "plan", "1295": "guef", "1296": "brug", "1297": "dran", "1298": "gnel", "1299": "puom", "1300": "plar", "1301": "cia\u2019", "1302": "smoz", "1303": "spar", "1304": "gner", "1305": "bion", "1306": "spre", "1307": "stra", "1308": "fret", "1309": "giuo", "1310": "guag", "1311": "pres", "1312": "tier", "1313": "ghel", "1314": "frir", "1315": "ghir", "1316": "gias", "1317": "trag", "1318": "suoi", "1319": "brul", "1320": "ciel", "1321": "spra", "1322": "spal", "1323": "sfin", "1324": "ples", "1325": "spel", "1326": "tras", "1327": "trar", "1328": "quer", "1329": "rean", "1330": "gion", "1331": "gnaz", "1332": "sfor", "1333": "vria", "1334": "stuc", "1335": "guel", "1336": "bia\u2019", "1337": "creb", "1338": "dier", "1339": "prin", "1340": "gher", "1341": "scoc", "1342": "gian", "1343": "tuoi", "1344": "piov", "1345": "stro", "1346": "nean", "1347": "cria", "1348": "nian", "1349": "fiac", "1350": "diam", "1351": "cl\u00e8s", "1352": "drel", "1353": "trop", "1354": "quin", "1355": "fles", "1356": "biar", "1357": "nail", "1358": "scov", "1359": "piac", "1360": "grop", "1361": "chez", "1362": "stel", "1363": "ciol", "1364": "scio", "1365": "guiz", "1366": "stio", "1367": "sciu", "1368": "flit", "1369": "puol", "1370": "pion", "1371": "gnia", "1372": "gnus", "1373": "quil", "1374": "gnuo", "1375": "scet", "1376": "sbar", "1377": "vien", "1378": "zian", "1379": "brie", "1380": "brut", "1381": "tron", "1382": "sian", "1383": "laio", "1384": "glia", "1385": "sier", "1386": "giac", "1387": "ciam", "1388": "vian", "1389": "scri", "1390": "brio", "1391": "sie\u2019", "1392": "trae", "1393": "tean", "1394": "sche", "1395": "stem", "1396": "scim", "1397": "prir", "1398": "ghet", "1399": "scot", "1400": "chiu", "1401": "scem", "1402": "tiem", "1403": "gnem", "1404": "sman", "1405": "gnun", "1406": "str\u2019", "1407": "qual", "1408": "plau", "1409": "spon", "1410": "dien", "1411": "scom", "1412": "quan", "1413": "drai", "1414": "stiz", "1415": "glie", "1416": "ciap", "1417": "gheg", "1418": "brol", "1419": "stor", "1420": "fior", "1421": "lien", "1422": "grem", "1423": "slac", "1424": "chie", "1425": "zion", "1426": "piom", "1427": "flet", "1428": "slao", "1429": "guir", "1430": "stre", "1431": "stia", "1432": "puos", "1433": "trap", "1434": "spes", "1435": "scuo", "1436": "sbra", "1437": "fian", "1438": "squa", "1439": "spia", "1440": "fien", "1441": "glau", "1442": "vuo\u2019", "1443": "tram", "1444": "puoi", "1445": "scir", "1446": "cuor", "1447": "guaz", "1448": "sfio", "1449": "piez", "1450": "ghie", "1451": "fiam", "1452": "brei", "1453": "suon", "1454": "gran", "1455": "bias", "1456": "grap", "1457": "bren", "1458": "vean", "1459": "schi", "1460": "fren", "1461": "que\u2019", "1462": "ciom", "1463": "sdet", "1464": "maio", "1465": "breo", "1466": "span", "1467": "str\u00f2", "1468": "prun", "1469": "troc", "1470": "spen", "1471": "gnor", "1472": "tr\u00e0s", "1473": "quen", "1474": "quie", "1475": "chis", "1476": "proc", "1477": "trai", "1478": "scuf", "1479": "sgan", "1480": "st\u00f2r", "1481": "ziar", "1482": "tien", "1483": "sc\u00eco", "1484": "miei", "1485": "ghia", "1486": "greg", "1487": "chet", "1488": "scro", "1489": "chil", "1490": "quod", "1491": "brar", "1492": "spet", "1493": "tren", "1494": "trui", "1495": "vier", "1496": "gnan", "1497": "scel", "1498": "sper", "1499": "sgri", "1500": "crea", "1501": "cruc", "1502": "gros", "1503": "mian", "1504": "stul", "1505": "spic", "1506": "gli\u00f2", "1507": "com\u2019", "1508": "sgra", "1509": "stam", "1510": "bris", "1511": "naio", "1512": "dram", "1513": "scer", "1514": "rien", "1515": "dron", "1516": "pia\u2019", "1517": "cien", "1518": "sfam", "1519": "str\u00e0", "1520": "sden", "1521": "ciul", "1522": "flig", "1523": "fran", "1524": "fron", "1525": "chin", "1526": "lian", "1527": "piar", "1528": "bent", "1529": "ciac", "1530": "snel", "1531": "grie", "1532": "squi", "1533": "grom", "1534": "chia", "1535": "stei", "1536": "stru", "1537": "sbri", "1538": "ghio", "1539": "runt", "1540": "spec", "1541": "lier", "1542": "pren", "1543": "pris", "1544": "fioc", "1545": "siam", "1546": "dra\u2019", "1547": "gial", "1548": "frat", "1549": "quei", "1550": "muor", "1551": "fuor", "1552": "frut", "1553": "stui", "1554": "smen", "1555": "trei", "1556": "nien", "1557": "sven", "1558": "stie", "1559": "scea", "1560": "grez", "1561": "sgor", "1562": "scal", "1563": "gier", "1564": "ched", "1565": "stes", "1566": "quor", "1567": "quis", "1568": "buon", "1569": "vuol", "1570": "gean", "1571": "plor", "1572": "sfre", "1573": "guet", "1574": "tuon", "1575": "sci\u00f2", "1576": "pi\u00e9r", "1577": "stec", "1578": "giun", "1579": "scon", "1580": "gnon", "1581": "gram", "1582": "scin", "1583": "spir", "1584": "mie\u2019", "1585": "chio", "1586": "spuo", "1587": "spie", "1588": "guer", "1589": "spaz", "1590": "stig", "1591": "prie", "1592": "guil", "1593": "nier", "1594": "duol", "1595": "stan", "1596": "br\u00f2t", "1597": "tra\u2019", "1598": "suo\u2019", "1599": "fiot", "1600": "ghin", "1601": "cral", "1602": "scan", "1603": "ghez", "1604": "ghi\u00f2", "1605": "stol", "1606": "spor", "1607": "scam", "1608": "guon", "1609": "stis", "1610": "scie", "1611": "ciai", "1612": "smal", "1613": "guia", "1614": "dean", "1615": "spro", "1616": "spri", "1617": "pron", "1618": "trac", "1619": "pric", "1620": "stav", "1621": "ciuf", "1622": "giar", "1623": "cias", "1624": "clas", "1625": "biac", "1626": "grep", "1627": "bian", "1628": "gior", "1629": "buoi", "1630": "sfar", "1631": "ci\u00f2l", "1632": "spun", "1633": "gnin", "1634": "dail", "1635": "brez", "1636": "drap", "1637": "sgom", "1638": "tret", "1639": "suol", "1640": "scis", "1641": "ster", "1642": "grat", "1643": "guar", "1644": "crol", "1645": "guai", "1646": "prio", "1647": "stal", "1648": "cion", "1649": "ghil", "1650": "scor", "1651": "quat", "1652": "sfat", "1653": "liev", "1654": "sti\u00f2", "1655": "sfer", "1656": "gnum", "1657": "prai", "1658": "ver\u2019", "1659": "fiar", "1660": "glet", "1661": "scen", "1662": "drir", "1663": "stet", "1664": "sban", "1665": "fier", "1666": "tiam", "1667": "trom", "1668": "pruo", "1669": "cras", "1670": "spol", "1671": "prez", "1672": "sver", "1673": "pros", "1674": "sion", "1675": "star", "1676": "tror", "1677": "scun", "1678": "brot", "1679": "gnar", "1680": "dras", "1681": "stion", "1682": "spres", "1683": "squil", "1684": "strai", "1685": "schet", "1686": "stiam", "1687": "strel", "1688": "stial", "1689": "scris", "1690": "schie", "1691": "ghiot", "1692": "scrip", "1693": "stran", "1694": "gliel", "1695": "chias", "1696": "ghiac", "1697": "chiai", "1698": "stier", "1699": "chioc", "1700": "stren", "1701": "stroc", "1702": "stian", "1703": "sgiun", "1704": "sciut", "1705": "glian", "1706": "spraz", "1707": "stras", "1708": "stral", "1709": "stret", "1710": "scrit", "1711": "schio", "1712": "strug", "1713": "glion", "1714": "vrien", "1715": "scias", "1716": "glier", "1717": "chiet", "1718": "strat", "1719": "sciom", "1720": "spiac", "1721": "gliet", "1722": "stroz", "1723": "schem", "1724": "glior", "1725": "squar", "1726": "strin", "1727": "sciol", "1728": "temps", "1729": "chiar", "1730": "scial", "1731": "sciam", "1732": "sciau", "1733": "scran", "1734": "gliuo", "1735": "stram", "1736": "gliam", "1737": "ghien", "1738": "stric", "1739": "splen", "1740": "sgrie", "1741": "schic", "1742": "sciai", "1743": "glies", "1744": "streg", "1745": "glien", "1746": "chion", "1747": "chiap", "1748": "gluol", "1749": "chian", "1750": "strut", "1751": "strac", "1752": "sciar", "1753": "scher", "1754": "strar", "1755": "svuol", "1756": "gliar", "1757": "sguar", "1758": "sci\u00e0n", "1759": "scian", "1760": "gliea", "1761": "ghiar", "1762": "schiu", "1763": "scioc", "1764": "sfran", "1765": "scheg", "1766": "chier", "1767": "ghian", "1768": "strom", "1769": "schia", "1770": "scion", "1771": "spran", "1772": "schiar", "1773": "gliuol", "1774": "schian", "1775": "gliuoi", "1776": "ghiaio", "1777": "schiat", "1778": "schiet"}