{"0": "", "1": "<v>", "2": "</v>", "3": "<t>", "4": "</t>", "5": " ", "6": "\u2019", "7": "l", "8": "d", "9": "\u00fc", "10": "a", "11": "p", "12": "\u00f9", "13": "o", "14": "\u00e8", "15": "u", "16": "\u00ec", "17": "\u00f2", "18": "i", "19": "\u00ef", "20": "\u00e9", "21": "e", "22": "\u00eb", "23": "um", "24": "id", "25": "p\u00eb", "26": "u\u2019", "27": "ex", "28": "e\u2019", "29": "m\u00ec", "30": "d\u00ec", "31": "\u00e8n", "32": "or", "33": "\u2019l", "34": "s\u2019", "35": "ze", "36": "\u2019m", "37": "t\u00fc", "38": "g\u00f3", "39": "t\u2019", "40": "\u00e0r", "41": "mo", "42": "p\u00ef", "43": "an", "44": "om", "45": "ho", "46": "d\u00e9", "47": "p\u00fc", "48": "em", "49": "lu", "50": "no", "51": "ov", "52": "ri", "53": "p\u00f2", "54": "to", "55": "n\u00eb", "56": "r\u00f2", "57": "v\u00eb", "58": "l\u00eb", "59": "os", "60": "ha", "61": "fi", "62": "ia", "63": "n\u00ec", "64": "pu", "65": "ai", "66": "c\u00e8", "67": "m\u00f2", "68": "t\u00eb", "69": "te", "70": "se", "71": "me", "72": "m\u2019", "73": "s\u00f2", "74": "r\u00f3", "75": "v\u00e9", "76": "l\u00fc", "77": "g\u00fc", "78": "l\u00e8", "79": "s\u00eb", "80": "\u00e0s", "81": "fa", "82": "s\u00f9", "83": "od", "84": "of", "85": "t\u00e9", "86": "c\u2019", "87": "oc", "88": "n\u00e9", "89": "pa", "90": "ir", "91": "n\u00e8", "92": "t\u00ec", "93": "\u00e9n", "94": "s\u00e8", "95": "g\u00f2", "96": "d\u00eb", "97": "us", "98": "ti", "99": "da", "100": "g\u00e8", "101": "li", "102": "\u00f3n", "103": "ce", "104": "ap", "105": "gi", "106": "f\u00f2", "107": "l\u00ef", "108": "uc", "109": "f\u00e0", "110": "a\u2019", "111": "s\u00ec", "112": "ed", "113": "m\u00e4", "114": "xi", "115": "in", "116": "t\u00ef", "117": "d\u00ef", "118": "ur", "119": "po", "120": "ru", "121": "v\u00f2", "122": "c\u00fc", "123": "c\u00e9", "124": "vi", "125": "d\u2019", "126": "ca", "127": "du", "128": "b\u00ec", "129": "on", "130": "ef", "131": "ma", "132": "ne", "133": "t\u00e0", "134": "tu", "135": "s\u00fc", "136": "bo", "137": "b\u00e8", "138": "v\u00e8", "139": "v\u00ec", "140": "va", "141": "ol", "142": "vu", "143": "d\u00e0", "144": "l\u2019", "145": "z\u2019", "146": "re", "147": "c\u00ec", "148": "ob", "149": "pe", "150": "v\u00e4", "151": "z\u00ef", "152": "ni", "153": "co", "154": "bu", "155": "f\u00f3", "156": "b\u00ef", "157": "go", "158": "g\u00ec", "159": "n\u00f2", "160": "\u00ecs", "161": "b\u00f9", "162": "nu", "163": "n\u00ef", "164": "za", "165": "t\u00f2", "166": "ac", "167": "l\u00f6", "168": "do", "169": "ci", "170": "ra", "171": "r\u2019", "172": "sa", "173": "l\u00e0", "174": "ag", "175": "et", "176": "fe", "177": "\u00e0m", "178": "as", "179": "es", "180": "af", "181": "\u00f2s", "182": "ul", "183": "t\u00e4", "184": "t\u00f9", "185": "v\u00ef", "186": "\u00e8i", "187": "r\u00ef", "188": "s\u00ef", "189": "ge", "190": "un", "191": "am", "192": "z\u00f2", "193": "de", "194": "p\u2019", "195": "b\u00eb", "196": "lo", "197": "ga", "198": "pi", "199": "vo", "200": "b\u2019", "201": "oh", "202": "uo", "203": "p\u00e8", "204": "s\u00e0", "205": "s\u00e9", "206": "r\u00eb", "207": "c\u00ef", "208": "fu", "209": "le", "210": "el", "211": "zo", "212": "m\u00eb", "213": "di", "214": "f\u00ef", "215": "ro", "216": "zi", "217": "ve", "218": "v\u2019", "219": "su", "220": "g\u00eb", "221": "t\u00e8", "222": "d\u00fc", "223": "ae", "224": "en", "225": "\u2019n", "226": "i\u2019", "227": "n\u00fc", "228": "ot", "229": "io", "230": "at", "231": "cu", "232": "ec", "233": "c\u00f9", "234": "eu", "235": "iu", "236": "d\u00f2", "237": "av", "238": "\u00f2n", "239": "il", "240": "b\u00f2", "241": "\u00e8l", "242": "is", "243": "ie", "244": "ei", "245": "c\u00eb", "246": "ad", "247": "er", "248": "ba", "249": "r\u00e0", "250": "ab", "251": "l\u00ec", "252": "ar", "253": "r\u00ec", "254": "al", "255": "la", "256": "so", "257": "og", "258": "az", "259": "si", "260": "f\u00eb", "261": "p\u00ec", "262": "c\u00f2", "263": "be", "264": "\u00e8e", "265": "mi", "266": "ta", "267": "n\u2019", "268": "n\u00e0", "269": "r\u00e8", "270": "eb", "271": "\u00e0n", "272": "\u00e8v", "273": "gu", "274": "f\u00e9", "275": "m\u00e8", "276": "fo", "277": "hi", "278": "g\u2019", "279": "mu", "280": "au", "281": "\u00f9l", "282": "na", "283": "m\u00ef", "284": "g\u00ef", "285": "op", "286": "bi", "287": "l\u00f2", "288": "im", "289": "zii", "290": "cef", "291": "sac", "292": "tos", "293": "sau", "294": "re\u2019", "295": "gib", "296": "mie", "297": "for", "298": "ton", "299": "gom", "300": "lin", "301": "die", "302": "cov", "303": "nun", "304": "pog", "305": "bab", "306": "ch\u00e9", "307": "get", "308": "fan", "309": "sii", "310": "poz", "311": "gol", "312": "lec", "313": "fe\u2019", "314": "cil", "315": "mii", "316": "\u2018ne", "317": "ch\u00ec", "318": "sol", "319": "vec", "320": "cli", "321": "qui", "322": "goc", "323": "dur", "324": "bor", "325": "lea", "326": "vom", "327": "raz", "328": "bur", "329": "sr\u00e4", "330": "pit", "331": "rao", "332": "bom", "333": "rid", "334": "gi\u00f9", "335": "til", "336": "st\u00f9", "337": "dr\u00ec", "338": "mag", "339": "veg", "340": "bar", "341": "top", "342": "biz", "343": "quo", "344": "tie", "345": "dit", "346": "plu", "347": "cot", "348": "rit", "349": "bac", "350": "pii", "351": "xil", "352": "geo", "353": "but", "354": "tui", "355": "d\u00ect", "356": "nem", "357": "voi", "358": "gei", "359": "pra", "360": "suo", "361": "nel", "362": "sve", "363": "tec", "364": "fes", "365": "tai", "366": "min", "367": "sug", "368": "tus", "369": "mam", "370": "guc", "371": "v\u00f2l", "372": "saf", "373": "zai", "374": "gu\u00f2", "375": "giu", "376": "vii", "377": "nob", "378": "gag", "379": "gni", "380": "dol", "381": "seg", "382": "dos", "383": "fun", "384": "nat", "385": "tam", "386": "pon", "387": "teo", "388": "lus", "389": "ben", "390": "dor", "391": "sca", "392": "ple", "393": "gad", "394": "ra\u2019", "395": "por", "396": "det", "397": "fen", "398": "sas", "399": "lab", "400": "bec", "401": "guo", "402": "ghe", "403": "vau", "404": "gi\u00e0", "405": "luc", "406": "net", "407": "ves", "408": "sag", "409": "gob", "410": "seo", "411": "sal", "412": "lei", "413": "lis", "414": "caf", "415": "lee", "416": "cut", "417": "st\u00e9", "418": "rol", "419": "man", "420": "gan", "421": "can", "422": "gia", "423": "pli", "424": "mol", "425": "tir", "426": "fla", "427": "cla", "428": "b\u00e0l", "429": "teg", "430": "mug", "431": "zio", "432": "san", "433": "tel", "434": "ma\u2019", "435": "tet", "436": "pas", "437": "cap", "438": "est", "439": "dro", "440": "sci", "441": "bri", "442": "dan", "443": "sme", "444": "pri", "445": "tue", "446": "vie", "447": "\u2018la", "448": "deb", "449": "nio", "450": "niz", "451": "deh", "452": "st\u00f2", "453": "ch\u2019", "454": "nom", "455": "nor", "456": "sab", "457": "viz", "458": "de\u2019", "459": "iat", "460": "vio", "461": "pr\u00ec", "462": "pir", "463": "dic", "464": "zuc", "465": "sit", "466": "les", "467": "zul", "468": "t\u00e9r", "469": "put", "470": "pal", "471": "lam", "472": "sen", "473": "gea", "474": "zan", "475": "let", "476": "lip", "477": "sie", "478": "bi\u00f2", "479": "fi\u00f2", "480": "pom", "481": "gen", "482": "ser", "483": "fib", "484": "vac", "485": "c\u00e9r", "486": "red", "487": "gri", "488": "spi", "489": "sna", "490": "bug", "491": "feo", "492": "fer", "493": "din", "494": "buf", "495": "dem", "496": "\u2019v\u2019", "497": "dei", "498": "pei", "499": "nig", "500": "bus", "501": "sov", "502": "fiu", "503": "tuf", "504": "st\u2019", "505": "nia", "506": "r\u00ece", "507": "dri", "508": "ron", "509": "nan", "510": "ven", "511": "nha", "512": "roc", "513": "rap", "514": "cos", "515": "rez", "516": "ree", "517": "fil", "518": "mei", "519": "van", "520": "nea", "521": "sga", "522": "hon", "523": "goz", "524": "ten", "525": "rui", "526": "dio", "527": "tut", "528": "fam", "529": "muo", "530": "sep", "531": "nas", "532": "duo", "533": "mel", "534": "pi\u00e8", "535": "zuf", "536": "ges", "537": "bei", "538": "lic", "539": "ror", "540": "zie", "541": "qu\u2019", "542": "gin", "543": "pac", "544": "gu\u00ec", "545": "das", "546": "tac", "547": "dii", "548": "bro", "549": "ga\u2019", "550": "sfe", "551": "dam", "552": "spo", "553": "ti\u2019", "554": "su\u2019", "555": "ris", "556": "rac", "557": "lup", "558": "nie", "559": "tr\u00e0", "560": "coc", "561": "ni\u2019", "562": "st\u00e0", "563": "mic", "564": "dai", "565": "pig", "566": "sbe", "567": "f\u00e0s", "568": "fi\u2019", "569": "soc", "570": "mee", "571": "dop", "572": "fle", "573": "ve\u2019", "574": "tuc", "575": "dif", "576": "m\u00eca", "577": "vam", "578": "ces", "579": "mae", "580": "unt", "581": "cia", "582": "ior", "583": "cen", "584": "pap", "585": "pot", "586": "sa\u2019", "587": "mem", "588": "cuc", "589": "ner", "590": "sez", "591": "c\u00e0n", "592": "pun", "593": "za\u2019", "594": "\u2019ve", "595": "gl\u2019", "596": "cul", "597": "gal", "598": "rii", "599": "mez", "600": "rag", "601": "dia", "602": "pro", "603": "hai", "604": "sel", "605": "fug", "606": "vas", "607": "piu", "608": "res", "609": "gi\u00f2", "610": "puc", "611": "ran", "612": "te\u2019", "613": "ful", "614": "pes", "615": "pla", "616": "ret", "617": "cel", "618": "dob", "619": "tag", "620": "tem", "621": "dea", "622": "iep", "623": "nuc", "624": "ren", "625": "mum", "626": "sum", "627": "som", "628": "mia", "629": "puz", "630": "r\u00f2l", "631": "cre", "632": "mur", "633": "dil", "634": "paz", "635": "tur", "636": "l\u00eco", "637": "gne", "638": "sil", "639": "set", "640": "st\u00ef", "641": "sla", "642": "rup", "643": "lor", "644": "vez", "645": "pis", "646": "ber", "647": "jau", "648": "sgo", "649": "lau", "650": "tol", "651": "cr\u00e0", "652": "bru", "653": "nur", "654": "lia", "655": "fac", "656": "den", "657": "lom", "658": "tau", "659": "loc", "660": "gue", "661": "sui", "662": "vai", "663": "cau", "664": "sub", "665": "neg", "666": "tei", "667": "f\u00e9l", "668": "r\u00f3n", "669": "fum", "670": "pau", "671": "no\u2019", "672": "\u00f2th", "673": "sic", "674": "r\u00e8g", "675": "sto", "676": "gar", "677": "cit", "678": "dun", "679": "bra", "680": "gat", "681": "cad", "682": "sba", "683": "nez", "684": "con", "685": "bil", "686": "fue", "687": "gil", "688": "lai", "689": "cat", "690": "bir", "691": "bol", "692": "rel", "693": "zia", "694": "feg", "695": "nes", "696": "fit", "697": "qu\u00ef", "698": "bet", "699": "cai", "700": "diz", "701": "dar", "702": "nuo", "703": "fom", "704": "lim", "705": "cuo", "706": "cu\u2019", "707": "tio", "708": "sud", "709": "peg", "710": "vin", "711": "bev", "712": "uo\u2019", "713": "pi\u00e9", "714": "t\u00f2n", "715": "nul", "716": "sis", "717": "gai", "718": "p\u00f2s", "719": "nic", "720": "fuc", "721": "son", "722": "rog", "723": "tre", "724": "mil", "725": "gua", "726": "ean", "727": "nac", "728": "cur", "729": "vir", "730": "dis", "731": "tim", "732": "bon", "733": "nal", "734": "clo", "735": "dra", "736": "bie", "737": "lap", "738": "lac", "739": "t\u00e8s", "740": "dr\u00e0", "741": "nin", "742": "sbi", "743": "soz", "744": "cea", "745": "dul", "746": "ras", "747": "sus", "748": "bee", "749": "bai", "750": "rot", "751": "com", "752": "lel", "753": "co\u2019", "754": "piz", "755": "luz", "756": "vol", "757": "rec", "758": "ruf", "759": "pea", "760": "rai", "761": "gir", "762": "cin", "763": "cum", "764": "coi", "765": "g\u00f3n", "766": "fig", "767": "sir", "768": "cet", "769": "gam", "770": "pan", "771": "roz", "772": "len", "773": "gel", "774": "lop", "775": "n\u00eca", "776": "l\u00f2n", "777": "tro", "778": "lu\u2019", "779": "num", "780": "chi", "781": "rut", "782": "leb", "783": "ciu", "784": "mun", "785": "n\u00f2i", "786": "nec", "787": "cac", "788": "cer", "789": "gna", "790": "nev", "791": "fic", "792": "ste", "793": "tii", "794": "reg", "795": "rat", "796": "mot", "797": "ch\u00ef", "798": "fau", "799": "sco", "800": "tom", "801": "ruc", "802": "dau", "803": "bul", "804": "fio", "805": "gis", "806": "pre", "807": "cop", "808": "spa", "809": "n\u00e8s", "810": "ros", "811": "pi\u00f9", "812": "col", "813": "deo", "814": "mer", "815": "gro", "816": "nef", "817": "nis", "818": "b\u00eca", "819": "mes", "820": "lon", "821": "g\u00f3r", "822": "dr\u00ef", "823": "mac", "824": "fin", "825": "lil", "826": "fei", "827": "rei", "828": "lez", "829": "noi", "830": "gre", "831": "fos", "832": "ahi", "833": "ver", "834": "muc", "835": "bat", "836": "spu", "837": "pos", "838": "t\u00f2m", "839": "rab", "840": "ieu", "841": "sc\u00ef", "842": "neb", "843": "dub", "844": "dut", "845": "fia", "846": "dim", "847": "qua", "848": "poc", "849": "pet", "850": "fai", "851": "rim", "852": "so\u2019", "853": "pin", "854": "fas", "855": "guz", "856": "laz", "857": "ban", "858": "tic", "859": "men", "860": "sp\u00ef", "861": "svo", "862": "pem", "863": "mi\u2019", "864": "fat", "865": "me\u2019", "866": "tor", "867": "pop", "868": "meo", "869": "bl\u00ef", "870": "sv\u00ef", "871": "bas", "872": "vem", "873": "fog", "874": "puo", "875": "sop", "876": "fem", "877": "sul", "878": "dui", "879": "pl\u00ec", "880": "sar", "881": "clu", "882": "rig", "883": "rug", "884": "fui", "885": "sun", "886": "st\u00ec", "887": "tua", "888": "non", "889": "pel", "890": "cez", "891": "r\u00ecb", "892": "dat", "893": "ger", "894": "par", "895": "la\u2019", "896": "gie", "897": "cru", "898": "gru", "899": "fra", "900": "gor", "901": "svi", "902": "cep", "903": "l\u00eca", "904": "mul", "905": "smo", "906": "mas", "907": "da\u2019", "908": "peo", "909": "rie", "910": "ruo", "911": "cro", "912": "gur", "913": "vid", "914": "sin", "915": "fur", "916": "di\u00e8", "917": "zac", "918": "cam", "919": "dov", "920": "feb", "921": "sat", "922": "tuo", "923": "git", "924": "pie", "925": "tru", "926": "dug", "927": "lit", "928": "gim", "929": "neo", "930": "nii", "931": "nil", "932": "sec", "933": "f\u00e0c", "934": "rav", "935": "del", "936": "beo", "937": "ier", "938": "rom", "939": "spe", "940": "pil", "941": "sup", "942": "fre", "943": "sfa", "944": "fri", "945": "boz", "946": "cir", "947": "rua", "948": "meg", "949": "luo", "950": "leg", "951": "deg", "952": "ha\u2019", "953": "cl\u00ef", "954": "ian", "955": "flu", "956": "suc", "957": "ses", "958": "bel", "959": "sog", "960": "sua", "961": "lur", "962": "cal", "963": "ric", "964": "cis", "965": "s\u00f9e", "966": "dee", "967": "f\u00f3n", "968": "f\u00e9e", "969": "pr\u00e0", "970": "que", "971": "pia", "972": "p\u00eca", "973": "gas", "974": "nol", "975": "sc\u2019", "976": "lio", "977": "sle", "978": "fol", "979": "zar", "980": "met", "981": "va\u2019", "982": "toc", "983": "ram", "984": "mus", "985": "dec", "986": "tar", "987": "smi", "988": "pat", "989": "gui", "990": "vo\u2019", "991": "cag", "992": "gau", "993": "nen", "994": "dal", "995": "rem", "996": "vor", "997": "cei", "998": "c\u00f3l", "999": "sfo", "1000": "las", "1001": "bot", "1002": "nir", "1003": "lat", "1004": "sde", "1005": "ghi", "1006": "doc", "1007": "lem", "1008": "rof", "1009": "poi", "1010": "\u2018be", "1011": "cem", "1012": "mai", "1013": "tan", "1014": "gli", "1015": "bin", "1016": "nai", "1017": "mat", "1018": "pen", "1019": "fab", "1020": "vul", "1021": "tez", "1022": "sce", "1023": "gh\u2019", "1024": "br\u00ef", "1025": "cob", "1026": "pio", "1027": "maz", "1028": "stu", "1029": "noc", "1030": "des", "1031": "bia", "1032": "sti", "1033": "r\u00ecs", "1034": "fel", "1035": "lul", "1036": "far", "1037": "lie", "1038": "tis", "1039": "pu\u00f2", "1040": "c\u00f2l", "1041": "dot", "1042": "lar", "1043": "ne\u2019", "1044": "f\u00e8l", "1045": "vuo", "1046": "joi", "1047": "se\u2019", "1048": "smu", "1049": "t\u00f2r", "1050": "tat", "1051": "nei", "1052": "tle", "1053": "bun", "1054": "rar", "1055": "uom", "1056": "bef", "1057": "ion", "1058": "gab", "1059": "dr\u00e4", "1060": "sia", "1061": "mos", "1062": "vea", "1063": "rum", "1064": "der", "1065": "cor", "1066": "vat", "1067": "rea", "1068": "plo", "1069": "sof", "1070": "von", "1071": "dir", "1072": "ri\u2019", "1073": "val", "1074": "gnu", "1075": "na\u2019", "1076": "noz", "1077": "vel", "1078": "ta\u2019", "1079": "vra", "1080": "v\u00ecd", "1081": "bui", "1082": "glo", "1083": "boc", "1084": "sor", "1085": "fon", "1086": "run", "1087": "bal", "1088": "lot", "1089": "tr\u00f2", "1090": "dru", "1091": "mor", "1092": "pr\u2019", "1093": "pol", "1094": "vis", "1095": "m\u00e8c", "1096": "nar", "1097": "gra", "1098": "t\u00e0n", "1099": "car", "1100": "t\u00f3n", "1101": "sot", "1102": "b\u00e8l", "1103": "sev", "1104": "sai", "1105": "bre", "1106": "lut", "1107": "ril", "1108": "giz", "1109": "sos", "1110": "fal", "1111": "tr\u00ef", "1112": "mio", "1113": "lep", "1114": "sio", "1115": "vei", "1116": "bea", "1117": "cic", "1118": "don", "1119": "dre", "1120": "cas", "1121": "zaf", "1122": "sob", "1123": "reo", "1124": "d\u00ece", "1125": "fro", "1126": "vet", "1127": "dom", "1128": "dr\u00f2", "1129": "tes", "1130": "gno", "1131": "pru", "1132": "got", "1133": "raf", "1134": "tum", "1135": "tal", "1136": "di\u2019", "1137": "zel", "1138": "sei", "1139": "cun", "1140": "fu\u2019", "1141": "cie", "1142": "ral", "1143": "sc\u00ec", "1144": "n\u00f2s", "1145": "fru", "1146": "scu", "1147": "rir", "1148": "cio", "1149": "rer", "1150": "s\u00f3n", "1151": "nag", "1152": "dez", "1153": "fuo", "1154": "tra", "1155": "tho", "1156": "bli", "1157": "reb", "1158": "gem", "1159": "mal", "1160": "m\u00ecs", "1161": "ci\u00f2", "1162": "tia", "1163": "lun", "1164": "tun", "1165": "ter", "1166": "m\u00e9z", "1167": "iar", "1168": "pul", "1169": "sno", "1170": "tri", "1171": "sra", "1172": "sma", "1173": "bio", "1174": "sod", "1175": "p\u00e0r", "1176": "tea", "1177": "bis", "1178": "fet", "1179": "rob", "1180": "pai", "1181": "\u2018te", "1182": "rin", "1183": "pic", "1184": "pec", "1185": "mar", "1186": "coz", "1187": "per", "1188": "riz", "1189": "ceo", "1190": "cra", "1191": "sue", "1192": "gio", "1193": "lui", "1194": "tas", "1195": "pur", "1196": "l\u00e8m", "1197": "nim", "1198": "n\u00ece", "1199": "gi\u2019", "1200": "via", "1201": "buo", "1202": "sam", "1203": "suf", "1204": "cri", "1205": "var", "1206": "leo", "1207": "rio", "1208": "vag", "1209": "du\u2019", "1210": "mon", "1211": "cui", "1212": "muf", "1213": "s\u00ece", "1214": "gon", "1215": "n\u00ect", "1216": "sem", "1217": "due", "1218": "buc", "1219": "che", "1220": "tad", "1221": "sap", "1222": "z\u00f2n", "1223": "tr\u2019", "1224": "han", "1225": "f\u00e0t", "1226": "tin", "1227": "gaz", "1228": "cle", "1229": "dua", "1230": "ler", "1231": "d\u00e8i", "1232": "mir", "1233": "zur", "1234": "fis", "1235": "sta", "1236": "not", "1237": "vil", "1238": "vit", "1239": "lir", "1240": "lan", "1241": "lav", "1242": "fie", "1243": "vos", "1244": "c\u00f2b", "1245": "ria", "1246": "d\u00eca", "1247": "dus", "1248": "sur", "1249": "moz", "1250": "bue", "1251": "zon", "1252": "pub", "1253": "mea", "1254": "spri", "1255": "sten", "1256": "grep", "1257": "tra\u2019", "1258": "guio", "1259": "sdeg", "1260": "laio", "1261": "sci\u00f2", "1262": "biar", "1263": "stig", "1264": "duol", "1265": "schi", "1266": "stam", "1267": "zion", "1268": "broc", "1269": "chel", "1270": "trom", "1271": "ciam", "1272": "st\u00e8r", "1273": "gnen", "1274": "stel", "1275": "fret", "1276": "stri", "1277": "spia", "1278": "scar", "1279": "tiam", "1280": "quia", "1281": "spet", "1282": "liev", "1283": "scuo", "1284": "tuo\u2019", "1285": "plar", "1286": "sver", "1287": "rent", "1288": "quai", "1289": "cher", "1290": "cien", "1291": "spes", "1292": "grue", "1293": "trac", "1294": "flit", "1295": "tron", "1296": "chet", "1297": "sc\u00eco", "1298": "guaz", "1299": "trul", "1300": "spir", "1301": "smal", "1302": "vria", "1303": "viam", "1304": "piog", "1305": "fiot", "1306": "fien", "1307": "graf", "1308": "pric", "1309": "naut", "1310": "dras", "1311": "scoc", "1312": "toio", "1313": "trot", "1314": "spel", "1315": "blia", "1316": "mie\u2019", "1317": "stin", "1318": "scol", "1319": "ghi\u00f2", "1320": "scin", "1321": "scer", "1322": "sci\u2019", "1323": "giug", "1324": "gron", "1325": "\u2019vun", "1326": "quar", "1327": "c\u00f2th", "1328": "ciuo", "1329": "stea", "1330": "fiar", "1331": "scuf", "1332": "gnus", "1333": "piom", "1334": "tuoi", "1335": "brut", "1336": "fles", "1337": "suo\u2019", "1338": "prir", "1339": "gnas", "1340": "ciom", "1341": "puol", "1342": "scio", "1343": "brot", "1344": "pien", "1345": "stru", "1346": "puos", "1347": "scel", "1348": "sion", "1349": "gnan", "1350": "brac", "1351": "gnon", "1352": "gias", "1353": "sper", "1354": "scri", "1355": "\u2018glo", "1356": "quor", "1357": "gnin", "1358": "que\u2019", "1359": "brug", "1360": "trar", "1361": "ghez", "1362": "ples", "1363": "chil", "1364": "brez", "1365": "d\u00e8ch", "1366": "gnum", "1367": "steo", "1368": "gram", "1369": "trai", "1370": "nier", "1371": "trae", "1372": "ciar", "1373": "scun", "1374": "spar", "1375": "scev", "1376": "sban", "1377": "frui", "1378": "bion", "1379": "cl\u00e8s", "1380": "brol", "1381": "grie", "1382": "quie", "1383": "tier", "1384": "quan", "1385": "spit", "1386": "tret", "1387": "vuoi", "1388": "stan", "1389": "ciac", "1390": "gean", "1391": "pier", "1392": "gnes", "1393": "spic", "1394": "plor", "1395": "viem", "1396": "stor", "1397": "scam", "1398": "drir", "1399": "sdru", "1400": "fron", "1401": "piez", "1402": "treb", "1403": "sfio", "1404": "scon", "1405": "sfor", "1406": "guiz", "1407": "prai", "1408": "quer", "1409": "cian", "1410": "frut", "1411": "plau", "1412": "guag", "1413": "scan", "1414": "rean", "1415": "biac", "1416": "sneb", "1417": "biet", "1418": "quae", "1419": "ghin", "1420": "pren", "1421": "squa", "1422": "trop", "1423": "piar", "1424": "spuo", "1425": "trui", "1426": "scis", "1427": "nien", "1428": "frir", "1429": "st\u00f2r", "1430": "gres", "1431": "flig", "1432": "rien", "1433": "fioc", "1434": "dran", "1435": "nian", "1436": "sbri", "1437": "lian", "1438": "ver\u2019", "1439": "ghia", "1440": "puoi", "1441": "pran", "1442": "tran", "1443": "trio", "1444": "gual", "1445": "bia\u2019", "1446": "pruo", "1447": "gnie", "1448": "sfac", "1449": "ziar", "1450": "ciel", "1451": "stet", "1452": "scal", "1453": "sdet", "1454": "gnun", "1455": "squi", "1456": "sunt", "1457": "slac", "1458": "guef", "1459": "cion", "1460": "bria", "1461": "chio", "1462": "ghie", "1463": "cheg", "1464": "drea", "1465": "sven", "1466": "guai", "1467": "tiem", "1468": "trag", "1469": "gnia", "1470": "scie", "1471": "clau", "1472": "vaio", "1473": "pion", "1474": "lier", "1475": "scot", "1476": "scea", "1477": "stia", "1478": "saia", "1479": "lien", "1480": "ster", "1481": "scre", "1482": "ci\u00f2l", "1483": "glio", "1484": "runt", "1485": "siam", "1486": "snel", "1487": "chis", "1488": "bris", "1489": "dean", "1490": "ghes", "1491": "scac", "1492": "giun", "1493": "vean", "1494": "gial", "1495": "gnuo", "1496": "gi\u00f9e", "1497": "suon", "1498": "chie", "1499": "sfan", "1500": "grin", "1501": "tien", "1502": "spun", "1503": "smar", "1504": "fian", "1505": "sciu", "1506": "blio", "1507": "suol", "1508": "ciot", "1509": "truo", "1510": "prun", "1511": "gian", "1512": "die\u2019", "1513": "gnor", "1514": "greg", "1515": "dria", "1516": "grop", "1517": "stre", "1518": "scab", "1519": "driz", "1520": "cruc", "1521": "tean", "1522": "spie", "1523": "brie", "1524": "glau", "1525": "suoi", "1526": "stie", "1527": "smen", "1528": "zian", "1529": "gnaz", "1530": "glia", "1531": "ciul", "1532": "cric", "1533": "span", "1534": "dier", "1535": "egyp", "1536": "pris", "1537": "pian", "1538": "gier", "1539": "chia", "1540": "stec", "1541": "maia", "1542": "pron", "1543": "quen", "1544": "pia\u2019", "1545": "flet", "1546": "sien", "1547": "sden", "1548": "ghio", "1549": "gioi", "1550": "spec", "1551": "luia", "1552": "spro", "1553": "star", "1554": "fiam", "1555": "grot", "1556": "gion", "1557": "gnar", "1558": "str\u2019", "1559": "stui", "1560": "guan", "1561": "sman", "1562": "chez", "1563": "cioc", "1564": "gaio", "1565": "stol", "1566": "guen", "1567": "spaz", "1568": "spal", "1569": "gien", "1570": "gli\u00f2", "1571": "fiac", "1572": "naio", "1573": "ched", "1574": "pluo", "1575": "stas", "1576": "stem", "1577": "chin", "1578": "drai", "1579": "guic", "1580": "scem", "1581": "laia", "1582": "sie\u2019", "1583": "vier", "1584": "dhae", "1585": "guon", "1586": "spen", "1587": "bran", "1588": "quod", "1589": "sfer", "1590": "scro", "1591": "sti\u00f2", "1592": "ghel", "1593": "sgri", "1594": "piov", "1595": "prie", "1596": "br\u00f2t", "1597": "drap", "1598": "scir", "1599": "guir", "1600": "sgan", "1601": "fred", "1602": "guer", "1603": "qual", "1604": "rian", "1605": "sgor", "1606": "nean", "1607": "tree", "1608": "stul", "1609": "tuon", "1610": "vian", "1611": "prei", "1612": "troc", "1613": "grem", "1614": "prec", "1615": "giar", "1616": "buoi", "1617": "bree", "1618": "dron", "1619": "cheo", "1620": "giai", "1621": "prio", "1622": "quat", "1623": "puom", "1624": "ghir", "1625": "smon", "1626": "smoz", "1627": "ciuf", "1628": "nail", "1629": "scor", "1630": "frat", "1631": "piac", "1632": "guet", "1633": "svel", "1634": "scom", "1635": "pri\u2019", "1636": "pi\u00f9e", "1637": "bren", "1638": "grez", "1639": "stop", "1640": "gheg", "1641": "spon", "1642": "fior", "1643": "quin", "1644": "dien", "1645": "drit", "1646": "clas", "1647": "cras", "1648": "sanc", "1649": "giam", "1650": "diam", "1651": "spor", "1652": "stil", "1653": "guel", "1654": "guil", "1655": "scos", "1656": "scia", "1657": "spol", "1658": "quis", "1659": "tren", "1660": "chi\u00f2", "1661": "\u2018qui", "1662": "bent", "1663": "glet", "1664": "scaz", "1665": "str\u00f2", "1666": "vien", "1667": "muor", "1668": "chiu", "1669": "stuo", "1670": "spre", "1671": "pria", "1672": "cuor", "1673": "sfre", "1674": "sier", "1675": "sfat", "1676": "dra\u2019", "1677": "scim", "1678": "stei", "1679": "giuo", "1680": "com\u2019", "1681": "fran", "1682": "bias", "1683": "svia", "1684": "drel", "1685": "tror", "1686": "trea", "1687": "sfar", "1688": "breo", "1689": "bron", "1690": "stes", "1691": "tras", "1692": "dies", "1693": "caio", "1694": "riai", "1695": "sfam", "1696": "fren", "1697": "sche", "1698": "quel", "1699": "pres", "1700": "ciol", "1701": "str\u00e0", "1702": "dian", "1703": "ph\u00e8l", "1704": "stis", "1705": "gnel", "1706": "cia\u2019", "1707": "trie", "1708": "ciap", "1709": "ghet", "1710": "bian", "1711": "muoi", "1712": "piag", "1713": "gher", "1714": "brio", "1715": "cean", "1716": "miei", "1717": "pros", "1718": "guar", "1719": "sber", "1720": "guia", "1721": "prin", "1722": "dram", "1723": "gior", "1724": "plan", "1725": "cias", "1726": "prez", "1727": "stuc", "1728": "clis", "1729": "spra", "1730": "clug", "1731": "glie", "1732": "fier", "1733": "buon", "1734": "proc", "1735": "trei", "1736": "stiz", "1737": "brei", "1738": "quil", "1739": "tr\u00e0s", "1740": "tris", "1741": "tria", "1742": "stal", "1743": "cral", "1744": "piat", "1745": "dail", "1746": "trap", "1747": "trat", "1748": "guit", "1749": "slao", "1750": "spin", "1751": "quei", "1752": "grom", "1753": "creb", "1754": "gros", "1755": "sgra", "1756": "crea", "1757": "gner", "1758": "spez", "1759": "stra", "1760": "giot", "1761": "sfin", "1762": "gras", "1763": "gnem", "1764": "crin", "1765": "crol", "1766": "pi\u00e9r", "1767": "smor", "1768": "guis", "1769": "grap", "1770": "stav", "1771": "quam", "1772": "maio", "1773": "sgom", "1774": "stro", "1775": "sian", "1776": "tram", "1777": "grat", "1778": "scov", "1779": "scen", "1780": "scet", "1781": "scic", "1782": "sbra", "1783": "vuo\u2019", "1784": "sbar", "1785": "ciai", "1786": "blan", "1787": "brar", "1788": "trec", "1789": "niam", "1790": "cria", "1791": "giac", "1792": "stai", "1793": "brul", "1794": "ghil", "1795": "gran", "1796": "mian", "1797": "fuor", "1798": "stio", "1799": "vuol", "1800": "scop", "1801": "scher", "1802": "schic", "1803": "scion", "1804": "temps", "1805": "scias", "1806": "chiet", "1807": "ghiac", "1808": "strac", "1809": "glion", "1810": "chian", "1811": "scrit", "1812": "scioc", "1813": "gliet", "1814": "schio", "1815": "sgrie", "1816": "schet", "1817": "glier", "1818": "sciam", "1819": "stion", "1820": "ghiai", "1821": "gliar", "1822": "strug", "1823": "scuoi", "1824": "stroz", "1825": "ghien", "1826": "scran", "1827": "vrien", "1828": "spran", "1829": "schia", "1830": "glien", "1831": "scris", "1832": "sci\u00e0n", "1833": "voill", "1834": "strut", "1835": "chier", "1836": "gliai", "1837": "ghian", "1838": "spraz", "1839": "gliea", "1840": "chias", "1841": "staio", "1842": "sciai", "1843": "chiap", "1844": "strin", "1845": "glies", "1846": "puesc", "1847": "sfran", "1848": "gliam", "1849": "gluol", "1850": "streg", "1851": "spiac", "1852": "sgher", "1853": "svuol", "1854": "strai", "1855": "glior", "1856": "stras", "1857": "chiar", "1858": "schem", "1859": "spres", "1860": "stiam", "1861": "sciom", "1862": "strel", "1863": "sciol", "1864": "scheg", "1865": "chion", "1866": "ghiot", "1867": "chioc", "1868": "squil", "1869": "glian", "1870": "splen", "1871": "sciut", "1872": "stren", "1873": "strar", "1874": "scian", "1875": "stial", "1876": "sgiun", "1877": "praia", "1878": "schie", "1879": "scrip", "1880": "stral", "1881": "chiai", "1882": "stier", "1883": "stret", "1884": "squar", "1885": "strom", "1886": "strat", "1887": "stric", "1888": "gliel", "1889": "ghiar", "1890": "gliuo", "1891": "stian", "1892": "gnaio", "1893": "stram", "1894": "sguar", "1895": "stran", "1896": "schiu", "1897": "sciar", "1898": "sciau", "1899": "scial", "1900": "stroc", "1901": "gliuoi", "1902": "gliuol", "1903": "schiet", "1904": "strans", "1905": "schiar", "1906": "gliaio", "1907": "schian", "1908": "schiat", "1909": "ghiaio"}