{"0": "", "1": "<v>", "2": "</v>", "3": "<t>", "4": "</t>", "5": "o", "6": "e", "7": "\u00f2", "8": "s", "9": "\u00e8", "10": "\u00e9", "11": "u", "12": "\u00fc", "13": "i", "14": "a", "15": "\u00ef", "16": "ca", "17": "za", "18": "se", "19": "vu", "20": "ha", "21": "m\u00eb", "22": "pi", "23": "p\u00ec", "24": "gi", "25": "tu", "26": "el", "27": "s\u00ef", "28": "n\u00eb", "29": "vo", "30": "id", "31": "oc", "32": "ci", "33": "s\u00f9", "34": "t\u00eb", "35": "li", "36": "to", "37": "c\u00fc", "38": "av", "39": "s\u00f2", "40": "iu", "41": "ge", "42": "ab", "43": "am", "44": "vi", "45": "im", "46": "ro", "47": "s\u00e9", "48": "co", "49": "c\u00ec", "50": "mi", "51": "p\u00eb", "52": "ec", "53": "l\u00e0", "54": "p\u00fc", "55": "na", "56": "m\u00ef", "57": "pu", "58": "ul", "59": "ob", "60": "z\u00ef", "61": "of", "62": "az", "63": "le", "64": "r\u00eb", "65": "or", "66": "as", "67": "\u00e8n", "68": "v\u00eb", "69": "ma", "70": "mu", "71": "c\u00f9", "72": "an", "73": "gu", "74": "cu", "75": "eu", "76": "fu", "77": "ti", "78": "es", "79": "em", "80": "ac", "81": "ad", "82": "l\u00ef", "83": "nu", "84": "r\u00f3", "85": "om", "86": "ol", "87": "n\u00e8", "88": "l\u00ec", "89": "d\u00e9", "90": "ze", "91": "di", "92": "l\u00eb", "93": "du", "94": "ni", "95": "ie", "96": "uo", "97": "ta", "98": "ce", "99": "m\u00e4", "100": "so", "101": "os", "102": "l\u00fc", "103": "pa", "104": "da", "105": "m\u00ec", "106": "in", "107": "r\u00e8", "108": "d\u00e8", "109": "s\u00fc", "110": "r\u00e0", "111": "t\u00f2", "112": "g\u00e8", "113": "un", "114": "al", "115": "ru", "116": "ef", "117": "ne", "118": "d\u00fc", "119": "t\u00ef", "120": "ve", "121": "ov", "122": "d\u00ef", "123": "zo", "124": "m\u00e8", "125": "b\u00ef", "126": "g\u00eb", "127": "l\u00f2", "128": "is", "129": "f\u00f3", "130": "ga", "131": "f\u00eb", "132": "sa", "133": "me", "134": "t\u00fc", "135": "et", "136": "bo", "137": "at", "138": "er", "139": "n\u00fc", "140": "ur", "141": "pe", "142": "fa", "143": "l\u00f6", "144": "lu", "145": "po", "146": "re", "147": "n\u00ef", "148": "t\u00e4", "149": "ot", "150": "n\u00f2", "151": "lo", "152": "te", "153": "c\u00ef", "154": "si", "155": "p\u00e8", "156": "de", "157": "d\u00eb", "158": "go", "159": "ag", "160": "s\u00e0", "161": "f\u00ef", "162": "op", "163": "il", "164": "bu", "165": "no", "166": "au", "167": "va", "168": "l\u00e8", "169": "ae", "170": "v\u00e8", "171": "\u00f2s", "172": "f\u00e9", "173": "su", "174": "og", "175": "on", "176": "t\u00e8", "177": "c\u00eb", "178": "ri", "179": "zi", "180": "en", "181": "t\u00ec", "182": "la", "183": "p\u00ef", "184": "io", "185": "ra", "186": "r\u00ef", "187": "ia", "188": "fi", "189": "af", "190": "fe", "191": "b\u00eb", "192": "be", "193": "ba", "194": "ar", "195": "ap", "196": "\u00e8v", "197": "v\u00f2", "198": "eb", "199": "mo", "200": "bi", "201": "uc", "202": "qu", "203": "v\u00ef", "204": "fo", "205": "s\u00eb", "206": "g\u00f3", "207": "do", "208": "g\u00ef", "209": "gor", "210": "ron", "211": "cic", "212": "fom", "213": "tol", "214": "bil", "215": "sis", "216": "nir", "217": "dic", "218": "vil", "219": "nol", "220": "ris", "221": "a u", "222": "tas", "223": "rut", "224": "sle", "225": "zuf", "226": "fur", "227": "piu", "228": "bie", "229": "sfo", "230": "pun", "231": "rit", "232": "lil", "233": "viz", "234": "pos", "235": "cez", "236": "nie", "237": "roc", "238": "leg", "239": "dam", "240": "sca", "241": "mil", "242": "vul", "243": "sit", "244": "tle", "245": "giu", "246": "neg", "247": "spo", "248": "fog", "249": "dat", "250": "dol", "251": "dra", "252": "cea", "253": "mam", "254": "pre", "255": "rir", "256": "gio", "257": "don", "258": "sov", "259": "lem", "260": "sio", "261": "cot", "262": "mas", "263": "die", "264": "gab", "265": "gim", "266": "mia", "267": "giz", "268": "col", "269": "red", "270": "coc", "271": "rac", "272": "dar", "273": "sos", "274": "duo", "275": "pel", "276": "nac", "277": "suc", "278": "dub", "279": "nim", "280": "cuo", "281": "til", "282": "fla", "283": "sar", "284": "gie", "285": "mer", "286": "tra", "287": "gil", "288": "rar", "289": "mug", "290": "gna", "291": "gad", "292": "zar", "293": "tor", "294": "xil", "295": "cro", "296": "p\u00e0r", "297": "smu", "298": "pes", "299": "lea", "300": "tir", "301": "tan", "302": "pir", "303": "fet", "304": "ial", "305": "ple", "306": "dov", "307": "lav", "308": "sel", "309": "que", "310": "ren", "311": "sp\u00ef", "312": "sas", "313": "gal", "314": "bec", "315": "bon", "316": "ven", "317": "vol", "318": "c\u00f3l", "319": "quo", "320": "v\u00f2l", "321": "pul", "322": "dea", "323": "luc", "324": "zio", "325": "nor", "326": "goz", "327": "o e", "328": "fen", "329": "cie", "330": "cla", "331": "lir", "332": "hon", "333": "pac", "334": "gol", "335": "lon", "336": "tec", "337": "tic", "338": "qui", "339": "ruo", "340": "rio", "341": "sv\u00ef", "342": "sab", "343": "gre", "344": "tie", "345": "nag", "346": "ger", "347": "pl\u00ec", "348": "ben", "349": "ner", "350": "smi", "351": "dim", "352": "var", "353": "\u2018la", "354": "mie", "355": "gel", "356": "dr\u00ef", "357": "sen", "358": "ciu", "359": "sci", "360": "fri", "361": "lus", "362": "bar", "363": "tal", "364": "sve", "365": "bis", "366": "rug", "367": "vuo", "368": "ier", "369": "sco", "370": "guo", "371": "sum", "372": "pap", "373": "sc\u00ef", "374": "rag", "375": "gis", "376": "pat", "377": "br\u00ef", "378": "fiu", "379": "pau", "380": "nev", "381": "sti", "382": "fig", "383": "dre", "384": "raf", "385": "ban", "386": "mon", "387": "bia", "388": "fun", "389": "ver", "390": "pur", "391": "luo", "392": "fat", "393": "lac", "394": "pin", "395": "sun", "396": "rav", "397": "rol", "398": "sie", "399": "iat", "400": "mes", "401": "scu", "402": "sam", "403": "pi\u00e9", "404": "seg", "405": "lep", "406": "sce", "407": "nef", "408": "san", "409": "rob", "410": "bet", "411": "lau", "412": "cep", "413": "zia", "414": "nen", "415": "pub", "416": "muc", "417": "pan", "418": "non", "419": "val", "420": "ler", "421": "pru", "422": "set", "423": "fru", "424": "buo", "425": "poc", "426": "spe", "427": "clo", "428": "cet", "429": "lic", "430": "veg", "431": "dal", "432": "nob", "433": "t\u00f2r", "434": "m\u00e9z", "435": "nom", "436": "get", "437": "cl\u00ef", "438": "fra", "439": "vet", "440": "gur", "441": "nil", "442": "mot", "443": "dor", "444": "nez", "445": "sga", "446": "pom", "447": "gaz", "448": "ras", "449": "pol", "450": "tem", "451": "pie", "452": "bl\u00ef", "453": "saf", "454": "nun", "455": "tag", "456": "mul", "457": "vam", "458": "puz", "459": "cen", "460": "lin", "461": "fan", "462": "sac", "463": "vor", "464": "nul", "465": "deg", "466": "cau", "467": "gir", "468": "pon", "469": "bru", "470": "fum", "471": "fio", "472": "nuc", "473": "rup", "474": "spi", "475": "ria", "476": "nur", "477": "plu", "478": "tat", "479": "met", "480": "ret", "481": "sia", "482": "rea", "483": "cem", "484": "ber", "485": "ian", "486": "cli", "487": "zac", "488": "biz", "489": "raz", "490": "tis", "491": "pri", "492": "dau", "493": "bol", "494": "pal", "495": "zan", "496": "tri", "497": "nes", "498": "gui", "499": "qua", "500": "qu\u00ef", "501": "teg", "502": "fol", "503": "noc", "504": "dit", "505": "feb", "506": "pet", "507": "rog", "508": "ral", "509": "cos", "510": "cob", "511": "tun", "512": "f\u00e9l", "513": "fib", "514": "cr\u00e0", "515": "rat", "516": "bun", "517": "pli", "518": "mir", "519": "gne", "520": "van", "521": "com", "522": "cri", "523": "bab", "524": "pot", "525": "sod", "526": "pec", "527": "goc", "528": "rin", "529": "let", "530": "min", "531": "bio", "532": "tac", "533": "bor", "534": "luz", "535": "tom", "536": "pro", "537": "lia", "538": "dis", "539": "cul", "540": "ces", "541": "vom", "542": "spu", "543": "gob", "544": "dr\u00e4", "545": "paz", "546": "von", "547": "got", "548": "plo", "549": "tur", "550": "soz", "551": "cra", "552": "muf", "553": "pit", "554": "fit", "555": "per", "556": "cer", "557": "den", "558": "fes", "559": "sal", "560": "sez", "561": "zaf", "562": "mar", "563": "ric", "564": "dul", "565": "bur", "566": "mez", "567": "neb", "568": "nas", "569": "pas", "570": "tin", "571": "bli", "572": "lut", "573": "svi", "574": "das", "575": "sot", "576": "fug", "577": "o u", "578": "loc", "579": "nar", "580": "reg", "581": "sde", "582": "sem", "583": "sic", "584": "ruf", "585": "gnu", "586": "sor", "587": "sla", "588": "del", "589": "bom", "590": "put", "591": "lai", "592": "zuc", "593": "gem", "594": "dru", "595": "nuo", "596": "nis", "597": "gan", "598": "tam", "599": "boc", "600": "gar", "601": "tim", "602": "zon", "603": "fis", "604": "gag", "605": "mic", "606": "maz", "607": "sma", "608": "sep", "609": "tau", "610": "geo", "611": "fle", "612": "lis", "613": "lel", "614": "cir", "615": "ran", "616": "cov", "617": "han", "618": "gno", "619": "rez", "620": "far", "621": "gat", "622": "gru", "623": "leb", "624": "sfa", "625": "moz", "626": "o a", "627": "cle", "628": "ghi", "629": "bri", "630": "dan", "631": "lim", "632": "ram", "633": "tuo", "634": "tre", "635": "peg", "636": "mos", "637": "tez", "638": "dob", "639": "rel", "640": "net", "641": "las", "642": "but", "643": "suo", "644": "mat", "645": "sat", "646": "len", "647": "tho", "648": "ful", "649": "chi", "650": "lom", "651": "bra", "652": "nat", "653": "nem", "654": "ruc", "655": "tet", "656": "cin", "657": "tuf", "658": "dir", "659": "guc", "660": "cun", "661": "gon", "662": "poz", "663": "pio", "664": "dez", "665": "lop", "666": "sfe", "667": "dio", "668": "cel", "669": "tel", "670": "piz", "671": "lab", "672": "che", "673": "sur", "674": "vas", "675": "cru", "676": "fal", "677": "toc", "678": "ses", "679": "for", "680": "zel", "681": "sof", "682": "vez", "683": "fos", "684": "flu", "685": "zur", "686": "dur", "687": "fia", "688": "doc", "689": "vat", "690": "vid", "691": "cia", "692": "sug", "693": "gea", "694": "gau", "695": "feg", "696": "sme", "697": "son", "698": "coz", "699": "ter", "700": "sus", "701": "nig", "702": "sud", "703": "tea", "704": "ste", "705": "fuo", "706": "nec", "707": "gam", "708": "gib", "709": "vis", "710": "lot", "711": "caf", "712": "vec", "713": "buc", "714": "f\u00e0c", "715": "bat", "716": "tut", "717": "pig", "718": "dug", "719": "c\u00e9r", "720": "pop", "721": "sog", "722": "svo", "723": "des", "724": "bre", "725": "cad", "726": "fam", "727": "suf", "728": "bot", "729": "bin", "730": "mol", "731": "gue", "732": "rig", "733": "bas", "734": "tr\u00ef", "735": "fas", "736": "r\u00e8g", "737": "bea", "738": "lap", "739": "sag", "740": "ch\u00ec", "741": "stu", "742": "sra", "743": "gas", "744": "bev", "745": "cuc", "746": "vin", "747": "rot", "748": "pis", "749": "dus", "750": "det", "751": "man", "752": "t\u00f2m", "753": "dri", "754": "roz", "755": "cag", "756": "niz", "757": "not", "758": "rie", "759": "bel", "760": "tru", "761": "pra", "762": "lip", "763": "dem", "764": "sgo", "765": "smo", "766": "sol", "767": "a a", "768": "fro", "769": "pog", "770": "sup", "771": "din", "772": "dil", "773": "gia", "774": "spa", "775": "st\u00ef", "776": "lat", "777": "cam", "778": "rec", "779": "reb", "780": "lun", "781": "boz", "782": "sil", "783": "muo", "784": "deb", "785": "fuc", "786": "sto", "787": "sbi", "788": "mem", "789": "guz", "790": "rom", "791": "fre", "792": "ves", "793": "meg", "794": "rof", "795": "rid", "796": "rim", "797": "gni", "798": "gua", "799": "pla", "800": "mac", "801": "lor", "802": "mag", "803": "gen", "804": "lan", "805": "ghe", "806": "iar", "807": "git", "808": "vag", "809": "rab", "810": "pic", "811": "ton", "812": "cit", "813": "sba", "814": "mor", "815": "mal", "816": "cop", "817": "fac", "818": "dot", "819": "fin", "820": "por", "821": "cef", "822": "sna", "823": "mun", "824": "nal", "825": "dut", "826": "pia", "827": "tro", "828": "ch\u00ef", "829": "puo", "830": "run", "831": "pil", "832": "vir", "833": "nin", "834": "lup", "835": "laz", "836": "tes", "837": "tar", "838": "sno", "839": "mel", "840": "vac", "841": "sec", "842": "rem", "843": "dop", "844": "fel", "845": "som", "846": "riz", "847": "car", "848": "puc", "849": "cio", "850": "sop", "851": "fie", "852": "lar", "853": "p\u00f2s", "854": "ten", "855": "sap", "856": "lur", "857": "soc", "858": "cac", "859": "lul", "860": "lez", "861": "nia", "862": "lec", "863": "cre", "864": "fon", "865": "top", "866": "tuc", "867": "der", "868": "dos", "869": "cum", "870": "clu", "871": "nan", "872": "gli", "873": "gom", "874": "nic", "875": "buf", "876": "bac", "877": "vie", "878": "men", "879": "vit", "880": "par", "881": "cur", "882": "sta", "883": "bul", "884": "diz", "885": "gri", "886": "vel", "887": "glo", "888": "fic", "889": "ser", "890": "rap", "891": "cap", "892": "lit", "893": "cal", "894": "dec", "895": "vem", "896": "cui", "897": "bro", "898": "bal", "899": "sin", "900": "dia", "901": "cor", "902": "les", "903": "fem", "904": "mai", "905": "fab", "906": "dun", "907": "bef", "908": "gra", "909": "dom", "910": "lie", "911": "fer", "912": "ior", "913": "can", "914": "pen", "915": "ges", "916": "cis", "917": "cat", "918": "mur", "919": "noz", "920": "nel", "921": "dif", "922": "lam", "923": "sob", "924": "sub", "925": "ros", "926": "res", "927": "con", "928": "dro", "929": "cas", "930": "chil", "931": "gien", "932": "pran", "933": "flit", "934": "t\u2019 e", "935": "sfre", "936": "ve a", "937": "o ar", "938": "frut", "939": "clas", "940": "pren", "941": "vo o", "942": "ni a", "943": "grom", "944": "dras", "945": "ci a", "946": "stra", "947": "s\u00ec a", "948": "ci e", "949": "sneb", "950": "smal", "951": "puom", "952": "ster", "953": "glio", "954": "do a", "955": "ro o", "956": "t\u2019 o", "957": "te a", "958": "dran", "959": "giun", "960": "trec", "961": "glet", "962": "tron", "963": "e in", "964": "guet", "965": "stul", "966": "gnen", "967": "de e", "968": "sfer", "969": "piag", "970": "stem", "971": "prez", "972": "bo a", "973": "trap", "974": "fioc", "975": "sfan", "976": "piat", "977": "no a", "978": "scal", "979": "drit", "980": "ge o", "981": "la i", "982": "na i", "983": "o al", "984": "fron", "985": "do o", "986": "ciom", "987": "ne o", "988": "da o", "989": "d\u2019 \u00eb", "990": "quil", "991": "re a", "992": "be i", "993": "ples", "994": "s\u00ec i", "995": "stri", "996": "ti u", "997": "spuo", "998": "graf", "999": "gner", "1000": "le a", "1001": "ghil", "1002": "scet", "1003": "quar", "1004": "ga o", "1005": "gron", "1006": "spun", "1007": "guic", "1008": "ni u", "1009": "quis", "1010": "scia", "1011": "spin", "1012": "bo e", "1013": "ti o", "1014": "scir", "1015": "slac", "1016": "fiac", "1017": "po e", "1018": "li o", "1019": "scar", "1020": "mi u", "1021": "so u", "1022": "bran", "1023": "stin", "1024": "va e", "1025": "pruo", "1026": "gnas", "1027": "scol", "1028": "trop", "1029": "ghia", "1030": "\u00e8 im", "1031": "sber", "1032": "di e", "1033": "smor", "1034": "so i", "1035": "so e", "1036": "gi e", "1037": "scuf", "1038": "da e", "1039": "piac", "1040": "cher", "1041": "gnon", "1042": "so a", "1043": "troc", "1044": "gnuo", "1045": "do u", "1046": "pien", "1047": "spie", "1048": "mo o", "1049": "guer", "1050": "guaz", "1051": "tram", "1052": "biac", "1053": "ghes", "1054": "li \u2019", "1055": "ro u", "1056": "ne a", "1057": "sbra", "1058": "scor", "1059": "vi o", "1060": "ra u", "1061": "tret", "1062": "to u", "1063": "quen", "1064": "se o", "1065": "squi", "1066": "da a", "1067": "giac", "1068": "gnaz", "1069": "scon", "1070": "tras", "1071": "re e", "1072": "la a", "1073": "ta o", "1074": "brez", "1075": "da u", "1076": "str\u00e0", "1077": "ro a", "1078": "stor", "1079": "spel", "1080": "zi o", "1081": "dien", "1082": "di o", "1083": "stre", "1084": "co a", "1085": "sbri", "1086": "s\u2019 o", "1087": "prie", "1088": "li u", "1089": "mi o", "1090": "ge a", "1091": "n\u2019 a", "1092": "gras", "1093": "mo a", "1094": "bion", "1095": "ma e", "1096": "brie", "1097": "zo a", "1098": "be a", "1099": "spia", "1100": "scos", "1101": "scie", "1102": "m\u2019 o", "1103": "scac", "1104": "trag", "1105": "l\u2019 i", "1106": "me e", "1107": "chie", "1108": "spen", "1109": "se i", "1110": "ma u", "1111": "li e", "1112": "g\u2019 \u00ef", "1113": "liev", "1114": "gros", "1115": "l\u2019 e", "1116": "de a", "1117": "cruc", "1118": "spec", "1119": "co u", "1120": "z\u2019 i", "1121": "scam", "1122": "ra i", "1123": "star", "1124": "la o", "1125": "z\u2019 a", "1126": "ghie", "1127": "se u", "1128": "si i", "1129": "te i", "1130": "spir", "1131": "trat", "1132": "sgan", "1133": "buon", "1134": "v\u2019 e", "1135": "r\u2019 u", "1136": "gheg", "1137": "no u", "1138": "scel", "1139": "ca u", "1140": "blan", "1141": "sden", "1142": "spal", "1143": "bo i", "1144": "mi e", "1145": "sfat", "1146": "ma o", "1147": "chis", "1148": "stil", "1149": "tier", "1150": "pa e", "1151": "quan", "1152": "na o", "1153": "pron", "1154": "guef", "1155": "lo u", "1156": "gnar", "1157": "so o", "1158": "piov", "1159": "spor", "1160": "bias", "1161": "sbar", "1162": "ve i", "1163": "sven", "1164": "va u", "1165": "a al", "1166": "flig", "1167": "l\u2019 o", "1168": "ti i", "1169": "fred", "1170": "scis", "1171": "guag", "1172": "driz", "1173": "cheg", "1174": "vi e", "1175": "de i", "1176": "ri e", "1177": "sver", "1178": "ciuf", "1179": "za o", "1180": "ghel", "1181": "pi i", "1182": "stru", "1183": "vien", "1184": "brac", "1185": "\u00e8 in", "1186": "prir", "1187": "crea", "1188": "sper", "1189": "pi e", "1190": "spes", "1191": "v\u2019 o", "1192": "quer", "1193": "bian", "1194": "la u", "1195": "go e", "1196": "guiz", "1197": "ta i", "1198": "ci o", "1199": "c\u2019 \u00ef", "1200": "scre", "1201": "te o", "1202": "puol", "1203": "cias", "1204": "guil", "1205": "a in", "1206": "nian", "1207": "snel", "1208": "s\u2019 u", "1209": "fiot", "1210": "d\u2019 o", "1211": "pe i", "1212": "spol", "1213": "se e", "1214": "broc", "1215": "giar", "1216": "sgri", "1217": "le i", "1218": "fret", "1219": "do i", "1220": "le o", "1221": "dram", "1222": "si a", "1223": "le u", "1224": "ga e", "1225": "scer", "1226": "frat", "1227": "s\u2019 e", "1228": "viem", "1229": "s\u2019 i", "1230": "po o", "1231": "ghez", "1232": "stav", "1233": "ciap", "1234": "brug", "1235": "stig", "1236": "be u", "1237": "smoz", "1238": "be o", "1239": "n\u2019 o", "1240": "scen", "1241": "r\u00ec u", "1242": "scan", "1243": "me a", "1244": "sfor", "1245": "piez", "1246": "no i", "1247": "cien", "1248": "plan", "1249": "svel", "1250": "sa u", "1251": "fran", "1252": "piom", "1253": "stuc", "1254": "fles", "1255": "tror", "1256": "do e", "1257": "stis", "1258": "ne e", "1259": "pris", "1260": "pres", "1261": "brut", "1262": "li a", "1263": "cian", "1264": "m\u2019 i", "1265": "si e", "1266": "l\u2019 \u00f2", "1267": "ciar", "1268": "sgra", "1269": "mian", "1270": "l\u00ec e", "1271": "sgom", "1272": "no o", "1273": "z\u2019 o", "1274": "ca o", "1275": "ve u", "1276": "va i", "1277": "treb", "1278": "ce u", "1279": "chio", "1280": "cras", "1281": "gial", "1282": "stie", "1283": "to o", "1284": "r\u2019 o", "1285": "sche", "1286": "re i", "1287": "spet", "1288": "sciu", "1289": "lo o", "1290": "me o", "1291": "sfin", "1292": "stet", "1293": "stel", "1294": "gior", "1295": "to e", "1296": "ce a", "1297": "trot", "1298": "quin", "1299": "l\u2019 u", "1300": "cioc", "1301": "plau", "1302": "ciac", "1303": "ra a", "1304": "bren", "1305": "brot", "1306": "gher", "1307": "n\u2019 e", "1308": "n\u2019 u", "1309": "giam", "1310": "scom", "1311": "co o", "1312": "zi e", "1313": "stio", "1314": "to i", "1315": "trac", "1316": "scro", "1317": "scov", "1318": "te e", "1319": "pian", "1320": "ti a", "1321": "ziar", "1322": "guar", "1323": "scem", "1324": "o av", "1325": "re o", "1326": "spic", "1327": "guit", "1328": "stal", "1329": "span", "1330": "trul", "1331": "scab", "1332": "ciul", "1333": "spit", "1334": "gnem", "1335": "crol", "1336": "grop", "1337": "d\u2019 e", "1338": "l\u2019 a", "1339": "na e", "1340": "d\u2019 a", "1341": "ro i", "1342": "trie", "1343": "scuo", "1344": "zian", "1345": "me i", "1346": "brol", "1347": "sgor", "1348": "pi a", "1349": "sa a", "1350": "m\u2019 e", "1351": "tien", "1352": "tren", "1353": "di u", "1354": "ri u", "1355": "smon", "1356": "mo i", "1357": "guan", "1358": "gram", "1359": "sfar", "1360": "za a", "1361": "clau", "1362": "p\u2019 e", "1363": "quel", "1364": "po u", "1365": "scin", "1366": "grot", "1367": "a ac", "1368": "squa", "1369": "po a", "1370": "guel", "1371": "stia", "1372": "sfio", "1373": "grie", "1374": "ze o", "1375": "glie", "1376": "glau", "1377": "mo e", "1378": "chiu", "1379": "ghir", "1380": "schi", "1381": "a es", "1382": "s\u2019 \u00ef", "1383": "se a", "1384": "sfam", "1385": "gnel", "1386": "spon", "1387": "go a", "1388": "re u", "1389": "gnan", "1390": "chia", "1391": "stan", "1392": "t\u2019 u", "1393": "scop", "1394": "glia", "1395": "spaz", "1396": "brul", "1397": "dier", "1398": "fiam", "1399": "c\u2019 o", "1400": "de o", "1401": "flet", "1402": "sman", "1403": "s\u2019 a", "1404": "scaz", "1405": "grep", "1406": "gnor", "1407": "sdet", "1408": "m\u2019 a", "1409": "ca a", "1410": "no e", "1411": "giuo", "1412": "a ef", "1413": "scim", "1414": "bris", "1415": "spar", "1416": "tiem", "1417": "giot", "1418": "de u", "1419": "na u", "1420": "lo a", "1421": "ta a", "1422": "ciot", "1423": "prin", "1424": "\u2018glo", "1425": "giug", "1426": "trar", "1427": "d\u2019 i", "1428": "si o", "1429": "sfac", "1430": "d\u2019 u", "1431": "te u", "1432": "puos", "1433": "ta u", "1434": "sban", "1435": "ni o", "1436": "za i", "1437": "a am", "1438": "d\u2019 \u00ef", "1439": "truo", "1440": "bi a", "1441": "v\u2019 a", "1442": "smen", "1443": "t\u2019 a", "1444": "ciuo", "1445": "to a", "1446": "dian", "1447": "sa o", "1448": "scri", "1449": "scoc", "1450": "mo u", "1451": "stro", "1452": "fian", "1453": "scio", "1454": "pric", "1455": "stec", "1456": "ci u", "1457": "co e", "1458": "grez", "1459": "la e", "1460": "chez", "1461": "chet", "1462": "ta e", "1463": "si u", "1464": "biet", "1465": "piog", "1466": "drap", "1467": "grem", "1468": "spez", "1469": "spre", "1470": "c\u2019 e", "1471": "gias", "1472": "ze e", "1473": "le e", "1474": "stiz", "1475": "sten", "1476": "ca e", "1477": "pros", "1478": "greg", "1479": "bron", "1480": "vuol", "1481": "gian", "1482": "scot", "1483": "e \u2019n", "1484": "stuo", "1485": "pe e", "1486": "guen", "1487": "di i", "1488": "ghet", "1489": "ie a", "1490": "gual", "1491": "ma a", "1492": "ra o", "1493": "grap", "1494": "va o", "1495": "lo e", "1496": "vi a", "1497": "me u", "1498": "ni e", "1499": "proc", "1500": "zo e", "1501": "na a", "1502": "fior", "1503": "zi u", "1504": "stas", "1505": "ciel", "1506": "ghio", "1507": "quat", "1508": "scic", "1509": "stol", "1510": "tran", "1511": "di a", "1512": "clis", "1513": "stes", "1514": "stop", "1515": "ce o", "1516": "qual", "1517": "spro", "1518": "ro e", "1519": "gres", "1520": "cion", "1521": "ra e", "1522": "guir", "1523": "ne u", "1524": "trom", "1525": "gi u", "1526": "ti e", "1527": "stam", "1528": "smar", "1529": "gran", "1530": "gnie", "1531": "grat", "1532": "creb", "1533": "re at", "1534": "do ap", "1535": "que o", "1536": "re ol", "1537": "pra a", "1538": "cio e", "1539": "do in", "1540": "ro im", "1541": "l\u2019 ae", "1542": "me as", "1543": "d\u2019 el", "1544": "la av", "1545": "fe et", "1546": "ci ap", "1547": "so an", "1548": "so in", "1549": "ch\u2019 \u00ef", "1550": "z\u2019 ar", "1551": "spran", "1552": "ce ar", "1553": "vi an", "1554": "re om", "1555": "ni in", "1556": "no ab", "1557": "li as", "1558": "sgiun", "1559": "tro o", "1560": "ta un", "1561": "di in", "1562": "no ad", "1563": "co an", "1564": "ti am", "1565": "ri ar", "1566": "lo eb", "1567": "c\u2019 en", "1568": "di of", "1569": "scias", "1570": "t\u2019 ap", "1571": "me am", "1572": "ta on", "1573": "re ad", "1574": "ra ec", "1575": "le av", "1576": "le \u2019n", "1577": "l\u2019 es", "1578": "ne \u2019m", "1579": "r\u2019 an", "1580": "ce et", "1581": "ma in", "1582": "sti a", "1583": "mo an", "1584": "ma ap", "1585": "ta at", "1586": "l\u2019 or", "1587": "vo at", "1588": "d\u2019 au", "1589": "n\u2019 at", "1590": "strel", "1591": "ne ag", "1592": "ze or", "1593": "l\u2019 en", "1594": "m\u2019 ap", "1595": "mi an", "1596": "d\u2019 or", "1597": "ci al", "1598": "si el", "1599": "to in", "1600": "l\u2019 ai", "1601": "do ar", "1602": "fa az", "1603": "la en", "1604": "t\u2019 at", "1605": "no et", "1606": "la es", "1607": "gia e", "1608": "to ac", "1609": "do am", "1610": "stroz", "1611": "z\u2019 es", "1612": "ce ac", "1613": "no om", "1614": "vi al", "1615": "ro au", "1616": "ta al", "1617": "mo eb", "1618": "ro av", "1619": "ste i", "1620": "m\u2019 as", "1621": "na on", "1622": "lo av", "1623": "tro i", "1624": "qu\u2019 o", "1625": "ri ac", "1626": "n\u2019 ac", "1627": "de ar", "1628": "tra u", "1629": "li al", "1630": "l\u2019 on", "1631": "so al", "1632": "si \u2019m", "1633": "me ef", "1634": "ra es", "1635": "ne an", "1636": "zo as", "1637": "d\u2019 og", "1638": "t\u2019 ab", "1639": "ce as", "1640": "ne ap", "1641": "za an", "1642": "de al", "1643": "d\u2019 om", "1644": "va al", "1645": "ci at", "1646": "pa es", "1647": "ni am", "1648": "le al", "1649": "fu im", "1650": "t\u2019 om", "1651": "d\u2019 al", "1652": "streg", "1653": "ti as", "1654": "so eb", "1655": "mio a", "1656": "lo on", "1657": "ri al", "1658": "tra i", "1659": "t\u2019 em", "1660": "so ab", "1661": "la el", "1662": "se af", "1663": "ta as", "1664": "le es", "1665": "l\u2019 am", "1666": "ta an", "1667": "li ar", "1668": "di an", "1669": "de on", "1670": "ch\u2019 o", "1671": "s\u2019 im", "1672": "ni en", "1673": "mi ad", "1674": "schie", "1675": "glien", "1676": "te of", "1677": "schet", "1678": "te ac", "1679": "li in", "1680": "do af", "1681": "ra in", "1682": "mo ar", "1683": "s\u2019 er", "1684": "n\u2019 an", "1685": "li ul", "1686": "be ar", "1687": "ro al", "1688": "va id", "1689": "pre a", "1690": "d\u2019 oc", "1691": "gne a", "1692": "me an", "1693": "ra al", "1694": "ne et", "1695": "te au", "1696": "fu el", "1697": "t\u2019 es", "1698": "lo er", "1699": "se \u2019n", "1700": "no er", "1701": "mo or", "1702": "stric", "1703": "li uc", "1704": "ba un", "1705": "dea u", "1706": "de am", "1707": "zio u", "1708": "di ol", "1709": "so of", "1710": "d\u2019 ab", "1711": "ma on", "1712": "stroc", "1713": "ma al", "1714": "ro eb", "1715": "tra e", "1716": "mo of", "1717": "ca on", "1718": "mi ac", "1719": "lo \u2019m", "1720": "sa es", "1721": "chiar", "1722": "co ac", "1723": "sa ol", "1724": "do im", "1725": "lo il", "1726": "co et", "1727": "stren", "1728": "de or", "1729": "schem", "1730": "s\u2019 ac", "1731": "v\u2019 ap", "1732": "m\u2019 ad", "1733": "la \u2019n", "1734": "si of", "1735": "no an", "1736": "la on", "1737": "no au", "1738": "chian", "1739": "sta e", "1740": "ta es", "1741": "ma ac", "1742": "fo et", "1743": "ni an", "1744": "li an", "1745": "mi er", "1746": "la al", "1747": "si en", "1748": "chi o", "1749": "pi in", "1750": "zo in", "1751": "s\u2019 as", "1752": "re al", "1753": "le in", "1754": "s\u2019 op", "1755": "gi ar", "1756": "re et", "1757": "t\u2019 av", "1758": "ti or", "1759": "squil", "1760": "le of", "1761": "t\u2019 af", "1762": "l\u2019 et", "1763": "ta im", "1764": "ci af", "1765": "ne on", "1766": "li eb", "1767": "te ol", "1768": "de an", "1769": "gne o", "1770": "s\u2019 em", "1771": "vi in", "1772": "l\u2019 ol", "1773": "ch\u2019 e", "1774": "pr\u2019 e", "1775": "ro at", "1776": "sa im", "1777": "ti of", "1778": "ne \u2019n", "1779": "sciar", "1780": "chi a", "1781": "bra a", "1782": "d\u2019 ar", "1783": "ra ap", "1784": "io al", "1785": "che e", "1786": "re il", "1787": "to on", "1788": "do ac", "1789": "ghiac", "1790": "t\u2019 al", "1791": "vo ac", "1792": "chi u", "1793": "le an", "1794": "gni e", "1795": "ra ad", "1796": "ti ar", "1797": "s\u00ec \u2019m", "1798": "s\u2019 es", "1799": "ne ov", "1800": "d\u2019 en", "1801": "li et", "1802": "re oc", "1803": "co ad", "1804": "l\u2019 ag", "1805": "l\u2019 as", "1806": "spiac", "1807": "bi al", "1808": "qua e", "1809": "ga as", "1810": "v\u2019 am", "1811": "ci in", "1812": "l\u2019 ef", "1813": "mo af", "1814": "sfran", "1815": "la \u2019m", "1816": "ge un", "1817": "l\u2019 un", "1818": "de as", "1819": "re av", "1820": "di av", "1821": "hi om", "1822": "ge an", "1823": "si og", "1824": "schia", "1825": "scheg", "1826": "si \u2019n", "1827": "l\u2019 ap", "1828": "po on", "1829": "ci or", "1830": "ma es", "1831": "l\u2019 im", "1832": "l\u2019 er", "1833": "m\u2019 av", "1834": "te er", "1835": "re ag", "1836": "n\u2019 ar", "1837": "s\u2019 am", "1838": "gne u", "1839": "vi of", "1840": "d\u2019 et", "1841": "l\u2019 uo", "1842": "lo of", "1843": "to ag", "1844": "na ac", "1845": "li or", "1846": "mo on", "1847": "si im", "1848": "le on", "1849": "d\u2019 ap", "1850": "li \u2019m", "1851": "te is", "1852": "m\u2019 ab", "1853": "te at", "1854": "to es", "1855": "ra ot", "1856": "mo ec", "1857": "strar", "1858": "za et", "1859": "lo im", "1860": "na ab", "1861": "po in", "1862": "ri an", "1863": "ce av", "1864": "ha \u2019n", "1865": "ti et", "1866": "bo on", "1867": "ro um", "1868": "no in", "1869": "n\u2019 eb", "1870": "mo im", "1871": "gna a", "1872": "to ov", "1873": "l\u2019 av", "1874": "za am", "1875": "mo al", "1876": "ta op", "1877": "de om", "1878": "to ad", "1879": "to ap", "1880": "me at", "1881": "l\u2019 ot", "1882": "l\u2019 ec", "1883": "t\u2019 ac", "1884": "re in", "1885": "so ar", "1886": "no av", "1887": "no ac", "1888": "ro ab", "1889": "li \u2019n", "1890": "re am", "1891": "de eu", "1892": "d\u2019 os", "1893": "pi or", "1894": "na af", "1895": "ni on", "1896": "ro of", "1897": "di im", "1898": "ta ad", "1899": "ta in", "1900": "chiap", "1901": "le or", "1902": "ghien", "1903": "la or", "1904": "ti in", "1905": "sco o", "1906": "ne ar", "1907": "l\u2019 ov", "1908": "tr\u2019 e", "1909": "m\u2019 ar", "1910": "si at", "1911": "no im", "1912": "sciau", "1913": "ve ap", "1914": "ci \u2019n", "1915": "ni as", "1916": "de au", "1917": "mo ac", "1918": "te en", "1919": "zi ag", "1920": "na es", "1921": "ti av", "1922": "lia a", "1923": "cia o", "1924": "scher", "1925": "no at", "1926": "ti \u2019n", "1927": "n\u2019 in", "1928": "di on", "1929": "te os", "1930": "to as", "1931": "sa on", "1932": "se at", "1933": "li em", "1934": "do al", "1935": "ta ar", "1936": "di ab", "1937": "no ec", "1938": "no \u2019n", "1939": "no or", "1940": "pa in", "1941": "de er", "1942": "li at", "1943": "ve ar", "1944": "d\u2019 ol", "1945": "di es", "1946": "to ar", "1947": "na ar", "1948": "me ap", "1949": "le am", "1950": "no af", "1951": "li ad", "1952": "le oc", "1953": "squar", "1954": "n\u2019 on", "1955": "la ap", "1956": "ro or", "1957": "ca en", "1958": "ta am", "1959": "ch\u2019 u", "1960": "sa an", "1961": "ci as", "1962": "l\u2019 in", "1963": "ra av", "1964": "so at", "1965": "gli u", "1966": "so ap", "1967": "do as", "1968": "ro on", "1969": "ra am", "1970": "sto o", "1971": "ra an", "1972": "cia e", "1973": "de \u2019n", "1974": "s\u2019 os", "1975": "vi \u2019m", "1976": "st\u2019 a", "1977": "si an", "1978": "li ab", "1979": "scrit", "1980": "gno a", "1981": "no es", "1982": "le ol", "1983": "to af", "1984": "va im", "1985": "r\u2019 al", "1986": "be al", "1987": "mi am", "1988": "te em", "1989": "l\u00ec en", "1990": "m\u2019 ac", "1991": "sa og", "1992": "ia al", "1993": "te im", "1994": "stran", "1995": "te \u2019n", "1996": "li un", "1997": "za im", "1998": "l\u2019 at", "1999": "ra im", "2000": "sta i", "2001": "zia e", "2002": "li ap", "2003": "l\u2019 eb", "2004": "d\u2019 az", "2005": "vo as", "2006": "re as", "2007": "l\u2019 om", "2008": "s\u2019 ar", "2009": "so et", "2010": "ro ap", "2011": "sciam", "2012": "le as", "2013": "mi in", "2014": "d\u2019 an", "2015": "glian", "2016": "de of", "2017": "cea u", "2018": "zi at", "2019": "gliam", "2020": "si am", "2021": "tro u", "2022": "stram", "2023": "t\u2019 ag", "2024": "so es", "2025": "cro a", "2026": "splen", "2027": "do an", "2028": "scian", "2029": "ra of", "2030": "ma an", "2031": "s\u2019 el", "2032": "no ap", "2033": "lo at", "2034": "cio a", "2035": "le ad", "2036": "lo af", "2037": "so ad", "2038": "ta ab", "2039": "ce al", "2040": "te om", "2041": "si ad", "2042": "sa in", "2043": "l\u2019 au", "2044": "gno u", "2045": "sce a", "2046": "ti al", "2047": "ti im", "2048": "l\u2019 an", "2049": "gliet", "2050": "ra el", "2051": "l\u2019 el", "2052": "fu in", "2053": "to oc", "2054": "po ar", "2055": "tri a", "2056": "schio", "2057": "co ap", "2058": "strac", "2059": "va ar", "2060": "glies", "2061": "re ot", "2062": "do on", "2063": "se ac", "2064": "pie e", "2065": "d\u2019 er", "2066": "va in", "2067": "strat", "2068": "v\u2019 es", "2069": "z\u2019 al", "2070": "sti o", "2071": "ve al", "2072": "vi ac", "2073": "to ol", "2074": "ra ac", "2075": "di og", "2076": "ze et", "2077": "pi ap", "2078": "to al", "2079": "to ef", "2080": "ci an", "2081": "re on", "2082": "no am", "2083": "s\u2019 ab", "2084": "to or", "2085": "schiu", "2086": "ro oc", "2087": "ne av", "2088": "ti ac", "2089": "se es", "2090": "ne af", "2091": "r\u2019 es", "2092": "strug", "2093": "li av", "2094": "se on", "2095": "di om", "2096": "to an", "2097": "ne im", "2098": "ce au", "2099": "l\u2019 op", "2100": "di az", "2101": "bre o", "2102": "ti an", "2103": "s\u00ec in", "2104": "ga in", "2105": "no ag", "2106": "si ac", "2107": "d\u2019 in", "2108": "va at", "2109": "no as", "2110": "scial", "2111": "ta et", "2112": "ti oc", "2113": "ta eu", "2114": "d\u2019 ur", "2115": "go al", "2116": "cia a", "2117": "v\u2019 el", "2118": "so am", "2119": "go in", "2120": "\u2019v\u2019 e", "2121": "te as", "2122": "l\u2019 em", "2123": "s\u2019 af", "2124": "ta of", "2125": "l\u2019 ul", "2126": "lo al", "2127": "ra on", "2128": "mi al", "2129": "ca in", "2130": "s\u2019 al", "2131": "zo ar", "2132": "v\u2019 ab", "2133": "ro ar", "2134": "ne in", "2135": "vi ar", "2136": "ti ad", "2137": "to ab", "2138": "d\u2019 es", "2139": "s\u2019 in", "2140": "ra eb", "2141": "d\u2019 ac", "2142": "ro an", "2143": "co eb", "2144": "la ol", "2145": "ca an", "2146": "ro am", "2147": "sta o", "2148": "spres", "2149": "re ab", "2150": "co on", "2151": "n\u2019 ag", "2152": "sto a", "2153": "d\u2019 of", "2154": "re es", "2155": "ma of", "2156": "d\u2019 ot", "2157": "v\u2019 of", "2158": "lo ac", "2159": "re im", "2160": "ri in", "2161": "ni al", "2162": "scioc", "2163": "t\u00e0 in", "2164": "suo a", "2165": "bo av", "2166": "ve at", "2167": "che a", "2168": "be av", "2169": "so \u2019n", "2170": "vi av", "2171": "strom", "2172": "d\u2019 im", "2173": "ri on", "2174": "sta a", "2175": "ro es", "2176": "te al", "2177": "ra as", "2178": "l\u2019 oc", "2179": "co al", "2180": "ne al", "2181": "vi en", "2182": "gia o", "2183": "li on", "2184": "ne as", "2185": "to et", "2186": "sta u", "2187": "li er", "2188": "sto e", "2189": "no ar", "2190": "l\u2019 uc", "2191": "so en", "2192": "s\u2019 of", "2193": "chioc", "2194": "l\u2019 ab", "2195": "do eb", "2196": "sci\u00e0n", "2197": "le ap", "2198": "la of", "2199": "co in", "2200": "te on", "2201": "re en", "2202": "ghian", "2203": "n\u2019 er", "2204": "chiet", "2205": "to eb", "2206": "n\u2019 am", "2207": "d\u2019 eu", "2208": "ste a", "2209": "na in", "2210": "l\u2019 of", "2211": "m\u2019 im", "2212": "m\u2019 of", "2213": "me au", "2214": "l\u2019 af", "2215": "lo ar", "2216": "vi on", "2217": "di ad", "2218": "scrip", "2219": "n\u2019 ab", "2220": "me al", "2221": "be as", "2222": "stret", "2223": "va \u2019n", "2224": "sciut", "2225": "se al", "2226": "te ap", "2227": "v\u2019 et", "2228": "zie o", "2229": "lo \u2019n", "2230": "zio a", "2231": "li im", "2232": "gliuo", "2233": "spraz", "2234": "na \u2019n", "2235": "t\u2019 in", "2236": "t\u2019 an", "2237": "to ec", "2238": "ce on", "2239": "so as", "2240": "v\u2019 al", "2241": "me ac", "2242": "li af", "2243": "ve an", "2244": "d\u2019 af", "2245": "n\u2019 om", "2246": "ch\u2019 i", "2247": "l\u2019 al", "2248": "sciol", "2249": "ti at", "2250": "m\u2019 eb", "2251": "na of", "2252": "d\u2019 am", "2253": "mi \u2019n", "2254": "tr\u2019 a", "2255": "va eb", "2256": "si ar", "2257": "do or", "2258": "v\u2019 eb", "2259": "v\u2019 er", "2260": "ne es", "2261": "l\u2019 os", "2262": "to im", "2263": "t\u2019 am", "2264": "do er", "2265": "le at", "2266": "ge in", "2267": "re af", "2268": "va an", "2269": "scris", "2270": "te in", "2271": "le uc", "2272": "d\u2019 at", "2273": "re ap", "2274": "strut", "2275": "te or", "2276": "zi \u2019m", "2277": "pre e", "2278": "ci ar", "2279": "m\u2019 af", "2280": "zia o", "2281": "si in", "2282": "ce af", "2283": "s\u2019 an", "2284": "n\u2019 uo", "2285": "ri ap", "2286": "t\u2019 im", "2287": "bo al", "2288": "schic", "2289": "ti en", "2290": "sa ap", "2291": "t\u2019 as", "2292": "s\u2019 ap", "2293": "do es", "2294": "ni ap", "2295": "se ap", "2296": "l\u2019 um", "2297": "ca er", "2298": "li am", "2299": "t\u2019 or", "2300": "ce in", "2301": "tro a", "2302": "dre e", "2303": "c\u2019 im", "2304": "po al", "2305": "n\u2019 ap", "2306": "ne em", "2307": "do el", "2308": "li ag", "2309": "ch\u2019 a", "2310": "co av", "2311": "se an", "2312": "go es", "2313": "strin", "2314": "rio a", "2315": "li om", "2316": "ra uc", "2317": "se in", "2318": "ce im", "2319": "co ar", "2320": "po av", "2321": "zi al", "2322": "lo es", "2323": "de ag", "2324": "se op", "2325": "d\u2019 eb", "2326": "sbe a", "2327": "ci av", "2328": "zo an", "2329": "mo in", "2330": "ni av", "2331": "de af", "2332": "m\u2019 ag", "2333": "te ab", "2334": "m\u2019 al", "2335": "te ar", "2336": "te ag", "2337": "si av", "2338": "do ol", "2339": "vo an", "2340": "m\u2019 in", "2341": "ma \u2019n", "2342": "ge et", "2343": "s\u2019 ag", "2344": "si ol", "2345": "st\u2019 o", "2346": "tri e", "2347": "m\u2019 es", "2348": "ro in", "2349": "la in", "2350": "mi ap", "2351": "s\u2019 eb", "2352": "sguar", "2353": "li au", "2354": "ce es", "2355": "si as", "2356": "gliar", "2357": "ce at", "2358": "do oc", "2359": "co at", "2360": "li of", "2361": "d\u2019 on", "2362": "na av", "2363": "ni es", "2364": "re eb", "2365": "lo in", "2366": "sgrie", "2367": "chi e", "2368": "na ap", "2369": "za \u2019n", "2370": "mo ol", "2371": "to at", "2372": "dio i", "2373": "si or", "2374": "gliel", "2375": "li ac", "2376": "di al", "2377": "le \u2019m", "2378": "ta ac", "2379": "ci ad", "2380": "ze es", "2381": "s\u2019 ad", "2382": "ve oc", "2383": "be on", "2384": "li oc", "2385": "se un", "2386": "m\u2019 om", "2387": "tu ha", "2388": "t\u2019 ar", "2389": "v\u2019 an", "2390": "re au", "2391": "ra et", "2392": "n\u2019 al", "2393": "re ac", "2394": "do at", "2395": "te af", "2396": "si er", "2397": "s\u00ec \u2019n", "2398": "no al", "2399": "to av", "2400": "di ac", "2401": "se as", "2402": "l\u2019 \u00e0n", "2403": "za on", "2404": "gi an", "2405": "tro e", "2406": "li uo", "2407": "m\u2019 at", "2408": "t\u2019 el", "2409": "bra u", "2410": "vo au", "2411": "s\u2019 et", "2412": "po an", "2413": "s\u2019 at", "2414": "mo es", "2415": "si al", "2416": "l\u2019 ad", "2417": "re an", "2418": "te an", "2419": "sa ac", "2420": "so on", "2421": "ghiot", "2422": "v\u2019 ac", "2423": "me of", "2424": "na eb", "2425": "tra a", "2426": "me ar", "2427": "l\u2019 ar", "2428": "ta el", "2429": "mo at", "2430": "s\u2019 en", "2431": "ti \u2019m", "2432": "lo an", "2433": "m\u2019 an", "2434": "la au", "2435": "di af", "2436": "ve es", "2437": "n\u2019 av", "2438": "scran", "2439": "v\u2019 in", "2440": "ro ac", "2441": "to of", "2442": "ma or", "2443": "s\u2019 av", "2444": "bre a", "2445": "ce eu", "2446": "ro as", "2447": "co er", "2448": "n\u2019 au", "2449": "li es", "2450": "za in", "2451": "che u", "2452": "l\u2019 ac", "2453": "to uc", "2454": "te ad", "2455": "za al", "2456": "st\u2019 u", "2457": "le ar", "2458": "re ar", "2459": "chias", "2460": "zio e", "2461": "za er", "2462": "sciom", "2463": "v\u2019 ar", "2464": "sco u", "2465": "me in", "2466": "tri o", "2467": "stras", "2468": "te es", "2469": "de in", "2470": "ne ac", "2471": "lo as", "2472": "ci am", "2473": "sto im", "2474": "ri han", "2475": "ch\u2019 ac", "2476": "gne in", "2477": "gni an", "2478": "n\u2019 han", "2479": "sto ap", "2480": "gio uc", "2481": "gio on", "2482": "sco an", "2483": "qua of", "2484": "tro of", "2485": "glio e", "2486": "cio ap", "2487": "gno in", "2488": "pre at", "2489": "gno am", "2490": "stra u", "2491": "sti or", "2492": "gue or", "2493": "sti in", "2494": "tro as", "2495": "m\u2019 han", "2496": "gh\u2019 es", "2497": "ch\u2019 or", "2498": "sta ol", "2499": "chi ap", "2500": "gia in", "2501": "ch\u2019 og", "2502": "ch\u2019 ag", "2503": "d\u2019 han", "2504": "tro al", "2505": "che om", "2506": "pi\u00f9 in", "2507": "ch\u2019 as", "2508": "dre es", "2509": "go han", "2510": "gue an", "2511": "tra av", "2512": "sti an", "2513": "stro e", "2514": "bre et", "2515": "ch\u2019 in", "2516": "tri of", "2517": "che \u2019m", "2518": "tre in", "2519": "gno al", "2520": "tri es", "2521": "gne er", "2522": "chi on", "2523": "st\u2019 ot", "2524": "tri as", "2525": "che \u2019n", "2526": "tro an", "2527": "gne ef", "2528": "glio u", "2529": "tro \u2019m", "2530": "ch\u2019 eb", "2531": "sti er", "2532": "st\u2019 in", "2533": "ch\u2019 er", "2534": "tr\u2019 om", "2535": "que es", "2536": "gne uo", "2537": "ste in", "2538": "lio as", "2539": "zia or", "2540": "st\u2019 ac", "2541": "cio as", "2542": "st\u2019 ar", "2543": "vea \u2019m", "2544": "ch\u2019 am", "2545": "stra e", "2546": "ch\u2019 es", "2547": "chi in", "2548": "pie or", "2549": "scia e", "2550": "dia as", "2551": "tra ef", "2552": "sto of", "2553": "tri ap", "2554": "sta im", "2555": "stri o", "2556": "tr\u2019 am", "2557": "pre es", "2558": "qua on", "2559": "tro ac", "2560": "tra an", "2561": "sto an", "2562": "gia al", "2563": "chi an", "2564": "st\u2019 al", "2565": "st\u2019 ul", "2566": "chio a", "2567": "ch\u2019 al", "2568": "ria of", "2569": "ria in", "2570": "chi al", "2571": "chi ac", "2572": "sti el", "2573": "nio im", "2574": "pre ar", "2575": "glio o", "2576": "pio on", "2577": "ne han", "2578": "t\u2019 han", "2579": "gne ac", "2580": "sce el", "2581": "sta al", "2582": "sto al", "2583": "tre an", "2584": "tro in", "2585": "tr\u2019 al", "2586": "sto ar", "2587": "sto \u2019n", "2588": "che in", "2589": "glia u", "2590": "gio in", "2591": "sto at", "2592": "que al", "2593": "str\u2019 u", "2594": "cio et", "2595": "co e i", "2596": "ti han", "2597": "sta in", "2598": "schiat", "2599": "pre ac", "2600": "chi ar", "2601": "gne al", "2602": "sti av", "2603": "tr\u2019 ar", "2604": "glia o", "2605": "sti oc", "2606": "gia ar", "2607": "ste an", "2608": "ch\u2019 ab", "2609": "sto ac", "2610": "cia on", "2611": "st\u2019 of", "2612": "mia \u2019n", "2613": "ch\u2019 et", "2614": "tri af", "2615": "zia il", "2616": "stro o", "2617": "qua in", "2618": "tro ab", "2619": "ch\u2019 an", "2620": "rio an", "2621": "mio in", "2622": "che ar", "2623": "bre in", "2624": "stri a", "2625": "pr\u2019 ar", "2626": "sma in", "2627": "bia an", "2628": "bre an", "2629": "tra op", "2630": "cie in", "2631": "ria on", "2632": "vio in", "2633": "st\u2019 es", "2634": "mio \u2019n", "2635": "gno ae", "2636": "dre al", "2637": "c\u2019 han", "2638": "sti es", "2639": "stra i", "2640": "dre eb", "2641": "che an", "2642": "chio o", "2643": "ch\u2019 el", "2644": "pre al", "2645": "lia an", "2646": "tro on", "2647": "sce al", "2648": "tre os", "2649": "bri ap", "2650": "bia in", "2651": "lio in", "2652": "li han", "2653": "gno af", "2654": "sta an", "2655": "zia on", "2656": "tro av", "2657": "ghe on", "2658": "glia a", "2659": "schiet", "2660": "sta og", "2661": "schian", "2662": "ch\u2019 ad", "2663": "ch\u2019 ar", "2664": "gna in", "2665": "che ha", "2666": "sto on", "2667": "ch\u2019 av", "2668": "sto in", "2669": "sce as", "2670": "tro ar", "2671": "sti on", "2672": "qua im", "2673": "gue on", "2674": "gne im", "2675": "cia ar", "2676": "sto \u2019m", "2677": "tro ap", "2678": "stro a", "2679": "zie ec", "2680": "bra in", "2681": "ch\u2019 at", "2682": "stra a", "2683": "dre as", "2684": "sco al", "2685": "chio u", "2686": "sti un", "2687": "st\u2019 an", "2688": "tri in", "2689": "tro et", "2690": "ch\u2019 en", "2691": "cia im", "2692": "lio an", "2693": "ch\u2019 ap", "2694": "stro u", "2695": "chi am", "2696": "sti al", "2697": "pi\u00f9 \u2019n", "2698": "te han", "2699": "sce an", "2700": "sto es", "2701": "cio al", "2702": "dre an", "2703": "l\u2019 han", "2704": "pre in", "2705": "glio on", "2706": "chie et", "2707": "glie al", "2708": "glie an", "2709": "stro in", "2710": "glia al", "2711": "chio at", "2712": "glia es", "2713": "stro ac", "2714": "stro as", "2715": "scia an", "2716": "stra in", "2717": "stra ef", "2718": "stro al", "2719": "stri al", "2720": "lo e \u2019n", "2721": "glio es", "2722": "stri af", "2723": "n\u2019 \u00e8 im", "2724": "stri ef", "2725": "chia an", "2726": "str\u2019 ar", "2727": "glia in", "2728": "trio al", "2729": "glia as", "2730": "re a \u2019n", "2731": "glio in", "2732": "ti e \u2019n", "2733": "glia ac", "2734": "si e \u2019n", "2735": "stri av", "2736": "d\u2019 i\u2019 a", "2737": "stro eb", "2738": "glio as", "2739": "stri an", "2740": "str\u2019 or", "2741": "chia of", "2742": "dio han", "2743": "stro oc", "2744": "stro an", "2745": "stre in", "2746": "sche ab", "2747": "stro es", "2748": "li \u00e8 in", "2749": "chio an", "2750": "glie eb", "2751": "stro im", "2752": "stra ap", "2753": "sche er", "2754": "chio in", "2755": "glio an", "2756": "stro av", "2757": "sti a \u2019n", "2758": "t\u2019 ho in", "2759": "ch\u2019 e\u2019 \u2019n", "2760": "ch\u2019 io \u2019n", "2761": "i ", "2762": "\u00e8 ", "2763": "a ", "2764": "e ", "2765": "\u00f9 ", "2766": "\u00f2 ", "2767": "o ", "2768": "\u00ef ", "2769": "s ", "2770": "me ", "2771": "s\u00ec ", "2772": "om ", "2773": "el ", "2774": "mo ", "2775": "m\u00e8 ", "2776": "ti ", "2777": "ca ", "2778": "ae ", "2779": "in ", "2780": "di ", "2781": "li ", "2782": "d\u00e9 ", "2783": "b\u00e8 ", "2784": "d\u00f2 ", "2785": "la ", "2786": "se ", "2787": "zi ", "2788": "te ", "2789": "v\u00f2 ", "2790": "sa ", "2791": "si ", "2792": "ga ", "2793": "ie ", "2794": "\u00e0s ", "2795": "c\u00f2 ", "2796": "bo ", "2797": "l\u00f2 ", "2798": "t\u00f9 ", "2799": "ia ", "2800": "ta ", "2801": "vo ", "2802": "n\u00e8 ", "2803": "no ", "2804": "us ", "2805": "et ", "2806": "f\u00e9 ", "2807": "p\u00e8 ", "2808": "d\u00e0 ", "2809": "ba ", "2810": "g\u00ec ", "2811": "da ", "2812": "ge ", "2813": "na ", "2814": "gi ", "2815": "so ", "2816": "bi ", "2817": "pi ", "2818": "ut ", "2819": "ma ", "2820": "po ", "2821": "d\u00ec ", "2822": "fe ", "2823": "on ", "2824": "ro ", "2825": "\u00f2s ", "2826": "an ", "2827": "be ", "2828": "ar ", "2829": "e\u2019 ", "2830": "va ", "2831": "ir ", "2832": "\u00e8l ", "2833": "l\u00e0 ", "2834": "ed ", "2835": "or ", "2836": "as ", "2837": "le ", "2838": "fa ", "2839": "n\u00ec ", "2840": "r\u00e0 ", "2841": "su ", "2842": "ad ", "2843": "al ", "2844": "de ", "2845": "pe ", "2846": "l\u00e8 ", "2847": "re ", "2848": "do ", "2849": "r\u00ec ", "2850": "ho ", "2851": "u\u2019 ", "2852": "ne ", "2853": "oh ", "2854": "io ", "2855": "s\u00f2 ", "2856": "s\u00e9 ", "2857": "p\u00f2 ", "2858": "ab ", "2859": "s\u00e8 ", "2860": "co ", "2861": "ei ", "2862": "t\u00e8 ", "2863": "fo ", "2864": "zo ", "2865": "n\u00e9 ", "2866": "os ", "2867": "to ", "2868": "t\u00f2 ", "2869": "t\u00e0 ", "2870": "a\u2019 ", "2871": "go ", "2872": "ai ", "2873": "v\u00ec ", "2874": "il ", "2875": "c\u00e9 ", "2876": "n\u00e0 ", "2877": "b\u00f2 ", "2878": "i\u2019 ", "2879": "\u00e9n ", "2880": "l\u00ec ", "2881": "fu ", "2882": "un ", "2883": "z\u00f2 ", "2884": "fi ", "2885": "ri ", "2886": "ra ", "2887": "od ", "2888": "tu ", "2889": "ve ", "2890": "ni ", "2891": "ci ", "2892": "r\u00f2 ", "2893": "ze ", "2894": "lo ", "2895": "\u00f3n ", "2896": "b\u00f9 ", "2897": "ha ", "2898": "f\u00e0 ", "2899": "g\u00f2 ", "2900": "\u00e0r ", "2901": "s\u00f9 ", "2902": "n\u00f2 ", "2903": "\u00f9l ", "2904": "za ", "2905": "m\u00f2 ", "2906": "t\u00ec ", "2907": "f\u00f2 ", "2908": "pa ", "2909": "ce ", "2910": "vi ", "2911": "t\u00e9 ", "2912": "mi ", "2913": "\u00e0m ", "2914": "reo ", "2915": "sie ", "2916": "sel ", "2917": "gor ", "2918": "peo ", "2919": "dei ", "2920": "pon ", "2921": "lee ", "2922": "\u2019ve ", "2923": "pi\u00f9 ", "2924": "dr\u00e0 ", "2925": "bra ", "2926": "di\u2019 ", "2927": "tia ", "2928": "nia ", "2929": "pre ", "2930": "cel ", "2931": "gre ", "2932": "noi ", "2933": "tes ", "2934": "feo ", "2935": "pr\u00ec ", "2936": "man ", "2937": "mas ", "2938": "dro ", "2939": "sma ", "2940": "coi ", "2941": "lor ", "2942": "mor ", "2943": "cle ", "2944": "cea ", "2945": "sem ", "2946": "ner ", "2947": "can ", "2948": "n\u00ect ", "2949": "sub ", "2950": "meo ", "2951": "n\u00e8s ", "2952": "gi\u2019 ", "2953": "t\u00e9r ", "2954": "nol ", "2955": "sul ", "2956": "nir ", "2957": "ra\u2019 ", "2958": "fei ", "2959": "ton ", "2960": "din ", "2961": "f\u00e0t ", "2962": "cum ", "2963": "tai ", "2964": "ci\u00f2 ", "2965": "co\u2019 ", "2966": "gia ", "2967": "cio ", "2968": "nil ", "2969": "tal ", "2970": "cin ", "2971": "smi ", "2972": "sto ", "2973": "pal ", "2974": "mul ", "2975": "sis ", "2976": "cre ", "2977": "gra ", "2978": "vei ", "2979": "vai ", "2980": "gal ", "2981": "gni ", "2982": "dal ", "2983": "pir ", "2984": "bue ", "2985": "sci ", "2986": "par ", "2987": "ter ", "2988": "bil ", "2989": "cra ", "2990": "tem ", "2991": "tr\u00e0 ", "2992": "cem ", "2993": "mer ", "2994": "ria ", "2995": "dai ", "2996": "tan ", "2997": "mar ", "2998": "spe ", "2999": "nei ", "3000": "ben ", "3001": "nor ", "3002": "vem ", "3003": "gon ", "3004": "gea ", "3005": "neo ", "3006": "dar ", "3007": "g\u00f3r ", "3008": "pro ", "3009": "lie ", "3010": "a e ", "3011": "ral ", "3012": "dil ", "3013": "rar ", "3014": "nea ", "3015": "nio ", "3016": "fur ", "3017": "dan ", "3018": "rai ", "3019": "lui ", "3020": "duo ", "3021": "pie ", "3022": "gua ", "3023": "pel ", "3024": "von ", "3025": "ma\u2019 ", "3026": "vau ", "3027": "st\u00f9 ", "3028": "gui ", "3029": "ean ", "3030": "deo ", "3031": "ler ", "3032": "via ", "3033": "ri\u2019 ", "3034": "bar ", "3035": "mon ", "3036": "dea ", "3037": "due ", "3038": "hai ", "3039": "bri ", "3040": "mae ", "3041": "clo ", "3042": "tin ", "3043": "ian ", "3044": "rer ", "3045": "fer ", "3046": "ti\u2019 ", "3047": "smo ", "3048": "qui ", "3049": "fui ", "3050": "che ", "3051": "gar ", "3052": "ger ", "3053": "bee ", "3054": "g\u00f3n ", "3055": "zie ", "3056": "cen ", "3057": "r\u00ecb ", "3058": "tis ", "3059": "m\u00ecs ", "3060": "val ", "3061": "tio ", "3062": "cri ", "3063": "bre ", "3064": "spa ", "3065": "b\u00e0l ", "3066": "rao ", "3067": "da\u2019 ", "3068": "l\u00eco ", "3069": "pri ", "3070": "bia ", "3071": "gu\u00f2 ", "3072": "re\u2019 ", "3073": "fe\u2019 ", "3074": "cer ", "3075": "ghe ", "3076": "per ", "3077": "r\u00f3n ", "3078": "tri ", "3079": "dr\u00f2 ", "3080": "sar ", "3081": "bei ", "3082": "d\u00eca ", "3083": "cai ", "3084": "gri ", "3085": "bel ", "3086": "lu\u2019 ", "3087": "lar ", "3088": "c\u00f2b ", "3089": "ch\u00e9 ", "3090": "por ", "3091": "gel ", "3092": "pol ", "3093": "fu\u2019 ", "3094": "n\u00f2s ", "3095": "rio ", "3096": "vra ", "3097": "nel ", "3098": "sc\u00ec ", "3099": "rem ", "3100": "dee ", "3101": "mia ", "3102": "tun ", "3103": "chi ", "3104": "sen ", "3105": "o e ", "3106": "tar ", "3107": "cro ", "3108": "sca ", "3109": "vio ", "3110": "bi\u00f2 ", "3111": "mio ", "3112": "pin ", "3113": "pan ", "3114": "bro ", "3115": "t\u00e0n ", "3116": "m\u00eca ", "3117": "zon ", "3118": "ion ", "3119": "dri ", "3120": "fan ", "3121": "gi\u00e0 ", "3122": "dir ", "3123": "til ", "3124": "dem ", "3125": "lan ", "3126": "gan ", "3127": "ne\u2019 ", "3128": "sin ", "3129": "gne ", "3130": "vil ", "3131": "se\u2019 ", "3132": "di\u00e8 ", "3133": "r\u00f2l ", "3134": "ren ", "3135": "plo ", "3136": "gai ", "3137": "ran ", "3138": "su\u2019 ", "3139": "bis ", "3140": "a i ", "3141": "qua ", "3142": "tua ", "3143": "gei ", "3144": "v\u00ecd ", "3145": "for ", "3146": "rea ", "3147": "mai ", "3148": "der ", "3149": "me\u2019 ", "3150": "unt ", "3151": "del ", "3152": "rum ", "3153": "pi\u00e8 ", "3154": "gli ", "3155": "sio ", "3156": "ga\u2019 ", "3157": "zul ", "3158": "pei ", "3159": "sue ", "3160": "car ", "3161": "cei ", "3162": "dre ", "3163": "za\u2019 ", "3164": "tei ", "3165": "pio ", "3166": "voi ", "3167": "con ", "3168": "fon ", "3169": "f\u00e8l ", "3170": "gi\u00f2 ", "3171": "fai ", "3172": "a a ", "3173": "sir ", "3174": "gro ", "3175": "ver ", "3176": "dor ", "3177": "gna ", "3178": "tea ", "3179": "vea ", "3180": "vas ", "3181": "f\u00e0s ", "3182": "mun ", "3183": "zio ", "3184": "ta\u2019 ", "3185": "rin ", "3186": "gi\u00f9 ", "3187": "deh ", "3188": "sii ", "3189": "nis ", "3190": "zai ", "3191": "don ", "3192": "vol ", "3193": "ron ", "3194": "gir ", "3195": "tra ", "3196": "min ", "3197": "nar ", "3198": "nin ", "3199": "ven ", "3200": "tue ", "3201": "pu\u00f2 ", "3202": "gol ", "3203": "suo ", "3204": "cul ", "3205": "tol ", "3206": "fin ", "3207": "men ", "3208": "bir ", "3209": "gis ", "3210": "vel ", "3211": "tus ", "3212": "cis ", "3213": "s\u00f3n ", "3214": "lio ", "3215": "son ", "3216": "van ", "3217": "f\u00f3n ", "3218": "cur ", "3219": "c\u00e0n ", "3220": "sor ", "3221": "sta ", "3222": "num ", "3223": "rel ", "3224": "l\u00f2n ", "3225": "gue ", "3226": "col ", "3227": "vie ", "3228": "mal ", "3229": "uom ", "3230": "ril ", "3231": "st\u00e0 ", "3232": "non ", "3233": "teo ", "3234": "sia ", "3235": "vam ", "3236": "sol ", "3237": "gin ", "3238": "gn\u00ec ", "3239": "nha ", "3240": "ieu ", "3241": "\u2018te ", "3242": "bus ", "3243": "zia ", "3244": "cil ", "3245": "cia ", "3246": "cie ", "3247": "dio ", "3248": "pra ", "3249": "vo\u2019 ", "3250": "han ", "3251": "lia ", "3252": "far ", "3253": "st\u00ec ", "3254": "sua ", "3255": "sti ", "3256": "nie ", "3257": "ghi ", "3258": "st\u00e9 ", "3259": "nan ", "3260": "mie ", "3261": "ve\u2019 ", "3262": "t\u00f3n ", "3263": "tir ", "3264": "du\u2019 ", "3265": "ban ", "3266": "cui ", "3267": "ber ", "3268": "mei ", "3269": "que ", "3270": "lai ", "3271": "sei ", "3272": "rir ", "3273": "sa\u2019 ", "3274": "bio ", "3275": "e \u2019 ", "3276": "bor ", "3277": "d\u00e8i ", "3278": "tor ", "3279": "sun ", "3280": "l\u00e8m ", "3281": "lea ", "3282": "lin ", "3283": "gio ", "3284": "des ", "3285": "pur ", "3286": "lon ", "3287": "poi ", "3288": "ser ", "3289": "die ", "3290": "zar ", "3291": "e i ", "3292": "o a ", "3293": "tro ", "3294": "cor ", "3295": "tre ", "3296": "ges ", "3297": "ror ", "3298": "pia ", "3299": "ier ", "3300": "leo ", "3301": "sce ", "3302": "sal ", "3303": "lei ", "3304": "de\u2019 ", "3305": "b\u00eca ", "3306": "cal ", "3307": "gu\u00ec ", "3308": "dra ", "3309": "ram ", "3310": "tuo ", "3311": "tel ", "3312": "fi\u2019 ", "3313": "pr\u00e0 ", "3314": "cu\u2019 ", "3315": "zan ", "3316": "te\u2019 ", "3317": "len ", "3318": "pi\u00e9 ", "3319": "rie ", "3320": "cun ", "3321": "pea ", "3322": "r\u00ecs ", "3323": "fia ", "3324": "va\u2019 ", "3325": "vin ", "3326": "var ", "3327": "nem ", "3328": "rei ", "3329": "bol ", "3330": "fil ", "3331": "n\u00eca ", "3332": "nai ", "3333": "san ", "3334": "gno ", "3335": "st\u00f2 ", "3336": "dur ", "3337": "na\u2019 ", "3338": "nal ", "3339": "tr\u00f2 ", "3340": "lir ", "3341": "sai ", "3342": "no\u2019 ", "3343": "uo\u2019 ", "3344": "sui ", "3345": "ten ", "3346": "mil ", "3347": "ahi ", "3348": "fra ", "3349": "c\u00f2l ", "3350": "sco ", "3351": "pem ", "3352": "bon ", "3353": "ste ", "3354": "dia ", "3355": "suoi ", "3356": "quai ", "3357": "ro e ", "3358": "fren ", "3359": "li e ", "3360": "sa \u00e8 ", "3361": "ta a ", "3362": "de o ", "3363": "tra\u2019 ", "3364": "go e ", "3365": "tu i ", "3366": "cria ", "3367": "gnin ", "3368": "l\u00ec \u00e8 ", "3369": "prai ", "3370": "ca a ", "3371": "su i ", "3372": "stia ", "3373": "scia ", "3374": "pian ", "3375": "fier ", "3376": "ti i ", "3377": "gi e ", "3378": "i il ", "3379": "quel ", "3380": "bran ", "3381": "co i ", "3382": "stel ", "3383": "piar ", "3384": "gnia ", "3385": "glie ", "3386": "re a ", "3387": "drir ", "3388": "naio ", "3389": "quam ", "3390": "prio ", "3391": "ma \u00e8 ", "3392": "miei ", "3393": "ne a ", "3394": "schi ", "3395": "so \u00e8 ", "3396": "scun ", "3397": "zian ", "3398": "zi a ", "3399": "sien ", "3400": "o un ", "3401": "co o ", "3402": "de i ", "3403": "niam ", "3404": "drel ", "3405": "po e ", "3406": "d\u00ec i ", "3407": "plar ", "3408": "gien ", "3409": "la o ", "3410": "mie\u2019 ", "3411": "gran ", "3412": "e \u2019l ", "3413": "br\u00f2t ", "3414": "mo e ", "3415": "ta \u00e8 ", "3416": "ge a ", "3417": "ma i ", "3418": "di a ", "3419": "suon ", "3420": "v\u2019 a ", "3421": "bent ", "3422": "tien ", "3423": "sci\u2019 ", "3424": "ra e ", "3425": "brio ", "3426": "ro \u00e8 ", "3427": "bi i ", "3428": "vuo\u2019 ", "3429": "pi\u00e9r ", "3430": "le \u00e8 ", "3431": "gual ", "3432": "ze o ", "3433": "cion ", "3434": "prun ", "3435": "glio ", "3436": "ta o ", "3437": "va a ", "3438": "t\u2019 i ", "3439": "l\u00e0 i ", "3440": "sci\u00f2 ", "3441": "spri ", "3442": "te a ", "3443": "me e ", "3444": "ro o ", "3445": "sfar ", "3446": "ta e ", "3447": "si i ", "3448": "re o ", "3449": "guia ", "3450": "pa e ", "3451": "va o ", "3452": "po \u00e8 ", "3453": "ro a ", "3454": "sa o ", "3455": "to a ", "3456": "re e ", "3457": "bi e ", "3458": "tiam ", "3459": "stro ", "3460": "so e ", "3461": "so a ", "3462": "giun ", "3463": "ga a ", "3464": "ciol ", "3465": "po i ", "3466": "na \u00e8 ", "3467": "nien ", "3468": "scon ", "3469": "gnum ", "3470": "no e ", "3471": "fi e ", "3472": "vo a ", "3473": "vo e ", "3474": "glia ", "3475": "ti a ", "3476": "ri a ", "3477": "ci a ", "3478": "si a ", "3479": "se o ", "3480": "se i ", "3481": "li a ", "3482": "no o ", "3483": "ni a ", "3484": "mo i ", "3485": "vien ", "3486": "sa a ", "3487": "me \u00e8 ", "3488": "mo \u00e8 ", "3489": "prie ", "3490": "sie\u2019 ", "3491": "cian ", "3492": "ro i ", "3493": "ge e ", "3494": "zo a ", "3495": "de e ", "3496": "do \u00e8 ", "3497": "zo e ", "3498": "sc\u00eco ", "3499": "fiar ", "3500": "puoi ", "3501": "vean ", "3502": "vuoi ", "3503": "dien ", "3504": "te o ", "3505": "chel ", "3506": "ve o ", "3507": "viam ", "3508": "fien ", "3509": "dail ", "3510": "po a ", "3511": "scea ", "3512": "o al ", "3513": "cral ", "3514": "ciai ", "3515": "die\u2019 ", "3516": "pion ", "3517": "stan ", "3518": "o il ", "3519": "st\u00f2r ", "3520": "stre ", "3521": "tran ", "3522": "scer ", "3523": "tria ", "3524": "co a ", "3525": "star ", "3526": "mo a ", "3527": "pria ", "3528": "pier ", "3529": "ne \u00e8 ", "3530": "ri o ", "3531": "siam ", "3532": "frir ", "3533": "ci\u00f2l ", "3534": "vian ", "3535": "pien ", "3536": "stra ", "3537": "zion ", "3538": "scar ", "3539": "no i ", "3540": "ne i ", "3541": "t\u2019 \u00e8 ", "3542": "sier ", "3543": "gier ", "3544": "quie ", "3545": "la \u00e8 ", "3546": "mi i ", "3547": "giar ", "3548": "gian ", "3549": "\u00e8 il ", "3550": "grue ", "3551": "ce a ", "3552": "fior ", "3553": "io e ", "3554": "de a ", "3555": "gnus ", "3556": "quei ", "3557": "f\u00e9 i ", "3558": "ghia ", "3559": "cean ", "3560": "go a ", "3561": "zi e ", "3562": "ce i ", "3563": "ve i ", "3564": "gner ", "3565": "gnun ", "3566": "giam ", "3567": "vi \u00e8 ", "3568": "stie ", "3569": "trei ", "3570": "guir ", "3571": "ni e ", "3572": "li \u00e8 ", "3573": "re \u00e8 ", "3574": "dier ", "3575": "pe e ", "3576": "e \u2019n ", "3577": "na a ", "3578": "ghio ", "3579": "stor ", "3580": "l\u2019 \u00e8 ", "3581": "to \u00e8 ", "3582": "do a ", "3583": "fuor ", "3584": "ve a ", "3585": "ghi\u00f2 ", "3586": "nean ", "3587": "mi e ", "3588": "be i ", "3589": "str\u00f2 ", "3590": "spir ", "3591": "bo e ", "3592": "to o ", "3593": "\u00e8 \u2019l ", "3594": "fian ", "3595": "biar ", "3596": "ciel ", "3597": "cuor ", "3598": "se e ", "3599": "ver\u2019 ", "3600": "dean ", "3601": "grin ", "3602": "la i ", "3603": "ti \u00e8 ", "3604": "na o ", "3605": "ze e ", "3606": "sian ", "3607": "co \u00e8 ", "3608": "plor ", "3609": "fo \u00e8 ", "3610": "le e ", "3611": "lo a ", "3612": "sunt ", "3613": "bi a ", "3614": "drai ", "3615": "ta i ", "3616": "mian ", "3617": "no a ", "3618": "za o ", "3619": "rean ", "3620": "za i ", "3621": "scir ", "3622": "te e ", "3623": "trai ", "3624": "za a ", "3625": "laio ", "3626": "stil ", "3627": "trui ", "3628": "m\u2019 \u00e8 ", "3629": "chia ", "3630": "quar ", "3631": "ma a ", "3632": "ce \u00e8 ", "3633": "se a ", "3634": "li o ", "3635": "go o ", "3636": "ched ", "3637": "ti e ", "3638": "ciar ", "3639": "ge \u00e8 ", "3640": "si o ", "3641": "pa \u00e8 ", "3642": "di e ", "3643": "sti\u00f2 ", "3644": "se \u00e8 ", "3645": "ci o ", "3646": "ne o ", "3647": "zi \u00e8 ", "3648": "dron ", "3649": "tier ", "3650": "lian ", "3651": "gnar ", "3652": "vria ", "3653": "qual ", "3654": "gnan ", "3655": "ca \u00e8 ", "3656": "sche ", "3657": "stin ", "3658": "d\u2019 i ", "3659": "fe e ", "3660": "stri ", "3661": "nier ", "3662": "tuon ", "3663": "gior ", "3664": "do i ", "3665": "brar ", "3666": "crin ", "3667": "pa a ", "3668": "vi e ", "3669": "chin ", "3670": "vuol ", "3671": "ga o ", "3672": "za e ", "3673": "ciam ", "3674": "li i ", "3675": "la e ", "3676": "ba e ", "3677": "bo a ", "3678": "lo i ", "3679": "s\u2019 a ", "3680": "brei ", "3681": "gean ", "3682": "ne e ", "3683": "va e ", "3684": "so i ", "3685": "ri e ", "3686": "gi a ", "3687": "ma e ", "3688": "que\u2019 ", "3689": "do e ", "3690": "da e ", "3691": "stea ", "3692": "gnel ", "3693": "chi\u00f2 ", "3694": "buon ", "3695": "le a ", "3696": "ci e ", "3697": "n\u2019 \u00e8 ", "3698": "a al ", "3699": "maio ", "3700": "le i ", "3701": "com\u2019 ", "3702": "quor ", "3703": "chie ", "3704": "ma o ", "3705": "ti o ", "3706": "da a ", "3707": "\u00e8 \u2019n ", "3708": "guan ", "3709": "di o ", "3710": "nail ", "3711": "ra \u00e8 ", "3712": "v\u2019 \u00e8 ", "3713": "so o ", "3714": "te i ", "3715": "ce e ", "3716": "stai ", "3717": "lo \u00e8 ", "3718": "ghie ", "3719": "ca o ", "3720": "o in ", "3721": "ci \u00e8 ", "3722": "breo ", "3723": "no \u00e8 ", "3724": "ghin ", "3725": "trae ", "3726": "trio ", "3727": "ni \u00e8 ", "3728": "de \u00e8 ", "3729": "ra o ", "3730": "spre ", "3731": "di i ", "3732": "diam ", "3733": "te \u00e8 ", "3734": "a \u2019l ", "3735": "sion ", "3736": "stui ", "3737": "s\u2019 \u00e8 ", "3738": "vier ", "3739": "trar ", "3740": "gnor ", "3741": "tean ", "3742": "mi a ", "3743": "muor ", "3744": "da i ", "3745": "d\u2019 \u00e8 ", "3746": "i in ", "3747": "lo e ", "3748": "be e ", "3749": "suol ", "3750": "lien ", "3751": "s\u00e9 i ", "3752": "a il ", "3753": "o \u2019n ", "3754": "scel ", "3755": "rien ", "3756": "bia\u2019 ", "3757": "ch e ", "3758": "pri\u2019 ", "3759": "ga e ", "3760": "tr\u00e0s ", "3761": "co e ", "3762": "chio ", "3763": "tram ", "3764": "buoi ", "3765": "la a ", "3766": "duol ", "3767": "pia\u2019 ", "3768": "c\u2019 \u00e8 ", "3769": "sa i ", "3770": "gnon ", "3771": "prei ", "3772": "pron ", "3773": "be a ", "3774": "spro ", "3775": "to i ", "3776": "runt ", "3777": "ziar ", "3778": "suo\u2019 ", "3779": "nian ", "3780": "bian ", "3781": "guai ", "3782": "ciul ", "3783": "po o ", "3784": "lier ", "3785": "tuoi ", "3786": "pi e ", "3787": "ve e ", "3788": "dra\u2019 ", "3789": "si e ", "3790": "sa e ", "3791": "go \u00e8 ", "3792": "me a ", "3793": "cl\u00e8s ", "3794": "stei ", "3795": "quod ", "3796": "do o ", "3797": "r\u2019 a ", "3798": "re i ", "3799": "ca e ", "3800": "prir ", "3801": "si \u00e8 ", "3802": "to e ", "3803": "le o ", "3804": "gion ", "3805": "za \u00e8 ", "3806": "cia\u2019 ", "3807": "ra i ", "3808": "vi o ", "3809": "ce o ", "3810": "gli\u00f2 ", "3811": "pe i ", "3812": "va i ", "3813": "rian ", "3814": "ni o ", "3815": "ra a ", "3816": "me i ", "3817": "vi a ", "3818": "na e ", "3819": "bion ", "3820": "a in ", "3821": "guon ", "3822": "scio ", "3823": "slao ", "3824": "da io ", "3825": "s\u2019 ha ", "3826": "t\u2019 ha ", "3827": "s\u2019 un ", "3828": "ba in ", "3829": "tu \u2019l ", "3830": "gia \u00e8 ", "3831": "sta e ", "3832": "bra o ", "3833": "r\u00f2 \u2019l ", "3834": "b\u00f2 il ", "3835": "gui i ", "3836": "ra in ", "3837": "ra a\u2019 ", "3838": "be al ", "3839": "do ha ", "3840": "me ed ", "3841": "chier ", "3842": "v\u2019 e\u2019 ", "3843": "mia e ", "3844": "gia o ", "3845": "que e ", "3846": "tra \u00e8 ", "3847": "so il ", "3848": "sto \u00e8 ", "3849": "gli a ", "3850": "no un ", "3851": "be in ", "3852": "\u2019v\u2019 \u00e8 ", "3853": "zo al ", "3854": "sciar ", "3855": "lo il ", "3856": "t\u2019 om ", "3857": "ce al ", "3858": "sa in ", "3859": "ia il ", "3860": "mo il ", "3861": "tri \u00e8 ", "3862": "t\u2019 ho ", "3863": "ne ai ", "3864": "s\u2019 io ", "3865": "di il ", "3866": "le un ", "3867": "ne io ", "3868": "le or ", "3869": "da un ", "3870": "co io ", "3871": "di io ", "3872": "c\u2019 ho ", "3873": "che e ", "3874": "ia ed ", "3875": "ti in ", "3876": "sia e ", "3877": "pre i ", "3878": "dia i ", "3879": "che i ", "3880": "se ad ", "3881": "fa \u2019l ", "3882": "se e\u2019 ", "3883": "co un ", "3884": "tro e ", "3885": "to ad ", "3886": "le al ", "3887": "lo un ", "3888": "no in ", "3889": "da in ", "3890": "tro a ", "3891": "c\u2019 ha ", "3892": "no a\u2019 ", "3893": "fo or ", "3894": "ri al ", "3895": "to ha ", "3896": "si un ", "3897": "bio e ", "3898": "ti ei ", "3899": "va ad ", "3900": "l\u00e0 il ", "3901": "le in ", "3902": "so a\u2019 ", "3903": "v\u2019 \u00e8n ", "3904": "ne a\u2019 ", "3905": "mi ad ", "3906": "zi \u2019l ", "3907": "sce a ", "3908": "che \u2019 ", "3909": "dro e ", "3910": "ga il ", "3911": "strar ", "3912": "ha in ", "3913": "pe il ", "3914": "to ir ", "3915": "fu \u2019l ", "3916": "me ad ", "3917": "sce i ", "3918": "le il ", "3919": "pa or ", "3920": "la a\u2019 ", "3921": "sa \u2019l ", "3922": "l\u2019 un ", "3923": "li un ", "3924": "sco i ", "3925": "sto a ", "3926": "chion ", "3927": "de ed ", "3928": "tra i ", "3929": "mo ad ", "3930": "bre e ", "3931": "ti \u2019l ", "3932": "ve \u2019l ", "3933": "be il ", "3934": "ti \u2019n ", "3935": "me ai ", "3936": "dio e ", "3937": "ro ed ", "3938": "cio a ", "3939": "to ed ", "3940": "ha \u2019l ", "3941": "lo ed ", "3942": "bro e ", "3943": "rio e ", "3944": "so in ", "3945": "ti il ", "3946": "ne in ", "3947": "ca io ", "3948": "strai ", "3949": "be ed ", "3950": "qua o ", "3951": "sti o ", "3952": "stial ", "3953": "ne ed ", "3954": "li oh ", "3955": "tri o ", "3956": "gno e ", "3957": "ne al ", "3958": "ni in ", "3959": "gue \u00e8 ", "3960": "dri e ", "3961": "zo in ", "3962": "la in ", "3963": "smo a ", "3964": "gna e ", "3965": "mi \u2019l ", "3966": "pra e ", "3967": "v\u2019 i\u2019 ", "3968": "ma \u2019l ", "3969": "mo ha ", "3970": "co in ", "3971": "ne un ", "3972": "ni al ", "3973": "ria o ", "3974": "ro in ", "3975": "ro al ", "3976": "ce ha ", "3977": "re or ", "3978": "za un ", "3979": "ni \u2019l ", "3980": "ghiar ", "3981": "stier ", "3982": "temps ", "3983": "za il ", "3984": "va ed ", "3985": "l\u2019 ha ", "3986": "so \u2019l ", "3987": "ve al ", "3988": "ra ad ", "3989": "to i\u2019 ", "3990": "po io ", "3991": "to un ", "3992": "bra a ", "3993": "me in ", "3994": "zi un ", "3995": "go al ", "3996": "ro il ", "3997": "te \u2019n ", "3998": "pre a ", "3999": "gua a ", "4000": "se a\u2019 ", "4001": "zo \u2019l ", "4002": "gue a ", "4003": "di or ", "4004": "tri a ", "4005": "l\u2019 om ", "4006": "zia \u00e8 ", "4007": "ge ad ", "4008": "ch\u00e9 a ", "4009": "p\u2019 io ", "4010": "zii e ", "4011": "lo in ", "4012": "ra io ", "4013": "tra \u2019 ", "4014": "ne il ", "4015": "ci al ", "4016": "gia e ", "4017": "la \u2019l ", "4018": "be un ", "4019": "ta io ", "4020": "le ha ", "4021": "ge un ", "4022": "li ei ", "4023": "ri \u2019l ", "4024": "te a\u2019 ", "4025": "te \u2019l ", "4026": "bi il ", "4027": "ra al ", "4028": "za or ", "4029": "zi il ", "4030": "lo a\u2019 ", "4031": "zio a ", "4032": "si \u2019n ", "4033": "co u\u2019 ", "4034": "z\u00f2 il ", "4035": "su in ", "4036": "na ad ", "4037": "chi a ", "4038": "dro o ", "4039": "gno a ", "4040": "glier ", "4041": "co ai ", "4042": "gue e ", "4043": "s\u2019 ei ", "4044": "di ha ", "4045": "no il ", "4046": "si il ", "4047": "ria \u00e8 ", "4048": "ta ed ", "4049": "di in ", "4050": "da il ", "4051": "ri a\u2019 ", "4052": "n\u2019 ha ", "4053": "r\u00f2 il ", "4054": "scion ", "4055": "do io ", "4056": "zi ai ", "4057": "ca in ", "4058": "sti e ", "4059": "va \u2019n ", "4060": "ro i\u2019 ", "4061": "re \u2019n ", "4062": "te ai ", "4063": "de un ", "4064": "pa ed ", "4065": "pa \u2019l ", "4066": "mi al ", "4067": "na al ", "4068": "te un ", "4069": "f\u00e9 \u2019l ", "4070": "be \u2019l ", "4071": "ni or ", "4072": "v\u2019 el ", "4073": "stion ", "4074": "si u\u2019 ", "4075": "pe ad ", "4076": "ge in ", "4077": "si el ", "4078": "mi il ", "4079": "pa in ", "4080": "n\u00e9 \u2019l ", "4081": "de in ", "4082": "ce un ", "4083": "se \u2019l ", "4084": "pi in ", "4085": "si \u2019l ", "4086": "ma a\u2019 ", "4087": "po ed ", "4088": "gi \u2019l ", "4089": "sta o ", "4090": "me \u2019n ", "4091": "m\u2019 io ", "4092": "glian ", "4093": "va io ", "4094": "se \u2019n ", "4095": "m\u2019 ha ", "4096": "gli e ", "4097": "ma un ", "4098": "da i\u2019 ", "4099": "di ad ", "4100": "ch\u2019 \u00e8 ", "4101": "la ed ", "4102": "li ad ", "4103": "ra \u2019l ", "4104": "sci a ", "4105": "pri a ", "4106": "ro ad ", "4107": "no u\u2019 ", "4108": "sco e ", "4109": "ri in ", "4110": "glion ", "4111": "to or ", "4112": "zia a ", "4113": "sce e ", "4114": "tro i ", "4115": "le ir ", "4116": "gliar ", "4117": "se i\u2019 ", "4118": "di un ", "4119": "pr\u2019 a ", "4120": "chiai ", "4121": "pio a ", "4122": "s\u00ec \u2019l ", "4123": "te al ", "4124": "re ed ", "4125": "stral ", "4126": "li \u2019l ", "4127": "ra or ", "4128": "me a\u2019 ", "4129": "tr\u2019 \u00e8 ", "4130": "to il ", "4131": "le io ", "4132": "va in ", "4133": "ti al ", "4134": "vi il ", "4135": "zio e ", "4136": "na un ", "4137": "bia e ", "4138": "se un ", "4139": "re il ", "4140": "qua e ", "4141": "st\u2019 \u00e8 ", "4142": "co a\u2019 ", "4143": "lo ha ", "4144": "stran ", "4145": "sti \u00e8 ", "4146": "chi \u00e8 ", "4147": "sme e ", "4148": "se il ", "4149": "c\u2019 io ", "4150": "si al ", "4151": "ria i ", "4152": "no ai ", "4153": "ta in ", "4154": "go il ", "4155": "se ir ", "4156": "ci ha ", "4157": "ra ed ", "4158": "d\u2019 el ", "4159": "gua e ", "4160": "no i\u2019 ", "4161": "bi in ", "4162": "sti a ", "4163": "va \u2019l ", "4164": "ra un ", "4165": "le ab ", "4166": "be i\u2019 ", "4167": "re ad ", "4168": "se in ", "4169": "ro un ", "4170": "va ai ", "4171": "schio ", "4172": "vi in ", "4173": "ra ha ", "4174": "za oh ", "4175": "mi in ", "4176": "re in ", "4177": "sta \u00e8 ", "4178": "vi un ", "4179": "g\u00ec \u2019l ", "4180": "ria e ", "4181": "b\u2019 io ", "4182": "de ad ", "4183": "ti ai ", "4184": "t\u00ec \u2019l ", "4185": "stiam ", "4186": "co il ", "4187": "re i\u2019 ", "4188": "l\u2019 ho ", "4189": "ro a\u2019 ", "4190": "ti io ", "4191": "li io ", "4192": "la io ", "4193": "me \u2019l ", "4194": "r\u2019 al ", "4195": "de il ", "4196": "ti ed ", "4197": "v\u2019 ho ", "4198": "to al ", "4199": "rio a ", "4200": "t\u2019 i\u2019 ", "4201": "do or ", "4202": "dio a ", "4203": "zi al ", "4204": "ch\u2019 a ", "4205": "mi un ", "4206": "mo ed ", "4207": "g\u2019 io ", "4208": "za ed ", "4209": "ni il ", "4210": "s\u2019 e\u2019 ", "4211": "mo \u2019l ", "4212": "va or ", "4213": "gri e ", "4214": "se io ", "4215": "ci in ", "4216": "te u\u2019 ", "4217": "svuol ", "4218": "ta al ", "4219": "ro or ", "4220": "pre e ", "4221": "ve ad ", "4222": "sa il ", "4223": "so al ", "4224": "tri e ", "4225": "ce il ", "4226": "le \u2019l ", "4227": "l\u00e0 \u2019l ", "4228": "re ha ", "4229": "si in ", "4230": "gliel ", "4231": "ba il ", "4232": "ge or ", "4233": "si ad ", "4234": "n\u00f2 in ", "4235": "ti ha ", "4236": "mi ed ", "4237": "ste a ", "4238": "v\u00f2 \u2019l ", "4239": "te or ", "4240": "ta ha ", "4241": "me un ", "4242": "glior ", "4243": "gio e ", "4244": "po al ", "4245": "sciai ", "4246": "de al ", "4247": "se al ", "4248": "no \u2019l ", "4249": "lo ad ", "4250": "n\u2019 io ", "4251": "to a\u2019 ", "4252": "li or ", "4253": "ra il ", "4254": "za al ", "4255": "di \u2019l ", "4256": "bo in ", "4257": "ria \u2019 ", "4258": "re al ", "4259": "do ed ", "4260": "za \u2019l ", "4261": "si or ", "4262": "gluol ", "4263": "gno \u00e8 ", "4264": "zi or ", "4265": "vra i ", "4266": "gni e ", "4267": "ca al ", "4268": "zi ad ", "4269": "so un ", "4270": "mo al ", "4271": "ghe e ", "4272": "gna o ", "4273": "di a\u2019 ", "4274": "na il ", "4275": "t\u2019 il ", "4276": "v\u2019 io ", "4277": "va a\u2019 ", "4278": "ve un ", "4279": "ci \u2019l ", "4280": "lio a ", "4281": "gra o ", "4282": "v\u2019 or ", "4283": "ne ha ", "4284": "gi al ", "4285": "bro \u00e8 ", "4286": "cia e ", "4287": "dre a ", "4288": "qua \u00e8 ", "4289": "va un ", "4290": "t\u2019 io ", "4291": "gui e ", "4292": "bi \u2019l ", "4293": "d\u2019 e\u2019 ", "4294": "bra e ", "4295": "na ed ", "4296": "gliea ", "4297": "la il ", "4298": "t\u00e0 \u2019l ", "4299": "co \u2019l ", "4300": "ti ad ", "4301": "g\u00f2 \u2019l ", "4302": "no ed ", "4303": "cia a ", "4304": "di \u2019n ", "4305": "bo a\u2019 ", "4306": "tro \u00e8 ", "4307": "do ad ", "4308": "vo in ", "4309": "re ho ", "4310": "te io ", "4311": "no al ", "4312": "zo il ", "4313": "ma \u2019n ", "4314": "ghe a ", "4315": "di al ", "4316": "no ad ", "4317": "glien ", "4318": "za ha ", "4319": "n\u00f2 \u2019l ", "4320": "t\u2019 el ", "4321": "cio e ", "4322": "tra a ", "4323": "ne ad ", "4324": "bre a ", "4325": "ne \u2019l ", "4326": "scian ", "4327": "gni a ", "4328": "do un ", "4329": "go \u2019l ", "4330": "ci or ", "4331": "ia in ", "4332": "do in ", "4333": "ta ad ", "4334": "tre e ", "4335": "to in ", "4336": "ma il ", "4337": "ve in ", "4338": "na ha ", "4339": "sta a ", "4340": "mi a\u2019 ", "4341": "ce u\u2019 ", "4342": "ce in ", "4343": "tr\u2019 a ", "4344": "ge il ", "4345": "di ed ", "4346": "ra \u2019n ", "4347": "dro a ", "4348": "sa ad ", "4349": "dre e ", "4350": "ge al ", "4351": "ca il ", "4352": "gi un ", "4353": "mo in ", "4354": "che a ", "4355": "sto e ", "4356": "le ad ", "4357": "su \u2019l ", "4358": "no ha ", "4359": "po ha ", "4360": "gio a ", "4361": "te ed ", "4362": "tra e ", "4363": "de \u2019l ", "4364": "te in ", "4365": "fu il ", "4366": "cia o ", "4367": "stian ", "4368": "t\u00e9 \u2019l ", "4369": "ria a ", "4370": "ga in ", "4371": "lo al ", "4372": "do \u2019l ", "4373": "vi \u2019l ", "4374": "ti un ", "4375": "t\u00f2 \u2019l ", "4376": "da or ", "4377": "va al ", "4378": "re a\u2019 ", "4379": "re ir ", "4380": "na \u2019n ", "4381": "te ad ", "4382": "po il ", "4383": "s\u2019 el ", "4384": "gno i ", "4385": "da al ", "4386": "ci il ", "4387": "s\u00e9 il ", "4388": "n\u2019 ei ", "4389": "po \u2019l ", "4390": "ch\u00e9 i ", "4391": "va il ", "4392": "ti a\u2019 ", "4393": "lia e ", "4394": "lio e ", "4395": "gna a ", "4396": "me il ", "4397": "zio \u00e8 ", "4398": "d\u00f2 \u2019l ", "4399": "ste i ", "4400": "la un ", "4401": "lo or ", "4402": "chi e ", "4403": "za in ", "4404": "d\u2019 un ", "4405": "ci a\u2019 ", "4406": "da \u2019l ", "4407": "li in ", "4408": "ve il ", "4409": "be or ", "4410": "pio e ", "4411": "co ad ", "4412": "gia a ", "4413": "te ho ", "4414": "gna i ", "4415": "me al ", "4416": "na ei ", "4417": "do al ", "4418": "v\u2019 ei ", "4419": "ta il ", "4420": "pe \u2019l ", "4421": "se or ", "4422": "le i\u2019 ", "4423": "d\u2019 i\u2019 ", "4424": "r\u00ec \u2019l ", "4425": "po in ", "4426": "gi il ", "4427": "re un ", "4428": "la al ", "4429": "ia oh ", "4430": "mo un ", "4431": "te il ", "4432": "chiar ", "4433": "ghi e ", "4434": "to \u2019n ", "4435": "sa un ", "4436": "dia e ", "4437": "d\u2019 ei ", "4438": "ma in ", "4439": "to \u2019l ", "4440": "na in ", "4441": "zia o ", "4442": "que \u00e8 ", "4443": "gna \u00e8 ", "4444": "qua a ", "4445": "za i\u2019 ", "4446": "sca i ", "4447": "qui e ", "4448": "li il ", "4449": "co al ", "4450": "lo ai ", "4451": "que a ", "4452": "ste e ", "4453": "ge ai ", "4454": "zia e ", "4455": "ta un ", "4456": "se ho ", "4457": "t\u00f2 un ", "4458": "to io ", "4459": "ta \u2019l ", "4460": "lio \u00e8 ", "4461": "chian ", "4462": "no io ", "4463": "do il ", "4464": "li ha ", "4465": "v\u2019 ha ", "4466": "ro od ", "4467": "te ha ", "4468": "s\u2019 i\u2019 ", "4469": "so ad ", "4470": "d\u2019 ir ", "4471": "do a\u2019 ", "4472": "li al ", "4473": "ne or ", "4474": "d\u2019 io ", "4475": "vrien ", "4476": "pie a ", "4477": "rio ha ", "4478": "che \u2019l ", "4479": "tri ad ", "4480": "che il ", "4481": "gli al ", "4482": "ch\u2019 om ", "4483": "tre al ", "4484": "gia \u2019l ", "4485": "ghi al ", "4486": "gue in ", "4487": "glie e ", "4488": "gno il ", "4489": "ba e \u2019 ", "4490": "ch\u2019 i\u2019 ", "4491": "tro i\u2019 ", "4492": "glia o ", "4493": "pria e ", "4494": "stio e ", "4495": "qua al ", "4496": "pre a\u2019 ", "4497": "tri or ", "4498": "li han ", "4499": "ch\u2019 io ", "4500": "chi \u2019n ", "4501": "trio e ", "4502": "scia a ", "4503": "ri e \u2019 ", "4504": "dri ai ", "4505": "l\u2019 uom ", "4506": "sta al ", "4507": "gi\u00f9 \u2019l ", "4508": "sc\u00ec \u2019l ", "4509": "chi ha ", "4510": "gio al ", "4511": "gne \u2019l ", "4512": "tro un ", "4513": "tra \u2019l ", "4514": "tro in ", "4515": "sta in ", "4516": "ghiaio ", "4517": "ch\u2019 ei ", "4518": "ch\u00e9 il ", "4519": "lia il ", "4520": "gio ad ", "4521": "chi \u2019l ", "4522": "ro hai ", "4523": "gia or ", "4524": "dre al ", "4525": "gno a\u2019 ", "4526": "ch\u2019 a\u2019 ", "4527": "gro un ", "4528": "ch\u2019 in ", "4529": "ch\u2019 un ", "4530": "gna a\u2019 ", "4531": "tre in ", "4532": "gi\u00e0 \u2019l ", "4533": "rio il ", "4534": "ch\u2019 or ", "4535": "sto in ", "4536": "spra e ", "4537": "gliuol ", "4538": "pre al ", "4539": "sce il ", "4540": "chi in ", "4541": "stie e ", "4542": "ch\u2019 ad ", "4543": "pra in ", "4544": "stia e ", "4545": "pra \u2019l ", "4546": "st\u2019 ho ", "4547": "ria al ", "4548": "qua in ", "4549": "gu\u00ec \u2019l ", "4550": "te han ", "4551": "sce in ", "4552": "gi\u2019 or ", "4553": "gna in ", "4554": "tra in ", "4555": "sto il ", "4556": "dio in ", "4557": "chi ei ", "4558": "sc\u2019 io ", "4559": "gliuoi ", "4560": "se uom ", "4561": "ne e \u2019 ", "4562": "pa e \u2019 ", "4563": "n\u2019 uom ", "4564": "sia \u2019l ", "4565": "tro ha ", "4566": "que i\u2019 ", "4567": "tre un ", "4568": "sto io ", "4569": "t\u2019 hai ", "4570": "ro e \u2019 ", "4571": "ch\u00e9 \u2019l ", "4572": "ne han ", "4573": "zia il ", "4574": "glia e ", "4575": "c\u2019 ha\u2019 ", "4576": "gna un ", "4577": "chio \u00e8 ", "4578": "sta un ", "4579": "tr\u2019 al ", "4580": "vra \u2019l ", "4581": "gna \u2019l ", "4582": "tre il ", "4583": "glio e ", "4584": "tri \u2019l ", "4585": "chia e ", "4586": "tro io ", "4587": "ra han ", "4588": "schi o ", "4589": "c\u2019 hai ", "4590": "stra \u00e8 ", "4591": "stro a ", "4592": "gio il ", "4593": "tr\u2019 a\u2019 ", "4594": "sta \u2019n ", "4595": "dro in ", "4596": "ghio e ", "4597": "tro ed ", "4598": "sche o ", "4599": "t\u2019 ha\u2019 ", "4600": "so hai ", "4601": "pia in ", "4602": "di e \u2019 ", "4603": "pu\u00f2 \u2019l ", "4604": "gia il ", "4605": "m\u2019 hai ", "4606": "tr\u2019 io ", "4607": "tre i\u2019 ", "4608": "gia un ", "4609": "gne al ", "4610": "gno al ", "4611": "ste in ", "4612": "gli un ", "4613": "ti han ", "4614": "scia o ", "4615": "bia \u2019l ", "4616": "ci\u00f2 \u2019l ", "4617": "cia al ", "4618": "ch\u2019 ai ", "4619": "bio ed ", "4620": "stro e ", "4621": "sto ad ", "4622": "que al ", "4623": "gno in ", "4624": "sco il ", "4625": "gue il ", "4626": "glia \u00e8 ", "4627": "ghi in ", "4628": "pra ed ", "4629": "gi\u00f9 il ", "4630": "che \u2019n ", "4631": "lio ed ", "4632": "che in ", "4633": "fra \u2019l ", "4634": "smo al ", "4635": "ci e \u2019 ", "4636": "stra e ", "4637": "stro o ", "4638": "gno ad ", "4639": "qui \u2019l ", "4640": "gno ed ", "4641": "gi\u00e0 il ", "4642": "chio a ", "4643": "pre in ", "4644": "stra a ", "4645": "pre ha ", "4646": "cia in ", "4647": "pi\u00e9 \u2019l ", "4648": "sti \u2019l ", "4649": "cia il ", "4650": "me e \u2019 ", "4651": "ch\u2019 al ", "4652": "bia in ", "4653": "chi il ", "4654": "cio ed ", "4655": "schi a ", "4656": "sa e \u2019 ", "4657": "scio a ", "4658": "que a\u2019 ", "4659": "gni in ", "4660": "tro ai ", "4661": "chi al ", "4662": "gna il ", "4663": "ghi \u2019l ", "4664": "li ha\u2019 ", "4665": "cia ad ", "4666": "bra ad ", "4667": "gl\u2019 io ", "4668": "sto al ", "4669": "ti e \u2019 ", "4670": "pria o ", "4671": "qua il ", "4672": "po e \u2019 ", "4673": "pi\u00f9 \u2019l ", "4674": "ti e i ", "4675": "mia al ", "4676": "schiar ", "4677": "stro i ", "4678": "ch\u00e9 \u2019n ", "4679": "ch\u2019 e\u2019 ", "4680": "sta il ", "4681": "s\u2019 hai ", "4682": "tro il ", "4683": "que il ", "4684": "ria il ", "4685": "ste il ", "4686": "tro ad ", "4687": "zia in ", "4688": "cia ir ", "4689": "nio al ", "4690": "sti il ", "4691": "tra i\u2019 ", "4692": "que ad ", "4693": "glio o ", "4694": "rio ho ", "4695": "ch\u2019 \u00e8i ", "4696": "que in ", "4697": "tro al ", "4698": "to hai ", "4699": "glia a ", "4700": "cea il ", "4701": "che un ", "4702": "dia in ", "4703": "stro \u00e8 ", "4704": "due \u2019l ", "4705": "nia il ", "4706": "vea \u2019l ", "4707": "glio a ", "4708": "\u2019ve \u2019l ", "4709": "se\u2019 in ", "4710": "tra il ", "4711": "chio e ", "4712": "tro a\u2019 ", "4713": "tro \u2019l ", "4714": "ne e i ", "4715": "ch\u2019 el ", "4716": "va e i ", "4717": "l\u2019 hai ", "4718": "di\u2019 \u2019l ", "4719": "m\u2019 han ", "4720": "sti in ", "4721": "tra al ", "4722": "gno ha ", "4723": "gio in ", "4724": "zie al ", "4725": "cia un ", "4726": "gno or ", "4727": "fia il ", "4728": "ghia a ", "4729": "tri il ", "4730": "dria e ", "4731": "gua in ", "4732": "so\u2019 \u2019n ", "4733": "stri e ", "4734": "sti ha ", "4735": "ni e i ", "4736": "d\u2019 uom ", "4737": "che a\u2019 ", "4738": "na\u2019 il ", "4739": "che al ", "4740": "bra od ", "4741": "ni e \u2019 ", "4742": "zio al ", "4743": "gne uom ", "4744": "to o al ", "4745": "de e \u2019n ", "4746": "dre e \u2019 ", "4747": "glia in ", "4748": "bre e \u2019 ", "4749": "glie in ", "4750": "scia il ", "4751": "si e \u2019l ", "4752": "be e \u2019l ", "4753": "glie \u2019l ", "4754": "ci e \u2019l ", "4755": "chio al ", "4756": "re e \u2019l ", "4757": "ta e \u2019l ", "4758": "glia al ", "4759": "chio il ", "4760": "l\u2019 \u00e8 \u2019l ", "4761": "schia e ", "4762": "glia il ", "4763": "go \u00e8 in ", "4764": "ca e \u2019l ", "4765": "va e \u2019n ", "4766": "go e \u2019l ", "4767": "to \u00e8 \u2019l ", "4768": "ga e \u2019l ", "4769": "dia e i ", "4770": "to e \u2019l ", "4771": "m\u2019 \u00e8 \u2019l ", "4772": "stra \u2019l ", "4773": "no e \u2019l ", "4774": "me e \u2019l ", "4775": "se e \u2019l ", "4776": "sci\u00f2 il ", "4777": "chia al ", "4778": "na e \u2019l ", "4779": "po e \u2019l ", "4780": "ma e \u2019l ", "4781": "stro il ", "4782": "stro or ", "4783": "chio ha ", "4784": "lo \u00e8 in ", "4785": "te e \u2019l ", "4786": "so e \u2019l ", "4787": "do e \u2019n ", "4788": "bo e \u2019l ", "4789": "mi e \u2019l ", "4790": "ra e \u2019l ", "4791": "mo e \u2019l ", "4792": "vo e \u2019l ", "4793": "glio in ", "4794": "v\u2019 \u00e8 \u2019l ", "4795": "ne e \u2019l ", "4796": "ro e \u2019l ", "4797": "stro ed ", "4798": "lio e i ", "4799": "tra e \u2019 ", "4800": "sa e \u2019l ", "4801": "m\u2019 \u00e8 il ", "4802": "ce e \u2019l ", "4803": "stra il ", "4804": "stro in ", "4805": "la e \u2019l ", "4806": "glio ai ", "4807": "schio e ", "4808": "ta e \u2019n ", "4809": "glia un ", "4810": "stri in ", "4811": "me e \u2019n ", "4812": "de e \u2019l ", "4813": "ti e \u2019l ", "4814": "va e \u2019l ", "4815": "za e \u2019l ", "4816": "stia ad ", "4817": "glio or ", "4818": "zo e \u2019l ", "4819": "chio in ", "4820": "le e \u2019l ", "4821": "co e \u2019l ", "4822": "che e \u2019 ", "4823": "ch\u2019 uom ", "4824": "tre e \u2019l ", "4825": "s\u2019 i\u2019 \u2019l ", "4826": "tra e \u2019l ", "4827": "st\u2019 \u00e8 \u2019l ", "4828": "gio e \u2019l ", "4829": "dio e \u2019l ", "4830": "ria \u00e8 \u2019l ", "4831": "chi e \u2019l ", "4832": "zio e \u2019l ", "4833": "dre e \u2019l ", "4834": "sta e \u2019l ", "4835": "to ha \u2019l ", "4836": "sti \u00e8 \u2019l ", "4837": "tr\u2019 \u00e8 \u2019l ", "4838": "so ha \u2019l ", "4839": "zie e \u2019l ", "4840": "d\u2019 io \u2019l ", "4841": "c\u2019 ha \u2019l ", "4842": "bia e \u2019l ", "4843": "schi uom ", "4844": "ria e \u2019l ", "4845": "v\u2019 ha \u2019l ", "4846": "pra e \u2019l ", "4847": "bra e \u2019l ", "4848": "te ha in ", "4849": "cia e \u2019l ", "4850": "chie e \u2019n ", "4851": "chio o \u2019l ", "4852": "ch\u2019 i\u2019 \u2019l ", "4853": "ch\u2019 io \u2019l ", "4854": "chio e \u2019l ", "4855": "scia e \u2019l ", "4856": "stro e \u2019l ", "4857": "glio e \u2019l "}