{"0": "", "1": "<v>", "2": "</v>", "3": "<t>", "4": "</t>", "5": "ch\u2019 e\u2019 \u2019n", "6": "ch\u2019 io \u2019n", "7": "sti a \u2019n", "8": "t\u2019 ho in", "9": "chia an", "10": "chia of", "11": "chie et", "12": "chio an", "13": "chio at", "14": "chio in", "15": "dio han", "16": "d\u2019 i\u2019 a", "17": "glia ac", "18": "glia al", "19": "glia as", "20": "glia es", "21": "glia in", "22": "glie al", "23": "glie an", "24": "glie eb", "25": "glio an", "26": "glio as", "27": "glio es", "28": "glio in", "29": "glio on", "30": "li \u00e8 in", "31": "lo e \u2019n", "32": "mi smar", "33": "n\u2019 \u00e8 im", "34": "re a \u2019n", "35": "sche ab", "36": "sche er", "37": "scia al", "38": "scia an", "39": "si e \u2019n", "40": "stra ap", "41": "stra ef", "42": "stra in", "43": "stre in", "44": "stri af", "45": "stri al", "46": "stri an", "47": "stri at", "48": "stri av", "49": "stri ef", "50": "stro ac", "51": "stro al", "52": "stro an", "53": "stro as", "54": "stro av", "55": "stro eb", "56": "stro es", "57": "stro im", "58": "stro in", "59": "stro oc", "60": "stro uc", "61": "str\u2019 ar", "62": "str\u2019 or", "63": "ti e ar", "64": "ti e \u2019n", "65": "trio al", "66": "za e in", "67": "bia an", "68": "bia in", "69": "bra av", "70": "bra in", "71": "bre an", "72": "bre et", "73": "bre in", "74": "bri ap", "75": "che an", "76": "che ar", "77": "che ha", "78": "che in", "79": "che om", "80": "che op", "81": "che \u2019m", "82": "che \u2019n", "83": "chi ac", "84": "chi af", "85": "chi al", "86": "chi am", "87": "chi an", "88": "chi ap", "89": "chi ar", "90": "chi in", "91": "chi on", "92": "chio a", "93": "chio o", "94": "chio u", "95": "ch\u00e9 ap", "96": "ch\u00e9 as", "97": "ch\u00e9 in", "98": "ch\u2019 ab", "99": "ch\u2019 ac", "100": "ch\u2019 ad", "101": "ch\u2019 ag", "102": "ch\u2019 al", "103": "ch\u2019 am", "104": "ch\u2019 an", "105": "ch\u2019 ap", "106": "ch\u2019 ar", "107": "ch\u2019 as", "108": "ch\u2019 at", "109": "ch\u2019 av", "110": "ch\u2019 eb", "111": "ch\u2019 el", "112": "ch\u2019 en", "113": "ch\u2019 er", "114": "ch\u2019 es", "115": "ch\u2019 et", "116": "ch\u2019 in", "117": "ch\u2019 og", "118": "ch\u2019 or", "119": "cia ar", "120": "cia im", "121": "cia on", "122": "cie in", "123": "cio al", "124": "cio an", "125": "cio ap", "126": "cio as", "127": "cio et", "128": "co e i", "129": "c\u2019 han", "130": "dia as", "131": "dre al", "132": "dre an", "133": "dre as", "134": "dre eb", "135": "dre es", "136": "d\u2019 han", "137": "ghe on", "138": "gh\u2019 es", "139": "gia al", "140": "gia ar", "141": "gia in", "142": "gio et", "143": "gio in", "144": "gio ol", "145": "gio on", "146": "gio uc", "147": "gi\u00e0 in", "148": "glia a", "149": "glia o", "150": "glia u", "151": "glio e", "152": "glio o", "153": "glio u", "154": "gna as", "155": "gna in", "156": "gne ac", "157": "gne al", "158": "gne ef", "159": "gne er", "160": "gne im", "161": "gne in", "162": "gne uo", "163": "gni al", "164": "gni an", "165": "gno ae", "166": "gno af", "167": "gno al", "168": "gno am", "169": "gno in", "170": "go han", "171": "gue an", "172": "gue on", "173": "gue or", "174": "li han", "175": "lia an", "176": "lio an", "177": "lio as", "178": "lio in", "179": "l\u2019 han", "180": "l\u2019 \u00e8 u", "181": "mia in", "182": "mia \u2019n", "183": "mio in", "184": "mio \u2019n", "185": "m\u2019 han", "186": "ne han", "187": "nio im", "188": "n\u2019 han", "189": "pie or", "190": "pio on", "191": "pi\u00f9 ap", "192": "pi\u00f9 in", "193": "pi\u00f9 \u2019n", "194": "pre ac", "195": "pre al", "196": "pre ar", "197": "pre at", "198": "pre es", "199": "pre in", "200": "pr\u2019 ar", "201": "qua im", "202": "qua in", "203": "qua of", "204": "qua on", "205": "que al", "206": "que es", "207": "qu\u2019 an", "208": "re e a", "209": "ri han", "210": "ria in", "211": "ria of", "212": "ria on", "213": "rio an", "214": "sce al", "215": "sce an", "216": "sce as", "217": "sce el", "218": "schian", "219": "schiat", "220": "schiet", "221": "scia e", "222": "scio e", "223": "sco al", "224": "sco an", "225": "sio in", "226": "sma in", "227": "sta ai", "228": "sta al", "229": "sta an", "230": "sta im", "231": "sta in", "232": "sta og", "233": "sta ol", "234": "ste an", "235": "ste in", "236": "sti al", "237": "sti an", "238": "sti av", "239": "sti el", "240": "sti er", "241": "sti es", "242": "sti in", "243": "sti oc", "244": "sti on", "245": "sti or", "246": "sti un", "247": "sto ac", "248": "sto al", "249": "sto an", "250": "sto ap", "251": "sto ar", "252": "sto at", "253": "sto es", "254": "sto im", "255": "sto in", "256": "sto of", "257": "sto on", "258": "sto \u2019m", "259": "sto \u2019n", "260": "stra a", "261": "stra e", "262": "stra i", "263": "stra u", "264": "stri a", "265": "stri o", "266": "stro a", "267": "stro e", "268": "stro o", "269": "stro u", "270": "str\u2019 u", "271": "st\u2019 ac", "272": "st\u2019 al", "273": "st\u2019 an", "274": "st\u2019 ar", "275": "st\u2019 es", "276": "st\u2019 in", "277": "st\u2019 of", "278": "st\u2019 ot", "279": "st\u2019 ul", "280": "suo im", "281": "te han", "282": "ti han", "283": "tra an", "284": "tra av", "285": "tra ef", "286": "tra op", "287": "tra \u2019m", "288": "tre an", "289": "tre in", "290": "tre os", "291": "tri af", "292": "tri ap", "293": "tri as", "294": "tri es", "295": "tri in", "296": "tri of", "297": "tro ab", "298": "tro ac", "299": "tro al", "300": "tro an", "301": "tro ap", "302": "tro ar", "303": "tro as", "304": "tro av", "305": "tro et", "306": "tro im", "307": "tro in", "308": "tro of", "309": "tro on", "310": "tro \u2019m", "311": "tr\u2019 al", "312": "tr\u2019 am", "313": "tr\u2019 ar", "314": "tr\u2019 om", "315": "t\u2019 han", "316": "vea \u2019m", "317": "vi \u00e8 a", "318": "vio in", "319": "zia il", "320": "zia on", "321": "zia or", "322": "zie ec", "323": "ba in", "324": "ba un", "325": "be al", "326": "be ar", "327": "be as", "328": "be av", "329": "be on", "330": "bi al", "331": "bo al", "332": "bo av", "333": "bo on", "334": "bra a", "335": "bra e", "336": "bra u", "337": "bre a", "338": "bre o", "339": "b\u2019 es", "340": "ca an", "341": "ca en", "342": "ca er", "343": "ca in", "344": "ca on", "345": "ce ac", "346": "ce af", "347": "ce al", "348": "ce an", "349": "ce ar", "350": "ce as", "351": "ce at", "352": "ce au", "353": "ce av", "354": "ce es", "355": "ce et", "356": "ce eu", "357": "ce im", "358": "ce in", "359": "ce on", "360": "cea u", "361": "che a", "362": "che e", "363": "che u", "364": "chi a", "365": "chi e", "366": "chi o", "367": "chi u", "368": "chian", "369": "chiap", "370": "chiar", "371": "chias", "372": "chiet", "373": "chioc", "374": "ch\u2019 a", "375": "ch\u2019 e", "376": "ch\u2019 i", "377": "ch\u2019 o", "378": "ch\u2019 u", "379": "ch\u2019 \u00ef", "380": "ci ad", "381": "ci af", "382": "ci al", "383": "ci am", "384": "ci an", "385": "ci ap", "386": "ci ar", "387": "ci as", "388": "ci at", "389": "ci av", "390": "ci in", "391": "ci or", "392": "ci \u2019n", "393": "cia a", "394": "cia e", "395": "cia o", "396": "cio a", "397": "cio e", "398": "co ac", "399": "co ad", "400": "co al", "401": "co an", "402": "co ap", "403": "co ar", "404": "co at", "405": "co av", "406": "co eb", "407": "co er", "408": "co et", "409": "co in", "410": "co on", "411": "cro a", "412": "c\u2019 en", "413": "c\u2019 im", "414": "da an", "415": "da in", "416": "de ac", "417": "de af", "418": "de ag", "419": "de al", "420": "de am", "421": "de an", "422": "de ap", "423": "de ar", "424": "de as", "425": "de au", "426": "de er", "427": "de eu", "428": "de in", "429": "de of", "430": "de om", "431": "de on", "432": "de or", "433": "de \u2019n", "434": "dea u", "435": "di ab", "436": "di ac", "437": "di ad", "438": "di af", "439": "di al", "440": "di an", "441": "di av", "442": "di az", "443": "di es", "444": "di im", "445": "di in", "446": "di of", "447": "di og", "448": "di ol", "449": "di om", "450": "di on", "451": "di or", "452": "dio i", "453": "do ac", "454": "do af", "455": "do al", "456": "do am", "457": "do an", "458": "do ap", "459": "do ar", "460": "do as", "461": "do at", "462": "do eb", "463": "do ec", "464": "do el", "465": "do er", "466": "do es", "467": "do im", "468": "do in", "469": "do oc", "470": "do ol", "471": "do on", "472": "do or", "473": "dre e", "474": "d\u2019 ab", "475": "d\u2019 ac", "476": "d\u2019 af", "477": "d\u2019 al", "478": "d\u2019 am", "479": "d\u2019 an", "480": "d\u2019 ap", "481": "d\u2019 ar", "482": "d\u2019 as", "483": "d\u2019 at", "484": "d\u2019 au", "485": "d\u2019 az", "486": "d\u2019 eb", "487": "d\u2019 el", "488": "d\u2019 en", "489": "d\u2019 er", "490": "d\u2019 es", "491": "d\u2019 et", "492": "d\u2019 eu", "493": "d\u2019 im", "494": "d\u2019 in", "495": "d\u2019 oc", "496": "d\u2019 of", "497": "d\u2019 og", "498": "d\u2019 ol", "499": "d\u2019 om", "500": "d\u2019 on", "501": "d\u2019 or", "502": "d\u2019 os", "503": "d\u2019 ot", "504": "d\u2019 ur", "505": "fa az", "506": "fe et", "507": "fo et", "508": "fo im", "509": "fu ap", "510": "fu el", "511": "fu im", "512": "fu in", "513": "f\u00e9 in", "514": "ga an", "515": "ga as", "516": "ga in", "517": "ge an", "518": "ge et", "519": "ge in", "520": "ge un", "521": "ghiac", "522": "ghian", "523": "ghien", "524": "ghiot", "525": "gi an", "526": "gi ar", "527": "gia e", "528": "gia o", "529": "gli u", "530": "gliam", "531": "glian", "532": "gliar", "533": "gliel", "534": "glien", "535": "glies", "536": "gliet", "537": "gliuo", "538": "gna a", "539": "gne a", "540": "gne o", "541": "gne u", "542": "gni e", "543": "gno a", "544": "gno u", "545": "go al", "546": "go es", "547": "go in", "548": "ha \u2019n", "549": "hi om", "550": "ia al", "551": "ia an", "552": "la al", "553": "la an", "554": "la ap", "555": "la au", "556": "la av", "557": "la el", "558": "la en", "559": "la es", "560": "la in", "561": "la of", "562": "la ol", "563": "la on", "564": "la or", "565": "la \u2019m", "566": "la \u2019n", "567": "le ad", "568": "le al", "569": "le am", "570": "le an", "571": "le ap", "572": "le ar", "573": "le as", "574": "le at", "575": "le av", "576": "le es", "577": "le id", "578": "le in", "579": "le oc", "580": "le of", "581": "le ol", "582": "le on", "583": "le or", "584": "le uc", "585": "le \u2019m", "586": "le \u2019n", "587": "li ab", "588": "li ac", "589": "li ad", "590": "li af", "591": "li ag", "592": "li al", "593": "li am", "594": "li an", "595": "li ap", "596": "li ar", "597": "li as", "598": "li at", "599": "li au", "600": "li av", "601": "li eb", "602": "li em", "603": "li er", "604": "li es", "605": "li et", "606": "li im", "607": "li in", "608": "li oc", "609": "li of", "610": "li om", "611": "li on", "612": "li or", "613": "li uc", "614": "li ul", "615": "li un", "616": "li uo", "617": "li \u2019m", "618": "li \u2019n", "619": "lia a", "620": "lo ac", "621": "lo af", "622": "lo al", "623": "lo an", "624": "lo ar", "625": "lo as", "626": "lo at", "627": "lo av", "628": "lo eb", "629": "lo ef", "630": "lo er", "631": "lo es", "632": "lo il", "633": "lo im", "634": "lo in", "635": "lo of", "636": "lo on", "637": "lo \u2019m", "638": "lo \u2019n", "639": "l\u00ec en", "640": "l\u2019 ab", "641": "l\u2019 ac", "642": "l\u2019 ad", "643": "l\u2019 ae", "644": "l\u2019 af", "645": "l\u2019 ag", "646": "l\u2019 ai", "647": "l\u2019 al", "648": "l\u2019 am", "649": "l\u2019 an", "650": "l\u2019 ap", "651": "l\u2019 ar", "652": "l\u2019 as", "653": "l\u2019 at", "654": "l\u2019 au", "655": "l\u2019 av", "656": "l\u2019 eb", "657": "l\u2019 ec", "658": "l\u2019 ef", "659": "l\u2019 el", "660": "l\u2019 em", "661": "l\u2019 en", "662": "l\u2019 er", "663": "l\u2019 es", "664": "l\u2019 et", "665": "l\u2019 im", "666": "l\u2019 in", "667": "l\u2019 oc", "668": "l\u2019 of", "669": "l\u2019 ol", "670": "l\u2019 om", "671": "l\u2019 on", "672": "l\u2019 op", "673": "l\u2019 or", "674": "l\u2019 os", "675": "l\u2019 ot", "676": "l\u2019 ov", "677": "l\u2019 uc", "678": "l\u2019 ul", "679": "l\u2019 um", "680": "l\u2019 un", "681": "l\u2019 uo", "682": "l\u2019 \u00e0n", "683": "ma ac", "684": "ma al", "685": "ma an", "686": "ma ap", "687": "ma es", "688": "ma in", "689": "ma of", "690": "ma on", "691": "ma or", "692": "ma \u2019n", "693": "me ac", "694": "me af", "695": "me al", "696": "me am", "697": "me an", "698": "me ap", "699": "me ar", "700": "me as", "701": "me at", "702": "me au", "703": "me ef", "704": "me in", "705": "me of", "706": "me on", "707": "mi ac", "708": "mi ad", "709": "mi al", "710": "mi am", "711": "mi an", "712": "mi ap", "713": "mi ef", "714": "mi er", "715": "mi in", "716": "mi \u2019n", "717": "mo ac", "718": "mo af", "719": "mo al", "720": "mo an", "721": "mo ar", "722": "mo at", "723": "mo eb", "724": "mo ec", "725": "mo es", "726": "mo im", "727": "mo in", "728": "mo of", "729": "mo ol", "730": "mo on", "731": "mo or", "732": "m\u2019 ab", "733": "m\u2019 ac", "734": "m\u2019 ad", "735": "m\u2019 af", "736": "m\u2019 ag", "737": "m\u2019 al", "738": "m\u2019 an", "739": "m\u2019 ap", "740": "m\u2019 ar", "741": "m\u2019 as", "742": "m\u2019 at", "743": "m\u2019 av", "744": "m\u2019 eb", "745": "m\u2019 es", "746": "m\u2019 im", "747": "m\u2019 in", "748": "m\u2019 of", "749": "m\u2019 ol", "750": "m\u2019 om", "751": "na ab", "752": "na ac", "753": "na af", "754": "na ap", "755": "na ar", "756": "na at", "757": "na av", "758": "na eb", "759": "na es", "760": "na in", "761": "na of", "762": "na on", "763": "na or", "764": "na \u2019n", "765": "ne ac", "766": "ne af", "767": "ne ag", "768": "ne al", "769": "ne an", "770": "ne ap", "771": "ne ar", "772": "ne as", "773": "ne av", "774": "ne em", "775": "ne es", "776": "ne et", "777": "ne im", "778": "ne in", "779": "ne on", "780": "ne ov", "781": "ne \u2019m", "782": "ne \u2019n", "783": "ni al", "784": "ni am", "785": "ni an", "786": "ni ap", "787": "ni as", "788": "ni av", "789": "ni en", "790": "ni es", "791": "ni in", "792": "ni on", "793": "no ab", "794": "no ac", "795": "no ad", "796": "no af", "797": "no ag", "798": "no al", "799": "no am", "800": "no an", "801": "no ap", "802": "no ar", "803": "no as", "804": "no at", "805": "no au", "806": "no av", "807": "no ec", "808": "no er", "809": "no es", "810": "no et", "811": "no im", "812": "no in", "813": "no om", "814": "no or", "815": "no \u2019n", "816": "n\u2019 ab", "817": "n\u2019 ac", "818": "n\u2019 ag", "819": "n\u2019 al", "820": "n\u2019 am", "821": "n\u2019 an", "822": "n\u2019 ap", "823": "n\u2019 ar", "824": "n\u2019 at", "825": "n\u2019 au", "826": "n\u2019 av", "827": "n\u2019 eb", "828": "n\u2019 er", "829": "n\u2019 in", "830": "n\u2019 ol", "831": "n\u2019 om", "832": "n\u2019 on", "833": "n\u2019 uo", "834": "pa es", "835": "pa in", "836": "pi ap", "837": "pi in", "838": "pi or", "839": "pie e", "840": "pi\u00f9 a", "841": "po al", "842": "po an", "843": "po ar", "844": "po av", "845": "po in", "846": "po on", "847": "pra a", "848": "pre a", "849": "pre e", "850": "pr\u2019 e", "851": "qua e", "852": "que o", "853": "que u", "854": "qu\u2019 e", "855": "qu\u2019 o", "856": "ra ab", "857": "ra ac", "858": "ra ad", "859": "ra al", "860": "ra am", "861": "ra an", "862": "ra ap", "863": "ra as", "864": "ra at", "865": "ra av", "866": "ra eb", "867": "ra ec", "868": "ra el", "869": "ra es", "870": "ra et", "871": "ra im", "872": "ra in", "873": "ra of", "874": "ra on", "875": "ra ot", "876": "ra uc", "877": "re ab", "878": "re ac", "879": "re ad", "880": "re af", "881": "re ag", "882": "re al", "883": "re am", "884": "re an", "885": "re ap", "886": "re ar", "887": "re as", "888": "re at", "889": "re au", "890": "re av", "891": "re eb", "892": "re em", "893": "re en", "894": "re es", "895": "re et", "896": "re il", "897": "re im", "898": "re in", "899": "re oc", "900": "re ol", "901": "re om", "902": "re on", "903": "re ot", "904": "ri ac", "905": "ri al", "906": "ri an", "907": "ri ap", "908": "ri ar", "909": "ri in", "910": "ri on", "911": "rio a", "912": "ro ab", "913": "ro ac", "914": "ro al", "915": "ro am", "916": "ro an", "917": "ro ap", "918": "ro ar", "919": "ro as", "920": "ro at", "921": "ro au", "922": "ro av", "923": "ro eb", "924": "ro es", "925": "ro im", "926": "ro in", "927": "ro oc", "928": "ro of", "929": "ro on", "930": "ro or", "931": "ro um", "932": "r\u2019 al", "933": "r\u2019 an", "934": "r\u2019 el", "935": "r\u2019 es", "936": "sa ac", "937": "sa an", "938": "sa ap", "939": "sa es", "940": "sa im", "941": "sa in", "942": "sa og", "943": "sa ol", "944": "sa on", "945": "sbe a", "946": "sce a", "947": "scheg", "948": "schem", "949": "scher", "950": "schet", "951": "schia", "952": "schic", "953": "schie", "954": "schio", "955": "schiu", "956": "scial", "957": "sciam", "958": "scian", "959": "sciar", "960": "scias", "961": "sciau", "962": "scioc", "963": "sciol", "964": "sciom", "965": "sciut", "966": "sci\u00e0n", "967": "sco o", "968": "sco u", "969": "scran", "970": "scrip", "971": "scris", "972": "scrit", "973": "se ac", "974": "se af", "975": "se al", "976": "se an", "977": "se ap", "978": "se as", "979": "se at", "980": "se ec", "981": "se es", "982": "se in", "983": "se on", "984": "se op", "985": "se un", "986": "se \u2019n", "987": "sfran", "988": "sgher", "989": "sgiun", "990": "sgrie", "991": "sguar", "992": "si ac", "993": "si ad", "994": "si al", "995": "si am", "996": "si an", "997": "si ar", "998": "si as", "999": "si at", "1000": "si av", "1001": "si el", "1002": "si en", "1003": "si er", "1004": "si im", "1005": "si in", "1006": "si of", "1007": "si og", "1008": "si ol", "1009": "si or", "1010": "si \u2019m", "1011": "si \u2019n", "1012": "smo a", "1013": "so ab", "1014": "so ad", "1015": "so al", "1016": "so am", "1017": "so an", "1018": "so ap", "1019": "so ar", "1020": "so as", "1021": "so at", "1022": "so eb", "1023": "so en", "1024": "so es", "1025": "so et", "1026": "so in", "1027": "so of", "1028": "so on", "1029": "so \u2019n", "1030": "spiac", "1031": "splen", "1032": "spran", "1033": "spraz", "1034": "spres", "1035": "squar", "1036": "squil", "1037": "sta a", "1038": "sta e", "1039": "sta i", "1040": "sta o", "1041": "sta u", "1042": "ste a", "1043": "ste i", "1044": "sti a", "1045": "sti o", "1046": "sto a", "1047": "sto e", "1048": "sto o", "1049": "strac", "1050": "stram", "1051": "stran", "1052": "strar", "1053": "stras", "1054": "strat", "1055": "streg", "1056": "strel", "1057": "stren", "1058": "stret", "1059": "stric", "1060": "strin", "1061": "stroc", "1062": "strom", "1063": "stroz", "1064": "strug", "1065": "strut", "1066": "st\u2019 a", "1067": "st\u2019 o", "1068": "st\u2019 u", "1069": "suo a", "1070": "s\u00ec in", "1071": "s\u00ec \u2019m", "1072": "s\u00ec \u2019n", "1073": "s\u2019 ab", "1074": "s\u2019 ac", "1075": "s\u2019 ad", "1076": "s\u2019 af", "1077": "s\u2019 ag", "1078": "s\u2019 al", "1079": "s\u2019 am", "1080": "s\u2019 an", "1081": "s\u2019 ap", "1082": "s\u2019 ar", "1083": "s\u2019 as", "1084": "s\u2019 at", "1085": "s\u2019 av", "1086": "s\u2019 eb", "1087": "s\u2019 el", "1088": "s\u2019 em", "1089": "s\u2019 en", "1090": "s\u2019 er", "1091": "s\u2019 es", "1092": "s\u2019 et", "1093": "s\u2019 im", "1094": "s\u2019 in", "1095": "s\u2019 of", "1096": "s\u2019 op", "1097": "s\u2019 os", "1098": "ta ab", "1099": "ta ac", "1100": "ta ad", "1101": "ta al", "1102": "ta am", "1103": "ta an", "1104": "ta ar", "1105": "ta as", "1106": "ta at", "1107": "ta el", "1108": "ta es", "1109": "ta et", "1110": "ta eu", "1111": "ta im", "1112": "ta in", "1113": "ta of", "1114": "ta om", "1115": "ta on", "1116": "ta op", "1117": "ta un", "1118": "te ab", "1119": "te ac", "1120": "te ad", "1121": "te af", "1122": "te ag", "1123": "te al", "1124": "te an", "1125": "te ap", "1126": "te ar", "1127": "te as", "1128": "te at", "1129": "te au", "1130": "te em", "1131": "te en", "1132": "te er", "1133": "te es", "1134": "te im", "1135": "te in", "1136": "te is", "1137": "te of", "1138": "te ol", "1139": "te om", "1140": "te on", "1141": "te or", "1142": "te os", "1143": "te \u2019n", "1144": "ti ac", "1145": "ti ad", "1146": "ti al", "1147": "ti am", "1148": "ti an", "1149": "ti ar", "1150": "ti as", "1151": "ti at", "1152": "ti av", "1153": "ti en", "1154": "ti et", "1155": "ti im", "1156": "ti in", "1157": "ti oc", "1158": "ti of", "1159": "ti or", "1160": "ti \u2019m", "1161": "ti \u2019n", "1162": "to ab", "1163": "to ac", "1164": "to ad", "1165": "to af", "1166": "to ag", "1167": "to al", "1168": "to an", "1169": "to ap", "1170": "to ar", "1171": "to as", "1172": "to at", "1173": "to av", "1174": "to eb", "1175": "to ec", "1176": "to ef", "1177": "to es", "1178": "to et", "1179": "to im", "1180": "to in", "1181": "to oc", "1182": "to of", "1183": "to ol", "1184": "to on", "1185": "to or", "1186": "to ov", "1187": "to uc", "1188": "tra a", "1189": "tra e", "1190": "tra i", "1191": "tra u", "1192": "tri a", "1193": "tri e", "1194": "tri o", "1195": "tro a", "1196": "tro e", "1197": "tro i", "1198": "tro o", "1199": "tro u", "1200": "tr\u2019 a", "1201": "tr\u2019 e", "1202": "tu ha", "1203": "t\u00e0 in", "1204": "t\u2019 ab", "1205": "t\u2019 ac", "1206": "t\u2019 af", "1207": "t\u2019 ag", "1208": "t\u2019 al", "1209": "t\u2019 am", "1210": "t\u2019 an", "1211": "t\u2019 ap", "1212": "t\u2019 ar", "1213": "t\u2019 as", "1214": "t\u2019 at", "1215": "t\u2019 av", "1216": "t\u2019 el", "1217": "t\u2019 em", "1218": "t\u2019 es", "1219": "t\u2019 im", "1220": "t\u2019 in", "1221": "t\u2019 om", "1222": "t\u2019 or", "1223": "va al", "1224": "va an", "1225": "va ar", "1226": "va at", "1227": "va eb", "1228": "va id", "1229": "va im", "1230": "va in", "1231": "va \u2019n", "1232": "ve al", "1233": "ve an", "1234": "ve ap", "1235": "ve ar", "1236": "ve at", "1237": "ve es", "1238": "ve oc", "1239": "vi ac", "1240": "vi al", "1241": "vi am", "1242": "vi an", "1243": "vi ar", "1244": "vi as", "1245": "vi av", "1246": "vi en", "1247": "vi in", "1248": "vi of", "1249": "vi on", "1250": "vi \u2019m", "1251": "vo ac", "1252": "vo al", "1253": "vo an", "1254": "vo as", "1255": "vo at", "1256": "vo au", "1257": "v\u2019 ab", "1258": "v\u2019 ac", "1259": "v\u2019 al", "1260": "v\u2019 am", "1261": "v\u2019 an", "1262": "v\u2019 ap", "1263": "v\u2019 ar", "1264": "v\u2019 eb", "1265": "v\u2019 el", "1266": "v\u2019 er", "1267": "v\u2019 es", "1268": "v\u2019 et", "1269": "v\u2019 in", "1270": "v\u2019 of", "1271": "za al", "1272": "za am", "1273": "za an", "1274": "za er", "1275": "za et", "1276": "za im", "1277": "za in", "1278": "za on", "1279": "za \u2019n", "1280": "ze es", "1281": "ze et", "1282": "ze or", "1283": "zi ag", "1284": "zi al", "1285": "zi ap", "1286": "zi as", "1287": "zi at", "1288": "zi \u2019m", "1289": "zia e", "1290": "zia o", "1291": "zie o", "1292": "zio a", "1293": "zio e", "1294": "zio u", "1295": "zo an", "1296": "zo ar", "1297": "zo as", "1298": "zo in", "1299": "z\u2019 al", "1300": "z\u2019 ar", "1301": "z\u2019 es", "1302": "\u2019ve o", "1303": "\u2019v\u2019 e", "1304": "\u2019v\u2019 u", "1305": "a ac", "1306": "a al", "1307": "a am", "1308": "a ef", "1309": "a es", "1310": "a in", "1311": "be a", "1312": "be e", "1313": "be i", "1314": "be o", "1315": "be u", "1316": "bi a", "1317": "biac", "1318": "bian", "1319": "bias", "1320": "biet", "1321": "bion", "1322": "blan", "1323": "bo a", "1324": "bo e", "1325": "bo i", "1326": "brac", "1327": "bran", "1328": "bren", "1329": "brez", "1330": "brie", "1331": "bris", "1332": "broc", "1333": "brol", "1334": "bron", "1335": "brot", "1336": "brug", "1337": "brul", "1338": "brut", "1339": "buon", "1340": "ca a", "1341": "ca e", "1342": "ca o", "1343": "ca u", "1344": "ce a", "1345": "ce e", "1346": "ce o", "1347": "ce u", "1348": "cheg", "1349": "cher", "1350": "chet", "1351": "chez", "1352": "chia", "1353": "chie", "1354": "chil", "1355": "chio", "1356": "chis", "1357": "chiu", "1358": "ci a", "1359": "ci e", "1360": "ci o", "1361": "ci u", "1362": "ciac", "1363": "cian", "1364": "ciap", "1365": "ciar", "1366": "cias", "1367": "ciel", "1368": "cien", "1369": "cioc", "1370": "ciom", "1371": "cion", "1372": "ciot", "1373": "ciuf", "1374": "ciul", "1375": "ciuo", "1376": "clas", "1377": "clau", "1378": "clis", "1379": "clug", "1380": "co a", "1381": "co e", "1382": "co o", "1383": "co u", "1384": "cras", "1385": "crea", "1386": "creb", "1387": "cric", "1388": "crol", "1389": "cruc", "1390": "c\u2019 e", "1391": "c\u2019 o", "1392": "c\u2019 \u00ef", "1393": "da a", "1394": "da e", "1395": "da o", "1396": "da u", "1397": "de a", "1398": "de e", "1399": "de i", "1400": "de o", "1401": "de u", "1402": "dhae", "1403": "di a", "1404": "di e", "1405": "di i", "1406": "di o", "1407": "di u", "1408": "dian", "1409": "dien", "1410": "dier", "1411": "dies", "1412": "do a", "1413": "do e", "1414": "do i", "1415": "do o", "1416": "do u", "1417": "dram", "1418": "dran", "1419": "drap", "1420": "dras", "1421": "drit", "1422": "driz", "1423": "d\u2019 a", "1424": "d\u2019 e", "1425": "d\u2019 i", "1426": "d\u2019 o", "1427": "d\u2019 u", "1428": "d\u2019 \u00eb", "1429": "d\u2019 \u00ef", "1430": "e ar", "1431": "e in", "1432": "e \u2019n", "1433": "egyp", "1434": "fiac", "1435": "fiam", "1436": "fian", "1437": "fioc", "1438": "fior", "1439": "fiot", "1440": "fles", "1441": "flet", "1442": "flig", "1443": "flit", "1444": "fran", "1445": "frat", "1446": "fred", "1447": "fret", "1448": "fron", "1449": "frut", "1450": "ga e", "1451": "ga o", "1452": "ge a", "1453": "ge o", "1454": "gheg", "1455": "ghel", "1456": "gher", "1457": "ghes", "1458": "ghet", "1459": "ghez", "1460": "ghia", "1461": "ghie", "1462": "ghil", "1463": "ghio", "1464": "ghir", "1465": "gi e", "1466": "gi u", "1467": "giac", "1468": "gial", "1469": "giam", "1470": "gian", "1471": "giar", "1472": "gias", "1473": "gien", "1474": "gior", "1475": "giot", "1476": "giug", "1477": "giun", "1478": "giuo", "1479": "glau", "1480": "glet", "1481": "glia", "1482": "glie", "1483": "glio", "1484": "gnan", "1485": "gnar", "1486": "gnas", "1487": "gnaz", "1488": "gnel", "1489": "gnem", "1490": "gnen", "1491": "gner", "1492": "gnie", "1493": "gnon", "1494": "gnor", "1495": "gnuo", "1496": "go a", "1497": "go e", "1498": "graf", "1499": "gram", "1500": "gran", "1501": "grap", "1502": "gras", "1503": "grat", "1504": "greg", "1505": "grem", "1506": "grep", "1507": "gres", "1508": "grez", "1509": "grie", "1510": "grom", "1511": "gron", "1512": "grop", "1513": "gros", "1514": "grot", "1515": "guag", "1516": "gual", "1517": "guan", "1518": "guar", "1519": "guaz", "1520": "guef", "1521": "guel", "1522": "guen", "1523": "guer", "1524": "guet", "1525": "guic", "1526": "guil", "1527": "guir", "1528": "guit", "1529": "guiz", "1530": "g\u2019 \u00ef", "1531": "ie a", "1532": "la a", "1533": "la e", "1534": "la i", "1535": "la o", "1536": "la u", "1537": "le a", "1538": "le e", "1539": "le i", "1540": "le o", "1541": "le u", "1542": "li a", "1543": "li e", "1544": "li o", "1545": "li u", "1546": "li \u2019", "1547": "liev", "1548": "lo a", "1549": "lo e", "1550": "lo o", "1551": "lo u", "1552": "l\u00ec a", "1553": "l\u00ec e", "1554": "l\u2019 a", "1555": "l\u2019 e", "1556": "l\u2019 i", "1557": "l\u2019 o", "1558": "l\u2019 u", "1559": "l\u2019 \u00f2", "1560": "ma a", "1561": "ma e", "1562": "ma o", "1563": "ma u", "1564": "me a", "1565": "me e", "1566": "me i", "1567": "me o", "1568": "me u", "1569": "mi e", "1570": "mi o", "1571": "mi u", "1572": "mian", "1573": "mo a", "1574": "mo e", "1575": "mo i", "1576": "mo o", "1577": "mo u", "1578": "m\u2019 a", "1579": "m\u2019 e", "1580": "m\u2019 i", "1581": "m\u2019 o", "1582": "na a", "1583": "na e", "1584": "na i", "1585": "na o", "1586": "na u", "1587": "ne a", "1588": "ne e", "1589": "ne o", "1590": "ne u", "1591": "ni a", "1592": "ni e", "1593": "ni o", "1594": "ni u", "1595": "nian", "1596": "no a", "1597": "no e", "1598": "no i", "1599": "no o", "1600": "no u", "1601": "n\u2019 a", "1602": "n\u2019 e", "1603": "n\u2019 o", "1604": "n\u2019 u", "1605": "o al", "1606": "o ar", "1607": "o av", "1608": "pa e", "1609": "pa u", "1610": "pe e", "1611": "pe i", "1612": "pi a", "1613": "pi e", "1614": "pi i", "1615": "piac", "1616": "piag", "1617": "pian", "1618": "piat", "1619": "pien", "1620": "pier", "1621": "piez", "1622": "piog", "1623": "piom", "1624": "piov", "1625": "plan", "1626": "plau", "1627": "ples", "1628": "po a", "1629": "po e", "1630": "po o", "1631": "po u", "1632": "pran", "1633": "pren", "1634": "pres", "1635": "prez", "1636": "pric", "1637": "prie", "1638": "prin", "1639": "prir", "1640": "pris", "1641": "proc", "1642": "pron", "1643": "pros", "1644": "pruo", "1645": "puol", "1646": "puom", "1647": "puos", "1648": "p\u2019 e", "1649": "qual", "1650": "quan", "1651": "quar", "1652": "quat", "1653": "quel", "1654": "quen", "1655": "quer", "1656": "quil", "1657": "quin", "1658": "quis", "1659": "ra a", "1660": "ra e", "1661": "ra i", "1662": "ra o", "1663": "ra u", "1664": "re a", "1665": "re e", "1666": "re i", "1667": "re o", "1668": "re u", "1669": "ri e", "1670": "ri u", "1671": "ro a", "1672": "ro e", "1673": "ro i", "1674": "ro o", "1675": "ro u", "1676": "r\u00ec u", "1677": "r\u2019 o", "1678": "r\u2019 u", "1679": "sa a", "1680": "sa e", "1681": "sa o", "1682": "sa u", "1683": "sanc", "1684": "sban", "1685": "sbar", "1686": "sber", "1687": "sbra", "1688": "sbri", "1689": "scab", "1690": "scac", "1691": "scal", "1692": "scam", "1693": "scan", "1694": "scar", "1695": "scaz", "1696": "scel", "1697": "scem", "1698": "scen", "1699": "scer", "1700": "scet", "1701": "scev", "1702": "sche", "1703": "schi", "1704": "scia", "1705": "scic", "1706": "scie", "1707": "scim", "1708": "scin", "1709": "scio", "1710": "scir", "1711": "scis", "1712": "sciu", "1713": "scoc", "1714": "scol", "1715": "scom", "1716": "scon", "1717": "scop", "1718": "scor", "1719": "scos", "1720": "scot", "1721": "scov", "1722": "scre", "1723": "scri", "1724": "scro", "1725": "scuf", "1726": "scuo", "1727": "sdeg", "1728": "sden", "1729": "sdet", "1730": "sdru", "1731": "se a", "1732": "se e", "1733": "se i", "1734": "se o", "1735": "se u", "1736": "se \u00eb", "1737": "sfac", "1738": "sfam", "1739": "sfan", "1740": "sfar", "1741": "sfat", "1742": "sfer", "1743": "sfin", "1744": "sfio", "1745": "sfor", "1746": "sfre", "1747": "sgan", "1748": "sgom", "1749": "sgor", "1750": "sgra", "1751": "sgri", "1752": "si a", "1753": "si e", "1754": "si i", "1755": "si o", "1756": "si u", "1757": "slac", "1758": "smal", "1759": "sman", "1760": "smar", "1761": "smen", "1762": "smon", "1763": "smor", "1764": "smoz", "1765": "sneb", "1766": "snel", "1767": "so a", "1768": "so e", "1769": "so i", "1770": "so o", "1771": "so u", "1772": "spal", "1773": "span", "1774": "spar", "1775": "spaz", "1776": "spec", "1777": "spel", "1778": "spen", "1779": "sper", "1780": "spes", "1781": "spet", "1782": "spez", "1783": "spia", "1784": "spic", "1785": "spie", "1786": "spin", "1787": "spir", "1788": "spit", "1789": "spol", "1790": "spon", "1791": "spor", "1792": "spre", "1793": "spro", "1794": "spun", "1795": "spuo", "1796": "squa", "1797": "squi", "1798": "stal", "1799": "stam", "1800": "stan", "1801": "star", "1802": "stas", "1803": "stav", "1804": "stec", "1805": "stel", "1806": "stem", "1807": "sten", "1808": "ster", "1809": "stes", "1810": "stet", "1811": "stia", "1812": "stie", "1813": "stig", "1814": "stil", "1815": "stin", "1816": "stio", "1817": "stis", "1818": "stiz", "1819": "stol", "1820": "stop", "1821": "stor", "1822": "stra", "1823": "stre", "1824": "stri", "1825": "stro", "1826": "stru", "1827": "str\u00e0", "1828": "stuc", "1829": "stul", "1830": "stuo", "1831": "svel", "1832": "sven", "1833": "sver", "1834": "s\u00ec a", "1835": "s\u00ec i", "1836": "s\u2019 a", "1837": "s\u2019 e", "1838": "s\u2019 i", "1839": "s\u2019 o", "1840": "s\u2019 u", "1841": "s\u2019 \u00ef", "1842": "ta a", "1843": "ta e", "1844": "ta i", "1845": "ta o", "1846": "ta u", "1847": "te a", "1848": "te e", "1849": "te i", "1850": "te o", "1851": "te u", "1852": "ti a", "1853": "ti e", "1854": "ti i", "1855": "ti o", "1856": "ti u", "1857": "tiem", "1858": "tien", "1859": "tier", "1860": "to a", "1861": "to e", "1862": "to i", "1863": "to o", "1864": "to u", "1865": "trac", "1866": "trag", "1867": "trai", "1868": "tram", "1869": "tran", "1870": "trap", "1871": "trar", "1872": "tras", "1873": "trat", "1874": "treb", "1875": "trec", "1876": "tren", "1877": "tret", "1878": "trie", "1879": "troc", "1880": "trom", "1881": "tron", "1882": "trop", "1883": "tror", "1884": "trot", "1885": "trul", "1886": "truo", "1887": "t\u2019 a", "1888": "t\u2019 e", "1889": "t\u2019 o", "1890": "t\u2019 u", "1891": "va a", "1892": "va e", "1893": "va i", "1894": "va o", "1895": "va u", "1896": "ve a", "1897": "ve i", "1898": "ve u", "1899": "vi a", "1900": "vi e", "1901": "vi o", "1902": "viem", "1903": "vien", "1904": "vo o", "1905": "vuol", "1906": "v\u2019 a", "1907": "v\u2019 e", "1908": "v\u2019 o", "1909": "za a", "1910": "za i", "1911": "za o", "1912": "za u", "1913": "ze e", "1914": "ze o", "1915": "zi e", "1916": "zi o", "1917": "zi u", "1918": "zian", "1919": "ziar", "1920": "zo a", "1921": "zo e", "1922": "z\u2019 a", "1923": "z\u2019 i", "1924": "z\u2019 o", "1925": "\u00e8 im", "1926": "\u00e8 in", "1927": "\u2018glo", "1928": "\u2019vun", "1929": "a a", "1930": "a u", "1931": "ahi", "1932": "bab", "1933": "bac", "1934": "bai", "1935": "bal", "1936": "ban", "1937": "bar", "1938": "bas", "1939": "bat", "1940": "bea", "1941": "bec", "1942": "bef", "1943": "bel", "1944": "ben", "1945": "ber", "1946": "bet", "1947": "bev", "1948": "bia", "1949": "bie", "1950": "bil", "1951": "bin", "1952": "bio", "1953": "bis", "1954": "biz", "1955": "bli", "1956": "bl\u00ef", "1957": "boc", "1958": "bol", "1959": "bom", "1960": "bon", "1961": "bor", "1962": "bot", "1963": "boz", "1964": "bra", "1965": "bre", "1966": "bri", "1967": "bro", "1968": "bru", "1969": "br\u00ef", "1970": "buc", "1971": "buf", "1972": "bug", "1973": "bui", "1974": "bul", "1975": "bun", "1976": "buo", "1977": "bur", "1978": "but", "1979": "cac", "1980": "cad", "1981": "caf", "1982": "cag", "1983": "cal", "1984": "cam", "1985": "can", "1986": "cap", "1987": "car", "1988": "cas", "1989": "cat", "1990": "cau", "1991": "cea", "1992": "cef", "1993": "cel", "1994": "cem", "1995": "cen", "1996": "cep", "1997": "cer", "1998": "ces", "1999": "cet", "2000": "cez", "2001": "che", "2002": "chi", "2003": "ch\u00ec", "2004": "ch\u00ef", "2005": "cia", "2006": "cic", "2007": "cie", "2008": "cil", "2009": "cin", "2010": "cio", "2011": "cir", "2012": "cis", "2013": "cit", "2014": "ciu", "2015": "cla", "2016": "cle", "2017": "cli", "2018": "clo", "2019": "clu", "2020": "cl\u00ef", "2021": "cob", "2022": "coc", "2023": "col", "2024": "com", "2025": "con", "2026": "cop", "2027": "cor", "2028": "cos", "2029": "cot", "2030": "cov", "2031": "coz", "2032": "cra", "2033": "cre", "2034": "cri", "2035": "cro", "2036": "cru", "2037": "cr\u00e0", "2038": "cuc", "2039": "cui", "2040": "cul", "2041": "cum", "2042": "cun", "2043": "cuo", "2044": "cur", "2045": "c\u00e9r", "2046": "c\u00f3l", "2047": "dal", "2048": "dam", "2049": "dan", "2050": "dar", "2051": "das", "2052": "dat", "2053": "dau", "2054": "dea", "2055": "deb", "2056": "dec", "2057": "deg", "2058": "dei", "2059": "del", "2060": "dem", "2061": "den", "2062": "der", "2063": "des", "2064": "det", "2065": "dez", "2066": "dia", "2067": "dic", "2068": "die", "2069": "dif", "2070": "dil", "2071": "dim", "2072": "din", "2073": "dio", "2074": "dir", "2075": "dis", "2076": "dit", "2077": "diz", "2078": "dob", "2079": "doc", "2080": "dol", "2081": "dom", "2082": "don", "2083": "dop", "2084": "dor", "2085": "dos", "2086": "dot", "2087": "dov", "2088": "dra", "2089": "dre", "2090": "dri", "2091": "dro", "2092": "dru", "2093": "dr\u00e4", "2094": "dr\u00ef", "2095": "dub", "2096": "dug", "2097": "dul", "2098": "dun", "2099": "duo", "2100": "dur", "2101": "dus", "2102": "dut", "2103": "e a", "2104": "fab", "2105": "fac", "2106": "fal", "2107": "fam", "2108": "fan", "2109": "far", "2110": "fas", "2111": "fat", "2112": "fau", "2113": "feb", "2114": "feg", "2115": "fel", "2116": "fem", "2117": "fen", "2118": "fer", "2119": "fes", "2120": "fet", "2121": "fia", "2122": "fib", "2123": "fic", "2124": "fie", "2125": "fig", "2126": "fin", "2127": "fio", "2128": "fis", "2129": "fit", "2130": "fiu", "2131": "fla", "2132": "fle", "2133": "flu", "2134": "fog", "2135": "fol", "2136": "fom", "2137": "fon", "2138": "for", "2139": "fos", "2140": "fra", "2141": "fre", "2142": "fri", "2143": "fro", "2144": "fru", "2145": "fuc", "2146": "fug", "2147": "ful", "2148": "fum", "2149": "fun", "2150": "fuo", "2151": "fur", "2152": "f\u00e0c", "2153": "f\u00e9l", "2154": "gab", "2155": "gad", "2156": "gag", "2157": "gal", "2158": "gam", "2159": "gan", "2160": "gar", "2161": "gas", "2162": "gat", "2163": "gau", "2164": "gaz", "2165": "gea", "2166": "gel", "2167": "gem", "2168": "gen", "2169": "geo", "2170": "ger", "2171": "ges", "2172": "get", "2173": "ghe", "2174": "ghi", "2175": "gia", "2176": "gib", "2177": "gie", "2178": "gil", "2179": "gim", "2180": "gio", "2181": "gir", "2182": "gis", "2183": "git", "2184": "giu", "2185": "giz", "2186": "gli", "2187": "glo", "2188": "gna", "2189": "gne", "2190": "gni", "2191": "gno", "2192": "gnu", "2193": "gob", "2194": "goc", "2195": "gol", "2196": "gom", "2197": "gon", "2198": "gor", "2199": "got", "2200": "goz", "2201": "gra", "2202": "gre", "2203": "gri", "2204": "gru", "2205": "gua", "2206": "guc", "2207": "gue", "2208": "gui", "2209": "guo", "2210": "gur", "2211": "guz", "2212": "han", "2213": "hon", "2214": "ian", "2215": "iar", "2216": "iat", "2217": "iep", "2218": "ier", "2219": "ior", "2220": "jau", "2221": "lab", "2222": "lac", "2223": "lai", "2224": "lam", "2225": "lan", "2226": "lap", "2227": "lar", "2228": "las", "2229": "lat", "2230": "lau", "2231": "lav", "2232": "laz", "2233": "lea", "2234": "leb", "2235": "lec", "2236": "leg", "2237": "lel", "2238": "lem", "2239": "len", "2240": "lep", "2241": "ler", "2242": "les", "2243": "let", "2244": "lez", "2245": "lia", "2246": "lic", "2247": "lie", "2248": "lil", "2249": "lim", "2250": "lin", "2251": "lip", "2252": "lir", "2253": "lis", "2254": "lit", "2255": "loc", "2256": "lom", "2257": "lon", "2258": "lop", "2259": "lor", "2260": "lot", "2261": "luc", "2262": "lui", "2263": "lul", "2264": "lun", "2265": "luo", "2266": "lup", "2267": "lur", "2268": "lus", "2269": "lut", "2270": "luz", "2271": "mac", "2272": "mag", "2273": "mai", "2274": "mal", "2275": "mam", "2276": "man", "2277": "mar", "2278": "mas", "2279": "mat", "2280": "maz", "2281": "meg", "2282": "mel", "2283": "mem", "2284": "men", "2285": "mer", "2286": "mes", "2287": "met", "2288": "mez", "2289": "mia", "2290": "mic", "2291": "mie", "2292": "mil", "2293": "min", "2294": "mir", "2295": "mol", "2296": "mon", "2297": "mor", "2298": "mos", "2299": "mot", "2300": "moz", "2301": "muc", "2302": "muf", "2303": "mug", "2304": "mul", "2305": "mun", "2306": "muo", "2307": "mur", "2308": "m\u00e8c", "2309": "m\u00e9z", "2310": "nac", "2311": "nag", "2312": "nai", "2313": "nal", "2314": "nan", "2315": "nar", "2316": "nas", "2317": "nat", "2318": "neb", "2319": "nec", "2320": "nef", "2321": "neg", "2322": "nel", "2323": "nem", "2324": "nen", "2325": "ner", "2326": "nes", "2327": "net", "2328": "nev", "2329": "nez", "2330": "nia", "2331": "nic", "2332": "nie", "2333": "nig", "2334": "nil", "2335": "nim", "2336": "nin", "2337": "nio", "2338": "nir", "2339": "nis", "2340": "niz", "2341": "nob", "2342": "noc", "2343": "nol", "2344": "nom", "2345": "non", "2346": "nor", "2347": "not", "2348": "noz", "2349": "nuc", "2350": "nul", "2351": "nun", "2352": "nuo", "2353": "nur", "2354": "o a", "2355": "o e", "2356": "o u", "2357": "pac", "2358": "pai", "2359": "pal", "2360": "pan", "2361": "pap", "2362": "par", "2363": "pas", "2364": "pat", "2365": "pau", "2366": "paz", "2367": "pec", "2368": "peg", "2369": "pel", "2370": "pen", "2371": "per", "2372": "pes", "2373": "pet", "2374": "pia", "2375": "pic", "2376": "pie", "2377": "pig", "2378": "pil", "2379": "pin", "2380": "pio", "2381": "pir", "2382": "pis", "2383": "pit", "2384": "piu", "2385": "piz", "2386": "pi\u00e9", "2387": "pla", "2388": "ple", "2389": "pli", "2390": "plo", "2391": "plu", "2392": "pl\u00ec", "2393": "poc", "2394": "pog", "2395": "pol", "2396": "pom", "2397": "pon", "2398": "pop", "2399": "por", "2400": "pos", "2401": "pot", "2402": "poz", "2403": "pra", "2404": "pre", "2405": "pri", "2406": "pro", "2407": "pru", "2408": "pub", "2409": "puc", "2410": "pul", "2411": "pun", "2412": "puo", "2413": "pur", "2414": "put", "2415": "puz", "2416": "p\u00e0r", "2417": "p\u00f2s", "2418": "qua", "2419": "que", "2420": "qui", "2421": "quo", "2422": "qu\u00ef", "2423": "rab", "2424": "rac", "2425": "raf", "2426": "rag", "2427": "ral", "2428": "ram", "2429": "ran", "2430": "rap", "2431": "rar", "2432": "ras", "2433": "rat", "2434": "rav", "2435": "raz", "2436": "rea", "2437": "reb", "2438": "rec", "2439": "red", "2440": "reg", "2441": "rel", "2442": "rem", "2443": "ren", "2444": "res", "2445": "ret", "2446": "rez", "2447": "ria", "2448": "ric", "2449": "rid", "2450": "rie", "2451": "rig", "2452": "ril", "2453": "rim", "2454": "rin", "2455": "rio", "2456": "rir", "2457": "ris", "2458": "rit", "2459": "riz", "2460": "rob", "2461": "roc", "2462": "rof", "2463": "rog", "2464": "rol", "2465": "rom", "2466": "ron", "2467": "ros", "2468": "rot", "2469": "roz", "2470": "ruc", "2471": "ruf", "2472": "rug", "2473": "run", "2474": "ruo", "2475": "rup", "2476": "rut", "2477": "r\u00e8g", "2478": "sab", "2479": "sac", "2480": "saf", "2481": "sag", "2482": "sal", "2483": "sam", "2484": "san", "2485": "sap", "2486": "sar", "2487": "sas", "2488": "sat", "2489": "sau", "2490": "sba", "2491": "sbi", "2492": "sca", "2493": "sce", "2494": "sci", "2495": "sco", "2496": "scu", "2497": "sc\u00ef", "2498": "sde", "2499": "sec", "2500": "seg", "2501": "sel", "2502": "sem", "2503": "sen", "2504": "sep", "2505": "ser", "2506": "ses", "2507": "set", "2508": "sev", "2509": "sez", "2510": "sfa", "2511": "sfe", "2512": "sfo", "2513": "sga", "2514": "sgo", "2515": "sia", "2516": "sic", "2517": "sie", "2518": "sil", "2519": "sin", "2520": "sio", "2521": "sis", "2522": "sit", "2523": "sla", "2524": "sle", "2525": "sma", "2526": "sme", "2527": "smi", "2528": "smo", "2529": "smu", "2530": "sna", "2531": "sno", "2532": "sob", "2533": "soc", "2534": "sod", "2535": "sof", "2536": "sog", "2537": "sol", "2538": "som", "2539": "son", "2540": "sop", "2541": "sor", "2542": "sos", "2543": "sot", "2544": "sov", "2545": "soz", "2546": "spa", "2547": "spe", "2548": "spi", "2549": "spo", "2550": "spu", "2551": "sp\u00ef", "2552": "sra", "2553": "sr\u00e4", "2554": "sta", "2555": "ste", "2556": "sti", "2557": "sto", "2558": "stu", "2559": "st\u00ef", "2560": "sub", "2561": "suc", "2562": "sud", "2563": "suf", "2564": "sug", "2565": "sum", "2566": "sun", "2567": "suo", "2568": "sup", "2569": "sur", "2570": "sus", "2571": "sve", "2572": "svi", "2573": "svo", "2574": "sv\u00ef", "2575": "tac", "2576": "tad", "2577": "tag", "2578": "tal", "2579": "tam", "2580": "tan", "2581": "tar", "2582": "tas", "2583": "tat", "2584": "tau", "2585": "tea", "2586": "tec", "2587": "teg", "2588": "tel", "2589": "tem", "2590": "ten", "2591": "ter", "2592": "tes", "2593": "tet", "2594": "tez", "2595": "tho", "2596": "tic", "2597": "tie", "2598": "til", "2599": "tim", "2600": "tin", "2601": "tir", "2602": "tis", "2603": "tle", "2604": "toc", "2605": "tol", "2606": "tom", "2607": "ton", "2608": "top", "2609": "tor", "2610": "tos", "2611": "tra", "2612": "tre", "2613": "tri", "2614": "tro", "2615": "tru", "2616": "tr\u00ef", "2617": "tuc", "2618": "tuf", "2619": "tun", "2620": "tuo", "2621": "tur", "2622": "tut", "2623": "t\u00f2m", "2624": "t\u00f2r", "2625": "vac", "2626": "vag", "2627": "val", "2628": "vam", "2629": "van", "2630": "var", "2631": "vas", "2632": "vat", "2633": "vec", "2634": "veg", "2635": "vel", "2636": "vem", "2637": "ven", "2638": "ver", "2639": "ves", "2640": "vet", "2641": "vez", "2642": "vid", "2643": "vie", "2644": "vil", "2645": "vin", "2646": "vir", "2647": "vis", "2648": "vit", "2649": "viz", "2650": "voi", "2651": "vol", "2652": "vom", "2653": "von", "2654": "vor", "2655": "vul", "2656": "vuo", "2657": "v\u00f2l", "2658": "xil", "2659": "zac", "2660": "zaf", "2661": "zan", "2662": "zar", "2663": "zel", "2664": "zia", "2665": "zio", "2666": "zon", "2667": "zuc", "2668": "zuf", "2669": "zur", "2670": "\u2018be", "2671": "\u2018la", "2672": "\u2018ne", "2673": "ab", "2674": "ac", "2675": "ad", "2676": "ae", "2677": "af", "2678": "ag", "2679": "al", "2680": "am", "2681": "an", "2682": "ap", "2683": "ar", "2684": "as", "2685": "at", "2686": "au", "2687": "av", "2688": "az", "2689": "ba", "2690": "be", "2691": "bi", "2692": "bo", "2693": "bu", "2694": "b\u00eb", "2695": "b\u00ef", "2696": "ca", "2697": "ce", "2698": "ci", "2699": "co", "2700": "cu", "2701": "c\u00eb", "2702": "c\u00ec", "2703": "c\u00ef", "2704": "c\u00f9", "2705": "c\u00fc", "2706": "da", "2707": "de", "2708": "di", "2709": "do", "2710": "du", "2711": "d\u00e9", "2712": "d\u00eb", "2713": "d\u00ef", "2714": "d\u00fc", "2715": "eb", "2716": "ec", "2717": "ef", "2718": "el", "2719": "em", "2720": "en", "2721": "er", "2722": "es", "2723": "et", "2724": "eu", "2725": "ex", "2726": "fa", "2727": "fe", "2728": "fi", "2729": "fo", "2730": "fu", "2731": "f\u00e9", "2732": "f\u00eb", "2733": "f\u00ef", "2734": "f\u00f3", "2735": "ga", "2736": "ge", "2737": "gi", "2738": "go", "2739": "gu", "2740": "g\u00e8", "2741": "g\u00eb", "2742": "g\u00ef", "2743": "g\u00f3", "2744": "g\u00fc", "2745": "ha", "2746": "ho", "2747": "ia", "2748": "id", "2749": "ie", "2750": "il", "2751": "im", "2752": "in", "2753": "io", "2754": "ir", "2755": "is", "2756": "iu", "2757": "la", "2758": "le", "2759": "li", "2760": "lo", "2761": "lu", "2762": "l\u00e0", "2763": "l\u00e8", "2764": "l\u00eb", "2765": "l\u00ec", "2766": "l\u00ef", "2767": "l\u00f2", "2768": "l\u00f6", "2769": "l\u00fc", "2770": "ma", "2771": "me", "2772": "mi", "2773": "mo", "2774": "mu", "2775": "m\u00e4", "2776": "m\u00e8", "2777": "m\u00eb", "2778": "m\u00ec", "2779": "m\u00ef", "2780": "na", "2781": "ne", "2782": "ni", "2783": "no", "2784": "nu", "2785": "n\u00e8", "2786": "n\u00eb", "2787": "n\u00ef", "2788": "n\u00f2", "2789": "n\u00fc", "2790": "ob", "2791": "oc", "2792": "of", "2793": "og", "2794": "ol", "2795": "om", "2796": "on", "2797": "op", "2798": "or", "2799": "os", "2800": "ot", "2801": "ov", "2802": "pa", "2803": "pe", "2804": "pi", "2805": "po", "2806": "pu", "2807": "p\u00e8", "2808": "p\u00eb", "2809": "p\u00ec", "2810": "p\u00ef", "2811": "p\u00f2", "2812": "p\u00fc", "2813": "ra", "2814": "re", "2815": "ri", "2816": "ro", "2817": "ru", "2818": "r\u00e0", "2819": "r\u00e8", "2820": "r\u00eb", "2821": "r\u00ef", "2822": "r\u00f3", "2823": "sa", "2824": "se", "2825": "si", "2826": "so", "2827": "su", "2828": "s\u00e0", "2829": "s\u00e9", "2830": "s\u00eb", "2831": "s\u00ef", "2832": "s\u00f2", "2833": "s\u00f9", "2834": "s\u00fc", "2835": "ta", "2836": "te", "2837": "ti", "2838": "to", "2839": "tu", "2840": "t\u00e4", "2841": "t\u00e8", "2842": "t\u00eb", "2843": "t\u00ec", "2844": "t\u00ef", "2845": "t\u00f2", "2846": "t\u00fc", "2847": "uc", "2848": "ul", "2849": "un", "2850": "uo", "2851": "ur", "2852": "va", "2853": "ve", "2854": "vi", "2855": "vo", "2856": "vu", "2857": "v\u00e4", "2858": "v\u00e8", "2859": "v\u00e9", "2860": "v\u00eb", "2861": "v\u00ef", "2862": "v\u00f2", "2863": "xi", "2864": "za", "2865": "ze", "2866": "zi", "2867": "zo", "2868": "z\u00ef", "2869": "\u00e8n", "2870": "\u00e8v", "2871": "\u00f2s", "2872": "a", "2873": "e", "2874": "i", "2875": "o", "2876": "u", "2877": "\u00e8", "2878": "\u00e9", "2879": "\u00ef", "2880": "\u00f2", "2881": "\u00fc", "2882": "chie e \u2019n ", "2883": "chio e \u2019l ", "2884": "chio o \u2019l ", "2885": "ch\u2019 io \u2019l ", "2886": "ch\u2019 i\u2019 \u2019l ", "2887": "glio e \u2019l ", "2888": "scia e \u2019l ", "2889": "stro e \u2019l ", "2890": "bia e \u2019l ", "2891": "bra e \u2019l ", "2892": "chi e \u2019l ", "2893": "ch\u2019 \u00e8 in ", "2894": "cia e \u2019l ", "2895": "c\u2019 ha \u2019l ", "2896": "dio e \u2019l ", "2897": "dio \u00e8 \u2019l ", "2898": "dre e \u2019l ", "2899": "d\u2019 io \u2019l ", "2900": "gio e \u2019l ", "2901": "gli e in ", "2902": "l\u2019 ha in ", "2903": "pra e \u2019l ", "2904": "que e \u2019l ", "2905": "ria e \u2019l ", "2906": "ria \u00e8 \u2019l ", "2907": "schi uom ", "2908": "so ha \u2019l ", "2909": "sta e \u2019l ", "2910": "sta \u00e8 in ", "2911": "sti \u00e8 \u2019l ", "2912": "stie hai ", "2913": "st\u2019 \u00e8 \u2019l ", "2914": "s\u2019 i\u2019 \u2019l ", "2915": "te ha in ", "2916": "to ha \u2019l ", "2917": "tra e \u2019l ", "2918": "tre e \u2019l ", "2919": "tri e \u2019l ", "2920": "tro e \u2019l ", "2921": "tr\u2019 \u00e8 \u2019l ", "2922": "v\u2019 ha \u2019l ", "2923": "zie e \u2019l ", "2924": "zio e \u2019l ", "2925": "be e \u2019l ", "2926": "bo e \u2019l ", "2927": "bre e \u2019 ", "2928": "ca e \u2019l ", "2929": "ce e \u2019l ", "2930": "che e \u2019 ", "2931": "chia al ", "2932": "chio al ", "2933": "chio ha ", "2934": "chio il ", "2935": "chio in ", "2936": "ch\u2019 uom ", "2937": "ci e \u2019l ", "2938": "co e \u2019l ", "2939": "de e \u2019l ", "2940": "de e \u2019n ", "2941": "dia e i ", "2942": "do e \u2019n ", "2943": "dre e \u2019 ", "2944": "ga e \u2019l ", "2945": "glia al ", "2946": "glia il ", "2947": "glia in ", "2948": "glia un ", "2949": "glie in ", "2950": "glie \u2019l ", "2951": "glio ai ", "2952": "glio in ", "2953": "glio or ", "2954": "gne uom ", "2955": "go e \u2019l ", "2956": "go \u00e8 in ", "2957": "la e \u2019l ", "2958": "le e il ", "2959": "le e \u2019l ", "2960": "lio e i ", "2961": "lo \u00e8 in ", "2962": "l\u2019 \u00e8 \u2019l ", "2963": "ma e \u2019l ", "2964": "me e \u2019l ", "2965": "me e \u2019n ", "2966": "mi e \u2019l ", "2967": "mo e \u2019l ", "2968": "m\u2019 \u00e8 il ", "2969": "m\u2019 \u00e8 \u2019l ", "2970": "na e \u2019l ", "2971": "ne e \u2019l ", "2972": "no e \u2019l ", "2973": "po e \u2019l ", "2974": "qu\u2019 ieu ", "2975": "ra e \u2019l ", "2976": "re e in ", "2977": "re e \u2019l ", "2978": "ro e \u2019l ", "2979": "sa e \u2019l ", "2980": "schia e ", "2981": "schio e ", "2982": "scia il ", "2983": "sci\u00f2 il ", "2984": "se e \u2019l ", "2985": "si e \u2019l ", "2986": "so e \u2019l ", "2987": "stia ad ", "2988": "stra il ", "2989": "stra \u2019l ", "2990": "stri in ", "2991": "stro ed ", "2992": "stro il ", "2993": "stro in ", "2994": "stro or ", "2995": "ta e \u2019l ", "2996": "ta e \u2019n ", "2997": "te e \u2019l ", "2998": "te e \u2019n ", "2999": "ti e \u2019l ", "3000": "to e \u2019l ", "3001": "to o al ", "3002": "to \u00e8 \u2019l ", "3003": "tra e \u2019 ", "3004": "tr\u2019 ier ", "3005": "va e \u2019l ", "3006": "va e \u2019n ", "3007": "vo e \u2019l ", "3008": "v\u2019 \u00e8 in ", "3009": "v\u2019 \u00e8 \u2019l ", "3010": "za e \u2019l ", "3011": "zo e \u2019l ", "3012": "ba e \u2019 ", "3013": "bia in ", "3014": "bia \u2019l ", "3015": "bio ed ", "3016": "bra ad ", "3017": "bra in ", "3018": "bra od ", "3019": "bre a\u2019 ", "3020": "cea il ", "3021": "che al ", "3022": "che a\u2019 ", "3023": "che il ", "3024": "che in ", "3025": "che io ", "3026": "che un ", "3027": "che \u2019l ", "3028": "che \u2019n ", "3029": "chi al ", "3030": "chi a\u2019 ", "3031": "chi ei ", "3032": "chi ha ", "3033": "chi il ", "3034": "chi in ", "3035": "chi \u2019l ", "3036": "chi \u2019n ", "3037": "chia e ", "3038": "chio a ", "3039": "chio e ", "3040": "chio \u00e8 ", "3041": "ch\u00e9 il ", "3042": "ch\u00e9 \u2019l ", "3043": "ch\u00e9 \u2019n ", "3044": "ch\u2019 ad ", "3045": "ch\u2019 ai ", "3046": "ch\u2019 al ", "3047": "ch\u2019 a\u2019 ", "3048": "ch\u2019 ei ", "3049": "ch\u2019 el ", "3050": "ch\u2019 e\u2019 ", "3051": "ch\u2019 in ", "3052": "ch\u2019 io ", "3053": "ch\u2019 i\u2019 ", "3054": "ch\u2019 om ", "3055": "ch\u2019 or ", "3056": "ch\u2019 un ", "3057": "ch\u2019 \u00e8i ", "3058": "ci e \u2019 ", "3059": "cia ad ", "3060": "cia al ", "3061": "cia il ", "3062": "cia in ", "3063": "cia ir ", "3064": "cia un ", "3065": "cio ed ", "3066": "ci\u00f2 il ", "3067": "ci\u00f2 \u2019l ", "3068": "c\u2019 hai ", "3069": "c\u2019 han ", "3070": "c\u2019 ha\u2019 ", "3071": "di e \u2019 ", "3072": "dia in ", "3073": "dia \u2019l ", "3074": "dio in ", "3075": "di\u2019 \u2019l ", "3076": "do hai ", "3077": "dre al ", "3078": "dri ai ", "3079": "dria e ", "3080": "dro in ", "3081": "due \u2019l ", "3082": "d\u2019 uom ", "3083": "fia il ", "3084": "fra \u2019l ", "3085": "ghi al ", "3086": "ghi in ", "3087": "ghi \u2019l ", "3088": "ghia a ", "3089": "ghiaio ", "3090": "ghio e ", "3091": "gia il ", "3092": "gia or ", "3093": "gia un ", "3094": "gia \u2019l ", "3095": "gio ad ", "3096": "gio al ", "3097": "gio ha ", "3098": "gio il ", "3099": "gio in ", "3100": "gi\u00e0 il ", "3101": "gi\u00e0 \u2019l ", "3102": "gi\u00f9 \u2019l ", "3103": "gli al ", "3104": "gli un ", "3105": "glia a ", "3106": "glia e ", "3107": "glia o ", "3108": "glia \u00e8 ", "3109": "gliaio ", "3110": "glie e ", "3111": "glio a ", "3112": "glio e ", "3113": "glio o ", "3114": "gliuoi ", "3115": "gliuol ", "3116": "gli\u00f2 i ", "3117": "gl\u2019 io ", "3118": "gna a\u2019 ", "3119": "gna il ", "3120": "gna in ", "3121": "gna un ", "3122": "gna \u2019l ", "3123": "gne al ", "3124": "gne \u2019l ", "3125": "gni in ", "3126": "gno ad ", "3127": "gno al ", "3128": "gno a\u2019 ", "3129": "gno ed ", "3130": "gno ha ", "3131": "gno il ", "3132": "gno in ", "3133": "gno or ", "3134": "gro un ", "3135": "gua in ", "3136": "gue il ", "3137": "gue in ", "3138": "gu\u00ec \u2019l ", "3139": "li han ", "3140": "li ha\u2019 ", "3141": "lia il ", "3142": "lio ed ", "3143": "l\u2019 hai ", "3144": "l\u2019 uom ", "3145": "me e \u2019 ", "3146": "mia al ", "3147": "m\u2019 hai ", "3148": "m\u2019 han ", "3149": "na\u2019 il ", "3150": "ne e i ", "3151": "ne e \u2019 ", "3152": "ne han ", "3153": "ni e i ", "3154": "ni e \u2019 ", "3155": "nia il ", "3156": "nio al ", "3157": "n\u2019 uom ", "3158": "pa e \u2019 ", "3159": "pia in ", "3160": "pi\u00e9 \u2019l ", "3161": "pi\u00f9 \u2019l ", "3162": "po e \u2019 ", "3163": "pra al ", "3164": "pra ed ", "3165": "pra in ", "3166": "pra \u2019l ", "3167": "pre al ", "3168": "pre a\u2019 ", "3169": "pre ha ", "3170": "pre in ", "3171": "pre \u2019l ", "3172": "pria e ", "3173": "pria o ", "3174": "pu\u00f2 \u2019l ", "3175": "qua al ", "3176": "qua il ", "3177": "qua in ", "3178": "qua io ", "3179": "que ad ", "3180": "que al ", "3181": "que a\u2019 ", "3182": "que il ", "3183": "que in ", "3184": "que io ", "3185": "que i\u2019 ", "3186": "que or ", "3187": "qui un ", "3188": "qui \u2019l ", "3189": "qu\u2019 io ", "3190": "ra hai ", "3191": "ra han ", "3192": "ri e \u2019 ", "3193": "ria al ", "3194": "ria il ", "3195": "rio ha ", "3196": "rio ho ", "3197": "rio il ", "3198": "rio in ", "3199": "ro e \u2019 ", "3200": "ro hai ", "3201": "sa e \u2019 ", "3202": "sce il ", "3203": "sce in ", "3204": "sche o ", "3205": "schi a ", "3206": "schi o ", "3207": "schiar ", "3208": "scia a ", "3209": "scia e ", "3210": "scia o ", "3211": "scio a ", "3212": "sco il ", "3213": "sc\u00ec \u2019l ", "3214": "sc\u2019 io ", "3215": "se uom ", "3216": "se\u2019 in ", "3217": "si e \u2019 ", "3218": "sia \u2019l ", "3219": "smo al ", "3220": "smo in ", "3221": "so hai ", "3222": "so\u2019 \u2019n ", "3223": "spra e ", "3224": "sta al ", "3225": "sta il ", "3226": "sta in ", "3227": "sta un ", "3228": "sta \u2019n ", "3229": "ste il ", "3230": "ste in ", "3231": "sti ha ", "3232": "sti il ", "3233": "sti in ", "3234": "sti \u2019l ", "3235": "stia e ", "3236": "stie e ", "3237": "stio e ", "3238": "sto ad ", "3239": "sto al ", "3240": "sto ha ", "3241": "sto il ", "3242": "sto in ", "3243": "sto io ", "3244": "stra a ", "3245": "stra e ", "3246": "stra \u00e8 ", "3247": "strans ", "3248": "stri e ", "3249": "stro a ", "3250": "stro e ", "3251": "stro i ", "3252": "stro o ", "3253": "stro \u00e8 ", "3254": "st\u2019 ho ", "3255": "s\u2019 hai ", "3256": "te han ", "3257": "ti e i ", "3258": "ti e \u2019 ", "3259": "ti han ", "3260": "to hai ", "3261": "tra al ", "3262": "tra il ", "3263": "tra in ", "3264": "tra i\u2019 ", "3265": "tra \u2019l ", "3266": "tre al ", "3267": "tre il ", "3268": "tre in ", "3269": "tre i\u2019 ", "3270": "tre un ", "3271": "tri ad ", "3272": "tri il ", "3273": "tri or ", "3274": "tri \u2019l ", "3275": "trio e ", "3276": "tro ad ", "3277": "tro ai ", "3278": "tro al ", "3279": "tro a\u2019 ", "3280": "tro ed ", "3281": "tro ha ", "3282": "tro il ", "3283": "tro in ", "3284": "tro io ", "3285": "tro i\u2019 ", "3286": "tro un ", "3287": "tro \u2019l ", "3288": "tr\u2019 al ", "3289": "tr\u2019 a\u2019 ", "3290": "tr\u2019 io ", "3291": "t\u2019 hai ", "3292": "t\u2019 ha\u2019 ", "3293": "va e i ", "3294": "vea \u2019l ", "3295": "vra \u2019l ", "3296": "zia il ", "3297": "zia in ", "3298": "zie al ", "3299": "zio al ", "3300": "\u2019ve \u2019l ", "3301": "ba il ", "3302": "ba in ", "3303": "be al ", "3304": "be ed ", "3305": "be il ", "3306": "be in ", "3307": "be i\u2019 ", "3308": "be or ", "3309": "be un ", "3310": "be \u2019l ", "3311": "bi il ", "3312": "bi in ", "3313": "bi un ", "3314": "bi \u2019l ", "3315": "bia e ", "3316": "bio e ", "3317": "bo a\u2019 ", "3318": "bo in ", "3319": "bra a ", "3320": "bra e ", "3321": "bra o ", "3322": "bre a ", "3323": "bre e ", "3324": "bro e ", "3325": "bro \u00e8 ", "3326": "b\u00f2 il ", "3327": "b\u2019 io ", "3328": "ca al ", "3329": "ca il ", "3330": "ca in ", "3331": "ca io ", "3332": "ce al ", "3333": "ce a\u2019 ", "3334": "ce ed ", "3335": "ce ha ", "3336": "ce il ", "3337": "ce in ", "3338": "ce un ", "3339": "ce u\u2019 ", "3340": "che a ", "3341": "che e ", "3342": "che i ", "3343": "che \u2019 ", "3344": "chi a ", "3345": "chi e ", "3346": "chi \u00e8 ", "3347": "chiai ", "3348": "chian ", "3349": "chiar ", "3350": "chier ", "3351": "chion ", "3352": "ch\u00e9 a ", "3353": "ch\u00e9 i ", "3354": "ch\u2019 a ", "3355": "ch\u2019 \u00e8 ", "3356": "ci al ", "3357": "ci a\u2019 ", "3358": "ci ha ", "3359": "ci il ", "3360": "ci in ", "3361": "ci io ", "3362": "ci or ", "3363": "ci \u2019l ", "3364": "cia a ", "3365": "cia e ", "3366": "cia i ", "3367": "cia o ", "3368": "cio a ", "3369": "cio e ", "3370": "co ad ", "3371": "co ai ", "3372": "co al ", "3373": "co a\u2019 ", "3374": "co il ", "3375": "co in ", "3376": "co io ", "3377": "co i\u2019 ", "3378": "co or ", "3379": "co un ", "3380": "co u\u2019 ", "3381": "co \u2019l ", "3382": "c\u2019 ha ", "3383": "c\u2019 ho ", "3384": "c\u2019 io ", "3385": "da al ", "3386": "da il ", "3387": "da in ", "3388": "da io ", "3389": "da i\u2019 ", "3390": "da or ", "3391": "da un ", "3392": "da \u2019l ", "3393": "de ad ", "3394": "de al ", "3395": "de ed ", "3396": "de il ", "3397": "de in ", "3398": "de un ", "3399": "de \u2019l ", "3400": "di ad ", "3401": "di al ", "3402": "di a\u2019 ", "3403": "di ed ", "3404": "di ha ", "3405": "di il ", "3406": "di in ", "3407": "di io ", "3408": "di or ", "3409": "di un ", "3410": "di \u00e8e ", "3411": "di \u2019l ", "3412": "di \u2019n ", "3413": "dia e ", "3414": "dia i ", "3415": "dio a ", "3416": "dio e ", "3417": "do ad ", "3418": "do al ", "3419": "do a\u2019 ", "3420": "do ed ", "3421": "do ha ", "3422": "do il ", "3423": "do in ", "3424": "do io ", "3425": "do or ", "3426": "do un ", "3427": "do \u2019l ", "3428": "dre a ", "3429": "dre e ", "3430": "dri e ", "3431": "dro a ", "3432": "dro e ", "3433": "dro o ", "3434": "d\u00f2 \u2019l ", "3435": "d\u2019 ei ", "3436": "d\u2019 el ", "3437": "d\u2019 e\u2019 ", "3438": "d\u2019 io ", "3439": "d\u2019 ir ", "3440": "d\u2019 i\u2019 ", "3441": "d\u2019 un ", "3442": "fa \u2019l ", "3443": "fo or ", "3444": "fu al ", "3445": "fu il ", "3446": "fu \u2019l ", "3447": "f\u00e9 \u2019l ", "3448": "ga il ", "3449": "ga in ", "3450": "ge ad ", "3451": "ge ai ", "3452": "ge al ", "3453": "ge il ", "3454": "ge in ", "3455": "ge or ", "3456": "ge un ", "3457": "ghe a ", "3458": "ghe e ", "3459": "ghi e ", "3460": "ghiai ", "3461": "ghiar ", "3462": "gi al ", "3463": "gi il ", "3464": "gi un ", "3465": "gi \u2019l ", "3466": "gia a ", "3467": "gia e ", "3468": "gia o ", "3469": "gia \u00e8 ", "3470": "gio a ", "3471": "gio e ", "3472": "gio o ", "3473": "gi\u00e0 i ", "3474": "gli a ", "3475": "gli e ", "3476": "gliai ", "3477": "glian ", "3478": "gliar ", "3479": "gliea ", "3480": "gliel ", "3481": "glien ", "3482": "glier ", "3483": "glion ", "3484": "glior ", "3485": "gluol ", "3486": "gna a ", "3487": "gna e ", "3488": "gna i ", "3489": "gna o ", "3490": "gna \u00e8 ", "3491": "gnaio ", "3492": "gni a ", "3493": "gni e ", "3494": "gno a ", "3495": "gno e ", "3496": "gno i ", "3497": "gno \u00e8 ", "3498": "go al ", "3499": "go il ", "3500": "go \u2019l ", "3501": "gra o ", "3502": "gri e ", "3503": "gua a ", "3504": "gua e ", "3505": "gue a ", "3506": "gue e ", "3507": "gue \u00e8 ", "3508": "gui e ", "3509": "gui i ", "3510": "g\u00ec \u2019l ", "3511": "g\u00f2 \u2019l ", "3512": "g\u2019 io ", "3513": "ha in ", "3514": "ha \u2019l ", "3515": "ia ed ", "3516": "ia il ", "3517": "ia in ", "3518": "ia oh ", "3519": "la al ", "3520": "la a\u2019 ", "3521": "la ed ", "3522": "la il ", "3523": "la in ", "3524": "la io ", "3525": "la un ", "3526": "la \u2019l ", "3527": "le ab ", "3528": "le ad ", "3529": "le al ", "3530": "le ha ", "3531": "le il ", "3532": "le in ", "3533": "le io ", "3534": "le ir ", "3535": "le i\u2019 ", "3536": "le or ", "3537": "le un ", "3538": "le \u2019l ", "3539": "li ad ", "3540": "li al ", "3541": "li ei ", "3542": "li ha ", "3543": "li il ", "3544": "li in ", "3545": "li io ", "3546": "li i\u2019 ", "3547": "li oh ", "3548": "li or ", "3549": "li un ", "3550": "li \u2019l ", "3551": "lia e ", "3552": "lio a ", "3553": "lio e ", "3554": "lio \u00e8 ", "3555": "lo ad ", "3556": "lo ai ", "3557": "lo al ", "3558": "lo a\u2019 ", "3559": "lo ed ", "3560": "lo ha ", "3561": "lo il ", "3562": "lo in ", "3563": "lo or ", "3564": "lo un ", "3565": "l\u00e0 il ", "3566": "l\u00e0 \u2019l ", "3567": "l\u2019 ha ", "3568": "l\u2019 ho ", "3569": "l\u2019 om ", "3570": "l\u2019 un ", "3571": "ma a\u2019 ", "3572": "ma il ", "3573": "ma in ", "3574": "ma io ", "3575": "ma un ", "3576": "ma \u2019l ", "3577": "ma \u2019n ", "3578": "me ad ", "3579": "me ai ", "3580": "me al ", "3581": "me a\u2019 ", "3582": "me ed ", "3583": "me il ", "3584": "me in ", "3585": "me io ", "3586": "me un ", "3587": "me \u2019l ", "3588": "me \u2019n ", "3589": "mi ad ", "3590": "mi al ", "3591": "mi a\u2019 ", "3592": "mi ed ", "3593": "mi il ", "3594": "mi in ", "3595": "mi un ", "3596": "mi \u2019l ", "3597": "mia e ", "3598": "mo ad ", "3599": "mo al ", "3600": "mo ed ", "3601": "mo ei ", "3602": "mo ha ", "3603": "mo il ", "3604": "mo in ", "3605": "mo un ", "3606": "mo \u2019l ", "3607": "m\u2019 ha ", "3608": "m\u2019 io ", "3609": "na ad ", "3610": "na al ", "3611": "na ed ", "3612": "na ei ", "3613": "na ha ", "3614": "na il ", "3615": "na in ", "3616": "na or ", "3617": "na un ", "3618": "na \u2019n ", "3619": "ne ad ", "3620": "ne ai ", "3621": "ne al ", "3622": "ne a\u2019 ", "3623": "ne ed ", "3624": "ne ha ", "3625": "ne il ", "3626": "ne in ", "3627": "ne io ", "3628": "ne or ", "3629": "ne un ", "3630": "ne \u2019l ", "3631": "ni al ", "3632": "ni ed ", "3633": "ni il ", "3634": "ni in ", "3635": "ni or ", "3636": "ni \u2019l ", "3637": "no ad ", "3638": "no ai ", "3639": "no al ", "3640": "no a\u2019 ", "3641": "no ed ", "3642": "no ei ", "3643": "no ha ", "3644": "no il ", "3645": "no in ", "3646": "no io ", "3647": "no i\u2019 ", "3648": "no un ", "3649": "no u\u2019 ", "3650": "no \u2019l ", "3651": "n\u00e9 \u2019l ", "3652": "n\u00f2 in ", "3653": "n\u00f2 \u2019l ", "3654": "n\u2019 ei ", "3655": "n\u2019 ha ", "3656": "n\u2019 io ", "3657": "pa ed ", "3658": "pa ho ", "3659": "pa in ", "3660": "pa or ", "3661": "pa \u2019l ", "3662": "pe ad ", "3663": "pe il ", "3664": "pe \u2019l ", "3665": "pi in ", "3666": "pi un ", "3667": "pie a ", "3668": "pio a ", "3669": "pio e ", "3670": "po al ", "3671": "po ed ", "3672": "po ha ", "3673": "po il ", "3674": "po in ", "3675": "po io ", "3676": "po \u2019l ", "3677": "pra e ", "3678": "praia ", "3679": "pre a ", "3680": "pre e ", "3681": "pre i ", "3682": "pri a ", "3683": "pri e ", "3684": "pr\u2019 a ", "3685": "puesc ", "3686": "p\u2019 io ", "3687": "qua a ", "3688": "qua e ", "3689": "qua o ", "3690": "qua \u00e8 ", "3691": "que a ", "3692": "que e ", "3693": "que \u00e8 ", "3694": "qui e ", "3695": "ra ad ", "3696": "ra al ", "3697": "ra a\u2019 ", "3698": "ra ed ", "3699": "ra ha ", "3700": "ra il ", "3701": "ra in ", "3702": "ra io ", "3703": "ra or ", "3704": "ra un ", "3705": "ra \u2019l ", "3706": "ra \u2019n ", "3707": "re ad ", "3708": "re al ", "3709": "re a\u2019 ", "3710": "re ed ", "3711": "re ha ", "3712": "re ho ", "3713": "re il ", "3714": "re in ", "3715": "re io ", "3716": "re ir ", "3717": "re i\u2019 ", "3718": "re or ", "3719": "re un ", "3720": "re \u2019n ", "3721": "ri al ", "3722": "ri a\u2019 ", "3723": "ri in ", "3724": "ri \u2019l ", "3725": "ria a ", "3726": "ria e ", "3727": "ria i ", "3728": "ria o ", "3729": "ria \u00e8 ", "3730": "ria \u2019 ", "3731": "rio a ", "3732": "rio e ", "3733": "ro ad ", "3734": "ro al ", "3735": "ro a\u2019 ", "3736": "ro ed ", "3737": "ro il ", "3738": "ro in ", "3739": "ro i\u2019 ", "3740": "ro od ", "3741": "ro or ", "3742": "ro un ", "3743": "r\u00ec \u2019l ", "3744": "r\u00f2 il ", "3745": "r\u00f2 \u2019l ", "3746": "r\u2019 al ", "3747": "r\u2019 io ", "3748": "sa ad ", "3749": "sa il ", "3750": "sa in ", "3751": "sa un ", "3752": "sa \u2019l ", "3753": "sca i ", "3754": "sce a ", "3755": "sce e ", "3756": "sce i ", "3757": "schio ", "3758": "sci a ", "3759": "sciai ", "3760": "scian ", "3761": "sciar ", "3762": "scion ", "3763": "sco e ", "3764": "sco i ", "3765": "scuoi ", "3766": "se ad ", "3767": "se ai ", "3768": "se al ", "3769": "se a\u2019 ", "3770": "se e\u2019 ", "3771": "se ho ", "3772": "se il ", "3773": "se in ", "3774": "se io ", "3775": "se ir ", "3776": "se i\u2019 ", "3777": "se or ", "3778": "se un ", "3779": "se \u2019l ", "3780": "se \u2019n ", "3781": "si ad ", "3782": "si al ", "3783": "si el ", "3784": "si il ", "3785": "si in ", "3786": "si or ", "3787": "si un ", "3788": "si u\u2019 ", "3789": "si \u2019l ", "3790": "si \u2019n ", "3791": "sia e ", "3792": "sio e ", "3793": "sme e ", "3794": "smo a ", "3795": "so ad ", "3796": "so al ", "3797": "so a\u2019 ", "3798": "so il ", "3799": "so in ", "3800": "so un ", "3801": "so \u00e8e ", "3802": "so \u2019l ", "3803": "sta a ", "3804": "sta e ", "3805": "sta o ", "3806": "sta \u00e8 ", "3807": "staio ", "3808": "ste a ", "3809": "ste e ", "3810": "ste i ", "3811": "sti a ", "3812": "sti e ", "3813": "sti o ", "3814": "sti \u00e8 ", "3815": "stial ", "3816": "stiam ", "3817": "stian ", "3818": "stier ", "3819": "stion ", "3820": "sto a ", "3821": "sto e ", "3822": "sto \u00e8 ", "3823": "strai ", "3824": "stral ", "3825": "stran ", "3826": "strar ", "3827": "st\u2019 \u00e8 ", "3828": "su in ", "3829": "su \u2019l ", "3830": "svuol ", "3831": "s\u00e9 il ", "3832": "s\u00e9 in ", "3833": "s\u00ec \u2019l ", "3834": "s\u2019 ei ", "3835": "s\u2019 el ", "3836": "s\u2019 e\u2019 ", "3837": "s\u2019 ha ", "3838": "s\u2019 io ", "3839": "s\u2019 i\u2019 ", "3840": "s\u2019 un ", "3841": "ta ad ", "3842": "ta al ", "3843": "ta ed ", "3844": "ta ha ", "3845": "ta ho ", "3846": "ta il ", "3847": "ta in ", "3848": "ta io ", "3849": "ta or ", "3850": "ta un ", "3851": "ta \u2019l ", "3852": "te ad ", "3853": "te ai ", "3854": "te al ", "3855": "te a\u2019 ", "3856": "te ed ", "3857": "te ha ", "3858": "te ho ", "3859": "te il ", "3860": "te in ", "3861": "te io ", "3862": "te i\u2019 ", "3863": "te or ", "3864": "te un ", "3865": "te u\u2019 ", "3866": "te \u2019l ", "3867": "te \u2019n ", "3868": "temps ", "3869": "ti ad ", "3870": "ti ai ", "3871": "ti al ", "3872": "ti a\u2019 ", "3873": "ti ed ", "3874": "ti ei ", "3875": "ti ha ", "3876": "ti il ", "3877": "ti in ", "3878": "ti io ", "3879": "ti un ", "3880": "ti \u2019l ", "3881": "ti \u2019n ", "3882": "to ad ", "3883": "to ai ", "3884": "to al ", "3885": "to a\u2019 ", "3886": "to ed ", "3887": "to ha ", "3888": "to il ", "3889": "to in ", "3890": "to io ", "3891": "to ir ", "3892": "to i\u2019 ", "3893": "to or ", "3894": "to un ", "3895": "to \u2019l ", "3896": "to \u2019n ", "3897": "tra a ", "3898": "tra e ", "3899": "tra i ", "3900": "tra \u00e8 ", "3901": "tra \u2019 ", "3902": "tre e ", "3903": "tri a ", "3904": "tri e ", "3905": "tri o ", "3906": "tri \u00e8 ", "3907": "tro a ", "3908": "tro e ", "3909": "tro i ", "3910": "tro \u00e8 ", "3911": "tr\u2019 a ", "3912": "tr\u2019 \u00e8 ", "3913": "tu \u2019l ", "3914": "t\u00e0 \u2019l ", "3915": "t\u00e9 \u2019l ", "3916": "t\u00ec \u2019l ", "3917": "t\u00f2 un ", "3918": "t\u00f2 \u2019l ", "3919": "t\u2019 el ", "3920": "t\u2019 ha ", "3921": "t\u2019 ho ", "3922": "t\u2019 il ", "3923": "t\u2019 io ", "3924": "t\u2019 i\u2019 ", "3925": "t\u2019 om ", "3926": "va ad ", "3927": "va ai ", "3928": "va al ", "3929": "va a\u2019 ", "3930": "va ed ", "3931": "va il ", "3932": "va in ", "3933": "va io ", "3934": "va or ", "3935": "va un ", "3936": "va \u2019l ", "3937": "va \u2019n ", "3938": "ve ad ", "3939": "ve al ", "3940": "ve a\u2019 ", "3941": "ve il ", "3942": "ve in ", "3943": "ve un ", "3944": "ve \u2019l ", "3945": "vi il ", "3946": "vi in ", "3947": "vi un ", "3948": "vi \u2019l ", "3949": "vo in ", "3950": "voill ", "3951": "vra i ", "3952": "vrien ", "3953": "v\u00f2 \u2019l ", "3954": "v\u2019 ei ", "3955": "v\u2019 el ", "3956": "v\u2019 e\u2019 ", "3957": "v\u2019 ha ", "3958": "v\u2019 ho ", "3959": "v\u2019 io ", "3960": "v\u2019 i\u2019 ", "3961": "v\u2019 or ", "3962": "v\u2019 \u00e8n ", "3963": "za al ", "3964": "za ed ", "3965": "za ha ", "3966": "za il ", "3967": "za in ", "3968": "za i\u2019 ", "3969": "za oh ", "3970": "za or ", "3971": "za un ", "3972": "za \u2019l ", "3973": "zi ad ", "3974": "zi ai ", "3975": "zi al ", "3976": "zi il ", "3977": "zi or ", "3978": "zi un ", "3979": "zi \u2019l ", "3980": "zia a ", "3981": "zia e ", "3982": "zia o ", "3983": "zia \u00e8 ", "3984": "zio a ", "3985": "zio e ", "3986": "zio \u00e8 ", "3987": "zo al ", "3988": "zo il ", "3989": "zo in ", "3990": "zo \u2019l ", "3991": "z\u00f2 il ", "3992": "z\u00f2 \u2019l ", "3993": "\u2019v\u2019 \u00e8 ", "3994": "a al ", "3995": "a il ", "3996": "a in ", "3997": "a \u2019l ", "3998": "ba e ", "3999": "be a ", "4000": "be e ", "4001": "be i ", "4002": "bent ", "4003": "bi a ", "4004": "bi e ", "4005": "bi i ", "4006": "bian ", "4007": "biar ", "4008": "bia\u2019 ", "4009": "bion ", "4010": "blia ", "4011": "blio ", "4012": "bo a ", "4013": "bo e ", "4014": "bran ", "4015": "brar ", "4016": "bree ", "4017": "brei ", "4018": "breo ", "4019": "bria ", "4020": "brio ", "4021": "br\u00f2t ", "4022": "buoi ", "4023": "buon ", "4024": "ca a ", "4025": "ca e ", "4026": "ca o ", "4027": "ca \u00e8 ", "4028": "caio ", "4029": "ce a ", "4030": "ce e ", "4031": "ce i ", "4032": "ce o ", "4033": "ce \u00e8 ", "4034": "cean ", "4035": "ched ", "4036": "chel ", "4037": "cheo ", "4038": "chia ", "4039": "chie ", "4040": "chin ", "4041": "chio ", "4042": "chi\u00f2 ", "4043": "ci a ", "4044": "ci e ", "4045": "ci o ", "4046": "ci \u00e8 ", "4047": "ciai ", "4048": "ciam ", "4049": "cian ", "4050": "ciar ", "4051": "cia\u2019 ", "4052": "ciel ", "4053": "ciol ", "4054": "cion ", "4055": "ciul ", "4056": "ci\u00f2l ", "4057": "cl\u00e8s ", "4058": "co a ", "4059": "co e ", "4060": "co i ", "4061": "co o ", "4062": "co \u00e8 ", "4063": "com\u2019 ", "4064": "cral ", "4065": "crea ", "4066": "cria ", "4067": "crin ", "4068": "cuor ", "4069": "c\u00f2th ", "4070": "c\u2019 \u00e8 ", "4071": "da a ", "4072": "da e ", "4073": "da i ", "4074": "da o ", "4075": "dail ", "4076": "de a ", "4077": "de e ", "4078": "de i ", "4079": "de o ", "4080": "de \u00e8 ", "4081": "dean ", "4082": "di a ", "4083": "di e ", "4084": "di i ", "4085": "di o ", "4086": "diam ", "4087": "dien ", "4088": "dier ", "4089": "die\u2019 ", "4090": "do a ", "4091": "do e ", "4092": "do i ", "4093": "do o ", "4094": "do \u00e8 ", "4095": "drai ", "4096": "dra\u2019 ", "4097": "drea ", "4098": "drel ", "4099": "dria ", "4100": "drir ", "4101": "dron ", "4102": "duol ", "4103": "d\u00e8ch ", "4104": "d\u00ec i ", "4105": "d\u2019 i ", "4106": "d\u2019 \u00e8 ", "4107": "e in ", "4108": "e or ", "4109": "e \u2019l ", "4110": "e \u2019n ", "4111": "fe e ", "4112": "fi e ", "4113": "fian ", "4114": "fiar ", "4115": "fien ", "4116": "fier ", "4117": "fior ", "4118": "fo \u00e8 ", "4119": "fren ", "4120": "frir ", "4121": "frui ", "4122": "fu a ", "4123": "fuor ", "4124": "f\u00e9 i ", "4125": "ga a ", "4126": "ga e ", "4127": "ga o ", "4128": "gaio ", "4129": "ge a ", "4130": "ge e ", "4131": "ge \u00e8 ", "4132": "gean ", "4133": "ghia ", "4134": "ghie ", "4135": "ghin ", "4136": "ghio ", "4137": "ghi\u00f2 ", "4138": "gi a ", "4139": "gi e ", "4140": "giai ", "4141": "giam ", "4142": "gian ", "4143": "giar ", "4144": "gien ", "4145": "gier ", "4146": "gioi ", "4147": "gion ", "4148": "gior ", "4149": "giun ", "4150": "gi\u00f9e ", "4151": "glia ", "4152": "glie ", "4153": "glio ", "4154": "gli\u00f2 ", "4155": "gnan ", "4156": "gnar ", "4157": "gnel ", "4158": "gner ", "4159": "gnes ", "4160": "gnia ", "4161": "gnin ", "4162": "gnon ", "4163": "gnor ", "4164": "gnum ", "4165": "gnun ", "4166": "gnus ", "4167": "go a ", "4168": "go e ", "4169": "go o ", "4170": "go \u00e8 ", "4171": "gran ", "4172": "grin ", "4173": "grue ", "4174": "guai ", "4175": "gual ", "4176": "guan ", "4177": "guia ", "4178": "guio ", "4179": "guir ", "4180": "guis ", "4181": "guon ", "4182": "i il ", "4183": "i in ", "4184": "io e ", "4185": "la a ", "4186": "la e ", "4187": "la i ", "4188": "la o ", "4189": "la \u00e8 ", "4190": "laia ", "4191": "laio ", "4192": "le a ", "4193": "le e ", "4194": "le i ", "4195": "le o ", "4196": "le \u00e8 ", "4197": "li a ", "4198": "li e ", "4199": "li i ", "4200": "li o ", "4201": "li \u00e8 ", "4202": "lian ", "4203": "lien ", "4204": "lier ", "4205": "lo a ", "4206": "lo e ", "4207": "lo i ", "4208": "lo \u00e8 ", "4209": "luia ", "4210": "l\u00e0 i ", "4211": "l\u00ec \u00e8 ", "4212": "l\u2019 \u00e8 ", "4213": "ma a ", "4214": "ma e ", "4215": "ma i ", "4216": "ma o ", "4217": "ma \u00e8 ", "4218": "maia ", "4219": "maio ", "4220": "me a ", "4221": "me e ", "4222": "me i ", "4223": "me \u00e8 ", "4224": "mi a ", "4225": "mi e ", "4226": "mi i ", "4227": "mian ", "4228": "miei ", "4229": "mie\u2019 ", "4230": "mo a ", "4231": "mo e ", "4232": "mo i ", "4233": "mo \u00e8 ", "4234": "muoi ", "4235": "muor ", "4236": "m\u2019 \u00e8 ", "4237": "na a ", "4238": "na e ", "4239": "na o ", "4240": "na \u00e8 ", "4241": "nail ", "4242": "naio ", "4243": "naut ", "4244": "ne a ", "4245": "ne e ", "4246": "ne i ", "4247": "ne o ", "4248": "ne \u00e8 ", "4249": "nean ", "4250": "ni a ", "4251": "ni e ", "4252": "ni o ", "4253": "ni \u00e8 ", "4254": "niam ", "4255": "nian ", "4256": "nien ", "4257": "nier ", "4258": "no a ", "4259": "no e ", "4260": "no i ", "4261": "no o ", "4262": "no \u00e8 ", "4263": "n\u2019 \u00e8 ", "4264": "o al ", "4265": "o il ", "4266": "o in ", "4267": "o un ", "4268": "o \u2019n ", "4269": "pa a ", "4270": "pa e ", "4271": "pa \u00e8 ", "4272": "pe e ", "4273": "pe i ", "4274": "ph\u00e8l ", "4275": "pi e ", "4276": "pian ", "4277": "piar ", "4278": "pia\u2019 ", "4279": "pien ", "4280": "pier ", "4281": "pion ", "4282": "pi\u00e9r ", "4283": "pi\u00f9e ", "4284": "plar ", "4285": "plor ", "4286": "pluo ", "4287": "po a ", "4288": "po e ", "4289": "po i ", "4290": "po o ", "4291": "po \u00e8 ", "4292": "prai ", "4293": "prec ", "4294": "prei ", "4295": "pria ", "4296": "prie ", "4297": "prio ", "4298": "prir ", "4299": "pri\u2019 ", "4300": "pron ", "4301": "prun ", "4302": "puoi ", "4303": "quae ", "4304": "quai ", "4305": "qual ", "4306": "quam ", "4307": "quar ", "4308": "quei ", "4309": "quel ", "4310": "que\u2019 ", "4311": "quia ", "4312": "quie ", "4313": "quod ", "4314": "quor ", "4315": "ra a ", "4316": "ra e ", "4317": "ra i ", "4318": "ra o ", "4319": "ra \u00e8 ", "4320": "re a ", "4321": "re e ", "4322": "re i ", "4323": "re o ", "4324": "re \u00e8 ", "4325": "rean ", "4326": "rent ", "4327": "ri a ", "4328": "ri e ", "4329": "ri o ", "4330": "riai ", "4331": "rian ", "4332": "rien ", "4333": "ro a ", "4334": "ro e ", "4335": "ro i ", "4336": "ro o ", "4337": "ro \u00e8 ", "4338": "runt ", "4339": "r\u2019 a ", "4340": "sa a ", "4341": "sa e ", "4342": "sa i ", "4343": "sa o ", "4344": "sa \u00e8 ", "4345": "saia ", "4346": "scar ", "4347": "scea ", "4348": "scel ", "4349": "scer ", "4350": "sche ", "4351": "schi ", "4352": "scia ", "4353": "scie ", "4354": "scio ", "4355": "scir ", "4356": "sci\u00f2 ", "4357": "sci\u2019 ", "4358": "scon ", "4359": "scun ", "4360": "sc\u00eco ", "4361": "se a ", "4362": "se e ", "4363": "se i ", "4364": "se o ", "4365": "se \u00e8 ", "4366": "sfar ", "4367": "si a ", "4368": "si e ", "4369": "si i ", "4370": "si o ", "4371": "si \u00e8 ", "4372": "siam ", "4373": "sian ", "4374": "sien ", "4375": "sier ", "4376": "sie\u2019 ", "4377": "sion ", "4378": "slao ", "4379": "so a ", "4380": "so e ", "4381": "so i ", "4382": "so o ", "4383": "so \u00e8 ", "4384": "sper ", "4385": "spia ", "4386": "spir ", "4387": "spri ", "4388": "spro ", "4389": "stai ", "4390": "stan ", "4391": "star ", "4392": "stea ", "4393": "stei ", "4394": "stel ", "4395": "steo ", "4396": "stia ", "4397": "stie ", "4398": "stil ", "4399": "stin ", "4400": "sti\u00f2 ", "4401": "stor ", "4402": "stra ", "4403": "stre ", "4404": "stri ", "4405": "stro ", "4406": "str\u00f2 ", "4407": "stui ", "4408": "st\u00e8r ", "4409": "st\u00f2r ", "4410": "su i ", "4411": "sunt ", "4412": "suoi ", "4413": "suol ", "4414": "suon ", "4415": "suo\u2019 ", "4416": "svia ", "4417": "s\u00e9 i ", "4418": "s\u2019 a ", "4419": "s\u2019 \u00e8 ", "4420": "ta a ", "4421": "ta e ", "4422": "ta i ", "4423": "ta o ", "4424": "ta \u00e8 ", "4425": "te a ", "4426": "te e ", "4427": "te i ", "4428": "te o ", "4429": "te \u00e8 ", "4430": "tean ", "4431": "ti a ", "4432": "ti e ", "4433": "ti i ", "4434": "ti o ", "4435": "ti \u00e8 ", "4436": "tiam ", "4437": "tien ", "4438": "tier ", "4439": "to a ", "4440": "to e ", "4441": "to i ", "4442": "to o ", "4443": "to \u00e8 ", "4444": "toio ", "4445": "trae ", "4446": "trai ", "4447": "tram ", "4448": "tran ", "4449": "trar ", "4450": "tra\u2019 ", "4451": "trea ", "4452": "tree ", "4453": "trei ", "4454": "tria ", "4455": "trio ", "4456": "tris ", "4457": "trui ", "4458": "tr\u00e0s ", "4459": "tu i ", "4460": "tu \u2019 ", "4461": "tuoi ", "4462": "tuon ", "4463": "tuo\u2019 ", "4464": "t\u2019 i ", "4465": "t\u2019 \u00e8 ", "4466": "va a ", "4467": "va e ", "4468": "va i ", "4469": "va o ", "4470": "vaio ", "4471": "ve a ", "4472": "ve e ", "4473": "ve i ", "4474": "ve o ", "4475": "vean ", "4476": "ver\u2019 ", "4477": "vi a ", "4478": "vi e ", "4479": "vi o ", "4480": "vi \u00e8 ", "4481": "viam ", "4482": "vian ", "4483": "vien ", "4484": "vier ", "4485": "vo a ", "4486": "vo e ", "4487": "vria ", "4488": "vuoi ", "4489": "vuol ", "4490": "vuo\u2019 ", "4491": "v\u2019 a ", "4492": "v\u2019 \u00e8 ", "4493": "za a ", "4494": "za e ", "4495": "za i ", "4496": "za o ", "4497": "za \u00e8 ", "4498": "ze e ", "4499": "ze o ", "4500": "zi a ", "4501": "zi e ", "4502": "zi \u00e8 ", "4503": "zian ", "4504": "ziar ", "4505": "zion ", "4506": "zo a ", "4507": "zo e ", "4508": "\u00e8 il ", "4509": "\u00e8 in ", "4510": "\u00e8 \u2019l ", "4511": "\u00e8 \u2019n ", "4512": "\u2018qui ", "4513": "a a ", "4514": "a e ", "4515": "a i ", "4516": "ahi ", "4517": "ban ", "4518": "bar ", "4519": "bee ", "4520": "bei ", "4521": "bel ", "4522": "ben ", "4523": "beo ", "4524": "ber ", "4525": "bia ", "4526": "bil ", "4527": "bin ", "4528": "bio ", "4529": "bir ", "4530": "bis ", "4531": "bi\u00f2 ", "4532": "bol ", "4533": "bon ", "4534": "bor ", "4535": "bra ", "4536": "bre ", "4537": "bri ", "4538": "bro ", "4539": "bue ", "4540": "bui ", "4541": "bus ", "4542": "b\u00e0l ", "4543": "b\u00e8l ", "4544": "b\u00eca ", "4545": "cai ", "4546": "cal ", "4547": "can ", "4548": "car ", "4549": "cea ", "4550": "cei ", "4551": "cel ", "4552": "cem ", "4553": "cen ", "4554": "ceo ", "4555": "cer ", "4556": "ces ", "4557": "che ", "4558": "chi ", "4559": "ch\u00e9 ", "4560": "cia ", "4561": "cie ", "4562": "cil ", "4563": "cin ", "4564": "cio ", "4565": "cis ", "4566": "ci\u00f2 ", "4567": "cle ", "4568": "clo ", "4569": "coi ", "4570": "col ", "4571": "con ", "4572": "cor ", "4573": "co\u2019 ", "4574": "cra ", "4575": "cre ", "4576": "cri ", "4577": "cro ", "4578": "cui ", "4579": "cul ", "4580": "cum ", "4581": "cun ", "4582": "cur ", "4583": "cut ", "4584": "cu\u2019 ", "4585": "c\u00e0n ", "4586": "c\u00f2b ", "4587": "c\u00f2l ", "4588": "dai ", "4589": "dal ", "4590": "dan ", "4591": "dar ", "4592": "da\u2019 ", "4593": "dea ", "4594": "dee ", "4595": "deh ", "4596": "dei ", "4597": "del ", "4598": "dem ", "4599": "deo ", "4600": "der ", "4601": "des ", "4602": "de\u2019 ", "4603": "dia ", "4604": "die ", "4605": "dii ", "4606": "dil ", "4607": "din ", "4608": "dio ", "4609": "dir ", "4610": "di\u00e8 ", "4611": "di\u2019 ", "4612": "don ", "4613": "dor ", "4614": "dra ", "4615": "dre ", "4616": "dri ", "4617": "dro ", "4618": "dr\u00e0 ", "4619": "dr\u00ec ", "4620": "dr\u00f2 ", "4621": "dua ", "4622": "due ", "4623": "dui ", "4624": "duo ", "4625": "dur ", "4626": "du\u2019 ", "4627": "d\u00e8i ", "4628": "d\u00eca ", "4629": "d\u00ece ", "4630": "d\u00ect ", "4631": "e i ", "4632": "e \u2019 ", "4633": "ean ", "4634": "est ", "4635": "fai ", "4636": "fal ", "4637": "fan ", "4638": "far ", "4639": "fei ", "4640": "feo ", "4641": "fer ", "4642": "fe\u2019 ", "4643": "fia ", "4644": "fie ", "4645": "fil ", "4646": "fin ", "4647": "fio ", "4648": "fi\u00f2 ", "4649": "fi\u2019 ", "4650": "fon ", "4651": "for ", "4652": "fra ", "4653": "fue ", "4654": "fui ", "4655": "fur ", "4656": "fu\u2019 ", "4657": "f\u00e0s ", "4658": "f\u00e0t ", "4659": "f\u00e8l ", "4660": "f\u00e9e ", "4661": "f\u00f3n ", "4662": "gai ", "4663": "gal ", "4664": "gan ", "4665": "gar ", "4666": "ga\u2019 ", "4667": "gea ", "4668": "gei ", "4669": "gel ", "4670": "ger ", "4671": "ges ", "4672": "ghe ", "4673": "ghi ", "4674": "gia ", "4675": "gin ", "4676": "gio ", "4677": "gir ", "4678": "gis ", "4679": "gi\u00e0 ", "4680": "gi\u00f2 ", "4681": "gi\u00f9 ", "4682": "gi\u2019 ", "4683": "gli ", "4684": "gna ", "4685": "gne ", "4686": "gni ", "4687": "gno ", "4688": "gol ", "4689": "gon ", "4690": "gor ", "4691": "gra ", "4692": "gre ", "4693": "gri ", "4694": "gro ", "4695": "gru ", "4696": "gua ", "4697": "gue ", "4698": "gui ", "4699": "gu\u00ec ", "4700": "gu\u00f2 ", "4701": "g\u00f3n ", "4702": "g\u00f3r ", "4703": "hai ", "4704": "han ", "4705": "ian ", "4706": "ier ", "4707": "ieu ", "4708": "ion ", "4709": "joi ", "4710": "lai ", "4711": "lan ", "4712": "lar ", "4713": "la\u2019 ", "4714": "lea ", "4715": "lee ", "4716": "lei ", "4717": "lem ", "4718": "len ", "4719": "leo ", "4720": "ler ", "4721": "lia ", "4722": "lie ", "4723": "lin ", "4724": "lio ", "4725": "lir ", "4726": "lis ", "4727": "lon ", "4728": "lor ", "4729": "lui ", "4730": "lu\u2019 ", "4731": "l\u00e8m ", "4732": "l\u00eca ", "4733": "l\u00eco ", "4734": "l\u00f2n ", "4735": "mae ", "4736": "mai ", "4737": "mal ", "4738": "man ", "4739": "mar ", "4740": "mas ", "4741": "ma\u2019 ", "4742": "mea ", "4743": "mee ", "4744": "mei ", "4745": "men ", "4746": "meo ", "4747": "mer ", "4748": "me\u2019 ", "4749": "mia ", "4750": "mie ", "4751": "mii ", "4752": "mil ", "4753": "min ", "4754": "mio ", "4755": "mi\u2019 ", "4756": "mon ", "4757": "mor ", "4758": "mul ", "4759": "mum ", "4760": "mun ", "4761": "mus ", "4762": "m\u00eca ", "4763": "m\u00ecs ", "4764": "nai ", "4765": "nal ", "4766": "nan ", "4767": "nar ", "4768": "na\u2019 ", "4769": "nea ", "4770": "nei ", "4771": "nel ", "4772": "nem ", "4773": "neo ", "4774": "ner ", "4775": "ne\u2019 ", "4776": "nha ", "4777": "nia ", "4778": "nie ", "4779": "nii ", "4780": "nil ", "4781": "nin ", "4782": "nio ", "4783": "nir ", "4784": "nis ", "4785": "ni\u2019 ", "4786": "noi ", "4787": "nol ", "4788": "non ", "4789": "nor ", "4790": "no\u2019 ", "4791": "num ", "4792": "n\u00e8s ", "4793": "n\u00eca ", "4794": "n\u00ece ", "4795": "n\u00ect ", "4796": "n\u00f2i ", "4797": "n\u00f2s ", "4798": "o a ", "4799": "o e ", "4800": "pal ", "4801": "pan ", "4802": "par ", "4803": "pea ", "4804": "pei ", "4805": "pel ", "4806": "pem ", "4807": "peo ", "4808": "per ", "4809": "pia ", "4810": "pie ", "4811": "pii ", "4812": "pin ", "4813": "pio ", "4814": "pir ", "4815": "pi\u00e8 ", "4816": "pi\u00e9 ", "4817": "pi\u00f9 ", "4818": "plo ", "4819": "poi ", "4820": "pol ", "4821": "pon ", "4822": "por ", "4823": "pra ", "4824": "pre ", "4825": "pri ", "4826": "pro ", "4827": "pr\u00e0 ", "4828": "pr\u00ec ", "4829": "pur ", "4830": "pu\u00f2 ", "4831": "p\u00eca ", "4832": "p\u00f2s ", "4833": "qua ", "4834": "que ", "4835": "qui ", "4836": "rai ", "4837": "ral ", "4838": "ram ", "4839": "ran ", "4840": "rao ", "4841": "rar ", "4842": "ra\u2019 ", "4843": "rea ", "4844": "ree ", "4845": "rei ", "4846": "rel ", "4847": "rem ", "4848": "ren ", "4849": "reo ", "4850": "rer ", "4851": "res ", "4852": "re\u2019 ", "4853": "ria ", "4854": "rie ", "4855": "rii ", "4856": "ril ", "4857": "rin ", "4858": "rio ", "4859": "rir ", "4860": "ri\u2019 ", "4861": "ron ", "4862": "ror ", "4863": "ros ", "4864": "rua ", "4865": "rui ", "4866": "rum ", "4867": "r\u00ecb ", "4868": "r\u00ece ", "4869": "r\u00ecs ", "4870": "r\u00f2l ", "4871": "r\u00f3n ", "4872": "sai ", "4873": "sal ", "4874": "san ", "4875": "sar ", "4876": "sa\u2019 ", "4877": "sca ", "4878": "sce ", "4879": "sci ", "4880": "sco ", "4881": "sc\u00ec ", "4882": "sei ", "4883": "sel ", "4884": "sem ", "4885": "sen ", "4886": "seo ", "4887": "ser ", "4888": "se\u2019 ", "4889": "sia ", "4890": "sie ", "4891": "sii ", "4892": "sin ", "4893": "sio ", "4894": "sir ", "4895": "sis ", "4896": "sit ", "4897": "sma ", "4898": "smi ", "4899": "smo ", "4900": "sol ", "4901": "som ", "4902": "son ", "4903": "sor ", "4904": "spa ", "4905": "spe ", "4906": "sta ", "4907": "ste ", "4908": "sti ", "4909": "sto ", "4910": "st\u00e0 ", "4911": "st\u00e9 ", "4912": "st\u00ec ", "4913": "st\u00f2 ", "4914": "st\u00f9 ", "4915": "sua ", "4916": "sub ", "4917": "sue ", "4918": "sui ", "4919": "sul ", "4920": "sun ", "4921": "suo ", "4922": "su\u2019 ", "4923": "s\u00ece ", "4924": "s\u00f3n ", "4925": "s\u00f9e ", "4926": "tai ", "4927": "tal ", "4928": "tan ", "4929": "tar ", "4930": "ta\u2019 ", "4931": "tea ", "4932": "tei ", "4933": "tel ", "4934": "tem ", "4935": "ten ", "4936": "teo ", "4937": "ter ", "4938": "tes ", "4939": "te\u2019 ", "4940": "tia ", "4941": "tii ", "4942": "til ", "4943": "tin ", "4944": "tio ", "4945": "tir ", "4946": "tis ", "4947": "ti\u2019 ", "4948": "tol ", "4949": "ton ", "4950": "tor ", "4951": "tra ", "4952": "tre ", "4953": "tri ", "4954": "tro ", "4955": "tr\u00e0 ", "4956": "tr\u00f2 ", "4957": "tua ", "4958": "tue ", "4959": "tui ", "4960": "tum ", "4961": "tun ", "4962": "tuo ", "4963": "tus ", "4964": "t\u00e0n ", "4965": "t\u00e8s ", "4966": "t\u00e9r ", "4967": "t\u00f2n ", "4968": "t\u00f2r ", "4969": "t\u00f3n ", "4970": "unt ", "4971": "uom ", "4972": "uo\u2019 ", "4973": "vai ", "4974": "val ", "4975": "vam ", "4976": "van ", "4977": "var ", "4978": "vas ", "4979": "vau ", "4980": "va\u2019 ", "4981": "vea ", "4982": "vei ", "4983": "vel ", "4984": "vem ", "4985": "ven ", "4986": "ver ", "4987": "ve\u2019 ", "4988": "via ", "4989": "vie ", "4990": "vii ", "4991": "vil ", "4992": "vin ", "4993": "vio ", "4994": "voi ", "4995": "vol ", "4996": "von ", "4997": "vos ", "4998": "vo\u2019 ", "4999": "vra ", "5000": "v\u00ecd ", "5001": "zai ", "5002": "zan ", "5003": "zar ", "5004": "za\u2019 ", "5005": "zia ", "5006": "zie ", "5007": "zii ", "5008": "zio ", "5009": "zon ", "5010": "zul ", "5011": "z\u00f2n ", "5012": "\u00f2th ", "5013": "\u2018te ", "5014": "\u2019ve ", "5015": "ab ", "5016": "ad ", "5017": "ae ", "5018": "ai ", "5019": "al ", "5020": "am ", "5021": "an ", "5022": "ar ", "5023": "as ", "5024": "a\u2019 ", "5025": "ba ", "5026": "be ", "5027": "bi ", "5028": "bo ", "5029": "b\u00e8 ", "5030": "b\u00ec ", "5031": "b\u00f2 ", "5032": "b\u00f9 ", "5033": "ca ", "5034": "ce ", "5035": "ci ", "5036": "co ", "5037": "c\u00e8 ", "5038": "c\u00e9 ", "5039": "c\u00f2 ", "5040": "da ", "5041": "de ", "5042": "di ", "5043": "do ", "5044": "d\u00e0 ", "5045": "d\u00e9 ", "5046": "d\u00ec ", "5047": "d\u00f2 ", "5048": "ed ", "5049": "ei ", "5050": "el ", "5051": "et ", "5052": "e\u2019 ", "5053": "fa ", "5054": "fe ", "5055": "fi ", "5056": "fo ", "5057": "fu ", "5058": "f\u00e0 ", "5059": "f\u00e9 ", "5060": "f\u00f2 ", "5061": "ga ", "5062": "ge ", "5063": "gi ", "5064": "go ", "5065": "g\u00ec ", "5066": "g\u00f2 ", "5067": "ha ", "5068": "hi ", "5069": "ho ", "5070": "ia ", "5071": "ie ", "5072": "il ", "5073": "in ", "5074": "io ", "5075": "ir ", "5076": "i\u2019 ", "5077": "la ", "5078": "le ", "5079": "li ", "5080": "lo ", "5081": "l\u00e0 ", "5082": "l\u00e8 ", "5083": "l\u00ec ", "5084": "l\u00f2 ", "5085": "ma ", "5086": "me ", "5087": "mi ", "5088": "mo ", "5089": "m\u00e8 ", "5090": "m\u00f2 ", "5091": "na ", "5092": "ne ", "5093": "ni ", "5094": "no ", "5095": "n\u00e0 ", "5096": "n\u00e8 ", "5097": "n\u00e9 ", "5098": "n\u00ec ", "5099": "n\u00f2 ", "5100": "od ", "5101": "oh ", "5102": "om ", "5103": "on ", "5104": "or ", "5105": "os ", "5106": "pa ", "5107": "pe ", "5108": "pi ", "5109": "po ", "5110": "p\u00e8 ", "5111": "p\u00f2 ", "5112": "ra ", "5113": "re ", "5114": "ri ", "5115": "ro ", "5116": "r\u00e0 ", "5117": "r\u00ec ", "5118": "r\u00f2 ", "5119": "sa ", "5120": "se ", "5121": "si ", "5122": "so ", "5123": "su ", "5124": "s\u00e8 ", "5125": "s\u00e9 ", "5126": "s\u00ec ", "5127": "s\u00f2 ", "5128": "s\u00f9 ", "5129": "ta ", "5130": "te ", "5131": "ti ", "5132": "to ", "5133": "tu ", "5134": "t\u00e0 ", "5135": "t\u00e8 ", "5136": "t\u00e9 ", "5137": "t\u00ec ", "5138": "t\u00f2 ", "5139": "t\u00f9 ", "5140": "um ", "5141": "un ", "5142": "us ", "5143": "u\u2019 ", "5144": "va ", "5145": "ve ", "5146": "vi ", "5147": "vo ", "5148": "v\u00ec ", "5149": "v\u00f2 ", "5150": "za ", "5151": "ze ", "5152": "zi ", "5153": "zo ", "5154": "z\u00f2 ", "5155": "\u00e0m ", "5156": "\u00e0r ", "5157": "\u00e0s ", "5158": "\u00e8e ", "5159": "\u00e8l ", "5160": "\u00e9n ", "5161": "\u00ecs ", "5162": "\u00f2n ", "5163": "\u00f2s ", "5164": "\u00f3n ", "5165": "\u00f9l ", "5166": "a ", "5167": "d ", "5168": "e ", "5169": "i ", "5170": "l ", "5171": "o ", "5172": "p ", "5173": "\u00e8 ", "5174": "\u00ec ", "5175": "\u00ef ", "5176": "\u00f2 ", "5177": "\u00f9 "}