{"0": "", "1": "<t>", "2": "<s>", "3": "<v>", "4": "</v>", "5": "\u2019", "6": "u", "7": "\u00eb", "8": "\u00e9", "9": "\u00fc", "10": "\u00e8", "11": "s", "12": "e", "13": "\u00ef", "14": "i", "15": "o", "16": "\u00f2", "17": "a", "18": "\u00f9", "19": "bu", "20": "un", "21": "e\u2019", "22": "go", "23": "qu", "24": "su", "25": "vo", "26": "ra", "27": "eb", "28": "b\u00e8", "29": "\u00e8l", "30": "c\u00ef", "31": "am", "32": "on", "33": "g\u2019", "34": "t\u00f9", "35": "n\u00ec", "36": "ge", "37": "v\u00f2", "38": "c\u00f2", "39": "li", "40": "\u00e0s", "41": "re", "42": "il", "43": "d\u00ef", "44": "d\u00e0", "45": "l\u00eb", "46": "ia", "47": "of", "48": "v\u00e8", "49": "b\u00eb", "50": "g\u00e8", "51": "af", "52": "pi", "53": "p\u2019", "54": "p\u00fc", "55": "s\u00e8", "56": "ti", "57": "oc", "58": "b\u00ef", "59": "ai", "60": "\u2019n", "61": "\u00e0r", "62": "fo", "63": "za", "64": "fu", "65": "vi", "66": "m\u00e4", "67": "g\u00ec", "68": "em", "69": "ru", "70": "ul", "71": "s\u00fc", "72": "zi", "73": "d\u00fc", "74": "r\u00f3", "75": "ae", "76": "ca", "77": "m\u00f2", "78": "at", "79": "um", "80": "d\u00e8", "81": "r\u00ef", "82": "as", "83": "l\u00ec", "84": "\u2019l", "85": "is", "86": "ri", "87": "na", "88": "ut", "89": "du", "90": "m\u00eb", "91": "z\u00ef", "92": "co", "93": "v\u00ef", "94": "n\u00e8", "95": "os", "96": "f\u00e0", "97": "m\u00ef", "98": "og", "99": "ol", "100": "t\u2019", "101": "ag", "102": "op", "103": "ci", "104": "t\u00f2", "105": "eu", "106": "ne", "107": "d\u00e9", "108": "ch", "109": "so", "110": "c\u00fc", "111": "m\u00ec", "112": "ur", "113": "t\u00e8", "114": "fe", "115": "l\u00e8", "116": "hi", "117": "s\u00ef", "118": "in", "119": "om", "120": "g\u00f2", "121": "p\u00eb", "122": "mo", "123": "\u00e8n", "124": "c\u00f9", "125": "z\u2019", "126": "et", "127": "ei", "128": "r\u00eb", "129": "t\u00ec", "130": "ap", "131": "no", "132": "n\u00ef", "133": "te", "134": "t\u00fc", "135": "f\u00f3", "136": "se", "137": "pe", "138": "pa", "139": "b\u00f2", "140": "l\u2019", "141": "v\u2019", "142": "uc", "143": "d\u00ec", "144": "c\u00ec", "145": "fi", "146": "ta", "147": "t\u00eb", "148": "ze", "149": "iu", "150": "a\u2019", "151": "g\u00f3", "152": "l\u00f2", "153": "pu", "154": "si", "155": "es", "156": "\u00e0n", "157": "\u00e0m", "158": "v\u00ec", "159": "l\u00ef", "160": "d\u00f2", "161": "r\u2019", "162": "\u00e8v", "163": "zo", "164": "l\u00f6", "165": "\u00e9n", "166": "r\u00e0", "167": "uo", "168": "c\u00eb", "169": "io", "170": "ad", "171": "t\u00e9", "172": "t\u00ef", "173": "f\u00ef", "174": "r\u00f2", "175": "al", "176": "to", "177": "an", "178": "b\u00f9", "179": "or", "180": "n\u00fc", "181": "p\u00ec", "182": "s\u00f2", "183": "p\u00ef", "184": "u\u2019", "185": "n\u00f2", "186": "lo", "187": "nu", "188": "ir", "189": "n\u00eb", "190": "ve", "191": "z\u00f2", "192": "ab", "193": "s\u2019", "194": "de", "195": "t\u00e0", "196": "s\u00e9", "197": "p\u00f2", "198": "oh", "199": "r\u00e8", "200": "ov", "201": "bo", "202": "ed", "203": "\u2019m", "204": "er", "205": "l\u00e0", "206": "ma", "207": "\u00f3n", "208": "g\u00eb", "209": "ec", "210": "fa", "211": "us", "212": "t\u00e4", "213": "s\u00ec", "214": "da", "215": "ot", "216": "p\u00e8", "217": "m\u00e8", "218": "n\u00e9", "219": "do", "220": "me", "221": "cu", "222": "au", "223": "be", "224": "b\u2019", "225": "m\u2019", "226": "n\u2019", "227": "ga", "228": "s\u00eb", "229": "vu", "230": "ie", "231": "el", "232": "ho", "233": "va", "234": "\u00f9l", "235": "mi", "236": "ro", "237": "gu", "238": "ha", "239": "im", "240": "s\u00e0", "241": "ce", "242": "r\u00ec", "243": "az", "244": "l\u00fc", "245": "ac", "246": "ar", "247": "ef", "248": "en", "249": "di", "250": "gi", "251": "ob", "252": "n\u00e0", "253": "sa", "254": "od", "255": "le", "256": "v\u00eb", "257": "la", "258": "f\u00e9", "259": "mu", "260": "i\u2019", "261": "lu", "262": "d\u2019", "263": "c\u2019", "264": "c\u00e9", "265": "s\u00f9", "266": "ba", "267": "bi", "268": "\u00e8i", "269": "tu", "270": "id", "271": "d\u00eb", "272": "av", "273": "\u00f2s", "274": "po", "275": "g\u00ef", "276": "ni", "277": "f\u00f2", "278": "f\u00eb", "279": "bia", "280": "sep", "281": "che", "282": "nal", "283": "ric", "284": "ros", "285": "sor", "286": "dit", "287": "chi", "288": "rio", "289": "sua", "290": "gob", "291": "lu\u2019", "292": "cov", "293": "flu", "294": "cin", "295": "tar", "296": "bom", "297": "tr\u2019", "298": "cu\u2019", "299": "mie", "300": "dub", "301": "fon", "302": "bli", "303": "din", "304": "zul", "305": "sud", "306": "zio", "307": "qu\u2019", "308": "dee", "309": "gar", "310": "fiu", "311": "vam", "312": "nor", "313": "ten", "314": "pr\u00ec", "315": "uom", "316": "del", "317": "pin", "318": "dif", "319": "sol", "320": "teg", "321": "com", "322": "ch\u00ec", "323": "bro", "324": "fei", "325": "run", "326": "fes", "327": "cer", "328": "pol", "329": "gru", "330": "gni", "331": "lac", "332": "ta\u2019", "333": "car", "334": "fis", "335": "rer", "336": "te\u2019", "337": "bi\u00f2", "338": "bri", "339": "sve", "340": "pi\u00e9", "341": "noz", "342": "cla", "343": "feb", "344": "van", "345": "sra", "346": "par", "347": "bie", "348": "neo", "349": "ion", "350": "pro", "351": "fol", "352": "lee", "353": "gh\u2019", "354": "bea", "355": "lio", "356": "noi", "357": "giu", "358": "seg", "359": "suc", "360": "poc", "361": "ve\u2019", "362": "sc\u00ec", "363": "lez", "364": "zai", "365": "det", "366": "su\u2019", "367": "gi\u00e0", "368": "vir", "369": "tue", "370": "man", "371": "cac", "372": "lit", "373": "con", "374": "reo", "375": "t\u00e9r", "376": "pio", "377": "rid", "378": "ron", "379": "nie", "380": "cep", "381": "sia", "382": "sic", "383": "fan", "384": "rol", "385": "cra", "386": "smo", "387": "leo", "388": "rit", "389": "lei", "390": "mer", "391": "fom", "392": "per", "393": "pil", "394": "zon", "395": "st\u00f9", "396": "doc", "397": "gna", "398": "sug", "399": "plu", "400": "pac", "401": "dos", "402": "ne\u2019", "403": "muc", "404": "lun", "405": "vac", "406": "tom", "407": "sla", "408": "vio", "409": "nei", "410": "rug", "411": "met", "412": "dun", "413": "meo", "414": "dru", "415": "ves", "416": "das", "417": "rei", "418": "dar", "419": "bir", "420": "ler", "421": "zac", "422": "pi\u00e8", "423": "gi\u00f2", "424": "lin", "425": "set", "426": "far", "427": "cui", "428": "peg", "429": "pap", "430": "tac", "431": "rum", "432": "dop", "433": "fe\u2019", "434": "fin", "435": "lap", "436": "cur", "437": "st\u00ec", "438": "ghe", "439": "pom", "440": "dob", "441": "tuo", "442": "tet", "443": "mes", "444": "bab", "445": "pub", "446": "nea", "447": "cit", "448": "pon", "449": "tra", "450": "ti\u2019", "451": "cul", "452": "dri", "453": "r\u00f2l", "454": "gu\u00f2", "455": "bl\u00ef", "456": "nio", "457": "pr\u2019", "458": "pea", "459": "lul", "460": "sil", "461": "rac", "462": "sfe", "463": "vid", "464": "coz", "465": "dil", "466": "bar", "467": "riz", "468": "sal", "469": "pog", "470": "ram", "471": "lim", "472": "ghi", "473": "zuf", "474": "ior", "475": "vie", "476": "pri", "477": "lil", "478": "ieu", "479": "ian", "480": "sur", "481": "v\u00ecd", "482": "ras", "483": "fic", "484": "gri", "485": "biz", "486": "nim", "487": "ha\u2019", "488": "fug", "489": "pir", "490": "sc\u00ef", "491": "sin", "492": "sgo", "493": "sag", "494": "gue", "495": "bas", "496": "sei", "497": "pau", "498": "mor", "499": "pu\u00f2", "500": "vel", "501": "cos", "502": "cle", "503": "cor", "504": "peo", "505": "ria", "506": "num", "507": "pal", "508": "t\u00e0n", "509": "lia", "510": "dot", "511": "gil", "512": "reb", "513": "mat", "514": "di\u2019", "515": "guc", "516": "fos", "517": "lel", "518": "d\u00eca", "519": "gin", "520": "tan", "521": "tag", "522": "gai", "523": "vuo", "524": "mac", "525": "gis", "526": "gom", "527": "gag", "528": "bef", "529": "ver", "530": "vol", "531": "nig", "532": "leg", "533": "rec", "534": "lui", "535": "tut", "536": "d\u00e8i", "537": "hai", "538": "tau", "539": "sap", "540": "p\u00e0r", "541": "dei", "542": "sio", "543": "deo", "544": "rea", "545": "ral", "546": "pul", "547": "pr\u00e0", "548": "rat", "549": "tri", "550": "nol", "551": "dio", "552": "nul", "553": "fu\u2019", "554": "pie", "555": "gnu", "556": "nai", "557": "lop", "558": "ton", "559": "nez", "560": "ple", "561": "dez", "562": "roz", "563": "sun", "564": "b\u00eca", "565": "mos", "566": "cap", "567": "gem", "568": "mel", "569": "nas", "570": "sup", "571": "co\u2019", "572": "de\u2019", "573": "sue", "574": "vit", "575": "fib", "576": "pos", "577": "bul", "578": "rir", "579": "da\u2019", "580": "sop", "581": "ren", "582": "der", "583": "lar", "584": "pia", "585": "mag", "586": "sma", "587": "gad", "588": "leb", "589": "bre", "590": "lor", "591": "sv\u00ef", "592": "sam", "593": "gel", "594": "toc", "595": "lur", "596": "lab", "597": "vis", "598": "rof", "599": "poi", "600": "guz", "601": "luo", "602": "nic", "603": "cis", "604": "bin", "605": "mur", "606": "puc", "607": "gal", "608": "nac", "609": "fie", "610": "sul", "611": "gei", "612": "fog", "613": "sc\u2019", "614": "cen", "615": "c\u00f2b", "616": "ma\u2019", "617": "bev", "618": "guo", "619": "nom", "620": "vei", "621": "tia", "622": "deh", "623": "r\u00f3n", "624": "dr\u00ef", "625": "s\u00f3n", "626": "du\u2019", "627": "luc", "628": "gra", "629": "dr\u00e0", "630": "sir", "631": "mil", "632": "neb", "633": "pes", "634": "zaf", "635": "bor", "636": "dur", "637": "dic", "638": "gib", "639": "l\u00eco", "640": "tuf", "641": "bol", "642": "tol", "643": "unt", "644": "qu\u00ef", "645": "rot", "646": "nat", "647": "xil", "648": "gen", "649": "sta", "650": "t\u00f3n", "651": "dre", "652": "laz", "653": "sfo", "654": "clo", "655": "tec", "656": "noc", "657": "pra", "658": "lat", "659": "dut", "660": "moz", "661": "v\u00f2l", "662": "top", "663": "ran", "664": "fuo", "665": "vor", "666": "sca", "667": "gua", "668": "gie", "669": "fur", "670": "rao", "671": "lan", "672": "tun", "673": "gor", "674": "di\u00e8", "675": "gas", "676": "feo", "677": "ra\u2019", "678": "roc", "679": "sez", "680": "rap", "681": "loc", "682": "ch\u00e9", "683": "spi", "684": "muf", "685": "sec", "686": "via", "687": "von", "688": "diz", "689": "got", "690": "sfa", "691": "mai", "692": "ial", "693": "vai", "694": "t\u00f2m", "695": "poz", "696": "fro", "697": "suo", "698": "f\u00e0c", "699": "dra", "700": "spo", "701": "sof", "702": "buf", "703": "rez", "704": "mas", "705": "paz", "706": "gat", "707": "ch\u00ef", "708": "var", "709": "soz", "710": "pur", "711": "bot", "712": "nil", "713": "spu", "714": "cie", "715": "svi", "716": "maz", "717": "c\u00f2l", "718": "dov", "719": "cel", "720": "tal", "721": "st\u00ef", "722": "nha", "723": "buc", "724": "fra", "725": "cil", "726": "dan", "727": "nur", "728": "ciu", "729": "sod", "730": "tru", "731": "gim", "732": "mir", "733": "gol", "734": "f\u00f3n", "735": "l\u00e8m", "736": "rel", "737": "sai", "738": "bue", "739": "dol", "740": "pig", "741": "cot", "742": "dea", "743": "ber", "744": "sit", "745": "mal", "746": "t\u00f2r", "747": "gab", "748": "fio", "749": "vet", "750": "sno", "751": "giz", "752": "fet", "753": "tr\u00e0", "754": "cio", "755": "ste", "756": "ful", "757": "can", "758": "gur", "759": "mio", "760": "deg", "761": "sme", "762": "ahi", "763": "tir", "764": "sbi", "765": "sos", "766": "plo", "767": "gau", "768": "p\u00f2s", "769": "gan", "770": "fel", "771": "zie", "772": "ga\u2019", "773": "cia", "774": "tr\u00ef", "775": "nuc", "776": "cir", "777": "ser", "778": "nar", "779": "pec", "780": "lus", "781": "buo", "782": "fab", "783": "sna", "784": "vas", "785": "deb", "786": "sus", "787": "meg", "788": "\u2018la", "789": "cl\u00ef", "790": "caf", "791": "mul", "792": "mug", "793": "dug", "794": "mun", "795": "cea", "796": "nev", "797": "lav", "798": "m\u00e9z", "799": "tam", "800": "get", "801": "st\u00e9", "802": "tin", "803": "vom", "804": "sco", "805": "pis", "806": "rob", "807": "rig", "808": "me\u2019", "809": "cli", "810": "cei", "811": "don", "812": "n\u00eca", "813": "r\u00ecb", "814": "bus", "815": "dal", "816": "gio", "817": "cuc", "818": "bac", "819": "gi\u2019", "820": "rog", "821": "cri", "822": "tre", "823": "fam", "824": "sui", "825": "nun", "826": "rom", "827": "pop", "828": "za\u2019", "829": "sp\u00ef", "830": "pan", "831": "fia", "832": "hon", "833": "sen", "834": "lep", "835": "nen", "836": "dau", "837": "pli", "838": "rav", "839": "sot", "840": "ges", "841": "lic", "842": "bel", "843": "vea", "844": "bei", "845": "pen", "846": "dat", "847": "mon", "848": "gea", "849": "sto", "850": "cad", "851": "for", "852": "tel", "853": "col", "854": "cas", "855": "fuc", "856": "gu\u00ec", "857": "cez", "858": "puo", "859": "gon", "860": "dec", "861": "geo", "862": "gre", "863": "dia", "864": "sar", "865": "dro", "866": "ret", "867": "pot", "868": "pl\u00ec", "869": "clu", "870": "sel", "871": "cob", "872": "red", "873": "iat", "874": "mar", "875": "pun", "876": "ril", "877": "cat", "878": "voi", "879": "sii", "880": "lip", "881": "saf", "882": "re\u2019", "883": "f\u00e0s", "884": "dor", "885": "pla", "886": "niz", "887": "ri\u2019", "888": "raz", "889": "zuc", "890": "nis", "891": "st\u2019", "892": "rai", "893": "fla", "894": "fum", "895": "\u2019ve", "896": "gui", "897": "die", "898": "boc", "899": "sde", "900": "gno", "901": "min", "902": "sga", "903": "rie", "904": "cop", "905": "fri", "906": "fi\u2019", "907": "fit", "908": "vil", "909": "f\u00e8l", "910": "m\u00eca", "911": "n\u00ect", "912": "spa", "913": "rup", "914": "dir", "915": "ban", "916": "cag", "917": "bis", "918": "cr\u00e0", "919": "tr\u00f2", "920": "piu", "921": "vem", "922": "tim", "923": "mot", "924": "bil", "925": "raf", "926": "pre", "927": "br\u00ef", "928": "dam", "929": "dai", "930": "mol", "931": "tus", "932": "tic", "933": "rar", "934": "cre", "935": "nag", "936": "lis", "937": "lir", "938": "pic", "939": "gam", "940": "stu", "941": "sa\u2019", "942": "dom", "943": "so\u2019", "944": "tur", "945": "g\u00f3r", "946": "son", "947": "goc", "948": "coc", "949": "fig", "950": "nan", "951": "pei", "952": "lot", "953": "puz", "954": "bet", "955": "ses", "956": "zar", "957": "sat", "958": "ven", "959": "rim", "960": "som", "961": "luz", "962": "mia", "963": "tei", "964": "se\u2019", "965": "tie", "966": "gne", "967": "fil", "968": "nir", "969": "lut", "970": "soc", "971": "f\u00e9l", "972": "st\u00e0", "973": "sis", "974": "vat", "975": "glo", "976": "sbe", "977": "cet", "978": "por", "979": "sog", "980": "feg", "981": "vul", "982": "cun", "983": "mam", "984": "coi", "985": "ean", "986": "smu", "987": "sem", "988": "dis", "989": "fem", "990": "sac", "991": "cic", "992": "zel", "993": "fre", "994": "ter", "995": "va\u2019", "996": "sti", "997": "pru", "998": "g\u00f3n", "999": "sub", "1000": "tem", "1001": "nia", "1002": "tez", "1003": "tes", "1004": "r\u00e8g", "1005": "non", "1006": "gir", "1007": "b\u00e0l", "1008": "tuc", "1009": "lam", "1010": "neg", "1011": "nin", "1012": "st\u00f2", "1013": "l\u00f2n", "1014": "rem", "1015": "sie", "1016": "pet", "1017": "duo", "1018": "rut", "1019": "val", "1020": "git", "1021": "bec", "1022": "n\u00f2s", "1023": "han", "1024": "goz", "1025": "fal", "1026": "lem", "1027": "ch\u2019", "1028": "gi\u00f9", "1029": "pat", "1030": "pi\u00f9", "1031": "mei", "1032": "cau", "1033": "ruc", "1034": "nes", "1035": "vau", "1036": "fen", "1037": "tro", "1038": "bat", "1039": "sle", "1040": "nob", "1041": "men", "1042": "vra", "1043": "bee", "1044": "ris", "1045": "zan", "1046": "cum", "1047": "vo\u2019", "1048": "gaz", "1049": "fui", "1050": "fru", "1051": "fas", "1052": "na\u2019", "1053": "spe", "1054": "lom", "1055": "sob", "1056": "m\u00ecs", "1057": "lai", "1058": "cuo", "1059": "reg", "1060": "uo\u2019", "1061": "but", "1062": "lon", "1063": "bru", "1064": "veg", "1065": "den", "1066": "fai", "1067": "zia", "1068": "cro", "1069": "tea", "1070": "bur", "1071": "fac", "1072": "fun", "1073": "ror", "1074": "rin", "1075": "ces", "1076": "dus", "1077": "pit", "1078": "dr\u00e4", "1079": "c\u00f3l", "1080": "fat", "1081": "n\u00e8s", "1082": "nuo", "1083": "tat", "1084": "sas", "1085": "ruf", "1086": "zur", "1087": "las", "1088": "lie", "1089": "mez", "1090": "tai", "1091": "mae", "1092": "zii", "1093": "pel", "1094": "til", "1095": "bal", "1096": "fer", "1097": "ruo", "1098": "sce", "1099": "lup", "1100": "tle", "1101": "sov", "1102": "cam", "1103": "\u2019v\u2019", "1104": "gn\u00ec", "1105": "cru", "1106": "ier", "1107": "due", "1108": "cem", "1109": "tis", "1110": "f\u00e0t", "1111": "vag", "1112": "gl\u2019", "1113": "tua", "1114": "bra", "1115": "rab", "1116": "gli", "1117": "teo", "1118": "sum", "1119": "fle", "1120": "smi", "1121": "sab", "1122": "quo", "1123": "bon", "1124": "tho", "1125": "let", "1126": "r\u00ecs", "1127": "\u2018te", "1128": "lec", "1129": "pem", "1130": "dim", "1131": "les", "1132": "des", "1133": "net", "1134": "vin", "1135": "nef", "1136": "ner", "1137": "tor", "1138": "ger", "1139": "not", "1140": "gia", "1141": "qui", "1142": "cai", "1143": "scu", "1144": "vec", "1145": "nec", "1146": "ci\u00f2", "1147": "dem", "1148": "suf", "1149": "san", "1150": "lea", "1151": "len", "1152": "piz", "1153": "lau", "1154": "boz", "1155": "dul", "1156": "vez", "1157": "tas", "1158": "sci", "1159": "cal", "1160": "no\u2019", "1161": "bun", "1162": "gro", "1163": "cef", "1164": "c\u00e9r", "1165": "que", "1166": "res", "1167": "viz", "1168": "qua", "1169": "sba", "1170": "mic", "1171": "c\u00e0n", "1172": "pas", "1173": "svo", "1174": "muo", "1175": "bio", "1176": "rag", "1177": "tio", "1178": "nem", "1179": "put", "1180": "dr\u00f2", "1181": "iar", "1182": "ben", "1183": "nel", "1184": "mem", "1185": "tror", "1186": "quam", "1187": "giun", "1188": "smon", "1189": "plau", "1190": "gnen", "1191": "trot", "1192": "cias", "1193": "pruo", "1194": "pres", "1195": "grap", "1196": "gnem", "1197": "biet", "1198": "brio", "1199": "grez", "1200": "plar", "1201": "sion", "1202": "sfer", "1203": "scom", "1204": "scuf", "1205": "spar", "1206": "giac", "1207": "gnan", "1208": "ciai", "1209": "pien", "1210": "stet", "1211": "quan", "1212": "gior", "1213": "scis", "1214": "plor", "1215": "stie", "1216": "blan", "1217": "piag", "1218": "puol", "1219": "duol", "1220": "bent", "1221": "rien", "1222": "scun", "1223": "gnel", "1224": "guen", "1225": "miei", "1226": "cruc", "1227": "snel", "1228": "stop", "1229": "flig", "1230": "stan", "1231": "sti\u00f2", "1232": "ciuf", "1233": "chie", "1234": "gier", "1235": "spin", "1236": "chin", "1237": "scia", "1238": "ghi\u00f2", "1239": "gias", "1240": "chez", "1241": "sfar", "1242": "trei", "1243": "sdet", "1244": "prez", "1245": "dean", "1246": "zion", "1247": "cher", "1248": "scem", "1249": "gnaz", "1250": "biac", "1251": "stor", "1252": "frat", "1253": "com\u2019", "1254": "fiar", "1255": "bias", "1256": "vier", "1257": "spon", "1258": "fred", "1259": "gran", "1260": "spic", "1261": "pia\u2019", "1262": "bion", "1263": "mian", "1264": "scon", "1265": "puos", "1266": "siam", "1267": "ciam", "1268": "dian", "1269": "sden", "1270": "clas", "1271": "piac", "1272": "trul", "1273": "cion", "1274": "viam", "1275": "scie", "1276": "scre", "1277": "sbra", "1278": "pren", "1279": "trec", "1280": "scaz", "1281": "greg", "1282": "guia", "1283": "scab", "1284": "ciom", "1285": "scot", "1286": "gras", "1287": "stes", "1288": "stis", "1289": "flet", "1290": "stem", "1291": "crin", "1292": "gher", "1293": "scic", "1294": "guit", "1295": "suon", "1296": "pros", "1297": "cras", "1298": "cia\u2019", "1299": "bian", "1300": "brol", "1301": "tron", "1302": "drit", "1303": "scan", "1304": "mie\u2019", "1305": "stol", "1306": "dra\u2019", "1307": "laio", "1308": "glia", "1309": "prie", "1310": "lier", "1311": "brie", "1312": "fior", "1313": "guaz", "1314": "sci\u00f2", "1315": "gnum", "1316": "ghie", "1317": "buon", "1318": "spol", "1319": "rean", "1320": "vuol", "1321": "trac", "1322": "giug", "1323": "ples", "1324": "trio", "1325": "spro", "1326": "naio", "1327": "scea", "1328": "ghin", "1329": "giar", "1330": "ghia", "1331": "guir", "1332": "fioc", "1333": "qual", "1334": "trag", "1335": "glio", "1336": "brar", "1337": "chet", "1338": "quin", "1339": "trar", "1340": "driz", "1341": "sc\u00eco", "1342": "glau", "1343": "dier", "1344": "cioc", "1345": "scar", "1346": "chi\u00f2", "1347": "quai", "1348": "spuo", "1349": "grop", "1350": "trom", "1351": "bran", "1352": "spaz", "1353": "dram", "1354": "chel", "1355": "tean", "1356": "grem", "1357": "pris", "1358": "gien", "1359": "stec", "1360": "ci\u00f2l", "1361": "bia\u2019", "1362": "giuo", "1363": "muor", "1364": "scet", "1365": "stai", "1366": "fuor", "1367": "stiz", "1368": "\u2018glo", "1369": "drai", "1370": "ciul", "1371": "sfam", "1372": "trap", "1373": "sfre", "1374": "glet", "1375": "sie\u2019", "1376": "quel", "1377": "prin", "1378": "stas", "1379": "gion", "1380": "grue", "1381": "gnas", "1382": "sfan", "1383": "vria", "1384": "ghil", "1385": "scri", "1386": "nian", "1387": "sgri", "1388": "str\u00f2", "1389": "giam", "1390": "spen", "1391": "creb", "1392": "sciu", "1393": "ghir", "1394": "dail", "1395": "trop", "1396": "gnon", "1397": "spre", "1398": "cuor", "1399": "spec", "1400": "scim", "1401": "cian", "1402": "dron", "1403": "fian", "1404": "sbar", "1405": "gres", "1406": "tret", "1407": "squa", "1408": "smoz", "1409": "diam", "1410": "gli\u00f2", "1411": "guar", "1412": "ver\u2019", "1413": "trat", "1414": "piar", "1415": "spia", "1416": "tiam", "1417": "scac", "1418": "plan", "1419": "ciel", "1420": "gheg", "1421": "scir", "1422": "bris", "1423": "spir", "1424": "sfio", "1425": "trai", "1426": "stui", "1427": "stei", "1428": "prei", "1429": "trui", "1430": "ghel", "1431": "tren", "1432": "stru", "1433": "spri", "1434": "ciac", "1435": "gnus", "1436": "smen", "1437": "smar", "1438": "scol", "1439": "tiem", "1440": "tien", "1441": "broc", "1442": "quar", "1443": "stuc", "1444": "tier", "1445": "sfat", "1446": "sten", "1447": "piat", "1448": "stav", "1449": "ghet", "1450": "crol", "1451": "chiu", "1452": "sfin", "1453": "drel", "1454": "grie", "1455": "ghio", "1456": "pran", "1457": "stam", "1458": "spra", "1459": "que\u2019", "1460": "dien", "1461": "pric", "1462": "pian", "1463": "spel", "1464": "gean", "1465": "spes", "1466": "fiot", "1467": "dras", "1468": "spez", "1469": "guiz", "1470": "quie", "1471": "cria", "1472": "st\u00f2r", "1473": "pi\u00e9r", "1474": "span", "1475": "sman", "1476": "brot", "1477": "sgor", "1478": "gron", "1479": "biar", "1480": "brul", "1481": "ched", "1482": "fret", "1483": "guag", "1484": "scov", "1485": "guai", "1486": "str\u00e0", "1487": "sver", "1488": "nier", "1489": "slac", "1490": "scoc", "1491": "guic", "1492": "sier", "1493": "tran", "1494": "frut", "1495": "sbri", "1496": "quat", "1497": "bren", "1498": "flit", "1499": "fles", "1500": "breo", "1501": "piog", "1502": "gram", "1503": "sgra", "1504": "scos", "1505": "scel", "1506": "ciap", "1507": "pria", "1508": "fren", "1509": "star", "1510": "trae", "1511": "brac", "1512": "brei", "1513": "nean", "1514": "guef", "1515": "suol", "1516": "rian", "1517": "chia", "1518": "vian", "1519": "ghes", "1520": "ciuo", "1521": "fien", "1522": "bron", "1523": "squi", "1524": "piez", "1525": "prun", "1526": "gner", "1527": "trie", "1528": "tras", "1529": "spun", "1530": "lian", "1531": "spie", "1532": "suo\u2019", "1533": "vuoi", "1534": "dria", "1535": "smal", "1536": "guon", "1537": "quen", "1538": "guan", "1539": "sien", "1540": "sgom", "1541": "puom", "1542": "ciot", "1543": "quis", "1544": "scal", "1545": "puoi", "1546": "scor", "1547": "grot", "1548": "sper", "1549": "svel", "1550": "gial", "1551": "scuo", "1552": "guel", "1553": "tr\u00e0s", "1554": "chio", "1555": "prio", "1556": "zian", "1557": "nien", "1558": "cral", "1559": "maio", "1560": "tuoi", "1561": "sci\u2019", "1562": "gual", "1563": "stro", "1564": "sgan", "1565": "lien", "1566": "pion", "1567": "cean", "1568": "fran", "1569": "die\u2019", "1570": "guet", "1571": "vean", "1572": "quod", "1573": "scam", "1574": "fier", "1575": "guer", "1576": "pier", "1577": "niam", "1578": "piom", "1579": "clis", "1580": "treb", "1581": "stre", "1582": "sfac", "1583": "liev", "1584": "slao", "1585": "brut", "1586": "gian", "1587": "quor", "1588": "gnia", "1589": "stin", "1590": "grat", "1591": "brug", "1592": "troc", "1593": "sber", "1594": "gros", "1595": "giot", "1596": "schi", "1597": "quer", "1598": "dran", "1599": "proc", "1600": "tria", "1601": "pri\u2019", "1602": "spit", "1603": "grep", "1604": "truo", "1605": "suoi", "1606": "sneb", "1607": "sche", "1608": "sban", "1609": "clau", "1610": "ciol", "1611": "crea", "1612": "fiam", "1613": "brez", "1614": "gnuo", "1615": "gnar", "1616": "stra", "1617": "sunt", "1618": "vuo\u2019", "1619": "nail", "1620": "scer", "1621": "scen", "1622": "glie", "1623": "piov", "1624": "chis", "1625": "smor", "1626": "ziar", "1627": "tuon", "1628": "runt", "1629": "cheg", "1630": "gnor", "1631": "chil", "1632": "gnin", "1633": "gnie", "1634": "spal", "1635": "quei", "1636": "tra\u2019", "1637": "sfor", "1638": "drir", "1639": "cien", "1640": "graf", "1641": "scop", "1642": "guil", "1643": "stia", "1644": "scin", "1645": "grom", "1646": "stig", "1647": "prir", "1648": "cl\u00e8s", "1649": "pron", "1650": "ghez", "1651": "stal", "1652": "fiac", "1653": "stri", "1654": "scro", "1655": "fron", "1656": "scio", "1657": "sven", "1658": "frir", "1659": "tram", "1660": "spet", "1661": "buoi", "1662": "ciar", "1663": "gnun", "1664": "stel", "1665": "stuo", "1666": "vien", "1667": "br\u00f2t", "1668": "quil", "1669": "prai", "1670": "ster", "1671": "spor", "1672": "drap", "1673": "viem", "1674": "stea", "1675": "str\u2019", "1676": "stil", "1677": "stio", "1678": "sian", "1679": "grin", "1680": "stul", "1681": "gluol", "1682": "sguar", "1683": "gliea", "1684": "ghiac", "1685": "sciam", "1686": "spran", "1687": "stroz", "1688": "glior", "1689": "stram", "1690": "ghian", "1691": "schic", "1692": "schiu", "1693": "stret", "1694": "sciol", "1695": "spres", "1696": "glian", "1697": "stras", "1698": "schet", "1699": "splen", "1700": "schie", "1701": "ghiot", "1702": "sciar", "1703": "stier", "1704": "sciai", "1705": "schia", "1706": "strai", "1707": "gliet", "1708": "strom", "1709": "glien", "1710": "chier", "1711": "sci\u00e0n", "1712": "schio", "1713": "stric", "1714": "chiet", "1715": "scias", "1716": "ghiar", "1717": "chian", "1718": "scrit", "1719": "strut", "1720": "scheg", "1721": "sgiun", "1722": "glion", "1723": "squar", "1724": "spraz", "1725": "stroc", "1726": "scian", "1727": "glies", "1728": "scial", "1729": "gliar", "1730": "stian", "1731": "strug", "1732": "stiam", "1733": "strar", "1734": "sfran", "1735": "schem", "1736": "squil", "1737": "sgrie", "1738": "ghien", "1739": "scris", "1740": "sciut", "1741": "stran", "1742": "stren", "1743": "chiar", "1744": "scion", "1745": "gliel", "1746": "vrien", "1747": "chion", "1748": "stral", "1749": "strat", "1750": "chias", "1751": "streg", "1752": "scran", "1753": "strin", "1754": "stial", "1755": "spiac", "1756": "stion", "1757": "gliam", "1758": "chiap", "1759": "svuol", "1760": "chioc", "1761": "gliuo", "1762": "glier", "1763": "strac", "1764": "sciau", "1765": "scrip", "1766": "temps", "1767": "scioc", "1768": "scher", "1769": "sciom", "1770": "chiai", "1771": "strel", "1772": "schiar", "1773": "gliuoi", "1774": "schiet", "1775": "gliuol", "1776": "schian", "1777": "schiat", "1778": "ghiaio"}