{"0": "", "1": "<v>", "2": "</v>", "3": "<t>", "4": "</t>", "5": "\u00f2", "6": "g", "7": "o", "8": "e", "9": "\u00e8", "10": "\u00e9", "11": "u", "12": "s", "13": "i", "14": "\u00fc", "15": "c", "16": "\u00ef", "17": "a", "18": "v", "19": "au", "20": "mo", "21": "t\u00ef", "22": "le", "23": "ob", "24": "t\u00eb", "25": "v\u00e8", "26": "mi", "27": "fo", "28": "fa", "29": "ze", "30": "g\u00f3", "31": "za", "32": "du", "33": "r\u00f3", "34": "ta", "35": "t\u00ec", "36": "oc", "37": "c\u00ef", "38": "qu", "39": "di", "40": "pu", "41": "un", "42": "em", "43": "t\u00e8", "44": "ur", "45": "m\u00ef", "46": "m\u00e4", "47": "r\u00ef", "48": "l\u00f2", "49": "is", "50": "\u00e8v", "51": "m\u00eb", "52": "ac", "53": "s\u00eb", "54": "ru", "55": "ia", "56": "da", "57": "p\u00e8", "58": "cu", "59": "n\u00f2", "60": "c\u00eb", "61": "na", "62": "ad", "63": "in", "64": "en", "65": "co", "66": "so", "67": "li", "68": "fi", "69": "iu", "70": "v\u00f2", "71": "\u00e8n", "72": "s\u00ef", "73": "eu", "74": "la", "75": "uo", "76": "z\u00ef", "77": "v\u00eb", "78": "tu", "79": "v\u00ef", "80": "pi", "81": "ni", "82": "n\u00ef", "83": "me", "84": "p\u00ec", "85": "af", "86": "og", "87": "bo", "88": "c\u00f9", "89": "l\u00fc", "90": "va", "91": "zo", "92": "ai", "93": "n\u00e8", "94": "p\u00ef", "95": "vu", "96": "ri", "97": "gi", "98": "io", "99": "no", "100": "f\u00ef", "101": "l\u00f6", "102": "on", "103": "id", "104": "ef", "105": "ma", "106": "p\u00eb", "107": "l\u00e0", "108": "r\u00e8", "109": "of", "110": "om", "111": "ce", "112": "p\u00fc", "113": "s\u00f9", "114": "r\u00e0", "115": "pa", "116": "m\u00e8", "117": "d\u00fc", "118": "g\u00e8", "119": "s\u00e9", "120": "il", "121": "f\u00eb", "122": "d\u00eb", "123": "xi", "124": "mu", "125": "d\u00e8", "126": "b\u00eb", "127": "f\u00f3", "128": "be", "129": "d\u00ef", "130": "ro", "131": "l\u00eb", "132": "v\u00e9", "133": "c\u00ec", "134": "lo", "135": "az", "136": "l\u00ef", "137": "ba", "138": "po", "139": "g\u00ef", "140": "ge", "141": "t\u00fc", "142": "s\u00fc", "143": "b\u00ef", "144": "ga", "145": "te", "146": "et", "147": "m\u00ec", "148": "c\u00fc", "149": "eb", "150": "am", "151": "pe", "152": "ae", "153": "s\u00e0", "154": "uc", "155": "f\u00e9", "156": "si", "157": "at", "158": "av", "159": "t\u00f2", "160": "os", "161": "im", "162": "to", "163": "g\u00fc", "164": "ap", "165": "vo", "166": "hi", "167": "fe", "168": "ot", "169": "as", "170": "s\u00f2", "171": "su", "172": "ne", "173": "l\u00e8", "174": "nu", "175": "r\u00eb", "176": "gu", "177": "ie", "178": "re", "179": "ca", "180": "ti", "181": "bi", "182": "op", "183": "de", "184": " u", "185": "bu", "186": "ha", "187": "se", "188": "p\u00f2", "189": "el", "190": "\u00f2s", "191": "zi", "192": "ar", "193": "or", "194": "sa", "195": "g\u00eb", "196": "ho", "197": "n\u00eb", "198": "ci", "199": "ve", "200": "ag", "201": "ra", "202": "an", "203": "ol", "204": "l\u00ec", "205": "ov", "206": "fu", "207": "do", "208": "n\u00fc", "209": "ab", "210": "ex", "211": "lu", "212": "al", "213": "ul", "214": "er", "215": "go", "216": "t\u00e4", "217": "ec", "218": "es", "219": "vi", "220": "d\u00e9", "221": "red", "222": "zac", "223": "glo", "224": "goz", "225": "bot", "226": "reg", "227": "dos", "228": "fat", "229": "lai", "230": "cop", "231": "mon", "232": "lur", "233": "gam", "234": "pue", "235": "tic", "236": "ban", "237": "bil", "238": "tag", "239": "von", "240": "ber", "241": "tez", "242": "gab", "243": "cea", "244": "ron", "245": "bol", "246": "fre", "247": "ch\u00ec", "248": "dur", "249": "iep", "250": "vec", "251": "bie", "252": "feg", "253": "vis", "254": "lea", "255": "sof", "256": "lau", "257": "fle", "258": "cli", "259": "piz", "260": "guz", "261": "tuf", "262": "pri", "263": "sag", "264": "bon", "265": "ghi", "266": "ste", "267": "gia", "268": "laz", "269": "cil", "270": "cas", "271": "svo", "272": "bec", "273": "lin", "274": "vin", "275": "vie", "276": "peg", "277": "lec", "278": "suo", "279": "nor", "280": "far", "281": "fit", "282": "dam", "283": "pl\u00ec", "284": "ven", "285": "cic", "286": "bac", "287": "c\u00f3l", "288": "col", "289": "dul", "290": "pas", "291": "ler", "292": "cul", "293": "o i", "294": "sna", "295": "tro", "296": "rac", "297": "tun", "298": "muc", "299": "for", "300": "dau", "301": "reb", "302": "gno", "303": "neb", "304": "der", "305": "bul", "306": "pro", "307": "vei", "308": "pil", "309": "nil", "310": "spo", "311": "vir", "312": "pon", "313": "ver", "314": "dot", "315": "cru", "316": "lim", "317": "fog", "318": "pos", "319": "qua", "320": "tin", "321": "pli", "322": "cap", "323": "dic", "324": "dil", "325": "luz", "326": "vil", "327": "nel", "328": "dei", "329": "pap", "330": "cla", "331": "cri", "332": "leo", "333": "spu", "334": "mam", "335": "tet", "336": "roz", "337": "lar", "338": "soc", "339": "sin", "340": "deb", "341": "dra", "342": "pir", "343": "cis", "344": "pic", "345": "buo", "346": "cor", "347": "bab", "348": "vac", "349": "bea", "350": "sle", "351": "tir", "352": "c\u00e9r", "353": "f\u00e9l", "354": "run", "355": "han", "356": "ril", "357": "sel", "358": "riz", "359": "rup", "360": "nob", "361": "tam", "362": "vam", "363": "sil", "364": "meg", "365": "puc", "366": "rug", "367": "ram", "368": "pol", "369": "cad", "370": "t\u00f2m", "371": "veg", "372": "gan", "373": "tem", "374": "mem", "375": "bef", "376": "til", "377": "tru", "378": "suf", "379": "tac", "380": "gua", "381": "lic", "382": "smo", "383": "zuf", "384": "dut", "385": "sfe", "386": "pur", "387": "mos", "388": "sie", "389": "son", "390": "tut", "391": "rav", "392": "sia", "393": "fic", "394": "cov", "395": "ser", "396": "gne", "397": "sun", "398": "r\u00e8g", "399": "lil", "400": "rut", "401": "doc", "402": "svi", "403": "pat", "404": "goc", "405": "lab", "406": "das", "407": "sap", "408": "ruf", "409": "dir", "410": "gir", "411": "toc", "412": "boz", "413": "mul", "414": "van", "415": "ful", "416": "ran", "417": "zaf", "418": "fer", "419": "gel", "420": "nec", "421": "bia", "422": "lir", "423": "get", "424": "vas", "425": "vel", "426": "fos", "427": "sgo", "428": "gol", "429": "rin", "430": "lac", "431": "sus", "432": "ras", "433": "les", "434": "bun", "435": "tis", "436": "ruc", "437": "dim", "438": "gib", "439": "rig", "440": "pin", "441": "fio", "442": "cro", "443": "maz", "444": "buc", "445": "dio", "446": "fib", "447": "fun", "448": "mar", "449": "mie", "450": "mes", "451": "bal", "452": "gau", "453": "ses", "454": "coc", "455": "car", "456": "sob", "457": "nea", "458": "dr\u00e4", "459": "nic", "460": "nev", "461": "duo", "462": "nal", "463": "pru", "464": "sno", "465": "sub", "466": "rio", "467": "fin", "468": "rem", "469": "saf", "470": "rec", "471": "set", "472": "tim", "473": "sug", "474": "lel", "475": "cal", "476": "pac", "477": "deg", "478": "dre", "479": "fro", "480": "neg", "481": "mot", "482": "par", "483": "cel", "484": "sp\u00ef", "485": "gar", "486": "cir", "487": "xil", "488": "tar", "489": "cat", "490": "cet", "491": "poc", "492": "let", "493": "dea", "494": "bre", "495": "pit", "496": "ruo", "497": "e a", "498": "can", "499": "gna", "500": "tr\u00ef", "501": "nio", "502": "sto", "503": "gon", "504": "bom", "505": "rez", "506": "net", "507": "lem", "508": "sfo", "509": "lav", "510": "gas", "511": "fan", "512": "gis", "513": "tra", "514": "paz", "515": "ria", "516": "nat", "517": "sum", "518": "nol", "519": "sra", "520": "ian", "521": "e u", "522": "fem", "523": "sec", "524": "top", "525": "gri", "526": "ces", "527": "val", "528": "lor", "529": "qui", "530": "tas", "531": "cob", "532": "por", "533": "tuc", "534": "puz", "535": "sop", "536": "var", "537": "o u", "538": "sga", "539": "rob", "540": "spi", "541": "cun", "542": "ier", "543": "sot", "544": "ric", "545": "pla", "546": "pis", "547": "ial", "548": "met", "549": "dez", "550": "luc", "551": "vet", "552": "nom", "553": "com", "554": "mor", "555": "poz", "556": "pec", "557": "raf", "558": "pom", "559": "cau", "560": "die", "561": "del", "562": "nig", "563": "sov", "564": "bli", "565": "vol", "566": "bra", "567": "sos", "568": "zia", "569": "pes", "570": "zel", "571": "not", "572": "gio", "573": "sv\u00ef", "574": "sic", "575": "rea", "576": "gor", "577": "tur", "578": "pra", "579": "mol", "580": "zio", "581": "sla", "582": "mia", "583": "gui", "584": "smi", "585": "dem", "586": "mal", "587": "sam", "588": "sem", "589": "vuo", "590": "sco", "591": "clo", "592": "cle", "593": "nas", "594": "nir", "595": "plo", "596": "mug", "597": "rat", "598": "guo", "599": "gim", "600": "bug", "601": "lia", "602": "lup", "603": "st\u00ef", "604": "v\u00f2l", "605": "piu", "606": "dr\u00ef", "607": "pog", "608": "pun", "609": "des", "610": "tec", "611": "fac", "612": "nag", "613": "tad", "614": "gat", "615": "fab", "616": "ter", "617": "lap", "618": "nis", "619": "sr\u00e4", "620": "dol", "621": "spe", "622": "cur", "623": "bin", "624": "cac", "625": "cie", "626": "lat", "627": "ton", "628": "moz", "629": "mil", "630": "fet", "631": "sac", "632": "fri", "633": "tea", "634": "cep", "635": "geo", "636": "smu", "637": "sta", "638": "cag", "639": "dal", "640": "don", "641": "rag", "642": "sat", "643": "flu", "644": "cot", "645": "pot", "646": "mur", "647": "san", "648": "sol", "649": "pia", "650": "a a", "651": "gil", "652": "gru", "653": "dug", "654": "gre", "655": "niz", "656": "bis", "657": "zur", "658": "f\u00e0c", "659": "nun", "660": "biz", "661": "sog", "662": "lui", "663": "tom", "664": "fen", "665": "din", "666": "mag", "667": "tal", "668": "bet", "669": "iar", "670": "boc", "671": "vom", "672": "fia", "673": "gie", "674": "bar", "675": "lis", "676": "stu", "677": "mel", "678": "cra", "679": "gem", "680": "sma", "681": "rit", "682": "buf", "683": "noz", "684": "scu", "685": "gur", "686": "cui", "687": "bio", "688": "rol", "689": "che", "690": "dri", "691": "ior", "692": "tle", "693": "tuo", "694": "vul", "695": "viz", "696": "dat", "697": "tat", "698": "rab", "699": "man", "700": "luo", "701": "ves", "702": "cuo", "703": "pau", "704": "dia", "705": "vag", "706": "cr\u00e0", "707": "dan", "708": "dis", "709": "cem", "710": "lun", "711": "bui", "712": "sio", "713": "vat", "714": "tri", "715": "vem", "716": "tes", "717": "raz", "718": "fal", "719": "ges", "720": "lon", "721": "vit", "722": "nur", "723": "muf", "724": "mac", "725": "sve", "726": "lom", "727": "zar", "728": "nes", "729": "rar", "730": "dom", "731": "dus", "732": "diz", "733": "coz", "734": "gea", "735": "sod", "736": "p\u00e0r", "737": "ch\u00ef", "738": "cit", "739": "gen", "740": "fon", "741": "dop", "742": "tre", "743": "rid", "744": "nem", "745": "lep", "746": "sur", "747": "got", "748": "dor", "749": "rot", "750": "tho", "751": "puo", "752": "sor", "753": "cl\u00ef", "754": "mat", "755": "lam", "756": "ral", "757": "rap", "758": "ris", "759": "dub", "760": "noc", "761": "ghe", "762": "sep", "763": "cia", "764": "teg", "765": "fur", "766": "quo", "767": "dar", "768": "ten", "769": "lut", "770": "lit", "771": "dit", "772": "sen", "773": "a u", "774": "mai", "775": "bel", "776": "sc\u00ef", "777": "dec", "778": "gad", "779": "sis", "780": "nac", "781": "tan", "782": "gom", "783": "mic", "784": "dob", "785": "rel", "786": "con", "787": "zon", "788": "sba", "789": "rie", "790": "leb", "791": "pan", "792": "men", "793": "pub", "794": "fom", "795": "cre", "796": "giu", "797": "rom", "798": "nul", "799": "bl\u00ef", "800": "gli", "801": "rog", "802": "sas", "803": "sup", "804": "bri", "805": "pul", "806": "dif", "807": "cez", "808": "pop", "809": "tos", "810": "nuo", "811": "som", "812": "ros", "813": "bor", "814": "lip", "815": "nef", "816": "sde", "817": "plu", "818": "pie", "819": "pel", "820": "mer", "821": "sez", "822": "pen", "823": "ger", "824": "lez", "825": "mun", "826": "sti", "827": "pal", "828": "lus", "829": "non", "830": "fuc", "831": "cuc", "832": "zuc", "833": "nie", "834": "fas", "835": "m\u00e9z", "836": "sce", "837": "gra", "838": "cin", "839": "cos", "840": "bat", "841": "sud", "842": "vez", "843": "spa", "844": "caf", "845": "bas", "846": "o a", "847": "fug", "848": "det", "849": "nen", "850": "giz", "851": "gob", "852": "bur", "853": "o e", "854": "mas", "855": "pet", "856": "tor", "857": "tie", "858": "bru", "859": "nan", "860": "clu", "861": "br\u00ef", "862": "sit", "863": "fam", "864": "ciu", "865": "ret", "866": "p\u00f2s", "867": "chi", "868": "fru", "869": "lul", "870": "muo", "871": "vid", "872": "gal", "873": "sab", "874": "lot", "875": "bev", "876": "fla", "877": "zan", "878": "pio", "879": "git", "880": "tau", "881": "tol", "882": "leg", "883": "t\u00f2r", "884": "nim", "885": "dun", "886": "feb", "887": "len", "888": "fra", "889": "seg", "890": "sca", "891": "cam", "892": "rim", "893": "fol", "894": "dov", "895": "lie", "896": "lan", "897": "soz", "898": "guc", "899": "loc", "900": "que", "901": "nin", "902": "sbi", "903": "fel", "904": "lop", "905": "gni", "906": "jau", "907": "mir", "908": "sci", "909": "sal", "910": "cer", "911": "ren", "912": "nuc", "913": "fig", "914": "dro", "915": "fes", "916": "cum", "917": "put", "918": "ner", "919": "pig", "920": "rir", "921": "gag", "922": "dru", "923": "res", "924": "qu\u00ef", "925": "fiu", "926": "per", "927": "fum", "928": "gnu", "929": "fuo", "930": "den", "931": "nia", "932": "fis", "933": "but", "934": "cef", "935": "nar", "936": "cio", "937": "iat", "938": "pre", "939": "gue", "940": "ben", "941": "ple", "942": "mez", "943": "cen", "944": "bro", "945": "nez", "946": "roc", "947": "sme", "948": "hon", "949": "sfa", "950": "las", "951": "vor", "952": "gaz", "953": "min", "954": "sar", "955": "tel", "956": "pi\u00e9", "957": "fie", "958": "suc", "959": "rof", "960": "m\u00e8c", "961": "r\u2019 u", "962": "grom", "963": "scol", "964": "scos", "965": "io a", "966": "fles", "967": "spor", "968": "glia", "969": "brut", "970": "t\u2019 e", "971": "pa u", "972": "z\u2019 o", "973": "scan", "974": "sa e", "975": "sfre", "976": "ta e", "977": "stil", "978": "stop", "979": "scom", "980": "pros", "981": "sfam", "982": "spin", "983": "re e", "984": "no o", "985": "gnie", "986": "spel", "987": "spol", "988": "re a", "989": "cien", "990": "ta i", "991": "pi i", "992": "chil", "993": "sden", "994": "me o", "995": "vien", "996": "c\u2019 o", "997": "e in", "998": "chia", "999": "stan", "1000": "piac", "1001": "da a", "1002": "ne a", "1003": "be o", "1004": "proc", "1005": "l\u2019 a", "1006": "cric", "1007": "bo a", "1008": "glie", "1009": "ma a", "1010": "ca a", "1011": "spon", "1012": "v\u2019 a", "1013": "a in", "1014": "quil", "1015": "za i", "1016": "grep", "1017": "se i", "1018": "quan", "1019": "sa a", "1020": "mo a", "1021": "pran", "1022": "t\u2019 a", "1023": "stal", "1024": "piag", "1025": "quin", "1026": "biac", "1027": "n\u2019 a", "1028": "o ar", "1029": "mi e", "1030": "s\u2019 a", "1031": "o al", "1032": "guiz", "1033": "stam", "1034": "ie a", "1035": "dien", "1036": "lev\u00e4", "1037": "t\u2019 o", "1038": "sgan", "1039": "la i", "1040": "zi e", "1041": "va a", "1042": "so o", "1043": "stia", "1044": "do a", "1045": "cias", "1046": "stuo", "1047": "piom", "1048": "giug", "1049": "ce u", "1050": "r\u2019 o", "1051": "l\u00ec a", "1052": "broc", "1053": "ci a", "1054": "tu e", "1055": "stol", "1056": "da o", "1057": "so e", "1058": "sper", "1059": "scir", "1060": "fa i", "1061": "scuf", "1062": "do i", "1063": "stie", "1064": "\u00e8 on", "1065": "gior", "1066": "spia", "1067": "n\u2019 u", "1068": "ro o", "1069": "na u", "1070": "re i", "1071": "stet", "1072": "gnon", "1073": "span", "1074": "spal", "1075": "spir", "1076": "l\u2019 e", "1077": "stiz", "1078": "egyp", "1079": "dras", "1080": "za o", "1081": "bian", "1082": "clau", "1083": "se u", "1084": "po a", "1085": "ce e", "1086": "flit", "1087": "spic", "1088": "gram", "1089": "vi a", "1090": "bo e", "1091": "s\u00ec i", "1092": "sfat", "1093": "scon", "1094": "ce i", "1095": "puos", "1096": "slac", "1097": "dram", "1098": "s\u00ec u", "1099": "brul", "1100": "troc", "1101": "be u", "1102": "scet", "1103": "pe i", "1104": "bren", "1105": "stec", "1106": "io e", "1107": "gioi", "1108": "a am", "1109": "ne e", "1110": "scev", "1111": "do o", "1112": "se a", "1113": "trac", "1114": "ciul", "1115": "spes", "1116": "te i", "1117": "so i", "1118": "za a", "1119": "m\u2019 a", "1120": "stuc", "1121": "ni o", "1122": "puom", "1123": "grez", "1124": "gi e", "1125": "piez", "1126": "gheg", "1127": "fior", "1128": "stro", "1129": "dier", "1130": "star", "1131": "pres", "1132": "viem", "1133": "scin", "1134": "za u", "1135": "pren", "1136": "scia", "1137": "ciuo", "1138": "lo u", "1139": "sbri", "1140": "glet", "1141": "plau", "1142": "ziar", "1143": "quer", "1144": "stor", "1145": "ghes", "1146": "na o", "1147": "s\u00ec a", "1148": "scuo", "1149": "spre", "1150": "ghil", "1151": "si e", "1152": "te o", "1153": "pi e", "1154": "guit", "1155": "spit", "1156": "guet", "1157": "d\u2019 u", "1158": "ciar", "1159": "flig", "1160": "z\u2019 i", "1161": "dhae", "1162": "stri", "1163": "pier", "1164": "ghia", "1165": "da u", "1166": "di a", "1167": "dies", "1168": "ne u", "1169": "plan", "1170": "va u", "1171": "sbra", "1172": "bran", "1173": "prir", "1174": "de a", "1175": "tu i", "1176": "glau", "1177": "drit", "1178": "brie", "1179": "be e", "1180": "str\u00e0", "1181": "m\u00e8 a", "1182": "gnuo", "1183": "smor", "1184": "di u", "1185": "tien", "1186": "piov", "1187": "de o", "1188": "mi u", "1189": "gias", "1190": "la e", "1191": "ge o", "1192": "vi o", "1193": "ni e", "1194": "gian", "1195": "so u", "1196": "trom", "1197": "gien", "1198": "sgor", "1199": "pric", "1200": "lo e", "1201": "li a", "1202": "co u", "1203": "stio", "1204": "smar", "1205": "cion", "1206": "di i", "1207": "frut", "1208": "se o", "1209": "grat", "1210": "zi o", "1211": "di o", "1212": "dran", "1213": "scel", "1214": "no a", "1215": "si a", "1216": "g\u2019 \u00ef", "1217": "trar", "1218": "se e", "1219": "ga e", "1220": "prez", "1221": "re o", "1222": "clis", "1223": "gnor", "1224": "snel", "1225": "po o", "1226": "no u", "1227": "s\u2019 u", "1228": "ro u", "1229": "ciel", "1230": "graf", "1231": "to e", "1232": "zi u", "1233": "s\u2019 \u00ef", "1234": "a es", "1235": "vo o", "1236": "chiu", "1237": "ti e", "1238": "to u", "1239": "ci e", "1240": "spro", "1241": "tran", "1242": "spec", "1243": "spaz", "1244": "ge a", "1245": "zo a", "1246": "spuo", "1247": "sgra", "1248": "si u", "1249": "ri e", "1250": "spez", "1251": "zian", "1252": "na e", "1253": "fran", "1254": "si i", "1255": "tiem", "1256": "ca e", "1257": "no i", "1258": "m\u2019 e", "1259": "ti i", "1260": "fioc", "1261": "l\u2019 \u00f2", "1262": "sban", "1263": "giun", "1264": "s\u2019 e", "1265": "pa e", "1266": "gran", "1267": "spar", "1268": "mian", "1269": "guel", "1270": "la o", "1271": "scac", "1272": "bion", "1273": "sfer", "1274": "lo a", "1275": "ti a", "1276": "stes", "1277": "l\u2019 o", "1278": "scam", "1279": "z\u2019 a", "1280": "gi u", "1281": "mo e", "1282": "qual", "1283": "m\u2019 o", "1284": "sdru", "1285": "scri", "1286": "sdet", "1287": "stis", "1288": "ma o", "1289": "gnem", "1290": "scov", "1291": "\u00e8 in", "1292": "ne o", "1293": "guar", "1294": "gnar", "1295": "ghie", "1296": "m\u2019 i", "1297": "sven", "1298": "guer", "1299": "bo i", "1300": "da i", "1301": "prin", "1302": "ni u", "1303": "be a", "1304": "p\u2019 e", "1305": "schi", "1306": "pe e", "1307": "quar", "1308": "mo i", "1309": "flet", "1310": "guan", "1311": "quel", "1312": "gner", "1313": "fiam", "1314": "guil", "1315": "ze e", "1316": "brol", "1317": "go a", "1318": "vuol", "1319": "po e", "1320": "li e", "1321": "ca o", "1322": "co e", "1323": "scot", "1324": "ra o", "1325": "smon", "1326": "crol", "1327": "quis", "1328": "sman", "1329": "a ac", "1330": "prie", "1331": "ni a", "1332": "scaz", "1333": "stre", "1334": "a ef", "1335": "a al", "1336": "te e", "1337": "stem", "1338": "la u", "1339": "ca u", "1340": "tren", "1341": "scar", "1342": "liev", "1343": "gual", "1344": "mi o", "1345": "ro i", "1346": "cruc", "1347": "pruo", "1348": "sbar", "1349": "chis", "1350": "fian", "1351": "sver", "1352": "sgri", "1353": "pria", "1354": "na a", "1355": "me e", "1356": "sten", "1357": "ghez", "1358": "smen", "1359": "spie", "1360": "scor", "1361": "e \u2019n", "1362": "le o", "1363": "no e", "1364": "pi a", "1365": "\u00e8 im", "1366": "sgom", "1367": "clas", "1368": "cioc", "1369": "grop", "1370": "ciuf", "1371": "trag", "1372": "glio", "1373": "scro", "1374": "ma u", "1375": "gres", "1376": "quen", "1377": "driz", "1378": "v\u2019 e", "1379": "di e", "1380": "te u", "1381": "ti o", "1382": "gros", "1383": "sa o", "1384": "trie", "1385": "gnan", "1386": "ciac", "1387": "pron", "1388": "quat", "1389": "s\u00ec o", "1390": "d\u2019 \u00ef", "1391": "grie", "1392": "piat", "1393": "stel", "1394": "ra i", "1395": "ghir", "1396": "truo", "1397": "guaz", "1398": "ghet", "1399": "spen", "1400": "va o", "1401": "brot", "1402": "ciot", "1403": "tier", "1404": "do u", "1405": "gial", "1406": "greg", "1407": "ga o", "1408": "giac", "1409": "giot", "1410": "grap", "1411": "stra", "1412": "fred", "1413": "ta o", "1414": "le u", "1415": "fron", "1416": "trot", "1417": "le a", "1418": "de i", "1419": "c\u2019 e", "1420": "sciu", "1421": "se \u00eb", "1422": "s\u2019 o", "1423": "na i", "1424": "guag", "1425": "t\u2019 u", "1426": "giuo", "1427": "va e", "1428": "blan", "1429": "frat", "1430": "v\u2019 o", "1431": "ve i", "1432": "ma e", "1433": "bris", "1434": "cras", "1435": "li u", "1436": "scre", "1437": "pien", "1438": "trul", "1439": "bron", "1440": "squa", "1441": "l\u2019 i", "1442": "d\u2019 a", "1443": "stin", "1444": "guic", "1445": "me u", "1446": "ce o", "1447": "sfio", "1448": "mo o", "1449": "n\u2019 e", "1450": "tram", "1451": "buon", "1452": "cian", "1453": "gnen", "1454": "so a", "1455": "d\u2019 o", "1456": "to i", "1457": "zo e", "1458": "io u", "1459": "to o", "1460": "grem", "1461": "li \u2019", "1462": "d\u2019 e", "1463": "stru", "1464": "bias", "1465": "ples", "1466": "squi", "1467": "sfor", "1468": "tron", "1469": "creb", "1470": "le e", "1471": "l\u00ec e", "1472": "ciap", "1473": "l\u2019 u", "1474": "to a", "1475": "scim", "1476": "guef", "1477": "fret", "1478": "giar", "1479": "ro e", "1480": "sa u", "1481": "tret", "1482": "stig", "1483": "smal", "1484": "ra u", "1485": "ta a", "1486": "treb", "1487": "scic", "1488": "r\u00ec u", "1489": "ro a", "1490": "trat", "1491": "scem", "1492": "ci o", "1493": "tras", "1494": "gras", "1495": "ghel", "1496": "li o", "1497": "si o", "1498": "scal", "1499": "drap", "1500": "do e", "1501": "stas", "1502": "n\u2019 o", "1503": "gnel", "1504": "brug", "1505": "scab", "1506": "gron", "1507": "giam", "1508": "bi a", "1509": "pris", "1510": "ciom", "1511": "fiac", "1512": "sber", "1513": "sfin", "1514": "mo u", "1515": "la a", "1516": "de e", "1517": "spet", "1518": "go e", "1519": "ve u", "1520": "ra a", "1521": "ti u", "1522": "guir", "1523": "scen", "1524": "stav", "1525": "guen", "1526": "chie", "1527": "co a", "1528": "sfan", "1529": "piog", "1530": "scer", "1531": "re u", "1532": "me a", "1533": "sneb", "1534": "tror", "1535": "ce a", "1536": "trec", "1537": "spun", "1538": "vi e", "1539": "gnas", "1540": "sfar", "1541": "po u", "1542": "gher", "1543": "be i", "1544": "o av", "1545": "scio", "1546": "sche", "1547": "de u", "1548": "lo o", "1549": "s\u2019 i", "1550": "biet", "1551": "chet", "1552": "scie", "1553": "puol", "1554": "da e", "1555": "crea", "1556": "co o", "1557": "brac", "1558": "smoz", "1559": "pian", "1560": "va i", "1561": "stul", "1562": "scop", "1563": "sfac", "1564": "dian", "1565": "brez", "1566": "nian", "1567": "c\u2019 \u00ef", "1568": "trop", "1569": "d\u2019 \u00eb", "1570": "svel", "1571": "trap", "1572": "ve a", "1573": "d\u2019 i", "1574": "ci u", "1575": "me i", "1576": "cher", "1577": "chio", "1578": "scis", "1579": "chez", "1580": "ri u", "1581": "dria", "1582": "te a", "1583": "fiot", "1584": "le i", "1585": "ra e", "1586": "ta u", "1587": "ster", "1588": "ze o", "1589": "scoc", "1590": "tu a", "1591": "grot", "1592": "ghio", "1593": "cheg", "1594": "gnaz", "1595": "gne u", "1596": "d\u2019 ol", "1597": "chiun", "1598": "vo an", "1599": "te on", "1600": "v\u2019 ar", "1601": "t\u2019 af", "1602": "do ar", "1603": "se an", "1604": "te in", "1605": "mo ac", "1606": "do or", "1607": "ra av", "1608": "da in", "1609": "n\u2019 ag", "1610": "ma ap", "1611": "lo in", "1612": "re ad", "1613": "ta as", "1614": "ti av", "1615": "ca on", "1616": "la in", "1617": "scher", "1618": "no al", "1619": "so ap", "1620": "re on", "1621": "dio e", "1622": "ce ne", "1623": "ci an", "1624": "ste a", "1625": "ti ad", "1626": "va eb", "1627": "ca in", "1628": "be ar", "1629": "ra an", "1630": "ti ar", "1631": "l\u2019 uo", "1632": "le ar", "1633": "ne ag", "1634": "ahi a", "1635": "st\u2019 a", "1636": "se on", "1637": "no or", "1638": "n\u2019 er", "1639": "fu oc", "1640": "s\u2019 af", "1641": "stren", "1642": "mo an", "1643": "stric", "1644": "ni ap", "1645": "bra a", "1646": "ia al", "1647": "se ol", "1648": "do af", "1649": "tri e", "1650": "ta es", "1651": "dio o", "1652": "gni e", "1653": "v\u2019 ab", "1654": "ch\u2019 e", "1655": "ro im", "1656": "n\u2019 ab", "1657": "li am", "1658": "ch\u2019 \u00ef", "1659": "di ab", "1660": "di af", "1661": "mi er", "1662": "mio a", "1663": "le uc", "1664": "ch\u2019 o", "1665": "lo of", "1666": "v\u2019 in", "1667": "ve ap", "1668": "m\u2019 of", "1669": "c\u2019 en", "1670": "ro of", "1671": "ci in", "1672": "do es", "1673": "n\u2019 at", "1674": "re ot", "1675": "to ap", "1676": "m\u2019 ar", "1677": "gliuo", "1678": "s\u00ec \u2019n", "1679": "spran", "1680": "m\u2019 ad", "1681": "leo e", "1682": "ti of", "1683": "ge an", "1684": "za am", "1685": "re al", "1686": "vi ar", "1687": "te ar", "1688": "ge et", "1689": "ra ec", "1690": "te en", "1691": "s\u2019 of", "1692": "chi a", "1693": "sta e", "1694": "mo ol", "1695": "d\u2019 et", "1696": "ra ab", "1697": "me in", "1698": "ti am", "1699": "se al", "1700": "m\u2019 af", "1701": "cea u", "1702": "co al", "1703": "to et", "1704": "do at", "1705": "mo eb", "1706": "s\u2019 em", "1707": "l\u2019 er", "1708": "so en", "1709": "si an", "1710": "ro on", "1711": "di og", "1712": "de ap", "1713": "z\u2019 al", "1714": "po al", "1715": "si am", "1716": "sto e", "1717": "chiap", "1718": "ra of", "1719": "ci al", "1720": "v\u2019 el", "1721": "sa ac", "1722": "ci \u2019n", "1723": "l\u2019 or", "1724": "ra ap", "1725": "si at", "1726": "la ol", "1727": "ha al", "1728": "zi ap", "1729": "no af", "1730": "stroz", "1731": "mi an", "1732": "to av", "1733": "so am", "1734": "bo on", "1735": "d\u2019 ap", "1736": "ra al", "1737": "ta im", "1738": "d\u2019 in", "1739": "n\u2019 ap", "1740": "ne av", "1741": "ma of", "1742": "ghiot", "1743": "t\u2019 as", "1744": "ni an", "1745": "sgiun", "1746": "ra on", "1747": "s\u2019 in", "1748": "chiet", "1749": "la an", "1750": "bo av", "1751": "to an", "1752": "ta at", "1753": "co ad", "1754": "li im", "1755": "n\u2019 am", "1756": "re ap", "1757": "sguar", "1758": "co in", "1759": "ri ac", "1760": "schiu", "1761": "stram", "1762": "to ad", "1763": "scheg", "1764": "re im", "1765": "va at", "1766": "so as", "1767": "no er", "1768": "n\u2019 al", "1769": "dre e", "1770": "vi in", "1771": "si en", "1772": "mo ec", "1773": "m\u2019 av", "1774": "no im", "1775": "tio i", "1776": "l\u2019 eb", "1777": "gne a", "1778": "s\u2019 en", "1779": "ta un", "1780": "ca en", "1781": "ra ot", "1782": "go al", "1783": "di of", "1784": "spraz", "1785": "che a", "1786": "di ad", "1787": "re ab", "1788": "no ec", "1789": "re il", "1790": "li om", "1791": "d\u2019 al", "1792": "so ar", "1793": "ce es", "1794": "s\u2019 es", "1795": "sci\u00e0n", "1796": "ge in", "1797": "de \u2019n", "1798": "strut", "1799": "be on", "1800": "to ef", "1801": "me ap", "1802": "zi ag", "1803": "zio a", "1804": "l\u2019 un", "1805": "no as", "1806": "spres", "1807": "le am", "1808": "l\u2019 ef", "1809": "co at", "1810": "ca an", "1811": "t\u2019 at", "1812": "ta an", "1813": "s\u2019 am", "1814": "rio a", "1815": "li ab", "1816": "smo a", "1817": "ti im", "1818": "li in", "1819": "vo at", "1820": "d\u2019 ab", "1821": "fo et", "1822": "tro e", "1823": "ti in", "1824": "le on", "1825": "ce on", "1826": "ta eu", "1827": "ma or", "1828": "le id", "1829": "no ab", "1830": "n\u2019 au", "1831": "stret", "1832": "gia o", "1833": "vi av", "1834": "ria \u00f2", "1835": "ce ar", "1836": "t\u2019 el", "1837": "va in", "1838": "li et", "1839": "ci ap", "1840": "be al", "1841": "no an", "1842": "li ac", "1843": "ni as", "1844": "l\u2019 ol", "1845": "l\u2019 um", "1846": "li ar", "1847": "ger e", "1848": "gli u", "1849": "ta al", "1850": "tro a", "1851": "la ap", "1852": "ro es", "1853": "sa es", "1854": "so an", "1855": "ce in", "1856": "tra u", "1857": "fu in", "1858": "s\u2019 at", "1859": "na in", "1860": "sta i", "1861": "te im", "1862": "to al", "1863": "te of", "1864": "l\u2019 on", "1865": "l\u2019 in", "1866": "no at", "1867": "se es", "1868": "s\u2019 an", "1869": "re af", "1870": "re au", "1871": "l\u2019 \u00e0n", "1872": "na ar", "1873": "ve at", "1874": "mo al", "1875": "le \u2019n", "1876": "t\u2019 es", "1877": "zo in", "1878": "ve an", "1879": "te or", "1880": "re eb", "1881": "d\u2019 el", "1882": "ra eb", "1883": "ge un", "1884": "to at", "1885": "lo an", "1886": "tra e", "1887": "d\u2019 ac", "1888": "l\u2019 an", "1889": "s\u00ec in", "1890": "n\u2019 av", "1891": "no ap", "1892": "la en", "1893": "d\u2019 eb", "1894": "sta a", "1895": "li ad", "1896": "na ap", "1897": "va id", "1898": "di an", "1899": "s\u2019 ap", "1900": "to ec", "1901": "tr\u2019 a", "1902": "mo at", "1903": "ne ap", "1904": "so in", "1905": "ze et", "1906": "tri o", "1907": "so of", "1908": "strin", "1909": "lo eb", "1910": "li av", "1911": "dio i", "1912": "de au", "1913": "ci or", "1914": "que u", "1915": "ro am", "1916": "re at", "1917": "re ag", "1918": "mi ad", "1919": "gi an", "1920": "se op", "1921": "do on", "1922": "z\u00f2 in", "1923": "fa ir", "1924": "ci ar", "1925": "v\u2019 es", "1926": "na es", "1927": "za on", "1928": "ga as", "1929": "si of", "1930": "ra uc", "1931": "d\u2019 er", "1932": "di uo", "1933": "sta o", "1934": "pr\u2019 e", "1935": "li eb", "1936": "lo \u2019m", "1937": "ti en", "1938": "le ap", "1939": "fu al", "1940": "se\u2019 a", "1941": "po an", "1942": "m\u2019 in", "1943": "li er", "1944": "ca er", "1945": "zo as", "1946": "lo es", "1947": "tr\u2019 e", "1948": "le in", "1949": "ro ac", "1950": "strat", "1951": "ri al", "1952": "l\u2019 af", "1953": "do in", "1954": "si ar", "1955": "ce av", "1956": "sciut", "1957": "ve ar", "1958": "ce et", "1959": "to oc", "1960": "se in", "1961": "te al", "1962": "go in", "1963": "fu of", "1964": "se af", "1965": "tri a", "1966": "ch\u2019 u", "1967": "ma on", "1968": "sa in", "1969": "pi ap", "1970": "te ac", "1971": "ce au", "1972": "mo ar", "1973": "d\u2019 en", "1974": "sa im", "1975": "va im", "1976": "di es", "1977": "la el", "1978": "bra u", "1979": "le es", "1980": "sgrie", "1981": "si uo", "1982": "schie", "1983": "de as", "1984": "m\u2019 eb", "1985": "gne o", "1986": "l\u2019 op", "1987": "scrit", "1988": "ni on", "1989": "l\u2019 au", "1990": "ve al", "1991": "mi ac", "1992": "to af", "1993": "bre a", "1994": "gno u", "1995": "\u2019v\u2019 e", "1996": "t\u2019 av", "1997": "l\u2019 ai", "1998": "s\u2019 im", "1999": "si ad", "2000": "te an", "2001": "chiar", "2002": "chi e", "2003": "lo ef", "2004": "no in", "2005": "r\u2019 es", "2006": "me al", "2007": "te os", "2008": "m\u2019 es", "2009": "t\u2019 ac", "2010": "sco u", "2011": "de ar", "2012": "so \u2019n", "2013": "l\u2019 ul", "2014": "vi am", "2015": "strug", "2016": "si \u2019n", "2017": "strar", "2018": "te af", "2019": "bo al", "2020": "l\u2019 en", "2021": "s\u2019 os", "2022": "schem", "2023": "gliel", "2024": "se \u2019n", "2025": "ghian", "2026": "no au", "2027": "ni es", "2028": "pi in", "2029": "ne al", "2030": "z\u2019 ar", "2031": "to or", "2032": "de or", "2033": "de on", "2034": "schia", "2035": "l\u2019 ae", "2036": "me el", "2037": "to ol", "2038": "ci as", "2039": "fu ap", "2040": "l\u2019 at", "2041": "v\u2019 an", "2042": "mi\u2019 a", "2043": "ze or", "2044": "to as", "2045": "scian", "2046": "va an", "2047": "t\u00e8 an", "2048": "si er", "2049": "po ar", "2050": "mo or", "2051": "cia o", "2052": "z\u2019 es", "2053": "lo af", "2054": "so al", "2055": "l\u2019 ag", "2056": "d\u2019 ar", "2057": "tu ha", "2058": "ce im", "2059": "ne an", "2060": "re et", "2061": "ra ac", "2062": "ne es", "2063": "si im", "2064": "se at", "2065": "co on", "2066": "ro oc", "2067": "to ab", "2068": "v\u2019 et", "2069": "n\u2019 ac", "2070": "t\u2019 om", "2071": "st\u2019 u", "2072": "li es", "2073": "scris", "2074": "d\u2019 or", "2075": "no es", "2076": "ra ad", "2077": "to ar", "2078": "me am", "2079": "ra es", "2080": "re am", "2081": "ta et", "2082": "di or", "2083": "tro i", "2084": "ma es", "2085": "ce an", "2086": "ga in", "2087": "ta ac", "2088": "vi \u2019m", "2089": "stras", "2090": "de eu", "2091": "ch\u2019 a", "2092": "no ad", "2093": "me an", "2094": "bi et", "2095": "lo ac", "2096": "scran", "2097": "pa in", "2098": "do el", "2099": "de al", "2100": "zo ar", "2101": "be av", "2102": "vo as", "2103": "no ar", "2104": "no ag", "2105": "vi of", "2106": "se un", "2107": "me of", "2108": "ta el", "2109": "do an", "2110": "l\u2019 im", "2111": "sciar", "2112": "te er", "2113": "de an", "2114": "te iu", "2115": "cu\u2019 i", "2116": "mo in", "2117": "stroc", "2118": "li uc", "2119": "lo as", "2120": "spiac", "2121": "li on", "2122": "d\u2019 at", "2123": "ra im", "2124": "m\u2019 al", "2125": "ne em", "2126": "do ap", "2127": "ro av", "2128": "re es", "2129": "le oc", "2130": "s\u2019 el", "2131": "do al", "2132": "to on", "2133": "ha \u2019n", "2134": "re as", "2135": "v\u2019 eb", "2136": "p\u00e8 al", "2137": "zi at", "2138": "to in", "2139": "tro o", "2140": "ni in", "2141": "suo a", "2142": "cro a", "2143": "lo \u2019n", "2144": "m\u2019 at", "2145": "vea u", "2146": "vo al", "2147": "ro at", "2148": "se ac", "2149": "l\u2019 as", "2150": "re an", "2151": "ro um", "2152": "me ar", "2153": "li oc", "2154": "te is", "2155": "no ac", "2156": "to im", "2157": "mo im", "2158": "be as", "2159": "ci ad", "2160": "te ab", "2161": "to of", "2162": "ro as", "2163": "l\u2019 el", "2164": "glien", "2165": "pre a", "2166": "cio a", "2167": "bra e", "2168": "sce a", "2169": "le ad", "2170": "si or", "2171": "do am", "2172": "stran", "2173": "lo at", "2174": "ci av", "2175": "le \u2019m", "2176": "ci af", "2177": "za er", "2178": "m\u2019 om", "2179": "da an", "2180": "so eb", "2181": "lo on", "2182": "gi ar", "2183": "te ad", "2184": "co ap", "2185": "re en", "2186": "ti or", "2187": "za al", "2188": "na at", "2189": "so ab", "2190": "l\u2019 ap", "2191": "d\u2019 on", "2192": "vi en", "2193": "dea u", "2194": "li au", "2195": "d\u2019 og", "2196": "l\u2019 av", "2197": "li ag", "2198": "no \u2019n", "2199": "fe et", "2200": "ri on", "2201": "strac", "2202": "li an", "2203": "no om", "2204": "re ar", "2205": "che e", "2206": "mo af", "2207": "na af", "2208": "le av", "2209": "me af", "2210": "ti \u2019m", "2211": "ri ar", "2212": "scial", "2213": "l\u2019 ov", "2214": "me at", "2215": "se as", "2216": "si ac", "2217": "t\u2019 or", "2218": "se ap", "2219": "v\u2019 er", "2220": "to ac", "2221": "b\u2019 es", "2222": "ta op", "2223": "de in", "2224": "schic", "2225": "r\u2019 el", "2226": "s\u2019 as", "2227": "ne ar", "2228": "n\u2019 ar", "2229": "t\u2019 ag", "2230": "ti ac", "2231": "l\u2019 ec", "2232": "l\u2019 ot", "2233": "co ar", "2234": "re in", "2235": "ce at", "2236": "s\u2019 eb", "2237": "di ac", "2238": "l\u2019 of", "2239": "ne \u2019n", "2240": "n\u2019 an", "2241": "na ac", "2242": "l\u2019 al", "2243": "le as", "2244": "di ol", "2245": "gno a", "2246": "n\u2019 uo", "2247": "gia e", "2248": "to uc", "2249": "ce ac", "2250": "s\u2019 er", "2251": "co et", "2252": "lo av", "2253": "na \u2019n", "2254": "vo ac", "2255": "zio u", "2256": "me on", "2257": "li al", "2258": "za \u2019n", "2259": "ra at", "2260": "ta on", "2261": "do oc", "2262": "tra i", "2263": "ve es", "2264": "d\u2019 am", "2265": "do eb", "2266": "n\u2019 on", "2267": "d\u2019 ur", "2268": "ni am", "2269": "s\u2019 ar", "2270": "t\u2019 an", "2271": "ti oc", "2272": "so at", "2273": "zia o", "2274": "to es", "2275": "de af", "2276": "te \u2019n", "2277": "la es", "2278": "l\u2019 ac", "2279": "pre e", "2280": "de of", "2281": "s\u2019 op", "2282": "di al", "2283": "gliet", "2284": "na of", "2285": "si og", "2286": "scioc", "2287": "so es", "2288": "de am", "2289": "pa es", "2290": "za an", "2291": "si el", "2292": "s\u00ec \u2019m", "2293": "l\u2019 os", "2294": "ra et", "2295": "ri in", "2296": "co er", "2297": "si \u2019m", "2298": "ch\u2019 i", "2299": "n\u2019 om", "2300": "re oc", "2301": "m\u2019 ol", "2302": "s\u2019 al", "2303": "re em", "2304": "glies", "2305": "t\u2019 im", "2306": "ne ov", "2307": "ci am", "2308": "sfran", "2309": "sto o", "2310": "ne et", "2311": "ste i", "2312": "zo an", "2313": "gliam", "2314": "li of", "2315": "r\u2019 al", "2316": "r\u2019 an", "2317": "la al", "2318": "so on", "2319": "gliar", "2320": "me ef", "2321": "v\u2019 of", "2322": "ba in", "2323": "ta am", "2324": "di im", "2325": "l\u2019 em", "2326": "lo er", "2327": "zi al", "2328": "d\u2019 ot", "2329": "te at", "2330": "lo al", "2331": "li uo", "2332": "do ac", "2333": "sciam", "2334": "l\u2019 uc", "2335": "cia a", "2336": "sciau", "2337": "strom", "2338": "s\u2019 av", "2339": "lia a", "2340": "sti o", "2341": "re om", "2342": "ne on", "2343": "fa az", "2344": "bi al", "2345": "m\u2019 ag", "2346": "na eb", "2347": "li \u2019n", "2348": "ni av", "2349": "l\u2019 am", "2350": "bre o", "2351": "l\u00ec en", "2352": "d\u2019 au", "2353": "ti an", "2354": "che o", "2355": "mi in", "2356": "va \u2019n", "2357": "di om", "2358": "ta ar", "2359": "chi o", "2360": "la on", "2361": "gna a", "2362": "m\u2019 ac", "2363": "chian", "2364": "n\u2019 ol", "2365": "squil", "2366": "de ac", "2367": "go es", "2368": "ta of", "2369": "me au", "2370": "ra in", "2371": "mi ap", "2372": "t\u2019 in", "2373": "d\u2019 of", "2374": "d\u2019 oc", "2375": "na or", "2376": "sa ap", "2377": "ra am", "2378": "qu\u2019 e", "2379": "tro u", "2380": "\u2019v\u2019 u", "2381": "d\u2019 es", "2382": "do ol", "2383": "te as", "2384": "l\u2019 ar", "2385": "te ag", "2386": "ro au", "2387": "fo im", "2388": "scias", "2389": "ne as", "2390": "d\u2019 eu", "2391": "ro ar", "2392": "sa on", "2393": "zi as", "2394": "chi u", "2395": "li ul", "2396": "to eb", "2397": "sa og", "2398": "t\u2019 ab", "2399": "io al", "2400": "sti a", "2401": "d\u2019 os", "2402": "no am", "2403": "d\u2019 om", "2404": "na av", "2405": "di on", "2406": "la au", "2407": "de er", "2408": "cia e", "2409": "fu av", "2410": "re av", "2411": "d\u2019 im", "2412": "si ol", "2413": "mo on", "2414": "chias", "2415": "le at", "2416": "sbe a", "2417": "po on", "2418": "pie e", "2419": "splen", "2420": "l\u2019 ad", "2421": "de ag", "2422": "t\u2019 em", "2423": "di av", "2424": "ta in", "2425": "ti \u2019n", "2426": "m\u2019 im", "2427": "mo of", "2428": "ro ap", "2429": "ri an", "2430": "si in", "2431": "mi al", "2432": "ghien", "2433": "na on", "2434": "zio e", "2435": "ce eu", "2436": "za im", "2437": "le of", "2438": "ghiac", "2439": "gi\u00e0 e", "2440": "li or", "2441": "que o", "2442": "re ac", "2443": "la av", "2444": "va al", "2445": "fu im", "2446": "re ol", "2447": "no et", "2448": "di az", "2449": "ri ap", "2450": "sco o", "2451": "ma al", "2452": "ti at", "2453": "me ac", "2454": "lo im", "2455": "la \u2019m", "2456": "ma ac", "2457": "vi ac", "2458": "ze es", "2459": "m\u2019 ap", "2460": "te ap", "2461": "te ol", "2462": "m\u2019 ab", "2463": "ra el", "2464": "t\u2019 ap", "2465": "li \u2019m", "2466": "li em", "2467": "za in", "2468": "na ab", "2469": "st\u2019 o", "2470": "hi om", "2471": "po av", "2472": "b\u00ec al", "2473": "lo ar", "2474": "to ov", "2475": "li as", "2476": "t\u2019 am", "2477": "li ap", "2478": "ta ab", "2479": "strel", "2480": "no av", "2481": "vi al", "2482": "ci at", "2483": "zia e", "2484": "d\u2019 as", "2485": "do as", "2486": "sciom", "2487": "s\u2019 et", "2488": "do er", "2489": "v\u2019 am", "2490": "le or", "2491": "ne in", "2492": "te em", "2493": "vi an", "2494": "te om", "2495": "ni en", "2496": "lo il", "2497": "v\u2019 ac", "2498": "l\u2019 et", "2499": "schio", "2500": "qu\u2019 o", "2501": "zi \u2019m", "2502": "ce as", "2503": "co eb", "2504": "ro in", "2505": "scrip", "2506": "l\u2019 om", "2507": "t\u00e0 in", "2508": "la or", "2509": "ro or", "2510": "sto a", "2511": "t\u2019 ar", "2512": "tra a", "2513": "m\u2019 an", "2514": "n\u2019 in", "2515": "l\u2019 es", "2516": "li un", "2517": "d\u2019 an", "2518": "pi or", "2519": "t\u2019 al", "2520": "va ar", "2521": "ba un", "2522": "ne ac", "2523": "qua e", "2524": "so et", "2525": "to ag", "2526": "le al", "2527": "cio e", "2528": "ne im", "2529": "mo es", "2530": "d\u2019 af", "2531": "schet", "2532": "ga an", "2533": "streg", "2534": "ia an", "2535": "so ad", "2536": "ne af", "2537": "ce af", "2538": "ta ad", "2539": "vi as", "2540": "li af", "2541": "di in", "2542": "li at", "2543": "te au", "2544": "ma \u2019n", "2545": "si al", "2546": "sgher", "2547": "ti et", "2548": "mi am", "2549": "do im", "2550": "fu el", "2551": "ne \u2019m", "2552": "d\u2019 az", "2553": "le an", "2554": "sciol", "2555": "ro al", "2556": "ce al", "2557": "squar", "2558": "te es", "2559": "ve oc", "2560": "zie o", "2561": "mi ef", "2562": "vo au", "2563": "co av", "2564": "ma an", "2565": "po in", "2566": "triar", "2567": "ti as", "2568": "tu en", "2569": "sa an", "2570": "co an", "2571": "mi \u2019n", "2572": "v\u2019 al", "2573": "le ol", "2574": "ma in", "2575": "la of", "2576": "ro ab", "2577": "ra as", "2578": "v\u2019 ap", "2579": "l\u2019 oc", "2580": "la \u2019n", "2581": "l\u2019 ab", "2582": "si av", "2583": "s\u2019 ac", "2584": "s\u2019 ag", "2585": "pra a", "2586": "c\u2019 im", "2587": "me as", "2588": "ni al", "2589": "s\u2019 ad", "2590": "ro eb", "2591": "m\u2019 as", "2592": "glian", "2593": "ta om", "2594": "s\u2019 ab", "2595": "n\u2019 eb", "2596": "za et", "2597": "sa ol", "2598": "che u", "2599": "de om", "2600": "ti al", "2601": "vi on", "2602": "si as", "2603": "ro an", "2604": "chioc", "2605": "co ac", "2606": "sta u", "2607": "dio a", "2608": "sti er", "2609": "que al", "2610": "che an", "2611": "gio ol", "2612": "sto \u2019n", "2613": "do o e", "2614": "gia al", "2615": "tro av", "2616": "chi am", "2617": "ch\u2019 ap", "2618": "zia on", "2619": "sta an", "2620": "ste in", "2621": "qu\u2019 an", "2622": "qua of", "2623": "mio av", "2624": "nea av", "2625": "ch\u2019 ac", "2626": "sto ar", "2627": "te han", "2628": "sti on", "2629": "pre al", "2630": "sta in", "2631": "tre in", "2632": "ste an", "2633": "st\u2019 of", "2634": "sti un", "2635": "tra ef", "2636": "tra or", "2637": "sti av", "2638": "sce an", "2639": "sce el", "2640": "tra av", "2641": "ch\u2019 in", "2642": "n\u2019 han", "2643": "nio im", "2644": "cio al", "2645": "sto at", "2646": "scun e", "2647": "st\u2019 ul", "2648": "ch\u2019 an", "2649": "tro ab", "2650": "sti al", "2651": "glio e", "2652": "sta ai", "2653": "ghe on", "2654": "gni an", "2655": "gia ar", "2656": "li han", "2657": "sce al", "2658": "tro ap", "2659": "sti oc", "2660": "rio an", "2661": "sti in", "2662": "cio an", "2663": "bre in", "2664": "che \u2019m", "2665": "stri o", "2666": "tre os", "2667": "schiet", "2668": "cio ap", "2669": "sio in", "2670": "chi al", "2671": "che ha", "2672": "pre ar", "2673": "pre es", "2674": "sti or", "2675": "stra a", "2676": "tro et", "2677": "tri af", "2678": "stra i", "2679": "cia ar", "2680": "che om", "2681": "tro on", "2682": "st\u2019 in", "2683": "cia on", "2684": "sto ap", "2685": "ch\u2019 el", "2686": "sco al", "2687": "bri ap", "2688": "gue or", "2689": "sta on", "2690": "pi\u00f9 in", "2691": "dre an", "2692": "pio on", "2693": "sto of", "2694": "ch\u2019 am", "2695": "chio a", "2696": "gno al", "2697": "dre es", "2698": "ch\u2019 as", "2699": "stri a", "2700": "ch\u2019 at", "2701": "chi ar", "2702": "glio u", "2703": "gh\u2019 es", "2704": "chio o", "2705": "sta im", "2706": "glio o", "2707": "mio \u2019n", "2708": "sce as", "2709": "pre at", "2710": "glia o", "2711": "dre as", "2712": "schian", "2713": "l\u2019 han", "2714": "tre an", "2715": "gio on", "2716": "che ar", "2717": "pr\u2019 ar", "2718": "tr\u2019 ar", "2719": "ne han", "2720": "tra \u2019m", "2721": "cio as", "2722": "gio et", "2723": "ch\u2019 eb", "2724": "gne in", "2725": "gne ef", "2726": "ch\u2019 al", "2727": "chi on", "2728": "stro e", "2729": "sti es", "2730": "ch\u2019 og", "2731": "que es", "2732": "pre ac", "2733": "pre in", "2734": "tri in", "2735": "gno in", "2736": "sto ac", "2737": "tro al", "2738": "chio u", "2739": "tro \u2019m", "2740": "pi\u00f9 \u2019n", "2741": "st\u2019 es", "2742": "ch\u2019 ag", "2743": "t\u2019 han", "2744": "lio an", "2745": "stro o", "2746": "lio in", "2747": "tri es", "2748": "stra u", "2749": "str\u2019 u", "2750": "ch\u2019 en", "2751": "vea \u2019m", "2752": "chi an", "2753": "sto \u2019m", "2754": "gna in", "2755": "tro in", "2756": "sto es", "2757": "sio an", "2758": "sto al", "2759": "che \u2019n", "2760": "tro ar", "2761": "qua on", "2762": "gne ac", "2763": "tr\u2019 om", "2764": "ch\u2019 or", "2765": "gi\u00f2 in", "2766": "tro of", "2767": "gne uo", "2768": "tra an", "2769": "chi ap", "2770": "com\u2019 a", "2771": "che in", "2772": "chi ac", "2773": "bra av", "2774": "bia an", "2775": "vio in", "2776": "st\u2019 al", "2777": "st\u2019 an", "2778": "stro u", "2779": "tri ap", "2780": "bia in", "2781": "glia u", "2782": "bra in", "2783": "ch\u2019 et", "2784": "gne im", "2785": "qua in", "2786": "zia il", "2787": "d\u2019 han", "2788": "stro a", "2789": "ch\u2019 ab", "2790": "re o u", "2791": "dre al", "2792": "zie ec", "2793": "schiat", "2794": "tr\u2019 am", "2795": "sti an", "2796": "gne er", "2797": "tri as", "2798": "co e i", "2799": "tro im", "2800": "sto an", "2801": "lia an", "2802": "dre eb", "2803": "sco an", "2804": "chi in", "2805": "tri of", "2806": "mio in", "2807": "st\u2019 ac", "2808": "ria on", "2809": "gio in", "2810": "gio uc", "2811": "gno ae", "2812": "cia im", "2813": "cie in", "2814": "ch\u2019 ad", "2815": "gue an", "2816": "ria in", "2817": "sta og", "2818": "ch\u2019 ar", "2819": "go han", "2820": "sto im", "2821": "lio as", "2822": "tr\u2019 al", "2823": "dia as", "2824": "scia e", "2825": "com\u2019 u", "2826": "sto in", "2827": "scio e", "2828": "zia or", "2829": "ch\u2019 es", "2830": "gno af", "2831": "gia in", "2832": "ti han", "2833": "tro ac", "2834": "ch\u2019 av", "2835": "qua im", "2836": "gni al", "2837": "tro as", "2838": "ri han", "2839": "ch\u2019 er", "2840": "mia \u2019n", "2841": "sti el", "2842": "sma in", "2843": "ber\u2019 o", "2844": "st\u2019 ar", "2845": "c\u2019 han", "2846": "pie or", "2847": "glia a", "2848": "sta al", "2849": "bre an", "2850": "gne al", "2851": "m\u2019 han", "2852": "dio an", "2853": "gno am", "2854": "sto on", "2855": "sta ol", "2856": "st\u2019 ot", "2857": "stra e", "2858": "cio et", "2859": "tra op", "2860": "gue on", "2861": "gna as", "2862": "ria of", "2863": "bre et", "2864": "tro an", "2865": "stra in", "2866": "n\u2019 \u00e8 im", "2867": "stri av", "2868": "stro eb", "2869": "glio as", "2870": "stro an", "2871": "lo e \u2019n", "2872": "glio es", "2873": "chio in", "2874": "stro es", "2875": "trio al", "2876": "str\u2019 or", "2877": "chio an", "2878": "glie eb", "2879": "glia al", "2880": "stro in", "2881": "stro ac", "2882": "stri an", "2883": "stro av", "2884": "glio on", "2885": "gio o e", "2886": "chio at", "2887": "chia of", "2888": "sche er", "2889": "d\u2019 i\u2019 a", "2890": "scia al", "2891": "dio han", "2892": "chia an", "2893": "stro al", "2894": "str\u2019 ar", "2895": "glie al", "2896": "sche ab", "2897": "stra ap", "2898": "stro as", "2899": "re a \u2019n", "2900": "ti e \u2019n", "2901": "glie an", "2902": "glia es", "2903": "stro oc", "2904": "stra ef", "2905": "stri at", "2906": "glia as", "2907": "stre in", "2908": "l\u00e0 \u2019vun", "2909": "glio an", "2910": "glio in", "2911": "li \u00e8 in", "2912": "stri al", "2913": "si e \u2019n", "2914": "stri ef", "2915": "chie et", "2916": "stro uc", "2917": "stro im", "2918": "stri af", "2919": "glia ac", "2920": "vria es", "2921": "pria av", "2922": "s\u2019 i\u2019 o", "2923": "scia an", "2924": "glia in", "2925": "ch\u2019 i\u2019 o", "2926": "t\u2019 ho in", "2927": "sti a \u2019n", "2928": "ch\u2019 i\u2019 e", "2929": "ch\u2019 e\u2019 \u2019n", "2930": "ch\u2019 io \u2019n", "2931": "a ", "2932": "i ", "2933": "s ", "2934": "\u00f2 ", "2935": "\u00ef ", "2936": "e ", "2937": "o ", "2938": "\u00ec ", "2939": "\u00f9 ", "2940": "\u00e8 ", "2941": "s\u00e8 ", "2942": "gi ", "2943": "t\u00e8 ", "2944": "s\u00e9 ", "2945": "ba ", "2946": "p\u00e8 ", "2947": "go ", "2948": "fa ", "2949": "me ", "2950": "st ", "2951": "ia ", "2952": "\u00f9l ", "2953": "\u00f3n ", "2954": "t\u00e9 ", "2955": "\u00e9n ", "2956": "d\u00f2 ", "2957": "th ", "2958": "b\u00e8 ", "2959": "vi ", "2960": "mo ", "2961": "\u00e8e ", "2962": "oh ", "2963": "ro ", "2964": "so ", "2965": "ma ", "2966": "\u00e8l ", "2967": "s\u00ec ", "2968": "po ", "2969": "co ", "2970": "n\u00ec ", "2971": "ve ", "2972": "lo ", "2973": "d\u00e9 ", "2974": "le ", "2975": "m\u2019 ", "2976": "ab ", "2977": "ha ", "2978": "tu ", "2979": "od ", "2980": "n\u00e8 ", "2981": "ar ", "2982": "ai ", "2983": "g\u00f2 ", "2984": "ni ", "2985": "ad ", "2986": "ho ", "2987": "v\u00ec ", "2988": "\u00e0m ", "2989": "zo ", "2990": "t\u00f2 ", "2991": "m\u00f2 ", "2992": "c\u00f2 ", "2993": "t\u00ec ", "2994": "al ", "2995": "il ", "2996": "ie ", "2997": "m\u00e8 ", "2998": "i\u2019 ", "2999": "u\u2019 ", "3000": "d\u00e0 ", "3001": "ae ", "3002": "ge ", "3003": "ga ", "3004": "da ", "3005": "\u00e0s ", "3006": "si ", "3007": "l\u00e8 ", "3008": "zi ", "3009": "di ", "3010": "c\u00e8 ", "3011": "l\u00ec ", "3012": "ut ", "3013": "in ", "3014": "do ", "3015": "f\u00e0 ", "3016": "ca ", "3017": "on ", "3018": "ne ", "3019": "or ", "3020": "no ", "3021": "n\u00e0 ", "3022": "za ", "3023": "e\u2019 ", "3024": "g\u00ec ", "3025": "pi ", "3026": "l\u00f2 ", "3027": "bo ", "3028": "su ", "3029": "be ", "3030": "z\u00f2 ", "3031": "s\u00f2 ", "3032": "ze ", "3033": "fi ", "3034": "fo ", "3035": "d\u00ec ", "3036": "pe ", "3037": "\u00e0r ", "3038": "to ", "3039": "t\u00e0 ", "3040": "ti ", "3041": "a\u2019 ", "3042": "pa ", "3043": "us ", "3044": "na ", "3045": "r\u00e0 ", "3046": "v\u00f2 ", "3047": "ir ", "3048": "om ", "3049": "io ", "3050": "sa ", "3051": "p\u00f2 ", "3052": "la ", "3053": "c\u00e9 ", "3054": "bi ", "3055": "el ", "3056": "\u00f2n ", "3057": "ri ", "3058": "r\u00f2 ", "3059": "an ", "3060": "as ", "3061": "os ", "3062": "mi ", "3063": "fu ", "3064": "b\u00f9 ", "3065": "\u00f2s ", "3066": "s\u00f9 ", "3067": "va ", "3068": "se ", "3069": "b\u00f2 ", "3070": "et ", "3071": "n\u00e9 ", "3072": "un ", "3073": "\u00ecs ", "3074": "ed ", "3075": "r\u00ec ", "3076": "sc ", "3077": "ci ", "3078": "li ", "3079": "re ", "3080": "de ", "3081": "ei ", "3082": "te ", "3083": "ra ", "3084": "f\u00e9 ", "3085": "f\u00f2 ", "3086": "vo ", "3087": "ce ", "3088": "n\u00f2 ", "3089": "ta ", "3090": "l\u00e0 ", "3091": "t\u00f9 ", "3092": "fe ", "3093": "r\u00ecb ", "3094": "tr\u00f2 ", "3095": "mun ", "3096": "gno ", "3097": "ger ", "3098": "s\u00ece ", "3099": "gra ", "3100": "cel ", "3101": "f\u00f3n ", "3102": "d\u00ece ", "3103": "mii ", "3104": "lu\u2019 ", "3105": "g\u00f3n ", "3106": "pio ", "3107": "ghe ", "3108": "tin ", "3109": "rea ", "3110": "smi ", "3111": "du\u2019 ", "3112": "feo ", "3113": "n\u00ect ", "3114": "vol ", "3115": "pu\u00f2 ", "3116": "ror ", "3117": "p\u00eca ", "3118": "zai ", "3119": "teo ", "3120": "co\u2019 ", "3121": "ria ", "3122": "ta\u2019 ", "3123": "qui ", "3124": "din ", "3125": "suo ", "3126": "clo ", "3127": "non ", "3128": "sti ", "3129": "sub ", "3130": "pol ", "3131": "bui ", "3132": "tuo ", "3133": "no\u2019 ", "3134": "cia ", "3135": "ter ", "3136": "tro ", "3137": "cem ", "3138": "qua ", "3139": "me\u2019 ", "3140": "cei ", "3141": "sun ", "3142": "fio ", "3143": "fra ", "3144": "dro ", "3145": "sta ", "3146": "fui ", "3147": "tri ", "3148": "de\u2019 ", "3149": "ros ", "3150": "pon ", "3151": "vea ", "3152": "gei ", "3153": "n\u00eca ", "3154": "fie ", "3155": "des ", "3156": "sii ", "3157": "sc\u00ec ", "3158": "cor ", "3159": "gna ", "3160": "ste ", "3161": "sin ", "3162": "nha ", "3163": "cin ", "3164": "cre ", "3165": "r\u00f3n ", "3166": "cur ", "3167": "zul ", "3168": "mio ", "3169": "st\u00e9 ", "3170": "rie ", "3171": "b\u00e0l ", "3172": "sma ", "3173": "uom ", "3174": "fai ", "3175": "n\u00e8s ", "3176": "leo ", "3177": "f\u00e9e ", "3178": "fin ", "3179": "nei ", "3180": "bon ", "3181": "dei ", "3182": "ghi ", "3183": "d\u00e8i ", "3184": "vau ", "3185": "di\u00e8 ", "3186": "fal ", "3187": "rem ", "3188": "t\u00e0n ", "3189": "bei ", "3190": "uo\u2019 ", "3191": "sa\u2019 ", "3192": "da\u2019 ", "3193": "tis ", "3194": "con ", "3195": "bro ", "3196": " in ", "3197": "nai ", "3198": "b\u00e8l ", "3199": "sar ", "3200": "g\u00f3r ", "3201": "par ", "3202": "reo ", "3203": "ieu ", "3204": "t\u00f2n ", "3205": "fe\u2019 ", "3206": "nar ", "3207": "f\u00e0t ", "3208": "st\u00e0 ", "3209": "gu\u00ec ", "3210": "ver ", "3211": "pur ", "3212": "gni ", "3213": "zie ", "3214": "gea ", "3215": "lia ", "3216": "mia ", "3217": "ces ", "3218": "smo ", "3219": "dal ", "3220": "gu\u00f2 ", "3221": "cil ", "3222": "mar ", "3223": "sal ", "3224": "can ", "3225": "lee ", "3226": "o e ", "3227": "cu\u2019 ", "3228": "pal ", "3229": "st\u00ec ", "3230": "su\u2019 ", "3231": "sci ", "3232": "cen ", "3233": "che ", "3234": "han ", "3235": "sui ", "3236": "r\u00f2l ", "3237": "dr\u00f2 ", "3238": "fil ", "3239": "lir ", "3240": "bin ", "3241": "na\u2019 ", "3242": "gor ", "3243": "rei ", "3244": "mai ", "3245": "cal ", "3246": "s\u00f9e ", "3247": "sco ", "3248": "gel ", "3249": "gro ", "3250": "gai ", "3251": "mus ", "3252": "gi\u2019 ", "3253": "sor ", "3254": "gli ", "3255": "pea ", "3256": "tes ", "3257": "vel ", "3258": "poi ", "3259": "rua ", "3260": "a e ", "3261": "van ", "3262": "sei ", "3263": "gin ", "3264": "nan ", "3265": "sue ", "3266": "lon ", "3267": "nem ", "3268": "man ", "3269": "cra ", "3270": "gol ", "3271": "bra ", "3272": "meo ", "3273": "vam ", "3274": "vio ", "3275": "dar ", "3276": "lai ", "3277": "nal ", "3278": "la\u2019 ", "3279": "pan ", "3280": "zan ", "3281": "var ", "3282": "tal ", "3283": "ton ", "3284": "pre ", "3285": "bus ", "3286": "nio ", "3287": "gn\u00ec ", "3288": "sua ", "3289": "son ", "3290": "tei ", "3291": "e \u2019 ", "3292": "nis ", "3293": "for ", "3294": "que ", "3295": "pro ", "3296": "tra ", "3297": "gue ", "3298": "ma\u2019 ", "3299": "hai ", "3300": "gre ", "3301": "via ", "3302": "deo ", "3303": "cro ", "3304": "lui ", "3305": "l\u00eca ", "3306": "su\u00e8 ", "3307": "bee ", "3308": "gia ", "3309": "fue ", "3310": "va\u2019 ", "3311": "bel ", "3312": "gir ", "3313": "vil ", "3314": "min ", "3315": "o a ", "3316": "tun ", "3317": "nii ", "3318": "tea ", "3319": "chi ", "3320": "tre ", "3321": "lea ", "3322": "bue ", "3323": "rum ", "3324": "ler ", "3325": "ser ", "3326": "cui ", "3327": "gi\u00f2 ", "3328": "ban ", "3329": "som ", "3330": "cum ", "3331": "coi ", "3332": "se\u2019 ", "3333": "gan ", "3334": "a i ", "3335": "a a ", "3336": "del ", "3337": "lei ", "3338": "der ", "3339": "spe ", "3340": "tr\u2019 ", "3341": "len ", "3342": "tua ", "3343": "mul ", "3344": "sit ", "3345": "dir ", "3346": "ral ", "3347": "nie ", "3348": "dai ", "3349": "ion ", "3350": "tai ", "3351": "bir ", "3352": "sai ", "3353": "tr\u00e0 ", "3354": "ner ", "3355": "ga\u2019 ", "3356": "f\u00e8l ", "3357": "ian ", "3358": "sto ", "3359": "fu\u2019 ", "3360": "f\u00e0s ", "3361": "bar ", "3362": "pii ", "3363": "bio ", "3364": "ean ", "3365": "dre ", "3366": "mil ", "3367": "cun ", "3368": "voi ", "3369": "dor ", "3370": "mon ", "3371": "don ", "3372": "cie ", "3373": "tio ", "3374": "mee ", "3375": "ben ", "3376": "rii ", "3377": "vo\u2019 ", "3378": "neo ", "3379": "col ", "3380": "pem ", "3381": "ra\u2019 ", "3382": "d\u00eca ", "3383": "z\u00f2n ", "3384": "pra ", "3385": "e i ", "3386": "fon ", "3387": "gru ", "3388": "d\u00ect ", "3389": "pr\u00e0 ", "3390": "te\u2019 ", "3391": "ti\u2019 ", "3392": "n\u00ece ", "3393": "mum ", "3394": "zio ", "3395": "r\u00ecs ", "3396": "nea ", "3397": "cut ", "3398": "m\u00ecs ", "3399": "rao ", "3400": "die ", "3401": "mea ", "3402": "tar ", "3403": "tem ", "3404": "peo ", "3405": "duo ", "3406": "tel ", "3407": "mal ", "3408": "dui ", "3409": "lan ", "3410": "bor ", "3411": "p\u00f2s ", "3412": "noi ", "3413": "dua ", "3414": "sio ", "3415": "fia ", "3416": "nia ", "3417": "sis ", "3418": "rio ", "3419": "ceo ", "3420": "m\u00eca ", "3421": "gon ", "3422": "til ", "3423": "rar ", "3424": "gi\u00e0 ", "3425": "ril ", "3426": "dra ", "3427": "por ", "3428": "lie ", "3429": "nin ", "3430": "zar ", "3431": "fer ", "3432": "beo ", "3433": "dee ", "3434": "lem ", "3435": "pei ", "3436": "nir ", "3437": "sol ", "3438": "l\u00e8m ", "3439": "res ", "3440": "st\u00f9 ", "3441": "t\u00f3n ", "3442": "vii ", "3443": "lor ", "3444": "mie ", "3445": "dii ", "3446": "dia ", "3447": "pri ", "3448": "rir ", "3449": "tus ", "3450": "tan ", "3451": "tor ", "3452": "ier ", "3453": "mas ", "3454": "re\u2019 ", "3455": "sul ", "3456": "tia ", "3457": "rin ", "3458": "ahi ", "3459": "num ", "3460": "st\u00f2 ", "3461": "fur ", "3462": "v\u00ecd ", "3463": "ri\u2019 ", "3464": "deh ", "3465": "car ", "3466": "uhi ", "3467": "sie ", "3468": "cri ", "3469": "pia ", "3470": "t\u00f2r ", "3471": "cea ", "3472": "bol ", "3473": "pir ", "3474": "pi\u00e8 ", "3475": "cio ", "3476": "vai ", "3477": "rer ", "3478": "ch\u00e9 ", "3479": "men ", "3480": "rui ", "3481": "nel ", "3482": "cle ", "3483": "bia ", "3484": "cer ", "3485": "mor ", "3486": "gio ", "3487": "seo ", "3488": "pel ", "3489": "sca ", "3490": "sir ", "3491": "von ", "3492": "sen ", "3493": "ron ", "3494": "nol ", "3495": "bil ", "3496": "vos ", "3497": "dr\u00e0 ", "3498": "pi\u00f9 ", "3499": "b\u00eca ", "3500": "gne ", "3501": "pi\u00e9 ", "3502": "sem ", "3503": "lin ", "3504": "t\u00e9r ", "3505": "ve\u2019 ", "3506": "lar ", "3507": "sce ", "3508": "s\u00f3n ", "3509": "mae ", "3510": "bri ", "3511": "pr\u00ec ", "3512": "l\u00eco ", "3513": "dem ", "3514": "tue ", "3515": "pin ", "3516": "far ", "3517": "sia ", "3518": "dil ", "3519": "gua ", "3520": "ten ", "3521": "due ", "3522": "dan ", "3523": "tii ", "3524": "dea ", "3525": "vra ", "3526": "ber ", "3527": "gi\u00f9 ", "3528": "ren ", "3529": "san ", "3530": "zia ", "3531": "vie ", "3532": "unt ", "3533": "gis ", "3534": "vas ", "3535": "ne\u2019 ", "3536": "zon ", "3537": "dri ", "3538": "pie ", "3539": "rel ", "3540": "lio ", "3541": "vem ", "3542": "tum ", "3543": "nil ", "3544": "fi\u2019 ", "3545": "val ", "3546": "cul ", "3547": "mei ", "3548": "tol ", "3549": "tir ", "3550": "za\u2019 ", "3551": "gar ", "3552": "di\u2019 ", "3553": "c\u00f2b ", "3554": "spa ", "3555": "vei ", "3556": "cis ", "3557": "plo ", "3558": "gui ", "3559": "dr\u00ec ", "3560": "cai ", "3561": "bre ", "3562": "r\u00ece ", "3563": "l\u00f2n ", "3564": "fan ", "3565": "dur ", "3566": "vin ", "3567": "tui ", "3568": "bi\u00f2 ", "3569": "ven ", "3570": "n\u00f2s ", "3571": "ram ", "3572": "ges ", "3573": "c\u00e0n ", "3574": "mer ", "3575": "ree ", "3576": "sel ", "3577": "ci\u00f2 ", "3578": "nor ", "3579": "gal ", "3580": "dio ", "3581": "joi ", "3582": "ran ", "3583": "n\u00f2i ", "3584": "fei ", "3585": "gri ", "3586": "per ", "3587": "\u2019ve ", "3588": "rai ", "3589": "c\u00f2l ", "3590": "bis ", "3591": "gior ", "3592": "svia ", "3593": "giai ", "3594": "di e ", "3595": "le o ", "3596": "me e ", "3597": "quei ", "3598": "re o ", "3599": "ni e ", "3600": "st\u00f2r ", "3601": "glie ", "3602": "ri e ", "3603": "breo ", "3604": "nian ", "3605": "stei ", "3606": "ra o ", "3607": "c\u2019 \u00e8 ", "3608": "bi e ", "3609": "bi i ", "3610": "ce e ", "3611": "da i ", "3612": "nien ", "3613": "do i ", "3614": "co o ", "3615": "dien ", "3616": "me \u00e8 ", "3617": "drai ", "3618": "na a ", "3619": "gli\u00f2 ", "3620": "drea ", "3621": "laio ", "3622": "lo a ", "3623": "t\u00f2 e ", "3624": "si e ", "3625": "lo i ", "3626": "gnun ", "3627": "ge \u00e8 ", "3628": "trea ", "3629": "vuo\u2019 ", "3630": "trai ", "3631": "pian ", "3632": "ce i ", "3633": "e \u2019l ", "3634": "gi e ", "3635": "mi i ", "3636": "glio ", "3637": "co i ", "3638": "prio ", "3639": "stel ", "3640": "o \u2019n ", "3641": "co e ", "3642": "fi e ", "3643": "doan ", "3644": "d\u2019 \u00e8 ", "3645": "quie ", "3646": "vian ", "3647": "co a ", "3648": "puoi ", "3649": "so o ", "3650": "pe e ", "3651": "ba e ", "3652": "ci\u00f2l ", "3653": "frui ", "3654": "stea ", "3655": "vi a ", "3656": "spir ", "3657": "tuon ", "3658": "me i ", "3659": "n\u00e9 i ", "3660": "ta e ", "3661": "le e ", "3662": "sa a ", "3663": "ve e ", "3664": "ciel ", "3665": "spro ", "3666": "vien ", "3667": "scio ", "3668": "vi o ", "3669": "to \u00e8 ", "3670": "de o ", "3671": "gean ", "3672": "ti i ", "3673": "lian ", "3674": "quod ", "3675": "va i ", "3676": "gnan ", "3677": "rian ", "3678": "to a ", "3679": "la o ", "3680": "chia ", "3681": "gnar ", "3682": "ve a ", "3683": "muor ", "3684": "scer ", "3685": "steo ", "3686": "va e ", "3687": "si \u00e8 ", "3688": "ce a ", "3689": "cral ", "3690": "ph\u00e8l ", "3691": "fuor ", "3692": "ne o ", "3693": "zi \u00e8 ", "3694": "gier ", "3695": "vo e ", "3696": "re e ", "3697": "o il ", "3698": "pi e ", "3699": "na \u00e8 ", "3700": "na e ", "3701": "bi a ", "3702": "scie ", "3703": "tram ", "3704": "tran ", "3705": "scar ", "3706": "po e ", "3707": "dier ", "3708": "frir ", "3709": "ci e ", "3710": "ciol ", "3711": "cria ", "3712": "rent ", "3713": "ce o ", "3714": "ro \u00e8 ", "3715": "do o ", "3716": "da e ", "3717": "la a ", "3718": "cain ", "3719": "mian ", "3720": "vuol ", "3721": "vo a ", "3722": "ti o ", "3723": "guon ", "3724": "a in ", "3725": "stro ", "3726": "quai ", "3727": "li i ", "3728": "nean ", "3729": "prei ", "3730": "mo e ", "3731": "grin ", "3732": "viam ", "3733": "po i ", "3734": "l\u2019 \u00e8 ", "3735": "que\u2019 ", "3736": "t\u2019 \u00e8 ", "3737": "spre ", "3738": "cl\u00e8s ", "3739": "go \u00e8 ", "3740": "tu e ", "3741": "v\u2019 \u00e8 ", "3742": "maio ", "3743": "ge e ", "3744": "l\u00ec \u00e8 ", "3745": "gnel ", "3746": "sa i ", "3747": "pri\u2019 ", "3748": "re a ", "3749": "gnum ", "3750": "ched ", "3751": "me a ", "3752": "stan ", "3753": "no e ", "3754": "giun ", "3755": "ne i ", "3756": "ma i ", "3757": "ghin ", "3758": "re \u00e8 ", "3759": "li \u00e8 ", "3760": "so \u00e8 ", "3761": "li o ", "3762": "ri o ", "3763": "stra ", "3764": "or l ", "3765": "za o ", "3766": "siam ", "3767": "si a ", "3768": "vean ", "3769": "dail ", "3770": "le a ", "3771": "tria ", "3772": "s\u00ec e ", "3773": "ghie ", "3774": "fior ", "3775": "go a ", "3776": "be i ", "3777": "cean ", "3778": "ro i ", "3779": "stie ", "3780": "scir ", "3781": "po a ", "3782": "muel ", "3783": "miei ", "3784": "naio ", "3785": "pien ", "3786": "trui ", "3787": "stai ", "3788": "tiam ", "3789": "crea ", "3790": "ze o ", "3791": "drir ", "3792": "c\u00f2th ", "3793": "spri ", "3794": "grue ", "3795": "ve i ", "3796": "ciai ", "3797": "to e ", "3798": "ca a ", "3799": "te o ", "3800": "de e ", "3801": "gnon ", "3802": "stor ", "3803": "r\u2019 a ", "3804": "guir ", "3805": "tuoi ", "3806": "ca \u00e8 ", "3807": "le \u00e8 ", "3808": "brei ", "3809": "trar ", "3810": "stui ", "3811": "do \u00e8 ", "3812": "zo e ", "3813": "za a ", "3814": "nail ", "3815": "ze e ", "3816": "suoi ", "3817": "sci\u00f2 ", "3818": "drel ", "3819": "sion ", "3820": "saia ", "3821": "gual ", "3822": "stri ", "3823": "fu e ", "3824": "chel ", "3825": "prir ", "3826": "rean ", "3827": "buon ", "3828": "prie ", "3829": "gner ", "3830": "suon ", "3831": "tra\u2019 ", "3832": "ciul ", "3833": "brar ", "3834": "ta a ", "3835": "ro a ", "3836": "prec ", "3837": "chio ", "3838": "scun ", "3839": "brio ", "3840": "te e ", "3841": "da a ", "3842": "gran ", "3843": "ni o ", "3844": "cia\u2019 ", "3845": "no i ", "3846": "i in ", "3847": "pa a ", "3848": "\u00e8 in ", "3849": "i il ", "3850": "sien ", "3851": "quel ", "3852": "scel ", "3853": "zian ", "3854": "spia ", "3855": "fu o ", "3856": "guia ", "3857": "ra \u00e8 ", "3858": "dria ", "3859": "laia ", "3860": "pa \u00e8 ", "3861": "star ", "3862": "glia ", "3863": "so e ", "3864": "ro o ", "3865": "piar ", "3866": "bia\u2019 ", "3867": "or i ", "3868": "trei ", "3869": "se a ", "3870": "gnes ", "3871": "lo e ", "3872": "la i ", "3873": "ma a ", "3874": "tu i ", "3875": "\u00e8 \u2019l ", "3876": "pia\u2019 ", "3877": "ca o ", "3878": "za \u00e8 ", "3879": "riai ", "3880": "s\u00e9 i ", "3881": "ce \u00e8 ", "3882": "pa e ", "3883": "ra i ", "3884": "muoi ", "3885": "ta \u00e8 ", "3886": "mo \u00e8 ", "3887": "dra\u2019 ", "3888": "pria ", "3889": "vria ", "3890": "s\u2019 a ", "3891": "ci \u00e8 ", "3892": "\u00e8 il ", "3893": "lo \u00e8 ", "3894": "do a ", "3895": "ti e ", "3896": "stre ", "3897": "me o ", "3898": "v\u2019 a ", "3899": "si i ", "3900": "to i ", "3901": "ta o ", "3902": "ghia ", "3903": "scia ", "3904": "pi\u00f9e ", "3905": "com\u2019 ", "3906": "stil ", "3907": "do e ", "3908": "ciam ", "3909": "ciar ", "3910": "za i ", "3911": "lier ", "3912": "sa o ", "3913": "ti \u00e8 ", "3914": "gian ", "3915": "be a ", "3916": "fier ", "3917": "li a ", "3918": "tien ", "3919": "gien ", "3920": "a \u2019l ", "3921": "nier ", "3922": "tuo\u2019 ", "3923": "quar ", "3924": "sa \u00e8 ", "3925": "crin ", "3926": "guan ", "3927": "niam ", "3928": "ri a ", "3929": "qual ", "3930": "sfar ", "3931": "\u00e8 \u2019n ", "3932": "po \u00e8 ", "3933": "ra a ", "3934": "br\u00f2t ", "3935": "ta i ", "3936": "ga o ", "3937": "bree ", "3938": "ro e ", "3939": "ga e ", "3940": "guai ", "3941": "dean ", "3942": "suol ", "3943": "scea ", "3944": "io o ", "3945": "prai ", "3946": "gnia ", "3947": "no \u00e8 ", "3948": "quae ", "3949": "tean ", "3950": "ga a ", "3951": "ma o ", "3952": "cuor ", "3953": "ma \u00e8 ", "3954": "zi a ", "3955": "fe e ", "3956": "gnus ", "3957": "trio ", "3958": "za e ", "3959": "tris ", "3960": "deum ", "3961": "pe i ", "3962": "plar ", "3963": "vuoi ", "3964": "bion ", "3965": "cion ", "3966": "quam ", "3967": "str\u00f2 ", "3968": "blia ", "3969": "gion ", "3970": "blio ", "3971": "sie\u2019 ", "3972": "ma e ", "3973": "quor ", "3974": "no o ", "3975": "mi a ", "3976": "chi\u00f2 ", "3977": "sci\u2019 ", "3978": "fo \u00e8 ", "3979": "rien ", "3980": "dron ", "3981": "st\u00e8r ", "3982": "gnin ", "3983": "gaio ", "3984": "pron ", "3985": "cian ", "3986": "duol ", "3987": "so i ", "3988": "sier ", "3989": "go e ", "3990": "or d ", "3991": "su i ", "3992": "gi a ", "3993": "vier ", "3994": "ch e ", "3995": "bian ", "3996": "se e ", "3997": "a il ", "3998": "pi\u00e9r ", "3999": "se i ", "4000": "d\u2019 i ", "4001": "pluo ", "4002": "di i ", "4003": "re i ", "4004": "biar ", "4005": "tree ", "4006": "ti a ", "4007": "go o ", "4008": "mie\u2019 ", "4009": "sper ", "4010": "mi e ", "4011": "zi e ", "4012": "t\u2019 i ", "4013": "so a ", "4014": "bo e ", "4015": "e \u2019n ", "4016": "vi \u00e8 ", "4017": "o un ", "4018": "io e ", "4019": "chie ", "4020": "de \u00e8 ", "4021": "ne \u00e8 ", "4022": "sti\u00f2 ", "4023": "te \u00e8 ", "4024": "sa e ", "4025": "suo\u2019 ", "4026": "s\u2019 \u00e8 ", "4027": "va a ", "4028": "sian ", "4029": "te a ", "4030": "ni a ", "4031": "tier ", "4032": "to o ", "4033": "la \u00e8 ", "4034": "bo a ", "4035": "schi ", "4036": "trae ", "4037": "gnor ", "4038": "se \u00e8 ", "4039": "vi e ", "4040": "ra e ", "4041": "giar ", "4042": "ci o ", "4043": "fian ", "4044": "chin ", "4045": "tr\u00e0s ", "4046": "se o ", "4047": "m\u2019 \u00e8 ", "4048": "la e ", "4049": "ne e ", "4050": "te i ", "4051": "o in ", "4052": "die\u2019 ", "4053": "ziar ", "4054": "ghi\u00f2 ", "4055": "fa e ", "4056": "na o ", "4057": "fien ", "4058": "tu \u2019 ", "4059": "stia ", "4060": "ne a ", "4061": "zion ", "4062": "runt ", "4063": "no a ", "4064": "cheo ", "4065": "mo i ", "4066": "ca e ", "4067": "ci a ", "4068": "sc\u00eco ", "4069": "po o ", "4070": "ge a ", "4071": "fren ", "4072": "l\u00e0 i ", "4073": "fiar ", "4074": "lien ", "4075": "bent ", "4076": "giam ", "4077": "gioi ", "4078": "le i ", "4079": "te p ", "4080": "di a ", "4081": "zo a ", "4082": "ghio ", "4083": "pier ", "4084": "fu a ", "4085": "d\u00ec i ", "4086": "gi\u00f9e ", "4087": "li e ", "4088": "a al ", "4089": "mo a ", "4090": "de a ", "4091": "si o ", "4092": "stin ", "4093": "sche ", "4094": "de i ", "4095": "va o ", "4096": "sunt ", "4097": "co \u00e8 ", "4098": "scon ", "4099": "diam ", "4100": "pion ", "4101": "di o ", "4102": "slao ", "4103": "da o ", "4104": "prun ", "4105": "o al ", "4106": "buoi ", "4107": "be e ", "4108": "t\u00e8 a ", "4109": "ver\u2019 ", "4110": "ni \u00e8 ", "4111": "plor ", "4112": "ve o ", "4113": "n\u2019 \u00e8 ", "4114": "bran ", "4115": "f\u00e9 i ", "4116": "lo a\u2019 ", "4117": "na ei ", "4118": "s\u2019 i\u2019 ", "4119": "gnaio ", "4120": "gi \u2019l ", "4121": "che e ", "4122": "zo in ", "4123": "glier ", "4124": "gi il ", "4125": "strar ", "4126": "no un ", "4127": "do ha ", "4128": "qui e ", "4129": "se a\u2019 ", "4130": "bra o ", "4131": "ghi e ", "4132": "stiam ", "4133": "pe \u2019l ", "4134": "d\u2019 io ", "4135": "che a ", "4136": "fu in ", "4137": "da i\u2019 ", "4138": "gioir ", "4139": "le al ", "4140": "gia a ", "4141": "ria a ", "4142": "va or ", "4143": "se ir ", "4144": "rio e ", "4145": "va ad ", "4146": "mi un ", "4147": "via e ", "4148": "ta ed ", "4149": "gui e ", "4150": "ra \u2019l ", "4151": "fu \u2019l ", "4152": "qua o ", "4153": "gli a ", "4154": "si in ", "4155": "t\u2019 el ", "4156": "pri a ", "4157": "ri \u2019l ", "4158": "gue e ", "4159": "ia il ", "4160": "si ad ", "4161": "da al ", "4162": "se or ", "4163": "ni or ", "4164": "l\u00e0 \u2019l ", "4165": "zio e ", "4166": "gue \u00e8 ", "4167": "li io ", "4168": "be in ", "4169": "r\u2019 al ", "4170": "si il ", "4171": "za ha ", "4172": "so al ", "4173": "bra e ", "4174": "vo in ", "4175": "me in ", "4176": "me un ", "4177": "ga il ", "4178": "nia a ", "4179": "se \u2019l ", "4180": "po in ", "4181": "na al ", "4182": "ce il ", "4183": "ria o ", "4184": "pri e ", "4185": "scion ", "4186": "r\u00f2 il ", "4187": "ria i ", "4188": "to ha ", "4189": "gui i ", "4190": "ca al ", "4191": "gna \u00e8 ", "4192": "t\u00e0 \u2019l ", "4193": "ghe a ", "4194": "chian ", "4195": "stian ", "4196": "ge il ", "4197": "so in ", "4198": "t\u2019 ha ", "4199": "no in ", "4200": "di il ", "4201": "dro o ", "4202": "l\u2019 un ", "4203": "d\u00f2 in ", "4204": "cio e ", "4205": "re un ", "4206": "ro ad ", "4207": "ro a\u2019 ", "4208": "v\u2019 ho ", "4209": "me \u2019n ", "4210": "le ha ", "4211": "ba in ", "4212": "gue a ", "4213": "no a\u2019 ", "4214": "do ad ", "4215": "t\u2019 i\u2019 ", "4216": "tra e ", "4217": "di al ", "4218": "co il ", "4219": "sta o ", "4220": "ne ai ", "4221": "li i\u2019 ", "4222": "bre e ", "4223": "to \u2019l ", "4224": "te al ", "4225": "la in ", "4226": "zi \u2019l ", "4227": "chi a ", "4228": "lo ha ", "4229": "ci or ", "4230": "do or ", "4231": "re in ", "4232": "co un ", "4233": "non e ", "4234": "chion ", "4235": "so a\u2019 ", "4236": "stial ", "4237": "ti io ", "4238": "me al ", "4239": "no il ", "4240": "gna e ", "4241": "pio a ", "4242": "tra a ", "4243": "la il ", "4244": "si el ", "4245": "va io ", "4246": "la io ", "4247": "ri in ", "4248": "zi ai ", "4249": "bre a ", "4250": "b\u2019 io ", "4251": "r\u00f2 \u2019l ", "4252": "ve un ", "4253": "sa un ", "4254": "d\u2019 ei ", "4255": "gio e ", "4256": "po io ", "4257": "ce un ", "4258": "gna o ", "4259": "gliai ", "4260": "ne il ", "4261": "te in ", "4262": "f\u00e9 \u2019l ", "4263": "glian ", "4264": "v\u2019 ei ", "4265": "no io ", "4266": "t\u2019 ho ", "4267": "g\u2019 io ", "4268": "za al ", "4269": "gua e ", "4270": "v\u00f2 \u2019l ", "4271": "chi e ", "4272": "v\u2019 io ", "4273": "da il ", "4274": "t\u00e9 \u2019l ", "4275": "l\u2019 om ", "4276": "to ai ", "4277": "ge or ", "4278": "te u\u2019 ", "4279": "go il ", "4280": "na un ", "4281": "chier ", "4282": "ce u\u2019 ", "4283": "mo ei ", "4284": "ghiai ", "4285": "me ed ", "4286": "ni\u2019 e ", "4287": "do a\u2019 ", "4288": "chiai ", "4289": "ria \u2019 ", "4290": "di io ", "4291": "stran ", "4292": "te ed ", "4293": "gi al ", "4294": "ci in ", "4295": "se un ", "4296": "tri a ", "4297": "di in ", "4298": "n\u00e9 \u2019l ", "4299": "co ai ", "4300": "ta un ", "4301": "ghiar ", "4302": "vi il ", "4303": "ste e ", "4304": "di \u2019n ", "4305": "ti ha ", "4306": "bo in ", "4307": "v\u2019 e\u2019 ", "4308": "de un ", "4309": "za in ", "4310": "to i\u2019 ", "4311": "sta e ", "4312": "rai e ", "4313": "b\u00f2 il ", "4314": "tra \u2019 ", "4315": "ci ha ", "4316": "ia oh ", "4317": "sta \u00e8 ", "4318": "ta il ", "4319": "stion ", "4320": "to io ", "4321": "le il ", "4322": "v\u2019 \u00e8n ", "4323": "do io ", "4324": "gli e ", "4325": "za i\u2019 ", "4326": "ta al ", "4327": "bi in ", "4328": "dro e ", "4329": "to in ", "4330": "ste i ", "4331": "ste a ", "4332": "pre a ", "4333": "ia in ", "4334": "de al ", "4335": "tro i ", "4336": "segn\u00f2 ", "4337": "gia e ", "4338": "tr\u2019 a ", "4339": "ri al ", "4340": "te un ", "4341": "si \u2019n ", "4342": "tri o ", "4343": "ha in ", "4344": "na ed ", "4345": "te \u2019n ", "4346": "le un ", "4347": "no u\u2019 ", "4348": "go \u2019l ", "4349": "sti o ", "4350": "tra \u00e8 ", "4351": "po ha ", "4352": "bio e ", "4353": "cea o ", "4354": "fu il ", "4355": "gra o ", "4356": "na \u2019n ", "4357": "n\u00f2 in ", "4358": "re ed ", "4359": "scuoi ", "4360": "za un ", "4361": "do un ", "4362": "sa il ", "4363": "di \u2019l ", "4364": "te ai ", "4365": "vi in ", "4366": "na il ", "4367": "ch\u00e9 i ", "4368": "zia o ", "4369": "di ha ", "4370": "mi ad ", "4371": "se al ", "4372": "co a\u2019 ", "4373": "gno a ", "4374": "fu al ", "4375": "de ed ", "4376": "ne ad ", "4377": "n\u2019 ha ", "4378": "va in ", "4379": "ge un ", "4380": "le in ", "4381": "le ab ", "4382": "li il ", "4383": "ve il ", "4384": "to ad ", "4385": "di un ", "4386": "te i\u2019 ", "4387": "l\u2019 ho ", "4388": "co in ", "4389": "mi in ", "4390": "vrien ", "4391": "ra al ", "4392": "di ed ", "4393": "bi \u2019l ", "4394": "cia o ", "4395": "li in ", "4396": "to il ", "4397": "sto a ", "4398": "g\u00ec \u2019l ", "4399": "ge al ", "4400": "me a\u2019 ", "4401": "le or ", "4402": "ne or ", "4403": "va ai ", "4404": "sio e ", "4405": "sti \u00e8 ", "4406": "ti a\u2019 ", "4407": "gno \u00e8 ", "4408": "ria e ", "4409": "ce a\u2019 ", "4410": "ti ad ", "4411": "lo il ", "4412": "gio a ", "4413": "mo ha ", "4414": "ge in ", "4415": "pio e ", "4416": "pra e ", "4417": "po \u2019l ", "4418": "lo ed ", "4419": "n\u2019 io ", "4420": "z\u00f2 \u2019l ", "4421": "to or ", "4422": "sta a ", "4423": "ta ho ", "4424": "tri e ", "4425": "so un ", "4426": "re ho ", "4427": "va al ", "4428": "ci il ", "4429": "chi \u00e8 ", "4430": "r\u00e0 in ", "4431": "s\u2019 ha ", "4432": "si al ", "4433": "vi \u2019l ", "4434": "re il ", "4435": "ne io ", "4436": "si \u2019l ", "4437": "mo in ", "4438": "dia e ", "4439": "va \u2019n ", "4440": "da \u2019l ", "4441": "sa in ", "4442": "stier ", "4443": "s\u2019 el ", "4444": "za ed ", "4445": "pre i ", "4446": "mo al ", "4447": "s\u2019 un ", "4448": "da io ", "4449": "me il ", "4450": "qua e ", "4451": "ma \u2019l ", "4452": "gua a ", "4453": "la al ", "4454": "ri a\u2019 ", "4455": "lia e ", "4456": "ra io ", "4457": "que e ", "4458": "ro al ", "4459": "ta \u2019l ", "4460": "sciar ", "4461": "se in ", "4462": "do in ", "4463": "ma il ", "4464": "sco e ", "4465": "re ha ", "4466": "se ai ", "4467": "tri \u00e8 ", "4468": "c\u2019 ha ", "4469": "fo or ", "4470": "do ed ", "4471": "te \u2019l ", "4472": "li un ", "4473": "si or ", "4474": "p\u2019 io ", "4475": "co io ", "4476": "to ed ", "4477": "stral ", "4478": "zio \u00e8 ", "4479": "gi un ", "4480": "sia e ", "4481": "zi il ", "4482": "ca in ", "4483": "bra a ", "4484": "se ho ", "4485": "ne ha ", "4486": "dre a ", "4487": "pe il ", "4488": "gliea ", "4489": "ga in ", "4490": "bi il ", "4491": "che i ", "4492": "sevra ", "4493": "l\u2019 ha ", "4494": "ro od ", "4495": "lo ai ", "4496": "to al ", "4497": "di a\u2019 ", "4498": "do \u2019l ", "4499": "pa or ", "4500": "za or ", "4501": "pie a ", "4502": "mo il ", "4503": "la \u2019l ", "4504": "mi a\u2019 ", "4505": "d\u2019 e\u2019 ", "4506": "su \u2019l ", "4507": "ra ad ", "4508": "dre e ", "4509": "cia a ", "4510": "ta io ", "4511": "vi un ", "4512": "d\u2019 i\u2019 ", "4513": "sme e ", "4514": "va un ", "4515": "gni a ", "4516": "t\u2019 il ", "4517": "te ad ", "4518": "d\u00f2 \u2019l ", "4519": "ro or ", "4520": "ra ha ", "4521": "co al ", "4522": "pe ad ", "4523": "te ho ", "4524": "ne a\u2019 ", "4525": "t\u2019 io ", "4526": "no i\u2019 ", "4527": "zi un ", "4528": "cia e ", "4529": "cea a ", "4530": "l\u00e0 il ", "4531": "no ad ", "4532": "dro a ", "4533": "za \u2019l ", "4534": "sco i ", "4535": "pa in ", "4536": "fa il ", "4537": "gia \u00e8 ", "4538": "la un ", "4539": "ch\u2019 a ", "4540": "\u2019v\u2019 \u00e8 ", "4541": "pa ho ", "4542": "dri e ", "4543": "be al ", "4544": "ma in ", "4545": "ha \u2019l ", "4546": "zi al ", "4547": "te io ", "4548": "gliar ", "4549": "chiar ", "4550": "ti al ", "4551": "be il ", "4552": "lio a ", "4553": "sciai ", "4554": "no ha ", "4555": "mio e ", "4556": "pre e ", "4557": "ci al ", "4558": "voill ", "4559": "te a\u2019 ", "4560": "so il ", "4561": "te or ", "4562": "tr\u2019 \u00e8 ", "4563": "ra a\u2019 ", "4564": "do al ", "4565": "na in ", "4566": "ghe e ", "4567": "ne \u2019l ", "4568": "bo a\u2019 ", "4569": "sca i ", "4570": "co ad ", "4571": "ti un ", "4572": "co or ", "4573": "se ad ", "4574": "ne ed ", "4575": "r\u00ec \u2019l ", "4576": "mi \u2019l ", "4577": "to \u2019n ", "4578": "ti \u2019l ", "4579": "ra un ", "4580": "smo a ", "4581": "schio ", "4582": "ro in ", "4583": "ni in ", "4584": "ro un ", "4585": "la a\u2019 ", "4586": "co \u2019l ", "4587": "po al ", "4588": "svuol ", "4589": "ia ed ", "4590": "se io ", "4591": "s\u2019 e\u2019 ", "4592": "vra i ", "4593": "no al ", "4594": "r\u00e0 ed ", "4595": "be un ", "4596": "re ir ", "4597": "ni ed ", "4598": "da or ", "4599": "re or ", "4600": "tro a ", "4601": "rio a ", "4602": "li ei ", "4603": "ci\u00f2 a ", "4604": "io il ", "4605": "ma a\u2019 ", "4606": "ni \u2019l ", "4607": "ra \u2019n ", "4608": "sti a ", "4609": "c\u2019 ho ", "4610": "va ed ", "4611": "be \u2019l ", "4612": "be or ", "4613": "so \u2019l ", "4614": "te il ", "4615": "ch\u00e9 a ", "4616": "pr\u2019 a ", "4617": "ma \u2019n ", "4618": "re i\u2019 ", "4619": "me \u2019l ", "4620": "ni al ", "4621": "gno e ", "4622": "si u\u2019 ", "4623": "lo al ", "4624": "sa \u2019l ", "4625": "v\u2019 ha ", "4626": "me ad ", "4627": "tu \u2019l ", "4628": "si un ", "4629": "bia e ", "4630": "lio \u00e8 ", "4631": "gna i ", "4632": "ge ai ", "4633": "na ha ", "4634": "ro ed ", "4635": "t\u00f2 \u2019l ", "4636": "cio a ", "4637": "sto e ", "4638": "re ad ", "4639": "ma un ", "4640": "no ei ", "4641": "ne un ", "4642": "ci \u2019l ", "4643": "fa \u2019l ", "4644": "mo \u2019l ", "4645": "ra il ", "4646": "gna a ", "4647": "va a\u2019 ", "4648": "ti ei ", "4649": "li \u2019l ", "4650": "ro il ", "4651": "pa \u2019l ", "4652": "zio a ", "4653": "mi al ", "4654": "s\u00e9 il ", "4655": "go al ", "4656": "lo ad ", "4657": "ro i\u2019 ", "4658": "ba il ", "4659": "ve in ", "4660": "sce e ", "4661": "so ad ", "4662": "mia e ", "4663": "ti ed ", "4664": "za il ", "4665": "ve a\u2019 ", "4666": "co u\u2019 ", "4667": "glior ", "4668": "pa ed ", "4669": "v\u2019 i\u2019 ", "4670": "v\u2019 el ", "4671": "li al ", "4672": "ti in ", "4673": "ch\u2019 \u00e8 ", "4674": "se e\u2019 ", "4675": "zia e ", "4676": "na or ", "4677": "d\u2019 un ", "4678": "da in ", "4679": "sto \u00e8 ", "4680": "tre e ", "4681": "zo al ", "4682": "zo il ", "4683": "n\u2019 ei ", "4684": "re al ", "4685": "ta or ", "4686": "to ir ", "4687": "ra in ", "4688": "zi or ", "4689": "me or ", "4690": "st\u2019 \u00e8 ", "4691": "li or ", "4692": "zo \u2019l ", "4693": "ce in ", "4694": "gliel ", "4695": "qua a ", "4696": "n\u00f2 \u2019l ", "4697": "ti \u2019n ", "4698": "s\u00ec \u2019l ", "4699": "va \u2019l ", "4700": "dio a ", "4701": "tro \u00e8 ", "4702": "pi in ", "4703": "le io ", "4704": "scian ", "4705": "li oh ", "4706": "ta ad ", "4707": "sce a ", "4708": "lo or ", "4709": "dio e ", "4710": "lui a ", "4711": "le i\u2019 ", "4712": "s\u2019 io ", "4713": "staio ", "4714": "po ed ", "4715": "no ai ", "4716": "d\u2019 el ", "4717": "que a ", "4718": "gia o ", "4719": "pi un ", "4720": "gluol ", "4721": "de \u2019l ", "4722": "s\u2019 ei ", "4723": "le \u2019l ", "4724": "li ha ", "4725": "le ad ", "4726": "sa ad ", "4727": "s\u00ec al ", "4728": "zia a ", "4729": "c\u2019 io ", "4730": "gi\u00e0 i ", "4731": "cia i ", "4732": "d\u2019 ir ", "4733": "ca il ", "4734": "t\u2019 om ", "4735": "be i\u2019 ", "4736": "so \u00e8e ", "4737": "mo ed ", "4738": "g\u00f2 \u2019l ", "4739": "glion ", "4740": "ni il ", "4741": "di or ", "4742": "m\u2019 io ", "4743": "do il ", "4744": "ra or ", "4745": "da un ", "4746": "se \u2019n ", "4747": "qua \u00e8 ", "4748": "ci io ", "4749": "sti e ", "4750": "su in ", "4751": "ce ha ", "4752": "na ad ", "4753": "no \u2019l ", "4754": "se il ", "4755": "va il ", "4756": "se i\u2019 ", "4757": "ra ed ", "4758": "che \u2019 ", "4759": "de in ", "4760": "mo ad ", "4761": "t\u00f2 un ", "4762": "m\u2019 ha ", "4763": "glien ", "4764": "sci a ", "4765": "de il ", "4766": "di \u00e8e ", "4767": "leo e ", "4768": "lo un ", "4769": "ti il ", "4770": "te ha ", "4771": "temps ", "4772": "to un ", "4773": "be ed ", "4774": "bi un ", "4775": "zi ad ", "4776": "gni e ", "4777": "re a\u2019 ", "4778": "z\u00f2 il ", "4779": "ta in ", "4780": "ci a\u2019 ", "4781": "de ad ", "4782": "v\u2019 or ", "4783": "mi il ", "4784": "lo in ", "4785": "sce i ", "4786": "po il ", "4787": "ne al ", "4788": "di ad ", "4789": "ve \u2019l ", "4790": "bro \u00e8 ", "4791": "li ad ", "4792": "lio e ", "4793": "zii e ", "4794": "ne in ", "4795": "que \u00e8 ", "4796": "gno i ", "4797": "to a\u2019 ", "4798": "t\u00ec \u2019l ", "4799": "ce al ", "4800": "no ed ", "4801": "tro e ", "4802": "le ir ", "4803": "za oh ", "4804": "ge ad ", "4805": "co i\u2019 ", "4806": "ta ha ", "4807": "mo un ", "4808": "ca io ", "4809": "dia i ", "4810": "ve ad ", "4811": "bro e ", "4812": "tra i ", "4813": "gri e ", "4814": "ve al ", "4815": "la ed ", "4816": "ce ed ", "4817": "re \u2019n ", "4818": "mi ed ", "4819": "zia \u00e8 ", "4820": "ria \u00e8 ", "4821": "me ai ", "4822": "ti ai ", "4823": "strai ", "4824": "gna in ", "4825": "ne e i ", "4826": "nia il ", "4827": "stia e ", "4828": "scia o ", "4829": "mia al ", "4830": "chi al ", "4831": "gia \u2019l ", "4832": "tro ad ", "4833": "gno or ", "4834": "sa e \u2019 ", "4835": "sti ha ", "4836": "dro in ", "4837": "sta in ", "4838": "gi\u2019 or ", "4839": "strans ", "4840": "ghiaio ", "4841": "gno ad ", "4842": "zia in ", "4843": "dr\u00e0 il ", "4844": "ci\u00f2 \u2019l ", "4845": "lui i\u2019 ", "4846": "gna il ", "4847": "gne \u2019l ", "4848": "gno a\u2019 ", "4849": "gno ed ", "4850": "pre a\u2019 ", "4851": "ci\u00f2 il ", "4852": "tri \u2019l ", "4853": "t\u2019 ha\u2019 ", "4854": "chi il ", "4855": "rio in ", "4856": "sco il ", "4857": "smo al ", "4858": "dea in ", "4859": "ne e \u2019 ", "4860": "ch\u00e9 \u2019n ", "4861": "sti \u2019l ", "4862": "ch\u2019 or ", "4863": "che \u2019n ", "4864": "tr\u2019 a\u2019 ", "4865": "glia e ", "4866": "ni e \u2019 ", "4867": "ghi al ", "4868": "tro un ", "4869": "ni e i ", "4870": "gliuoi ", "4871": "ch\u2019 a\u2019 ", "4872": "che il ", "4873": "lia al ", "4874": "tro io ", "4875": "qu\u2019 io ", "4876": "glia \u00e8 ", "4877": "ri e \u2019 ", "4878": "cia al ", "4879": "qua in ", "4880": "\u2019ve \u2019l ", "4881": "ch\u2019 in ", "4882": "sto ad ", "4883": "gua in ", "4884": "cea in ", "4885": "sto io ", "4886": "gliuol ", "4887": "qui \u2019l ", "4888": "pi e i ", "4889": "bra ad ", "4890": "ba e \u2019 ", "4891": "fra \u2019l ", "4892": "fi\u00f2 il ", "4893": "ra han ", "4894": "ria il ", "4895": "tre a\u2019 ", "4896": "gi\u00f9 \u2019l ", "4897": "na\u2019 il ", "4898": "que or ", "4899": "sia \u2019l ", "4900": "que in ", "4901": "ciai o ", "4902": "se\u2019 in ", "4903": "gli al ", "4904": "ch\u00e9 \u2019l ", "4905": "pra al ", "4906": "che un ", "4907": "bia \u2019l ", "4908": "gia or ", "4909": "ch\u00e9 il ", "4910": "gia il ", "4911": "gi\u00f9 il ", "4912": "d\u2019 uom ", "4913": "tr\u2019 al ", "4914": "gi\u00f9 al ", "4915": "pia in ", "4916": "ch\u2019 io ", "4917": "gna \u2019l ", "4918": "fia il ", "4919": "ro e o ", "4920": "stio e ", "4921": "pi\u00f9 al ", "4922": "gl\u2019 io ", "4923": "cea il ", "4924": "gi\u00e0 il ", "4925": "nio al ", "4926": "stra \u00e8 ", "4927": "glia a ", "4928": "sche o ", "4929": "sta un ", "4930": "sce in ", "4931": "ne han ", "4932": "stro i ", "4933": "ci\u00f2 io ", "4934": "gue il ", "4935": "glio o ", "4936": "chio \u00e8 ", "4937": "stra a ", "4938": "due \u2019l ", "4939": "ti e i ", "4940": "tre i\u2019 ", "4941": "ch\u2019 el ", "4942": "stro e ", "4943": "scio a ", "4944": "bra in ", "4945": "que ad ", "4946": "stra e ", "4947": "cia ir ", "4948": "ste il ", "4949": "gue in ", "4950": "qua al ", "4951": "c\u2019 han ", "4952": "ci e \u2019 ", "4953": "bra od ", "4954": "ti\u2019 un ", "4955": "va e i ", "4956": "ch\u2019 \u00e8i ", "4957": "sc\u2019 io ", "4958": "dria e ", "4959": "vra \u2019l ", "4960": "s\u2019 hai ", "4961": "c\u2019 hai ", "4962": "sto al ", "4963": "chio e ", "4964": "gu\u00ec \u2019l ", "4965": "che in ", "4966": "pi\u00f9 \u2019l ", "4967": "tri il ", "4968": "que il ", "4969": "spra e ", "4970": "glie e ", "4971": "sto ha ", "4972": "ch\u2019 ad ", "4973": "tra al ", "4974": "li ha\u2019 ", "4975": "tre il ", "4976": "che \u2019l ", "4977": "que al ", "4978": "l\u2019 uom ", "4979": "bia in ", "4980": "mio in ", "4981": "tro al ", "4982": "tra i\u2019 ", "4983": "tro ed ", "4984": "lea il ", "4985": "rio il ", "4986": "stro a ", "4987": "que a\u2019 ", "4988": "lio ed ", "4989": "stro \u00e8 ", "4990": "sto il ", "4991": "stri e ", "4992": "tri ad ", "4993": "n\u2019 uom ", "4994": "pre in ", "4995": "cia in ", "4996": "la \u2019ve ", "4997": "te han ", "4998": "tra \u2019l ", "4999": "sti in ", "5000": "chi in ", "5001": "sc\u00ec \u2019l ", "5002": "ghio e ", "5003": "schi o ", "5004": "t\u2019 hai ", "5005": "va\u2019 il ", "5006": "zio al ", "5007": "ch\u2019 ai ", "5008": "cheo e ", "5009": "zie al ", "5010": "ro e \u2019 ", "5011": "glio e ", "5012": "me e \u2019 ", "5013": "tra il ", "5014": "gna un ", "5015": "mio il ", "5016": "gio ad ", "5017": "chi \u2019l ", "5018": "tro in ", "5019": "pi\u00f9 ir ", "5020": "sce il ", "5021": "sta al ", "5022": "gne al ", "5023": "se uom ", "5024": "st\u2019 ho ", "5025": "tre al ", "5026": "che a\u2019 ", "5027": "ro hai ", "5028": "pi\u00e8 al ", "5029": "sta \u2019n ", "5030": "dri ai ", "5031": "schi a ", "5032": "ti han ", "5033": "gno il ", "5034": "pria o ", "5035": "tri or ", "5036": "so hai ", "5037": "tro i\u2019 ", "5038": "to hai ", "5039": "zia il ", "5040": "so\u2019 \u2019n ", "5041": "pi\u00f9 il ", "5042": "tre un ", "5043": "scia e ", "5044": "cia il ", "5045": "ch\u2019 om ", "5046": "che al ", "5047": "dre al ", "5048": "m\u2019 hai ", "5049": "sdegn\u00f2 ", "5050": "chio a ", "5051": "cia un ", "5052": "glia o ", "5053": "tra in ", "5054": "gli\u00f2 i ", "5055": "c\u2019 ha\u2019 ", "5056": "gia un ", "5057": "di\u2019 \u2019l ", "5058": "tre in ", "5059": "ch\u2019 al ", "5060": "gio il ", "5061": "ghia a ", "5062": "gi\u00f9 in ", "5063": "chia e ", "5064": "dia \u2019l ", "5065": "pria e ", "5066": "stie e ", "5067": "gio in ", "5068": "lia il ", "5069": "bio ed ", "5070": "tro il ", "5071": "smo in ", "5072": "rio ho ", "5073": "si e \u2019 ", "5074": "dio in ", "5075": "ch\u2019 i\u2019 ", "5076": "ste in ", "5077": "chi ha ", "5078": "ch\u2019 e\u2019 ", "5079": "schiar ", "5080": "rio ha ", "5081": "ghi \u2019l ", "5082": "pi\u00e9 \u2019l ", "5083": "bre a\u2019 ", "5084": "pre ha ", "5085": "chi a\u2019 ", "5086": "chi \u2019n ", "5087": "ti e \u2019 ", "5088": "trio e ", "5089": "di e \u2019 ", "5090": "cria o ", "5091": "pre \u2019l ", "5092": "m\u2019 han ", "5093": "gi\u00e0 \u2019l ", "5094": "ch\u2019 un ", "5095": "do i p ", "5096": "sta il ", "5097": "gno ha ", "5098": "diam i ", "5099": "glio a ", "5100": "gio ha ", "5101": "sti il ", "5102": "gno in ", "5103": "gni in ", "5104": "ria al ", "5105": "gli un ", "5106": "pre al ", "5107": "l\u2019 hai ", "5108": "tro a\u2019 ", "5109": "r\u00f3n il ", "5110": "pa e \u2019 ", "5111": "pra ed ", "5112": "gno al ", "5113": "scia a ", "5114": "cio ed ", "5115": "tro ai ", "5116": "tro ha ", "5117": "gna a\u2019 ", "5118": "ghi in ", "5119": "cia ad ", "5120": "tr\u2019 io ", "5121": "que i\u2019 ", "5122": "vea \u2019l ", "5123": "sia il ", "5124": "gro un ", "5125": "tro \u2019l ", "5126": "ch\u2019 ei ", "5127": "qua il ", "5128": "po e \u2019 ", "5129": "gio al ", "5130": "chi ei ", "5131": "bria e ", "5132": "pu\u00f2 \u2019l ", "5133": "dia in ", "5134": "li han ", "5135": "pra \u2019l ", "5136": "pra in ", "5137": "sto in ", "5138": "stro o ", "5139": "lio e i ", "5140": "schio e ", "5141": "chia al ", "5142": "si e \u2019l ", "5143": "le e \u2019l ", "5144": "to o al ", "5145": "me e \u2019l ", "5146": "va e \u2019l ", "5147": "ciai el ", "5148": "mo e \u2019l ", "5149": "dre e \u2019 ", "5150": "stri in ", "5151": "naio in ", "5152": "te e \u2019n ", "5153": "be e \u2019l ", "5154": "va e \u2019n ", "5155": "ta e \u2019l ", "5156": "no e \u2019l ", "5157": "m\u2019 \u00e8 il ", "5158": "scia il ", "5159": "to \u00e8 \u2019l ", "5160": "glie in ", "5161": "lo \u00e8 in ", "5162": "do e \u2019n ", "5163": "te e \u2019l ", "5164": "ca e \u2019l ", "5165": "stro il ", "5166": "re e \u2019l ", "5167": "stia ad ", "5168": "glio ai ", "5169": "de e \u2019n ", "5170": "to e \u2019l ", "5171": "vo e \u2019l ", "5172": "gne uom ", "5173": "glio or ", "5174": "gnia ad ", "5175": "v\u2019 \u00e8 \u2019l ", "5176": "glia in ", "5177": "sci\u00f2 il ", "5178": "ciai oh ", "5179": "ta e \u2019n ", "5180": "schia e ", "5181": "stra il ", "5182": "chio al ", "5183": "giai al ", "5184": "ci e \u2019l ", "5185": "s\u2019 io e ", "5186": "se e \u2019l ", "5187": "stra \u2019l ", "5188": "de e \u2019l ", "5189": "che e \u2019 ", "5190": "po e \u2019l ", "5191": "chio il ", "5192": "mi e \u2019l ", "5193": "stro ed ", "5194": "dia e i ", "5195": "ra e \u2019l ", "5196": "stro in ", "5197": "ce e \u2019l ", "5198": "glia al ", "5199": "ti e \u2019l ", "5200": "gnia in ", "5201": "stro or ", "5202": "sa e \u2019l ", "5203": "so e \u2019l ", "5204": "l\u2019 \u00e8 \u2019l ", "5205": "glie \u2019l ", "5206": "glia il ", "5207": "ch\u2019 uom ", "5208": "zo e \u2019l ", "5209": "bre e \u2019 ", "5210": "ro e \u2019l ", "5211": "me e \u2019n ", "5212": "m\u2019 \u00e8 \u2019l ", "5213": "glio in ", "5214": "za e \u2019l ", "5215": "ma e \u2019l ", "5216": "ga e \u2019l ", "5217": "chio in ", "5218": "glia un ", "5219": "chio ha ", "5220": "bo e \u2019l ", "5221": "go \u00e8 in ", "5222": "go e \u2019l ", "5223": "ne e \u2019l ", "5224": "tra e \u2019 ", "5225": "co e \u2019l ", "5226": "qu\u2019 ieu ", "5227": "na e \u2019l ", "5228": "la e \u2019l ", "5229": "ria \u00e8 \u2019l ", "5230": "schi uom ", "5231": "v\u2019 ha \u2019l ", "5232": "tra e \u2019l ", "5233": "ria e \u2019l ", "5234": "te ha in ", "5235": "tr\u2019 \u00e8 \u2019l ", "5236": "sta e \u2019l ", "5237": "tre e \u2019l ", "5238": "st\u2019 \u00e8 \u2019l ", "5239": "li ha in ", "5240": "gio e \u2019l ", "5241": "que e \u2019l ", "5242": "to ha \u2019l ", "5243": "dre e \u2019l ", "5244": "sti \u00e8 \u2019l ", "5245": "chi e \u2019l ", "5246": "cia e \u2019l ", "5247": "tri e \u2019l ", "5248": "bra e \u2019l ", "5249": "bia e \u2019l ", "5250": "zie e \u2019l ", "5251": "l\u2019 avria ", "5252": "dio e \u2019l ", "5253": "s\u2019 i\u2019 \u2019l ", "5254": "d\u2019 io \u2019l ", "5255": "zio e \u2019l ", "5256": "pra e \u2019l ", "5257": "sio e \u2019l ", "5258": "c\u2019 ha \u2019l ", "5259": "so ha \u2019l ", "5260": "chie e \u2019n ", "5261": "stro e \u2019l ", "5262": "li er\u2019 io ", "5263": "re avrian ", "5264": "ch\u2019 i\u2019 \u2019l ", "5265": "scia e \u2019l ", "5266": "chio e \u2019l ", "5267": "glio e \u2019l ", "5268": "ch\u2019 io \u2019l ", "5269": "chio o \u2019l ", "5270": "r\u00e0tro e \u2019l ", "5271": "s\u2019 io e \u2019l "}
