{"0": "", "1": "<v>", "2": "</v>", "3": "<t><v>", "4": "u", "5": "\u00e9", "6": "\u00fc", "7": "\u00e8", "8": "s", "9": "e", "10": "\u00ef", "11": "i", "12": "o", "13": "\u00f2", "14": "a", "15": "bu", "16": "un", "17": "go", "18": "qu", "19": "su", "20": "vo", "21": "ra", "22": "eb", "23": "c\u00ef", "24": "am", "25": "on", "26": "ge", "27": "v\u00f2", "28": "li", "29": "re", "30": "il", "31": "d\u00ef", "32": "l\u00eb", "33": "ia", "34": "of", "35": "v\u00e8", "36": "b\u00eb", "37": "g\u00e8", "38": "af", "39": "pi", "40": "p\u00fc", "41": "ti", "42": "oc", "43": "b\u00ef", "44": "fo", "45": "za", "46": "fu", "47": "vi", "48": "m\u00e4", "49": "em", "50": "ru", "51": "ul", "52": "s\u00fc", "53": "zi", "54": "d\u00fc", "55": "r\u00f3", "56": "ae", "57": "ca", "58": "at", "59": "d\u00e8", "60": "r\u00ef", "61": "as", "62": "l\u00ec", "63": "is", "64": "ri", "65": "na", "66": "du", "67": "m\u00eb", "68": "z\u00ef", "69": "co", "70": "v\u00ef", "71": "n\u00e8", "72": "os", "73": "m\u00ef", "74": "og", "75": "ol", "76": "ag", "77": "op", "78": "ci", "79": "t\u00f2", "80": "eu", "81": "ne", "82": "d\u00e9", "83": "so", "84": "c\u00fc", "85": "m\u00ec", "86": "ur", "87": "t\u00e8", "88": "fe", "89": "l\u00e8", "90": "s\u00ef", "91": "in", "92": "om", "93": "p\u00eb", "94": "mo", "95": "\u00e8n", "96": "c\u00f9", "97": "et", "98": "r\u00eb", "99": "t\u00ec", "100": "ap", "101": "no", "102": "n\u00ef", "103": "te", "104": "t\u00fc", "105": "f\u00f3", "106": "se", "107": "pe", "108": "pa", "109": "uc", "110": "c\u00ec", "111": "fi", "112": "ta", "113": "t\u00eb", "114": "ze", "115": "iu", "116": "g\u00f3", "117": "l\u00f2", "118": "pu", "119": "si", "120": "es", "121": "l\u00ef", "122": "\u00e8v", "123": "zo", "124": "l\u00f6", "125": "r\u00e0", "126": "uo", "127": "c\u00eb", "128": "io", "129": "ad", "130": "t\u00ef", "131": "f\u00ef", "132": "al", "133": "to", "134": "an", "135": "or", "136": "n\u00fc", "137": "p\u00ec", "138": "s\u00f2", "139": "p\u00ef", "140": "n\u00f2", "141": "lo", "142": "nu", "143": "n\u00eb", "144": "ve", "145": "ab", "146": "de", "147": "s\u00e9", "148": "r\u00e8", "149": "ov", "150": "bo", "151": "er", "152": "l\u00e0", "153": "ma", "154": "g\u00eb", "155": "ec", "156": "fa", "157": "t\u00e4", "158": "da", "159": "ot", "160": "p\u00e8", "161": "m\u00e8", "162": "do", "163": "me", "164": "cu", "165": "au", "166": "be", "167": "ga", "168": "s\u00eb", "169": "vu", "170": "ie", "171": "el", "172": "va", "173": "mi", "174": "ro", "175": "gu", "176": "ha", "177": "im", "178": "s\u00e0", "179": "ce", "180": "az", "181": "l\u00fc", "182": "ac", "183": "ar", "184": "ef", "185": "en", "186": "di", "187": "gi", "188": "ob", "189": "sa", "190": "le", "191": "v\u00eb", "192": "la", "193": "f\u00e9", "194": "mu", "195": "lu", "196": "s\u00f9", "197": "ba", "198": "bi", "199": "tu", "200": "id", "201": "d\u00eb", "202": "av", "203": "\u00f2s", "204": "po", "205": "g\u00ef", "206": "ni", "207": "f\u00eb", "208": "bia", "209": "sep", "210": "che", "211": "nal", "212": "ric", "213": "ros", "214": "sor", "215": "dit", "216": "chi", "217": "rio", "218": "gob", "219": "cov", "220": "flu", "221": "cin", "222": "tar", "223": "bom", "224": "mie", "225": "dub", "226": "fon", "227": "bli", "228": "din", "229": "sud", "230": "zio", "231": "gar", "232": "fiu", "233": "vam", "234": "nor", "235": "ten", "236": "del", "237": "pin", "238": "dif", "239": "sol", "240": "teg", "241": "com", "242": "ch\u00ec", "243": "bro", "244": "run", "245": "fes", "246": "cer", "247": "pol", "248": "gru", "249": "gni", "250": "lac", "251": "car", "252": "fis", "253": "bri", "254": "sve", "255": "pi\u00e9", "256": "noz", "257": "cla", "258": "feb", "259": "van", "260": "sra", "261": "par", "262": "bie", "263": "pro", "264": "fol", "265": "bea", "266": "giu", "267": "seg", "268": "suc", "269": "poc", "270": "lez", "271": "det", "272": "vir", "273": "man", "274": "cac", "275": "lit", "276": "con", "277": "pio", "278": "rid", "279": "ron", "280": "nie", "281": "cep", "282": "sia", "283": "sic", "284": "fan", "285": "rol", "286": "cra", "287": "smo", "288": "rit", "289": "mer", "290": "fom", "291": "per", "292": "pil", "293": "zon", "294": "doc", "295": "gna", "296": "sug", "297": "plu", "298": "pac", "299": "dos", "300": "muc", "301": "lun", "302": "vac", "303": "tom", "304": "sla", "305": "rug", "306": "met", "307": "dun", "308": "dru", "309": "ves", "310": "das", "311": "dar", "312": "ler", "313": "zac", "314": "lin", "315": "set", "316": "far", "317": "cui", "318": "peg", "319": "pap", "320": "tac", "321": "o a", "322": "dop", "323": "fin", "324": "lap", "325": "cur", "326": "ghe", "327": "pom", "328": "dob", "329": "tuo", "330": "tet", "331": "mes", "332": "bab", "333": "pub", "334": "cit", "335": "pon", "336": "tra", "337": "cul", "338": "dri", "339": "bl\u00ef", "340": "lul", "341": "sil", "342": "a a", "343": "rac", "344": "sfe", "345": "vid", "346": "coz", "347": "dil", "348": "bar", "349": "riz", "350": "sal", "351": "pog", "352": "ram", "353": "lim", "354": "ghi", "355": "zuf", "356": "ior", "357": "vie", "358": "pri", "359": "lil", "360": "ian", "361": "sur", "362": "ras", "363": "fic", "364": "gri", "365": "biz", "366": "nim", "367": "fug", "368": "pir", "369": "sc\u00ef", "370": "sin", "371": "sgo", "372": "sag", "373": "gue", "374": "bas", "375": "pau", "376": "mor", "377": "vel", "378": "cos", "379": "cle", "380": "cor", "381": "ria", "382": "pal", "383": "lia", "384": "dot", "385": "gil", "386": "reb", "387": "mat", "388": "guc", "389": "fos", "390": "lel", "391": "tan", "392": "tag", "393": "vuo", "394": "mac", "395": "gis", "396": "gom", "397": "gag", "398": "bef", "399": "ver", "400": "vol", "401": "nig", "402": "leg", "403": "rec", "404": "tut", "405": "tau", "406": "sap", "407": "p\u00e0r", "408": "sio", "409": "o u", "410": "rea", "411": "ral", "412": "pul", "413": "rat", "414": "tri", "415": "nol", "416": "dio", "417": "nul", "418": "pie", "419": "gnu", "420": "lop", "421": "ton", "422": "nez", "423": "ple", "424": "dez", "425": "roz", "426": "sun", "427": "mos", "428": "cap", "429": "gem", "430": "mel", "431": "nas", "432": "sup", "433": "vit", "434": "fib", "435": "pos", "436": "bul", "437": "rir", "438": "sop", "439": "ren", "440": "der", "441": "lar", "442": "pia", "443": "mag", "444": "sma", "445": "gad", "446": "leb", "447": "bre", "448": "lor", "449": "sv\u00ef", "450": "sam", "451": "gel", "452": "toc", "453": "lur", "454": "lab", "455": "vis", "456": "rof", "457": "guz", "458": "luo", "459": "nic", "460": "cis", "461": "bin", "462": "mur", "463": "puc", "464": "gal", "465": "nac", "466": "fie", "467": "fog", "468": "cen", "469": "guo", "470": "bev", "471": "nom", "472": "dr\u00ef", "473": "luc", "474": "gra", "475": "mil", "476": "neb", "477": "pes", "478": "zaf", "479": "bor", "480": "dur", "481": "dic", "482": "gib", "483": "tuf", "484": "bol", "485": "tol", "486": "qu\u00ef", "487": "rot", "488": "nat", "489": "xil", "490": "gen", "491": "sta", "492": "dre", "493": "laz", "494": "sfo", "495": "clo", "496": "tec", "497": "noc", "498": "pra", "499": "lat", "500": "dut", "501": "moz", "502": "v\u00f2l", "503": "top", "504": "ran", "505": "fuo", "506": "vor", "507": "sca", "508": "gua", "509": "gie", "510": "fur", "511": "lan", "512": "tun", "513": "gor", "514": "gas", "515": "roc", "516": "sez", "517": "rap", "518": "loc", "519": "spi", "520": "muf", "521": "a u", "522": "sec", "523": "von", "524": "diz", "525": "got", "526": "sfa", "527": "mai", "528": "ial", "529": "t\u00f2m", "530": "poz", "531": "fro", "532": "suo", "533": "f\u00e0c", "534": "dra", "535": "spo", "536": "sof", "537": "buf", "538": "rez", "539": "mas", "540": "paz", "541": "gat", "542": "ch\u00ef", "543": "var", "544": "soz", "545": "pur", "546": "bot", "547": "nil", "548": "spu", "549": "cie", "550": "svi", "551": "maz", "552": "dov", "553": "cel", "554": "tal", "555": "st\u00ef", "556": "buc", "557": "fra", "558": "dan", "559": "nur", "560": "ciu", "561": "sod", "562": "tru", "563": "gim", "564": "mir", "565": "gol", "566": "rel", "567": "dol", "568": "pig", "569": "cot", "570": "dea", "571": "ber", "572": "sit", "573": "mal", "574": "t\u00f2r", "575": "gab", "576": "fio", "577": "vet", "578": "sno", "579": "giz", "580": "fet", "581": "cio", "582": "ste", "583": "ful", "584": "can", "585": "gur", "586": "deg", "587": "sme", "588": "tir", "589": "sbi", "590": "sos", "591": "plo", "592": "gau", "593": "p\u00f2s", "594": "gan", "595": "fel", "596": "cia", "597": "tr\u00ef", "598": "nuc", "599": "cir", "600": "ser", "601": "nar", "602": "pec", "603": "lus", "604": "buo", "605": "fab", "606": "sna", "607": "vas", "608": "deb", "609": "sus", "610": "meg", "611": "\u2018la", "612": "cl\u00ef", "613": "caf", "614": "mul", "615": "mug", "616": "dug", "617": "mun", "618": "cea", "619": "nev", "620": "lav", "621": "m\u00e9z", "622": "tam", "623": "get", "624": "tin", "625": "vom", "626": "sco", "627": "pis", "628": "rob", "629": "rig", "630": "cli", "631": "don", "632": "cuc", "633": "gio", "634": "dal", "635": "bac", "636": "rog", "637": "cri", "638": "tre", "639": "fam", "640": "nun", "641": "rom", "642": "pop", "643": "sp\u00ef", "644": "pan", "645": "fia", "646": "hon", "647": "sen", "648": "lep", "649": "nen", "650": "dau", "651": "pli", "652": "rav", "653": "sot", "654": "ges", "655": "lic", "656": "bel", "657": "pen", "658": "dat", "659": "mon", "660": "gea", "661": "sto", "662": "cad", "663": "for", "664": "tel", "665": "col", "666": "cas", "667": "fuc", "668": "cez", "669": "puo", "670": "gon", "671": "dec", "672": "geo", "673": "gre", "674": "dia", "675": "sar", "676": "dro", "677": "ret", "678": "pot", "679": "pl\u00ec", "680": "clu", "681": "sel", "682": "cob", "683": "red", "684": "iat", "685": "mar", "686": "pun", "687": "cat", "688": "lip", "689": "saf", "690": "dor", "691": "pla", "692": "niz", "693": "raz", "694": "zuc", "695": "nis", "696": "fla", "697": "fum", "698": "gui", "699": "die", "700": "boc", "701": "sde", "702": "gno", "703": "min", "704": "sga", "705": "rie", "706": "cop", "707": "fri", "708": "fit", "709": "vil", "710": "spa", "711": "rup", "712": "dir", "713": "ban", "714": "cag", "715": "bis", "716": "cr\u00e0", "717": "piu", "718": "vem", "719": "tim", "720": "mot", "721": "bil", "722": "raf", "723": "pre", "724": "br\u00ef", "725": "dam", "726": "mol", "727": "tic", "728": "rar", "729": "cre", "730": "nag", "731": "lis", "732": "lir", "733": "pic", "734": "gam", "735": "stu", "736": "dom", "737": "tur", "738": "son", "739": "goc", "740": "coc", "741": "fig", "742": "nan", "743": "lot", "744": "puz", "745": "bet", "746": "ses", "747": "zar", "748": "sat", "749": "ven", "750": "rim", "751": "som", "752": "luz", "753": "mia", "754": "tie", "755": "gne", "756": "nir", "757": "lut", "758": "soc", "759": "f\u00e9l", "760": "sis", "761": "vat", "762": "glo", "763": "cet", "764": "por", "765": "sog", "766": "feg", "767": "vul", "768": "cun", "769": "mam", "770": "smu", "771": "sem", "772": "dis", "773": "fem", "774": "sac", "775": "cic", "776": "zel", "777": "fre", "778": "ter", "779": "sti", "780": "pru", "781": "sub", "782": "tem", "783": "nia", "784": "tez", "785": "tes", "786": "r\u00e8g", "787": "non", "788": "gir", "789": "tuc", "790": "lam", "791": "neg", "792": "nin", "793": "rem", "794": "sie", "795": "pet", "796": "duo", "797": "rut", "798": "val", "799": "git", "800": "bec", "801": "han", "802": "goz", "803": "fal", "804": "lem", "805": "pat", "806": "cau", "807": "ruc", "808": "nes", "809": "fen", "810": "tro", "811": "bat", "812": "sle", "813": "nob", "814": "men", "815": "ris", "816": "zan", "817": "cum", "818": "gaz", "819": "fru", "820": "fas", "821": "spe", "822": "lom", "823": "sob", "824": "lai", "825": "cuo", "826": "reg", "827": "but", "828": "lon", "829": "bru", "830": "veg", "831": "den", "832": "zia", "833": "cro", "834": "tea", "835": "bur", "836": "fac", "837": "fun", "838": "rin", "839": "ces", "840": "dus", "841": "pit", "842": "dr\u00e4", "843": "c\u00f3l", "844": "fat", "845": "nuo", "846": "tat", "847": "sas", "848": "ruf", "849": "zur", "850": "las", "851": "lie", "852": "mez", "853": "pel", "854": "til", "855": "bal", "856": "fer", "857": "ruo", "858": "sce", "859": "lup", "860": "tle", "861": "sov", "862": "cam", "863": "cru", "864": "ier", "865": "cem", "866": "tis", "867": "vag", "868": "bra", "869": "rab", "870": "gli", "871": "sum", "872": "fle", "873": "smi", "874": "sab", "875": "quo", "876": "bon", "877": "tho", "878": "let", "879": "lec", "880": "dim", "881": "les", "882": "des", "883": "net", "884": "vin", "885": "nef", "886": "ner", "887": "tor", "888": "ger", "889": "o e", "890": "not", "891": "gia", "892": "qui", "893": "scu", "894": "vec", "895": "nec", "896": "dem", "897": "san", "898": "suf", "899": "lea", "900": "len", "901": "piz", "902": "lau", "903": "boz", "904": "dul", "905": "vez", "906": "tas", "907": "sci", "908": "cal", "909": "bun", "910": "cef", "911": "c\u00e9r", "912": "que", "913": "res", "914": "viz", "915": "qua", "916": "sba", "917": "mic", "918": "pas", "919": "muo", "920": "svo", "921": "bio", "922": "rag", "923": "nem", "924": "put", "925": "iar", "926": "ben", "927": "nel", "928": "mem", "929": "tror", "930": "o av", "931": "zi e", "932": "r\u2019 u", "933": "giun", "934": "ge a", "935": "smon", "936": "plau", "937": "ro a", "938": "r\u2019 o", "939": "gnen", "940": "d\u2019 a", "941": "si u", "942": "trot", "943": "cias", "944": "go e", "945": "lo a", "946": "o al", "947": "pruo", "948": "pres", "949": "grap", "950": "biet", "951": "gnem", "952": "vo o", "953": "grez", "954": "sfer", "955": "ce u", "956": "scom", "957": "d\u2019 \u00eb", "958": "l\u2019 \u00f2", "959": "mo a", "960": "scuf", "961": "ni e", "962": "spar", "963": "giac", "964": "gnan", "965": "se a", "966": "pien", "967": "stet", "968": "quan", "969": "gior", "970": "ra i", "971": "scis", "972": "no a", "973": "da o", "974": "stie", "975": "ro e", "976": "blan", "977": "piag", "978": "puol", "979": "ze e", "980": "gnel", "981": "guen", "982": "ca a", "983": "cruc", "984": "da e", "985": "snel", "986": "stop", "987": "flig", "988": "stan", "989": "ciuf", "990": "se e", "991": "d\u2019 i", "992": "chie", "993": "spin", "994": "scia", "995": "gias", "996": "da u", "997": "chez", "998": "m\u2019 e", "999": "sfar", "1000": "pe i", "1001": "sdet", "1002": "prez", "1003": "cher", "1004": "scem", "1005": "se o", "1006": "gnaz", "1007": "ve u", "1008": "ci a", "1009": "l\u2019 o", "1010": "va o", "1011": "stor", "1012": "biac", "1013": "frat", "1014": "ci u", "1015": "bias", "1016": "spon", "1017": "fred", "1018": "gran", "1019": "ca e", "1020": "di o", "1021": "spic", "1022": "bion", "1023": "mian", "1024": "scon", "1025": "bo a", "1026": "ti e", "1027": "la e", "1028": "puos", "1029": "po e", "1030": "dian", "1031": "sden", "1032": "clas", "1033": "s\u00ec i", "1034": "piac", "1035": "trul", "1036": "cion", "1037": "scie", "1038": "scre", "1039": "sbra", "1040": "n\u2019 e", "1041": "pren", "1042": "trec", "1043": "si i", "1044": "scaz", "1045": "c\u2019 o", "1046": "ci o", "1047": "di a", "1048": "sa u", "1049": "greg", "1050": "scab", "1051": "ciom", "1052": "scot", "1053": "de i", "1054": "gras", "1055": "stes", "1056": "stis", "1057": "lo o", "1058": "flet", "1059": "stem", "1060": "sa o", "1061": "mo o", "1062": "gher", "1063": "scic", "1064": "guit", "1065": "li a", "1066": "pros", "1067": "cras", "1068": "ca u", "1069": "bian", "1070": "brol", "1071": "tron", "1072": "re i", "1073": "drit", "1074": "ta e", "1075": "scan", "1076": "stol", "1077": "l\u2019 e", "1078": "bo e", "1079": "co u", "1080": "glia", "1081": "prie", "1082": "a ac", "1083": "brie", "1084": "fior", "1085": "lo u", "1086": "d\u2019 o", "1087": "guaz", "1088": "ghie", "1089": "buon", "1090": "spol", "1091": "vuol", "1092": "trac", "1093": "giug", "1094": "le u", "1095": "ples", "1096": "spro", "1097": "a in", "1098": "ra e", "1099": "ve a", "1100": "ri e", "1101": "t\u2019 u", "1102": "giar", "1103": "ghia", "1104": "guir", "1105": "fioc", "1106": "qual", "1107": "ne e", "1108": "trag", "1109": "me e", "1110": "s\u2019 u", "1111": "e in", "1112": "a am", "1113": "glio", "1114": "chet", "1115": "quin", "1116": "va i", "1117": "trar", "1118": "de u", "1119": "driz", "1120": "na i", "1121": "glau", "1122": "dier", "1123": "di e", "1124": "cioc", "1125": "scar", "1126": "spuo", "1127": "si o", "1128": "grop", "1129": "be a", "1130": "te i", "1131": "trom", "1132": "bran", "1133": "la o", "1134": "spaz", "1135": "dram", "1136": "ze o", "1137": "grem", "1138": "pris", "1139": "ci e", "1140": "zi o", "1141": "gien", "1142": "de a", "1143": "stec", "1144": "pi i", "1145": "le e", "1146": "za o", "1147": "giuo", "1148": "scet", "1149": "stiz", "1150": "\u2018glo", "1151": "le i", "1152": "ciul", "1153": "sfam", "1154": "gi e", "1155": "la a", "1156": "trap", "1157": "s\u00ec a", "1158": "sfre", "1159": "glet", "1160": "to a", "1161": "quel", "1162": "re u", "1163": "bo i", "1164": "prin", "1165": "stas", "1166": "z\u2019 i", "1167": "no o", "1168": "zo a", "1169": "gnas", "1170": "no e", "1171": "sfan", "1172": "de o", "1173": "ghil", "1174": "scri", "1175": "s\u2019 e", "1176": "mo u", "1177": "li o", "1178": "sgri", "1179": "nian", "1180": "mo i", "1181": "co a", "1182": "giam", "1183": "spen", "1184": "do o", "1185": "creb", "1186": "sciu", "1187": "ghir", "1188": "ma o", "1189": "pa e", "1190": "trop", "1191": "me i", "1192": "gnon", "1193": "spre", "1194": "spec", "1195": "scim", "1196": "cian", "1197": "fian", "1198": "sbar", "1199": "gres", "1200": "tret", "1201": "ni o", "1202": "na e", "1203": "squa", "1204": "smoz", "1205": "guar", "1206": "trat", "1207": "spia", "1208": "scac", "1209": "plan", "1210": "v\u2019 a", "1211": "ciel", "1212": "t\u2019 e", "1213": "gheg", "1214": "scir", "1215": "bris", "1216": "s\u2019 o", "1217": "spir", "1218": "sfio", "1219": "s\u2019 a", "1220": "po u", "1221": "mo e", "1222": "be o", "1223": "ghel", "1224": "tren", "1225": "stru", "1226": "ciac", "1227": "smen", "1228": "smar", "1229": "scol", "1230": "di i", "1231": "tiem", "1232": "tien", "1233": "broc", "1234": "so a", "1235": "quar", "1236": "stuc", "1237": "tier", "1238": "ro u", "1239": "sfat", "1240": "sten", "1241": "piat", "1242": "do e", "1243": "ga e", "1244": "stav", "1245": "ghet", "1246": "crol", "1247": "\u00e8 in", "1248": "da a", "1249": "chiu", "1250": "na o", "1251": "a es", "1252": "sfin", "1253": "be i", "1254": "d\u2019 e", "1255": "grie", "1256": "p\u2019 e", "1257": "ghio", "1258": "pran", "1259": "gi u", "1260": "stam", "1261": "po a", "1262": "dien", "1263": "pric", "1264": "pian", "1265": "spel", "1266": "ta o", "1267": "spes", "1268": "ta i", "1269": "fiot", "1270": "ta a", "1271": "s\u2019 \u00ef", "1272": "dras", "1273": "spez", "1274": "guiz", "1275": "ne a", "1276": "la u", "1277": "bi a", "1278": "span", "1279": "sman", "1280": "brot", "1281": "so o", "1282": "sgor", "1283": "te a", "1284": "gron", "1285": "brul", "1286": "re a", "1287": "fret", "1288": "n\u2019 u", "1289": "guag", "1290": "scov", "1291": "ra a", "1292": "str\u00e0", "1293": "sver", "1294": "mi e", "1295": "slac", "1296": "scoc", "1297": "ni a", "1298": "guic", "1299": "tran", "1300": "t\u2019 a", "1301": "\u00e8 im", "1302": "m\u2019 o", "1303": "co e", "1304": "t\u2019 o", "1305": "ra o", "1306": "frut", "1307": "sbri", "1308": "quat", "1309": "bren", "1310": "flit", "1311": "fles", "1312": "piog", "1313": "gram", "1314": "do i", "1315": "sgra", "1316": "scos", "1317": "to u", "1318": "scel", "1319": "ge o", "1320": "ciap", "1321": "l\u2019 u", "1322": "star", "1323": "ri u", "1324": "n\u2019 a", "1325": "ro i", "1326": "be u", "1327": "brac", "1328": "guef", "1329": "ne u", "1330": "zi u", "1331": "ce a", "1332": "na a", "1333": "chia", "1334": "ghes", "1335": "ciuo", "1336": "ma u", "1337": "so i", "1338": "bron", "1339": "squi", "1340": "pi a", "1341": "piez", "1342": "no u", "1343": "la i", "1344": "za a", "1345": "gner", "1346": "trie", "1347": "so e", "1348": "tras", "1349": "l\u2019 a", "1350": "lo e", "1351": "mi u", "1352": "spun", "1353": "vi e", "1354": "re o", "1355": "l\u2019 i", "1356": "ti i", "1357": "spie", "1358": "sa a", "1359": "vi o", "1360": "smal", "1361": "s\u2019 i", "1362": "quen", "1363": "guan", "1364": "sgom", "1365": "puom", "1366": "ciot", "1367": "va e", "1368": "li e", "1369": "quis", "1370": "scal", "1371": "pi e", "1372": "scor", "1373": "grot", "1374": "sper", "1375": "co o", "1376": "svel", "1377": "c\u2019 e", "1378": "gial", "1379": "to i", "1380": "go a", "1381": "scuo", "1382": "z\u2019 a", "1383": "guel", "1384": "chio", "1385": "zian", "1386": "v\u2019 e", "1387": "mi o", "1388": "g\u2019 \u00ef", "1389": "c\u2019 \u00ef", "1390": "d\u2019 u", "1391": "gual", "1392": "stro", "1393": "sgan", "1394": "ta u", "1395": "di u", "1396": "fran", "1397": "zo e", "1398": "ve i", "1399": "ma a", "1400": "do u", "1401": "do a", "1402": "guet", "1403": "a al", "1404": "scam", "1405": "ti o", "1406": "vi a", "1407": "guer", "1408": "m\u2019 a", "1409": "r\u00ec u", "1410": "n\u2019 o", "1411": "piom", "1412": "clis", "1413": "treb", "1414": "po o", "1415": "stre", "1416": "sfac", "1417": "ro o", "1418": "liev", "1419": "brut", "1420": "gian", "1421": "ma e", "1422": "to o", "1423": "stin", "1424": "grat", "1425": "brug", "1426": "troc", "1427": "sber", "1428": "te u", "1429": "gros", "1430": "giot", "1431": "schi", "1432": "le o", "1433": "quer", "1434": "za i", "1435": "v\u2019 o", "1436": "na u", "1437": "de e", "1438": "dran", "1439": "proc", "1440": "me u", "1441": "spit", "1442": "grep", "1443": "truo", "1444": "sneb", "1445": "sche", "1446": "e \u2019n", "1447": "sban", "1448": "clau", "1449": "crea", "1450": "fiam", "1451": "to e", "1452": "brez", "1453": "gnuo", "1454": "gnar", "1455": "li u", "1456": "te o", "1457": "stra", "1458": "ne o", "1459": "te e", "1460": "re e", "1461": "si e", "1462": "scer", "1463": "scen", "1464": "glie", "1465": "piov", "1466": "chis", "1467": "smor", "1468": "a ef", "1469": "se u", "1470": "no i", "1471": "ziar", "1472": "cheg", "1473": "pe e", "1474": "gnor", "1475": "chil", "1476": "gnie", "1477": "spal", "1478": "sfor", "1479": "ti u", "1480": "cien", "1481": "graf", "1482": "scop", "1483": "ti a", "1484": "guil", "1485": "stia", "1486": "ca o", "1487": "scin", "1488": "d\u2019 \u00ef", "1489": "grom", "1490": "se i", "1491": "stig", "1492": "z\u2019 o", "1493": "me a", "1494": "ni u", "1495": "prir", "1496": "pron", "1497": "ghez", "1498": "stal", "1499": "fiac", "1500": "stri", "1501": "scro", "1502": "l\u00ec e", "1503": "fron", "1504": "scio", "1505": "sven", "1506": "tram", "1507": "m\u2019 i", "1508": "spet", "1509": "ciar", "1510": "li \u2019", "1511": "ga o", "1512": "stel", "1513": "stuo", "1514": "vien", "1515": "si a", "1516": "quil", "1517": "ster", "1518": "ie a", "1519": "spor", "1520": "so u", "1521": "o ar", "1522": "drap", "1523": "viem", "1524": "le a", "1525": "me o", "1526": "stil", "1527": "stio", "1528": "ce o", "1529": "va u", "1530": "ra u", "1531": "stul", "1532": "mo im", "1533": "te is", "1534": "de am", "1535": "che u", "1536": "sa es", "1537": "n\u2019 an", "1538": "no im", "1539": "la or", "1540": "t\u00e0 in", "1541": "ne ar", "1542": "l\u2019 et", "1543": "ro or", "1544": "ni am", "1545": "no au", "1546": "ri al", "1547": "to et", "1548": "d\u2019 an", "1549": "ra ap", "1550": "sta u", "1551": "ge et", "1552": "ri an", "1553": "no al", "1554": "li ul", "1555": "tr\u2019 e", "1556": "l\u2019 ol", "1557": "s\u00ec \u2019n", "1558": "ma in", "1559": "to oc", "1560": "ro ab", "1561": "sa in", "1562": "ta in", "1563": "ra eb", "1564": "ti im", "1565": "ro as", "1566": "s\u2019 an", "1567": "ve es", "1568": "to av", "1569": "ro ac", "1570": "sguar", "1571": "me ap", "1572": "te om", "1573": "ste i", "1574": "che a", "1575": "do er", "1576": "li uo", "1577": "cio e", "1578": "ni an", "1579": "t\u2019 at", "1580": "ta es", "1581": "ghiac", "1582": "t\u2019 ab", "1583": "no et", "1584": "ch\u2019 e", "1585": "d\u2019 et", "1586": "sta i", "1587": "l\u2019 er", "1588": "ti al", "1589": "ve oc", "1590": "mo at", "1591": "dre e", "1592": "mi in", "1593": "ti \u2019m", "1594": "do am", "1595": "so ar", "1596": "chi o", "1597": "le uc", "1598": "v\u2019 an", "1599": "d\u2019 es", "1600": "di al", "1601": "zo an", "1602": "re am", "1603": "che e", "1604": "s\u2019 em", "1605": "ge an", "1606": "di of", "1607": "n\u2019 ar", "1608": "sciam", "1609": "l\u2019 an", "1610": "d\u2019 os", "1611": "vi an", "1612": "to uc", "1613": "ro im", "1614": "te im", "1615": "d\u2019 al", "1616": "te os", "1617": "sa an", "1618": "le es", "1619": "va in", "1620": "tr\u2019 a", "1621": "de in", "1622": "chi u", "1623": "spran", "1624": "ta et", "1625": "za \u2019n", "1626": "gno u", "1627": "si ad", "1628": "re ab", "1629": "ch\u2019 o", "1630": "va eb", "1631": "re oc", "1632": "lo av", "1633": "stroz", "1634": "li in", "1635": "zi al", "1636": "ce eu", "1637": "pi in", "1638": "t\u2019 el", "1639": "l\u2019 uc", "1640": "l\u2019 es", "1641": "so at", "1642": "ti et", "1643": "ta op", "1644": "re at", "1645": "so \u2019n", "1646": "pr\u2019 e", "1647": "chi a", "1648": "sa ac", "1649": "v\u2019 el", "1650": "no an", "1651": "be al", "1652": "tro i", "1653": "z\u2019 al", "1654": "pi or", "1655": "v\u2019 al", "1656": "stram", "1657": "cro a", "1658": "tu ha", "1659": "va im", "1660": "li et", "1661": "t\u2019 ar", "1662": "s\u2019 ar", "1663": "pie e", "1664": "ra es", "1665": "ghian", "1666": "schic", "1667": "me am", "1668": "ne in", "1669": "va id", "1670": "po ar", "1671": "rio a", "1672": "mo ol", "1673": "schiu", "1674": "qua e", "1675": "le on", "1676": "stret", "1677": "fu el", "1678": "ve at", "1679": "vi \u2019m", "1680": "ro es", "1681": "ni on", "1682": "sciol", "1683": "n\u2019 ab", "1684": "di es", "1685": "re im", "1686": "l\u2019 at", "1687": "se on", "1688": "to af", "1689": "lo im", "1690": "spres", "1691": "li ap", "1692": "so as", "1693": "d\u2019 ab", "1694": "se op", "1695": "ne ov", "1696": "d\u2019 oc", "1697": "glian", "1698": "co an", "1699": "sto e", "1700": "re al", "1701": "stras", "1702": "me an", "1703": "ro in", "1704": "ti am", "1705": "n\u2019 ac", "1706": "na \u2019n", "1707": "te or", "1708": "pi ap", "1709": "le \u2019n", "1710": "vi on", "1711": "de al", "1712": "to of", "1713": "schet", "1714": "po an", "1715": "te ol", "1716": "m\u2019 ac", "1717": "so es", "1718": "splen", "1719": "si or", "1720": "schie", "1721": "lo er", "1722": "tra i", "1723": "s\u2019 et", "1724": "ca an", "1725": "s\u2019 as", "1726": "re au", "1727": "m\u2019 at", "1728": "t\u2019 om", "1729": "sti o", "1730": "tra a", "1731": "ci in", "1732": "ce ac", "1733": "ti or", "1734": "lo eb", "1735": "le or", "1736": "si er", "1737": "v\u2019 eb", "1738": "ce af", "1739": "t\u2019 av", "1740": "za on", "1741": "l\u2019 \u00e0n", "1742": "no ac", "1743": "l\u2019 oc", "1744": "ra et", "1745": "n\u2019 eb", "1746": "di ac", "1747": "ro au", "1748": "ra ot", "1749": "ghiot", "1750": "sciar", "1751": "la es", "1752": "no es", "1753": "s\u2019 ap", "1754": "l\u2019 im", "1755": "li \u2019n", "1756": "te es", "1757": "za an", "1758": "ni es", "1759": "do es", "1760": "co ad", "1761": "li an", "1762": "d\u2019 af", "1763": "ta un", "1764": "me au", "1765": "ni al", "1766": "ro ar", "1767": "li oc", "1768": "m\u2019 es", "1769": "to ol", "1770": "t\u2019 or", "1771": "schia", "1772": "do ac", "1773": "ste a", "1774": "mo ac", "1775": "ti of", "1776": "to ag", "1777": "so al", "1778": "la en", "1779": "to ar", "1780": "mi ap", "1781": "mio a", "1782": "qu\u2019 o", "1783": "mi ad", "1784": "t\u2019 an", "1785": "ti at", "1786": "sta o", "1787": "gliet", "1788": "la of", "1789": "vi of", "1790": "ci an", "1791": "zi ag", "1792": "sa ol", "1793": "no ag", "1794": "li ag", "1795": "za am", "1796": "d\u2019 om", "1797": "na av", "1798": "lo on", "1799": "ta am", "1800": "strom", "1801": "s\u2019 er", "1802": "t\u2019 in", "1803": "l\u2019 en", "1804": "d\u2019 am", "1805": "la in", "1806": "glien", "1807": "sa on", "1808": "mo eb", "1809": "so eb", "1810": "te ar", "1811": "\u2019v\u2019 e", "1812": "d\u2019 on", "1813": "no er", "1814": "cia o", "1815": "le am", "1816": "ra ec", "1817": "bre a", "1818": "do eb", "1819": "so ad", "1820": "tro e", "1821": "ma \u2019n", "1822": "ro eb", "1823": "te at", "1824": "mi am", "1825": "zo ar", "1826": "ti ad", "1827": "ti ac", "1828": "ni av", "1829": "be as", "1830": "ra an", "1831": "re eb", "1832": "d\u2019 ap", "1833": "de eu", "1834": "co er", "1835": "n\u2019 ag", "1836": "si og", "1837": "re af", "1838": "le al", "1839": "va al", "1840": "tro u", "1841": "fa az", "1842": "di om", "1843": "ti in", "1844": "n\u2019 am", "1845": "ti av", "1846": "ra in", "1847": "s\u2019 ac", "1848": "sci\u00e0n", "1849": "ga in", "1850": "li as", "1851": "m\u2019 ad", "1852": "st\u2019 u", "1853": "za im", "1854": "schio", "1855": "do ap", "1856": "so of", "1857": "stric", "1858": "l\u2019 in", "1859": "ni in", "1860": "l\u2019 al", "1861": "cio a", "1862": "le \u2019m", "1863": "ne av", "1864": "ha \u2019n", "1865": "chiet", "1866": "cia e", "1867": "t\u2019 em", "1868": "no ec", "1869": "di im", "1870": "lo an", "1871": "no ap", "1872": "to at", "1873": "do ol", "1874": "di ol", "1875": "ca en", "1876": "m\u2019 al", "1877": "mo an", "1878": "li om", "1879": "zia e", "1880": "tro o", "1881": "te en", "1882": "ve an", "1883": "t\u2019 al", "1884": "te \u2019n", "1885": "n\u2019 on", "1886": "mi al", "1887": "re ar", "1888": "ci as", "1889": "li ab", "1890": "ci ar", "1891": "ce on", "1892": "scias", "1893": "re ap", "1894": "co at", "1895": "chian", "1896": "be on", "1897": "mi er", "1898": "m\u2019 af", "1899": "d\u2019 az", "1900": "ci or", "1901": "scrit", "1902": "no ad", "1903": "go es", "1904": "ne as", "1905": "d\u2019 at", "1906": "z\u2019 es", "1907": "sto a", "1908": "de an", "1909": "bra a", "1910": "za al", "1911": "te al", "1912": "dio i", "1913": "d\u2019 er", "1914": "vo an", "1915": "li ac", "1916": "di in", "1917": "m\u2019 eb", "1918": "do im", "1919": "lo es", "1920": "ca er", "1921": "ga as", "1922": "me of", "1923": "s\u2019 ab", "1924": "tri o", "1925": "strut", "1926": "to ap", "1927": "ta an", "1928": "ne ap", "1929": "lo of", "1930": "le of", "1931": "do on", "1932": "scheg", "1933": "r\u2019 al", "1934": "te on", "1935": "ta of", "1936": "no or", "1937": "d\u2019 en", "1938": "l\u2019 af", "1939": "la ap", "1940": "ta ad", "1941": "te em", "1942": "ia al", "1943": "re es", "1944": "le as", "1945": "ze et", "1946": "co al", "1947": "re ol", "1948": "l\u2019 as", "1949": "sgiun", "1950": "lo as", "1951": "t\u2019 es", "1952": "si el", "1953": "me ar", "1954": "ve ar", "1955": "re ag", "1956": "squar", "1957": "l\u2019 ef", "1958": "pa in", "1959": "ci ap", "1960": "ra al", "1961": "lo in", "1962": "t\u2019 am", "1963": "ra ac", "1964": "gne a", "1965": "s\u2019 ad", "1966": "va at", "1967": "l\u2019 un", "1968": "bra u", "1969": "to ab", "1970": "ra as", "1971": "ce at", "1972": "d\u2019 ar", "1973": "mo in", "1974": "go in", "1975": "di az", "1976": "na in", "1977": "se an", "1978": "stroc", "1979": "mo ar", "1980": "l\u2019 ab", "1981": "ce ar", "1982": "li un", "1983": "l\u2019 ad", "1984": "ti oc", "1985": "t\u2019 as", "1986": "za er", "1987": "se as", "1988": "no in", "1989": "t\u2019 ag", "1990": "scian", "1991": "to ov", "1992": "m\u2019 om", "1993": "si ol", "1994": "te ad", "1995": "so on", "1996": "ro am", "1997": "vi al", "1998": "glies", "1999": "ta as", "2000": "me in", "2001": "mi \u2019n", "2002": "hi om", "2003": "vo ac", "2004": "ca on", "2005": "ne ag", "2006": "le oc", "2007": "to on", "2008": "ri ar", "2009": "te ag", "2010": "so an", "2011": "ro al", "2012": "m\u2019 ap", "2013": "scial", "2014": "t\u2019 ac", "2015": "zie o", "2016": "re av", "2017": "z\u2019 ar", "2018": "pre a", "2019": "so in", "2020": "ro an", "2021": "ne al", "2022": "ta al", "2023": "gliar", "2024": "se ap", "2025": "d\u2019 or", "2026": "ch\u2019 u", "2027": "mo of", "2028": "cea u", "2029": "no om", "2030": "to ac", "2031": "tri a", "2032": "c\u2019 im", "2033": "si am", "2034": "s\u2019 es", "2035": "de af", "2036": "ci ad", "2037": "zi \u2019m", "2038": "strug", "2039": "ce et", "2040": "mo ec", "2041": "s\u2019 en", "2042": "ce as", "2043": "re en", "2044": "s\u2019 of", "2045": "no \u2019n", "2046": "ne em", "2047": "l\u2019 ag", "2048": "strar", "2049": "n\u2019 al", "2050": "li ad", "2051": "ta ab", "2052": "n\u2019 er", "2053": "li em", "2054": "ta ar", "2055": "ze or", "2056": "mo al", "2057": "re ac", "2058": "mo es", "2059": "ra im", "2060": "v\u2019 es", "2061": "l\u2019 av", "2062": "l\u2019 op", "2063": "so ap", "2064": "m\u2019 in", "2065": "l\u2019 ec", "2066": "gni e", "2067": "s\u2019 op", "2068": "l\u2019 om", "2069": "sfran", "2070": "ro av", "2071": "so ab", "2072": "bo av", "2073": "s\u2019 in", "2074": "vo au", "2075": "schem", "2076": "s\u2019 av", "2077": "va an", "2078": "zio e", "2079": "do at", "2080": "vi in", "2081": "de au", "2082": "re on", "2083": "gne o", "2084": "li av", "2085": "l\u2019 au", "2086": "sa im", "2087": "l\u2019 um", "2088": "ce al", "2089": "ta on", "2090": "ro of", "2091": "squil", "2092": "de ar", "2093": "l\u2019 on", "2094": "s\u2019 ag", "2095": "ve ap", "2096": "sgrie", "2097": "co av", "2098": "re et", "2099": "v\u2019 of", "2100": "ro oc", "2101": "no ab", "2102": "ghien", "2103": "l\u2019 ov", "2104": "si av", "2105": "ri ac", "2106": "ge in", "2107": "scris", "2108": "mo on", "2109": "re ad", "2110": "fu in", "2111": "m\u2019 ar", "2112": "co ac", "2113": "v\u2019 ac", "2114": "zo in", "2115": "bi al", "2116": "le in", "2117": "d\u2019 og", "2118": "ta ac", "2119": "sto o", "2120": "r\u2019 an", "2121": "se ac", "2122": "t\u2019 ap", "2123": "le ad", "2124": "m\u2019 im", "2125": "re as", "2126": "ne im", "2127": "de or", "2128": "se af", "2129": "st\u2019 a", "2130": "po in", "2131": "sa ap", "2132": "ri in", "2133": "d\u2019 eu", "2134": "fe et", "2135": "le at", "2136": "go al", "2137": "lo ar", "2138": "sa og", "2139": "de on", "2140": "gna a", "2141": "di on", "2142": "sco u", "2143": "r\u2019 es", "2144": "l\u2019 ap", "2145": "re in", "2146": "sciut", "2147": "sbe a", "2148": "ce im", "2149": "po on", "2150": "d\u2019 im", "2151": "stran", "2152": "ma es", "2153": "v\u2019 ap", "2154": "li au", "2155": "ti an", "2156": "stren", "2157": "v\u2019 ab", "2158": "d\u2019 au", "2159": "vi ac", "2160": "que o", "2161": "se in", "2162": "gia e", "2163": "ne an", "2164": "v\u2019 am", "2165": "si ar", "2166": "s\u00ec \u2019m", "2167": "ta at", "2168": "si im", "2169": "d\u2019 ac", "2170": "ta eu", "2171": "lia a", "2172": "m\u2019 av", "2173": "chiar", "2174": "do or", "2175": "na on", "2176": "ne \u2019n", "2177": "do af", "2178": "na of", "2179": "ra ad", "2180": "m\u2019 ag", "2181": "no av", "2182": "l\u2019 os", "2183": "gliel", "2184": "mi ac", "2185": "vi en", "2186": "si in", "2187": "ma ap", "2188": "co ar", "2189": "le ap", "2190": "ro um", "2191": "zi at", "2192": "ra am", "2193": "di av", "2194": "na ap", "2195": "lo \u2019n", "2196": "st\u2019 o", "2197": "si at", "2198": "ge un", "2199": "ch\u2019 i", "2200": "mo af", "2201": "sta e", "2202": "te of", "2203": "pa es", "2204": "za et", "2205": "m\u2019 an", "2206": "se al", "2207": "do al", "2208": "li eb", "2209": "le av", "2210": "t\u2019 af", "2211": "de om", "2212": "re il", "2213": "re ot", "2214": "ci at", "2215": "l\u2019 or", "2216": "zo as", "2217": "vo as", "2218": "to es", "2219": "bre o", "2220": "spraz", "2221": "ce au", "2222": "gno a", "2223": "gi an", "2224": "to ad", "2225": "cia a", "2226": "ro ap", "2227": "n\u2019 au", "2228": "la \u2019m", "2229": "lo \u2019m", "2230": "si of", "2231": "ch\u2019 \u00ef", "2232": "be ar", "2233": "n\u2019 at", "2234": "li es", "2235": "to an", "2236": "tra e", "2237": "zio u", "2238": "l\u2019 ae", "2239": "l\u2019 el", "2240": "se at", "2241": "do in", "2242": "dea u", "2243": "sti a", "2244": "l\u2019 uo", "2245": "to al", "2246": "strat", "2247": "l\u2019 of", "2248": "do el", "2249": "li uc", "2250": "si en", "2251": "ne \u2019m", "2252": "li or", "2253": "t\u2019 im", "2254": "l\u2019 em", "2255": "di af", "2256": "si ac", "2257": "ci \u2019n", "2258": "li on", "2259": "n\u2019 om", "2260": "ti ar", "2261": "ti en", "2262": "vi ar", "2263": "bo al", "2264": "l\u2019 ai", "2265": "ve al", "2266": "s\u2019 af", "2267": "de ag", "2268": "di ab", "2269": "mi an", "2270": "la ol", "2271": "ta im", "2272": "ne af", "2273": "c\u2019 en", "2274": "ne es", "2275": "re om", "2276": "la el", "2277": "ma ac", "2278": "tro a", "2279": "d\u2019 el", "2280": "sco o", "2281": "li im", "2282": "chias", "2283": "streg", "2284": "s\u2019 al", "2285": "fo et", "2286": "di an", "2287": "te au", "2288": "d\u2019 ur", "2289": "no as", "2290": "si an", "2291": "io al", "2292": "scran", "2293": "ra el", "2294": "to as", "2295": "li ar", "2296": "gne u", "2297": "no af", "2298": "d\u2019 in", "2299": "suo a", "2300": "si al", "2301": "d\u2019 ol", "2302": "va \u2019n", "2303": "me ef", "2304": "strin", "2305": "to im", "2306": "ra of", "2307": "po al", "2308": "de er", "2309": "li of", "2310": "na af", "2311": "to ef", "2312": "fu im", "2313": "ne ac", "2314": "te er", "2315": "li al", "2316": "d\u2019 eb", "2317": "vo at", "2318": "do oc", "2319": "s\u2019 eb", "2320": "de of", "2321": "li am", "2322": "li er", "2323": "ra av", "2324": "ma or", "2325": "ma of", "2326": "te af", "2327": "la av", "2328": "zio a", "2329": "lo al", "2330": "za in", "2331": "lo ac", "2332": "do an", "2333": "ma an", "2334": "s\u2019 am", "2335": "spiac", "2336": "zia o", "2337": "n\u2019 ap", "2338": "l\u2019 am", "2339": "so et", "2340": "pra a", "2341": "v\u2019 in", "2342": "na es", "2343": "gliam", "2344": "co in", "2345": "no at", "2346": "tri e", "2347": "ni as", "2348": "ro at", "2349": "so am", "2350": "co ap", "2351": "de \u2019n", "2352": "l\u00ec en", "2353": "te ac", "2354": "na ar", "2355": "ci af", "2356": "ri ap", "2357": "s\u2019 im", "2358": "to or", "2359": "li at", "2360": "po av", "2361": "v\u2019 et", "2362": "ta el", "2363": "na ac", "2364": "do as", "2365": "ce in", "2366": "te ab", "2367": "pre e", "2368": "me at", "2369": "chiap", "2370": "vi av", "2371": "la \u2019n", "2372": "ne et", "2373": "ne on", "2374": "se \u2019n", "2375": "to ec", "2376": "te an", "2377": "ro on", "2378": "la al", "2379": "re an", "2380": "la on", "2381": "so en", "2382": "le an", "2383": "l\u2019 ot", "2384": "na ab", "2385": "si as", "2386": "gi ar", "2387": "d\u2019 ot", "2388": "lo af", "2389": "te as", "2390": "v\u2019 ar", "2391": "be av", "2392": "m\u2019 ab", "2393": "le ar", "2394": "s\u2019 os", "2395": "sce a", "2396": "co eb", "2397": "ti \u2019n", "2398": "s\u2019 el", "2399": "se un", "2400": "l\u2019 ac", "2401": "bo on", "2402": "la au", "2403": "di og", "2404": "ra uc", "2405": "chioc", "2406": "gliuo", "2407": "to in", "2408": "no ar", "2409": "co et", "2410": "tra u", "2411": "do ar", "2412": "ce av", "2413": "ni ap", "2414": "ce es", "2415": "lo il", "2416": "s\u00ec in", "2417": "v\u2019 er", "2418": "l\u2019 ul", "2419": "strac", "2420": "sciau", "2421": "te ap", "2422": "ri on", "2423": "ci al", "2424": "d\u2019 of", "2425": "lo at", "2426": "s\u2019 at", "2427": "gia o", "2428": "no am", "2429": "ra on", "2430": "scrip", "2431": "m\u2019 as", "2432": "ma on", "2433": "ca in", "2434": "si \u2019m", "2435": "si \u2019n", "2436": "na eb", "2437": "li af", "2438": "co on", "2439": "de as", "2440": "le ol", "2441": "to eb", "2442": "ze es", "2443": "di ad", "2444": "n\u2019 in", "2445": "chi e", "2446": "se es", "2447": "ch\u2019 a", "2448": "n\u2019 uo", "2449": "me al", "2450": "te in", "2451": "ba un", "2452": "ni en", "2453": "ma al", "2454": "scioc", "2455": "gli u", "2456": "me ac", "2457": "li \u2019m", "2458": "l\u2019 ar", "2459": "scher", "2460": "ti as", "2461": "va ar", "2462": "l\u2019 eb", "2463": "sta a", "2464": "m\u2019 of", "2465": "ci av", "2466": "sciom", "2467": "me as", "2468": "mo or", "2469": "strel", "2470": "n\u2019 av", "2471": "ci am", "2472": "tri as", "2473": "chi am", "2474": "ch\u2019 ag", "2475": "sti on", "2476": "qua on", "2477": "chi ar", "2478": "gne er", "2479": "ch\u2019 al", "2480": "tr\u2019 am", "2481": "gne im", "2482": "zia or", "2483": "gne ac", "2484": "sta al", "2485": "gia ar", "2486": "tra op", "2487": "mia \u2019n", "2488": "glia u", "2489": "sto al", "2490": "ch\u2019 ac", "2491": "tro of", "2492": "sti er", "2493": "tro an", "2494": "tri es", "2495": "ch\u2019 as", "2496": "st\u2019 an", "2497": "tro al", "2498": "chi ac", "2499": "ch\u2019 el", "2500": "chio o", "2501": "bra in", "2502": "sce el", "2503": "gno af", "2504": "t\u2019 han", "2505": "che \u2019m", "2506": "d\u2019 han", "2507": "ch\u2019 er", "2508": "ch\u2019 at", "2509": "cio et", "2510": "ria on", "2511": "tri ap", "2512": "cia ar", "2513": "tro ac", "2514": "sti es", "2515": "stra e", "2516": "glio e", "2517": "l\u2019 han", "2518": "sto at", "2519": "tro av", "2520": "sto of", "2521": "sma in", "2522": "str\u2019 u", "2523": "tra ef", "2524": "tr\u2019 ar", "2525": "pio on", "2526": "go han", "2527": "bre an", "2528": "gno ae", "2529": "gue an", "2530": "tri of", "2531": "tri af", "2532": "chi in", "2533": "pre ac", "2534": "st\u2019 ot", "2535": "st\u2019 al", "2536": "sto on", "2537": "sto an", "2538": "ch\u2019 ad", "2539": "gia al", "2540": "ch\u2019 es", "2541": "sti al", "2542": "tre in", "2543": "sti un", "2544": "stri a", "2545": "cie in", "2546": "sti oc", "2547": "stro e", "2548": "tr\u2019 om", "2549": "nio im", "2550": "bre et", "2551": "gne uo", "2552": "stra i", "2553": "sto ap", "2554": "gna in", "2555": "c\u2019 han", "2556": "ch\u2019 an", "2557": "pi\u00f9 \u2019n", "2558": "sti or", "2559": "ri han", "2560": "cio ap", "2561": "che om", "2562": "mio in", "2563": "cio al", "2564": "zia il", "2565": "gue or", "2566": "stro u", "2567": "ch\u2019 et", "2568": "glia a", "2569": "st\u2019 ac", "2570": "gno al", "2571": "gni an", "2572": "lio an", "2573": "ch\u2019 eb", "2574": "ria in", "2575": "glia o", "2576": "sti an", "2577": "tro ar", "2578": "tro on", "2579": "tre os", "2580": "dre an", "2581": "bia an", "2582": "tr\u2019 al", "2583": "n\u2019 han", "2584": "mio \u2019n", "2585": "dre eb", "2586": "vea \u2019m", "2587": "stra a", "2588": "tro as", "2589": "sce al", "2590": "chio a", "2591": "sce as", "2592": "bri ap", "2593": "sti in", "2594": "tri in", "2595": "bia in", "2596": "pre es", "2597": "pre ar", "2598": "ria of", "2599": "qua of", "2600": "vio in", "2601": "ste in", "2602": "sto \u2019m", "2603": "chi an", "2604": "sto es", "2605": "te han", "2606": "tro et", "2607": "bre in", "2608": "che ha", "2609": "gne in", "2610": "stri o", "2611": "gne al", "2612": "stra u", "2613": "chi on", "2614": "ch\u2019 og", "2615": "schiet", "2616": "ne han", "2617": "ch\u2019 av", "2618": "tro ab", "2619": "gno am", "2620": "pie or", "2621": "dia as", "2622": "pre at", "2623": "che an", "2624": "sti el", "2625": "li han", "2626": "sto ac", "2627": "glio o", "2628": "zia on", "2629": "st\u2019 es", "2630": "sto in", "2631": "co e i", "2632": "qua im", "2633": "st\u2019 in", "2634": "sta ol", "2635": "sta im", "2636": "cia on", "2637": "st\u2019 of", "2638": "gue on", "2639": "sco an", "2640": "tro \u2019m", "2641": "dre as", "2642": "tre an", "2643": "pr\u2019 ar", "2644": "ch\u2019 en", "2645": "ch\u2019 in", "2646": "chi al", "2647": "que es", "2648": "gio on", "2649": "sta in", "2650": "st\u2019 ar", "2651": "che in", "2652": "schian", "2653": "tra av", "2654": "ti han", "2655": "lio in", "2656": "sto ar", "2657": "ch\u2019 ap", "2658": "dre al", "2659": "che \u2019n", "2660": "qua in", "2661": "rio an", "2662": "gne ef", "2663": "sta an", "2664": "stro a", "2665": "ch\u2019 ab", "2666": "lio as", "2667": "que al", "2668": "ch\u2019 or", "2669": "cio as", "2670": "scia e", "2671": "m\u2019 han", "2672": "schiat", "2673": "sco al", "2674": "zie ec", "2675": "sti av", "2676": "ste an", "2677": "gio uc", "2678": "ghe on", "2679": "sce an", "2680": "sto im", "2681": "lia an", "2682": "gio in", "2683": "gh\u2019 es", "2684": "gia in", "2685": "cia im", "2686": "tro ap", "2687": "pre in", "2688": "che ar", "2689": "pre al", "2690": "gno in", "2691": "pi\u00f9 in", "2692": "stro o", "2693": "sta og", "2694": "chio u", "2695": "chi ap", "2696": "glio u", "2697": "dre es", "2698": "st\u2019 ul", "2699": "tra an", "2700": "sto \u2019n", "2701": "ch\u2019 am", "2702": "ch\u2019 ar", "2703": "tro in", "2704": "glio an", "2705": "stro av", "2706": "stro es", "2707": "n\u2019 \u00e8 im", "2708": "stri av", "2709": "chio in", "2710": "lo e \u2019n", "2711": "glia as", "2712": "stro im", "2713": "glia in", "2714": "re a \u2019n", "2715": "sche ab", "2716": "glio es", "2717": "scia an", "2718": "stro eb", "2719": "si e \u2019n", "2720": "str\u2019 ar", "2721": "glio in", "2722": "stra ap", "2723": "ti e \u2019n", "2724": "glio as", "2725": "glie al", "2726": "stri al", "2727": "dio han", "2728": "chia of", "2729": "stro al", "2730": "trio al", "2731": "chio an", "2732": "stri ef", "2733": "str\u2019 or", "2734": "chio at", "2735": "stro ac", "2736": "stri af", "2737": "glie eb", "2738": "stro as", "2739": "stra ef", "2740": "chie et", "2741": "stro in", "2742": "stri an", "2743": "glia es", "2744": "glia al", "2745": "chia an", "2746": "glie an", "2747": "glia ac", "2748": "stro oc", "2749": "stre in", "2750": "li \u00e8 in", "2751": "d\u2019 i\u2019 a", "2752": "stro an", "2753": "sche er", "2754": "stra in", "2755": "glio on", "2756": "sti a \u2019n", "2757": "t\u2019 ho in", "2758": "ch\u2019 e\u2019 \u2019n", "2759": "ch\u2019 io \u2019n", "2760": "\u00f9 ", "2761": "i ", "2762": "s ", "2763": "e ", "2764": "\u00f2 ", "2765": "a ", "2766": "\u00e8 ", "2767": "\u00ef ", "2768": "o ", "2769": "ra ", "2770": "or ", "2771": "c\u00e9 ", "2772": "bo ", "2773": "m\u00e8 ", "2774": "le ", "2775": "be ", "2776": "te ", "2777": "d\u00f2 ", "2778": "r\u00f2 ", "2779": "ei ", "2780": "l\u00e8 ", "2781": "om ", "2782": "pa ", "2783": "u\u2019 ", "2784": "g\u00f2 ", "2785": "s\u00f9 ", "2786": "f\u00f2 ", "2787": "po ", "2788": "p\u00e8 ", "2789": "si ", "2790": "b\u00e8 ", "2791": "pi ", "2792": "ne ", "2793": "an ", "2794": "do ", "2795": "ba ", "2796": "s\u00e8 ", "2797": "ca ", "2798": "os ", "2799": "ed ", "2800": "pe ", "2801": "ar ", "2802": "ae ", "2803": "r\u00ec ", "2804": "\u00e8l ", "2805": "ir ", "2806": "io ", "2807": "t\u00ec ", "2808": "\u00e0r ", "2809": "z\u00f2 ", "2810": "t\u00e9 ", "2811": "v\u00ec ", "2812": "m\u00f2 ", "2813": "on ", "2814": "d\u00e0 ", "2815": "zo ", "2816": "di ", "2817": "p\u00f2 ", "2818": "la ", "2819": "se ", "2820": "fa ", "2821": "s\u00ec ", "2822": "de ", "2823": "g\u00ec ", "2824": "to ", "2825": "so ", "2826": "t\u00f9 ", "2827": "t\u00e0 ", "2828": "oh ", "2829": "et ", "2830": "al ", "2831": "us ", "2832": "zi ", "2833": "fo ", "2834": "gi ", "2835": "ma ", "2836": "ho ", "2837": "da ", "2838": "\u00f2s ", "2839": "ve ", "2840": "t\u00f2 ", "2841": "ri ", "2842": "li ", "2843": "d\u00ec ", "2844": "ie ", "2845": "ai ", "2846": "bi ", "2847": "\u00e0m ", "2848": "fe ", "2849": "b\u00f2 ", "2850": "\u00f9l ", "2851": "od ", "2852": "n\u00e8 ", "2853": "ge ", "2854": "vo ", "2855": "go ", "2856": "c\u00f2 ", "2857": "me ", "2858": "fu ", "2859": "ti ", "2860": "ha ", "2861": "e\u2019 ", "2862": "ab ", "2863": "in ", "2864": "ga ", "2865": "su ", "2866": "f\u00e9 ", "2867": "ia ", "2868": "n\u00e0 ", "2869": "vi ", "2870": "l\u00f2 ", "2871": "n\u00e9 ", "2872": "s\u00e9 ", "2873": "l\u00e0 ", "2874": "\u00e9n ", "2875": "lo ", "2876": "ut ", "2877": "n\u00f2 ", "2878": "ci ", "2879": "t\u00e8 ", "2880": "as ", "2881": "d\u00e9 ", "2882": "mi ", "2883": "na ", "2884": "un ", "2885": "b\u00f9 ", "2886": "fi ", "2887": "ta ", "2888": "r\u00e0 ", "2889": "za ", "2890": "a\u2019 ", "2891": "f\u00e0 ", "2892": "ro ", "2893": "v\u00f2 ", "2894": "el ", "2895": "ad ", "2896": "\u00f3n ", "2897": "tu ", "2898": "ni ", "2899": "sa ", "2900": "l\u00ec ", "2901": "\u00e0s ", "2902": "co ", "2903": "n\u00ec ", "2904": "re ", "2905": "i\u2019 ", "2906": "va ", "2907": "mo ", "2908": "ze ", "2909": "no ", "2910": "s\u00f2 ", "2911": "il ", "2912": "ce ", "2913": "poi ", "2914": "ma\u2019 ", "2915": "mie ", "2916": "lar ", "2917": "mar ", "2918": "rin ", "2919": "cem ", "2920": "voi ", "2921": "tor ", "2922": "son ", "2923": "smo ", "2924": "sii ", "2925": "fil ", "2926": "c\u00e0n ", "2927": "dri ", "2928": "lee ", "2929": "bar ", "2930": "sa\u2019 ", "2931": "ghe ", "2932": "nol ", "2933": "gis ", "2934": "lon ", "2935": "sal ", "2936": "ter ", "2937": "bri ", "2938": "gno ", "2939": "sis ", "2940": "f\u00f3n ", "2941": "sei ", "2942": "gai ", "2943": "zon ", "2944": "vam ", "2945": "mia ", "2946": "sti ", "2947": "ral ", "2948": "sue ", "2949": "mai ", "2950": "tue ", "2951": "b\u00e0l ", "2952": "sia ", "2953": "gn\u00ec ", "2954": "ier ", "2955": "can ", "2956": "ban ", "2957": "far ", "2958": "vie ", "2959": "teo ", "2960": "der ", "2961": "lio ", "2962": "duo ", "2963": "d\u00e8i ", "2964": "sce ", "2965": "non ", "2966": "tun ", "2967": "tir ", "2968": "til ", "2969": "r\u00f2l ", "2970": "no\u2019 ", "2971": "ean ", "2972": "cal ", "2973": "vio ", "2974": "die ", "2975": "dir ", "2976": "gre ", "2977": "pri ", "2978": "mal ", "2979": "gne ", "2980": "spa ", "2981": "vra ", "2982": "t\u00e9r ", "2983": "neo ", "2984": "car ", "2985": "tea ", "2986": "ian ", "2987": "des ", "2988": "lie ", "2989": "cul ", "2990": "pei ", "2991": "gan ", "2992": "sor ", "2993": "nha ", "2994": "sco ", "2995": "gin ", "2996": "d\u00eca ", "2997": "rio ", "2998": "bis ", "2999": "dea ", "3000": "vem ", "3001": "sar ", "3002": "vea ", "3003": "fu\u2019 ", "3004": "sio ", "3005": "ven ", "3006": "gro ", "3007": "tol ", "3008": "gna ", "3009": "chi ", "3010": "plo ", "3011": "fin ", "3012": "ber ", "3013": "zia ", "3014": "rer ", "3015": "nis ", "3016": "con ", "3017": "sin ", "3018": "cra ", "3019": "tr\u00e0 ", "3020": "gor ", "3021": "tia ", "3022": "cin ", "3023": "cle ", "3024": "tr\u00f2 ", "3025": "dre ", "3026": "lor ", "3027": "dil ", "3028": "t\u00f3n ", "3029": "dur ", "3030": "ton ", "3031": "vol ", "3032": "dem ", "3033": "f\u00e0t ", "3034": "uo\u2019 ", "3035": "st\u00e0 ", "3036": "co\u2019 ", "3037": "bor ", "3038": "bro ", "3039": "cre ", "3040": "mae ", "3041": "gel ", "3042": "var ", "3043": "mas ", "3044": "vas ", "3045": "lea ", "3046": "fai ", "3047": "mon ", "3048": "pea ", "3049": "vai ", "3050": "pan ", "3051": "dei ", "3052": "lei ", "3053": "ion ", "3054": "ben ", "3055": "sen ", "3056": "nal ", "3057": "gi\u2019 ", "3058": "lai ", "3059": "za\u2019 ", "3060": "fei ", "3061": "vin ", "3062": "zie ", "3063": "zan ", "3064": "bil ", "3065": "zai ", "3066": "pon ", "3067": "smi ", "3068": "lan ", "3069": "fui ", "3070": "ri\u2019 ", "3071": "gua ", "3072": "e \u2019 ", "3073": "gia ", "3074": "cel ", "3075": "nai ", "3076": "tra ", "3077": "bir ", "3078": "n\u00e8s ", "3079": "cei ", "3080": "cen ", "3081": "bee ", "3082": "bol ", "3083": "din ", "3084": "te\u2019 ", "3085": "tri ", "3086": "o a ", "3087": "num ", "3088": "cun ", "3089": "ne\u2019 ", "3090": "mio ", "3091": "r\u00ecs ", "3092": "pur ", "3093": "ta\u2019 ", "3094": "\u2019ve ", "3095": "di\u2019 ", "3096": "du\u2019 ", "3097": "sie ", "3098": "n\u00eca ", "3099": "sto ", "3100": "zul ", "3101": "fia ", "3102": "cer ", "3103": "t\u00e0n ", "3104": "pin ", "3105": "ges ", "3106": "pr\u00ec ", "3107": "dro ", "3108": "peo ", "3109": "pro ", "3110": "gu\u00f2 ", "3111": "l\u00eco ", "3112": "dor ", "3113": "lu\u2019 ", "3114": "cri ", "3115": "dan ", "3116": "b\u00eca ", "3117": "l\u00e8m ", "3118": "fur ", "3119": "coi ", "3120": "rie ", "3121": "bel ", "3122": "tan ", "3123": "don ", "3124": "ron ", "3125": "sai ", "3126": "ror ", "3127": "pel ", "3128": "rum ", "3129": "ner ", "3130": "ran ", "3131": "hai ", "3132": "val ", "3133": "gar ", "3134": "pi\u00e8 ", "3135": "gli ", "3136": "pra ", "3137": "rar ", "3138": "cro ", "3139": "tel ", "3140": "par ", "3141": "per ", "3142": "bre ", "3143": "bei ", "3144": "zar ", "3145": "st\u00ec ", "3146": "dra ", "3147": "cu\u2019 ", "3148": "pio ", "3149": "men ", "3150": "bue ", "3151": "gri ", "3152": "da\u2019 ", "3153": "bio ", "3154": "re\u2019 ", "3155": "dee ", "3156": "tis ", "3157": "va\u2019 ", "3158": "fon ", "3159": "r\u00f3n ", "3160": "ten ", "3161": "sua ", "3162": "dal ", "3163": "spe ", "3164": "ram ", "3165": "clo ", "3166": "c\u00f2l ", "3167": "nie ", "3168": "fra ", "3169": "lir ", "3170": "ria ", "3171": "ger ", "3172": "tio ", "3173": "dai ", "3174": "lin ", "3175": "cia ", "3176": "o e ", "3177": "pol ", "3178": "vel ", "3179": "ler ", "3180": "tua ", "3181": "sc\u00ec ", "3182": "dio ", "3183": "nil ", "3184": "gu\u00ec ", "3185": "deh ", "3186": "rei ", "3187": "rao ", "3188": "nel ", "3189": "tei ", "3190": "gra ", "3191": "unt ", "3192": "pir ", "3193": "fan ", "3194": "due ", "3195": "ci\u00f2 ", "3196": "ser ", "3197": "sci ", "3198": "st\u00f9 ", "3199": "gni ", "3200": "tem ", "3201": "del ", "3202": "bia ", "3203": "han ", "3204": "fi\u2019 ", "3205": "gio ", "3206": "por ", "3207": "for ", "3208": "ren ", "3209": "rel ", "3210": "bi\u00f2 ", "3211": "dia ", "3212": "leo ", "3213": "sta ", "3214": "tus ", "3215": "sui ", "3216": "nar ", "3217": "mer ", "3218": "dr\u00f2 ", "3219": "tin ", "3220": "di\u00e8 ", "3221": "pr\u00e0 ", "3222": "cui ", "3223": "rai ", "3224": "cie ", "3225": "cil ", "3226": "m\u00ecs ", "3227": "nin ", "3228": "uom ", "3229": "sem ", "3230": "cor ", "3231": "gir ", "3232": "van ", "3233": "bon ", "3234": "f\u00e0s ", "3235": "se\u2019 ", "3236": "qui ", "3237": "gea ", "3238": "nei ", "3239": "dr\u00e0 ", "3240": "lia ", "3241": "von ", "3242": "tre ", "3243": "vau ", "3244": "ti\u2019 ", "3245": "g\u00f3r ", "3246": "tro ", "3247": "ste ", "3248": "bus ", "3249": "de\u2019 ", "3250": "nio ", "3251": "a e ", "3252": "bra ", "3253": "ril ", "3254": "gi\u00f2 ", "3255": "zio ", "3256": "nan ", "3257": "pi\u00e9 ", "3258": "ra\u2019 ", "3259": "a i ", "3260": "c\u00f2b ", "3261": "min ", "3262": "vil ", "3263": "mei ", "3264": "pu\u00f2 ", "3265": "n\u00ect ", "3266": "cio ", "3267": "me\u2019 ", "3268": "via ", "3269": "s\u00f3n ", "3270": "sma ", "3271": "man ", "3272": "l\u00f2n ", "3273": "len ", "3274": "tar ", "3275": "cai ", "3276": "pal ", "3277": "nia ", "3278": "pia ", "3279": "gei ", "3280": "\u2018te ", "3281": "ieu ", "3282": "nor ", "3283": "nem ", "3284": "a a ", "3285": "sun ", "3286": "ga\u2019 ", "3287": "pi\u00f9 ", "3288": "gi\u00f9 ", "3289": "sca ", "3290": "gue ", "3291": "n\u00f2s ", "3292": "tal ", "3293": "fer ", "3294": "gal ", "3295": "m\u00eca ", "3296": "na\u2019 ", "3297": "pem ", "3298": "nea ", "3299": "gi\u00e0 ", "3300": "noi ", "3301": "f\u00e8l ", "3302": "nir ", "3303": "pre ", "3304": "fe\u2019 ", "3305": "gui ", "3306": "san ", "3307": "st\u00f2 ", "3308": "ve\u2019 ", "3309": "cis ", "3310": "ahi ", "3311": "cum ", "3312": "sol ", "3313": "g\u00f3n ", "3314": "sul ", "3315": "tes ", "3316": "tai ", "3317": "col ", "3318": "cea ", "3319": "dar ", "3320": "ch\u00e9 ", "3321": "mul ", "3322": "que ", "3323": "e i ", "3324": "vei ", "3325": "sel ", "3326": "reo ", "3327": "r\u00ecb ", "3328": "mun ", "3329": "feo ", "3330": "rem ", "3331": "tuo ", "3332": "st\u00e9 ", "3333": "pie ", "3334": "mor ", "3335": "meo ", "3336": "rea ", "3337": "vo\u2019 ", "3338": "su\u2019 ", "3339": "lui ", "3340": "mil ", "3341": "suo ", "3342": "gol ", "3343": "deo ", "3344": "sub ", "3345": "rir ", "3346": "qua ", "3347": "ghi ", "3348": "v\u00ecd ", "3349": "cur ", "3350": "ver ", "3351": "gon ", "3352": "sir ", "3353": "che ", "3354": "quel ", "3355": "tier ", "3356": "laio ", "3357": "guir ", "3358": "diam ", "3359": "c\u2019 \u00e8 ", "3360": "giam ", "3361": "trio ", "3362": "ge \u00e8 ", "3363": "suol ", "3364": "ni e ", "3365": "nean ", "3366": "ro \u00e8 ", "3367": "ca \u00e8 ", "3368": "pi e ", "3369": "\u00e8 il ", "3370": "re e ", "3371": "stei ", "3372": "za a ", "3373": "me i ", "3374": "tiam ", "3375": "frir ", "3376": "sien ", "3377": "gnor ", "3378": "lian ", "3379": "me a ", "3380": "ge e ", "3381": "pria ", "3382": "cral ", "3383": "to o ", "3384": "giar ", "3385": "com\u2019 ", "3386": "ro a ", "3387": "la a ", "3388": "no o ", "3389": "vo e ", "3390": "ce i ", "3391": "chio ", "3392": "prei ", "3393": "ga e ", "3394": "pa \u00e8 ", "3395": "buon ", "3396": "gian ", "3397": "stra ", "3398": "i in ", "3399": "qual ", "3400": "to i ", "3401": "ra \u00e8 ", "3402": "drai ", "3403": "dean ", "3404": "brar ", "3405": "ce a ", "3406": "prie ", "3407": "vien ", "3408": "tean ", "3409": "no i ", "3410": "vi o ", "3411": "tuon ", "3412": "go \u00e8 ", "3413": "cl\u00e8s ", "3414": "die\u2019 ", "3415": "sci\u00f2 ", "3416": "chia ", "3417": "suoi ", "3418": "piar ", "3419": "sion ", "3420": "prir ", "3421": "duol ", "3422": "suo\u2019 ", "3423": "fuor ", "3424": "ne o ", "3425": "be a ", "3426": "ve a ", "3427": "\u00e8 \u2019l ", "3428": "no a ", "3429": "quod ", "3430": "buoi ", "3431": "l\u00ec \u00e8 ", "3432": "te i ", "3433": "ti e ", "3434": "ciul ", "3435": "o in ", "3436": "gi a ", "3437": "vi \u00e8 ", "3438": "t\u2019 i ", "3439": "pe e ", "3440": "pe i ", "3441": "tuoi ", "3442": "di i ", "3443": "quie ", "3444": "spre ", "3445": "do \u00e8 ", "3446": "d\u2019 i ", "3447": "gi e ", "3448": "la o ", "3449": "de o ", "3450": "stor ", "3451": "do o ", "3452": "sa \u00e8 ", "3453": "se i ", "3454": "nier ", "3455": "na \u00e8 ", "3456": "scel ", "3457": "ghio ", "3458": "le e ", "3459": "m\u2019 \u00e8 ", "3460": "ne \u00e8 ", "3461": "si i ", "3462": "ghin ", "3463": "lo i ", "3464": "se \u00e8 ", "3465": "le o ", "3466": "te o ", "3467": "runt ", "3468": "do e ", "3469": "ga a ", "3470": "co \u00e8 ", "3471": "plar ", "3472": "ta a ", "3473": "slao ", "3474": "spir ", "3475": "guan ", "3476": "drir ", "3477": "plor ", "3478": "ze o ", "3479": "ca e ", "3480": "do i ", "3481": "po a ", "3482": "bi e ", "3483": "trei ", "3484": "gual ", "3485": "scon ", "3486": "se o ", "3487": "za i ", "3488": "gean ", "3489": "di a ", "3490": "si \u00e8 ", "3491": "di o ", "3492": "lo \u00e8 ", "3493": "mo \u00e8 ", "3494": "dron ", "3495": "ti i ", "3496": "bia\u2019 ", "3497": "le \u00e8 ", "3498": "po o ", "3499": "chin ", "3500": "bi a ", "3501": "to e ", "3502": "drel ", "3503": "tria ", "3504": "a il ", "3505": "l\u2019 \u00e8 ", "3506": "ze e ", "3507": "glie ", "3508": "chi\u00f2 ", "3509": "bran ", "3510": "cean ", "3511": "naio ", "3512": "nian ", "3513": "so i ", "3514": "so \u00e8 ", "3515": "pi\u00e9r ", "3516": "scir ", "3517": "schi ", "3518": "s\u2019 a ", "3519": "ni \u00e8 ", "3520": "ciol ", "3521": "stre ", "3522": "stia ", "3523": "ma o ", "3524": "cuor ", "3525": "stui ", "3526": "re \u00e8 ", "3527": "si o ", "3528": "mo i ", "3529": "a \u2019l ", "3530": "gien ", "3531": "gner ", "3532": "dail ", "3533": "ni o ", "3534": "breo ", "3535": "sc\u00eco ", "3536": "ta o ", "3537": "de e ", "3538": "gnun ", "3539": "suon ", "3540": "pa a ", "3541": "ra i ", "3542": "li i ", "3543": "guon ", "3544": "li \u00e8 ", "3545": "ghia ", "3546": "t\u2019 \u00e8 ", "3547": "va i ", "3548": "sfar ", "3549": "ghie ", "3550": "vo a ", "3551": "prai ", "3552": "o un ", "3553": "lien ", "3554": "vi e ", "3555": "ra e ", "3556": "biar ", "3557": "zian ", "3558": "mi i ", "3559": "sti\u00f2 ", "3560": "stin ", "3561": "sa a ", "3562": "gnan ", "3563": "ti a ", "3564": "na a ", "3565": "co i ", "3566": "i il ", "3567": "dien ", "3568": "pion ", "3569": "muor ", "3570": "ti \u00e8 ", "3571": "ci\u00f2l ", "3572": "br\u00f2t ", "3573": "ga o ", "3574": "trai ", "3575": "vean ", "3576": "bion ", "3577": "va o ", "3578": "ciai ", "3579": "ciel ", "3580": "sche ", "3581": "zo a ", "3582": "v\u2019 \u00e8 ", "3583": "ta \u00e8 ", "3584": "ti o ", "3585": "sa e ", "3586": "za e ", "3587": "cia\u2019 ", "3588": "so a ", "3589": "miei ", "3590": "pri\u2019 ", "3591": "di e ", "3592": "ro o ", "3593": "ni a ", "3594": "tu i ", "3595": "guia ", "3596": "ri o ", "3597": "l\u00e0 i ", "3598": "ched ", "3599": "quar ", "3600": "tr\u00e0s ", "3601": "re a ", "3602": "nien ", "3603": "vi a ", "3604": "gior ", "3605": "me \u00e8 ", "3606": "vuoi ", "3607": "co a ", "3608": "rian ", "3609": "ri e ", "3610": "trar ", "3611": "scun ", "3612": "r\u2019 a ", "3613": "ch e ", "3614": "n\u2019 \u00e8 ", "3615": "tra\u2019 ", "3616": "s\u00e9 i ", "3617": "ma e ", "3618": "sier ", "3619": "so o ", "3620": "nail ", "3621": "za \u00e8 ", "3622": "gli\u00f2 ", "3623": "go o ", "3624": "spri ", "3625": "ne i ", "3626": "scea ", "3627": "co o ", "3628": "sie\u2019 ", "3629": "fren ", "3630": "lo e ", "3631": "e \u2019n ", "3632": "de \u00e8 ", "3633": "sci\u2019 ", "3634": "fien ", "3635": "ver\u2019 ", "3636": "de a ", "3637": "da i ", "3638": "ge a ", "3639": "ce e ", "3640": "spro ", "3641": "ce \u00e8 ", "3642": "sa i ", "3643": "gion ", "3644": "vian ", "3645": "dra\u2019 ", "3646": "le a ", "3647": "la \u00e8 ", "3648": "a al ", "3649": "stro ", "3650": "grue ", "3651": "mian ", "3652": "siam ", "3653": "o al ", "3654": "ri a ", "3655": "tien ", "3656": "sunt ", "3657": "zi \u00e8 ", "3658": "str\u00f2 ", "3659": "quam ", "3660": "scio ", "3661": "bo e ", "3662": "stel ", "3663": "ta i ", "3664": "ta e ", "3665": "niam ", "3666": "cria ", "3667": "me e ", "3668": "guai ", "3669": "po i ", "3670": "gnum ", "3671": "so e ", "3672": "a in ", "3673": "ci a ", "3674": "ce o ", "3675": "prun ", "3676": "stie ", "3677": "fian ", "3678": "ma i ", "3679": "ma a ", "3680": "f\u00e9 i ", "3681": "puoi ", "3682": "te e ", "3683": "na o ", "3684": "ma \u00e8 ", "3685": "vuol ", "3686": "fiar ", "3687": "si e ", "3688": "ve o ", "3689": "chel ", "3690": "d\u00ec i ", "3691": "trae ", "3692": "fior ", "3693": "ra o ", "3694": "gnia ", "3695": "glio ", "3696": "gier ", "3697": "ca o ", "3698": "go a ", "3699": "ve e ", "3700": "va a ", "3701": "gnon ", "3702": "ci \u00e8 ", "3703": "viam ", "3704": "sa o ", "3705": "pien ", "3706": "re o ", "3707": "gran ", "3708": "pa e ", "3709": "li e ", "3710": "mo a ", "3711": "gnin ", "3712": "pian ", "3713": "tram ", "3714": "fi e ", "3715": "scia ", "3716": "da a ", "3717": "grin ", "3718": "co e ", "3719": "io e ", "3720": "to \u00e8 ", "3721": "que\u2019 ", "3722": "v\u2019 a ", "3723": "brio ", "3724": "tran ", "3725": "stri ", "3726": "ne a ", "3727": "le i ", "3728": "pier ", "3729": "scar ", "3730": "prio ", "3731": "gnus ", "3732": "lier ", "3733": "brei ", "3734": "be e ", "3735": "ziar ", "3736": "na e ", "3737": "mie\u2019 ", "3738": "ci o ", "3739": "stan ", "3740": "te \u00e8 ", "3741": "fe e ", "3742": "s\u2019 \u00e8 ", "3743": "quei ", "3744": "bi i ", "3745": "rean ", "3746": "vuo\u2019 ", "3747": "li o ", "3748": "stea ", "3749": "gnel ", "3750": "pia\u2019 ", "3751": "zo e ", "3752": "rien ", "3753": "te a ", "3754": "giun ", "3755": "la i ", "3756": "stil ", "3757": "maio ", "3758": "da e ", "3759": "sian ", "3760": "no e ", "3761": "be i ", "3762": "o il ", "3763": "zi a ", "3764": "go e ", "3765": "li a ", "3766": "to a ", "3767": "star ", "3768": "e \u2019l ", "3769": "o \u2019n ", "3770": "cian ", "3771": "po \u00e8 ", "3772": "mi a ", "3773": "chie ", "3774": "re i ", "3775": "zi e ", "3776": "bo a ", "3777": "\u00e8 \u2019n ", "3778": "quai ", "3779": "mo e ", "3780": "lo a ", "3781": "fier ", "3782": "d\u2019 \u00e8 ", "3783": "crin ", "3784": "ro i ", "3785": "scer ", "3786": "trui ", "3787": "la e ", "3788": "va e ", "3789": "ba e ", "3790": "cion ", "3791": "ci e ", "3792": "de i ", "3793": "si a ", "3794": "ghi\u00f2 ", "3795": "vria ", "3796": "st\u00f2r ", "3797": "ciam ", "3798": "fo \u00e8 ", "3799": "dier ", "3800": "stai ", "3801": "su i ", "3802": "quor ", "3803": "vier ", "3804": "se e ", "3805": "ve i ", "3806": "gnar ", "3807": "za o ", "3808": "glia ", "3809": "ra a ", "3810": "po e ", "3811": "do a ", "3812": "ca a ", "3813": "bent ", "3814": "zion ", "3815": "ne e ", "3816": "bian ", "3817": "ro e ", "3818": "mi e ", "3819": "pron ", "3820": "ciar ", "3821": "se a ", "3822": "no \u00e8 ", "3823": "chier ", "3824": "ge in ", "3825": "li ad ", "3826": "n\u00f2 in ", "3827": "ta ad ", "3828": "zii e ", "3829": "pio e ", "3830": "no io ", "3831": "na ad ", "3832": "m\u2019 io ", "3833": "ca io ", "3834": "ne ai ", "3835": "glior ", "3836": "na al ", "3837": "se \u2019n ", "3838": "bio e ", "3839": "ri al ", "3840": "se or ", "3841": "rio e ", "3842": "ti un ", "3843": "n\u00e9 \u2019l ", "3844": "l\u2019 ha ", "3845": "do ha ", "3846": "gna \u00e8 ", "3847": "t\u00e0 \u2019l ", "3848": "la un ", "3849": "bre e ", "3850": "gua a ", "3851": "li il ", "3852": "no ai ", "3853": "si in ", "3854": "se al ", "3855": "n\u2019 ha ", "3856": "t\u2019 ho ", "3857": "po \u2019l ", "3858": "za ed ", "3859": "ha \u2019l ", "3860": "se ir ", "3861": "ne io ", "3862": "gue \u00e8 ", "3863": "sa \u2019l ", "3864": "b\u2019 io ", "3865": "li ha ", "3866": "chi e ", "3867": "si \u2019n ", "3868": "lo a\u2019 ", "3869": "re i\u2019 ", "3870": "to il ", "3871": "lio e ", "3872": "te ed ", "3873": "da al ", "3874": "t\u2019 i\u2019 ", "3875": "si al ", "3876": "cio e ", "3877": "me \u2019l ", "3878": "la a\u2019 ", "3879": "gi un ", "3880": "go il ", "3881": "dia e ", "3882": "so \u2019l ", "3883": "co un ", "3884": "t\u00f2 \u2019l ", "3885": "tra \u00e8 ", "3886": "sca i ", "3887": "dro o ", "3888": "si ad ", "3889": "lio \u00e8 ", "3890": "la in ", "3891": "la il ", "3892": "zi un ", "3893": "po io ", "3894": "ra il ", "3895": "le il ", "3896": "so il ", "3897": "fu il ", "3898": "se e\u2019 ", "3899": "si \u2019l ", "3900": "de un ", "3901": "la ed ", "3902": "t\u2019 el ", "3903": "chian ", "3904": "bra o ", "3905": "li al ", "3906": "sce i ", "3907": "mo il ", "3908": "lio a ", "3909": "ni in ", "3910": "so un ", "3911": "tr\u2019 a ", "3912": "lo or ", "3913": "ci \u2019l ", "3914": "ge il ", "3915": "ri \u2019l ", "3916": "no a\u2019 ", "3917": "no ad ", "3918": "ci il ", "3919": "se il ", "3920": "cio a ", "3921": "le un ", "3922": "ma a\u2019 ", "3923": "si el ", "3924": "ni il ", "3925": "re ed ", "3926": "ne un ", "3927": "ro il ", "3928": "se io ", "3929": "do \u2019l ", "3930": "s\u2019 el ", "3931": "ci a\u2019 ", "3932": "za ha ", "3933": "ci ha ", "3934": "v\u2019 io ", "3935": "no in ", "3936": "dre e ", "3937": "gi il ", "3938": "di ed ", "3939": "sti o ", "3940": "dio a ", "3941": "sa ad ", "3942": "ra \u2019l ", "3943": "ti ei ", "3944": "ci al ", "3945": "d\u2019 un ", "3946": "zio a ", "3947": "t\u00f2 un ", "3948": "be il ", "3949": "so ad ", "3950": "pr\u2019 a ", "3951": "sto e ", "3952": "be un ", "3953": "d\u2019 ir ", "3954": "gia \u00e8 ", "3955": "me al ", "3956": "do or ", "3957": "sa un ", "3958": "sta \u00e8 ", "3959": "svuol ", "3960": "ba in ", "3961": "re ir ", "3962": "s\u2019 un ", "3963": "za in ", "3964": "zo il ", "3965": "lo ai ", "3966": "sa il ", "3967": "ti ed ", "3968": "ci in ", "3969": "bia e ", "3970": "ve al ", "3971": "ta il ", "3972": "gi \u2019l ", "3973": "temps ", "3974": "va ed ", "3975": "ve ad ", "3976": "chi \u00e8 ", "3977": "ne ed ", "3978": "sti \u00e8 ", "3979": "ma \u2019l ", "3980": "ra \u2019n ", "3981": "va un ", "3982": "sciai ", "3983": "zo \u2019l ", "3984": "t\u2019 ha ", "3985": "gliel ", "3986": "r\u00f2 il ", "3987": "te \u2019n ", "3988": "za oh ", "3989": "v\u2019 e\u2019 ", "3990": "to ed ", "3991": "ia ed ", "3992": "zi ai ", "3993": "f\u00e9 \u2019l ", "3994": "li io ", "3995": "ve in ", "3996": "za \u2019l ", "3997": "ma in ", "3998": "ghe a ", "3999": "ria o ", "4000": "stion ", "4001": "na il ", "4002": "pre a ", "4003": "le ir ", "4004": "stier ", "4005": "po in ", "4006": "mia e ", "4007": "gio e ", "4008": "zia \u00e8 ", "4009": "to a\u2019 ", "4010": "d\u2019 ei ", "4011": "na un ", "4012": "zio \u00e8 ", "4013": "strar ", "4014": "gui e ", "4015": "ta un ", "4016": "si or ", "4017": "c\u2019 ho ", "4018": "rio a ", "4019": "ne in ", "4020": "v\u2019 el ", "4021": "lo il ", "4022": "da in ", "4023": "glian ", "4024": "ghiar ", "4025": "me \u2019n ", "4026": "ria i ", "4027": "ca il ", "4028": "pa \u2019l ", "4029": "me ai ", "4030": "to io ", "4031": "va \u2019n ", "4032": "li oh ", "4033": "g\u00ec \u2019l ", "4034": "ti \u2019l ", "4035": "chion ", "4036": "d\u00f2 \u2019l ", "4037": "lo un ", "4038": "na in ", "4039": "sti e ", "4040": "cia a ", "4041": "co u\u2019 ", "4042": "pri a ", "4043": "to ir ", "4044": "do ed ", "4045": "tr\u2019 \u00e8 ", "4046": "ta ha ", "4047": "che e ", "4048": "si un ", "4049": "ci or ", "4050": "do un ", "4051": "dre a ", "4052": "no un ", "4053": "v\u00f2 \u2019l ", "4054": "ta ed ", "4055": "re \u2019n ", "4056": "sti a ", "4057": "pa or ", "4058": "te il ", "4059": "be al ", "4060": "r\u00ec \u2019l ", "4061": "le ab ", "4062": "d\u2019 io ", "4063": "tra a ", "4064": "mo ha ", "4065": "sto \u00e8 ", "4066": "ra or ", "4067": "gia o ", "4068": "di un ", "4069": "stial ", "4070": "ti \u2019n ", "4071": "tri a ", "4072": "be \u2019l ", "4073": "me a\u2019 ", "4074": "mi ad ", "4075": "se in ", "4076": "ro or ", "4077": "so a\u2019 ", "4078": "t\u00e9 \u2019l ", "4079": "ghi e ", "4080": "r\u00f2 \u2019l ", "4081": "mi a\u2019 ", "4082": "te ha ", "4083": "do al ", "4084": "pra e ", "4085": "gio a ", "4086": "da or ", "4087": "s\u2019 i\u2019 ", "4088": "zi ad ", "4089": "ni al ", "4090": "le in ", "4091": "ro in ", "4092": "n\u2019 ei ", "4093": "s\u2019 io ", "4094": "v\u2019 \u00e8n ", "4095": "me il ", "4096": "si il ", "4097": "chiai ", "4098": "ch\u00e9 i ", "4099": "ste i ", "4100": "li in ", "4101": "ce al ", "4102": "be ed ", "4103": "qua e ", "4104": "pe il ", "4105": "va a\u2019 ", "4106": "po il ", "4107": "que a ", "4108": "mo \u2019l ", "4109": "pi in ", "4110": "to \u2019n ", "4111": "s\u00e9 il ", "4112": "no ha ", "4113": "gue e ", "4114": "sa in ", "4115": "zi al ", "4116": "sco i ", "4117": "stran ", "4118": "lo in ", "4119": "re un ", "4120": "do a\u2019 ", "4121": "ria a ", "4122": "zia o ", "4123": "li ei ", "4124": "se un ", "4125": "sci a ", "4126": "ce ha ", "4127": "bo a\u2019 ", "4128": "su in ", "4129": "que \u00e8 ", "4130": "ca in ", "4131": "mo in ", "4132": "tro \u00e8 ", "4133": "smo a ", "4134": "tu \u2019l ", "4135": "d\u2019 el ", "4136": "gia a ", "4137": "se \u2019l ", "4138": "ti io ", "4139": "tro e ", "4140": "do il ", "4141": "ni or ", "4142": "qua a ", "4143": "mi in ", "4144": "l\u00e0 il ", "4145": "ti ai ", "4146": "te in ", "4147": "bi il ", "4148": "v\u2019 ei ", "4149": "fa \u2019l ", "4150": "zia a ", "4151": "scian ", "4152": "se ad ", "4153": "la al ", "4154": "che \u2019 ", "4155": "no al ", "4156": "ra a\u2019 ", "4157": "be in ", "4158": "ma \u2019n ", "4159": "va ad ", "4160": "te un ", "4161": "gi al ", "4162": "co ai ", "4163": "to al ", "4164": "co ad ", "4165": "mi un ", "4166": "bi in ", "4167": "zi or ", "4168": "qui e ", "4169": "gno a ", "4170": "va \u2019l ", "4171": "ne ha ", "4172": "gli a ", "4173": "pio a ", "4174": "gra o ", "4175": "c\u2019 io ", "4176": "te ai ", "4177": "tro a ", "4178": "zo in ", "4179": "ti ha ", "4180": "qua \u00e8 ", "4181": "ce un ", "4182": "glien ", "4183": "le \u2019l ", "4184": "ro a\u2019 ", "4185": "de \u2019l ", "4186": "ve \u2019l ", "4187": "ra ed ", "4188": "tri \u00e8 ", "4189": "fu \u2019l ", "4190": "glion ", "4191": "bro e ", "4192": "d\u2019 i\u2019 ", "4193": "ti a\u2019 ", "4194": "ne \u2019l ", "4195": "da un ", "4196": "do in ", "4197": "ne ad ", "4198": "re al ", "4199": "di \u2019n ", "4200": "za il ", "4201": "mo al ", "4202": "ma un ", "4203": "da io ", "4204": "ve un ", "4205": "su \u2019l ", "4206": "li or ", "4207": "ta al ", "4208": "zia e ", "4209": "stral ", "4210": "dia i ", "4211": "ge un ", "4212": "ro ed ", "4213": "si u\u2019 ", "4214": "na \u2019n ", "4215": "ria e ", "4216": "gno \u00e8 ", "4217": "mo ed ", "4218": "ria \u2019 ", "4219": "de ed ", "4220": "tre e ", "4221": "di or ", "4222": "t\u2019 il ", "4223": "gna a ", "4224": "di il ", "4225": "ga in ", "4226": "za i\u2019 ", "4227": "ro i\u2019 ", "4228": "l\u2019 ho ", "4229": "d\u2019 e\u2019 ", "4230": "ge al ", "4231": "cia o ", "4232": "sta a ", "4233": "ia il ", "4234": "co al ", "4235": "ri a\u2019 ", "4236": "va al ", "4237": "da i\u2019 ", "4238": "le io ", "4239": "bro \u00e8 ", "4240": "ra ha ", "4241": "to un ", "4242": "dro e ", "4243": "bra a ", "4244": "ne a\u2019 ", "4245": "se i\u2019 ", "4246": "stiam ", "4247": "p\u2019 io ", "4248": "na ed ", "4249": "po al ", "4250": "ri in ", "4251": "da \u2019l ", "4252": "sta o ", "4253": "ge ad ", "4254": "te \u2019l ", "4255": "va or ", "4256": "dio e ", "4257": "n\u2019 io ", "4258": "pre e ", "4259": "sia e ", "4260": "qua o ", "4261": "m\u2019 ha ", "4262": "re ha ", "4263": "po ed ", "4264": "vo in ", "4265": "tri o ", "4266": "no u\u2019 ", "4267": "lo ha ", "4268": "va io ", "4269": "ne or ", "4270": "z\u00f2 il ", "4271": "schio ", "4272": "sta e ", "4273": "tra i ", "4274": "v\u2019 i\u2019 ", "4275": "za al ", "4276": "vrien ", "4277": "co \u2019l ", "4278": "t\u2019 om ", "4279": "lo ed ", "4280": "di a\u2019 ", "4281": "c\u2019 ha ", "4282": "mo un ", "4283": "ce u\u2019 ", "4284": "ia oh ", "4285": "gna e ", "4286": "me ad ", "4287": "stian ", "4288": "l\u00e0 \u2019l ", "4289": "sco e ", "4290": "ria \u00e8 ", "4291": "sto a ", "4292": "s\u2019 e\u2019 ", "4293": "\u2019v\u2019 \u00e8 ", "4294": "na ei ", "4295": "le al ", "4296": "mi il ", "4297": "ra al ", "4298": "chiar ", "4299": "s\u2019 ha ", "4300": "gliar ", "4301": "te a\u2019 ", "4302": "di ad ", "4303": "r\u2019 al ", "4304": "go al ", "4305": "ro od ", "4306": "de ad ", "4307": "ch\u2019 a ", "4308": "vra i ", "4309": "ni \u2019l ", "4310": "mo ad ", "4311": "zo al ", "4312": "gna o ", "4313": "chi a ", "4314": "vi il ", "4315": "que e ", "4316": "to i\u2019 ", "4317": "l\u2019 un ", "4318": "to \u2019l ", "4319": "ve il ", "4320": "sme e ", "4321": "ra un ", "4322": "lo al ", "4323": "ce il ", "4324": "so in ", "4325": "gni a ", "4326": "vi un ", "4327": "za or ", "4328": "b\u00f2 il ", "4329": "co in ", "4330": "zi \u2019l ", "4331": "gliea ", "4332": "che a ", "4333": "no ed ", "4334": "g\u00f2 \u2019l ", "4335": "no il ", "4336": "ghe e ", "4337": "t\u00ec \u2019l ", "4338": "ia in ", "4339": "st\u2019 \u00e8 ", "4340": "li un ", "4341": "gni e ", "4342": "ra in ", "4343": "ge or ", "4344": "gno e ", "4345": "pe \u2019l ", "4346": "do ad ", "4347": "mi al ", "4348": "do io ", "4349": "gri e ", "4350": "pie a ", "4351": "la io ", "4352": "re or ", "4353": "sciar ", "4354": "co a\u2019 ", "4355": "re a\u2019 ", "4356": "te u\u2019 ", "4357": "li \u2019l ", "4358": "ga il ", "4359": "g\u2019 io ", "4360": "gue a ", "4361": "di al ", "4362": "me un ", "4363": "sce e ", "4364": "l\u2019 om ", "4365": "pa in ", "4366": "de il ", "4367": "n\u00f2 \u2019l ", "4368": "t\u2019 io ", "4369": "le i\u2019 ", "4370": "ra io ", "4371": "za un ", "4372": "pre i ", "4373": "bi \u2019l ", "4374": "gna i ", "4375": "bre a ", "4376": "co il ", "4377": "di \u2019l ", "4378": "no i\u2019 ", "4379": "gno i ", "4380": "te ad ", "4381": "tra \u2019 ", "4382": "co io ", "4383": "so al ", "4384": "ro un ", "4385": "ma il ", "4386": "gui i ", "4387": "ne al ", "4388": "te al ", "4389": "de al ", "4390": "gia e ", "4391": "strai ", "4392": "te or ", "4393": "re il ", "4394": "va ai ", "4395": "be or ", "4396": "s\u00ec \u2019l ", "4397": "ti ad ", "4398": "s\u2019 ei ", "4399": "pa ed ", "4400": "ta in ", "4401": "ch\u00e9 a ", "4402": "te io ", "4403": "de in ", "4404": "ra ad ", "4405": "le or ", "4406": "ce in ", "4407": "le ha ", "4408": "che i ", "4409": "ro al ", "4410": "ge ai ", "4411": "gluol ", "4412": "mi \u2019l ", "4413": "va in ", "4414": "re in ", "4415": "pe ad ", "4416": "scion ", "4417": "ch\u2019 \u00e8 ", "4418": "to ad ", "4419": "tra e ", "4420": "ro ad ", "4421": "no \u2019l ", "4422": "la \u2019l ", "4423": "to or ", "4424": "cia e ", "4425": "lia e ", "4426": "ha in ", "4427": "dro a ", "4428": "to ha ", "4429": "tro i ", "4430": "di io ", "4431": "ste a ", "4432": "mi ed ", "4433": "ta io ", "4434": "zi il ", "4435": "go \u2019l ", "4436": "sce a ", "4437": "re ho ", "4438": "gli e ", "4439": "se ho ", "4440": "vi \u2019l ", "4441": "ste e ", "4442": "v\u2019 ha ", "4443": "fo or ", "4444": "di in ", "4445": "ti al ", "4446": "va il ", "4447": "lo ad ", "4448": "glier ", "4449": "ca al ", "4450": "bra e ", "4451": "dri e ", "4452": "to in ", "4453": "se a\u2019 ", "4454": "na ha ", "4455": "me ed ", "4456": "re ad ", "4457": "ti in ", "4458": "po ha ", "4459": "di ha ", "4460": "ta \u2019l ", "4461": "ti il ", "4462": "le ad ", "4463": "ne il ", "4464": "gua e ", "4465": "zio e ", "4466": "vi in ", "4467": "bo in ", "4468": "v\u2019 ho ", "4469": "tri e ", "4470": "te ho ", "4471": "v\u2019 or ", "4472": "be i\u2019 ", "4473": "da il ", "4474": "ba il ", "4475": "me in ", "4476": "ch\u2019 ad ", "4477": "tr\u2019 a\u2019 ", "4478": "que i\u2019 ", "4479": "sto in ", "4480": "gli al ", "4481": "gro un ", "4482": "di e \u2019 ", "4483": "sti in ", "4484": "tre un ", "4485": "ghiaio ", "4486": "ro e \u2019 ", "4487": "l\u2019 uom ", "4488": "po e \u2019 ", "4489": "tra in ", "4490": "dro in ", "4491": "scio a ", "4492": "sta \u2019n ", "4493": "pu\u00f2 \u2019l ", "4494": "sto ad ", "4495": "ti e i ", "4496": "ch\u00e9 \u2019l ", "4497": "sto al ", "4498": "stro a ", "4499": "st\u2019 ho ", "4500": "tro ad ", "4501": "gno or ", "4502": "gno ed ", "4503": "ni e \u2019 ", "4504": "l\u2019 hai ", "4505": "sta un ", "4506": "lio ed ", "4507": "ch\u00e9 \u2019n ", "4508": "gliuoi ", "4509": "gi\u2019 or ", "4510": "chi in ", "4511": "pre al ", "4512": "stro i ", "4513": "stro e ", "4514": "fra \u2019l ", "4515": "zia in ", "4516": "tri or ", "4517": "s\u2019 hai ", "4518": "gna a\u2019 ", "4519": "m\u2019 hai ", "4520": "que ad ", "4521": "que a\u2019 ", "4522": "tro il ", "4523": "ba e \u2019 ", "4524": "gi\u00f9 \u2019l ", "4525": "cia ir ", "4526": "li ha\u2019 ", "4527": "tro un ", "4528": "ne han ", "4529": "ghi \u2019l ", "4530": "dria e ", "4531": "ch\u2019 e\u2019 ", "4532": "gna \u2019l ", "4533": "gio al ", "4534": "t\u2019 hai ", "4535": "sche o ", "4536": "ti han ", "4537": "chi il ", "4538": "ch\u2019 om ", "4539": "stro \u00e8 ", "4540": "gna un ", "4541": "tro al ", "4542": "sto il ", "4543": "pi\u00f9 \u2019l ", "4544": "c\u2019 ha\u2019 ", "4545": "bra ad ", "4546": "chio e ", "4547": "que in ", "4548": "gia il ", "4549": "sta al ", "4550": "ne e \u2019 ", "4551": "nio al ", "4552": "ch\u2019 in ", "4553": "pia in ", "4554": "chi \u2019n ", "4555": "gne al ", "4556": "gne \u2019l ", "4557": "cea il ", "4558": "zio al ", "4559": "pria e ", "4560": "di\u2019 \u2019l ", "4561": "stra a ", "4562": "que il ", "4563": "vra \u2019l ", "4564": "bia in ", "4565": "che a\u2019 ", "4566": "bia \u2019l ", "4567": "\u2019ve \u2019l ", "4568": "sto io ", "4569": "pre a\u2019 ", "4570": "pre ha ", "4571": "schiar ", "4572": "pra \u2019l ", "4573": "cio ed ", "4574": "stia e ", "4575": "tre al ", "4576": "gna il ", "4577": "pra in ", "4578": "gli un ", "4579": "se uom ", "4580": "tre il ", "4581": "dio in ", "4582": "rio ho ", "4583": "stri e ", "4584": "tro io ", "4585": "me e \u2019 ", "4586": "pra ed ", "4587": "stro o ", "4588": "gni in ", "4589": "tr\u2019 al ", "4590": "zie al ", "4591": "to hai ", "4592": "gio ad ", "4593": "che \u2019l ", "4594": "se\u2019 in ", "4595": "sce in ", "4596": "gio il ", "4597": "tro ai ", "4598": "pre in ", "4599": "cia ad ", "4600": "gno ad ", "4601": "glia o ", "4602": "glio a ", "4603": "cia in ", "4604": "ch\u2019 ai ", "4605": "spra e ", "4606": "ra han ", "4607": "gi\u00e0 \u2019l ", "4608": "cia il ", "4609": "te han ", "4610": "gno al ", "4611": "n\u2019 uom ", "4612": "stra e ", "4613": "gia \u2019l ", "4614": "m\u2019 han ", "4615": "ch\u2019 el ", "4616": "ci e \u2019 ", "4617": "mia al ", "4618": "gno ha ", "4619": "pria o ", "4620": "chi \u2019l ", "4621": "fia il ", "4622": "sce il ", "4623": "ch\u2019 al ", "4624": "ghi al ", "4625": "sia \u2019l ", "4626": "sti \u2019l ", "4627": "sc\u00ec \u2019l ", "4628": "ro hai ", "4629": "gia un ", "4630": "gliuol ", "4631": "schi o ", "4632": "gue in ", "4633": "smo al ", "4634": "trio e ", "4635": "zia il ", "4636": "che in ", "4637": "gna in ", "4638": "tri ad ", "4639": "so hai ", "4640": "due \u2019l ", "4641": "gno a\u2019 ", "4642": "che un ", "4643": "tra \u2019l ", "4644": "tro in ", "4645": "ch\u2019 or ", "4646": "tro \u2019l ", "4647": "schi a ", "4648": "qua il ", "4649": "pi\u00e9 \u2019l ", "4650": "nia il ", "4651": "tra al ", "4652": "li han ", "4653": "so\u2019 \u2019n ", "4654": "tra i\u2019 ", "4655": "chi ei ", "4656": "ch\u00e9 il ", "4657": "rio il ", "4658": "ri e \u2019 ", "4659": "sta in ", "4660": "ghi in ", "4661": "lia il ", "4662": "cia un ", "4663": "pa e \u2019 ", "4664": "gi\u00f9 il ", "4665": "gno il ", "4666": "na\u2019 il ", "4667": "ti e \u2019 ", "4668": "che il ", "4669": "chi ha ", "4670": "ghia a ", "4671": "c\u2019 hai ", "4672": "sc\u2019 io ", "4673": "dre al ", "4674": "stra \u00e8 ", "4675": "tro a\u2019 ", "4676": "glia e ", "4677": "ch\u2019 a\u2019 ", "4678": "glio e ", "4679": "ch\u2019 \u00e8i ", "4680": "ni e i ", "4681": "tri il ", "4682": "stie e ", "4683": "ci\u00f2 \u2019l ", "4684": "glia \u00e8 ", "4685": "glio o ", "4686": "sti ha ", "4687": "che al ", "4688": "t\u2019 ha\u2019 ", "4689": "sti il ", "4690": "dri ai ", "4691": "gu\u00ec \u2019l ", "4692": "tro i\u2019 ", "4693": "gua in ", "4694": "d\u2019 uom ", "4695": "gi\u00e0 il ", "4696": "glie e ", "4697": "chi al ", "4698": "que al ", "4699": "gue il ", "4700": "chio a ", "4701": "gio in ", "4702": "cia al ", "4703": "qui \u2019l ", "4704": "ch\u2019 un ", "4705": "stio e ", "4706": "sco il ", "4707": "scia o ", "4708": "tro ed ", "4709": "dia in ", "4710": "bio ed ", "4711": "gl\u2019 io ", "4712": "chia e ", "4713": "tro ha ", "4714": "ch\u2019 ei ", "4715": "gia or ", "4716": "glia a ", "4717": "tre in ", "4718": "ste in ", "4719": "va e i ", "4720": "tre i\u2019 ", "4721": "ne e i ", "4722": "scia a ", "4723": "sta il ", "4724": "ghio e ", "4725": "ch\u2019 io ", "4726": "ria il ", "4727": "vea \u2019l ", "4728": "ria al ", "4729": "rio ha ", "4730": "qua in ", "4731": "tr\u2019 io ", "4732": "che \u2019n ", "4733": "sa e \u2019 ", "4734": "bra od ", "4735": "qua al ", "4736": "ste il ", "4737": "tra il ", "4738": "chio \u00e8 ", "4739": "ch\u2019 i\u2019 ", "4740": "tri \u2019l ", "4741": "gno in ", "4742": "ti e \u2019l ", "4743": "schio e ", "4744": "to o al ", "4745": "che e \u2019 ", "4746": "bre e \u2019 ", "4747": "stra il ", "4748": "lio e i ", "4749": "l\u2019 \u00e8 \u2019l ", "4750": "se e \u2019l ", "4751": "ma e \u2019l ", "4752": "scia il ", "4753": "schia e ", "4754": "glie in ", "4755": "do e \u2019n ", "4756": "le e \u2019l ", "4757": "ch\u2019 uom ", "4758": "me e \u2019l ", "4759": "stro ed ", "4760": "glia il ", "4761": "v\u2019 \u00e8 \u2019l ", "4762": "mi e \u2019l ", "4763": "de e \u2019l ", "4764": "ta e \u2019n ", "4765": "ne e \u2019l ", "4766": "so e \u2019l ", "4767": "na e \u2019l ", "4768": "be e \u2019l ", "4769": "chio ha ", "4770": "glia al ", "4771": "chio il ", "4772": "stro il ", "4773": "va e \u2019n ", "4774": "lo \u00e8 in ", "4775": "dia e i ", "4776": "chio in ", "4777": "dre e \u2019 ", "4778": "te e \u2019l ", "4779": "tra e \u2019 ", "4780": "no e \u2019l ", "4781": "ro e \u2019l ", "4782": "to e \u2019l ", "4783": "va e \u2019l ", "4784": "ta e \u2019l ", "4785": "ca e \u2019l ", "4786": "to \u00e8 \u2019l ", "4787": "po e \u2019l ", "4788": "gne uom ", "4789": "za e \u2019l ", "4790": "sci\u00f2 il ", "4791": "la e \u2019l ", "4792": "glia un ", "4793": "glie \u2019l ", "4794": "ga e \u2019l ", "4795": "co e \u2019l ", "4796": "mo e \u2019l ", "4797": "stro in ", "4798": "si e \u2019l ", "4799": "vo e \u2019l ", "4800": "chio al ", "4801": "glio in ", "4802": "go e \u2019l ", "4803": "m\u2019 \u00e8 il ", "4804": "stri in ", "4805": "me e \u2019n ", "4806": "re e \u2019l ", "4807": "stia ad ", "4808": "glia in ", "4809": "chia al ", "4810": "sa e \u2019l ", "4811": "ra e \u2019l ", "4812": "stro or ", "4813": "m\u2019 \u00e8 \u2019l ", "4814": "zo e \u2019l ", "4815": "de e \u2019n ", "4816": "ce e \u2019l ", "4817": "glio or ", "4818": "go \u00e8 in ", "4819": "glio ai ", "4820": "ci e \u2019l ", "4821": "stra \u2019l ", "4822": "bo e \u2019l ", "4823": "ria \u00e8 \u2019l ", "4824": "zie e \u2019l ", "4825": "chi e \u2019l ", "4826": "tr\u2019 \u00e8 \u2019l ", "4827": "cia e \u2019l ", "4828": "c\u2019 ha \u2019l ", "4829": "d\u2019 io \u2019l ", "4830": "zio e \u2019l ", "4831": "ria e \u2019l ", "4832": "so ha \u2019l ", "4833": "to ha \u2019l ", "4834": "v\u2019 ha \u2019l ", "4835": "tre e \u2019l ", "4836": "pra e \u2019l ", "4837": "st\u2019 \u00e8 \u2019l ", "4838": "tra e \u2019l ", "4839": "s\u2019 i\u2019 \u2019l ", "4840": "sti \u00e8 \u2019l ", "4841": "dio e \u2019l ", "4842": "schi uom ", "4843": "gio e \u2019l ", "4844": "bia e \u2019l ", "4845": "dre e \u2019l ", "4846": "sta e \u2019l ", "4847": "bra e \u2019l ", "4848": "te ha in ", "4849": "scia e \u2019l ", "4850": "stro e \u2019l ", "4851": "chie e \u2019n ", "4852": "ch\u2019 io \u2019l ", "4853": "glio e \u2019l ", "4854": "chio e \u2019l ", "4855": "ch\u2019 i\u2019 \u2019l ", "4856": "chio o \u2019l "}