{"0": "", "1": "<v>", "2": "</v>", "3": "<t><v>", "4": "o", "5": "s", "6": "a", "7": "c", "8": "u", "9": "v", "10": "i", "11": "g", "12": "\u00e9", "13": "\u00ef", "14": "\u00f2", "15": "e", "16": "\u00e8", "17": "\u00fc", "18": "er", "19": "mu", "20": "al", "21": "of", "22": "g\u00eb", "23": "f\u00ef", "24": "og", "25": "t\u00f2", "26": "eu", "27": "z\u00ef", "28": "s\u00e0", "29": "na", "30": "af", "31": "il", "32": "go", "33": "so", "34": "l\u00ef", "35": "fi", "36": "ce", "37": "t\u00e4", "38": "ze", "39": "v\u00f2", "40": "po", "41": "ia", "42": "p\u00f2", "43": "m\u00ef", "44": "g\u00ef", "45": "hi", "46": "ve", "47": "vi", "48": "ov", "49": "te", "50": "id", "51": "fe", "52": "gu", "53": "om", "54": "fa", "55": "tu", "56": "ec", "57": "m\u00ec", "58": "do", "59": "ma", "60": "p\u00e8", "61": "ru", "62": "bo", "63": "c\u00ef", "64": "at", "65": "p\u00eb", "66": "m\u00e4", "67": "pe", "68": "to", "69": "l\u00e0", "70": "m\u00e8", "71": "\u00e8v", "72": "n\u00eb", "73": "c\u00ec", "74": "is", "75": "ur", "76": "g\u00fc", "77": "b\u00eb", "78": "t\u00e8", "79": "b\u00ef", "80": "un", "81": "ar", "82": "\u00f2s", "83": "r\u00eb", "84": "no", "85": "xi", "86": "zo", "87": "zi", "88": "l\u00fc", "89": "pi", "90": "ef", "91": "l\u00eb", "92": "s\u00fc", "93": " u", "94": "ca", "95": "d\u00ef", "96": "fo", "97": "t\u00ef", "98": "ai", "99": "ra", "100": "p\u00fc", "101": "l\u00f6", "102": "d\u00fc", "103": "as", "104": "ot", "105": "os", "106": "ol", "107": "p\u00ef", "108": "ni", "109": "am", "110": "za", "111": "v\u00e9", "112": "p\u00ec", "113": "\u00e8n", "114": "t\u00ec", "115": "r\u00ef", "116": "c\u00eb", "117": "sa", "118": "mo", "119": "n\u00ef", "120": "ho", "121": "v\u00e8", "122": "fu", "123": "d\u00e8", "124": "in", "125": "au", "126": "ro", "127": "v\u00ef", "128": "me", "129": "d\u00eb", "130": "c\u00f9", "131": "vo", "132": "n\u00f2", "133": "ap", "134": "es", "135": "ti", "136": "bi", "137": "cu", "138": "uc", "139": "s\u00f2", "140": "ae", "141": "ge", "142": "iu", "143": "r\u00e0", "144": "lo", "145": "r\u00f3", "146": "ag", "147": "da", "148": "ga", "149": "vu", "150": "ab", "151": "io", "152": "oc", "153": "el", "154": "re", "155": "n\u00e8", "156": "ri", "157": "eb", "158": "f\u00e9", "159": "az", "160": "t\u00fc", "161": "bu", "162": "pu", "163": "mi", "164": "si", "165": "im", "166": "va", "167": "le", "168": "co", "169": "ac", "170": "l\u00f2", "171": "l\u00e8", "172": "ul", "173": "em", "174": "an", "175": "g\u00e8", "176": "la", "177": "n\u00fc", "178": "en", "179": "ad", "180": "gi", "181": "r\u00e8", "182": "ta", "183": "s\u00f9", "184": "or", "185": "ba", "186": "av", "187": "de", "188": "pa", "189": "se", "190": "g\u00f3", "191": "ob", "192": "s\u00ef", "193": "op", "194": "f\u00f3", "195": "ne", "196": "nu", "197": "c\u00fc", "198": "ci", "199": "d\u00e9", "200": "et", "201": "s\u00e9", "202": "qu", "203": "l\u00ec", "204": "ha", "205": "ex", "206": "f\u00eb", "207": "du", "208": "su", "209": "m\u00eb", "210": "v\u00eb", "211": "li", "212": "di", "213": "t\u00eb", "214": "ie", "215": "s\u00eb", "216": "on", "217": "be", "218": "lu", "219": "uo", "220": "nev", "221": "tar", "222": "xil", "223": "sv\u00ef", "224": "dop", "225": "bom", "226": "pir", "227": "var", "228": "lil", "229": "gnu", "230": "lan", "231": "cun", "232": "piz", "233": "der", "234": "bas", "235": "lor", "236": "nir", "237": "sic", "238": "cag", "239": "ren", "240": "pl\u00ec", "241": "gon", "242": "nea", "243": "dom", "244": "fre", "245": "mez", "246": "fer", "247": "tac", "248": "buf", "249": "pap", "250": "peg", "251": "mos", "252": "van", "253": "das", "254": "e u", "255": "smu", "256": "cap", "257": "pos", "258": "leo", "259": "got", "260": "pen", "261": "dri", "262": "spi", "263": "gal", "264": "sfo", "265": "pue", "266": "cer", "267": "dic", "268": "pun", "269": "sme", "270": "viz", "271": "nis", "272": "tem", "273": "fig", "274": "ric", "275": "sco", "276": "mol", "277": "gar", "278": "cio", "279": "ple", "280": "lop", "281": "m\u00e9z", "282": "reb", "283": "dor", "284": "bie", "285": "rea", "286": "sec", "287": "mia", "288": "fro", "289": "far", "290": "veg", "291": "nag", "292": "lam", "293": "zaf", "294": "bor", "295": "pan", "296": "mai", "297": "boc", "298": "bev", "299": "fan", "300": "tuf", "301": "nob", "302": "con", "303": "fat", "304": "cir", "305": "ste", "306": "nat", "307": "nur", "308": "top", "309": "tad", "310": "mur", "311": "nan", "312": "sur", "313": "cea", "314": "mel", "315": "tri", "316": "vor", "317": "sce", "318": "gan", "319": "bio", "320": "gem", "321": "bar", "322": "a a", "323": "del", "324": "gab", "325": "cra", "326": "ior", "327": "pub", "328": "cez", "329": "ler", "330": "pre", "331": "bl\u00ef", "332": "ran", "333": "lac", "334": "cla", "335": "sle", "336": "nie", "337": "svo", "338": "cen", "339": "puo", "340": "o e", "341": "nen", "342": "cis", "343": "tag", "344": "fam", "345": "zio", "346": "pic", "347": "nim", "348": "reg", "349": "mal", "350": "cuo", "351": "let", "352": "ven", "353": "cic", "354": "jau", "355": "sen", "356": "poz", "357": "lur", "358": "ris", "359": "fum", "360": "soc", "361": "dre", "362": "dun", "363": "dro", "364": "nic", "365": "sil", "366": "pli", "367": "ron", "368": "nig", "369": "v\u00f2l", "370": "nac", "371": "ser", "372": "rob", "373": "lim", "374": "mon", "375": "bia", "376": "sit", "377": "cle", "378": "bul", "379": "c\u00f3l", "380": "san", "381": "gio", "382": "ram", "383": "sud", "384": "ros", "385": "tal", "386": "pit", "387": "dei", "388": "niz", "389": "mor", "390": "deg", "391": "zuc", "392": "vir", "393": "gni", "394": "rig", "395": "les", "396": "fiu", "397": "ras", "398": "met", "399": "fit", "400": "piu", "401": "vil", "402": "lot", "403": "cia", "404": "t\u00f2m", "405": "cet", "406": "sug", "407": "sc\u00ef", "408": "que", "409": "sio", "410": "sla", "411": "vit", "412": "cef", "413": "ril", "414": "vez", "415": "bru", "416": "o a", "417": "dim", "418": "nas", "419": "e a", "420": "rug", "421": "ian", "422": "nun", "423": "vid", "424": "sp\u00ef", "425": "gia", "426": "fuo", "427": "pia", "428": "sca", "429": "iar", "430": "fos", "431": "ch\u00ef", "432": "gie", "433": "pur", "434": "nef", "435": "tet", "436": "sve", "437": "dat", "438": "c\u00e9r", "439": "det", "440": "bel", "441": "cri", "442": "gir", "443": "muo", "444": "bet", "445": "tie", "446": "dit", "447": "pon", "448": "lin", "449": "meg", "450": "spe", "451": "lon", "452": "lez", "453": "diz", "454": "run", "455": "luo", "456": "dam", "457": "von", "458": "pi\u00e9", "459": "get", "460": "vel", "461": "ton", "462": "deb", "463": "nul", "464": "dal", "465": "ban", "466": "pla", "467": "vol", "468": "vas", "469": "min", "470": "dru", "471": "pop", "472": "rof", "473": "svi", "474": "cru", "475": "cob", "476": "gru", "477": "caf", "478": "fib", "479": "ber", "480": "lat", "481": "boz", "482": "zon", "483": "p\u00e0r", "484": "gue", "485": "ruf", "486": "sfa", "487": "mes", "488": "spu", "489": "cal", "490": "pal", "491": "dau", "492": "sag", "493": "vin", "494": "lic", "495": "bot", "496": "sta", "497": "gno", "498": "gil", "499": "lis", "500": "neg", "501": "mer", "502": "sba", "503": "bil", "504": "pau", "505": "gea", "506": "nuc", "507": "sra", "508": "man", "509": "nil", "510": "mar", "511": "lec", "512": "lie", "513": "cor", "514": "can", "515": "stu", "516": "son", "517": "mug", "518": "ghe", "519": "cl\u00ef", "520": "tol", "521": "dan", "522": "riz", "523": "sal", "524": "rut", "525": "lun", "526": "ier", "527": "guo", "528": "tom", "529": "lav", "530": "puc", "531": "sin", "532": "m\u00e8c", "533": "gat", "534": "gaz", "535": "han", "536": "cot", "537": "pac", "538": "zan", "539": "moz", "540": "lir", "541": "sog", "542": "pul", "543": "lia", "544": "dil", "545": "ces", "546": "cr\u00e0", "547": "ruc", "548": "ral", "549": "cel", "550": "dus", "551": "tuc", "552": "rot", "553": "bec", "554": "nin", "555": "tes", "556": "mot", "557": "zia", "558": "zur", "559": "cas", "560": "zel", "561": "pom", "562": "cam", "563": "feg", "564": "coc", "565": "dif", "566": "gas", "567": "zac", "568": "rio", "569": "rar", "570": "sr\u00e4", "571": "sop", "572": "rit", "573": "ghi", "574": "sem", "575": "dul", "576": "gli", "577": "ter", "578": "leb", "579": "pil", "580": "lep", "581": "saf", "582": "for", "583": "cov", "584": "cem", "585": "fuc", "586": "lab", "587": "maz", "588": "bri", "589": "hon", "590": "tan", "591": "doc", "592": "vam", "593": "quo", "594": "tas", "595": "pru", "596": "lul", "597": "cin", "598": "geo", "599": "las", "600": "tor", "601": "pis", "602": "leg", "603": "cli", "604": "fal", "605": "rav", "606": "fru", "607": "nio", "608": "lui", "609": "buc", "610": "git", "611": "don", "612": "p\u00f2s", "613": "gib", "614": "nez", "615": "dot", "616": "qui", "617": "tim", "618": "gis", "619": "giu", "620": "des", "621": "raz", "622": "feb", "623": "tat", "624": "a u", "625": "fie", "626": "sor", "627": "gad", "628": "sbi", "629": "fel", "630": "ciu", "631": "sot", "632": "sti", "633": "rim", "634": "lit", "635": "pig", "636": "fac", "637": "st\u00ef", "638": "fis", "639": "dia", "640": "pra", "641": "tau", "642": "rog", "643": "tro", "644": "rid", "645": "car", "646": "cul", "647": "col", "648": "rap", "649": "bur", "650": "ruo", "651": "gor", "652": "dez", "653": "r\u00e8g", "654": "din", "655": "fug", "656": "cos", "657": "bab", "658": "tre", "659": "cau", "660": "rat", "661": "smo", "662": "flu", "663": "bea", "664": "bro", "665": "dio", "666": "bis", "667": "rol", "668": "fab", "669": "fra", "670": "dr\u00e4", "671": "vec", "672": "vet", "673": "bol", "674": "tho", "675": "fla", "676": "dir", "677": "lem", "678": "fet", "679": "sia", "680": "gne", "681": "rie", "682": "pec", "683": "f\u00e0c", "684": "luz", "685": "rag", "686": "mil", "687": "tea", "688": "bon", "689": "nuo", "690": "qua", "691": "but", "692": "tr\u00ef", "693": "muf", "694": "iep", "695": "len", "696": "por", "697": "dos", "698": "fur", "699": "bac", "700": "lel", "701": "roc", "702": "nem", "703": "ial", "704": "cur", "705": "fem", "706": "pes", "707": "gre", "708": "sfe", "709": "tut", "710": "sie", "711": "sac", "712": "clo", "713": "ner", "714": "goc", "715": "plu", "716": "dut", "717": "fri", "718": "bui", "719": "dis", "720": "guz", "721": "sas", "722": "fun", "723": "bin", "724": "men", "725": "o i", "726": "sde", "727": "vei", "728": "vis", "729": "lus", "730": "ses", "731": "dar", "732": "rel", "733": "poc", "734": "cit", "735": "pie", "736": "set", "737": "mun", "738": "fic", "739": "sub", "740": "vul", "741": "rab", "742": "til", "743": "net", "744": "gob", "745": "gag", "746": "glo", "747": "rac", "748": "tos", "749": "tur", "750": "dob", "751": "nec", "752": "nia", "753": "dr\u00ef", "754": "sgo", "755": "guc", "756": "loc", "757": "lar", "758": "fes", "759": "cui", "760": "pat", "761": "nor", "762": "sod", "763": "lut", "764": "lau", "765": "pin", "766": "o u", "767": "toc", "768": "sol", "769": "tic", "770": "tuo", "771": "smi", "772": "gel", "773": "pri", "774": "par", "775": "red", "776": "gri", "777": "cro", "778": "gna", "779": "pog", "780": "fom", "781": "suf", "782": "giz", "783": "nar", "784": "cre", "785": "ful", "786": "chi", "787": "fog", "788": "sob", "789": "bre", "790": "duo", "791": "som", "792": "gol", "793": "mam", "794": "ben", "795": "pet", "796": "ten", "797": "suo", "798": "ves", "799": "dol", "800": "muc", "801": "ger", "802": "gam", "803": "gim", "804": "lap", "805": "put", "806": "ria", "807": "mem", "808": "sus", "809": "nel", "810": "mie", "811": "luc", "812": "cie", "813": "nes", "814": "sto", "815": "biz", "816": "ver", "817": "fen", "818": "coz", "819": "dra", "820": "gua", "821": "sga", "822": "rup", "823": "sat", "824": "cat", "825": "plo", "826": "cad", "827": "per", "828": "tis", "829": "ret", "830": "bal", "831": "cop", "832": "scu", "833": "bun", "834": "puz", "835": "tir", "836": "zar", "837": "tru", "838": "gur", "839": "sna", "840": "goz", "841": "qu\u00ef", "842": "ges", "843": "zuf", "844": "sam", "845": "pol", "846": "vem", "847": "che", "848": "lea", "849": "dov", "850": "raf", "851": "pot", "852": "seg", "853": "mac", "854": "soz", "855": "noc", "856": "iat", "857": "sno", "858": "sel", "859": "tin", "860": "mat", "861": "pro", "862": "mic", "863": "rem", "864": "sun", "865": "buo", "866": "dur", "867": "bat", "868": "sci", "869": "fol", "870": "noz", "871": "lai", "872": "cil", "873": "pas", "874": "res", "875": "lip", "876": "val", "877": "teg", "878": "vag", "879": "fio", "880": "nal", "881": "sez", "882": "sep", "883": "cep", "884": "tun", "885": "cum", "886": "tec", "887": "vuo", "888": "rec", "889": "t\u00f2r", "890": "spo", "891": "clu", "892": "sap", "893": "neb", "894": "fia", "895": "ch\u00ec", "896": "dec", "897": "br\u00ef", "898": "spa", "899": "suc", "900": "lom", "901": "cac", "902": "laz", "903": "pio", "904": "nom", "905": "bli", "906": "sar", "907": "sos", "908": "tra", "909": "dug", "910": "tle", "911": "com", "912": "sab", "913": "tel", "914": "nol", "915": "fin", "916": "sov", "917": "vom", "918": "non", "919": "mas", "920": "f\u00e9l", "921": "tez", "922": "vat", "923": "gui", "924": "rir", "925": "bef", "926": "gom", "927": "mir", "928": "fas", "929": "tam", "930": "rom", "931": "sum", "932": "sma", "933": "gra", "934": "pel", "935": "sis", "936": "die", "937": "lup", "938": "dub", "939": "mul", "940": "sup", "941": "vie", "942": "fon", "943": "sof", "944": "den", "945": "rez", "946": "not", "947": "dem", "948": "mag", "949": "vac", "950": "paz", "951": "gen", "952": "fle", "953": "dea", "954": "rin", "955": "cuc", "956": "roz", "957": "bug", "958": "gau", "959": "bra", "960": "te o", "961": "quar", "962": "pier", "963": "me a", "964": "pien", "965": "cher", "966": "v\u2019 o", "967": "za u", "968": "guit", "969": "me o", "970": "de e", "971": "giug", "972": "ge o", "973": "sfan", "974": "s\u2019 a", "975": "quel", "976": "fa i", "977": "cioc", "978": "ro u", "979": "spez", "980": "stil", "981": "piat", "982": "trie", "983": "di o", "984": "ci o", "985": "sneb", "986": "broc", "987": "guan", "988": "ne o", "989": "ca o", "990": "spre", "991": "fret", "992": "gias", "993": "trag", "994": "trar", "995": "to o", "996": "se o", "997": "de i", "998": "ga e", "999": "do i", "1000": "sdru", "1001": "po o", "1002": "stro", "1003": "nian", "1004": "sa a", "1005": "scov", "1006": "ra e", "1007": "vi e", "1008": "brie", "1009": "ni u", "1010": "scri", "1011": "d\u2019 \u00eb", "1012": "stem", "1013": "scot", "1014": "sman", "1015": "qual", "1016": "plau", "1017": "dien", "1018": "ti i", "1019": "grem", "1020": "flet", "1021": "puos", "1022": "sbra", "1023": "squa", "1024": "ca e", "1025": "guaz", "1026": "fiam", "1027": "bias", "1028": "mi u", "1029": "de a", "1030": "go a", "1031": "troc", "1032": "gnor", "1033": "proc", "1034": "si e", "1035": "scuf", "1036": "la i", "1037": "so o", "1038": "greg", "1039": "li \u2019", "1040": "chet", "1041": "ma a", "1042": "scel", "1043": "s\u2019 e", "1044": "a es", "1045": "mian", "1046": "spic", "1047": "se i", "1048": "mo a", "1049": "stam", "1050": "scer", "1051": "flig", "1052": "li o", "1053": "tu i", "1054": "ca u", "1055": "d\u2019 \u00ef", "1056": "lo a", "1057": "ghio", "1058": "m\u2019 a", "1059": "to e", "1060": "c\u2019 e", "1061": "smen", "1062": "ze e", "1063": "no u", "1064": "grez", "1065": "bo e", "1066": "l\u2019 a", "1067": "guet", "1068": "giun", "1069": "gnon", "1070": "za a", "1071": "chio", "1072": "da e", "1073": "re i", "1074": "te u", "1075": "ma u", "1076": "da i", "1077": "spor", "1078": "smal", "1079": "trac", "1080": "stav", "1081": "se u", "1082": "drap", "1083": "grat", "1084": "guar", "1085": "crol", "1086": "da o", "1087": "la e", "1088": "stal", "1089": "scor", "1090": "quat", "1091": "liev", "1092": "va o", "1093": "glet", "1094": "pruo", "1095": "cras", "1096": "sver", "1097": "star", "1098": "di a", "1099": "brot", "1100": "dria", "1101": "po e", "1102": "stuo", "1103": "treb", "1104": "de o", "1105": "graf", "1106": "v\u2019 e", "1107": "be o", "1108": "scic", "1109": "viem", "1110": "smon", "1111": "m\u2019 i", "1112": "brac", "1113": "dian", "1114": "pran", "1115": "ciot", "1116": "te e", "1117": "sten", "1118": "gual", "1119": "bran", "1120": "no o", "1121": "go e", "1122": "stop", "1123": "o al", "1124": "io u", "1125": "giam", "1126": "smar", "1127": "ri e", "1128": "te i", "1129": "ghes", "1130": "le i", "1131": "smor", "1132": "giot", "1133": "ciuo", "1134": "gnie", "1135": "to a", "1136": "pian", "1137": "brug", "1138": "zo a", "1139": "zi u", "1140": "gnel", "1141": "smoz", "1142": "spar", "1143": "gner", "1144": "bion", "1145": "giuo", "1146": "ghel", "1147": "ghir", "1148": "ti u", "1149": "sfin", "1150": "lo e", "1151": "ma e", "1152": "sfor", "1153": "stuc", "1154": "guel", "1155": "va e", "1156": "creb", "1157": "scoc", "1158": "l\u2019 o", "1159": "piov", "1160": "li a", "1161": "sa e", "1162": "to i", "1163": "grop", "1164": "po u", "1165": "stel", "1166": "guiz", "1167": "stio", "1168": "ze o", "1169": "si i", "1170": "puol", "1171": "re a", "1172": "ro i", "1173": "sbar", "1174": "tron", "1175": "ro o", "1176": "pa e", "1177": "glia", "1178": "giac", "1179": "\u00e8 on", "1180": "ro a", "1181": "sa o", "1182": "s\u00ec i", "1183": "o av", "1184": "scim", "1185": "prir", "1186": "ghet", "1187": "chiu", "1188": "gnem", "1189": "lev\u00e4", "1190": "stor", "1191": "fior", "1192": "slac", "1193": "guir", "1194": "stia", "1195": "z\u2019 a", "1196": "me u", "1197": "scuo", "1198": "io e", "1199": "spia", "1200": "scir", "1201": "sfio", "1202": "ghie", "1203": "grap", "1204": "bren", "1205": "schi", "1206": "n\u2019 a", "1207": "quen", "1208": "chis", "1209": "sgan", "1210": "ziar", "1211": "ci u", "1212": "ghia", "1213": "va a", "1214": "l\u2019 i", "1215": "sgri", "1216": "crea", "1217": "do o", "1218": "sden", "1219": "fran", "1220": "fron", "1221": "\u00e8 in", "1222": "snel", "1223": "li e", "1224": "ce e", "1225": "gial", "1226": "do e", "1227": "frut", "1228": "l\u00ec a", "1229": "bo a", "1230": "va u", "1231": "se a", "1232": "vi a", "1233": "quis", "1234": "buon", "1235": "vuol", "1236": "li u", "1237": "di i", "1238": "stec", "1239": "gram", "1240": "scin", "1241": "spuo", "1242": "guer", "1243": "spaz", "1244": "stig", "1245": "ta o", "1246": "na a", "1247": "guil", "1248": "scan", "1249": "egyp", "1250": "ghez", "1251": "scie", "1252": "spro", "1253": "pric", "1254": "d\u2019 u", "1255": "co u", "1256": "da a", "1257": "bian", "1258": "sfar", "1259": "de u", "1260": "n\u2019 u", "1261": "ster", "1262": "ne u", "1263": "pi a", "1264": "co a", "1265": "sfer", "1266": "le e", "1267": "stet", "1268": "sban", "1269": "trom", "1270": "zi o", "1271": "spol", "1272": "pros", "1273": "ni e", "1274": "m\u2019 e", "1275": "di u", "1276": "a am", "1277": "gi e", "1278": "guic", "1279": "scab", "1280": "gien", "1281": "clau", "1282": "ma o", "1283": "drit", "1284": "lo o", "1285": "re o", "1286": "a ef", "1287": "clis", "1288": "ra a", "1289": "scos", "1290": "p\u2019 e", "1291": "io a", "1292": "blan", "1293": "scol", "1294": "ti o", "1295": "sber", "1296": "stin", "1297": "mi o", "1298": "te a", "1299": "spin", "1300": "l\u2019 u", "1301": "trul", "1302": "ge a", "1303": "z\u2019 i", "1304": "scop", "1305": "scac", "1306": "bron", "1307": "fred", "1308": "piog", "1309": "trat", "1310": "na o", "1311": "n\u2019 o", "1312": "la o", "1313": "scia", "1314": "gron", "1315": "cheg", "1316": "piag", "1317": "tran", "1318": "dran", "1319": "t\u2019 o", "1320": "pi i", "1321": "be i", "1322": "guag", "1323": "no a", "1324": "pres", "1325": "tier", "1326": "ciel", "1327": "ples", "1328": "tras", "1329": "quer", "1330": "prin", "1331": "gher", "1332": "gian", "1333": "vi o", "1334": "fiac", "1335": "ti e", "1336": "fles", "1337": "la u", "1338": "chez", "1339": "scio", "1340": "m\u2019 o", "1341": "sciu", "1342": "va i", "1343": "quil", "1344": "pe e", "1345": "ce a", "1346": "se \u00eb", "1347": "sche", "1348": "le u", "1349": "sa u", "1350": "t\u2019 e", "1351": "tiem", "1352": "lo u", "1353": "spon", "1354": "scom", "1355": "stiz", "1356": "ciap", "1357": "gheg", "1358": "brol", "1359": "t\u2019 a", "1360": "o ar", "1361": "spes", "1362": "d\u2019 e", "1363": "le o", "1364": "glau", "1365": "zi e", "1366": "ta e", "1367": "tram", "1368": "za i", "1369": "ciom", "1370": "span", "1371": "spen", "1372": "be a", "1373": "l\u2019 e", "1374": "scro", "1375": "chil", "1376": "tren", "1377": "cruc", "1378": "gros", "1379": "stul", "1380": "scev", "1381": "so e", "1382": "sgra", "1383": "bris", "1384": "cien", "1385": "sfam", "1386": "str\u00e0", "1387": "s\u00ec a", "1388": "e \u2019n", "1389": "ce o", "1390": "r\u2019 o", "1391": "za o", "1392": "squi", "1393": "pa u", "1394": "r\u00ec u", "1395": "d\u2019 a", "1396": "sbri", "1397": "spec", "1398": "c\u2019 \u00ef", "1399": "fioc", "1400": "mo e", "1401": "mo u", "1402": "stie", "1403": "no i", "1404": "bi a", "1405": "cric", "1406": "me i", "1407": "sgor", "1408": "scal", "1409": "ie a", "1410": "di e", "1411": "d\u2019 i", "1412": "scon", "1413": "spir", "1414": "spie", "1415": "a in", "1416": "ra o", "1417": "so i", "1418": "dhae", "1419": "fiot", "1420": "so u", "1421": "gi u", "1422": "stol", "1423": "scam", "1424": "z\u2019 o", "1425": "c\u2019 o", "1426": "re e", "1427": "pron", "1428": "giar", "1429": "cias", "1430": "clas", "1431": "biac", "1432": "ro e", "1433": "ga o", "1434": "ci e", "1435": "brez", "1436": "sgom", "1437": "ve a", "1438": "ni o", "1439": "g\u2019 \u00ef", "1440": "si u", "1441": "r\u2019 u", "1442": "cion", "1443": "sfat", "1444": "v\u2019 a", "1445": "do a", "1446": "scen", "1447": "ce u", "1448": "ne e", "1449": "re u", "1450": "na i", "1451": "prez", "1452": "s\u2019 \u00ef", "1453": "be u", "1454": "gnar", "1455": "l\u00ec e", "1456": "driz", "1457": "stas", "1458": "sfac", "1459": "pe i", "1460": "bo i", "1461": "stri", "1462": "s\u2019 o", "1463": "ra i", "1464": "ve u", "1465": "gnen", "1466": "svel", "1467": "gnas", "1468": "gras", "1469": "ciar", "1470": "vo o", "1471": "scar", "1472": "me e", "1473": "cian", "1474": "to u", "1475": "dies", "1476": "mi e", "1477": "tu e", "1478": "guen", "1479": "scre", "1480": "trec", "1481": "ca a", "1482": "gres", "1483": "ni a", "1484": "le a", "1485": "trot", "1486": "spit", "1487": "glio", "1488": "scaz", "1489": "pria", "1490": "grot", "1491": "biet", "1492": "truo", "1493": "zo e", "1494": "plan", "1495": "guef", "1496": "puom", "1497": "stra", "1498": "brul", "1499": "spal", "1500": "spel", "1501": "gnaz", "1502": "e in", "1503": "co e", "1504": "dier", "1505": "co o", "1506": "na e", "1507": "be e", "1508": "si o", "1509": "trop", "1510": "quin", "1511": "s\u2019 u", "1512": "mo o", "1513": "piac", "1514": "se e", "1515": "po a", "1516": "flit", "1517": "ne a", "1518": "d\u2019 o", "1519": "gnuo", "1520": "scet", "1521": "vien", "1522": "zian", "1523": "brut", "1524": "a ac", "1525": "scem", "1526": "ve i", "1527": "la a", "1528": "quan", "1529": "do u", "1530": "glie", "1531": "chie", "1532": "pi e", "1533": "piom", "1534": "stre", "1535": "trap", "1536": "fian", "1537": "piez", "1538": "gran", "1539": "no e", "1540": "ci a", "1541": "sdet", "1542": "si a", "1543": "tien", "1544": "spet", "1545": "gioi", "1546": "gnan", "1547": "sper", "1548": "dram", "1549": "da u", "1550": "tu a", "1551": "ciul", "1552": "ciac", "1553": "ta a", "1554": "grie", "1555": "grom", "1556": "chia", "1557": "stru", "1558": "pren", "1559": "pris", "1560": "na u", "1561": "frat", "1562": "ce i", "1563": "m\u00e8 a", "1564": "sven", "1565": "a al", "1566": "stes", "1567": "sfre", "1568": "ti a", "1569": "prie", "1570": "stan", "1571": "ta i", "1572": "mo i", "1573": "stis", "1574": "l\u2019 \u00f2", "1575": "ciuf", "1576": "s\u2019 i", "1577": "ta u", "1578": "grep", "1579": "\u00e8 im", "1580": "gior", "1581": "t\u2019 u", "1582": "spun", "1583": "s\u00ec o", "1584": "tret", "1585": "scis", "1586": "ghil", "1587": "s\u00ec u", "1588": "ri u", "1589": "n\u2019 e", "1590": "ra u", "1591": "so a", "1592": "tror", "1593": "dras", "1594": "so en", "1595": "mo in", "1596": "ta ad", "1597": "n\u2019 ac", "1598": "lo \u2019m", "1599": "de ac", "1600": "d\u2019 ol", "1601": "di ad", "1602": "ci av", "1603": "ro eb", "1604": "sco u", "1605": "va at", "1606": "si in", "1607": "do on", "1608": "l\u2019 ov", "1609": "schet", "1610": "s\u2019 af", "1611": "ne ar", "1612": "te im", "1613": "bo on", "1614": "fo im", "1615": "na in", "1616": "za am", "1617": "mi ef", "1618": "ra at", "1619": "ti of", "1620": "t\u2019 at", "1621": "to im", "1622": "ra ab", "1623": "mo ar", "1624": "li af", "1625": "l\u2019 ab", "1626": "ni as", "1627": "tro u", "1628": "s\u2019 ab", "1629": "so \u2019n", "1630": "qu\u2019 o", "1631": "s\u2019 im", "1632": "ri ap", "1633": "to es", "1634": "scrip", "1635": "ro am", "1636": "po an", "1637": "fu in", "1638": "gliel", "1639": "la es", "1640": "re in", "1641": "ra as", "1642": "ma \u2019n", "1643": "l\u2019 ef", "1644": "\u2019v\u2019 u", "1645": "ri on", "1646": "ch\u2019 \u00ef", "1647": "na ar", "1648": "do al", "1649": "stren", "1650": "me al", "1651": "ti \u2019n", "1652": "t\u2019 em", "1653": "so al", "1654": "l\u2019 im", "1655": "che u", "1656": "te al", "1657": "ta in", "1658": "de er", "1659": "l\u2019 av", "1660": "ta un", "1661": "ta om", "1662": "to an", "1663": "to ol", "1664": "vi ar", "1665": "ne al", "1666": "r\u2019 an", "1667": "n\u2019 on", "1668": "m\u2019 an", "1669": "si an", "1670": "pa es", "1671": "qu\u2019 e", "1672": "la of", "1673": "li ad", "1674": "bo av", "1675": "l\u2019 os", "1676": "si or", "1677": "glian", "1678": "si im", "1679": "me ef", "1680": "lo im", "1681": "de as", "1682": "d\u2019 of", "1683": "vo al", "1684": "zi \u2019m", "1685": "ne af", "1686": "s\u2019 em", "1687": "no er", "1688": "l\u2019 am", "1689": "lo ac", "1690": "to in", "1691": "s\u2019 of", "1692": "fo et", "1693": "go in", "1694": "strug", "1695": "mi am", "1696": "so ar", "1697": "ba un", "1698": "ma ac", "1699": "n\u2019 om", "1700": "vo ac", "1701": "re ap", "1702": "pie e", "1703": "chiet", "1704": "n\u2019 er", "1705": "de \u2019n", "1706": "ce al", "1707": "se es", "1708": "ze et", "1709": "gliet", "1710": "me in", "1711": "va eb", "1712": "ta as", "1713": "ia an", "1714": "stroz", "1715": "ra of", "1716": "schem", "1717": "ci \u2019n", "1718": "le or", "1719": "zia e", "1720": "di av", "1721": "v\u2019 am", "1722": "t\u2019 im", "1723": "to uc", "1724": "so an", "1725": "gno a", "1726": "re em", "1727": "l\u2019 es", "1728": "io al", "1729": "lo af", "1730": "te ac", "1731": "strin", "1732": "t\u2019 al", "1733": "chiar", "1734": "si \u2019n", "1735": "d\u2019 ar", "1736": "no in", "1737": "za et", "1738": "le as", "1739": "di og", "1740": "m\u2019 es", "1741": "pi in", "1742": "te on", "1743": "n\u2019 au", "1744": "lo in", "1745": "gliuo", "1746": "ta ar", "1747": "no ag", "1748": "lo er", "1749": "stram", "1750": "re im", "1751": "l\u2019 em", "1752": "ci ap", "1753": "za \u2019n", "1754": "d\u2019 in", "1755": "ci ar", "1756": "di uo", "1757": "tri a", "1758": "cu\u2019 i", "1759": "le at", "1760": "vi an", "1761": "splen", "1762": "l\u2019 un", "1763": "t\u2019 in", "1764": "ta am", "1765": "l\u2019 ec", "1766": "do im", "1767": "mi an", "1768": "ze or", "1769": "ci at", "1770": "re oc", "1771": "no ar", "1772": "ve al", "1773": "ma in", "1774": "m\u2019 ol", "1775": "te er", "1776": "za an", "1777": "si of", "1778": "ahi a", "1779": "t\u2019 el", "1780": "do am", "1781": "glies", "1782": "co et", "1783": "mi ap", "1784": "d\u2019 or", "1785": "sa es", "1786": "fu im", "1787": "ne ov", "1788": "zio u", "1789": "co er", "1790": "di ab", "1791": "si ar", "1792": "st\u2019 u", "1793": "sa og", "1794": "di in", "1795": "v\u2019 ap", "1796": "chiap", "1797": "l\u2019 el", "1798": "l\u2019 in", "1799": "mi ad", "1800": "no ab", "1801": "le an", "1802": "chian", "1803": "tu ha", "1804": "tro a", "1805": "co ap", "1806": "lo as", "1807": "me at", "1808": "dio a", "1809": "dio e", "1810": "sciar", "1811": "d\u2019 om", "1812": "ti en", "1813": "na af", "1814": "zi as", "1815": "le ol", "1816": "ni on", "1817": "na at", "1818": "di or", "1819": "te at", "1820": "ta es", "1821": "ro ab", "1822": "m\u2019 of", "1823": "so ab", "1824": "sto o", "1825": "sguar", "1826": "re ar", "1827": "la \u2019m", "1828": "n\u2019 at", "1829": "ne ac", "1830": "de af", "1831": "li oc", "1832": "si en", "1833": "vo an", "1834": "vo au", "1835": "m\u2019 in", "1836": "d\u2019 es", "1837": "to ag", "1838": "ni es", "1839": "zia o", "1840": "v\u2019 in", "1841": "ci am", "1842": "lo al", "1843": "scheg", "1844": "gia e", "1845": "so am", "1846": "l\u2019 ol", "1847": "to as", "1848": "le ar", "1849": "rio a", "1850": "v\u2019 er", "1851": "strom", "1852": "re il", "1853": "li et", "1854": "ze es", "1855": "ro ac", "1856": "ro um", "1857": "fu av", "1858": "di ol", "1859": "va al", "1860": "sa ap", "1861": "te os", "1862": "chi u", "1863": "ta ac", "1864": "mo at", "1865": "be av", "1866": "to of", "1867": "de an", "1868": "mi ac", "1869": "ch\u2019 a", "1870": "v\u2019 eb", "1871": "ti im", "1872": "ra ot", "1873": "cia a", "1874": "tro i", "1875": "l\u2019 er", "1876": "ro an", "1877": "d\u2019 et", "1878": "l\u2019 au", "1879": "d\u2019 im", "1880": "zio e", "1881": "ch\u2019 u", "1882": "do oc", "1883": "fu al", "1884": "si er", "1885": "le uc", "1886": "mo ol", "1887": "me ar", "1888": "do or", "1889": "schie", "1890": "cio e", "1891": "di of", "1892": "tra i", "1893": "mo or", "1894": "ci an", "1895": "le on", "1896": "li ar", "1897": "s\u2019 in", "1898": "ni an", "1899": "li im", "1900": "lo ef", "1901": "re et", "1902": "s\u2019 os", "1903": "ra et", "1904": "z\u2019 es", "1905": "d\u2019 at", "1906": "sti o", "1907": "d\u2019 ot", "1908": "lo es", "1909": "la au", "1910": "ro oc", "1911": "li uo", "1912": "m\u2019 ad", "1913": "fu oc", "1914": "ve es", "1915": "di ac", "1916": "me as", "1917": "tro e", "1918": "ne on", "1919": "se an", "1920": "d\u2019 ac", "1921": "no ad", "1922": "re al", "1923": "re af", "1924": "re ac", "1925": "mio a", "1926": "ca er", "1927": "pi ap", "1928": "t\u00e0 in", "1929": "ti at", "1930": "m\u2019 ap", "1931": "l\u2019 eb", "1932": "ve oc", "1933": "ci as", "1934": "d\u2019 eu", "1935": "di an", "1936": "m\u2019 om", "1937": "tr\u2019 e", "1938": "la al", "1939": "se in", "1940": "no au", "1941": "te of", "1942": "stret", "1943": "bre o", "1944": "l\u2019 as", "1945": "la ap", "1946": "s\u2019 am", "1947": "t\u00e8 an", "1948": "de on", "1949": "za im", "1950": "ce as", "1951": "di es", "1952": "ma an", "1953": "se ac", "1954": "te ol", "1955": "si \u2019m", "1956": "l\u00ec en", "1957": "sgher", "1958": "ta eu", "1959": "se ol", "1960": "n\u2019 av", "1961": "cro a", "1962": "ta on", "1963": "to eb", "1964": "ta of", "1965": "de al", "1966": "cia e", "1967": "sa an", "1968": "t\u2019 af", "1969": "re au", "1970": "sto a", "1971": "scias", "1972": "ve an", "1973": "te ag", "1974": "ti in", "1975": "m\u2019 af", "1976": "d\u2019 am", "1977": "p\u00e8 al", "1978": "tu en", "1979": "ce ne", "1980": "s\u2019 en", "1981": "lo av", "1982": "vi av", "1983": "tr\u2019 a", "1984": "me ac", "1985": "na ab", "1986": "li on", "1987": "lo on", "1988": "v\u2019 el", "1989": "l\u2019 af", "1990": "l\u2019 ul", "1991": "zo as", "1992": "so eb", "1993": "ce ar", "1994": "s\u2019 ag", "1995": "bra a", "1996": "ta et", "1997": "squar", "1998": "ne in", "1999": "se ap", "2000": "re ol", "2001": "chi e", "2002": "t\u2019 am", "2003": "co ad", "2004": "si og", "2005": "ba in", "2006": "re as", "2007": "zo ar", "2008": "do ar", "2009": "l\u2019 al", "2010": "scial", "2011": "la av", "2012": "ra an", "2013": "ca en", "2014": "na ac", "2015": "n\u2019 am", "2016": "ca an", "2017": "li ac", "2018": "gliam", "2019": "si el", "2020": "bra u", "2021": "mo af", "2022": "li av", "2023": "t\u2019 av", "2024": "n\u2019 ap", "2025": "s\u2019 ap", "2026": "ne et", "2027": "v\u2019 es", "2028": "s\u2019 et", "2029": "ne \u2019m", "2030": "to ab", "2031": "mo eb", "2032": "ce es", "2033": "to af", "2034": "to et", "2035": "d\u2019 er", "2036": "te ad", "2037": "ci in", "2038": "de am", "2039": "ne as", "2040": "no im", "2041": "ce in", "2042": "sgrie", "2043": "me am", "2044": "me on", "2045": "se af", "2046": "ro on", "2047": "dio i", "2048": "n\u2019 uo", "2049": "no an", "2050": "l\u2019 ag", "2051": "le av", "2052": "n\u2019 eb", "2053": "vi en", "2054": "mo al", "2055": "to oc", "2056": "v\u2019 of", "2057": "vea u", "2058": "l\u2019 uo", "2059": "zi al", "2060": "n\u2019 ag", "2061": "streg", "2062": "sti a", "2063": "ra ac", "2064": "ri al", "2065": "zo an", "2066": "ce af", "2067": "lo of", "2068": "tra e", "2069": "na \u2019n", "2070": "go al", "2071": "do ap", "2072": "li \u2019m", "2073": "fu of", "2074": "ra al", "2075": "dea u", "2076": "m\u2019 ab", "2077": "mo of", "2078": "za er", "2079": "li am", "2080": "te \u2019n", "2081": "gia o", "2082": "zi ap", "2083": "chiun", "2084": "l\u2019 et", "2085": "m\u2019 al", "2086": "d\u2019 en", "2087": "strac", "2088": "so es", "2089": "be al", "2090": "chi a", "2091": "to or", "2092": "be on", "2093": "m\u2019 av", "2094": "so on", "2095": "strar", "2096": "lo at", "2097": "s\u00ec \u2019m", "2098": "ri in", "2099": "lo eb", "2100": "me au", "2101": "si uo", "2102": "ne em", "2103": "zie o", "2104": "sci\u00e0n", "2105": "tra a", "2106": "to ov", "2107": "scian", "2108": "no am", "2109": "la ol", "2110": "re om", "2111": "ria \u00f2", "2112": "scioc", "2113": "no as", "2114": "che e", "2115": "d\u2019 ur", "2116": "ve ap", "2117": "li an", "2118": "pa in", "2119": "mo on", "2120": "te au", "2121": "li of", "2122": "ne ap", "2123": "schia", "2124": "la on", "2125": "s\u2019 av", "2126": "ger e", "2127": "do el", "2128": "n\u2019 in", "2129": "m\u2019 at", "2130": "le es", "2131": "ne im", "2132": "go es", "2133": "v\u2019 an", "2134": "ro of", "2135": "che o", "2136": "ma of", "2137": "ta ab", "2138": "be as", "2139": "li ab", "2140": "d\u2019 el", "2141": "ra am", "2142": "d\u2019 ap", "2143": "ne \u2019n", "2144": "ca on", "2145": "pi or", "2146": "s\u2019 al", "2147": "fe et", "2148": "m\u2019 as", "2149": "s\u2019 op", "2150": "si ol", "2151": "l\u2019 oc", "2152": "zi ag", "2153": "v\u2019 et", "2154": "scris", "2155": "no ec", "2156": "co av", "2157": "re es", "2158": "ra in", "2159": "si ad", "2160": "ga an", "2161": "s\u2019 es", "2162": "ghiot", "2163": "te as", "2164": "pra a", "2165": "za in", "2166": "ch\u2019 o", "2167": "se al", "2168": "ti as", "2169": "sta i", "2170": "t\u2019 an", "2171": "so of", "2172": "stran", "2173": "l\u2019 um", "2174": "gno u", "2175": "chias", "2176": "ti an", "2177": "ghiac", "2178": "l\u2019 of", "2179": "te in", "2180": "li es", "2181": "leo e", "2182": "to al", "2183": "z\u00f2 in", "2184": "ce eu", "2185": "s\u00ec in", "2186": "ta an", "2187": "co on", "2188": "s\u2019 ad", "2189": "fa az", "2190": "li in", "2191": "re at", "2192": "dio o", "2193": "ma al", "2194": "co in", "2195": "ga in", "2196": "be ar", "2197": "le oc", "2198": "si ac", "2199": "na es", "2200": "s\u2019 el", "2201": "d\u2019 al", "2202": "vi of", "2203": "spraz", "2204": "vo at", "2205": "lo ar", "2206": "do er", "2207": "stras", "2208": "r\u2019 al", "2209": "s\u2019 eb", "2210": "ch\u2019 e", "2211": "do es", "2212": "ce an", "2213": "schio", "2214": "c\u2019 im", "2215": "hi om", "2216": "\u2019v\u2019 e", "2217": "sa im", "2218": "li eb", "2219": "n\u2019 al", "2220": "vi in", "2221": "ta el", "2222": "da an", "2223": "m\u2019 ag", "2224": "n\u2019 an", "2225": "la en", "2226": "le \u2019n", "2227": "cea u", "2228": "ni en", "2229": "pre a", "2230": "se as", "2231": "bo al", "2232": "smo a", "2233": "me an", "2234": "t\u2019 or", "2235": "so ap", "2236": "te em", "2237": "gni e", "2238": "r\u2019 es", "2239": "ni ap", "2240": "li om", "2241": "ni av", "2242": "so at", "2243": "spiac", "2244": "mo es", "2245": "sbe a", "2246": "di om", "2247": "d\u2019 az", "2248": "ci af", "2249": "ro or", "2250": "ra on", "2251": "ra el", "2252": "te ap", "2253": "v\u2019 ab", "2254": "va \u2019n", "2255": "se\u2019 a", "2256": "do as", "2257": "zo in", "2258": "te is", "2259": "co eb", "2260": "va an", "2261": "t\u2019 ac", "2262": "ci ad", "2263": "r\u2019 el", "2264": "sciol", "2265": "za on", "2266": "dre e", "2267": "si as", "2268": "sta e", "2269": "li or", "2270": "cia o", "2271": "sciam", "2272": "ra eb", "2273": "ne an", "2274": "ro ap", "2275": "sciau", "2276": "se un", "2277": "t\u2019 ap", "2278": "po ar", "2279": "ni al", "2280": "cio a", "2281": "le in", "2282": "ne es", "2283": "ghien", "2284": "me of", "2285": "no af", "2286": "stric", "2287": "to av", "2288": "vi \u2019m", "2289": "so in", "2290": "ce at", "2291": "zi at", "2292": "s\u2019 er", "2293": "schic", "2294": "le ad", "2295": "sto e", "2296": "le al", "2297": "na of", "2298": "d\u2019 eb", "2299": "ma on", "2300": "mo ac", "2301": "do an", "2302": "ra uc", "2303": "v\u2019 ar", "2304": "po in", "2305": "ra ap", "2306": "la an", "2307": "de om", "2308": "que o", "2309": "do ol", "2310": "so ad", "2311": "ta at", "2312": "no ap", "2313": "ri ac", "2314": "bi al", "2315": "li ag", "2316": "re am", "2317": "za al", "2318": "mi \u2019n", "2319": "di af", "2320": "si av", "2321": "l\u2019 en", "2322": "l\u2019 ot", "2323": "lo il", "2324": "l\u2019 ac", "2325": "ra im", "2326": "tro o", "2327": "di al", "2328": "m\u2019 ar", "2329": "to ap", "2330": "l\u2019 uc", "2331": "ro es", "2332": "l\u2019 an", "2333": "d\u2019 on", "2334": "re ag", "2335": "no et", "2336": "ma ap", "2337": "de of", "2338": "ha al", "2339": "ci al", "2340": "re on", "2341": "gne u", "2342": "gi\u00e0 e", "2343": "ce av", "2344": "ge an", "2345": "no al", "2346": "ra es", "2347": "zio a", "2348": "di az", "2349": "l\u2019 om", "2350": "t\u2019 ab", "2351": "ta im", "2352": "li \u2019n", "2353": "gli u", "2354": "va in", "2355": "ro av", "2356": "ve ar", "2357": "po al", "2358": "re ot", "2359": "suo a", "2360": "n\u2019 ab", "2361": "gne o", "2362": "vo as", "2363": "ti al", "2364": "schiu", "2365": "d\u2019 og", "2366": "li al", "2367": "do in", "2368": "li at", "2369": "va ar", "2370": "ghian", "2371": "le \u2019m", "2372": "s\u2019 ac", "2373": "se \u2019n", "2374": "li au", "2375": "te om", "2376": "s\u00ec \u2019n", "2377": "di im", "2378": "no es", "2379": "ta op", "2380": "no \u2019n", "2381": "spres", "2382": "squil", "2383": "l\u2019 ad", "2384": "ste a", "2385": "te or", "2386": "li as", "2387": "li er", "2388": "te ar", "2389": "s\u2019 as", "2390": "to ar", "2391": "vi am", "2392": "me el", "2393": "z\u2019 ar", "2394": "t\u2019 as", "2395": "strel", "2396": "de ap", "2397": "co ar", "2398": "ia al", "2399": "po on", "2400": "ra ad", "2401": "va im", "2402": "l\u2019 at", "2403": "ha \u2019n", "2404": "co al", "2405": "ro au", "2406": "pre e", "2407": "ne ag", "2408": "na eb", "2409": "do af", "2410": "ga as", "2411": "tri o", "2412": "sta a", "2413": "fu ap", "2414": "z\u2019 al", "2415": "te en", "2416": "chioc", "2417": "mi al", "2418": "ri an", "2419": "ti et", "2420": "to ad", "2421": "sa on", "2422": "lia a", "2423": "ce et", "2424": "ti or", "2425": "m\u2019 im", "2426": "sa in", "2427": "stroc", "2428": "ra ec", "2429": "ro in", "2430": "de ag", "2431": "le of", "2432": "ma or", "2433": "sco o", "2434": "d\u2019 an", "2435": "b\u2019 es", "2436": "ti \u2019m", "2437": "ch\u2019 i", "2438": "de ar", "2439": "m\u2019 ac", "2440": "sgiun", "2441": "ni in", "2442": "sciut", "2443": "ro ar", "2444": "ti ad", "2445": "se at", "2446": "to ac", "2447": "vi as", "2448": "l\u2019 ae", "2449": "da in", "2450": "bi et", "2451": "st\u2019 o", "2452": "ci or", "2453": "che a", "2454": "mo ec", "2455": "scrit", "2456": "gi ar", "2457": "t\u2019 om", "2458": "tra u", "2459": "d\u2019 au", "2460": "fu el", "2461": "l\u2019 on", "2462": "b\u00ec al", "2463": "de in", "2464": "ce ac", "2465": "ca in", "2466": "lo an", "2467": "te ab", "2468": "re eb", "2469": "li em", "2470": "le ap", "2471": "po av", "2472": "que u", "2473": "fa ir", "2474": "ne av", "2475": "v\u2019 al", "2476": "n\u2019 ar", "2477": "me ap", "2478": "qua e", "2479": "to ec", "2480": "co at", "2481": "de or", "2482": "co an", "2483": "le am", "2484": "li un", "2485": "strat", "2486": "ti ar", "2487": "sta u", "2488": "se op", "2489": "sciom", "2490": "ra av", "2491": "re ab", "2492": "li ul", "2493": "s\u2019 ar", "2494": "t\u2019 ag", "2495": "na ap", "2496": "l\u2019 \u00e0n", "2497": "ro al", "2498": "ri ar", "2499": "ro as", "2500": "de eu", "2501": "le id", "2502": "ve at", "2503": "te iu", "2504": "vi al", "2505": "ce on", "2506": "m\u2019 eb", "2507": "scran", "2508": "to ef", "2509": "va id", "2510": "ma es", "2511": "no at", "2512": "te an", "2513": "li ap", "2514": "ti am", "2515": "pr\u2019 e", "2516": "no av", "2517": "se on", "2518": "la or", "2519": "bra e", "2520": "la el", "2521": "ste i", "2522": "di on", "2523": "ta al", "2524": "tri e", "2525": "na av", "2526": "d\u2019 oc", "2527": "ge un", "2528": "ti ac", "2529": "to on", "2530": "vi on", "2531": "l\u2019 op", "2532": "tio i", "2533": "lo \u2019n", "2534": "la \u2019n", "2535": "so as", "2536": "mi in", "2537": "ro at", "2538": "to at", "2539": "so et", "2540": "na on", "2541": "ti oc", "2542": "d\u2019 os", "2543": "chi o", "2544": "l\u2019 or", "2545": "glien", "2546": "t\u2019 es", "2547": "l\u2019 ar", "2548": "vi ac", "2549": "strut", "2550": "sta o", "2551": "mo im", "2552": "li uc", "2553": "d\u2019 ab", "2554": "mi\u2019 a", "2555": "la in", "2556": "n\u2019 ol", "2557": "ro im", "2558": "de au", "2559": "sa ac", "2560": "t\u2019 ar", "2561": "no or", "2562": "do eb", "2563": "scher", "2564": "me af", "2565": "re ad", "2566": "no om", "2567": "bre a", "2568": "d\u2019 as", "2569": "gna a", "2570": "st\u2019 a", "2571": "te af", "2572": "do ac", "2573": "l\u2019 ai", "2574": "mo an", "2575": "gliar", "2576": "do at", "2577": "re an", "2578": "si am", "2579": "triar", "2580": "ce im", "2581": "sa ol", "2582": "no ac", "2583": "si at", "2584": "s\u2019 at", "2585": "v\u2019 ac", "2586": "c\u2019 en", "2587": "ge et", "2588": "na or", "2589": "ce au", "2590": "d\u2019 af", "2591": "s\u2019 an", "2592": "gi an", "2593": "re en", "2594": "ge in", "2595": "mi er", "2596": "sce a", "2597": "sfran", "2598": "si al", "2599": "co ac", "2600": "te es", "2601": "l\u2019 ap", "2602": "ti av", "2603": "gne a", "2604": "re av", "2605": "spran", "2606": "ni am", "2607": "ch\u2019 ar", "2608": "gi\u00f2 in", "2609": "st\u2019 an", "2610": "sto on", "2611": "ch\u2019 eb", "2612": "qua of", "2613": "gne im", "2614": "dre eb", "2615": "te han", "2616": "che ha", "2617": "tra or", "2618": "do o e", "2619": "sco al", "2620": "sto ac", "2621": "gue an", "2622": "bre in", "2623": "bia an", "2624": "tro an", "2625": "bra av", "2626": "co e i", "2627": "tr\u2019 om", "2628": "sta ol", "2629": "gue or", "2630": "pi\u00f9 in", "2631": "chi ac", "2632": "stro e", "2633": "tro av", "2634": "sti in", "2635": "qua im", "2636": "str\u2019 u", "2637": "ch\u2019 en", "2638": "sto an", "2639": "cia ar", "2640": "cio an", "2641": "gia in", "2642": "pre at", "2643": "tre an", "2644": "sce as", "2645": "gia al", "2646": "dia as", "2647": "schiet", "2648": "sta in", "2649": "pio on", "2650": "ch\u2019 el", "2651": "dre an", "2652": "tra an", "2653": "bre an", "2654": "l\u2019 han", "2655": "re o u", "2656": "que al", "2657": "pre al", "2658": "gna as", "2659": "stra a", "2660": "pre ac", "2661": "gio et", "2662": "gia ar", "2663": "ti han", "2664": "cio al", "2665": "lio as", "2666": "gno ae", "2667": "ch\u2019 in", "2668": "sti on", "2669": "sto \u2019m", "2670": "nea av", "2671": "cie in", "2672": "glia a", "2673": "gh\u2019 es", "2674": "dio an", "2675": "ch\u2019 ag", "2676": "glio o", "2677": "vea \u2019m", "2678": "cia im", "2679": "qua on", "2680": "sti el", "2681": "stro u", "2682": "ch\u2019 at", "2683": "mio av", "2684": "sto at", "2685": "ber\u2019 o", "2686": "ch\u2019 ap", "2687": "qua in", "2688": "chi ar", "2689": "ne han", "2690": "cio et", "2691": "gne in", "2692": "mio \u2019n", "2693": "sce al", "2694": "tro as", "2695": "ch\u2019 am", "2696": "tro on", "2697": "pr\u2019 ar", "2698": "que es", "2699": "m\u2019 han", "2700": "schian", "2701": "tro \u2019m", "2702": "glio e", "2703": "pre ar", "2704": "ch\u2019 as", "2705": "ch\u2019 es", "2706": "sti al", "2707": "sco an", "2708": "sta og", "2709": "schiat", "2710": "lio an", "2711": "sto in", "2712": "sti an", "2713": "ch\u2019 ad", "2714": "chio a", "2715": "tri af", "2716": "gue on", "2717": "bre et", "2718": "sti es", "2719": "scio e", "2720": "mia \u2019n", "2721": "chi an", "2722": "che \u2019n", "2723": "sta on", "2724": "tri ap", "2725": "tre in", "2726": "sti or", "2727": "tri as", "2728": "lio in", "2729": "ch\u2019 al", "2730": "stra e", "2731": "chi ap", "2732": "chi am", "2733": "chi al", "2734": "ste in", "2735": "che om", "2736": "gno al", "2737": "chio u", "2738": "tre os", "2739": "n\u2019 han", "2740": "com\u2019 a", "2741": "ria in", "2742": "sce an", "2743": "sti oc", "2744": "gni an", "2745": "li han", "2746": "ch\u2019 an", "2747": "tro ab", "2748": "sta im", "2749": "sti un", "2750": "tra ef", "2751": "ste an", "2752": "tro ap", "2753": "sio in", "2754": "tr\u2019 ar", "2755": "bia in", "2756": "bra in", "2757": "ch\u2019 og", "2758": "glio u", "2759": "tri of", "2760": "zie ec", "2761": "sta ai", "2762": "tro et", "2763": "st\u2019 es", "2764": "pie or", "2765": "tro in", "2766": "ch\u2019 er", "2767": "cio ap", "2768": "dre es", "2769": "sti er", "2770": "scia e", "2771": "che an", "2772": "gio ol", "2773": "ghe on", "2774": "pre es", "2775": "tra \u2019m", "2776": "chi on", "2777": "che \u2019m", "2778": "c\u2019 han", "2779": "sce el", "2780": "sto es", "2781": "sto \u2019n", "2782": "sto ap", "2783": "tra op", "2784": "sto ar", "2785": "lia an", "2786": "t\u2019 han", "2787": "vio in", "2788": "stri o", "2789": "chio o", "2790": "gne al", "2791": "tr\u2019 am", "2792": "che in", "2793": "gio uc", "2794": "mio in", "2795": "ri han", "2796": "st\u2019 ul", "2797": "st\u2019 al", "2798": "sta an", "2799": "ch\u2019 av", "2800": "tr\u2019 al", "2801": "che ar", "2802": "sma in", "2803": "st\u2019 ac", "2804": "gne er", "2805": "pre in", "2806": "tro ar", "2807": "ria on", "2808": "tri in", "2809": "st\u2019 ot", "2810": "zia or", "2811": "gni al", "2812": "bri ap", "2813": "go han", "2814": "nio im", "2815": "tro al", "2816": "gno am", "2817": "ch\u2019 ac", "2818": "stra u", "2819": "glia u", "2820": "zia il", "2821": "rio an", "2822": "scun e", "2823": "ria of", "2824": "ch\u2019 or", "2825": "cia on", "2826": "sta al", "2827": "st\u2019 of", "2828": "stri a", "2829": "qu\u2019 an", "2830": "gne ef", "2831": "gno af", "2832": "st\u2019 ar", "2833": "sti av", "2834": "stro o", "2835": "gna in", "2836": "gio on", "2837": "ch\u2019 ab", "2838": "tri es", "2839": "cio as", "2840": "com\u2019 u", "2841": "stro a", "2842": "st\u2019 in", "2843": "pi\u00f9 \u2019n", "2844": "tro im", "2845": "dre as", "2846": "sto im", "2847": "gio in", "2848": "dre al", "2849": "gno in", "2850": "gne uo", "2851": "sto of", "2852": "ch\u2019 et", "2853": "chi in", "2854": "tro ac", "2855": "sto al", "2856": "tra av", "2857": "d\u2019 han", "2858": "gne ac", "2859": "sio an", "2860": "zia on", "2861": "glia o", "2862": "stra i", "2863": "tro of", "2864": "stro av", "2865": "chio in", "2866": "stri al", "2867": "stro in", "2868": "chia of", "2869": "sche er", "2870": "glia al", "2871": "stri af", "2872": "stre in", "2873": "li \u00e8 in", "2874": "glia ac", "2875": "stra ap", "2876": "stro oc", "2877": "stro es", "2878": "gio o e", "2879": "stri an", "2880": "trio al", "2881": "lo e \u2019n", "2882": "chia an", "2883": "stro al", "2884": "str\u2019 ar", "2885": "s\u2019 i\u2019 o", "2886": "glie an", "2887": "n\u2019 \u00e8 im", "2888": "glia es", "2889": "scia al", "2890": "si e \u2019n", "2891": "stro ac", "2892": "re a \u2019n", "2893": "glie eb", "2894": "vria es", "2895": "stri at", "2896": "glio on", "2897": "stro uc", "2898": "chio at", "2899": "pria av", "2900": "dio han", "2901": "stri av", "2902": "glie al", "2903": "sche ab", "2904": "stri ef", "2905": "stro eb", "2906": "ti e \u2019n", "2907": "str\u2019 or", "2908": "glia as", "2909": "stro as", "2910": "stra ef", "2911": "chio an", "2912": "stra in", "2913": "scia an", "2914": "chie et", "2915": "l\u00e0 \u2019vun", "2916": "d\u2019 i\u2019 a", "2917": "glio in", "2918": "glia in", "2919": "stro im", "2920": "glio as", "2921": "stro an", "2922": "glio es", "2923": "glio an", "2924": "ch\u2019 i\u2019 o", "2925": "ch\u2019 i\u2019 e", "2926": "t\u2019 ho in", "2927": "sti a \u2019n", "2928": "ch\u2019 io \u2019n", "2929": "ch\u2019 e\u2019 \u2019n", "2930": "a ", "2931": "s ", "2932": "e ", "2933": "\u00ec ", "2934": "\u00f2 ", "2935": "o ", "2936": "i ", "2937": "\u00f9 ", "2938": "\u00e8 ", "2939": "\u00ef ", "2940": "da ", "2941": "ne ", "2942": "al ", "2943": "si ", "2944": "de ", "2945": "\u00e8e ", "2946": "\u00e0m ", "2947": "m\u00e8 ", "2948": "ba ", "2949": "ar ", "2950": "fu ", "2951": "di ", "2952": "be ", "2953": "mi ", "2954": "\u00ecs ", "2955": "oh ", "2956": "po ", "2957": "th ", "2958": "ie ", "2959": "b\u00f9 ", "2960": "le ", "2961": "d\u00f2 ", "2962": "t\u00e9 ", "2963": "ze ", "2964": "u\u2019 ", "2965": "fo ", "2966": "m\u00f2 ", "2967": "ci ", "2968": "or ", "2969": "d\u00e9 ", "2970": "su ", "2971": "no ", "2972": "fe ", "2973": "st ", "2974": "lo ", "2975": "vo ", "2976": "n\u00ec ", "2977": "d\u00e0 ", "2978": "c\u00f2 ", "2979": "va ", "2980": "il ", "2981": "ti ", "2982": "za ", "2983": "od ", "2984": "ni ", "2985": "om ", "2986": "f\u00e9 ", "2987": "\u00e0s ", "2988": "zi ", "2989": "te ", "2990": "s\u00ec ", "2991": "l\u00f2 ", "2992": "ri ", "2993": "an ", "2994": "p\u00e8 ", "2995": "ha ", "2996": "on ", "2997": "na ", "2998": "pi ", "2999": "\u00f3n ", "3000": "us ", "3001": "do ", "3002": "\u00e0r ", "3003": "m\u2019 ", "3004": "r\u00ec ", "3005": "f\u00f2 ", "3006": "n\u00f2 ", "3007": "t\u00f9 ", "3008": "sc ", "3009": "n\u00e9 ", "3010": "v\u00ec ", "3011": "v\u00f2 ", "3012": "fa ", "3013": "b\u00f2 ", "3014": "l\u00ec ", "3015": "ta ", "3016": "ad ", "3017": "go ", "3018": "s\u00f2 ", "3019": "\u00e8l ", "3020": "p\u00f2 ", "3021": "os ", "3022": "bo ", "3023": "ir ", "3024": "f\u00e0 ", "3025": "to ", "3026": "io ", "3027": "s\u00e9 ", "3028": "ut ", "3029": "li ", "3030": "ho ", "3031": "\u00f9l ", "3032": "ra ", "3033": "et ", "3034": "el ", "3035": "i\u2019 ", "3036": "me ", "3037": "n\u00e0 ", "3038": "ed ", "3039": "zo ", "3040": "\u00e9n ", "3041": "g\u00f2 ", "3042": "vi ", "3043": "ma ", "3044": "ge ", "3045": "d\u00ec ", "3046": "l\u00e8 ", "3047": "c\u00e8 ", "3048": "in ", "3049": "\u00f2s ", "3050": "ei ", "3051": "a\u2019 ", "3052": "ro ", "3053": "pa ", "3054": "n\u00e8 ", "3055": "c\u00e9 ", "3056": "ce ", "3057": "bi ", "3058": "e\u2019 ", "3059": "sa ", "3060": "t\u00ec ", "3061": "s\u00e8 ", "3062": "se ", "3063": "r\u00f2 ", "3064": "tu ", "3065": "ia ", "3066": "g\u00ec ", "3067": "mo ", "3068": "z\u00f2 ", "3069": "ae ", "3070": "re ", "3071": "ca ", "3072": "t\u00e8 ", "3073": "un ", "3074": "pe ", "3075": "fi ", "3076": "as ", "3077": "la ", "3078": "t\u00f2 ", "3079": "l\u00e0 ", "3080": "s\u00f9 ", "3081": "gi ", "3082": "r\u00e0 ", "3083": "co ", "3084": "ai ", "3085": "ga ", "3086": "\u00f2n ", "3087": "ve ", "3088": "so ", "3089": "t\u00e0 ", "3090": "ab ", "3091": "b\u00e8 ", "3092": "fin ", "3093": "rai ", "3094": "nal ", "3095": "fil ", "3096": "rei ", "3097": "rio ", "3098": "gi\u00f2 ", "3099": "nea ", "3100": "vam ", "3101": " in ", "3102": "dei ", "3103": "rua ", "3104": "s\u00f3n ", "3105": "nha ", "3106": "sti ", "3107": "tra ", "3108": "vel ", "3109": "que ", "3110": "rum ", "3111": "vem ", "3112": "die ", "3113": "seo ", "3114": "tio ", "3115": "b\u00e8l ", "3116": "vio ", "3117": "lee ", "3118": "sto ", "3119": "meo ", "3120": "cra ", "3121": "mon ", "3122": "o e ", "3123": "gai ", "3124": "dio ", "3125": "ve\u2019 ", "3126": "pel ", "3127": "gi\u00f9 ", "3128": "pri ", "3129": "cur ", "3130": "tum ", "3131": "res ", "3132": "bre ", "3133": "pie ", "3134": "tal ", "3135": "f\u00f3n ", "3136": "dar ", "3137": "tre ", "3138": "cu\u2019 ", "3139": "n\u00f2s ", "3140": "zai ", "3141": "cul ", "3142": "fei ", "3143": "dir ", "3144": "zul ", "3145": "ra\u2019 ", "3146": "pin ", "3147": "d\u00e8i ", "3148": "zar ", "3149": "pia ", "3150": "uhi ", "3151": "tem ", "3152": "mae ", "3153": "te\u2019 ", "3154": "num ", "3155": "sii ", "3156": "gro ", "3157": "fon ", "3158": "vo\u2019 ", "3159": "tr\u00e0 ", "3160": "sir ", "3161": "la\u2019 ", "3162": "nio ", "3163": "tis ", "3164": "\u2019ve ", "3165": "vai ", "3166": "o a ", "3167": "bon ", "3168": "c\u00e0n ", "3169": "nia ", "3170": "cil ", "3171": "bro ", "3172": "nai ", "3173": "por ", "3174": "deo ", "3175": "dea ", "3176": "gor ", "3177": "vie ", "3178": "sc\u00ec ", "3179": "ven ", "3180": "tii ", "3181": "rar ", "3182": "sis ", "3183": "due ", "3184": "von ", "3185": "ri\u2019 ", "3186": "bir ", "3187": "dii ", "3188": "tei ", "3189": "dre ", "3190": "n\u00e8s ", "3191": "gir ", "3192": "pi\u00e8 ", "3193": "sua ", "3194": "tir ", "3195": "sei ", "3196": "gne ", "3197": "rin ", "3198": "bio ", "3199": "non ", "3200": "bue ", "3201": "nor ", "3202": "cut ", "3203": "ces ", "3204": "ril ", "3205": "duo ", "3206": "f\u00e9e ", "3207": "lie ", "3208": "smo ", "3209": "val ", "3210": "gua ", "3211": "cea ", "3212": "g\u00f3r ", "3213": "dr\u00ec ", "3214": "tar ", "3215": "dr\u00e0 ", "3216": "pir ", "3217": "men ", "3218": "dur ", "3219": "z\u00f2n ", "3220": "lui ", "3221": "car ", "3222": "poi ", "3223": "ter ", "3224": "ch\u00e9 ", "3225": "sub ", "3226": "n\u00eca ", "3227": "len ", "3228": "lia ", "3229": "rie ", "3230": "lan ", "3231": "fur ", "3232": "l\u00eca ", "3233": "neo ", "3234": "rao ", "3235": "va\u2019 ", "3236": "nil ", "3237": "sar ", "3238": "pi\u00e9 ", "3239": "dui ", "3240": "tol ", "3241": "sca ", "3242": "ser ", "3243": "bis ", "3244": "me\u2019 ", "3245": "cem ", "3246": "mas ", "3247": "zan ", "3248": "lai ", "3249": "noi ", "3250": "col ", "3251": "gui ", "3252": "su\u2019 ", "3253": "t\u00f2r ", "3254": "lir ", "3255": "m\u00eca ", "3256": "beo ", "3257": "ber ", "3258": "sal ", "3259": "lio ", "3260": "no\u2019 ", "3261": "ma\u2019 ", "3262": "ti\u2019 ", "3263": "gni ", "3264": "cai ", "3265": "vas ", "3266": "ger ", "3267": "peo ", "3268": "fan ", "3269": "sta ", "3270": "man ", "3271": "gli ", "3272": "for ", "3273": "ben ", "3274": "cum ", "3275": "bra ", "3276": "a a ", "3277": "a e ", "3278": "nan ", "3279": "tue ", "3280": "fui ", "3281": "s\u00f9e ", "3282": "dia ", "3283": "ga\u2019 ", "3284": "gre ", "3285": "tin ", "3286": "lor ", "3287": "rer ", "3288": "lei ", "3289": "vol ", "3290": "som ", "3291": "leo ", "3292": "tua ", "3293": "dem ", "3294": "unt ", "3295": "dor ", "3296": "na\u2019 ", "3297": "ton ", "3298": "tr\u2019 ", "3299": "deh ", "3300": "dan ", "3301": "n\u00ece ", "3302": "gea ", "3303": "sun ", "3304": "sui ", "3305": "sor ", "3306": "s\u00ece ", "3307": "di\u00e8 ", "3308": "pre ", "3309": "ria ", "3310": "ges ", "3311": "bus ", "3312": "del ", "3313": "mer ", "3314": "t\u00e0n ", "3315": "par ", "3316": "gu\u00ec ", "3317": "sia ", "3318": "rea ", "3319": "gin ", "3320": "fi\u2019 ", "3321": "hai ", "3322": "st\u00f9 ", "3323": "du\u2019 ", "3324": "ten ", "3325": "ver ", "3326": "tri ", "3327": "nir ", "3328": "mus ", "3329": "f\u00e8l ", "3330": "tro ", "3331": "bol ", "3332": "t\u00f2n ", "3333": "qua ", "3334": "con ", "3335": "st\u00e9 ", "3336": "son ", "3337": "nin ", "3338": "gri ", "3339": "din ", "3340": "bui ", "3341": "ion ", "3342": "vau ", "3343": "can ", "3344": "gon ", "3345": "sel ", "3346": "pur ", "3347": "uo\u2019 ", "3348": "p\u00eca ", "3349": "pon ", "3350": "lem ", "3351": "fal ", "3352": "che ", "3353": "pu\u00f2 ", "3354": "c\u00f2b ", "3355": "cis ", "3356": "sol ", "3357": "cei ", "3358": "tea ", "3359": "st\u00f2 ", "3360": "gno ", "3361": "reo ", "3362": "mie ", "3363": "cel ", "3364": "pan ", "3365": "sma ", "3366": "za\u2019 ", "3367": "nii ", "3368": "cie ", "3369": "bin ", "3370": "tia ", "3371": "smi ", "3372": "tes ", "3373": "don ", "3374": "d\u00eca ", "3375": "tel ", "3376": "ree ", "3377": "bar ", "3378": "tr\u00f2 ", "3379": "dri ", "3380": "tan ", "3381": "de\u2019 ", "3382": "nem ", "3383": "ler ", "3384": "re\u2019 ", "3385": "c\u00f2l ", "3386": "ci\u00f2 ", "3387": "pio ", "3388": "ram ", "3389": "han ", "3390": "bil ", "3391": "mum ", "3392": "l\u00e8m ", "3393": "cui ", "3394": "ron ", "3395": "mor ", "3396": "fra ", "3397": "far ", "3398": "mai ", "3399": "mee ", "3400": "mei ", "3401": "pea ", "3402": "nel ", "3403": "cor ", "3404": "co\u2019 ", "3405": "fue ", "3406": "ral ", "3407": "sie ", "3408": "til ", "3409": "zon ", "3410": "dr\u00f2 ", "3411": "teo ", "3412": "gu\u00f2 ", "3413": "gei ", "3414": "pal ", "3415": "vin ", "3416": "t\u00e9r ", "3417": "dai ", "3418": "f\u00e0t ", "3419": "pii ", "3420": "cal ", "3421": "tuo ", "3422": "mil ", "3423": "bel ", "3424": "spe ", "3425": "mio ", "3426": "plo ", "3427": "gia ", "3428": "ror ", "3429": "sul ", "3430": "via ", "3431": "p\u00f2s ", "3432": "gi\u00e0 ", "3433": "tus ", "3434": "ste ", "3435": "cio ", "3436": "vos ", "3437": "nol ", "3438": "ier ", "3439": "b\u00eca ", "3440": "lu\u2019 ", "3441": "n\u00ect ", "3442": "sce ", "3443": "mun ", "3444": "fe\u2019 ", "3445": "di\u2019 ", "3446": "spa ", "3447": "r\u00f2l ", "3448": "sin ", "3449": "v\u00ecd ", "3450": "sue ", "3451": "gru ", "3452": "fer ", "3453": "e i ", "3454": "nei ", "3455": "g\u00f3n ", "3456": "pra ", "3457": "nie ", "3458": "ean ", "3459": "sai ", "3460": "cun ", "3461": "voi ", "3462": "cre ", "3463": "tui ", "3464": "dro ", "3465": "n\u00f2i ", "3466": "cle ", "3467": "mia ", "3468": "ghe ", "3469": "gna ", "3470": "gel ", "3471": "pr\u00ec ", "3472": "st\u00ec ", "3473": "sa\u2019 ", "3474": "zio ", "3475": "zie ", "3476": "nar ", "3477": "coi ", "3478": "rel ", "3479": "cin ", "3480": "san ", "3481": "sco ", "3482": "cri ", "3483": "mea ", "3484": "feo ", "3485": "fio ", "3486": "a i ", "3487": "lon ", "3488": "dee ", "3489": "ahi ", "3490": "ran ", "3491": "fai ", "3492": "per ", "3493": "dal ", "3494": "des ", "3495": "lin ", "3496": "tor ", "3497": "chi ", "3498": "ceo ", "3499": "d\u00ect ", "3500": "bri ", "3501": "vei ", "3502": "se\u2019 ", "3503": "r\u00ecs ", "3504": "cia ", "3505": "dil ", "3506": "clo ", "3507": "r\u00ece ", "3508": "var ", "3509": "dra ", "3510": "gol ", "3511": "lar ", "3512": "da\u2019 ", "3513": "pol ", "3514": "ghi ", "3515": "st\u00e0 ", "3516": "tun ", "3517": "vil ", "3518": "fu\u2019 ", "3519": "bor ", "3520": "su\u00e8 ", "3521": "d\u00ece ", "3522": "f\u00e0s ", "3523": "vra ", "3524": "r\u00ecb ", "3525": "zia ", "3526": "pem ", "3527": "lea ", "3528": "min ", "3529": "gio ", "3530": "e \u2019 ", "3531": "b\u00e0l ", "3532": "cen ", "3533": "gue ", "3534": "mul ", "3535": "vea ", "3536": "sio ", "3537": "pei ", "3538": "ne\u2019 ", "3539": "gal ", "3540": "l\u00eco ", "3541": "fia ", "3542": "tai ", "3543": "qui ", "3544": "ta\u2019 ", "3545": "sit ", "3546": "l\u00f2n ", "3547": "joi ", "3548": "uom ", "3549": "fie ", "3550": "rui ", "3551": "pro ", "3552": "gn\u00ec ", "3553": "dua ", "3554": "ian ", "3555": "ren ", "3556": "bee ", "3557": "mal ", "3558": "gis ", "3559": "sen ", "3560": "gra ", "3561": "rir ", "3562": "t\u00f3n ", "3563": "cer ", "3564": "gar ", "3565": "vii ", "3566": "cro ", "3567": "m\u00ecs ", "3568": "bi\u00f2 ", "3569": "pi\u00f9 ", "3570": "ros ", "3571": "rii ", "3572": "gan ", "3573": "mar ", "3574": "sci ", "3575": "suo ", "3576": "van ", "3577": "ieu ", "3578": "r\u00f3n ", "3579": "ban ", "3580": "mii ", "3581": "rem ", "3582": "pr\u00e0 ", "3583": "gi\u2019 ", "3584": "ner ", "3585": "nis ", "3586": "bei ", "3587": "bia ", "3588": "der ", "3589": "sem ", "3590": "gi a ", "3591": "drea ", "3592": "ghio ", "3593": "ciar ", "3594": "zian ", "3595": "se i ", "3596": "v\u2019 \u00e8 ", "3597": "ro o ", "3598": "si e ", "3599": "li e ", "3600": "sfar ", "3601": "ne e ", "3602": "io e ", "3603": "ca o ", "3604": "re a ", "3605": "giun ", "3606": "ge \u00e8 ", "3607": "steo ", "3608": "ro \u00e8 ", "3609": "bian ", "3610": "d\u00ec i ", "3611": "co o ", "3612": "bi i ", "3613": "tu i ", "3614": "scon ", "3615": "de i ", "3616": "do i ", "3617": "te o ", "3618": "po i ", "3619": "guan ", "3620": "prun ", "3621": "ph\u00e8l ", "3622": "ni a ", "3623": "gi\u00f9e ", "3624": "do \u00e8 ", "3625": "drel ", "3626": "or i ", "3627": "si o ", "3628": "lo \u00e8 ", "3629": "tra\u2019 ", "3630": "pron ", "3631": "sier ", "3632": "ci\u00f2l ", "3633": "pia\u2019 ", "3634": "bree ", "3635": "d\u2019 i ", "3636": "le a ", "3637": "or l ", "3638": "ce i ", "3639": "brei ", "3640": "rent ", "3641": "spia ", "3642": "glia ", "3643": "nail ", "3644": "zi \u00e8 ", "3645": "ciai ", "3646": "ni \u00e8 ", "3647": "sa \u00e8 ", "3648": "ge a ", "3649": "gnor ", "3650": "zion ", "3651": "laia ", "3652": "do o ", "3653": "cl\u00e8s ", "3654": "muor ", "3655": "stri ", "3656": "fo \u00e8 ", "3657": "no \u00e8 ", "3658": "scel ", "3659": "to e ", "3660": "suon ", "3661": "buon ", "3662": "gaio ", "3663": "gnum ", "3664": "guai ", "3665": "fa e ", "3666": "ma i ", "3667": "suoi ", "3668": "o un ", "3669": "ghin ", "3670": "o al ", "3671": "frui ", "3672": "i in ", "3673": "bion ", "3674": "com\u2019 ", "3675": "st\u00e8r ", "3676": "prir ", "3677": "ci a ", "3678": "siam ", "3679": "tien ", "3680": "to i ", "3681": "bent ", "3682": "gnan ", "3683": "star ", "3684": "ciol ", "3685": "dien ", "3686": "ce a ", "3687": "glie ", "3688": "ti a ", "3689": "spir ", "3690": "ra o ", "3691": "drai ", "3692": "no a ", "3693": "stor ", "3694": "f\u00e9 i ", "3695": "li a ", "3696": "frir ", "3697": "po o ", "3698": "quel ", "3699": "tuon ", "3700": "scir ", "3701": "d\u2019 \u00e8 ", "3702": "ma \u00e8 ", "3703": "plor ", "3704": "ri o ", "3705": "tu \u2019 ", "3706": "ve i ", "3707": "scar ", "3708": "me o ", "3709": "s\u2019 \u00e8 ", "3710": "quam ", "3711": "t\u00f2 e ", "3712": "go \u00e8 ", "3713": "ve e ", "3714": "cria ", "3715": "la a ", "3716": "scio ", "3717": "dail ", "3718": "s\u00ec e ", "3719": "dier ", "3720": "te a ", "3721": "gnel ", "3722": "stea ", "3723": "ro i ", "3724": "gner ", "3725": "viam ", "3726": "dria ", "3727": "i il ", "3728": "ce e ", "3729": "ve o ", "3730": "stel ", "3731": "lo e ", "3732": "fren ", "3733": "ghie ", "3734": "vi o ", "3735": "tiam ", "3736": "no e ", "3737": "l\u2019 \u00e8 ", "3738": "trea ", "3739": "to \u00e8 ", "3740": "do e ", "3741": "si i ", "3742": "dean ", "3743": "fiar ", "3744": "na o ", "3745": "tram ", "3746": "te \u00e8 ", "3747": "pian ", "3748": "na \u00e8 ", "3749": "so a ", "3750": "lian ", "3751": "co i ", "3752": "o il ", "3753": "ni o ", "3754": "ca e ", "3755": "tris ", "3756": "tr\u00e0s ", "3757": "za o ", "3758": "trei ", "3759": "va e ", "3760": "tu e ", "3761": "la e ", "3762": "vo e ", "3763": "ra e ", "3764": "ghi\u00f2 ", "3765": "suo\u2019 ", "3766": "giam ", "3767": "ched ", "3768": "br\u00f2t ", "3769": "fier ", "3770": "trio ", "3771": "vi a ", "3772": "qual ", "3773": "gli\u00f2 ", "3774": "ta \u00e8 ", "3775": "ziar ", "3776": "vi e ", "3777": "niam ", "3778": "gnar ", "3779": "blia ", "3780": "ci o ", "3781": "biar ", "3782": "ve a ", "3783": "tier ", "3784": "po e ", "3785": "gior ", "3786": "le i ", "3787": "a al ", "3788": "to o ", "3789": "bia\u2019 ", "3790": "gnes ", "3791": "cain ", "3792": "ci \u00e8 ", "3793": "ne a ", "3794": "ga e ", "3795": "crin ", "3796": "le \u00e8 ", "3797": "su i ", "3798": "di e ", "3799": "ba e ", "3800": "se e ", "3801": "ta a ", "3802": "glio ", "3803": "pier ", "3804": "scun ", "3805": "v\u2019 a ", "3806": "me e ", "3807": "stro ", "3808": "na a ", "3809": "suol ", "3810": "po \u00e8 ", "3811": "saia ", "3812": "stui ", "3813": "ne i ", "3814": "blio ", "3815": "drir ", "3816": "no i ", "3817": "va a ", "3818": "r\u2019 a ", "3819": "sa i ", "3820": "runt ", "3821": "a il ", "3822": "be a ", "3823": "maio ", "3824": "naio ", "3825": "quai ", "3826": "le e ", "3827": "vuol ", "3828": "ne \u00e8 ", "3829": "quod ", "3830": "re \u00e8 ", "3831": "so i ", "3832": "vuo\u2019 ", "3833": "stei ", "3834": "sa o ", "3835": "ze e ", "3836": "gnia ", "3837": "\u00e8 \u2019n ", "3838": "vria ", "3839": "de o ", "3840": "dron ", "3841": "fu o ", "3842": "vian ", "3843": "fior ", "3844": "fe e ", "3845": "rian ", "3846": "\u00e8 in ", "3847": "a in ", "3848": "za e ", "3849": "nian ", "3850": "ga a ", "3851": "ri e ", "3852": "gean ", "3853": "pa a ", "3854": "zi a ", "3855": "guon ", "3856": "chio ", "3857": "ti i ", "3858": "stil ", "3859": "ta o ", "3860": "le o ", "3861": "ce o ", "3862": "stan ", "3863": "be e ", "3864": "mi e ", "3865": "ver\u2019 ", "3866": "lien ", "3867": "pria ", "3868": "bi e ", "3869": "prai ", "3870": "trae ", "3871": "ga o ", "3872": "no o ", "3873": "la i ", "3874": "chel ", "3875": "be i ", "3876": "bran ", "3877": "miei ", "3878": "se a ", "3879": "quie ", "3880": "l\u00e0 i ", "3881": "duol ", "3882": "c\u2019 \u00e8 ", "3883": "t\u2019 \u00e8 ", "3884": "do a ", "3885": "muoi ", "3886": "sa e ", "3887": "di a ", "3888": "cian ", "3889": "fian ", "3890": "gnon ", "3891": "te i ", "3892": "trui ", "3893": "brar ", "3894": "lier ", "3895": "ca a ", "3896": "me i ", "3897": "trar ", "3898": "sa a ", "3899": "or d ", "3900": "svia ", "3901": "c\u00f2th ", "3902": "guia ", "3903": "cean ", "3904": "sie\u2019 ", "3905": "chi\u00f2 ", "3906": "se o ", "3907": "gion ", "3908": "to a ", "3909": "grin ", "3910": "sian ", "3911": "quor ", "3912": "cral ", "3913": "scer ", "3914": "te e ", "3915": "co e ", "3916": "da o ", "3917": "go e ", "3918": "rean ", "3919": "grue ", "3920": "crea ", "3921": "trai ", "3922": "stai ", "3923": "gnin ", "3924": "fien ", "3925": "ciul ", "3926": "bo a ", "3927": "scie ", "3928": "gnun ", "3929": "ro a ", "3930": "mian ", "3931": "mi i ", "3932": "prec ", "3933": "lo i ", "3934": "t\u2019 i ", "3935": "co \u00e8 ", "3936": "va i ", "3937": "di o ", "3938": "spri ", "3939": "pien ", "3940": "scia ", "3941": "co a ", "3942": "so \u00e8 ", "3943": "sion ", "3944": "me a ", "3945": "si \u00e8 ", "3946": "li o ", "3947": "sche ", "3948": "nier ", "3949": "piar ", "3950": "pi e ", "3951": "fuor ", "3952": "na e ", "3953": "buoi ", "3954": "doan ", "3955": "da a ", "3956": "e \u2019l ", "3957": "tuo\u2019 ", "3958": "mo e ", "3959": "si a ", "3960": "chia ", "3961": "tean ", "3962": "gnus ", "3963": "pe e ", "3964": "giar ", "3965": "re e ", "3966": "mie\u2019 ", "3967": "sci\u2019 ", "3968": "ge e ", "3969": "cia\u2019 ", "3970": "li \u00e8 ", "3971": "tuoi ", "3972": "muel ", "3973": "ni e ", "3974": "laio ", "3975": "me \u00e8 ", "3976": "deum ", "3977": "pion ", "3978": "nean ", "3979": "cuor ", "3980": "gian ", "3981": "chin ", "3982": "ca \u00e8 ", "3983": "giai ", "3984": "ci e ", "3985": "o in ", "3986": "vier ", "3987": "scea ", "3988": "pi\u00f9e ", "3989": "l\u00ec \u00e8 ", "3990": "so e ", "3991": "dra\u2019 ", "3992": "da i ", "3993": "ti e ", "3994": "ta i ", "3995": "gran ", "3996": "de e ", "3997": "bo e ", "3998": "rien ", "3999": "po a ", "4000": "e \u2019n ", "4001": "chie ", "4002": "tran ", "4003": "za \u00e8 ", "4004": "quar ", "4005": "prei ", "4006": "breo ", "4007": "stie ", "4008": "se \u00e8 ", "4009": "ti \u00e8 ", "4010": "de a ", "4011": "stre ", "4012": "ne o ", "4013": "ciam ", "4014": "quei ", "4015": "puoi ", "4016": "la \u00e8 ", "4017": "sti\u00f2 ", "4018": "ma o ", "4019": "mo \u00e8 ", "4020": "quae ", "4021": "vien ", "4022": "m\u2019 \u00e8 ", "4023": "mo a ", "4024": "sc\u00eco ", "4025": "mi a ", "4026": "str\u00f2 ", "4027": "prie ", "4028": "ra i ", "4029": "slao ", "4030": "de \u00e8 ", "4031": "ch e ", "4032": "spre ", "4033": "pi\u00e9r ", "4034": "sien ", "4035": "ra \u00e8 ", "4036": "prio ", "4037": "gier ", "4038": "s\u2019 a ", "4039": "fu e ", "4040": "zo e ", "4041": "vuoi ", "4042": "ma a ", "4043": "t\u00e8 a ", "4044": "\u00e8 il ", "4045": "a \u2019l ", "4046": "ghia ", "4047": "fi e ", "4048": "cheo ", "4049": "la o ", "4050": "ciel ", "4051": "ti o ", "4052": "ta e ", "4053": "pe i ", "4054": "pri\u2019 ", "4055": "go a ", "4056": "va o ", "4057": "zi e ", "4058": "n\u00e9 i ", "4059": "so o ", "4060": "gual ", "4061": "sunt ", "4062": "sci\u00f2 ", "4063": "mo i ", "4064": "lo a ", "4065": "nien ", "4066": "ri a ", "4067": "ma e ", "4068": "ce \u00e8 ", "4069": "tree ", "4070": "\u00e8 \u2019l ", "4071": "vi \u00e8 ", "4072": "io o ", "4073": "za i ", "4074": "schi ", "4075": "diam ", "4076": "di i ", "4077": "st\u00f2r ", "4078": "gioi ", "4079": "za a ", "4080": "gi e ", "4081": "te p ", "4082": "zo a ", "4083": "brio ", "4084": "ze o ", "4085": "stia ", "4086": "ro e ", "4087": "re o ", "4088": "bi a ", "4089": "li i ", "4090": "spro ", "4091": "pa e ", "4092": "stra ", "4093": "plar ", "4094": "cion ", "4095": "o \u2019n ", "4096": "go o ", "4097": "vean ", "4098": "vo a ", "4099": "sper ", "4100": "pa \u00e8 ", "4101": "die\u2019 ", "4102": "ra a ", "4103": "n\u2019 \u00e8 ", "4104": "pluo ", "4105": "gien ", "4106": "stin ", "4107": "guir ", "4108": "riai ", "4109": "da e ", "4110": "re i ", "4111": "tria ", "4112": "s\u00e9 i ", "4113": "que\u2019 ", "4114": "fu a ", "4115": "va \u2019n ", "4116": "ghi e ", "4117": "te al ", "4118": "no al ", "4119": "to il ", "4120": "na in ", "4121": "ha \u2019l ", "4122": "d\u00f2 in ", "4123": "sa il ", "4124": "so \u2019l ", "4125": "lo ha ", "4126": "ra \u2019n ", "4127": "za in ", "4128": "zio a ", "4129": "no ai ", "4130": "bre e ", "4131": "le ir ", "4132": "ca il ", "4133": "ra al ", "4134": "li ad ", "4135": "da or ", "4136": "re in ", "4137": "s\u2019 io ", "4138": "n\u00f2 \u2019l ", "4139": "dia e ", "4140": "li al ", "4141": "t\u2019 ho ", "4142": "te a\u2019 ", "4143": "de in ", "4144": "ne un ", "4145": "ti ha ", "4146": "le ad ", "4147": "tr\u2019 \u00e8 ", "4148": "n\u2019 io ", "4149": "v\u2019 ei ", "4150": "co i\u2019 ", "4151": "ci ha ", "4152": "le io ", "4153": "ma un ", "4154": "se a\u2019 ", "4155": "sciai ", "4156": "na ed ", "4157": "li oh ", "4158": "to \u2019l ", "4159": "l\u2019 ho ", "4160": "da io ", "4161": "ne il ", "4162": "ta al ", "4163": "gna o ", "4164": "se \u2019n ", "4165": "ta un ", "4166": "ro ed ", "4167": "sco i ", "4168": "ne ha ", "4169": "mio e ", "4170": "co or ", "4171": "ste a ", "4172": "zia o ", "4173": "va in ", "4174": "ta il ", "4175": "na or ", "4176": "lo un ", "4177": "me \u2019l ", "4178": "vrien ", "4179": "te \u2019n ", "4180": "ge ai ", "4181": "de \u2019l ", "4182": "to al ", "4183": "to or ", "4184": "ci \u2019l ", "4185": "pie a ", "4186": "c\u2019 io ", "4187": "zo \u2019l ", "4188": "v\u2019 el ", "4189": "ne \u2019l ", "4190": "do a\u2019 ", "4191": "va ad ", "4192": "me un ", "4193": "ve un ", "4194": "glior ", "4195": "ce u\u2019 ", "4196": "temps ", "4197": "pri a ", "4198": "pi un ", "4199": "do \u2019l ", "4200": "te or ", "4201": "di \u00e8e ", "4202": "te un ", "4203": "mo ei ", "4204": "te \u2019l ", "4205": "ra ha ", "4206": "li ei ", "4207": "mi al ", "4208": "do ed ", "4209": "ci al ", "4210": "gli a ", "4211": "t\u00e9 \u2019l ", "4212": "ba il ", "4213": "bi in ", "4214": "di \u2019l ", "4215": "re al ", "4216": "ch\u00e9 i ", "4217": "to a\u2019 ", "4218": "gri e ", "4219": "z\u00f2 il ", "4220": "to ai ", "4221": "ro il ", "4222": "na \u2019n ", "4223": "cia o ", "4224": "ghe e ", "4225": "ia in ", "4226": "da un ", "4227": "ci or ", "4228": "co \u2019l ", "4229": "rai e ", "4230": "ti \u2019l ", "4231": "la il ", "4232": "sio e ", "4233": "gi\u00e0 i ", "4234": "ve il ", "4235": "zio \u00e8 ", "4236": "ca al ", "4237": "na al ", "4238": "pi in ", "4239": "lo a\u2019 ", "4240": "sevra ", "4241": "si u\u2019 ", "4242": "ci a\u2019 ", "4243": "p\u2019 io ", "4244": "stral ", "4245": "le ab ", "4246": "zia \u00e8 ", "4247": "gi al ", "4248": "no a\u2019 ", "4249": "ne a\u2019 ", "4250": "s\u00ec \u2019l ", "4251": "se \u2019l ", "4252": "s\u2019 ei ", "4253": "bi un ", "4254": "me \u2019n ", "4255": "tra \u2019 ", "4256": "ra ad ", "4257": "schio ", "4258": "ghiar ", "4259": "ne or ", "4260": "do ha ", "4261": "li i\u2019 ", "4262": "go \u2019l ", "4263": "mo al ", "4264": "ne ai ", "4265": "di a\u2019 ", "4266": "sa \u2019l ", "4267": "sta e ", "4268": "mo un ", "4269": "ce in ", "4270": "ria e ", "4271": "vi il ", "4272": "bra o ", "4273": "ra \u2019l ", "4274": "cia e ", "4275": "stran ", "4276": "su \u2019l ", "4277": "ghe a ", "4278": "mo \u2019l ", "4279": "d\u2019 ei ", "4280": "co io ", "4281": "no ad ", "4282": "gua e ", "4283": "da in ", "4284": "v\u2019 ho ", "4285": "va \u2019l ", "4286": "la ed ", "4287": "n\u2019 ha ", "4288": "glion ", "4289": "si \u2019l ", "4290": "ro in ", "4291": "gna \u00e8 ", "4292": "d\u2019 el ", "4293": "gno a ", "4294": "de ed ", "4295": "ti a\u2019 ", "4296": "lo in ", "4297": "sto a ", "4298": "sta o ", "4299": "re a\u2019 ", "4300": "lo al ", "4301": "na un ", "4302": "ce un ", "4303": "v\u2019 i\u2019 ", "4304": "gno e ", "4305": "re or ", "4306": "sciar ", "4307": "go al ", "4308": "da i\u2019 ", "4309": "si un ", "4310": "qua o ", "4311": "te ho ", "4312": "ri a\u2019 ", "4313": "n\u00e9 \u2019l ", "4314": "bo in ", "4315": "d\u2019 ir ", "4316": "stiam ", "4317": "mo il ", "4318": "ra in ", "4319": "ti ai ", "4320": "su in ", "4321": "ro or ", "4322": "be al ", "4323": "d\u2019 io ", "4324": "zi un ", "4325": "ne io ", "4326": "li il ", "4327": "to ad ", "4328": "ra il ", "4329": "r\u2019 al ", "4330": "mia e ", "4331": "ti io ", "4332": "ge un ", "4333": "le in ", "4334": "ro od ", "4335": "sti e ", "4336": "cio a ", "4337": "lio a ", "4338": "vo in ", "4339": "co ad ", "4340": "ra un ", "4341": "v\u2019 or ", "4342": "s\u00ec al ", "4343": "co il ", "4344": "pa in ", "4345": "gue e ", "4346": "qui e ", "4347": "va io ", "4348": "la in ", "4349": "dre a ", "4350": "g\u2019 io ", "4351": "do in ", "4352": "que \u00e8 ", "4353": "gluol ", "4354": "r\u00f2 \u2019l ", "4355": "pio e ", "4356": "co ai ", "4357": "ca in ", "4358": "sme e ", "4359": "t\u00f2 \u2019l ", "4360": "fu il ", "4361": "n\u2019 ei ", "4362": "di or ", "4363": "tra i ", "4364": "go il ", "4365": "le i\u2019 ", "4366": "v\u2019 e\u2019 ", "4367": "gui e ", "4368": "zo il ", "4369": "re ir ", "4370": "da al ", "4371": "t\u2019 il ", "4372": "si al ", "4373": "lo il ", "4374": "so in ", "4375": "ria a ", "4376": "no u\u2019 ", "4377": "be or ", "4378": "za al ", "4379": "chion ", "4380": "ni in ", "4381": "l\u00e0 il ", "4382": "fu \u2019l ", "4383": "lo ai ", "4384": "ni\u2019 e ", "4385": "te u\u2019 ", "4386": "mo ha ", "4387": "le \u2019l ", "4388": "mo ed ", "4389": "me a\u2019 ", "4390": "\u2019v\u2019 \u00e8 ", "4391": "ti un ", "4392": "glier ", "4393": "glien ", "4394": "voill ", "4395": "chiar ", "4396": "ghiai ", "4397": "ch\u00e9 a ", "4398": "ci\u00f2 a ", "4399": "r\u00e0 in ", "4400": "via e ", "4401": "tri \u00e8 ", "4402": "te i\u2019 ", "4403": "pa ho ", "4404": "qua e ", "4405": "tr\u2019 a ", "4406": "rio a ", "4407": "so un ", "4408": "gno \u00e8 ", "4409": "na ad ", "4410": "s\u2019 i\u2019 ", "4411": "re un ", "4412": "se or ", "4413": "ma \u2019n ", "4414": "si el ", "4415": "so \u00e8e ", "4416": "li in ", "4417": "dro o ", "4418": "strar ", "4419": "v\u2019 io ", "4420": "to i\u2019 ", "4421": "ro ad ", "4422": "na il ", "4423": "da il ", "4424": "z\u00f2 \u2019l ", "4425": "la a\u2019 ", "4426": "gliar ", "4427": "me ed ", "4428": "to in ", "4429": "no i\u2019 ", "4430": "re ha ", "4431": "ce ha ", "4432": "che e ", "4433": "da \u2019l ", "4434": "mi \u2019l ", "4435": "ca io ", "4436": "ta ho ", "4437": "mi ad ", "4438": "tu \u2019l ", "4439": "f\u00e9 \u2019l ", "4440": "qua a ", "4441": "ia ed ", "4442": "ch\u2019 \u00e8 ", "4443": "ia oh ", "4444": "bo a\u2019 ", "4445": "tri o ", "4446": "s\u00e9 il ", "4447": "st\u2019 \u00e8 ", "4448": "gliai ", "4449": "be \u2019l ", "4450": "sco e ", "4451": "me ad ", "4452": "no ei ", "4453": "co un ", "4454": "la io ", "4455": "la al ", "4456": "di io ", "4457": "chier ", "4458": "gia o ", "4459": "sti o ", "4460": "na ha ", "4461": "te ha ", "4462": "po \u2019l ", "4463": "bro e ", "4464": "bi il ", "4465": "po al ", "4466": "co in ", "4467": "ni al ", "4468": "li or ", "4469": "pr\u2019 a ", "4470": "gue \u00e8 ", "4471": "strai ", "4472": "tro e ", "4473": "no io ", "4474": "le al ", "4475": "so a\u2019 ", "4476": "ra a\u2019 ", "4477": "nia a ", "4478": "v\u00f2 \u2019l ", "4479": "ta or ", "4480": "n\u00f2 in ", "4481": "ch\u2019 a ", "4482": "mi il ", "4483": "d\u2019 i\u2019 ", "4484": "ti ed ", "4485": "gio e ", "4486": "fu al ", "4487": "bro \u00e8 ", "4488": "glian ", "4489": "sto e ", "4490": "za oh ", "4491": "bra a ", "4492": "t\u00e0 \u2019l ", "4493": "te in ", "4494": "ria i ", "4495": "so il ", "4496": "re \u2019n ", "4497": "lia e ", "4498": "do or ", "4499": "co u\u2019 ", "4500": "pre e ", "4501": "se il ", "4502": "de al ", "4503": "di al ", "4504": "gra o ", "4505": "za or ", "4506": "le ha ", "4507": "pe ad ", "4508": "be ed ", "4509": "di ad ", "4510": "fa \u2019l ", "4511": "tro a ", "4512": "bra e ", "4513": "re ed ", "4514": "po ed ", "4515": "ti ei ", "4516": "qua \u00e8 ", "4517": "ra io ", "4518": "t\u2019 el ", "4519": "zio e ", "4520": "l\u2019 om ", "4521": "s\u2019 ha ", "4522": "za ha ", "4523": "scuoi ", "4524": "do ad ", "4525": "do al ", "4526": "s\u2019 un ", "4527": "pre a ", "4528": "ve in ", "4529": "gi un ", "4530": "ge in ", "4531": "cea a ", "4532": "de un ", "4533": "tre e ", "4534": "li un ", "4535": "scian ", "4536": "te ad ", "4537": "stier ", "4538": "t\u00f2 un ", "4539": "le un ", "4540": "ti in ", "4541": "chi \u00e8 ", "4542": "ta ed ", "4543": "chi a ", "4544": "zia a ", "4545": "sto \u00e8 ", "4546": "gliel ", "4547": "bi \u2019l ", "4548": "de ad ", "4549": "se in ", "4550": "ba in ", "4551": "do un ", "4552": "d\u2019 un ", "4553": "dro a ", "4554": "no in ", "4555": "sce e ", "4556": "no \u2019l ", "4557": "ge al ", "4558": "ta ha ", "4559": "si or ", "4560": "so ad ", "4561": "za il ", "4562": "ma in ", "4563": "svuol ", "4564": "r\u00f2 il ", "4565": "ti \u2019n ", "4566": "la un ", "4567": "be il ", "4568": "zi il ", "4569": "gia e ", "4570": "lo ad ", "4571": "ti ad ", "4572": "zii e ", "4573": "ia il ", "4574": "ma \u2019l ", "4575": "vi un ", "4576": "sa un ", "4577": "ne ad ", "4578": "ga in ", "4579": "gno i ", "4580": "gui i ", "4581": "na ei ", "4582": "ria o ", "4583": "mo in ", "4584": "sta a ", "4585": "me in ", "4586": "me or ", "4587": "l\u00e0 \u2019l ", "4588": "leo e ", "4589": "se i\u2019 ", "4590": "m\u2019 ha ", "4591": "ste e ", "4592": "mi a\u2019 ", "4593": "re i\u2019 ", "4594": "se ir ", "4595": "dre e ", "4596": "que e ", "4597": "se ai ", "4598": "pri e ", "4599": "no ed ", "4600": "che i ", "4601": "chi e ", "4602": "pra e ", "4603": "di ed ", "4604": "co al ", "4605": "ti al ", "4606": "ri \u2019l ", "4607": "zia e ", "4608": "ve ad ", "4609": "zo in ", "4610": "cia a ", "4611": "gio a ", "4612": "ste i ", "4613": "se un ", "4614": "me il ", "4615": "gioir ", "4616": "zi ad ", "4617": "pe il ", "4618": "ga il ", "4619": "be un ", "4620": "di il ", "4621": "r\u00ec \u2019l ", "4622": "me ai ", "4623": "za \u2019l ", "4624": "pa or ", "4625": "lo or ", "4626": "se ad ", "4627": "za i\u2019 ", "4628": "fa il ", "4629": "tro i ", "4630": "ne in ", "4631": "pa \u2019l ", "4632": "zi or ", "4633": "do io ", "4634": "dio e ", "4635": "ce a\u2019 ", "4636": "li io ", "4637": "bre a ", "4638": "se al ", "4639": "to ha ", "4640": "ci il ", "4641": "gi \u2019l ", "4642": "do il ", "4643": "so al ", "4644": "bia e ", "4645": "t\u2019 ha ", "4646": "io il ", "4647": "chian ", "4648": "gna i ", "4649": "gliea ", "4650": "v\u2019 ha ", "4651": "pe \u2019l ", "4652": "se io ", "4653": "no ha ", "4654": "smo a ", "4655": "de il ", "4656": "pre i ", "4657": "dro e ", "4658": "l\u2019 ha ", "4659": "po il ", "4660": "lo ed ", "4661": "m\u2019 io ", "4662": "zi ai ", "4663": "ti il ", "4664": "tri e ", "4665": "ve a\u2019 ", "4666": "ta ad ", "4667": "zi \u2019l ", "4668": "gni a ", "4669": "mi in ", "4670": "be in ", "4671": "se ho ", "4672": "po in ", "4673": "sti \u00e8 ", "4674": "di in ", "4675": "te ed ", "4676": "re il ", "4677": "le il ", "4678": "b\u2019 io ", "4679": "ri al ", "4680": "sci a ", "4681": "dio a ", "4682": "pio a ", "4683": "za ed ", "4684": "ta io ", "4685": "ria \u2019 ", "4686": "stian ", "4687": "segn\u00f2 ", "4688": "li \u2019l ", "4689": "vra i ", "4690": "ge ad ", "4691": "ri in ", "4692": "re ho ", "4693": "li ha ", "4694": "zo al ", "4695": "t\u2019 io ", "4696": "va a\u2019 ", "4697": "to \u2019n ", "4698": "re ad ", "4699": "po ha ", "4700": "che \u2019 ", "4701": "ta \u2019l ", "4702": "que a ", "4703": "sca i ", "4704": "bio e ", "4705": "ro i\u2019 ", "4706": "fu in ", "4707": "dri e ", "4708": "to ed ", "4709": "stial ", "4710": "gi il ", "4711": "t\u2019 i\u2019 ", "4712": "ci io ", "4713": "gni e ", "4714": "si \u2019n ", "4715": "non e ", "4716": "tri a ", "4717": "gia \u00e8 ", "4718": "r\u00e0 ed ", "4719": "ce ed ", "4720": "di ha ", "4721": "cea o ", "4722": "sta \u00e8 ", "4723": "se e\u2019 ", "4724": "po io ", "4725": "scion ", "4726": "va il ", "4727": "ni or ", "4728": "tra a ", "4729": "si in ", "4730": "rio e ", "4731": "b\u00f2 il ", "4732": "s\u2019 e\u2019 ", "4733": "ci in ", "4734": "vi in ", "4735": "di un ", "4736": "gnaio ", "4737": "gua a ", "4738": "zi al ", "4739": "tra \u00e8 ", "4740": "sce i ", "4741": "g\u00ec \u2019l ", "4742": "ne ed ", "4743": "ta in ", "4744": "d\u2019 e\u2019 ", "4745": "s\u2019 el ", "4746": "che a ", "4747": "stion ", "4748": "ha in ", "4749": "ce al ", "4750": "le or ", "4751": "c\u2019 ha ", "4752": "dia i ", "4753": "tro \u00e8 ", "4754": "no un ", "4755": "za un ", "4756": "lio \u00e8 ", "4757": "gia a ", "4758": "t\u2019 om ", "4759": "sa ad ", "4760": "sti a ", "4761": "ma il ", "4762": "ge il ", "4763": "ni il ", "4764": "to io ", "4765": "ma a\u2019 ", "4766": "si il ", "4767": "va ed ", "4768": "va or ", "4769": "co a\u2019 ", "4770": "vi \u2019l ", "4771": "cia i ", "4772": "d\u00f2 \u2019l ", "4773": "ve \u2019l ", "4774": "cio e ", "4775": "va un ", "4776": "no il ", "4777": "ni \u2019l ", "4778": "ve al ", "4779": "si ad ", "4780": "be i\u2019 ", "4781": "va ai ", "4782": "chiai ", "4783": "ne al ", "4784": "lio e ", "4785": "g\u00f2 \u2019l ", "4786": "mo ad ", "4787": "mi un ", "4788": "la \u2019l ", "4789": "sa in ", "4790": "gue a ", "4791": "ria \u00e8 ", "4792": "lui a ", "4793": "ra ed ", "4794": "to un ", "4795": "gna e ", "4796": "fo or ", "4797": "v\u2019 \u00e8n ", "4798": "te io ", "4799": "sia e ", "4800": "te il ", "4801": "pa ed ", "4802": "va al ", "4803": "ge or ", "4804": "ra or ", "4805": "ro al ", "4806": "staio ", "4807": "mi ed ", "4808": "te ai ", "4809": "gli e ", "4810": "sce a ", "4811": "to ir ", "4812": "c\u2019 ho ", "4813": "t\u00ec \u2019l ", "4814": "ce il ", "4815": "l\u2019 un ", "4816": "me al ", "4817": "tra e ", "4818": "gna a ", "4819": "di \u2019n ", "4820": "ro a\u2019 ", "4821": "ni ed ", "4822": "ro un ", "4823": "scia o ", "4824": "lia al ", "4825": "tro ai ", "4826": "trio e ", "4827": "c\u2019 ha\u2019 ", "4828": "tr\u2019 io ", "4829": "pi\u00f9 \u2019l ", "4830": "pi\u00f9 ir ", "4831": "va e i ", "4832": "gia or ", "4833": "gue il ", "4834": "qu\u2019 io ", "4835": "rio il ", "4836": "qua in ", "4837": "glio o ", "4838": "gni in ", "4839": "tre un ", "4840": "cea in ", "4841": "chio a ", "4842": "gi\u00f9 il ", "4843": "li ha\u2019 ", "4844": "gia un ", "4845": "ci\u00f2 il ", "4846": "que a\u2019 ", "4847": "sto io ", "4848": "chi \u2019n ", "4849": "gna a\u2019 ", "4850": "se\u2019 in ", "4851": "ghi in ", "4852": "s\u2019 hai ", "4853": "gna \u2019l ", "4854": "ti han ", "4855": "ria il ", "4856": "lea il ", "4857": "ri e \u2019 ", "4858": "ch\u2019 al ", "4859": "stro o ", "4860": "stro a ", "4861": "gli\u00f2 i ", "4862": "zie al ", "4863": "gna il ", "4864": "gio in ", "4865": "glio e ", "4866": "bre a\u2019 ", "4867": "diam i ", "4868": "lio ed ", "4869": "schi a ", "4870": "ch\u00e9 \u2019n ", "4871": "sto al ", "4872": "gno a\u2019 ", "4873": "pria e ", "4874": "que i\u2019 ", "4875": "c\u2019 han ", "4876": "gne al ", "4877": "que al ", "4878": "pi\u00e8 al ", "4879": "vea \u2019l ", "4880": "gio al ", "4881": "glia \u00e8 ", "4882": "che in ", "4883": "pra ed ", "4884": "pia in ", "4885": "di e \u2019 ", "4886": "ste in ", "4887": "gio il ", "4888": "stie e ", "4889": "ch\u2019 el ", "4890": "cia un ", "4891": "ra han ", "4892": "que in ", "4893": "dea in ", "4894": "m\u2019 hai ", "4895": "bra in ", "4896": "gi\u00f9 al ", "4897": "sia \u2019l ", "4898": "scia e ", "4899": "gio ha ", "4900": "ria al ", "4901": "strans ", "4902": "n\u2019 uom ", "4903": "si e \u2019 ", "4904": "lui i\u2019 ", "4905": "t\u2019 ha\u2019 ", "4906": "cria o ", "4907": "pre \u2019l ", "4908": "chi in ", "4909": "se uom ", "4910": "\u2019ve \u2019l ", "4911": "ne e \u2019 ", "4912": "ti\u2019 un ", "4913": "dia \u2019l ", "4914": "ni e \u2019 ", "4915": "ciai o ", "4916": "sco il ", "4917": "vra \u2019l ", "4918": "ro e \u2019 ", "4919": "gna in ", "4920": "gliuol ", "4921": "tra al ", "4922": "chi al ", "4923": "di\u2019 \u2019l ", "4924": "va\u2019 il ", "4925": "gia \u2019l ", "4926": "gi\u00f9 \u2019l ", "4927": "pi e i ", "4928": "to hai ", "4929": "sdegn\u00f2 ", "4930": "stra e ", "4931": "gio ad ", "4932": "stro e ", "4933": "ch\u2019 a\u2019 ", "4934": "schiar ", "4935": "tra in ", "4936": "pre a\u2019 ", "4937": "stra a ", "4938": "ste il ", "4939": "gno ad ", "4940": "tro ed ", "4941": "sche o ", "4942": "chi ha ", "4943": "sce il ", "4944": "gli un ", "4945": "ch\u00e9 il ", "4946": "ch\u2019 \u00e8i ", "4947": "pria o ", "4948": "chi a\u2019 ", "4949": "mio il ", "4950": "smo al ", "4951": "gno al ", "4952": "sti il ", "4953": "ch\u2019 in ", "4954": "do i p ", "4955": "gua in ", "4956": "dio in ", "4957": "gno in ", "4958": "gliuoi ", "4959": "nia il ", "4960": "stia e ", "4961": "mia al ", "4962": "tro ad ", "4963": "ghiaio ", "4964": "sta il ", "4965": "qua il ", "4966": "tri il ", "4967": "tro in ", "4968": "d\u2019 uom ", "4969": "ghio e ", "4970": "cio ed ", "4971": "st\u2019 ho ", "4972": "gno ha ", "4973": "que or ", "4974": "sta un ", "4975": "gno or ", "4976": "bio ed ", "4977": "pi\u00f9 al ", "4978": "glie e ", "4979": "lia il ", "4980": "stra \u00e8 ", "4981": "tro il ", "4982": "tro i\u2019 ", "4983": "ci e \u2019 ", "4984": "rio ho ", "4985": "zia il ", "4986": "stri e ", "4987": "bia \u2019l ", "4988": "schi o ", "4989": "ro e o ", "4990": "tr\u2019 al ", "4991": "zia in ", "4992": "dri ai ", "4993": "che a\u2019 ", "4994": "sto ad ", "4995": "ch\u2019 io ", "4996": "nio al ", "4997": "ch\u2019 ei ", "4998": "que ad ", "4999": "dr\u00e0 il ", "5000": "dia in ", "5001": "ne han ", "5002": "sce in ", "5003": "po e \u2019 ", "5004": "scia a ", "5005": "dria e ", "5006": "cia ir ", "5007": "sti ha ", "5008": "me e \u2019 ", "5009": "r\u00f3n il ", "5010": "che un ", "5011": "ni e i ", "5012": "chio \u00e8 ", "5013": "smo in ", "5014": "cia ad ", "5015": "fra \u2019l ", "5016": "sa e \u2019 ", "5017": "sc\u2019 io ", "5018": "sti \u2019l ", "5019": "scio a ", "5020": "pre ha ", "5021": "gi\u2019 or ", "5022": "ch\u2019 ai ", "5023": "sto in ", "5024": "tra \u2019l ", "5025": "sta al ", "5026": "ch\u2019 i\u2019 ", "5027": "pa e \u2019 ", "5028": "li han ", "5029": "rio ha ", "5030": "m\u2019 han ", "5031": "pre in ", "5032": "fia il ", "5033": "stro i ", "5034": "due \u2019l ", "5035": "ch\u00e9 \u2019l ", "5036": "zio al ", "5037": "pra \u2019l ", "5038": "ch\u2019 e\u2019 ", "5039": "cia il ", "5040": "cia in ", "5041": "dre al ", "5042": "rio in ", "5043": "tra il ", "5044": "cheo e ", "5045": "ch\u2019 or ", "5046": "gno ed ", "5047": "l\u2019 uom ", "5048": "stio e ", "5049": "tre in ", "5050": "spra e ", "5051": "glia a ", "5052": "sta in ", "5053": "mio in ", "5054": "ba e \u2019 ", "5055": "tro \u2019l ", "5056": "ch\u2019 ad ", "5057": "gne \u2019l ", "5058": "t\u2019 hai ", "5059": "sto ha ", "5060": "sia il ", "5061": "tro a\u2019 ", "5062": "gro un ", "5063": "che il ", "5064": "bia in ", "5065": "pra al ", "5066": "gue in ", "5067": "ne e i ", "5068": "que il ", "5069": "tre al ", "5070": "tr\u2019 a\u2019 ", "5071": "ghia a ", "5072": "chi il ", "5073": "ti e i ", "5074": "chi \u2019l ", "5075": "ti e \u2019 ", "5076": "pi\u00f9 il ", "5077": "sti in ", "5078": "so\u2019 \u2019n ", "5079": "fi\u00f2 il ", "5080": "gi\u00e0 il ", "5081": "tro io ", "5082": "sta \u2019n ", "5083": "so hai ", "5084": "tre a\u2019 ", "5085": "la \u2019ve ", "5086": "glia o ", "5087": "ro hai ", "5088": "gna un ", "5089": "sc\u00ec \u2019l ", "5090": "tro al ", "5091": "gl\u2019 io ", "5092": "gia il ", "5093": "pra in ", "5094": "chia e ", "5095": "pre al ", "5096": "ci\u00f2 io ", "5097": "glio a ", "5098": "bra od ", "5099": "gu\u00ec \u2019l ", "5100": "che \u2019l ", "5101": "gli al ", "5102": "ch\u2019 om ", "5103": "qua al ", "5104": "gno il ", "5105": "te han ", "5106": "l\u2019 hai ", "5107": "cea il ", "5108": "chi ei ", "5109": "tro un ", "5110": "ghi al ", "5111": "pu\u00f2 \u2019l ", "5112": "qui \u2019l ", "5113": "tri or ", "5114": "chio e ", "5115": "c\u2019 hai ", "5116": "bra ad ", "5117": "che al ", "5118": "che \u2019n ", "5119": "cia al ", "5120": "ch\u2019 un ", "5121": "tro ha ", "5122": "dro in ", "5123": "sto il ", "5124": "pi\u00e9 \u2019l ", "5125": "gi\u00f9 in ", "5126": "tre i\u2019 ", "5127": "tri \u2019l ", "5128": "na\u2019 il ", "5129": "tri ad ", "5130": "tra i\u2019 ", "5131": "ci\u00f2 \u2019l ", "5132": "stro \u00e8 ", "5133": "glia e ", "5134": "tre il ", "5135": "bria e ", "5136": "gi\u00e0 \u2019l ", "5137": "ghi \u2019l ", "5138": "va e \u2019n ", "5139": "chio al ", "5140": "qu\u2019 ieu ", "5141": "gne uom ", "5142": "ce e \u2019l ", "5143": "glia in ", "5144": "te e \u2019l ", "5145": "glio in ", "5146": "re e \u2019l ", "5147": "m\u2019 \u00e8 \u2019l ", "5148": "ciai el ", "5149": "ti e \u2019l ", "5150": "zo e \u2019l ", "5151": "no e \u2019l ", "5152": "v\u2019 \u00e8 \u2019l ", "5153": "stro or ", "5154": "co e \u2019l ", "5155": "sci\u00f2 il ", "5156": "ta e \u2019l ", "5157": "glie \u2019l ", "5158": "gnia in ", "5159": "stri in ", "5160": "stia ad ", "5161": "mo e \u2019l ", "5162": "me e \u2019l ", "5163": "ca e \u2019l ", "5164": "me e \u2019n ", "5165": "vo e \u2019l ", "5166": "de e \u2019l ", "5167": "so e \u2019l ", "5168": "glia al ", "5169": "glia il ", "5170": "ne e \u2019l ", "5171": "stra \u2019l ", "5172": "lo \u00e8 in ", "5173": "chio il ", "5174": "to e \u2019l ", "5175": "be e \u2019l ", "5176": "giai al ", "5177": "se e \u2019l ", "5178": "va e \u2019l ", "5179": "la e \u2019l ", "5180": "stra il ", "5181": "dia e i ", "5182": "scia il ", "5183": "mi e \u2019l ", "5184": "ta e \u2019n ", "5185": "si e \u2019l ", "5186": "to o al ", "5187": "s\u2019 io e ", "5188": "ci e \u2019l ", "5189": "na e \u2019l ", "5190": "ciai oh ", "5191": "go e \u2019l ", "5192": "chia al ", "5193": "ma e \u2019l ", "5194": "bo e \u2019l ", "5195": "tra e \u2019 ", "5196": "l\u2019 \u00e8 \u2019l ", "5197": "le e \u2019l ", "5198": "naio in ", "5199": "schio e ", "5200": "dre e \u2019 ", "5201": "chio ha ", "5202": "che e \u2019 ", "5203": "ra e \u2019l ", "5204": "stro il ", "5205": "po e \u2019l ", "5206": "glio or ", "5207": "ch\u2019 uom ", "5208": "chio in ", "5209": "glia un ", "5210": "gnia ad ", "5211": "bre e \u2019 ", "5212": "sa e \u2019l ", "5213": "te e \u2019n ", "5214": "de e \u2019n ", "5215": "schia e ", "5216": "glio ai ", "5217": "go \u00e8 in ", "5218": "za e \u2019l ", "5219": "glie in ", "5220": "lio e i ", "5221": "ro e \u2019l ", "5222": "ga e \u2019l ", "5223": "stro ed ", "5224": "do e \u2019n ", "5225": "stro in ", "5226": "to \u00e8 \u2019l ", "5227": "m\u2019 \u00e8 il ", "5228": "s\u2019 i\u2019 \u2019l ", "5229": "bra e \u2019l ", "5230": "sta e \u2019l ", "5231": "sti \u00e8 \u2019l ", "5232": "zio e \u2019l ", "5233": "pra e \u2019l ", "5234": "dre e \u2019l ", "5235": "c\u2019 ha \u2019l ", "5236": "tre e \u2019l ", "5237": "ria e \u2019l ", "5238": "bia e \u2019l ", "5239": "gio e \u2019l ", "5240": "d\u2019 io \u2019l ", "5241": "tri e \u2019l ", "5242": "v\u2019 ha \u2019l ", "5243": "dio e \u2019l ", "5244": "chi e \u2019l ", "5245": "tr\u2019 \u00e8 \u2019l ", "5246": "cia e \u2019l ", "5247": "so ha \u2019l ", "5248": "zie e \u2019l ", "5249": "schi uom ", "5250": "sio e \u2019l ", "5251": "que e \u2019l ", "5252": "st\u2019 \u00e8 \u2019l ", "5253": "ria \u00e8 \u2019l ", "5254": "li ha in ", "5255": "tra e \u2019l ", "5256": "te ha in ", "5257": "l\u2019 avria ", "5258": "to ha \u2019l ", "5259": "ch\u2019 io \u2019l ", "5260": "chio o \u2019l ", "5261": "stro e \u2019l ", "5262": "scia e \u2019l ", "5263": "chie e \u2019n ", "5264": "li er\u2019 io ", "5265": "chio e \u2019l ", "5266": "ch\u2019 i\u2019 \u2019l ", "5267": "re avrian ", "5268": "glio e \u2019l ", "5269": "s\u2019 io e \u2019l ", "5270": "r\u00e0tro e \u2019l "}