{"0": "", "1": "<v>", "2": "</v>", "3": "<t>", "4": "</t>", "5": "s", "6": "e", "7": "\u00e9", "8": "\u00fc", "9": "\u00ef", "10": "\u00f2", "11": "i", "12": "a", "13": "u", "14": "o", "15": "\u00e8", "16": "op", "17": "v\u00e8", "18": "ta", "19": "om", "20": "c\u00ef", "21": "av", "22": "m\u00e4", "23": "\u00f2s", "24": "l\u00f2", "25": "s\u00eb", "26": "bi", "27": "ti", "28": "eb", "29": "zi", "30": "d\u00fc", "31": "tu", "32": "fo", "33": "vo", "34": "l\u00ec", "35": "no", "36": "r\u00ef", "37": "s\u00e9", "38": "s\u00f2", "39": "ab", "40": "c\u00ec", "41": "la", "42": "az", "43": "t\u00fc", "44": "si", "45": "du", "46": "li", "47": "de", "48": "l\u00eb", "49": "ne", "50": "ap", "51": "so", "52": "el", "53": "ad", "54": "l\u00ef", "55": "ri", "56": "n\u00f2", "57": "p\u00fc", "58": "t\u00f2", "59": "s\u00f9", "60": "ur", "61": "ia", "62": "di", "63": "su", "64": "le", "65": "b\u00ef", "66": "s\u00ef", "67": "v\u00eb", "68": "an", "69": "in", "70": "m\u00ec", "71": "al", "72": "n\u00fc", "73": "ba", "74": "ef", "75": "mi", "76": "m\u00eb", "77": "ot", "78": "mo", "79": "eu", "80": "po", "81": "re", "82": "va", "83": "ni", "84": "zo", "85": "g\u00f3", "86": "d\u00e8", "87": "\u00e8v", "88": "ie", "89": "im", "90": "en", "91": "p\u00ec", "92": "fu", "93": "r\u00e0", "94": "l\u00e8", "95": "am", "96": "ob", "97": "au", "98": "me", "99": "se", "100": "v\u00f2", "101": "pu", "102": "ve", "103": "ae", "104": "ci", "105": "n\u00e8", "106": "t\u00ef", "107": "ca", "108": "c\u00fc", "109": "te", "110": "ag", "111": "p\u00e8", "112": "be", "113": "d\u00eb", "114": "g\u00e8", "115": "ha", "116": "pi", "117": "ze", "118": "gu", "119": "t\u00e8", "120": "m\u00e8", "121": "fe", "122": "n\u00ef", "123": "er", "124": "ge", "125": "l\u00fc", "126": "bu", "127": "mu", "128": "io", "129": "ro", "130": "to", "131": "as", "132": "b\u00eb", "133": "ru", "134": "da", "135": "za", "136": "es", "137": "on", "138": "fi", "139": "gi", "140": "s\u00e0", "141": "t\u00eb", "142": "ac", "143": "t\u00e4", "144": "r\u00eb", "145": "\u00e8n", "146": "of", "147": "c\u00eb", "148": "sa", "149": "r\u00f3", "150": "vi", "151": "ol", "152": "af", "153": "iu", "154": "id", "155": "un", "156": "il", "157": "t\u00ec", "158": "do", "159": "d\u00ef", "160": "f\u00e9", "161": "fa", "162": "ga", "163": "oc", "164": "z\u00ef", "165": "d\u00e9", "166": "g\u00ef", "167": "at", "168": "et", "169": "f\u00eb", "170": "ra", "171": "go", "172": "or", "173": "ce", "174": "f\u00f3", "175": "em", "176": "v\u00ef", "177": "qu", "178": "g\u00eb", "179": "os", "180": "ar", "181": "n\u00eb", "182": "co", "183": "ec", "184": "p\u00eb", "185": "f\u00ef", "186": "l\u00e0", "187": "s\u00fc", "188": "m\u00ef", "189": "cu", "190": "pe", "191": "p\u00ef", "192": "vu", "193": "ul", "194": "nu", "195": "ov", "196": "lo", "197": "na", "198": "pa", "199": "uo", "200": "r\u00e8", "201": "c\u00f9", "202": "uc", "203": "l\u00f6", "204": "is", "205": "og", "206": "bo", "207": "lu", "208": "ma", "209": "con", "210": "sag", "211": "ner", "212": "ger", "213": "coc", "214": "boz", "215": "che", "216": "fen", "217": "ras", "218": "smu", "219": "sta", "220": "cea", "221": "smo", "222": "ces", "223": "tar", "224": "min", "225": "mel", "226": "tat", "227": "neg", "228": "gag", "229": "gad", "230": "dri", "231": "cap", "232": "cal", "233": "raz", "234": "pun", "235": "mol", "236": "f\u00e0c", "237": "von", "238": "guz", "239": "lem", "240": "v\u00f2l", "241": "bet", "242": "ten", "243": "piu", "244": "lut", "245": "ses", "246": "bor", "247": "cui", "248": "sle", "249": "fib", "250": "mil", "251": "vet", "252": "clu", "253": "fun", "254": "gni", "255": "lab", "256": "mie", "257": "bri", "258": "fri", "259": "fes", "260": "pic", "261": "lai", "262": "dio", "263": "cin", "264": "vuo", "265": "pli", "266": "vem", "267": "qui", "268": "fom", "269": "nag", "270": "pan", "271": "pop", "272": "bal", "273": "zel", "274": "dat", "275": "mic", "276": "mes", "277": "rio", "278": "pen", "279": "cit", "280": "fer", "281": "mot", "282": "ior", "283": "smi", "284": "sam", "285": "bro", "286": "des", "287": "poz", "288": "puo", "289": "guc", "290": "bel", "291": "rut", "292": "per", "293": "gri", "294": "nor", "295": "pia", "296": "tam", "297": "met", "298": "dan", "299": "dur", "300": "dez", "301": "vas", "302": "rea", "303": "dr\u00e4", "304": "sie", "305": "gra", "306": "cuc", "307": "fin", "308": "sen", "309": "nat", "310": "gom", "311": "gna", "312": "fre", "313": "dil", "314": "nuc", "315": "por", "316": "cle", "317": "das", "318": "cru", "319": "bea", "320": "dre", "321": "luo", "322": "vid", "323": "cag", "324": "mor", "325": "dia", "326": "val", "327": "fan", "328": "vac", "329": "p\u00f2s", "330": "gia", "331": "cov", "332": "bef", "333": "lus", "334": "spe", "335": "pac", "336": "iat", "337": "lop", "338": "sep", "339": "nol", "340": "dar", "341": "loc", "342": "tut", "343": "c\u00e9r", "344": "cun", "345": "ghe", "346": "cez", "347": "ven", "348": "lat", "349": "col", "350": "cas", "351": "t\u00f2m", "352": "ram", "353": "dif", "354": "zac", "355": "dub", "356": "tol", "357": "pal", "358": "fal", "359": "bur", "360": "cat", "361": "fig", "362": "nil", "363": "tag", "364": "gui", "365": "til", "366": "lar", "367": "zon", "368": "cic", "369": "sud", "370": "nis", "371": "buo", "372": "pau", "373": "sti", "374": "fuc", "375": "ric", "376": "spu", "377": "rig", "378": "ste", "379": "cot", "380": "cli", "381": "fac", "382": "ple", "383": "viz", "384": "que", "385": "gan", "386": "tis", "387": "lam", "388": "rid", "389": "bev", "390": "sac", "391": "tim", "392": "pru", "393": "ves", "394": "sop", "395": "san", "396": "fum", "397": "del", "398": "noz", "399": "plo", "400": "rir", "401": "gas", "402": "bio", "403": "raf", "404": "deg", "405": "der", "406": "top", "407": "can", "408": "ful", "409": "pur", "410": "tho", "411": "pri", "412": "soz", "413": "soc", "414": "gim", "415": "dul", "416": "dea", "417": "cob", "418": "lit", "419": "tru", "420": "bre", "421": "vul", "422": "lec", "423": "nie", "424": "dop", "425": "puc", "426": "dov", "427": "ret", "428": "flu", "429": "puz", "430": "fiu", "431": "sec", "432": "sog", "433": "ch\u00ef", "434": "sic", "435": "lor", "436": "goc", "437": "vom", "438": "cla", "439": "det", "440": "vil", "441": "sap", "442": "mar", "443": "git", "444": "dau", "445": "fog", "446": "mun", "447": "tau", "448": "vat", "449": "dun", "450": "vez", "451": "fru", "452": "fra", "453": "dor", "454": "sur", "455": "mat", "456": "pit", "457": "mul", "458": "rim", "459": "cul", "460": "sod", "461": "cos", "462": "pog", "463": "sot", "464": "nic", "465": "sol", "466": "ton", "467": "nez", "468": "sem", "469": "ian", "470": "seg", "471": "f\u00e9l", "472": "mur", "473": "gib", "474": "cie", "475": "sba", "476": "mer", "477": "rit", "478": "tun", "479": "coz", "480": "cam", "481": "pig", "482": "toc", "483": "cau", "484": "die", "485": "guo", "486": "cro", "487": "non", "488": "sci", "489": "bar", "490": "vin", "491": "pat", "492": "gen", "493": "fem", "494": "run", "495": "clo", "496": "sma", "497": "fas", "498": "pis", "499": "sel", "500": "dos", "501": "gre", "502": "noc", "503": "gab", "504": "cr\u00e0", "505": "sus", "506": "rav", "507": "sc\u00ef", "508": "cur", "509": "rez", "510": "paz", "511": "lup", "512": "nuo", "513": "p\u00e0r", "514": "pot", "515": "sia", "516": "pir", "517": "muc", "518": "lul", "519": "nen", "520": "zan", "521": "gie", "522": "qua", "523": "lis", "524": "iar", "525": "sco", "526": "tre", "527": "hon", "528": "bab", "529": "sno", "530": "pol", "531": "nin", "532": "sp\u00ef", "533": "nac", "534": "mem", "535": "cor", "536": "sgo", "537": "o u", "538": "sio", "539": "ler", "540": "lep", "541": "var", "542": "nia", "543": "dra", "544": "sup", "545": "gob", "546": "pi\u00e9", "547": "som", "548": "lom", "549": "mia", "550": "nob", "551": "o e", "552": "nem", "553": "lia", "554": "fit", "555": "lea", "556": "dir", "557": "br\u00ef", "558": "fur", "559": "din", "560": "vol", "561": "gio", "562": "pet", "563": "pio", "564": "cop", "565": "lim", "566": "mug", "567": "gal", "568": "lin", "569": "gru", "570": "bru", "571": "sga", "572": "fia", "573": "rac", "574": "cum", "575": "mos", "576": "pes", "577": "tan", "578": "dam", "579": "bin", "580": "lun", "581": "lon", "582": "duo", "583": "doc", "584": "zuf", "585": "cad", "586": "lau", "587": "moz", "588": "buc", "589": "bac", "590": "vis", "591": "rog", "592": "sub", "593": "sve", "594": "rab", "595": "nes", "596": "cl\u00ef", "597": "dru", "598": "tra", "599": "bis", "600": "gar", "601": "gue", "602": "tur", "603": "bon", "604": "giz", "605": "st\u00ef", "606": "ciu", "607": "gau", "608": "caf", "609": "ghi", "610": "suf", "611": "lic", "612": "riz", "613": "zia", "614": "leg", "615": "fuo", "616": "poc", "617": "tle", "618": "fic", "619": "vam", "620": "bol", "621": "gis", "622": "tas", "623": "nig", "624": "fol", "625": "bl\u00ef", "626": "sof", "627": "lot", "628": "vit", "629": "fro", "630": "cia", "631": "pil", "632": "nir", "633": "dem", "634": "dit", "635": "sas", "636": "nev", "637": "rel", "638": "tor", "639": "nun", "640": "don", "641": "dal", "642": "tr\u00ef", "643": "pel", "644": "muo", "645": "vie", "646": "cio", "647": "sin", "648": "lir", "649": "pec", "650": "ban", "651": "bec", "652": "sde", "653": "vec", "654": "tal", "655": "sun", "656": "net", "657": "pas", "658": "o a", "659": "mam", "660": "chi", "661": "fab", "662": "quo", "663": "muf", "664": "sis", "665": "bat", "666": "dug", "667": "peg", "668": "dus", "669": "qu\u00ef", "670": "bli", "671": "mal", "672": "sar", "673": "rot", "674": "rug", "675": "mir", "676": "rag", "677": "sos", "678": "dic", "679": "bil", "680": "set", "681": "ran", "682": "dec", "683": "ser", "684": "fle", "685": "cac", "686": "pl\u00ec", "687": "ges", "688": "rof", "689": "gil", "690": "fio", "691": "dob", "692": "cre", "693": "gon", "694": "goz", "695": "far", "696": "cet", "697": "gnu", "698": "ris", "699": "suc", "700": "tac", "701": "spo", "702": "sca", "703": "nas", "704": "roz", "705": "\u2018la", "706": "plu", "707": "saf", "708": "dro", "709": "lil", "710": "nom", "711": "lel", "712": "luc", "713": "diz", "714": "ch\u00ec", "715": "ben", "716": "rec", "717": "ial", "718": "gam", "719": "res", "720": "pro", "721": "den", "722": "rom", "723": "tom", "724": "gea", "725": "fel", "726": "tir", "727": "xil", "728": "car", "729": "boc", "730": "cir", "731": "fie", "732": "mon", "733": "rie", "734": "ter", "735": "vag", "736": "gno", "737": "cel", "738": "cef", "739": "cem", "740": "sna", "741": "nim", "742": "pre", "743": "tuo", "744": "sfo", "745": "lac", "746": "cer", "747": "tin", "748": "tem", "749": "tri", "750": "geo", "751": "ren", "752": "bul", "753": "pra", "754": "bie", "755": "vir", "756": "sra", "757": "pub", "758": "ruc", "759": "suo", "760": "nec", "761": "sum", "762": "gir", "763": "leb", "764": "sov", "765": "spi", "766": "tuf", "767": "pie", "768": "tic", "769": "gem", "770": "mai", "771": "stu", "772": "mac", "773": "dol", "774": "lip", "775": "nef", "776": "mag", "777": "gor", "778": "sal", "779": "buf", "780": "sfa", "781": "sab", "782": "lav", "783": "nal", "784": "lie", "785": "dim", "786": "man", "787": "lan", "788": "reb", "789": "sez", "790": "sug", "791": "t\u00f2r", "792": "sob", "793": "sil", "794": "dis", "795": "cra", "796": "veg", "797": "pap", "798": "tet", "799": "cri", "800": "nan", "801": "gol", "802": "bun", "803": "rap", "804": "zuc", "805": "c\u00f3l", "806": "dr\u00ef", "807": "niz", "808": "bra", "809": "pla", "810": "dut", "811": "zaf", "812": "nar", "813": "meg", "814": "zio", "815": "ier", "816": "glo", "817": "vor", "818": "rol", "819": "tec", "820": "zur", "821": "sv\u00ef", "822": "luz", "823": "a a", "824": "cis", "825": "par", "826": "sbi", "827": "put", "828": "son", "829": "a u", "830": "fis", "831": "tro", "832": "sce", "833": "rat", "834": "fos", "835": "piz", "836": "las", "837": "fon", "838": "gat", "839": "feb", "840": "rar", "841": "cep", "842": "giu", "843": "cen", "844": "pul", "845": "gli", "846": "fam", "847": "pom", "848": "fla", "849": "feg", "850": "rem", "851": "reg", "852": "biz", "853": "men", "854": "tuc", "855": "ver", "856": "red", "857": "ria", "858": "nur", "859": "gel", "860": "r\u00e8g", "861": "rin", "862": "svo", "863": "tez", "864": "sfe", "865": "zar", "866": "gua", "867": "com", "868": "m\u00e9z", "869": "lur", "870": "teg", "871": "tie", "872": "van", "873": "roc", "874": "pin", "875": "cuo", "876": "bot", "877": "gur", "878": "not", "879": "len", "880": "maz", "881": "gne", "882": "got", "883": "ber", "884": "les", "885": "sla", "886": "rob", "887": "nel", "888": "bom", "889": "tel", "890": "mas", "891": "han", "892": "pon", "893": "bas", "894": "pos", "895": "sme", "896": "ron", "897": "rup", "898": "let", "899": "sit", "900": "ral", "901": "dom", "902": "svi", "903": "ruf", "904": "fug", "905": "for", "906": "dot", "907": "sto", "908": "sat", "909": "vel", "910": "spa", "911": "fat", "912": "fet", "913": "tes", "914": "neb", "915": "mez", "916": "gaz", "917": "nul", "918": "sor", "919": "scu", "920": "lez", "921": "deb", "922": "laz", "923": "ruo", "924": "lap", "925": "bia", "926": "ros", "927": "tea", "928": "but", "929": "get", "930": "puom", "931": "gron", "932": "po o", "933": "mi o", "934": "d\u2019 e", "935": "a am", "936": "l\u2019 u", "937": "trar", "938": "ghir", "939": "schi", "940": "ga e", "941": "va i", "942": "quel", "943": "piom", "944": "guel", "945": "piog", "946": "ne e", "947": "glio", "948": "bron", "949": "ti a", "950": "m\u2019 a", "951": "scic", "952": "scer", "953": "no a", "954": "sban", "955": "me o", "956": "e \u2019n", "957": "fioc", "958": "go a", "959": "l\u2019 a", "960": "guir", "961": "ro u", "962": "scel", "963": "ghet", "964": "guiz", "965": "stem", "966": "spol", "967": "scoc", "968": "no i", "969": "s\u00ec a", "970": "ra e", "971": "smen", "972": "scor", "973": "spre", "974": "ciap", "975": "quat", "976": "gres", "977": "ghel", "978": "stav", "979": "dian", "980": "sten", "981": "brot", "982": "\u00e8 im", "983": "scar", "984": "brug", "985": "puos", "986": "smar", "987": "bi a", "988": "giot", "989": "chiu", "990": "brez", "991": "z\u2019 a", "992": "scuf", "993": "giac", "994": "fior", "995": "biac", "996": "li a", "997": "scen", "998": "se o", "999": "prin", "1000": "de e", "1001": "c\u2019 o", "1002": "ro a", "1003": "scet", "1004": "guef", "1005": "ghia", "1006": "c\u2019 e", "1007": "t\u2019 u", "1008": "glie", "1009": "co e", "1010": "spun", "1011": "truo", "1012": "trie", "1013": "pe i", "1014": "fles", "1015": "chio", "1016": "ze e", "1017": "piat", "1018": "ghio", "1019": "fret", "1020": "ma e", "1021": "ce u", "1022": "tiem", "1023": "sneb", "1024": "stin", "1025": "l\u2019 i", "1026": "to e", "1027": "di a", "1028": "quin", "1029": "sfio", "1030": "sgom", "1031": "la u", "1032": "prez", "1033": "gnie", "1034": "se a", "1035": "sa o", "1036": "d\u2019 o", "1037": "nian", "1038": "spuo", "1039": "scol", "1040": "ciel", "1041": "de o", "1042": "stas", "1043": "scal", "1044": "be u", "1045": "scos", "1046": "mo e", "1047": "sfam", "1048": "stre", "1049": "ra a", "1050": "spec", "1051": "lo o", "1052": "viem", "1053": "bian", "1054": "guic", "1055": "sman", "1056": "gnor", "1057": "ri e", "1058": "brut", "1059": "smal", "1060": "bren", "1061": "da u", "1062": "\u00e8 in", "1063": "v\u2019 a", "1064": "do o", "1065": "de u", "1066": "trop", "1067": "ce a", "1068": "spaz", "1069": "lo a", "1070": "stio", "1071": "\u2018glo", "1072": "vuol", "1073": "me e", "1074": "so a", "1075": "gi u", "1076": "grep", "1077": "s\u2019 a", "1078": "da e", "1079": "liev", "1080": "ma a", "1081": "t\u2019 o", "1082": "gior", "1083": "s\u2019 o", "1084": "si i", "1085": "giug", "1086": "na a", "1087": "so i", "1088": "brie", "1089": "fiac", "1090": "ve i", "1091": "s\u2019 u", "1092": "stor", "1093": "cruc", "1094": "si u", "1095": "l\u2019 \u00f2", "1096": "te o", "1097": "glau", "1098": "li u", "1099": "stan", "1100": "zi e", "1101": "to u", "1102": "drap", "1103": "ra i", "1104": "proc", "1105": "scuo", "1106": "gias", "1107": "dras", "1108": "scir", "1109": "m\u2019 o", "1110": "cias", "1111": "tram", "1112": "da a", "1113": "vi e", "1114": "bion", "1115": "pa e", "1116": "clis", "1117": "buon", "1118": "le a", "1119": "mo o", "1120": "guaz", "1121": "n\u2019 u", "1122": "po e", "1123": "spro", "1124": "ghil", "1125": "scim", "1126": "me i", "1127": "li o", "1128": "tror", "1129": "gnel", "1130": "sfat", "1131": "o av", "1132": "cheg", "1133": "n\u2019 a", "1134": "spic", "1135": "prie", "1136": "ghie", "1137": "tien", "1138": "d\u2019 \u00eb", "1139": "m\u2019 i", "1140": "sgra", "1141": "gnaz", "1142": "no u", "1143": "a ac", "1144": "quis", "1145": "tier", "1146": "gian", "1147": "cian", "1148": "scio", "1149": "so o", "1150": "guer", "1151": "spit", "1152": "span", "1153": "grop", "1154": "crea", "1155": "pi e", "1156": "sgor", "1157": "mi u", "1158": "za a", "1159": "le u", "1160": "guil", "1161": "scri", "1162": "zo a", "1163": "po a", "1164": "sver", "1165": "guet", "1166": "spon", "1167": "be i", "1168": "sciu", "1169": "trul", "1170": "scov", "1171": "graf", "1172": "scan", "1173": "squi", "1174": "pris", "1175": "pran", "1176": "creb", "1177": "flit", "1178": "do u", "1179": "re e", "1180": "ie a", "1181": "no e", "1182": "ciac", "1183": "ciot", "1184": "grot", "1185": "brul", "1186": "do a", "1187": "ciuo", "1188": "pe e", "1189": "stri", "1190": "na o", "1191": "be o", "1192": "ta u", "1193": "mo a", "1194": "r\u2019 o", "1195": "se i", "1196": "vi a", "1197": "di u", "1198": "qual", "1199": "spie", "1200": "ciar", "1201": "cras", "1202": "di e", "1203": "r\u2019 u", "1204": "glet", "1205": "gram", "1206": "ta i", "1207": "ve u", "1208": "gi e", "1209": "star", "1210": "pruo", "1211": "stol", "1212": "do i", "1213": "chis", "1214": "ca o", "1215": "sbri", "1216": "sden", "1217": "ca e", "1218": "scom", "1219": "za o", "1220": "guan", "1221": "spir", "1222": "pron", "1223": "stuo", "1224": "so e", "1225": "grie", "1226": "giam", "1227": "g\u2019 \u00ef", "1228": "ca u", "1229": "ghes", "1230": "fran", "1231": "o al", "1232": "ni e", "1233": "le o", "1234": "ti o", "1235": "plau", "1236": "na i", "1237": "piac", "1238": "s\u2019 e", "1239": "flig", "1240": "dram", "1241": "z\u2019 o", "1242": "ge o", "1243": "no o", "1244": "spor", "1245": "stuc", "1246": "trom", "1247": "ra u", "1248": "clau", "1249": "a al", "1250": "si e", "1251": "me a", "1252": "greg", "1253": "driz", "1254": "po u", "1255": "squa", "1256": "na u", "1257": "ro i", "1258": "ro e", "1259": "spal", "1260": "chez", "1261": "ster", "1262": "chie", "1263": "giar", "1264": "la e", "1265": "fian", "1266": "crol", "1267": "me u", "1268": "d\u2019 i", "1269": "grap", "1270": "vien", "1271": "pric", "1272": "sfin", "1273": "to a", "1274": "ziar", "1275": "smor", "1276": "le i", "1277": "stie", "1278": "t\u2019 a", "1279": "tren", "1280": "go e", "1281": "zo e", "1282": "si o", "1283": "giuo", "1284": "broc", "1285": "grem", "1286": "prir", "1287": "li e", "1288": "trot", "1289": "quen", "1290": "ga o", "1291": "da o", "1292": "tran", "1293": "gnan", "1294": "ciom", "1295": "di i", "1296": "ze o", "1297": "sche", "1298": "guen", "1299": "stil", "1300": "sper", "1301": "te a", "1302": "guar", "1303": "stia", "1304": "gras", "1305": "quan", "1306": "ta a", "1307": "la a", "1308": "ca a", "1309": "svel", "1310": "pi a", "1311": "sfan", "1312": "ma u", "1313": "scin", "1314": "a es", "1315": "dran", "1316": "zian", "1317": "a ef", "1318": "va u", "1319": "guag", "1320": "scaz", "1321": "ne o", "1322": "se e", "1323": "scop", "1324": "sfar", "1325": "grat", "1326": "ni a", "1327": "tret", "1328": "gran", "1329": "mian", "1330": "bo i", "1331": "so u", "1332": "a in", "1333": "fred", "1334": "co u", "1335": "gnon", "1336": "mo i", "1337": "quar", "1338": "cioc", "1339": "stiz", "1340": "le e", "1341": "d\u2019 \u00ef", "1342": "flet", "1343": "stro", "1344": "dien", "1345": "z\u2019 i", "1346": "re i", "1347": "spia", "1348": "ma o", "1349": "stam", "1350": "va e", "1351": "sa u", "1352": "sdet", "1353": "smon", "1354": "scis", "1355": "bo e", "1356": "ni o", "1357": "gheg", "1358": "trec", "1359": "giun", "1360": "l\u00ec e", "1361": "ge a", "1362": "s\u2019 \u00ef", "1363": "bran", "1364": "fiot", "1365": "ciul", "1366": "gien", "1367": "scam", "1368": "re a", "1369": "to i", "1370": "mi e", "1371": "ra o", "1372": "troc", "1373": "gial", "1374": "r\u00ec u", "1375": "vo o", "1376": "pian", "1377": "blan", "1378": "sfac", "1379": "gner", "1380": "sven", "1381": "lo e", "1382": "cion", "1383": "gros", "1384": "sbar", "1385": "ta o", "1386": "gnem", "1387": "brol", "1388": "fron", "1389": "sbra", "1390": "v\u2019 o", "1391": "ghez", "1392": "ne a", "1393": "spez", "1394": "mo u", "1395": "scot", "1396": "bris", "1397": "li \u2019", "1398": "stis", "1399": "pren", "1400": "guit", "1401": "si a", "1402": "d\u2019 u", "1403": "gher", "1404": "stet", "1405": "te u", "1406": "pres", "1407": "sber", "1408": "lo u", "1409": "v\u2019 e", "1410": "c\u2019 \u00ef", "1411": "trap", "1412": "stru", "1413": "spen", "1414": "sfre", "1415": "do e", "1416": "te e", "1417": "stes", "1418": "scre", "1419": "scia", "1420": "gnuo", "1421": "spes", "1422": "cher", "1423": "spin", "1424": "dier", "1425": "brac", "1426": "co o", "1427": "ci u", "1428": "stig", "1429": "bo a", "1430": "ciuf", "1431": "l\u2019 e", "1432": "m\u2019 e", "1433": "chia", "1434": "glia", "1435": "gnen", "1436": "tras", "1437": "scem", "1438": "scro", "1439": "str\u00e0", "1440": "la i", "1441": "stra", "1442": "puol", "1443": "ce o", "1444": "piez", "1445": "d\u2019 a", "1446": "t\u2019 e", "1447": "fiam", "1448": "stec", "1449": "e in", "1450": "pros", "1451": "spel", "1452": "trag", "1453": "scie", "1454": "ti e", "1455": "ro o", "1456": "la o", "1457": "smoz", "1458": "bias", "1459": "trat", "1460": "pi i", "1461": "va o", "1462": "ta e", "1463": "ci e", "1464": "ve a", "1465": "de a", "1466": "re u", "1467": "re o", "1468": "te i", "1469": "spet", "1470": "o ar", "1471": "biet", "1472": "gnar", "1473": "piov", "1474": "di o", "1475": "to o", "1476": "gual", "1477": "snel", "1478": "scab", "1479": "clas", "1480": "slac", "1481": "ci a", "1482": "piag", "1483": "ne u", "1484": "zi u", "1485": "se u", "1486": "chil", "1487": "ci o", "1488": "sfor", "1489": "ples", "1490": "vi o", "1491": "scon", "1492": "quil", "1493": "cien", "1494": "na e", "1495": "grom", "1496": "s\u00ec i", "1497": "tron", "1498": "sfer", "1499": "p\u2019 e", "1500": "sgri", "1501": "ti u", "1502": "frut", "1503": "sgan", "1504": "scac", "1505": "sa a", "1506": "stul", "1507": "trac", "1508": "grez", "1509": "quer", "1510": "stel", "1511": "n\u2019 o", "1512": "stal", "1513": "ti i", "1514": "drit", "1515": "spar", "1516": "za i", "1517": "de i", "1518": "ri u", "1519": "chet", "1520": "frat", "1521": "gnas", "1522": "co a", "1523": "plan", "1524": "treb", "1525": "pien", "1526": "stop", "1527": "be a", "1528": "ni u", "1529": "l\u2019 o", "1530": "s\u2019 i", "1531": "n\u2019 e", "1532": "zi o", "1533": "ti et", "1534": "lo an", "1535": "ci af", "1536": "to ov", "1537": "n\u2019 au", "1538": "to of", "1539": "l\u2019 en", "1540": "d\u2019 im", "1541": "t\u2019 in", "1542": "l\u2019 in", "1543": "fu in", "1544": "sa an", "1545": "stroc", "1546": "schie", "1547": "zi \u2019m", "1548": "te om", "1549": "do in", "1550": "di es", "1551": "ta ad", "1552": "v\u2019 of", "1553": "ro ac", "1554": "di om", "1555": "ne \u2019m", "1556": "v\u2019 et", "1557": "ce on", "1558": "ne \u2019n", "1559": "ta un", "1560": "va at", "1561": "za in", "1562": "ri an", "1563": "l\u2019 em", "1564": "sta a", "1565": "li es", "1566": "mo in", "1567": "dea u", "1568": "s\u00ec \u2019n", "1569": "ro es", "1570": "li oc", "1571": "se an", "1572": "l\u2019 op", "1573": "no ec", "1574": "ci in", "1575": "bi al", "1576": "ta op", "1577": "za on", "1578": "ta ac", "1579": "l\u2019 ot", "1580": "ge et", "1581": "ch\u2019 i", "1582": "co ar", "1583": "la es", "1584": "lo af", "1585": "te \u2019n", "1586": "lo on", "1587": "po av", "1588": "ci ad", "1589": "s\u2019 ag", "1590": "za am", "1591": "gi an", "1592": "so on", "1593": "se op", "1594": "le at", "1595": "lo as", "1596": "t\u2019 ab", "1597": "l\u2019 el", "1598": "d\u2019 es", "1599": "ti en", "1600": "m\u2019 as", "1601": "qua e", "1602": "n\u2019 ag", "1603": "scrit", "1604": "si an", "1605": "cio e", "1606": "s\u2019 ad", "1607": "ma or", "1608": "mo at", "1609": "ta at", "1610": "lo al", "1611": "ci ar", "1612": "m\u2019 es", "1613": "to ad", "1614": "lo ar", "1615": "d\u2019 ar", "1616": "ve es", "1617": "ro im", "1618": "do ar", "1619": "li al", "1620": "schia", "1621": "se as", "1622": "de eu", "1623": "ne an", "1624": "s\u2019 el", "1625": "s\u2019 of", "1626": "ti or", "1627": "v\u2019 an", "1628": "za an", "1629": "l\u2019 es", "1630": "le \u2019n", "1631": "no ac", "1632": "lo at", "1633": "mo es", "1634": "se on", "1635": "lo ac", "1636": "co in", "1637": "strug", "1638": "zi ag", "1639": "l\u2019 an", "1640": "di az", "1641": "spiac", "1642": "to af", "1643": "l\u2019 ab", "1644": "re im", "1645": "me al", "1646": "ge un", "1647": "ro on", "1648": "s\u2019 af", "1649": "sto o", "1650": "ti oc", "1651": "re ad", "1652": "strut", "1653": "l\u2019 im", "1654": "c\u2019 en", "1655": "r\u2019 al", "1656": "ne ap", "1657": "na af", "1658": "n\u2019 at", "1659": "so eb", "1660": "di ac", "1661": "ghien", "1662": "no av", "1663": "s\u2019 in", "1664": "li un", "1665": "no \u2019n", "1666": "sgrie", "1667": "li ul", "1668": "l\u2019 as", "1669": "sci\u00e0n", "1670": "le in", "1671": "s\u2019 am", "1672": "l\u2019 \u00e0n", "1673": "s\u2019 as", "1674": "de an", "1675": "sa es", "1676": "n\u2019 an", "1677": "splen", "1678": "no ag", "1679": "n\u2019 om", "1680": "t\u2019 as", "1681": "do am", "1682": "stroz", "1683": "l\u2019 ov", "1684": "ne av", "1685": "scrip", "1686": "ch\u2019 \u00ef", "1687": "li er", "1688": "ci or", "1689": "to ec", "1690": "no es", "1691": "d\u2019 ac", "1692": "s\u2019 at", "1693": "la in", "1694": "te in", "1695": "si el", "1696": "zia o", "1697": "va \u2019n", "1698": "t\u2019 es", "1699": "t\u2019 av", "1700": "mo im", "1701": "ca er", "1702": "ze or", "1703": "m\u2019 in", "1704": "tr\u2019 a", "1705": "ci am", "1706": "re ar", "1707": "scian", "1708": "squar", "1709": "li ac", "1710": "sciau", "1711": "ro or", "1712": "li au", "1713": "li am", "1714": "st\u2019 u", "1715": "schio", "1716": "ne ag", "1717": "te ab", "1718": "s\u2019 av", "1719": "vi al", "1720": "st\u2019 o", "1721": "l\u2019 on", "1722": "d\u2019 ot", "1723": "lo er", "1724": "be on", "1725": "chioc", "1726": "lo of", "1727": "t\u2019 ag", "1728": "de in", "1729": "ro eb", "1730": "ta al", "1731": "ro am", "1732": "fe et", "1733": "no or", "1734": "te os", "1735": "ra im", "1736": "t\u2019 af", "1737": "sa ac", "1738": "re om", "1739": "ta et", "1740": "no ad", "1741": "co at", "1742": "me of", "1743": "vi ac", "1744": "re eb", "1745": "do ol", "1746": "ve al", "1747": "ri ar", "1748": "li in", "1749": "de ar", "1750": "li ap", "1751": "ma ac", "1752": "si in", "1753": "re oc", "1754": "ra av", "1755": "se at", "1756": "ta in", "1757": "na on", "1758": "di og", "1759": "do eb", "1760": "mo af", "1761": "t\u00e0 in", "1762": "te of", "1763": "ro ab", "1764": "m\u2019 al", "1765": "ge an", "1766": "d\u2019 eb", "1767": "ta es", "1768": "s\u00ec \u2019m", "1769": "n\u2019 on", "1770": "lo \u2019m", "1771": "sciut", "1772": "chi o", "1773": "chi u", "1774": "co et", "1775": "vo at", "1776": "te af", "1777": "za im", "1778": "le ol", "1779": "li of", "1780": "vo an", "1781": "chiap", "1782": "scris", "1783": "pie e", "1784": "stram", "1785": "ro at", "1786": "la av", "1787": "gno u", "1788": "ce au", "1789": "n\u2019 ar", "1790": "li im", "1791": "no om", "1792": "tri o", "1793": "na in", "1794": "re am", "1795": "ro ap", "1796": "l\u2019 ag", "1797": "ma an", "1798": "ce ac", "1799": "be av", "1800": "ro oc", "1801": "si at", "1802": "do el", "1803": "d\u2019 az", "1804": "to ac", "1805": "qu\u2019 o", "1806": "de al", "1807": "te em", "1808": "ti av", "1809": "fu el", "1810": "l\u2019 ef", "1811": "le av", "1812": "v\u2019 eb", "1813": "n\u2019 am", "1814": "z\u2019 es", "1815": "ta ar", "1816": "se in", "1817": "re ab", "1818": "di av", "1819": "re ap", "1820": "te ar", "1821": "co ac", "1822": "ne as", "1823": "d\u2019 ol", "1824": "so al", "1825": "gna a", "1826": "s\u2019 et", "1827": "ni ap", "1828": "scran", "1829": "no au", "1830": "si ar", "1831": "no al", "1832": "no af", "1833": "ri in", "1834": "te ag", "1835": "l\u2019 ad", "1836": "ne ar", "1837": "d\u2019 og", "1838": "lia a", "1839": "hi om", "1840": "la en", "1841": "sta o", "1842": "gliuo", "1843": "bo on", "1844": "ch\u2019 o", "1845": "ta an", "1846": "do as", "1847": "n\u2019 uo", "1848": "l\u2019 oc", "1849": "pr\u2019 e", "1850": "ra ot", "1851": "s\u2019 al", "1852": "ci ap", "1853": "gia e", "1854": "va al", "1855": "l\u2019 ap", "1856": "sbe a", "1857": "d\u2019 et", "1858": "fu im", "1859": "ta as", "1860": "li \u2019n", "1861": "pre e", "1862": "le as", "1863": "sta e", "1864": "de on", "1865": "me at", "1866": "d\u2019 or", "1867": "te au", "1868": "na ab", "1869": "ga in", "1870": "to eb", "1871": "ra et", "1872": "l\u2019 al", "1873": "so en", "1874": "ghian", "1875": "so in", "1876": "ma ap", "1877": "ro au", "1878": "rio a", "1879": "che u", "1880": "so am", "1881": "zo an", "1882": "re au", "1883": "za al", "1884": "va in", "1885": "l\u2019 or", "1886": "m\u2019 ab", "1887": "t\u2019 or", "1888": "de or", "1889": "ni en", "1890": "d\u2019 ap", "1891": "te an", "1892": "strel", "1893": "co an", "1894": "de ag", "1895": "t\u2019 al", "1896": "li eb", "1897": "go al", "1898": "ti ac", "1899": "bra a", "1900": "glien", "1901": "ce ar", "1902": "sguar", "1903": "ve oc", "1904": "li or", "1905": "l\u2019 ul", "1906": "le es", "1907": "di al", "1908": "te es", "1909": "gni e", "1910": "m\u2019 ap", "1911": "vo as", "1912": "la al", "1913": "chias", "1914": "pi or", "1915": "gliel", "1916": "ma al", "1917": "tra a", "1918": "de au", "1919": "mi an", "1920": "l\u00ec en", "1921": "l\u2019 ol", "1922": "zia e", "1923": "se es", "1924": "sa ol", "1925": "be ar", "1926": "ri ac", "1927": "ri al", "1928": "ra el", "1929": "do at", "1930": "l\u2019 at", "1931": "v\u2019 ap", "1932": "to on", "1933": "pi ap", "1934": "ti \u2019n", "1935": "ce eu", "1936": "po ar", "1937": "le al", "1938": "de af", "1939": "tro u", "1940": "le \u2019m", "1941": "ne ac", "1942": "do ap", "1943": "ro in", "1944": "d\u2019 at", "1945": "ce av", "1946": "re in", "1947": "ze es", "1948": "re at", "1949": "di in", "1950": "n\u2019 av", "1951": "ti at", "1952": "vo au", "1953": "mi \u2019n", "1954": "lo il", "1955": "l\u2019 er", "1956": "to es", "1957": "go in", "1958": "be al", "1959": "ra al", "1960": "so es", "1961": "re ol", "1962": "l\u2019 un", "1963": "l\u2019 et", "1964": "s\u2019 ar", "1965": "mo an", "1966": "la or", "1967": "ta of", "1968": "li av", "1969": "strac", "1970": "m\u2019 ar", "1971": "si im", "1972": "stren", "1973": "no an", "1974": "so \u2019n", "1975": "ce af", "1976": "che a", "1977": "chi e", "1978": "schem", "1979": "ra on", "1980": "d\u2019 au", "1981": "s\u2019 em", "1982": "d\u2019 on", "1983": "ghiot", "1984": "di ab", "1985": "l\u2019 av", "1986": "strat", "1987": "le uc", "1988": "ro as", "1989": "me ef", "1990": "so at", "1991": "re av", "1992": "ba un", "1993": "ca in", "1994": "na av", "1995": "mi am", "1996": "d\u2019 al", "1997": "te ad", "1998": "li ag", "1999": "vi ar", "2000": "to in", "2001": "li et", "2002": "vi of", "2003": "dre e", "2004": "cio a", "2005": "scher", "2006": "l\u2019 af", "2007": "ni es", "2008": "me an", "2009": "d\u2019 of", "2010": "li em", "2011": "ri ap", "2012": "ve an", "2013": "mo on", "2014": "na ac", "2015": "squil", "2016": "de as", "2017": "chiar", "2018": "do es", "2019": "to ab", "2020": "z\u2019 ar", "2021": "sa ap", "2022": "sti o", "2023": "gne u", "2024": "ca an", "2025": "sto e", "2026": "to al", "2027": "po an", "2028": "le ad", "2029": "t\u2019 an", "2030": "te or", "2031": "re il", "2032": "le or", "2033": "tu ha", "2034": "mo eb", "2035": "t\u2019 ar", "2036": "se ac", "2037": "la el", "2038": "sta u", "2039": "me as", "2040": "di im", "2041": "bo al", "2042": "do an", "2043": "l\u2019 ai", "2044": "te er", "2045": "to ap", "2046": "so as", "2047": "ti ad", "2048": "so ar", "2049": "l\u2019 uo", "2050": "to oc", "2051": "no im", "2052": "no ab", "2053": "za \u2019n", "2054": "l\u2019 uc", "2055": "ve ar", "2056": "d\u2019 an", "2057": "t\u2019 im", "2058": "ce at", "2059": "si \u2019n", "2060": "ro av", "2061": "n\u2019 er", "2062": "tro e", "2063": "lo im", "2064": "me in", "2065": "spraz", "2066": "stret", "2067": "la \u2019m", "2068": "ta el", "2069": "la on", "2070": "le on", "2071": "tra e", "2072": "li ad", "2073": "la au", "2074": "vi \u2019m", "2075": "to an", "2076": "mi ad", "2077": "ra ac", "2078": "za et", "2079": "to im", "2080": "ga as", "2081": "re ot", "2082": "fa az", "2083": "la ol", "2084": "le ap", "2085": "n\u2019 ab", "2086": "l\u2019 am", "2087": "si as", "2088": "t\u2019 em", "2089": "ra of", "2090": "do er", "2091": "so ab", "2092": "to uc", "2093": "li at", "2094": "re an", "2095": "sa in", "2096": "sce a", "2097": "scial", "2098": "zo ar", "2099": "ia al", "2100": "to ef", "2101": "me ap", "2102": "stras", "2103": "v\u2019 ac", "2104": "si ad", "2105": "do or", "2106": "ti im", "2107": "m\u2019 at", "2108": "strom", "2109": "sa on", "2110": "che e", "2111": "m\u2019 an", "2112": "se \u2019n", "2113": "no in", "2114": "te al", "2115": "si og", "2116": "ha \u2019n", "2117": "schet", "2118": "ne et", "2119": "l\u2019 eb", "2120": "zi al", "2121": "mo al", "2122": "t\u2019 el", "2123": "mo ol", "2124": "co ad", "2125": "ca en", "2126": "li ab", "2127": "ni an", "2128": "bre a", "2129": "na es", "2130": "tro i", "2131": "tra i", "2132": "na of", "2133": "se un", "2134": "glies", "2135": "bra u", "2136": "s\u2019 ac", "2137": "d\u2019 en", "2138": "ch\u2019 u", "2139": "sgiun", "2140": "gliet", "2141": "stric", "2142": "gne a", "2143": "va eb", "2144": "mo ar", "2145": "v\u2019 ab", "2146": "di of", "2147": "me ac", "2148": "ni in", "2149": "ta on", "2150": "ra an", "2151": "so et", "2152": "vo ac", "2153": "pre a", "2154": "pi in", "2155": "le am", "2156": "re af", "2157": "re es", "2158": "streg", "2159": "ci al", "2160": "ci an", "2161": "m\u2019 of", "2162": "gne o", "2163": "na eb", "2164": "no at", "2165": "de \u2019n", "2166": "sciar", "2167": "ne af", "2168": "do af", "2169": "li on", "2170": "te ol", "2171": "to ar", "2172": "schic", "2173": "ste a", "2174": "cea u", "2175": "ne ov", "2176": "li uc", "2177": "na ap", "2178": "ta ab", "2179": "so an", "2180": "gia o", "2181": "te en", "2182": "chi a", "2183": "suo a", "2184": "zio a", "2185": "va an", "2186": "se al", "2187": "di af", "2188": "co er", "2189": "d\u2019 ur", "2190": "t\u2019 ap", "2191": "re ac", "2192": "ti as", "2193": "ti am", "2194": "ro al", "2195": "ni as", "2196": "strin", "2197": "cia e", "2198": "la of", "2199": "ni av", "2200": "ma on", "2201": "zio e", "2202": "stran", "2203": "s\u2019 en", "2204": "l\u2019 au", "2205": "ma \u2019n", "2206": "t\u2019 om", "2207": "ne es", "2208": "ro ar", "2209": "cia o", "2210": "ta im", "2211": "no er", "2212": "m\u2019 ad", "2213": "si er", "2214": "si or", "2215": "gi ar", "2216": "d\u2019 eu", "2217": "tr\u2019 e", "2218": "r\u2019 an", "2219": "ci at", "2220": "tro o", "2221": "d\u2019 ab", "2222": "re ag", "2223": "bo av", "2224": "d\u2019 oc", "2225": "d\u2019 am", "2226": "n\u2019 al", "2227": "le an", "2228": "li \u2019m", "2229": "co al", "2230": "no et", "2231": "io al", "2232": "li af", "2233": "c\u2019 im", "2234": "do al", "2235": "co ap", "2236": "m\u2019 af", "2237": "vi in", "2238": "que o", "2239": "ra ad", "2240": "do im", "2241": "va id", "2242": "zie o", "2243": "ce es", "2244": "chian", "2245": "ta am", "2246": "re en", "2247": "ce in", "2248": "l\u2019 um", "2249": "m\u2019 ac", "2250": "va im", "2251": "v\u2019 el", "2252": "si am", "2253": "l\u2019 os", "2254": "re on", "2255": "te ap", "2256": "\u2019v\u2019 e", "2257": "ri on", "2258": "me ar", "2259": "do ac", "2260": "ma es", "2261": "si av", "2262": "to or", "2263": "ta eu", "2264": "do on", "2265": "so ad", "2266": "s\u2019 os", "2267": "li an", "2268": "sto a", "2269": "pa in", "2270": "ne in", "2271": "li uo", "2272": "ma in", "2273": "me au", "2274": "lo in", "2275": "ce im", "2276": "ra eb", "2277": "re as", "2278": "po al", "2279": "co av", "2280": "m\u2019 im", "2281": "spres", "2282": "s\u2019 eb", "2283": "l\u2019 ae", "2284": "zio u", "2285": "t\u2019 ac", "2286": "no ar", "2287": "te as", "2288": "sa og", "2289": "de am", "2290": "ci av", "2291": "ti ar", "2292": "ti \u2019m", "2293": "ve at", "2294": "v\u2019 es", "2295": "do oc", "2296": "d\u2019 os", "2297": "no as", "2298": "n\u2019 eb", "2299": "to et", "2300": "scioc", "2301": "so of", "2302": "di an", "2303": "sciam", "2304": "ra es", "2305": "za er", "2306": "ti in", "2307": "se af", "2308": "so ap", "2309": "s\u2019 ab", "2310": "m\u2019 eb", "2311": "de er", "2312": "ste i", "2313": "scias", "2314": "mo ac", "2315": "re et", "2316": "d\u2019 om", "2317": "s\u2019 es", "2318": "va ar", "2319": "bre o", "2320": "de om", "2321": "li ar", "2322": "lo eb", "2323": "di ad", "2324": "ra ec", "2325": "no ap", "2326": "tri a", "2327": "ce et", "2328": "v\u2019 am", "2329": "le oc", "2330": "l\u2019 of", "2331": "to ol", "2332": "ne al", "2333": "s\u2019 er", "2334": "tro a", "2335": "lo av", "2336": "gliar", "2337": "l\u2019 ar", "2338": "s\u2019 im", "2339": "mi er", "2340": "strar", "2341": "lo \u2019n", "2342": "sciom", "2343": "te im", "2344": "re al", "2345": "po in", "2346": "mo of", "2347": "l\u2019 om", "2348": "ni al", "2349": "ci \u2019n", "2350": "d\u2019 af", "2351": "fo et", "2352": "n\u2019 in", "2353": "m\u2019 av", "2354": "ve ap", "2355": "li om", "2356": "m\u2019 ag", "2357": "n\u2019 ap", "2358": "zi at", "2359": "to at", "2360": "scheg", "2361": "de of", "2362": "li as", "2363": "ni on", "2364": "d\u2019 el", "2365": "ne on", "2366": "mo or", "2367": "no am", "2368": "mi ac", "2369": "sco u", "2370": "ro an", "2371": "mo ec", "2372": "schiu", "2373": "gliam", "2374": "si of", "2375": "v\u2019 ar", "2376": "s\u2019 op", "2377": "ch\u2019 a", "2378": "t\u2019 am", "2379": "si ol", "2380": "ra in", "2381": "si \u2019m", "2382": "sfran", "2383": "glian", "2384": "co on", "2385": "te is", "2386": "vi an", "2387": "lo es", "2388": "tri e", "2389": "te ac", "2390": "v\u2019 in", "2391": "d\u2019 in", "2392": "si al", "2393": "si en", "2394": "sti a", "2395": "di ol", "2396": "l\u2019 ac", "2397": "la ap", "2398": "ghiac", "2399": "le of", "2400": "be as", "2401": "to av", "2402": "z\u2019 al", "2403": "zo in", "2404": "ci as", "2405": "go es", "2406": "v\u2019 al", "2407": "ze et", "2408": "si ac", "2409": "cro a", "2410": "pra a", "2411": "chiet", "2412": "te at", "2413": "s\u00ec in", "2414": "se ap", "2415": "ti of", "2416": "po on", "2417": "l\u2019 ec", "2418": "te on", "2419": "ro um", "2420": "sco o", "2421": "ra ap", "2422": "ne em", "2423": "to ag", "2424": "n\u2019 ac", "2425": "ma of", "2426": "pa es", "2427": "m\u2019 om", "2428": "tra u", "2429": "ti an", "2430": "na ar", "2431": "sciol", "2432": "vi en", "2433": "t\u2019 at", "2434": "la \u2019n", "2435": "ne im", "2436": "di on", "2437": "co eb", "2438": "st\u2019 a", "2439": "sta i", "2440": "s\u2019 an", "2441": "dio i", "2442": "spran", "2443": "mi al", "2444": "gli u", "2445": "gno a", "2446": "sa im", "2447": "ch\u2019 e", "2448": "na \u2019n", "2449": "mio a", "2450": "ca on", "2451": "to as", "2452": "mi ap", "2453": "ce al", "2454": "zo as", "2455": "s\u2019 ap", "2456": "ro of", "2457": "ra as", "2458": "r\u2019 es", "2459": "vi on", "2460": "vi av", "2461": "cia a", "2462": "ti al", "2463": "me am", "2464": "le ar", "2465": "ra am", "2466": "ce as", "2467": "mi in", "2468": "ge in", "2469": "ni am", "2470": "d\u2019 er", "2471": "ra uc", "2472": "v\u2019 er", "2473": "tr\u2019 om", "2474": "glio u", "2475": "ch\u2019 es", "2476": "st\u2019 es", "2477": "tri af", "2478": "chi an", "2479": "st\u2019 an", "2480": "tre an", "2481": "lio in", "2482": "gio on", "2483": "c\u2019 han", "2484": "stri o", "2485": "sta im", "2486": "chi in", "2487": "gno al", "2488": "tro et", "2489": "ste in", "2490": "sta ol", "2491": "vio in", "2492": "stri a", "2493": "gno af", "2494": "tri in", "2495": "sto ap", "2496": "tr\u2019 ar", "2497": "schian", "2498": "sto an", "2499": "chi ac", "2500": "li han", "2501": "tre os", "2502": "cio et", "2503": "sco al", "2504": "ch\u2019 at", "2505": "glia a", "2506": "sta an", "2507": "gno am", "2508": "qua im", "2509": "str\u2019 u", "2510": "chi al", "2511": "scia e", "2512": "pie or", "2513": "pi\u00f9 \u2019n", "2514": "gna in", "2515": "mio \u2019n", "2516": "sti or", "2517": "zia il", "2518": "zia or", "2519": "ch\u2019 eb", "2520": "sce el", "2521": "sti on", "2522": "glio o", "2523": "zia on", "2524": "chi ar", "2525": "sto ac", "2526": "sta in", "2527": "gue an", "2528": "st\u2019 al", "2529": "ch\u2019 og", "2530": "ch\u2019 ad", "2531": "ch\u2019 ap", "2532": "ch\u2019 ag", "2533": "ch\u2019 in", "2534": "glio e", "2535": "tro an", "2536": "ch\u2019 en", "2537": "dia as", "2538": "dre an", "2539": "gne in", "2540": "tra ef", "2541": "cio al", "2542": "m\u2019 han", "2543": "tri ap", "2544": "n\u2019 han", "2545": "chio a", "2546": "st\u2019 ot", "2547": "sto al", "2548": "pre in", "2549": "dre al", "2550": "sta al", "2551": "st\u2019 in", "2552": "tro \u2019m", "2553": "chio o", "2554": "bra in", "2555": "ch\u2019 el", "2556": "ch\u2019 am", "2557": "tra an", "2558": "pre ac", "2559": "tro as", "2560": "cie in", "2561": "tri as", "2562": "cio ap", "2563": "mia \u2019n", "2564": "che in", "2565": "stro e", "2566": "sto on", "2567": "gne im", "2568": "ch\u2019 or", "2569": "st\u2019 ac", "2570": "gia ar", "2571": "bia an", "2572": "schiat", "2573": "sto in", "2574": "gh\u2019 es", "2575": "tri es", "2576": "st\u2019 ar", "2577": "vea \u2019m", "2578": "ch\u2019 an", "2579": "gno ae", "2580": "pre es", "2581": "gne ef", "2582": "qua on", "2583": "t\u2019 han", "2584": "gne uo", "2585": "bri ap", "2586": "stra i", "2587": "ch\u2019 av", "2588": "ch\u2019 ab", "2589": "pre ar", "2590": "ch\u2019 as", "2591": "l\u2019 han", "2592": "stro o", "2593": "stra a", "2594": "rio an", "2595": "ria in", "2596": "tro al", "2597": "tre in", "2598": "tro ac", "2599": "sto of", "2600": "tra av", "2601": "st\u2019 ul", "2602": "glia u", "2603": "ch\u2019 al", "2604": "che om", "2605": "sto \u2019m", "2606": "sti oc", "2607": "tro av", "2608": "gue or", "2609": "chi on", "2610": "ch\u2019 ar", "2611": "bre an", "2612": "ste an", "2613": "pre al", "2614": "stra e", "2615": "cia im", "2616": "stra u", "2617": "stro a", "2618": "che \u2019m", "2619": "ghe on", "2620": "che ar", "2621": "tro in", "2622": "nio im", "2623": "st\u2019 of", "2624": "d\u2019 han", "2625": "gue on", "2626": "gne al", "2627": "co e i", "2628": "sti in", "2629": "tro ar", "2630": "gni an", "2631": "que es", "2632": "cio as", "2633": "tr\u2019 am", "2634": "sti un", "2635": "pre at", "2636": "sto ar", "2637": "tr\u2019 al", "2638": "sta og", "2639": "lio as", "2640": "sti er", "2641": "gio in", "2642": "tro of", "2643": "sto at", "2644": "bre et", "2645": "sti al", "2646": "sco an", "2647": "gia al", "2648": "dre as", "2649": "sto es", "2650": "sce al", "2651": "sma in", "2652": "gne er", "2653": "sti av", "2654": "schiet", "2655": "ti han", "2656": "glia o", "2657": "tri of", "2658": "sti an", "2659": "ch\u2019 et", "2660": "gio uc", "2661": "chio u", "2662": "sto \u2019n", "2663": "ch\u2019 er", "2664": "pi\u00f9 in", "2665": "qua of", "2666": "te han", "2667": "go han", "2668": "che \u2019n", "2669": "sto im", "2670": "sce as", "2671": "ria of", "2672": "bre in", "2673": "tro ap", "2674": "ne han", "2675": "che an", "2676": "bia in", "2677": "che ha", "2678": "tro ab", "2679": "gno in", "2680": "chi am", "2681": "tro on", "2682": "gne ac", "2683": "sce an", "2684": "qua in", "2685": "pr\u2019 ar", "2686": "cia ar", "2687": "pio on", "2688": "cia on", "2689": "zie ec", "2690": "stro u", "2691": "ri han", "2692": "sti es", "2693": "chi ap", "2694": "dre eb", "2695": "dre es", "2696": "lio an", "2697": "ch\u2019 ac", "2698": "gia in", "2699": "tra op", "2700": "lia an", "2701": "ria on", "2702": "sti el", "2703": "mio in", "2704": "que al", "2705": "d\u2019 i\u2019 a", "2706": "si e \u2019n", "2707": "stro av", "2708": "stro in", "2709": "stra ef", "2710": "stri ef", "2711": "lo e \u2019n", "2712": "stre in", "2713": "chia of", "2714": "stro eb", "2715": "scia an", "2716": "stro al", "2717": "glie an", "2718": "glia al", "2719": "dio han", "2720": "chie et", "2721": "chio in", "2722": "glio an", "2723": "str\u2019 or", "2724": "stro im", "2725": "stro es", "2726": "stra ap", "2727": "li \u00e8 in", "2728": "sche ab", "2729": "stri an", "2730": "sche er", "2731": "re a \u2019n", "2732": "stro an", "2733": "glio es", "2734": "stra in", "2735": "trio al", "2736": "glia ac", "2737": "stro oc", "2738": "chio an", "2739": "chio at", "2740": "glia in", "2741": "stri av", "2742": "glia es", "2743": "glio in", "2744": "glia as", "2745": "stri af", "2746": "ti e \u2019n", "2747": "glio on", "2748": "stro ac", "2749": "chia an", "2750": "str\u2019 ar", "2751": "stri al", "2752": "glie al", "2753": "glie eb", "2754": "stro as", "2755": "n\u2019 \u00e8 im", "2756": "glio as", "2757": "t\u2019 ho in", "2758": "sti a \u2019n", "2759": "ch\u2019 e\u2019 \u2019n", "2760": "ch\u2019 io \u2019n", "2761": "a ", "2762": "e ", "2763": "\u00ef ", "2764": "\u00f9 ", "2765": "\u00f2 ", "2766": "o ", "2767": "\u00e8 ", "2768": "s ", "2769": "i ", "2770": "t\u00e0 ", "2771": "n\u00e9 ", "2772": "el ", "2773": "s\u00ec ", "2774": "ei ", "2775": "b\u00f2 ", "2776": "fu ", "2777": "ba ", "2778": "t\u00e9 ", "2779": "ar ", "2780": "v\u00f2 ", "2781": "si ", "2782": "\u00f9l ", "2783": "l\u00e0 ", "2784": "al ", "2785": "l\u00f2 ", "2786": "in ", "2787": "il ", "2788": "bi ", "2789": "te ", "2790": "su ", "2791": "fi ", "2792": "g\u00ec ", "2793": "c\u00f2 ", "2794": "d\u00ec ", "2795": "\u00e8l ", "2796": "c\u00e9 ", "2797": "i\u2019 ", "2798": "ab ", "2799": "\u00e0m ", "2800": "\u00e0s ", "2801": "zi ", "2802": "z\u00f2 ", "2803": "to ", "2804": "ir ", "2805": "ie ", "2806": "di ", "2807": "\u00e9n ", "2808": "na ", "2809": "r\u00f2 ", "2810": "ti ", "2811": "ve ", "2812": "m\u00e8 ", "2813": "ne ", "2814": "fo ", "2815": "b\u00e8 ", "2816": "t\u00e8 ", "2817": "vo ", "2818": "f\u00e0 ", "2819": "un ", "2820": "ce ", "2821": "v\u00ec ", "2822": "ha ", "2823": "l\u00ec ", "2824": "le ", "2825": "re ", "2826": "pi ", "2827": "et ", "2828": "sa ", "2829": "ai ", "2830": "ca ", "2831": "n\u00f2 ", "2832": "ri ", "2833": "l\u00e8 ", "2834": "\u00f2s ", "2835": "r\u00ec ", "2836": "no ", "2837": "a\u2019 ", "2838": "d\u00e0 ", "2839": "vi ", "2840": "t\u00f9 ", "2841": "t\u00f2 ", "2842": "g\u00f2 ", "2843": "b\u00f9 ", "2844": "ra ", "2845": "f\u00e9 ", "2846": "\u00e0r ", "2847": "oh ", "2848": "\u00f3n ", "2849": "pa ", "2850": "om ", "2851": "go ", "2852": "zo ", "2853": "pe ", "2854": "ci ", "2855": "ge ", "2856": "ta ", "2857": "gi ", "2858": "s\u00e8 ", "2859": "co ", "2860": "d\u00e9 ", "2861": "r\u00e0 ", "2862": "p\u00f2 ", "2863": "t\u00ec ", "2864": "li ", "2865": "d\u00f2 ", "2866": "m\u00f2 ", "2867": "va ", "2868": "do ", "2869": "an ", "2870": "be ", "2871": "s\u00e9 ", "2872": "me ", "2873": "n\u00e0 ", "2874": "ae ", "2875": "od ", "2876": "as ", "2877": "ni ", "2878": "ed ", "2879": "mi ", "2880": "lo ", "2881": "fa ", "2882": "ho ", "2883": "f\u00f2 ", "2884": "po ", "2885": "ma ", "2886": "s\u00f2 ", "2887": "da ", "2888": "u\u2019 ", "2889": "p\u00e8 ", "2890": "bo ", "2891": "ad ", "2892": "s\u00f9 ", "2893": "or ", "2894": "mo ", "2895": "e\u2019 ", "2896": "n\u00ec ", "2897": "se ", "2898": "za ", "2899": "n\u00e8 ", "2900": "us ", "2901": "os ", "2902": "ro ", "2903": "so ", "2904": "tu ", "2905": "ia ", "2906": "la ", "2907": "ga ", "2908": "io ", "2909": "on ", "2910": "ut ", "2911": "fe ", "2912": "de ", "2913": "ze ", "2914": "gli ", "2915": "gei ", "2916": "spa ", "2917": "sto ", "2918": "for ", "2919": "d\u00eca ", "2920": "l\u00eco ", "2921": "ghi ", "2922": "ror ", "2923": "tes ", "2924": "a a ", "2925": "sui ", "2926": "bar ", "2927": "sen ", "2928": "tol ", "2929": "gu\u00ec ", "2930": "lar ", "2931": "st\u00f9 ", "2932": "bel ", "2933": "ral ", "2934": "za\u2019 ", "2935": "su\u2019 ", "2936": "don ", "2937": "vau ", "2938": "man ", "2939": "ver ", "2940": "se\u2019 ", "2941": "zai ", "2942": "cie ", "2943": "st\u00ec ", "2944": "nio ", "2945": "bil ", "2946": "fon ", "2947": "mor ", "2948": "ste ", "2949": "o e ", "2950": "poi ", "2951": "mae ", "2952": "dal ", "2953": "car ", "2954": "cer ", "2955": "gir ", "2956": "nai ", "2957": "cem ", "2958": "pu\u00f2 ", "2959": "gn\u00ec ", "2960": "nan ", "2961": "sol ", "2962": "sta ", "2963": "g\u00f3n ", "2964": "gi\u00e0 ", "2965": "tan ", "2966": "t\u00e0n ", "2967": "vo\u2019 ", "2968": "uo\u2019 ", "2969": "que ", "2970": "di\u00e8 ", "2971": "nis ", "2972": "nol ", "2973": "sie ", "2974": "tre ", "2975": "zul ", "2976": "ran ", "2977": "tro ", "2978": "ieu ", "2979": "chi ", "2980": "cle ", "2981": "n\u00ect ", "2982": "dri ", "2983": "b\u00eca ", "2984": "pir ", "2985": "lai ", "2986": "tra ", "2987": "s\u00f3n ", "2988": "pia ", "2989": "min ", "2990": "sii ", "2991": "e i ", "2992": "vie ", "2993": "lia ", "2994": "sio ", "2995": "t\u00e9r ", "2996": "ghe ", "2997": "r\u00f2l ", "2998": "ton ", "2999": "bor ", "3000": "dea ", "3001": "pal ", "3002": "tei ", "3003": "dra ", "3004": "cun ", "3005": "uom ", "3006": "b\u00e0l ", "3007": "gne ", "3008": "sc\u00ec ", "3009": "che ", "3010": "lor ", "3011": "pur ", "3012": "rem ", "3013": "o a ", "3014": "per ", "3015": "f\u00f3n ", "3016": "vil ", "3017": "pie ", "3018": "m\u00eca ", "3019": "r\u00ecb ", "3020": "ler ", "3021": "rer ", "3022": "tar ", "3023": "col ", "3024": "bio ", "3025": "tea ", "3026": "mer ", "3027": "tr\u00e0 ", "3028": "g\u00f3r ", "3029": "nea ", "3030": "mil ", "3031": "sei ", "3032": "sin ", "3033": "gi\u00f9 ", "3034": "bia ", "3035": "cra ", "3036": "vea ", "3037": "mie ", "3038": "bol ", "3039": "ten ", "3040": "pio ", "3041": "bre ", "3042": "via ", "3043": "fai ", "3044": "til ", "3045": "bri ", "3046": "ben ", "3047": "co\u2019 ", "3048": "cen ", "3049": "lu\u2019 ", "3050": "cor ", "3051": "reo ", "3052": "a i ", "3053": "pi\u00e8 ", "3054": "nia ", "3055": "dai ", "3056": "pel ", "3057": "c\u00f2b ", "3058": "ga\u2019 ", "3059": "nei ", "3060": "gno ", "3061": "bir ", "3062": "mio ", "3063": "fia ", "3064": "re\u2019 ", "3065": "sa\u2019 ", "3066": "cui ", "3067": "neo ", "3068": "tal ", "3069": "dro ", "3070": "na\u2019 ", "3071": "peo ", "3072": "mal ", "3073": "sel ", "3074": "cio ", "3075": "rir ", "3076": "bue ", "3077": "qua ", "3078": "l\u00e8m ", "3079": "rel ", "3080": "fer ", "3081": "sce ", "3082": "rar ", "3083": "ch\u00e9 ", "3084": "par ", "3085": "clo ", "3086": "zia ", "3087": "vem ", "3088": "m\u00ecs ", "3089": "rei ", "3090": "du\u2019 ", "3091": "nha ", "3092": "due ", "3093": "dee ", "3094": "rai ", "3095": "fan ", "3096": "pem ", "3097": "dio ", "3098": "sco ", "3099": "gio ", "3100": "ier ", "3101": "ban ", "3102": "sua ", "3103": "da\u2019 ", "3104": "gna ", "3105": "cil ", "3106": "tel ", "3107": "tri ", "3108": "ahi ", "3109": "bis ", "3110": "cur ", "3111": "sti ", "3112": "ion ", "3113": "fei ", "3114": "dur ", "3115": "son ", "3116": "feo ", "3117": "der ", "3118": "nal ", "3119": "fin ", "3120": "sir ", "3121": "pol ", "3122": "bra ", "3123": "rie ", "3124": "sci ", "3125": "gu\u00f2 ", "3126": "ri\u2019 ", "3127": "lee ", "3128": "f\u00e8l ", "3129": "bee ", "3130": "tr\u00f2 ", "3131": "dr\u00f2 ", "3132": "rao ", "3133": "gea ", "3134": "cia ", "3135": "mai ", "3136": "ser ", "3137": "hai ", "3138": "spe ", "3139": "r\u00ecs ", "3140": "dan ", "3141": "tun ", "3142": "dre ", "3143": "pra ", "3144": "bro ", "3145": "d\u00e8i ", "3146": "por ", "3147": "fu\u2019 ", "3148": "sis ", "3149": "tus ", "3150": "nem ", "3151": "me\u2019 ", "3152": "suo ", "3153": "can ", "3154": "gro ", "3155": "gra ", "3156": "tir ", "3157": "smo ", "3158": "gor ", "3159": "ria ", "3160": "mei ", "3161": "fur ", "3162": "ron ", "3163": "sem ", "3164": "pan ", "3165": "lin ", "3166": "cea ", "3167": "gri ", "3168": "deo ", "3169": "ra\u2019 ", "3170": "tor ", "3171": "lie ", "3172": "mon ", "3173": "ian ", "3174": "mun ", "3175": "cum ", "3176": "lio ", "3177": "ti\u2019 ", "3178": "tua ", "3179": "lei ", "3180": "noi ", "3181": "sai ", "3182": "cei ", "3183": "fra ", "3184": "meo ", "3185": "tem ", "3186": "cin ", "3187": "mar ", "3188": "di\u2019 ", "3189": "gai ", "3190": "gin ", "3191": "sar ", "3192": "nin ", "3193": "lui ", "3194": "vam ", "3195": "fe\u2019 ", "3196": "nil ", "3197": "pre ", "3198": "cri ", "3199": "\u2018te ", "3200": "mas ", "3201": "qui ", "3202": "sun ", "3203": "rum ", "3204": "gni ", "3205": "gia ", "3206": "lea ", "3207": "ci\u00f2 ", "3208": "zie ", "3209": "leo ", "3210": "tin ", "3211": "gi\u2019 ", "3212": "die ", "3213": "deh ", "3214": "con ", "3215": "rea ", "3216": "nie ", "3217": "ne\u2019 ", "3218": "non ", "3219": "coi ", "3220": "ril ", "3221": "pon ", "3222": "cu\u2019 ", "3223": "ber ", "3224": "cel ", "3225": "tai ", "3226": "cai ", "3227": "ta\u2019 ", "3228": "gui ", "3229": "bei ", "3230": "zon ", "3231": "smi ", "3232": "a e ", "3233": "tuo ", "3234": "dir ", "3235": "bi\u00f2 ", "3236": "vai ", "3237": "pei ", "3238": "gi\u00f2 ", "3239": "n\u00e8s ", "3240": "fi\u2019 ", "3241": "num ", "3242": "dr\u00e0 ", "3243": "pin ", "3244": "gua ", "3245": "pi\u00f9 ", "3246": "cal ", "3247": "cre ", "3248": "va\u2019 ", "3249": "vio ", "3250": "bon ", "3251": "e \u2019 ", "3252": "ma\u2019 ", "3253": "far ", "3254": "gis ", "3255": "sma ", "3256": "nor ", "3257": "st\u00e0 ", "3258": "gre ", "3259": "dei ", "3260": "pi\u00e9 ", "3261": "cul ", "3262": "ean ", "3263": "gol ", "3264": "fil ", "3265": "teo ", "3266": "l\u00f2n ", "3267": "del ", "3268": "st\u00e9 ", "3269": "tis ", "3270": "unt ", "3271": "vei ", "3272": "plo ", "3273": "gel ", "3274": "lir ", "3275": "san ", "3276": "ner ", "3277": "fui ", "3278": "men ", "3279": "pri ", "3280": "var ", "3281": "f\u00e0t ", "3282": "din ", "3283": "han ", "3284": "mul ", "3285": "sca ", "3286": "\u2019ve ", "3287": "ter ", "3288": "t\u00f3n ", "3289": "sor ", "3290": "dar ", "3291": "van ", "3292": "sub ", "3293": "des ", "3294": "dor ", "3295": "zar ", "3296": "c\u00e0n ", "3297": "r\u00f3n ", "3298": "pea ", "3299": "tia ", "3300": "dia ", "3301": "zan ", "3302": "vol ", "3303": "no\u2019 ", "3304": "ve\u2019 ", "3305": "ges ", "3306": "te\u2019 ", "3307": "pro ", "3308": "sue ", "3309": "ven ", "3310": "nel ", "3311": "len ", "3312": "duo ", "3313": "cis ", "3314": "v\u00ecd ", "3315": "sal ", "3316": "nir ", "3317": "ren ", "3318": "n\u00eca ", "3319": "gan ", "3320": "lan ", "3321": "pr\u00ec ", "3322": "f\u00e0s ", "3323": "rin ", "3324": "pr\u00e0 ", "3325": "gar ", "3326": "dil ", "3327": "zio ", "3328": "sia ", "3329": "de\u2019 ", "3330": "bus ", "3331": "ger ", "3332": "n\u00f2s ", "3333": "sul ", "3334": "nar ", "3335": "val ", "3336": "dem ", "3337": "tio ", "3338": "gon ", "3339": "ram ", "3340": "mia ", "3341": "von ", "3342": "vel ", "3343": "c\u00f2l ", "3344": "cro ", "3345": "vra ", "3346": "vas ", "3347": "st\u00f2 ", "3348": "voi ", "3349": "rio ", "3350": "vin ", "3351": "gue ", "3352": "gal ", "3353": "tue ", "3354": "lon ", "3355": "suo\u2019 ", "3356": "gnan ", "3357": "ce a ", "3358": "o un ", "3359": "la i ", "3360": "co \u00e8 ", "3361": "be a ", "3362": "stui ", "3363": "ciul ", "3364": "ci\u00f2l ", "3365": "ti e ", "3366": "ma i ", "3367": "s\u00e9 i ", "3368": "gnor ", "3369": "i il ", "3370": "mo a ", "3371": "me \u00e8 ", "3372": "po i ", "3373": "vier ", "3374": "te e ", "3375": "ch e ", "3376": "m\u2019 \u00e8 ", "3377": "pa e ", "3378": "ra i ", "3379": "se o ", "3380": "pa \u00e8 ", "3381": "ge e ", "3382": "guir ", "3383": "di a ", "3384": "gli\u00f2 ", "3385": "ga o ", "3386": "fren ", "3387": "ta a ", "3388": "stri ", "3389": "scun ", "3390": "go e ", "3391": "si a ", "3392": "giam ", "3393": "guia ", "3394": "to a ", "3395": "fuor ", "3396": "siam ", "3397": "si e ", "3398": "co o ", "3399": "ze e ", "3400": "ve o ", "3401": "ciel ", "3402": "no e ", "3403": "fe e ", "3404": "sa a ", "3405": "niam ", "3406": "sunt ", "3407": "vuoi ", "3408": "bi e ", "3409": "grin ", "3410": "po e ", "3411": "bia\u2019 ", "3412": "gner ", "3413": "ne i ", "3414": "vi o ", "3415": "nien ", "3416": "vo a ", "3417": "li i ", "3418": "re \u00e8 ", "3419": "nier ", "3420": "gnum ", "3421": "ve a ", "3422": "spri ", "3423": "su i ", "3424": "mie\u2019 ", "3425": "ne o ", "3426": "d\u2019 i ", "3427": "stie ", "3428": "ca \u00e8 ", "3429": "ce \u00e8 ", "3430": "fi e ", "3431": "ciol ", "3432": "ni e ", "3433": "mi a ", "3434": "bian ", "3435": "ghin ", "3436": "ta i ", "3437": "di i ", "3438": "puoi ", "3439": "biar ", "3440": "drir ", "3441": "be e ", "3442": "ro o ", "3443": "tuon ", "3444": "miei ", "3445": "le a ", "3446": "vi \u00e8 ", "3447": "ra o ", "3448": "io e ", "3449": "pi e ", "3450": "o al ", "3451": "dean ", "3452": "que\u2019 ", "3453": "stea ", "3454": "ce o ", "3455": "dail ", "3456": "de e ", "3457": "le i ", "3458": "ti i ", "3459": "ci o ", "3460": "vuo\u2019 ", "3461": "ne \u00e8 ", "3462": "si i ", "3463": "tria ", "3464": "stai ", "3465": "ziar ", "3466": "duol ", "3467": "d\u00ec i ", "3468": "gier ", "3469": "gnin ", "3470": "rean ", "3471": "go a ", "3472": "die\u2019 ", "3473": "maio ", "3474": "pien ", "3475": "mo \u00e8 ", "3476": "suon ", "3477": "stro ", "3478": "prio ", "3479": "suol ", "3480": "ni \u00e8 ", "3481": "ze o ", "3482": "quel ", "3483": "la \u00e8 ", "3484": "zi e ", "3485": "vean ", "3486": "de o ", "3487": "so e ", "3488": "fiar ", "3489": "stan ", "3490": "muor ", "3491": "sc\u00eco ", "3492": "ve e ", "3493": "fior ", "3494": "tean ", "3495": "nean ", "3496": "ma \u00e8 ", "3497": "t\u2019 \u00e8 ", "3498": "brar ", "3499": "na o ", "3500": "a al ", "3501": "ci e ", "3502": "sian ", "3503": "zo e ", "3504": "so i ", "3505": "ta \u00e8 ", "3506": "bion ", "3507": "re a ", "3508": "za e ", "3509": "ga e ", "3510": "stin ", "3511": "ni a ", "3512": "di e ", "3513": "piar ", "3514": "lian ", "3515": "zo a ", "3516": "tr\u00e0s ", "3517": "sie\u2019 ", "3518": "ro e ", "3519": "cria ", "3520": "l\u00e0 i ", "3521": "fian ", "3522": "cuor ", "3523": "ti a ", "3524": "sier ", "3525": "scia ", "3526": "ri o ", "3527": "bo a ", "3528": "ra \u00e8 ", "3529": "da a ", "3530": "ci \u00e8 ", "3531": "sfar ", "3532": "ro \u00e8 ", "3533": "de a ", "3534": "tuoi ", "3535": "drel ", "3536": "prie ", "3537": "va a ", "3538": "mo i ", "3539": "tien ", "3540": "e \u2019l ", "3541": "glia ", "3542": "br\u00f2t ", "3543": "ce i ", "3544": "\u00e8 \u2019l ", "3545": "schi ", "3546": "f\u00e9 i ", "3547": "sa e ", "3548": "pion ", "3549": "se \u00e8 ", "3550": "slao ", "3551": "ta o ", "3552": "le o ", "3553": "gi a ", "3554": "te o ", "3555": "drai ", "3556": "ver\u2019 ", "3557": "fo \u00e8 ", "3558": "rien ", "3559": "cl\u00e8s ", "3560": "chie ", "3561": "gnel ", "3562": "li a ", "3563": "gean ", "3564": "da i ", "3565": "c\u2019 \u00e8 ", "3566": "ma a ", "3567": "de i ", "3568": "ca o ", "3569": "se i ", "3570": "ca a ", "3571": "cean ", "3572": "ci a ", "3573": "za \u00e8 ", "3574": "ba e ", "3575": "gnus ", "3576": "zi a ", "3577": "so \u00e8 ", "3578": "ciar ", "3579": "suoi ", "3580": "gior ", "3581": "cral ", "3582": "go o ", "3583": "stei ", "3584": "scio ", "3585": "chia ", "3586": "stre ", "3587": "scer ", "3588": "r\u2019 a ", "3589": "dier ", "3590": "to i ", "3591": "dra\u2019 ", "3592": "do o ", "3593": "lo \u00e8 ", "3594": "scon ", "3595": "pe e ", "3596": "ro i ", "3597": "do e ", "3598": "gnon ", "3599": "zian ", "3600": "bo e ", "3601": "sa o ", "3602": "plor ", "3603": "o \u2019n ", "3604": "runt ", "3605": "tiam ", "3606": "spre ", "3607": "na \u00e8 ", "3608": "lien ", "3609": "crin ", "3610": "trai ", "3611": "ra a ", "3612": "do \u00e8 ", "3613": "quei ", "3614": "cian ", "3615": "o in ", "3616": "vien ", "3617": "di o ", "3618": "ne e ", "3619": "za i ", "3620": "s\u2019 \u00e8 ", "3621": "quai ", "3622": "si o ", "3623": "com\u2019 ", "3624": "li \u00e8 ", "3625": "pier ", "3626": "chio ", "3627": "mi e ", "3628": "brei ", "3629": "laio ", "3630": "lier ", "3631": "dron ", "3632": "naio ", "3633": "la a ", "3634": "po a ", "3635": "\u00e8 \u2019n ", "3636": "do i ", "3637": "ma e ", "3638": "mi i ", "3639": "trei ", "3640": "no \u00e8 ", "3641": "no a ", "3642": "giar ", "3643": "st\u00f2r ", "3644": "me a ", "3645": "lo i ", "3646": "le e ", "3647": "sion ", "3648": "a il ", "3649": "ta e ", "3650": "e \u2019n ", "3651": "na a ", "3652": "go \u00e8 ", "3653": "zi \u00e8 ", "3654": "spir ", "3655": "me e ", "3656": "sche ", "3657": "glio ", "3658": "quor ", "3659": "d\u2019 \u00e8 ", "3660": "ghie ", "3661": "bi i ", "3662": "vian ", "3663": "scea ", "3664": "tu i ", "3665": "fien ", "3666": "trae ", "3667": "chel ", "3668": "ge \u00e8 ", "3669": "frir ", "3670": "vuol ", "3671": "ni o ", "3672": "gien ", "3673": "o il ", "3674": "prun ", "3675": "glie ", "3676": "vi e ", "3677": "ri e ", "3678": "v\u2019 a ", "3679": "co a ", "3680": "lo e ", "3681": "buon ", "3682": "ga a ", "3683": "de \u00e8 ", "3684": "quam ", "3685": "te \u00e8 ", "3686": "le \u00e8 ", "3687": "grue ", "3688": "vria ", "3689": "nail ", "3690": "buoi ", "3691": "tier ", "3692": "giun ", "3693": "viam ", "3694": "re i ", "3695": "quod ", "3696": "no i ", "3697": "gian ", "3698": "a \u2019l ", "3699": "plar ", "3700": "scir ", "3701": "cia\u2019 ", "3702": "la e ", "3703": "scar ", "3704": "li o ", "3705": "n\u2019 \u00e8 ", "3706": "chin ", "3707": "so a ", "3708": "ciai ", "3709": "mian ", "3710": "za o ", "3711": "va o ", "3712": "prai ", "3713": "rian ", "3714": "prir ", "3715": "ti \u00e8 ", "3716": "gi e ", "3717": "trio ", "3718": "brio ", "3719": "ciam ", "3720": "tran ", "3721": "pian ", "3722": "gnia ", "3723": "so o ", "3724": "ce e ", "3725": "ched ", "3726": "va i ", "3727": "str\u00f2 ", "3728": "trar ", "3729": "quar ", "3730": "bi a ", "3731": "me i ", "3732": "pe i ", "3733": "pri\u2019 ", "3734": "fier ", "3735": "na e ", "3736": "ca e ", "3737": "ri a ", "3738": "spro ", "3739": "quie ", "3740": "v\u2019 \u00e8 ", "3741": "stor ", "3742": "li e ", "3743": "za a ", "3744": "stel ", "3745": "l\u00ec \u00e8 ", "3746": "\u00e8 il ", "3747": "te a ", "3748": "stil ", "3749": "s\u2019 a ", "3750": "mo e ", "3751": "scel ", "3752": "to o ", "3753": "ghio ", "3754": "no o ", "3755": "gnun ", "3756": "re o ", "3757": "si \u00e8 ", "3758": "vo e ", "3759": "re e ", "3760": "ve i ", "3761": "sien ", "3762": "ti o ", "3763": "te i ", "3764": "pa a ", "3765": "se e ", "3766": "i in ", "3767": "ro a ", "3768": "bent ", "3769": "pi\u00e9r ", "3770": "ghia ", "3771": "to e ", "3772": "ge a ", "3773": "ma o ", "3774": "ra e ", "3775": "t\u2019 i ", "3776": "chi\u00f2 ", "3777": "po \u00e8 ", "3778": "zion ", "3779": "tram ", "3780": "pron ", "3781": "tra\u2019 ", "3782": "sci\u2019 ", "3783": "da e ", "3784": "co e ", "3785": "l\u2019 \u00e8 ", "3786": "co i ", "3787": "se a ", "3788": "stra ", "3789": "sci\u00f2 ", "3790": "breo ", "3791": "guan ", "3792": "gion ", "3793": "to \u00e8 ", "3794": "ghi\u00f2 ", "3795": "nian ", "3796": "stia ", "3797": "prei ", "3798": "gual ", "3799": "dien ", "3800": "pia\u2019 ", "3801": "qual ", "3802": "star ", "3803": "vi a ", "3804": "lo a ", "3805": "la o ", "3806": "guon ", "3807": "pria ", "3808": "po o ", "3809": "guai ", "3810": "sa \u00e8 ", "3811": "gran ", "3812": "va e ", "3813": "be i ", "3814": "do a ", "3815": "bran ", "3816": "gnar ", "3817": "cion ", "3818": "ne a ", "3819": "a in ", "3820": "trui ", "3821": "sa i ", "3822": "sti\u00f2 ", "3823": "diam ", "3824": "ti ei ", "3825": "gli e ", "3826": "l\u00e0 \u2019l ", "3827": "v\u2019 io ", "3828": "de il ", "3829": "ra in ", "3830": "li oh ", "3831": "svuol ", "3832": "to ed ", "3833": "ra il ", "3834": "ta ad ", "3835": "ti a\u2019 ", "3836": "ta ed ", "3837": "ra ha ", "3838": "sta e ", "3839": "za i\u2019 ", "3840": "te io ", "3841": "ca in ", "3842": "do ad ", "3843": "cia o ", "3844": "to ad ", "3845": "pre a ", "3846": "no \u2019l ", "3847": "stier ", "3848": "go \u2019l ", "3849": "te ai ", "3850": "pa \u2019l ", "3851": "gno e ", "3852": "te a\u2019 ", "3853": "le un ", "3854": "se il ", "3855": "mo il ", "3856": "le ha ", "3857": "zo \u2019l ", "3858": "la io ", "3859": "ni or ", "3860": "za or ", "3861": "strai ", "3862": "ria o ", "3863": "gra o ", "3864": "da il ", "3865": "lo in ", "3866": "fo or ", "3867": "n\u00e9 \u2019l ", "3868": "fa \u2019l ", "3869": "gno a ", "3870": "gua e ", "3871": "se \u2019l ", "3872": "no a\u2019 ", "3873": "ne a\u2019 ", "3874": "ti ai ", "3875": "d\u2019 el ", "3876": "te un ", "3877": "dio e ", "3878": "s\u00e9 il ", "3879": "bia e ", "3880": "ne \u2019l ", "3881": "ca il ", "3882": "re ha ", "3883": "lo ad ", "3884": "ra a\u2019 ", "3885": "se \u2019n ", "3886": "dio a ", "3887": "bra e ", "3888": "che a ", "3889": "co ad ", "3890": "ge ai ", "3891": "se in ", "3892": "ga il ", "3893": "ro in ", "3894": "te ha ", "3895": "sti a ", "3896": "ta un ", "3897": "di ad ", "3898": "zio \u00e8 ", "3899": "re ed ", "3900": "la ed ", "3901": "ti ed ", "3902": "gliel ", "3903": "te ad ", "3904": "sco i ", "3905": "bio e ", "3906": "ste e ", "3907": "ci il ", "3908": "b\u2019 io ", "3909": "ro un ", "3910": "se i\u2019 ", "3911": "mi a\u2019 ", "3912": "pio e ", "3913": "gia e ", "3914": "gue \u00e8 ", "3915": "ria \u00e8 ", "3916": "to ir ", "3917": "chi a ", "3918": "la a\u2019 ", "3919": "zi ad ", "3920": "ra al ", "3921": "chiar ", "3922": "co ai ", "3923": "qua e ", "3924": "pi in ", "3925": "ri al ", "3926": "do or ", "3927": "ne in ", "3928": "ne il ", "3929": "p\u2019 io ", "3930": "bo in ", "3931": "v\u2019 ha ", "3932": "be i\u2019 ", "3933": "sa in ", "3934": "pe \u2019l ", "3935": "po al ", "3936": "d\u2019 un ", "3937": "na \u2019n ", "3938": "co in ", "3939": "stial ", "3940": "pie a ", "3941": "sce e ", "3942": "be il ", "3943": "de in ", "3944": "be al ", "3945": "n\u2019 ei ", "3946": "t\u00f2 \u2019l ", "3947": "zo in ", "3948": "lo a\u2019 ", "3949": "do a\u2019 ", "3950": "se ho ", "3951": "so in ", "3952": "re al ", "3953": "ca al ", "3954": "no i\u2019 ", "3955": "ne io ", "3956": "la il ", "3957": "che \u2019 ", "3958": "ch\u00e9 i ", "3959": "schio ", "3960": "do ha ", "3961": "zo al ", "3962": "chier ", "3963": "ro or ", "3964": "sa ad ", "3965": "ve al ", "3966": "ni il ", "3967": "t\u00e0 \u2019l ", "3968": "l\u00e0 il ", "3969": "va \u2019l ", "3970": "te al ", "3971": "bo a\u2019 ", "3972": "re in ", "3973": "ria i ", "3974": "to il ", "3975": "tra a ", "3976": "si il ", "3977": "dia e ", "3978": "sco e ", "3979": "cia e ", "3980": "fu \u2019l ", "3981": "n\u2019 io ", "3982": "na ha ", "3983": "ve ad ", "3984": "re a\u2019 ", "3985": "ta il ", "3986": "di al ", "3987": "t\u2019 el ", "3988": "sciar ", "3989": "di \u2019n ", "3990": "l\u2019 un ", "3991": "ci al ", "3992": "to i\u2019 ", "3993": "g\u00f2 \u2019l ", "3994": "si or ", "3995": "tro i ", "3996": "ce u\u2019 ", "3997": "le il ", "3998": "li il ", "3999": "ge il ", "4000": "co \u2019l ", "4001": "mi ad ", "4002": "lo ha ", "4003": "d\u2019 ei ", "4004": "le io ", "4005": "to \u2019n ", "4006": "ne ed ", "4007": "to a\u2019 ", "4008": "po il ", "4009": "li ei ", "4010": "cio a ", "4011": "mo ad ", "4012": "no ad ", "4013": "go il ", "4014": "stian ", "4015": "tri \u00e8 ", "4016": "na al ", "4017": "ta in ", "4018": "gna \u00e8 ", "4019": "va ed ", "4020": "qua \u00e8 ", "4021": "sto \u00e8 ", "4022": "sia e ", "4023": "di in ", "4024": "ghiar ", "4025": "ta ha ", "4026": "no io ", "4027": "v\u2019 \u00e8n ", "4028": "gue e ", "4029": "bro e ", "4030": "ra ed ", "4031": "ri in ", "4032": "t\u2019 ho ", "4033": "do al ", "4034": "ve \u2019l ", "4035": "tri e ", "4036": "me ed ", "4037": "sti \u00e8 ", "4038": "fu il ", "4039": "chiai ", "4040": "se e\u2019 ", "4041": "se io ", "4042": "glier ", "4043": "gio a ", "4044": "ch\u2019 a ", "4045": "che e ", "4046": "c\u2019 ha ", "4047": "sca i ", "4048": "va il ", "4049": "l\u2019 ha ", "4050": "ra io ", "4051": "be ed ", "4052": "me un ", "4053": "na ad ", "4054": "sce a ", "4055": "sta \u00e8 ", "4056": "glior ", "4057": "ia in ", "4058": "li ha ", "4059": "vi un ", "4060": "no ed ", "4061": "to \u2019l ", "4062": "n\u2019 ha ", "4063": "ti in ", "4064": "no un ", "4065": "m\u2019 ha ", "4066": "v\u00f2 \u2019l ", "4067": "d\u2019 io ", "4068": "po ed ", "4069": "se un ", "4070": "chi \u00e8 ", "4071": "ge or ", "4072": "vrien ", "4073": "ra un ", "4074": "pa in ", "4075": "n\u00f2 \u2019l ", "4076": "co a\u2019 ", "4077": "que \u00e8 ", "4078": "tra \u2019 ", "4079": "rio e ", "4080": "vi il ", "4081": "la al ", "4082": "ce in ", "4083": "ti ad ", "4084": "ve un ", "4085": "lo ed ", "4086": "lo un ", "4087": "to or ", "4088": "ge in ", "4089": "zi or ", "4090": "vi \u2019l ", "4091": "t\u2019 io ", "4092": "bre e ", "4093": "lio e ", "4094": "be in ", "4095": "so ad ", "4096": "zia e ", "4097": "se ir ", "4098": "da \u2019l ", "4099": "za oh ", "4100": "qui e ", "4101": "ti il ", "4102": "ba il ", "4103": "ha in ", "4104": "mi \u2019l ", "4105": "co u\u2019 ", "4106": "bi il ", "4107": "c\u2019 ho ", "4108": "dri e ", "4109": "gui i ", "4110": "da i\u2019 ", "4111": "tre e ", "4112": "ci or ", "4113": "ti al ", "4114": "da un ", "4115": "mo ha ", "4116": "si al ", "4117": "ghi e ", "4118": "ga in ", "4119": "de ed ", "4120": "chion ", "4121": "r\u2019 al ", "4122": "po \u2019l ", "4123": "dro e ", "4124": "f\u00e9 \u2019l ", "4125": "li ad ", "4126": "da in ", "4127": "de al ", "4128": "pa or ", "4129": "da al ", "4130": "ghe e ", "4131": "t\u00f2 un ", "4132": "pe il ", "4133": "me ai ", "4134": "me ad ", "4135": "va or ", "4136": "s\u2019 io ", "4137": "co al ", "4138": "so \u2019l ", "4139": "na in ", "4140": "tra i ", "4141": "strar ", "4142": "se or ", "4143": "l\u2019 ho ", "4144": "no ai ", "4145": "gue a ", "4146": "sta o ", "4147": "ci a\u2019 ", "4148": "t\u2019 il ", "4149": "zia a ", "4150": "sto a ", "4151": "t\u00ec \u2019l ", "4152": "la in ", "4153": "li in ", "4154": "za in ", "4155": "le ab ", "4156": "mo un ", "4157": "zi ai ", "4158": "pre i ", "4159": "no ha ", "4160": "gli a ", "4161": "tro e ", "4162": "te u\u2019 ", "4163": "ta \u2019l ", "4164": "zi \u2019l ", "4165": "ro ad ", "4166": "ne ai ", "4167": "le in ", "4168": "ge ad ", "4169": "ve in ", "4170": "v\u2019 i\u2019 ", "4171": "gio e ", "4172": "zia \u00e8 ", "4173": "lo al ", "4174": "na un ", "4175": "re ir ", "4176": "no in ", "4177": "gliar ", "4178": "pra e ", "4179": "re i\u2019 ", "4180": "pe ad ", "4181": "ch\u00e9 a ", "4182": "re or ", "4183": "mo in ", "4184": "do io ", "4185": "che i ", "4186": "tri o ", "4187": "gna i ", "4188": "ia il ", "4189": "v\u2019 ho ", "4190": "ce ha ", "4191": "g\u00ec \u2019l ", "4192": "lo il ", "4193": "di ha ", "4194": "zia o ", "4195": "mi ed ", "4196": "di \u2019l ", "4197": "la un ", "4198": "po ha ", "4199": "chi e ", "4200": "vo in ", "4201": "so a\u2019 ", "4202": "gna e ", "4203": "be or ", "4204": "do il ", "4205": "to ha ", "4206": "ni \u2019l ", "4207": "ro i\u2019 ", "4208": "ra \u2019n ", "4209": "bra o ", "4210": "gno \u00e8 ", "4211": "ce al ", "4212": "sto e ", "4213": "t\u2019 i\u2019 ", "4214": "po in ", "4215": "lio \u00e8 ", "4216": "ma a\u2019 ", "4217": "r\u00f2 \u2019l ", "4218": "me \u2019l ", "4219": "ve il ", "4220": "r\u00ec \u2019l ", "4221": "di a\u2019 ", "4222": "di or ", "4223": "lo or ", "4224": "ti io ", "4225": "za il ", "4226": "si u\u2019 ", "4227": "c\u2019 io ", "4228": "po io ", "4229": "si un ", "4230": "ma in ", "4231": "me al ", "4232": "ri a\u2019 ", "4233": "que e ", "4234": "que a ", "4235": "ma \u2019n ", "4236": "ti ha ", "4237": "ia ed ", "4238": "zi al ", "4239": "z\u00f2 il ", "4240": "mi un ", "4241": "sciai ", "4242": "ghe a ", "4243": "to io ", "4244": "se a\u2019 ", "4245": "ca io ", "4246": "stran ", "4247": "do un ", "4248": "ro a\u2019 ", "4249": "v\u2019 ei ", "4250": "t\u2019 om ", "4251": "ni al ", "4252": "t\u00e9 \u2019l ", "4253": "ra or ", "4254": "m\u2019 io ", "4255": "ne al ", "4256": "gi al ", "4257": "li un ", "4258": "si \u2019l ", "4259": "b\u00f2 il ", "4260": "de un ", "4261": "dro a ", "4262": "vra i ", "4263": "rio a ", "4264": "za ha ", "4265": "ba in ", "4266": "se ad ", "4267": "da io ", "4268": "s\u2019 e\u2019 ", "4269": "st\u2019 \u00e8 ", "4270": "li al ", "4271": "ta io ", "4272": "gia a ", "4273": "ce un ", "4274": "tri a ", "4275": "gluol ", "4276": "ch\u2019 \u00e8 ", "4277": "di ed ", "4278": "va \u2019n ", "4279": "\u2019v\u2019 \u00e8 ", "4280": "qua o ", "4281": "pr\u2019 a ", "4282": "mi in ", "4283": "v\u2019 or ", "4284": "ta al ", "4285": "zii e ", "4286": "sa il ", "4287": "gia o ", "4288": "ge un ", "4289": "stiam ", "4290": "ti \u2019n ", "4291": "me a\u2019 ", "4292": "go al ", "4293": "ria a ", "4294": "v\u2019 e\u2019 ", "4295": "smo a ", "4296": "re \u2019n ", "4297": "ria e ", "4298": "te \u2019n ", "4299": "si in ", "4300": "di un ", "4301": "ni in ", "4302": "mia e ", "4303": "bi in ", "4304": "s\u00ec \u2019l ", "4305": "ti un ", "4306": "glion ", "4307": "li io ", "4308": "gno i ", "4309": "gia \u00e8 ", "4310": "de \u2019l ", "4311": "va in ", "4312": "ci ha ", "4313": "me \u2019n ", "4314": "te ed ", "4315": "li \u2019l ", "4316": "tra \u00e8 ", "4317": "d\u2019 e\u2019 ", "4318": "scian ", "4319": "to al ", "4320": "dro o ", "4321": "di io ", "4322": "ha \u2019l ", "4323": "s\u2019 el ", "4324": "te il ", "4325": "se al ", "4326": "mo \u2019l ", "4327": "re un ", "4328": "te or ", "4329": "ge al ", "4330": "s\u2019 ei ", "4331": "stion ", "4332": "sta a ", "4333": "no u\u2019 ", "4334": "sa un ", "4335": "sme e ", "4336": "ma un ", "4337": "ria \u2019 ", "4338": "si \u2019n ", "4339": "do \u2019l ", "4340": "co il ", "4341": "s\u2019 i\u2019 ", "4342": "na il ", "4343": "le ad ", "4344": "ci in ", "4345": "so al ", "4346": "glian ", "4347": "ste i ", "4348": "do in ", "4349": "va al ", "4350": "bra a ", "4351": "l\u2019 om ", "4352": "gi il ", "4353": "mi al ", "4354": "re il ", "4355": "dre e ", "4356": "d\u2019 ir ", "4357": "ra \u2019l ", "4358": "tu \u2019l ", "4359": "so un ", "4360": "ste a ", "4361": "te \u2019l ", "4362": "scion ", "4363": "lo ai ", "4364": "ti \u2019l ", "4365": "ra ad ", "4366": "t\u2019 ha ", "4367": "pri a ", "4368": "ro al ", "4369": "va un ", "4370": "sti e ", "4371": "da or ", "4372": "lio a ", "4373": "vi in ", "4374": "r\u00f2 il ", "4375": "ne or ", "4376": "mo ed ", "4377": "di il ", "4378": "ro od ", "4379": "so il ", "4380": "to un ", "4381": "ne un ", "4382": "dia i ", "4383": "to in ", "4384": "cio e ", "4385": "re ho ", "4386": "ma \u2019l ", "4387": "gi \u2019l ", "4388": "sa \u2019l ", "4389": "ne ha ", "4390": "de ad ", "4391": "ne ad ", "4392": "bi \u2019l ", "4393": "za \u2019l ", "4394": "ro ed ", "4395": "le al ", "4396": "no il ", "4397": "me in ", "4398": "gna o ", "4399": "ci \u2019l ", "4400": "qua a ", "4401": "be un ", "4402": "te ho ", "4403": "pa ed ", "4404": "za al ", "4405": "zi un ", "4406": "na ei ", "4407": "ia oh ", "4408": "co un ", "4409": "sce i ", "4410": "stral ", "4411": "ce il ", "4412": "la \u2019l ", "4413": "gna a ", "4414": "si el ", "4415": "va io ", "4416": "dre a ", "4417": "s\u2019 ha ", "4418": "va ad ", "4419": "gliea ", "4420": "gni e ", "4421": "tro \u00e8 ", "4422": "sti o ", "4423": "cia a ", "4424": "tra e ", "4425": "ma il ", "4426": "gui e ", "4427": "su in ", "4428": "re ad ", "4429": "glien ", "4430": "zio a ", "4431": "gi un ", "4432": "mo al ", "4433": "su \u2019l ", "4434": "za un ", "4435": "no al ", "4436": "pio a ", "4437": "si ad ", "4438": "na ed ", "4439": "bre a ", "4440": "d\u2019 i\u2019 ", "4441": "li or ", "4442": "va a\u2019 ", "4443": "zo il ", "4444": "ri \u2019l ", "4445": "ro il ", "4446": "n\u00f2 in ", "4447": "do ed ", "4448": "te in ", "4449": "tro a ", "4450": "chian ", "4451": "lia e ", "4452": "le i\u2019 ", "4453": "zi il ", "4454": "pre e ", "4455": "tr\u2019 a ", "4456": "za ed ", "4457": "le ir ", "4458": "gua a ", "4459": "be \u2019l ", "4460": "le \u2019l ", "4461": "tr\u2019 \u00e8 ", "4462": "d\u00f2 \u2019l ", "4463": "g\u2019 io ", "4464": "bro \u00e8 ", "4465": "s\u2019 un ", "4466": "gni a ", "4467": "sci a ", "4468": "v\u2019 el ", "4469": "va ai ", "4470": "zio e ", "4471": "temps ", "4472": "gri e ", "4473": "me il ", "4474": "mi il ", "4475": "le or ", "4476": "co io ", "4477": "ch\u2019 e\u2019 ", "4478": "gna a\u2019 ", "4479": "due \u2019l ", "4480": "ti han ", "4481": "lia il ", "4482": "fia il ", "4483": "scia a ", "4484": "che in ", "4485": "tro \u2019l ", "4486": "sti il ", "4487": "ch\u2019 un ", "4488": "gi\u2019 or ", "4489": "zio al ", "4490": "sto in ", "4491": "gio ad ", "4492": "tro ed ", "4493": "vea \u2019l ", "4494": "cio ed ", "4495": "fra \u2019l ", "4496": "chio e ", "4497": "tri ad ", "4498": "cia ir ", "4499": "che a\u2019 ", "4500": "que al ", "4501": "gro un ", "4502": "ghi al ", "4503": "ba e \u2019 ", "4504": "vra \u2019l ", "4505": "\u2019ve \u2019l ", "4506": "que ad ", "4507": "di\u2019 \u2019l ", "4508": "ch\u2019 al ", "4509": "pra ed ", "4510": "tro a\u2019 ", "4511": "chio a ", "4512": "gni in ", "4513": "gne \u2019l ", "4514": "glia \u00e8 ", "4515": "tre un ", "4516": "pi\u00f9 \u2019l ", "4517": "sce in ", "4518": "gno in ", "4519": "ti e \u2019 ", "4520": "sto ad ", "4521": "na\u2019 il ", "4522": "chi al ", "4523": "glio a ", "4524": "to hai ", "4525": "stra e ", "4526": "gue il ", "4527": "gno al ", "4528": "tro il ", "4529": "zie al ", "4530": "sta \u2019n ", "4531": "stro e ", "4532": "cia al ", "4533": "ch\u2019 el ", "4534": "sto al ", "4535": "ch\u2019 in ", "4536": "tro un ", "4537": "di e \u2019 ", "4538": "chi \u2019n ", "4539": "tro io ", "4540": "stio e ", "4541": "sti in ", "4542": "chio \u00e8 ", "4543": "gia or ", "4544": "cia il ", "4545": "glio o ", "4546": "gna il ", "4547": "li ha\u2019 ", "4548": "te han ", "4549": "gi\u00f9 il ", "4550": "tr\u2019 al ", "4551": "bra ad ", "4552": "cea il ", "4553": "lio ed ", "4554": "que i\u2019 ", "4555": "s\u2019 hai ", "4556": "ti e i ", "4557": "tra in ", "4558": "schi a ", "4559": "pre ha ", "4560": "sc\u00ec \u2019l ", "4561": "tri \u2019l ", "4562": "li han ", "4563": "glia a ", "4564": "gna \u2019l ", "4565": "ni e \u2019 ", "4566": "ri e \u2019 ", "4567": "ch\u2019 ai ", "4568": "se uom ", "4569": "ch\u2019 or ", "4570": "gue in ", "4571": "que a\u2019 ", "4572": "ch\u00e9 il ", "4573": "pia in ", "4574": "dia in ", "4575": "t\u2019 ha\u2019 ", "4576": "spra e ", "4577": "gna in ", "4578": "gliuol ", "4579": "sce il ", "4580": "gno ha ", "4581": "pre a\u2019 ", "4582": "ghi in ", "4583": "pi\u00e9 \u2019l ", "4584": "bia \u2019l ", "4585": "n\u2019 uom ", "4586": "m\u2019 han ", "4587": "pre in ", "4588": "ch\u2019 io ", "4589": "tr\u2019 io ", "4590": "nia il ", "4591": "rio ha ", "4592": "tro ad ", "4593": "che al ", "4594": "stra \u00e8 ", "4595": "ch\u2019 ei ", "4596": "pre al ", "4597": "gia \u2019l ", "4598": "rio il ", "4599": "pria o ", "4600": "bia in ", "4601": "gli al ", "4602": "mia al ", "4603": "gno ad ", "4604": "sta in ", "4605": "gio al ", "4606": "sti ha ", "4607": "qua il ", "4608": "gu\u00ec \u2019l ", "4609": "tre in ", "4610": "tra \u2019l ", "4611": "glia e ", "4612": "bio ed ", "4613": "tr\u2019 a\u2019 ", "4614": "ria al ", "4615": "chi in ", "4616": "stro \u00e8 ", "4617": "ne e \u2019 ", "4618": "gi\u00e0 il ", "4619": "cia un ", "4620": "schiar ", "4621": "ci e \u2019 ", "4622": "tre al ", "4623": "chi ei ", "4624": "st\u2019 ho ", "4625": "pra in ", "4626": "dre al ", "4627": "tro ai ", "4628": "sco il ", "4629": "gio il ", "4630": "gli un ", "4631": "sto il ", "4632": "schi o ", "4633": "chia e ", "4634": "smo al ", "4635": "sta il ", "4636": "sta un ", "4637": "gio in ", "4638": "me e \u2019 ", "4639": "pra \u2019l ", "4640": "ghiaio ", "4641": "ch\u2019 a\u2019 ", "4642": "gi\u00f9 \u2019l ", "4643": "stro o ", "4644": "t\u2019 hai ", "4645": "que in ", "4646": "ne e i ", "4647": "stie e ", "4648": "dro in ", "4649": "ch\u2019 \u00e8i ", "4650": "tri il ", "4651": "ghia a ", "4652": "glia o ", "4653": "tro al ", "4654": "ro hai ", "4655": "zia il ", "4656": "gno a\u2019 ", "4657": "gia un ", "4658": "ra han ", "4659": "tri or ", "4660": "sti \u2019l ", "4661": "l\u2019 hai ", "4662": "ro e \u2019 ", "4663": "che \u2019l ", "4664": "che \u2019n ", "4665": "d\u2019 uom ", "4666": "pu\u00f2 \u2019l ", "4667": "sc\u2019 io ", "4668": "ste in ", "4669": "ch\u2019 ad ", "4670": "ria il ", "4671": "gno ed ", "4672": "se\u2019 in ", "4673": "l\u2019 uom ", "4674": "dri ai ", "4675": "qui \u2019l ", "4676": "che un ", "4677": "so\u2019 \u2019n ", "4678": "gl\u2019 io ", "4679": "gne al ", "4680": "ch\u2019 om ", "4681": "qua al ", "4682": "gua in ", "4683": "scio a ", "4684": "tra i\u2019 ", "4685": "scia o ", "4686": "pria e ", "4687": "sia \u2019l ", "4688": "pa e \u2019 ", "4689": "ch\u00e9 \u2019n ", "4690": "tre il ", "4691": "chi \u2019l ", "4692": "glie e ", "4693": "tre i\u2019 ", "4694": "bra od ", "4695": "ghi \u2019l ", "4696": "ci\u00f2 \u2019l ", "4697": "gliuoi ", "4698": "zia in ", "4699": "ghio e ", "4700": "gna un ", "4701": "che il ", "4702": "ste il ", "4703": "stri e ", "4704": "chi ha ", "4705": "chi il ", "4706": "ni e i ", "4707": "va e i ", "4708": "cia ad ", "4709": "sa e \u2019 ", "4710": "tra al ", "4711": "sto io ", "4712": "tra il ", "4713": "sta al ", "4714": "dria e ", "4715": "tro in ", "4716": "gi\u00e0 \u2019l ", "4717": "stro a ", "4718": "m\u2019 hai ", "4719": "c\u2019 ha\u2019 ", "4720": "stra a ", "4721": "tro ha ", "4722": "gno il ", "4723": "qua in ", "4724": "so hai ", "4725": "nio al ", "4726": "gno or ", "4727": "sche o ", "4728": "po e \u2019 ", "4729": "trio e ", "4730": "ne han ", "4731": "dio in ", "4732": "stro i ", "4733": "gia il ", "4734": "glio e ", "4735": "stia e ", "4736": "ch\u00e9 \u2019l ", "4737": "cia in ", "4738": "que il ", "4739": "ch\u2019 i\u2019 ", "4740": "c\u2019 hai ", "4741": "rio ho ", "4742": "tro i\u2019 ", "4743": "de e \u2019l ", "4744": "te e \u2019l ", "4745": "bre e \u2019 ", "4746": "chio in ", "4747": "bo e \u2019l ", "4748": "scia il ", "4749": "la e \u2019l ", "4750": "stro in ", "4751": "me e \u2019n ", "4752": "re e \u2019l ", "4753": "zo e \u2019l ", "4754": "ti e \u2019l ", "4755": "se e \u2019l ", "4756": "po e \u2019l ", "4757": "me e \u2019l ", "4758": "glio ai ", "4759": "ch\u2019 uom ", "4760": "sci\u00f2 il ", "4761": "ma e \u2019l ", "4762": "to e \u2019l ", "4763": "glia un ", "4764": "stro ed ", "4765": "schia e ", "4766": "gne uom ", "4767": "ga e \u2019l ", "4768": "mi e \u2019l ", "4769": "ta e \u2019l ", "4770": "va e \u2019l ", "4771": "glie in ", "4772": "si e \u2019l ", "4773": "vo e \u2019l ", "4774": "lo \u00e8 in ", "4775": "m\u2019 \u00e8 \u2019l ", "4776": "glie \u2019l ", "4777": "glia al ", "4778": "ne e \u2019l ", "4779": "go e \u2019l ", "4780": "ci e \u2019l ", "4781": "stro or ", "4782": "che e \u2019 ", "4783": "stia ad ", "4784": "v\u2019 \u00e8 \u2019l ", "4785": "be e \u2019l ", "4786": "za e \u2019l ", "4787": "to o al ", "4788": "to \u00e8 \u2019l ", "4789": "stri in ", "4790": "na e \u2019l ", "4791": "ce e \u2019l ", "4792": "sa e \u2019l ", "4793": "glia il ", "4794": "m\u2019 \u00e8 il ", "4795": "ta e \u2019n ", "4796": "schio e ", "4797": "chio ha ", "4798": "ro e \u2019l ", "4799": "dia e i ", "4800": "glio in ", "4801": "mo e \u2019l ", "4802": "dre e \u2019 ", "4803": "lio e i ", "4804": "stro il ", "4805": "glio or ", "4806": "do e \u2019n ", "4807": "de e \u2019n ", "4808": "le e \u2019l ", "4809": "stra il ", "4810": "glia in ", "4811": "chio il ", "4812": "no e \u2019l ", "4813": "stra \u2019l ", "4814": "l\u2019 \u00e8 \u2019l ", "4815": "co e \u2019l ", "4816": "go \u00e8 in ", "4817": "ca e \u2019l ", "4818": "chia al ", "4819": "va e \u2019n ", "4820": "tra e \u2019 ", "4821": "so e \u2019l ", "4822": "ra e \u2019l ", "4823": "chio al ", "4824": "to ha \u2019l ", "4825": "pra e \u2019l ", "4826": "zio e \u2019l ", "4827": "gio e \u2019l ", "4828": "st\u2019 \u00e8 \u2019l ", "4829": "d\u2019 io \u2019l ", "4830": "v\u2019 ha \u2019l ", "4831": "tr\u2019 \u00e8 \u2019l ", "4832": "sti \u00e8 \u2019l ", "4833": "bra e \u2019l ", "4834": "s\u2019 i\u2019 \u2019l ", "4835": "ria \u00e8 \u2019l ", "4836": "dio e \u2019l ", "4837": "ria e \u2019l ", "4838": "bia e \u2019l ", "4839": "cia e \u2019l ", "4840": "dre e \u2019l ", "4841": "te ha in ", "4842": "tre e \u2019l ", "4843": "zie e \u2019l ", "4844": "c\u2019 ha \u2019l ", "4845": "tra e \u2019l ", "4846": "chi e \u2019l ", "4847": "sta e \u2019l ", "4848": "schi uom ", "4849": "so ha \u2019l ", "4850": "stro e \u2019l ", "4851": "ch\u2019 i\u2019 \u2019l ", "4852": "scia e \u2019l ", "4853": "chio o \u2019l ", "4854": "chie e \u2019n ", "4855": "ch\u2019 io \u2019l ", "4856": "glio e \u2019l ", "4857": "chio e \u2019l "}
