{"0": "", "1": "<v>", "2": "</v>", "3": "<t><v>", "4": "\u00fc", "5": "\u00e8", "6": "\u00ef", "7": "\u00e9", "8": "s", "9": "e", "10": "a", "11": "u", "12": "o", "13": "\u00f2", "14": "i", "15": "be", "16": "c\u00fc", "17": "c\u00f9", "18": "r\u00e0", "19": "r\u00e8", "20": "s\u00eb", "21": "ot", "22": "et", "23": "ia", "24": "ra", "25": "f\u00ef", "26": "si", "27": "to", "28": "es", "29": "g\u00eb", "30": "l\u00eb", "31": "m\u00ec", "32": "t\u00eb", "33": "gi", "34": "t\u00e4", "35": "l\u00fc", "36": "d\u00e8", "37": "t\u00fc", "38": "ce", "39": "di", "40": "d\u00eb", "41": "im", "42": "ov", "43": "la", "44": "og", "45": "uc", "46": "f\u00f3", "47": "s\u00f9", "48": "ad", "49": "ro", "50": "gu", "51": "su", "52": "s\u00e9", "53": "af", "54": "m\u00ef", "55": "ul", "56": "ac", "57": "l\u00f6", "58": "b\u00eb", "59": "on", "60": "co", "61": "f\u00e9", "62": "mu", "63": "v\u00e8", "64": "do", "65": "om", "66": "v\u00ef", "67": "ec", "68": "\u00e8v", "69": "s\u00f2", "70": "z\u00ef", "71": "c\u00eb", "72": "po", "73": "ve", "74": "in", "75": "ba", "76": "v\u00f2", "77": "p\u00e8", "78": "ni", "79": "ma", "80": "d\u00e9", "81": "qu", "82": "as", "83": "m\u00e4", "84": "eu", "85": "se", "86": "l\u00e8", "87": "r\u00ef", "88": "za", "89": "or", "90": "io", "91": "t\u00ec", "92": "el", "93": "fu", "94": "av", "95": "sa", "96": "ie", "97": "eb", "98": "l\u00e0", "99": "an", "100": "ar", "101": "ci", "102": "ob", "103": "is", "104": "uo", "105": "mo", "106": "no", "107": "zo", "108": "l\u00ef", "109": "ta", "110": "lu", "111": "m\u00e8", "112": "so", "113": "s\u00e0", "114": "ri", "115": "me", "116": "fa", "117": "ab", "118": "zi", "119": "n\u00fc", "120": "cu", "121": "am", "122": "ur", "123": "ha", "124": "n\u00e8", "125": "n\u00eb", "126": "oc", "127": "at", "128": "fo", "129": "na", "130": "c\u00ec", "131": "n\u00f2", "132": "id", "133": "ol", "134": "f\u00eb", "135": "p\u00fc", "136": "b\u00ef", "137": "tu", "138": "ze", "139": "pe", "140": "c\u00ef", "141": "pa", "142": "fe", "143": "va", "144": "vu", "145": "p\u00ef", "146": "er", "147": "p\u00eb", "148": "d\u00fc", "149": "en", "150": "ef", "151": "te", "152": "\u00e8n", "153": "le", "154": "ru", "155": "ap", "156": "ag", "157": "il", "158": "t\u00ef", "159": "of", "160": "g\u00f3", "161": "re", "162": "nu", "163": "d\u00ef", "164": "t\u00e8", "165": "l\u00ec", "166": "os", "167": "\u00f2s", "168": "du", "169": "pi", "170": "pu", "171": "m\u00eb", "172": "t\u00f2", "173": "s\u00ef", "174": "ge", "175": "bo", "176": "iu", "177": "bi", "178": "s\u00fc", "179": "r\u00f3", "180": "fi", "181": "vi", "182": "g\u00e8", "183": "ae", "184": "un", "185": "em", "186": "ti", "187": "n\u00ef", "188": "l\u00f2", "189": "r\u00eb", "190": "li", "191": "da", "192": "g\u00ef", "193": "go", "194": "al", "195": "mi", "196": "lo", "197": "ga", "198": "p\u00ec", "199": "ne", "200": "vo", "201": "bu", "202": "de", "203": "ca", "204": "az", "205": "au", "206": "op", "207": "v\u00eb", "208": "mez", "209": "met", "210": "bev", "211": "lur", "212": "ter", "213": "lus", "214": "nar", "215": "sol", "216": "cas", "217": "fiu", "218": "des", "219": "til", "220": "dot", "221": "lot", "222": "moz", "223": "tem", "224": "lin", "225": "nin", "226": "duo", "227": "rup", "228": "sac", "229": "ric", "230": "ner", "231": "ren", "232": "cot", "233": "pet", "234": "rit", "235": "dal", "236": "sme", "237": "cet", "238": "mur", "239": "sve", "240": "gno", "241": "lit", "242": "mun", "243": "sem", "244": "lim", "245": "nic", "246": "lul", "247": "guz", "248": "gib", "249": "nen", "250": "tac", "251": "vuo", "252": "rot", "253": "bol", "254": "mon", "255": "fen", "256": "dan", "257": "guc", "258": "ior", "259": "gru", "260": "dri", "261": "vam", "262": "teg", "263": "lac", "264": "let", "265": "dia", "266": "ben", "267": "dit", "268": "fib", "269": "dra", "270": "sun", "271": "rez", "272": "raf", "273": "zuf", "274": "fuc", "275": "gre", "276": "tre", "277": "rie", "278": "far", "279": "ler", "280": "bio", "281": "cuc", "282": "rel", "283": "luz", "284": "bun", "285": "o e", "286": "tec", "287": "han", "288": "tea", "289": "pal", "290": "nev", "291": "cul", "292": "suo", "293": "for", "294": "raz", "295": "sie", "296": "noc", "297": "rom", "298": "mac", "299": "pro", "300": "fan", "301": "smi", "302": "sug", "303": "cru", "304": "pli", "305": "dr\u00e4", "306": "fem", "307": "puc", "308": "sab", "309": "cli", "310": "mic", "311": "mia", "312": "clo", "313": "mir", "314": "svo", "315": "giz", "316": "lem", "317": "ron", "318": "fes", "319": "cr\u00e0", "320": "tel", "321": "luo", "322": "bul", "323": "fer", "324": "a u", "325": "sos", "326": "stu", "327": "sic", "328": "c\u00e9r", "329": "nim", "330": "sfo", "331": "lic", "332": "nis", "333": "cez", "334": "con", "335": "fet", "336": "ses", "337": "vag", "338": "deg", "339": "den", "340": "tr\u00ef", "341": "qu\u00ef", "342": "ram", "343": "cia", "344": "pio", "345": "smo", "346": "sup", "347": "nob", "348": "sp\u00ef", "349": "tez", "350": "bal", "351": "tle", "352": "iat", "353": "tra", "354": "cle", "355": "feg", "356": "pop", "357": "sat", "358": "fon", "359": "soz", "360": "ran", "361": "fla", "362": "lia", "363": "vis", "364": "tun", "365": "men", "366": "fug", "367": "tis", "368": "lop", "369": "plu", "370": "ch\u00ef", "371": "cop", "372": "fia", "373": "poz", "374": "bur", "375": "sde", "376": "dol", "377": "muc", "378": "sur", "379": "sfa", "380": "dif", "381": "cur", "382": "bie", "383": "sla", "384": "fis", "385": "gem", "386": "net", "387": "tur", "388": "rid", "389": "poc", "390": "feb", "391": "dil", "392": "p\u00f2s", "393": "pel", "394": "bor", "395": "st\u00ef", "396": "sba", "397": "nan", "398": "ste", "399": "veg", "400": "cep", "401": "sra", "402": "reg", "403": "cau", "404": "zac", "405": "roz", "406": "leb", "407": "dat", "408": "tet", "409": "gaz", "410": "gam", "411": "dic", "412": "a a", "413": "sci", "414": "tut", "415": "boz", "416": "pru", "417": "hon", "418": "puo", "419": "lis", "420": "res", "421": "fum", "422": "pil", "423": "gui", "424": "leg", "425": "git", "426": "bot", "427": "dim", "428": "nul", "429": "tru", "430": "rav", "431": "cef", "432": "pir", "433": "buf", "434": "san", "435": "les", "436": "lau", "437": "piu", "438": "cea", "439": "das", "440": "gor", "441": "vor", "442": "dez", "443": "nes", "444": "mug", "445": "pl\u00ec", "446": "tar", "447": "pit", "448": "din", "449": "ger", "450": "nil", "451": "fit", "452": "gir", "453": "nur", "454": "fre", "455": "top", "456": "sgo", "457": "sog", "458": "rir", "459": "dio", "460": "rab", "461": "vie", "462": "nir", "463": "min", "464": "viz", "465": "cie", "466": "bia", "467": "coz", "468": "lip", "469": "sto", "470": "lec", "471": "ghe", "472": "deb", "473": "can", "474": "dus", "475": "fio", "476": "vec", "477": "nag", "478": "tes", "479": "mai", "480": "pac", "481": "maz", "482": "lon", "483": "p\u00e0r", "484": "o a", "485": "gon", "486": "tho", "487": "lom", "488": "muo", "489": "gat", "490": "giu", "491": "gis", "492": "tat", "493": "rap", "494": "ruc", "495": "fra", "496": "gel", "497": "vem", "498": "rof", "499": "rim", "500": "nas", "501": "vac", "502": "sum", "503": "dub", "504": "mag", "505": "com", "506": "sag", "507": "nor", "508": "ciu", "509": "cen", "510": "sma", "511": "pan", "512": "ves", "513": "rac", "514": "tin", "515": "fog", "516": "pas", "517": "gua", "518": "tor", "519": "rat", "520": "dro", "521": "ful", "522": "puz", "523": "flu", "524": "ple", "525": "scu", "526": "mem", "527": "ten", "528": "vom", "529": "pra", "530": "pen", "531": "nez", "532": "cro", "533": "sc\u00ef", "534": "ton", "535": "buo", "536": "sia", "537": "piz", "538": "mat", "539": "rog", "540": "cl\u00ef", "541": "tuf", "542": "bl\u00ef", "543": "sco", "544": "cor", "545": "gan", "546": "rug", "547": "pin", "548": "bas", "549": "mos", "550": "gol", "551": "bli", "552": "gil", "553": "spu", "554": "tic", "555": "qua", "556": "cio", "557": "dop", "558": "tam", "559": "peg", "560": "tas", "561": "sof", "562": "smu", "563": "bro", "564": "pub", "565": "bri", "566": "fas", "567": "tuc", "568": "vid", "569": "cem", "570": "rig", "571": "cob", "572": "fal", "573": "gag", "574": "m\u00e9z", "575": "sin", "576": "rut", "577": "\u2018la", "578": "t\u00f2m", "579": "tom", "580": "dem", "581": "fac", "582": "fat", "583": "set", "584": "sod", "585": "cic", "586": "las", "587": "dar", "588": "sbi", "589": "ris", "590": "tim", "591": "fro", "592": "tan", "593": "lut", "594": "car", "595": "fam", "596": "bea", "597": "cal", "598": "sen", "599": "cos", "600": "sep", "601": "dob", "602": "paz", "603": "bis", "604": "gie", "605": "sit", "606": "cis", "607": "spo", "608": "suc", "609": "tro", "610": "cel", "611": "sel", "612": "gur", "613": "pic", "614": "gim", "615": "loc", "616": "fie", "617": "xil", "618": "zaf", "619": "vel", "620": "goc", "621": "cir", "622": "laz", "623": "don", "624": "toc", "625": "ros", "626": "ch\u00ec", "627": "gom", "628": "det", "629": "dur", "630": "gue", "631": "non", "632": "quo", "633": "lup", "634": "pes", "635": "lel", "636": "sno", "637": "que", "638": "sov", "639": "nuo", "640": "nol", "641": "bra", "642": "guo", "643": "sal", "644": "ver", "645": "mer", "646": "rec", "647": "tuo", "648": "vez", "649": "lat", "650": "bab", "651": "dea", "652": "run", "653": "lil", "654": "zio", "655": "rag", "656": "ras", "657": "caf", "658": "sti", "659": "del", "660": "van", "661": "r\u00e8g", "662": "boc", "663": "vit", "664": "dom", "665": "gni", "666": "bar", "667": "mal", "668": "mes", "669": "sop", "670": "gob", "671": "nec", "672": "riz", "673": "cer", "674": "ven", "675": "cam", "676": "sot", "677": "rob", "678": "lun", "679": "f\u00e0c", "680": "bru", "681": "vir", "682": "gas", "683": "len", "684": "spa", "685": "sez", "686": "lar", "687": "ian", "688": "sar", "689": "mul", "690": "cra", "691": "sas", "692": "red", "693": "doc", "694": "cum", "695": "dis", "696": "tal", "697": "mel", "698": "gal", "699": "dam", "700": "dul", "701": "luc", "702": "but", "703": "pos", "704": "niz", "705": "dru", "706": "bon", "707": "pot", "708": "dut", "709": "mam", "710": "gar", "711": "pur", "712": "sce", "713": "cap", "714": "pat", "715": "cre", "716": "spi", "717": "cri", "718": "neg", "719": "son", "720": "sta", "721": "sna", "722": "cag", "723": "o u", "724": "sob", "725": "ban", "726": "fru", "727": "cac", "728": "lap", "729": "cuo", "730": "gau", "731": "dau", "732": "sor", "733": "sud", "734": "ges", "735": "sub", "736": "nom", "737": "tol", "738": "ral", "739": "vul", "740": "fin", "741": "lor", "742": "zia", "743": "bac", "744": "soc", "745": "gen", "746": "geo", "747": "pom", "748": "seg", "749": "goz", "750": "fol", "751": "dun", "752": "per", "753": "sga", "754": "nel", "755": "v\u00f2l", "756": "saf", "757": "pon", "758": "pla", "759": "glo", "760": "tir", "761": "dre", "762": "dec", "763": "t\u00f2r", "764": "fel", "765": "bec", "766": "gne", "767": "pia", "768": "clu", "769": "roc", "770": "pul", "771": "von", "772": "gli", "773": "ier", "774": "vil", "775": "pog", "776": "fig", "777": "mil", "778": "cad", "779": "fab", "780": "fle", "781": "fic", "782": "sus", "783": "nig", "784": "val", "785": "bre", "786": "gab", "787": "bat", "788": "sle", "789": "var", "790": "lie", "791": "die", "792": "gea", "793": "zuc", "794": "sv\u00ef", "795": "sam", "796": "fom", "797": "zur", "798": "svi", "799": "suf", "800": "lez", "801": "col", "802": "gri", "803": "mar", "804": "sec", "805": "lan", "806": "mas", "807": "f\u00e9l", "808": "dr\u00ef", "809": "bel", "810": "lab", "811": "lir", "812": "put", "813": "rar", "814": "nem", "815": "por", "816": "der", "817": "ruo", "818": "ser", "819": "rol", "820": "cui", "821": "get", "822": "mot", "823": "par", "824": "fun", "825": "vat", "826": "bil", "827": "man", "828": "ghi", "829": "lep", "830": "dug", "831": "fur", "832": "mol", "833": "rea", "834": "sca", "835": "spe", "836": "nia", "837": "br\u00ef", "838": "ial", "839": "tau", "840": "lav", "841": "iar", "842": "bin", "843": "ret", "844": "rem", "845": "bet", "846": "pun", "847": "sfe", "848": "pau", "849": "sio", "850": "buc", "851": "zan", "852": "nuc", "853": "cun", "854": "ber", "855": "nef", "856": "gra", "857": "cat", "858": "lam", "859": "pig", "860": "gnu", "861": "tag", "862": "nat", "863": "dor", "864": "ria", "865": "gio", "866": "pie", "867": "nun", "868": "zar", "869": "tie", "870": "diz", "871": "nac", "872": "pre", "873": "fos", "874": "chi", "875": "nal", "876": "dov", "877": "cit", "878": "som", "879": "zon", "880": "fuo", "881": "pri", "882": "gad", "883": "dir", "884": "lai", "885": "biz", "886": "pec", "887": "ruf", "888": "lea", "889": "sap", "890": "c\u00f3l", "891": "muf", "892": "dos", "893": "not", "894": "rin", "895": "ces", "896": "mie", "897": "fri", "898": "pol", "899": "gia", "900": "qui", "901": "pi\u00e9", "902": "che", "903": "zel", "904": "vol", "905": "pap", "906": "cin", "907": "meg", "908": "bef", "909": "sil", "910": "bom", "911": "tri", "912": "gna", "913": "vin", "914": "rio", "915": "coc", "916": "sis", "917": "nie", "918": "pis", "919": "cla", "920": "vet", "921": "reb", "922": "plo", "923": "vas", "924": "neb", "925": "cov", "926": "got", "927": "mor", "928": "noz", "929": "stil", "930": "grap", "931": "ciel", "932": "me u", "933": "no o", "934": "scov", "935": "snel", "936": "trag", "937": "ie a", "938": "ni e", "939": "ze e", "940": "n\u2019 u", "941": "driz", "942": "scel", "943": "scuf", "944": "sver", "945": "fles", "946": "za a", "947": "to u", "948": "sban", "949": "t\u2019 e", "950": "si i", "951": "d\u2019 a", "952": "drap", "953": "tret", "954": "brie", "955": "scen", "956": "dian", "957": "de e", "958": "re a", "959": "l\u2019 a", "960": "scot", "961": "spol", "962": "piov", "963": "frat", "964": "guen", "965": "brug", "966": "stro", "967": "buon", "968": "gres", "969": "dien", "970": "scab", "971": "troc", "972": "scia", "973": "li e", "974": "di u", "975": "na a", "976": "co a", "977": "spun", "978": "tror", "979": "pric", "980": "d\u2019 o", "981": "chiu", "982": "gi u", "983": "brut", "984": "ro i", "985": "si a", "986": "trat", "987": "t\u2019 u", "988": "scon", "989": "clau", "990": "me o", "991": "ti i", "992": "drit", "993": "spal", "994": "go a", "995": "spaz", "996": "na u", "997": "ca e", "998": "chia", "999": "quel", "1000": "ne u", "1001": "ta u", "1002": "di e", "1003": "dran", "1004": "ghil", "1005": "glio", "1006": "guar", "1007": "si o", "1008": "ve a", "1009": "cras", "1010": "po a", "1011": "zo a", "1012": "sdet", "1013": "gian", "1014": "proc", "1015": "la a", "1016": "s\u2019 \u00ef", "1017": "ve i", "1018": "l\u2019 i", "1019": "stri", "1020": "di a", "1021": "stia", "1022": "ghes", "1023": "trul", "1024": "ro e", "1025": "no e", "1026": "pien", "1027": "plau", "1028": "v\u2019 o", "1029": "me a", "1030": "spuo", "1031": "cruc", "1032": "scir", "1033": "grie", "1034": "flet", "1035": "s\u00ec i", "1036": "ghel", "1037": "gher", "1038": "d\u2019 u", "1039": "c\u2019 \u00ef", "1040": "da u", "1041": "trar", "1042": "trie", "1043": "o av", "1044": "s\u00ec a", "1045": "spon", "1046": "so u", "1047": "scoc", "1048": "grop", "1049": "chio", "1050": "bo e", "1051": "smoz", "1052": "cien", "1053": "chet", "1054": "v\u2019 a", "1055": "quat", "1056": "sgom", "1057": "ciar", "1058": "z\u2019 o", "1059": "guiz", "1060": "tram", "1061": "grat", "1062": "bias", "1063": "pres", "1064": "lo e", "1065": "trac", "1066": "la e", "1067": "le u", "1068": "guer", "1069": "mo e", "1070": "grep", "1071": "tras", "1072": "trop", "1073": "lo u", "1074": "li u", "1075": "vien", "1076": "fiot", "1077": "guil", "1078": "z\u2019 i", "1079": "scro", "1080": "va u", "1081": "mi e", "1082": "mo a", "1083": "treb", "1084": "scan", "1085": "co o", "1086": "mian", "1087": "da a", "1088": "ciuf", "1089": "ra a", "1090": "cion", "1091": "scac", "1092": "l\u2019 e", "1093": "giuo", "1094": "ghia", "1095": "gron", "1096": "gheg", "1097": "quer", "1098": "c\u2019 o", "1099": "stio", "1100": "gnon", "1101": "frut", "1102": "sfac", "1103": "mi u", "1104": "to e", "1105": "brol", "1106": "guel", "1107": "fiac", "1108": "ghie", "1109": "greg", "1110": "bron", "1111": "chez", "1112": "dras", "1113": "tien", "1114": "spit", "1115": "chis", "1116": "no i", "1117": "ci o", "1118": "smar", "1119": "slac", "1120": "s\u2019 i", "1121": "ta a", "1122": "vi a", "1123": "scer", "1124": "spec", "1125": "scol", "1126": "scam", "1127": "scis", "1128": "gnan", "1129": "zi o", "1130": "ma a", "1131": "ze o", "1132": "de i", "1133": "pian", "1134": "se a", "1135": "cias", "1136": "do o", "1137": "spie", "1138": "sgor", "1139": "spet", "1140": "prez", "1141": "ciac", "1142": "li o", "1143": "stal", "1144": "star", "1145": "gnar", "1146": "za i", "1147": "ciap", "1148": "zi e", "1149": "s\u2019 a", "1150": "flit", "1151": "n\u2019 a", "1152": "quil", "1153": "glet", "1154": "smor", "1155": "mo u", "1156": "grom", "1157": "sgan", "1158": "ta o", "1159": "lo a", "1160": "scop", "1161": "ro a", "1162": "quis", "1163": "fior", "1164": "giam", "1165": "fioc", "1166": "gras", "1167": "vuol", "1168": "spor", "1169": "brot", "1170": "gnel", "1171": "ga e", "1172": "scet", "1173": "prin", "1174": "sbar", "1175": "trot", "1176": "zi u", "1177": "s\u2019 u", "1178": "scal", "1179": "ti u", "1180": "stor", "1181": "na o", "1182": "te a", "1183": "s\u2019 e", "1184": "ciom", "1185": "ci a", "1186": "c\u2019 e", "1187": "vo o", "1188": "gnen", "1189": "bian", "1190": "sper", "1191": "spir", "1192": "bran", "1193": "go e", "1194": "vi o", "1195": "stin", "1196": "guan", "1197": "svel", "1198": "o al", "1199": "ta e", "1200": "ra o", "1201": "ster", "1202": "pren", "1203": "sbra", "1204": "grot", "1205": "pros", "1206": "gior", "1207": "l\u2019 \u00f2", "1208": "ca a", "1209": "fron", "1210": "gran", "1211": "gias", "1212": "li a", "1213": "ra u", "1214": "gnaz", "1215": "z\u2019 a", "1216": "cher", "1217": "ti e", "1218": "stre", "1219": "spia", "1220": "ve u", "1221": "ni u", "1222": "r\u2019 u", "1223": "bren", "1224": "po o", "1225": "ra i", "1226": "ziar", "1227": "mo o", "1228": "no u", "1229": "ti o", "1230": "spes", "1231": "cioc", "1232": "la i", "1233": "sven", "1234": "squa", "1235": "fiam", "1236": "puom", "1237": "tron", "1238": "a es", "1239": "de u", "1240": "viem", "1241": "t\u2019 a", "1242": "giug", "1243": "l\u2019 o", "1244": "vi e", "1245": "guag", "1246": "scuo", "1247": "l\u2019 u", "1248": "fran", "1249": "ciuo", "1250": "spic", "1251": "truo", "1252": "sche", "1253": "po u", "1254": "prie", "1255": "blan", "1256": "stis", "1257": "chie", "1258": "brez", "1259": "quar", "1260": "creb", "1261": "pron", "1262": "e in", "1263": "m\u2019 i", "1264": "ma u", "1265": "gros", "1266": "va i", "1267": "biet", "1268": "di i", "1269": "nian", "1270": "stiz", "1271": "sgri", "1272": "stem", "1273": "stul", "1274": "ne e", "1275": "smal", "1276": "sber", "1277": "span", "1278": "smen", "1279": "le i", "1280": "to a", "1281": "re i", "1282": "\u00e8 im", "1283": "be o", "1284": "pe i", "1285": "d\u2019 \u00eb", "1286": "guic", "1287": "ghio", "1288": "cheg", "1289": "te e", "1290": "sfin", "1291": "re e", "1292": "no a", "1293": "r\u2019 o", "1294": "d\u2019 i", "1295": "gien", "1296": "bi a", "1297": "piag", "1298": "ce a", "1299": "ghir", "1300": "ge o", "1301": "do u", "1302": "m\u2019 e", "1303": "pe e", "1304": "glia", "1305": "ce o", "1306": "ma o", "1307": "crea", "1308": "gnem", "1309": "scin", "1310": "ca o", "1311": "sfor", "1312": "quen", "1313": "sfer", "1314": "tran", "1315": "va o", "1316": "grez", "1317": "te i", "1318": "a ac", "1319": "guaz", "1320": "ta i", "1321": "gual", "1322": "co e", "1323": "do a", "1324": "so e", "1325": "stec", "1326": "spez", "1327": "trap", "1328": "la o", "1329": "be i", "1330": "ro u", "1331": "va e", "1332": "zian", "1333": "te o", "1334": "biac", "1335": "de o", "1336": "pris", "1337": "te u", "1338": "sfio", "1339": "ci u", "1340": "str\u00e0", "1341": "ge a", "1342": "si u", "1343": "pa e", "1344": "ciot", "1345": "li \u2019", "1346": "puol", "1347": "se o", "1348": "giac", "1349": "spel", "1350": "guet", "1351": "graf", "1352": "le a", "1353": "zo e", "1354": "scio", "1355": "stig", "1356": "clis", "1357": "gnas", "1358": "na e", "1359": "\u2018glo", "1360": "stan", "1361": "sa o", "1362": "stru", "1363": "ro o", "1364": "flig", "1365": "le e", "1366": "spar", "1367": "s\u2019 o", "1368": "sten", "1369": "bo i", "1370": "bion", "1371": "g\u2019 \u00ef", "1372": "ce u", "1373": "trom", "1374": "se u", "1375": "le o", "1376": "scos", "1377": "ri e", "1378": "ne o", "1379": "mo i", "1380": "spin", "1381": "gi e", "1382": "giar", "1383": "fian", "1384": "scre", "1385": "l\u00ec e", "1386": "stuc", "1387": "liev", "1388": "de a", "1389": "ciul", "1390": "stra", "1391": "o ar", "1392": "n\u2019 e", "1393": "bo a", "1394": "sman", "1395": "piez", "1396": "sfre", "1397": "scom", "1398": "ghet", "1399": "so a", "1400": "stuo", "1401": "e \u2019n", "1402": "da o", "1403": "stop", "1404": "tren", "1405": "lo o", "1406": "ri u", "1407": "gial", "1408": "re o", "1409": "pi i", "1410": "spen", "1411": "ne a", "1412": "sneb", "1413": "giot", "1414": "ni o", "1415": "m\u2019 o", "1416": "za o", "1417": "pi e", "1418": "\u00e8 in", "1419": "di o", "1420": "p\u2019 e", "1421": "to i", "1422": "puos", "1423": "po e", "1424": "da e", "1425": "v\u2019 e", "1426": "sfam", "1427": "be u", "1428": "spre", "1429": "fred", "1430": "pruo", "1431": "si e", "1432": "gnie", "1433": "glie", "1434": "pi a", "1435": "sden", "1436": "piat", "1437": "smon", "1438": "trec", "1439": "stas", "1440": "na i", "1441": "se i", "1442": "gnuo", "1443": "scic", "1444": "ti a", "1445": "dram", "1446": "scri", "1447": "fret", "1448": "d\u2019 e", "1449": "bris", "1450": "giun", "1451": "do e", "1452": "spro", "1453": "gram", "1454": "stes", "1455": "piom", "1456": "to o", "1457": "t\u2019 o", "1458": "broc", "1459": "me e", "1460": "quan", "1461": "se e", "1462": "guef", "1463": "squi", "1464": "m\u2019 a", "1465": "ga o", "1466": "chil", "1467": "stav", "1468": "ci e", "1469": "sa a", "1470": "sfat", "1471": "guir", "1472": "d\u2019 \u00ef", "1473": "stol", "1474": "quin", "1475": "a am", "1476": "re u", "1477": "gnor", "1478": "crol", "1479": "a ef", "1480": "dier", "1481": "cian", "1482": "brac", "1483": "me i", "1484": "stam", "1485": "stel", "1486": "be a", "1487": "pran", "1488": "sciu", "1489": "sfan", "1490": "stet", "1491": "so o", "1492": "scaz", "1493": "schi", "1494": "so i", "1495": "scar", "1496": "sa u", "1497": "glau", "1498": "stie", "1499": "ghez", "1500": "mi o", "1501": "sgra", "1502": "ma e", "1503": "a in", "1504": "scie", "1505": "scim", "1506": "piac", "1507": "a al", "1508": "ra e", "1509": "sfar", "1510": "brul", "1511": "ni a", "1512": "piog", "1513": "do i", "1514": "co u", "1515": "la u", "1516": "grem", "1517": "plan", "1518": "n\u2019 o", "1519": "tier", "1520": "gner", "1521": "guit", "1522": "prir", "1523": "r\u00ec u", "1524": "clas", "1525": "qual", "1526": "tiem", "1527": "ples", "1528": "ca u", "1529": "sbri", "1530": "scor", "1531": "scem", "1532": "v\u2019 an", "1533": "do on", "1534": "d\u2019 ap", "1535": "l\u2019 an", "1536": "do al", "1537": "ve al", "1538": "te es", "1539": "stroz", "1540": "m\u2019 ab", "1541": "ra eb", "1542": "no av", "1543": "ci ap", "1544": "l\u2019 as", "1545": "mi ap", "1546": "re af", "1547": "schio", "1548": "de on", "1549": "ra el", "1550": "di ab", "1551": "sto a", "1552": "re ap", "1553": "li at", "1554": "me in", "1555": "li on", "1556": "so en", "1557": "le on", "1558": "s\u2019 op", "1559": "de am", "1560": "no or", "1561": "l\u2019 \u00e0n", "1562": "l\u2019 ov", "1563": "s\u2019 af", "1564": "te er", "1565": "va eb", "1566": "n\u2019 ap", "1567": "squil", "1568": "to eb", "1569": "ro am", "1570": "n\u2019 ar", "1571": "ra es", "1572": "lo of", "1573": "scris", "1574": "vi en", "1575": "ge et", "1576": "to ad", "1577": "l\u2019 ef", "1578": "t\u2019 ap", "1579": "na of", "1580": "so in", "1581": "s\u2019 in", "1582": "ve es", "1583": "ch\u2019 a", "1584": "na ap", "1585": "l\u2019 in", "1586": "l\u2019 av", "1587": "ro al", "1588": "do an", "1589": "t\u2019 in", "1590": "to ov", "1591": "spraz", "1592": "pa in", "1593": "li er", "1594": "li un", "1595": "ti ac", "1596": "pi ap", "1597": "n\u2019 av", "1598": "re at", "1599": "gli u", "1600": "zi at", "1601": "ne em", "1602": "ra ad", "1603": "mo ac", "1604": "no au", "1605": "to ec", "1606": "re ar", "1607": "che a", "1608": "lo eb", "1609": "ti al", "1610": "sa on", "1611": "re oc", "1612": "s\u2019 el", "1613": "n\u2019 ac", "1614": "to as", "1615": "le in", "1616": "s\u2019 al", "1617": "v\u2019 el", "1618": "vi in", "1619": "ne ov", "1620": "n\u2019 ab", "1621": "d\u2019 au", "1622": "no ab", "1623": "to av", "1624": "m\u2019 im", "1625": "gliet", "1626": "schet", "1627": "no in", "1628": "to af", "1629": "ste a", "1630": "ca in", "1631": "no af", "1632": "pa es", "1633": "ce av", "1634": "mo an", "1635": "te as", "1636": "no an", "1637": "t\u2019 av", "1638": "sa ac", "1639": "po ar", "1640": "spres", "1641": "d\u2019 ot", "1642": "ne an", "1643": "d\u2019 or", "1644": "to or", "1645": "d\u2019 am", "1646": "gi ar", "1647": "co eb", "1648": "do oc", "1649": "l\u2019 uo", "1650": "te is", "1651": "ta un", "1652": "d\u2019 en", "1653": "be al", "1654": "ni av", "1655": "co ad", "1656": "cia e", "1657": "zio u", "1658": "gni e", "1659": "l\u2019 os", "1660": "s\u2019 en", "1661": "co ap", "1662": "d\u2019 af", "1663": "de au", "1664": "ti am", "1665": "chi o", "1666": "che u", "1667": "mo at", "1668": "le ar", "1669": "lo as", "1670": "ta op", "1671": "va an", "1672": "si \u2019m", "1673": "re im", "1674": "m\u2019 ad", "1675": "n\u2019 in", "1676": "so es", "1677": "z\u2019 ar", "1678": "ro ab", "1679": "vo au", "1680": "sa es", "1681": "ti as", "1682": "di in", "1683": "ro eb", "1684": "ra al", "1685": "li al", "1686": "si or", "1687": "ta et", "1688": "ne al", "1689": "si \u2019n", "1690": "ro oc", "1691": "ge an", "1692": "tu ha", "1693": "do im", "1694": "vi av", "1695": "no \u2019n", "1696": "li om", "1697": "bra a", "1698": "to ar", "1699": "tri e", "1700": "li in", "1701": "l\u2019 eb", "1702": "va al", "1703": "to ag", "1704": "d\u2019 os", "1705": "l\u2019 ot", "1706": "ra uc", "1707": "d\u2019 al", "1708": "sta a", "1709": "re ag", "1710": "v\u2019 ab", "1711": "sgiun", "1712": "l\u2019 at", "1713": "le or", "1714": "ni on", "1715": "c\u2019 im", "1716": "n\u2019 ag", "1717": "ri al", "1718": "strug", "1719": "gliam", "1720": "li uo", "1721": "l\u2019 et", "1722": "so on", "1723": "za am", "1724": "sa og", "1725": "no as", "1726": "te af", "1727": "za on", "1728": "cia a", "1729": "ge in", "1730": "l\u00ec en", "1731": "mi ad", "1732": "n\u2019 at", "1733": "co on", "1734": "ri in", "1735": "re in", "1736": "ne on", "1737": "di es", "1738": "na es", "1739": "m\u2019 al", "1740": "qua e", "1741": "stret", "1742": "fo et", "1743": "sco u", "1744": "to ef", "1745": "le al", "1746": "so of", "1747": "m\u2019 ar", "1748": "va in", "1749": "ma ac", "1750": "li et", "1751": "n\u2019 al", "1752": "de in", "1753": "to oc", "1754": "scrit", "1755": "se op", "1756": "me ap", "1757": "re ad", "1758": "to es", "1759": "no ac", "1760": "do or", "1761": "ci av", "1762": "se af", "1763": "mi ac", "1764": "re as", "1765": "lo in", "1766": "si ad", "1767": "no om", "1768": "mo al", "1769": "gia o", "1770": "la av", "1771": "st\u2019 u", "1772": "st\u2019 a", "1773": "ci or", "1774": "me al", "1775": "na av", "1776": "l\u2019 oc", "1777": "ta eu", "1778": "la au", "1779": "t\u2019 at", "1780": "vi ac", "1781": "zi \u2019m", "1782": "vi ar", "1783": "to in", "1784": "tri a", "1785": "chiar", "1786": "ro ac", "1787": "ti ar", "1788": "ia al", "1789": "so at", "1790": "le uc", "1791": "to im", "1792": "te ap", "1793": "l\u2019 ag", "1794": "stroc", "1795": "chiet", "1796": "ta el", "1797": "re es", "1798": "li em", "1799": "li as", "1800": "ch\u2019 e", "1801": "di ol", "1802": "re av", "1803": "di az", "1804": "gia e", "1805": "do eb", "1806": "se es", "1807": "no ad", "1808": "re ab", "1809": "ro ap", "1810": "c\u2019 en", "1811": "m\u2019 of", "1812": "m\u2019 ap", "1813": "schem", "1814": "sco o", "1815": "t\u2019 af", "1816": "bo al", "1817": "so \u2019n", "1818": "no al", "1819": "zi ag", "1820": "di ac", "1821": "ra av", "1822": "sto e", "1823": "ce ac", "1824": "s\u2019 ag", "1825": "ch\u2019 u", "1826": "ge un", "1827": "ghiot", "1828": "n\u2019 om", "1829": "zie o", "1830": "ro as", "1831": "re et", "1832": "ca on", "1833": "st\u2019 o", "1834": "la es", "1835": "re on", "1836": "mo ol", "1837": "te in", "1838": "schiu", "1839": "re ot", "1840": "li \u2019m", "1841": "po an", "1842": "me ar", "1843": "si im", "1844": "d\u2019 az", "1845": "ste i", "1846": "no ec", "1847": "so ab", "1848": "se al", "1849": "d\u2019 og", "1850": "so ad", "1851": "go in", "1852": "na \u2019n", "1853": "streg", "1854": "to on", "1855": "te im", "1856": "ci an", "1857": "so as", "1858": "zio a", "1859": "ze es", "1860": "mo ec", "1861": "scias", "1862": "lo at", "1863": "de er", "1864": "mo in", "1865": "va im", "1866": "te ab", "1867": "t\u2019 al", "1868": "lo il", "1869": "lo on", "1870": "sciut", "1871": "si av", "1872": "ti in", "1873": "si of", "1874": "s\u00ec \u2019m", "1875": "sce a", "1876": "li ap", "1877": "de as", "1878": "na on", "1879": "ti \u2019m", "1880": "no es", "1881": "ce at", "1882": "vo as", "1883": "ba un", "1884": "d\u2019 eb", "1885": "l\u2019 el", "1886": "le av", "1887": "se \u2019n", "1888": "gne a", "1889": "ne av", "1890": "r\u2019 al", "1891": "me at", "1892": "ta an", "1893": "sgrie", "1894": "ra in", "1895": "si as", "1896": "pre e", "1897": "li ul", "1898": "ci in", "1899": "ra of", "1900": "n\u2019 au", "1901": "la ol", "1902": "ta al", "1903": "n\u2019 eb", "1904": "ne ac", "1905": "li av", "1906": "la en", "1907": "re ol", "1908": "ri ac", "1909": "scher", "1910": "glian", "1911": "za er", "1912": "zo in", "1913": "mo ar", "1914": "t\u2019 em", "1915": "mo of", "1916": "l\u2019 of", "1917": "di af", "1918": "ma es", "1919": "po in", "1920": "d\u2019 om", "1921": "d\u2019 ur", "1922": "do ol", "1923": "so eb", "1924": "bi al", "1925": "mi am", "1926": "ci am", "1927": "te on", "1928": "si er", "1929": "so an", "1930": "t\u2019 el", "1931": "ve oc", "1932": "do ac", "1933": "gliel", "1934": "zio e", "1935": "v\u2019 ap", "1936": "di ad", "1937": "pre a", "1938": "m\u2019 in", "1939": "li or", "1940": "s\u2019 am", "1941": "s\u2019 eb", "1942": "do es", "1943": "rio a", "1944": "co at", "1945": "m\u2019 eb", "1946": "strel", "1947": "sta o", "1948": "t\u2019 as", "1949": "na in", "1950": "lo \u2019m", "1951": "bra u", "1952": "m\u2019 es", "1953": "te au", "1954": "scial", "1955": "z\u2019 al", "1956": "la \u2019n", "1957": "gne o", "1958": "vi an", "1959": "mo im", "1960": "s\u2019 ap", "1961": "le am", "1962": "squar", "1963": "lo es", "1964": "ce au", "1965": "li eb", "1966": "ti et", "1967": "lo an", "1968": "le ad", "1969": "to an", "1970": "di im", "1971": "ro on", "1972": "ce in", "1973": "ta am", "1974": "lia a", "1975": "tra i", "1976": "di of", "1977": "za al", "1978": "re am", "1979": "te em", "1980": "ro av", "1981": "pi in", "1982": "pr\u2019 e", "1983": "to ol", "1984": "se an", "1985": "si am", "1986": "mo or", "1987": "s\u2019 ad", "1988": "splen", "1989": "no er", "1990": "tro e", "1991": "ze et", "1992": "de om", "1993": "za im", "1994": "ce ar", "1995": "le an", "1996": "ch\u2019 \u00ef", "1997": "schie", "1998": "s\u2019 at", "1999": "ma al", "2000": "ne et", "2001": "ci al", "2002": "li oc", "2003": "mi an", "2004": "si in", "2005": "t\u2019 am", "2006": "l\u2019 en", "2007": "di on", "2008": "s\u2019 im", "2009": "ne ap", "2010": "s\u2019 ab", "2011": "l\u2019 al", "2012": "te ad", "2013": "ti or", "2014": "la al", "2015": "le \u2019n", "2016": "d\u2019 ar", "2017": "re il", "2018": "r\u2019 an", "2019": "ce eu", "2020": "cea u", "2021": "chioc", "2022": "ni in", "2023": "d\u2019 ol", "2024": "te en", "2025": "sa im", "2026": "li af", "2027": "s\u2019 et", "2028": "l\u2019 im", "2029": "ti of", "2030": "ri on", "2031": "lo al", "2032": "re en", "2033": "s\u2019 os", "2034": "ne im", "2035": "n\u2019 an", "2036": "vi on", "2037": "si ol", "2038": "ri ap", "2039": "sa in", "2040": "ra ap", "2041": "zia o", "2042": "na ac", "2043": "si en", "2044": "glies", "2045": "zo ar", "2046": "ci ad", "2047": "ri an", "2048": "po on", "2049": "tr\u2019 e", "2050": "l\u2019 ol", "2051": "te \u2019n", "2052": "de al", "2053": "ve ar", "2054": "l\u2019 ai", "2055": "fu im", "2056": "to of", "2057": "sa ap", "2058": "va at", "2059": "d\u2019 eu", "2060": "co er", "2061": "v\u2019 es", "2062": "za \u2019n", "2063": "te om", "2064": "la \u2019m", "2065": "ve ap", "2066": "ce al", "2067": "no im", "2068": "chiap", "2069": "se on", "2070": "ti en", "2071": "re al", "2072": "ra ac", "2073": "sci\u00e0n", "2074": "do ap", "2075": "strat", "2076": "t\u2019 im", "2077": "tra e", "2078": "lo \u2019n", "2079": "to at", "2080": "d\u2019 oc", "2081": "di an", "2082": "be as", "2083": "si og", "2084": "si an", "2085": "m\u2019 om", "2086": "gi an", "2087": "v\u2019 in", "2088": "gne u", "2089": "mi in", "2090": "gno a", "2091": "me of", "2092": "s\u2019 as", "2093": "ro im", "2094": "va \u2019n", "2095": "ma of", "2096": "v\u2019 ar", "2097": "li uc", "2098": "t\u2019 om", "2099": "dea u", "2100": "l\u2019 ae", "2101": "t\u2019 es", "2102": "di om", "2103": "che e", "2104": "co an", "2105": "sto o", "2106": "d\u2019 at", "2107": "re au", "2108": "le ol", "2109": "cio e", "2110": "di av", "2111": "de ag", "2112": "ce es", "2113": "ti oc", "2114": "mo eb", "2115": "na ar", "2116": "v\u2019 et", "2117": "vi \u2019m", "2118": "ro at", "2119": "si al", "2120": "te or", "2121": "bo av", "2122": "so al", "2123": "m\u2019 ag", "2124": "de eu", "2125": "le ap", "2126": "zo an", "2127": "so am", "2128": "s\u00ec in", "2129": "r\u2019 es", "2130": "s\u00ec \u2019n", "2131": "te os", "2132": "to ap", "2133": "se ac", "2134": "ro in", "2135": "zi al", "2136": "sciau", "2137": "le of", "2138": "zia e", "2139": "de an", "2140": "l\u2019 ac", "2141": "mo af", "2142": "stren", "2143": "d\u2019 in", "2144": "\u2019v\u2019 e", "2145": "t\u00e0 in", "2146": "no et", "2147": "n\u2019 am", "2148": "no ar", "2149": "v\u2019 eb", "2150": "ni en", "2151": "li im", "2152": "le \u2019m", "2153": "ma on", "2154": "ce on", "2155": "l\u2019 ar", "2156": "se at", "2157": "sguar", "2158": "ti ad", "2159": "tra a", "2160": "re an", "2161": "mio a", "2162": "ce af", "2163": "ma or", "2164": "sciam", "2165": "sta u", "2166": "si ac", "2167": "fu in", "2168": "ta as", "2169": "v\u2019 er", "2170": "cia o", "2171": "fa az", "2172": "l\u2019 er", "2173": "li ag", "2174": "l\u2019 uc", "2175": "ta im", "2176": "z\u2019 es", "2177": "ma ap", "2178": "ne as", "2179": "ra on", "2180": "sta i", "2181": "qu\u2019 o", "2182": "ce as", "2183": "t\u2019 ag", "2184": "l\u2019 ec", "2185": "do el", "2186": "m\u2019 at", "2187": "ni as", "2188": "no ag", "2189": "re ac", "2190": "strar", "2191": "v\u2019 al", "2192": "la in", "2193": "tro a", "2194": "m\u2019 as", "2195": "di og", "2196": "si at", "2197": "gna a", "2198": "sfran", "2199": "lo im", "2200": "vi of", "2201": "ci af", "2202": "ca an", "2203": "que o", "2204": "ma an", "2205": "ne in", "2206": "l\u2019 em", "2207": "scran", "2208": "ve an", "2209": "so ar", "2210": "ta ad", "2211": "ta of", "2212": "lo af", "2213": "strom", "2214": "ci at", "2215": "t\u2019 an", "2216": "sciar", "2217": "d\u2019 es", "2218": "de \u2019n", "2219": "t\u2019 ac", "2220": "se as", "2221": "va ar", "2222": "v\u2019 of", "2223": "ha \u2019n", "2224": "t\u2019 ar", "2225": "se ap", "2226": "re eb", "2227": "do at", "2228": "n\u2019 er", "2229": "co av", "2230": "s\u2019 of", "2231": "chias", "2232": "la on", "2233": "gliar", "2234": "spiac", "2235": "ta on", "2236": "li ar", "2237": "schia", "2238": "s\u2019 ac", "2239": "ro or", "2240": "ga as", "2241": "le oc", "2242": "ro of", "2243": "l\u2019 un", "2244": "scian", "2245": "ra an", "2246": "ro au", "2247": "te ag", "2248": "ro es", "2249": "d\u2019 im", "2250": "l\u2019 am", "2251": "l\u2019 ad", "2252": "me as", "2253": "n\u2019 on", "2254": "l\u2019 es", "2255": "ni al", "2256": "sa an", "2257": "d\u2019 ac", "2258": "vo at", "2259": "sa ol", "2260": "ra as", "2261": "me au", "2262": "li ab", "2263": "ta ab", "2264": "mi al", "2265": "do am", "2266": "ne \u2019m", "2267": "scrip", "2268": "ch\u2019 i", "2269": "li ad", "2270": "bre a", "2271": "m\u2019 af", "2272": "li ac", "2273": "d\u2019 of", "2274": "sta e", "2275": "n\u2019 uo", "2276": "ma \u2019n", "2277": "m\u2019 ac", "2278": "ta es", "2279": "ci ar", "2280": "strin", "2281": "ca en", "2282": "to ac", "2283": "so ap", "2284": "ve at", "2285": "cio a", "2286": "ro ar", "2287": "tro u", "2288": "le as", "2289": "do er", "2290": "na eb", "2291": "be av", "2292": "to uc", "2293": "ra am", "2294": "spran", "2295": "se un", "2296": "ra ec", "2297": "s\u2019 ar", "2298": "ta at", "2299": "no ap", "2300": "ce im", "2301": "t\u2019 ab", "2302": "strac", "2303": "ra ot", "2304": "ro an", "2305": "d\u2019 an", "2306": "co in", "2307": "l\u2019 op", "2308": "vi al", "2309": "la or", "2310": "na ab", "2311": "go al", "2312": "no at", "2313": "v\u2019 am", "2314": "ne af", "2315": "s\u2019 av", "2316": "go es", "2317": "za an", "2318": "gno u", "2319": "te of", "2320": "lo av", "2321": "ni am", "2322": "gliuo", "2323": "do ar", "2324": "co al", "2325": "tra u", "2326": "v\u2019 ac", "2327": "ti im", "2328": "li es", "2329": "tr\u2019 a", "2330": "za in", "2331": "ce et", "2332": "me ac", "2333": "fe et", "2334": "m\u2019 av", "2335": "mi \u2019n", "2336": "ta in", "2337": "ta ar", "2338": "ne es", "2339": "io al", "2340": "ghian", "2341": "ti at", "2342": "te ac", "2343": "pra a", "2344": "mo es", "2345": "do in", "2346": "na af", "2347": "s\u2019 an", "2348": "mi er", "2349": "se in", "2350": "co et", "2351": "la ap", "2352": "to al", "2353": "cro a", "2354": "l\u2019 ap", "2355": "ni ap", "2356": "ro um", "2357": "strut", "2358": "ra et", "2359": "de of", "2360": "mo on", "2361": "po al", "2362": "za et", "2363": "le es", "2364": "te at", "2365": "ne ar", "2366": "tro i", "2367": "ma in", "2368": "do as", "2369": "ni es", "2370": "ne \u2019n", "2371": "l\u2019 af", "2372": "chi u", "2373": "pi or", "2374": "ne ag", "2375": "te al", "2376": "schic", "2377": "pie e", "2378": "s\u2019 er", "2379": "scioc", "2380": "de ar", "2381": "ze or", "2382": "re om", "2383": "vo an", "2384": "stric", "2385": "no am", "2386": "t\u2019 or", "2387": "bo on", "2388": "do af", "2389": "chi a", "2390": "d\u2019 ab", "2391": "l\u2019 um", "2392": "tri o", "2393": "po av", "2394": "te ar", "2395": "s\u2019 es", "2396": "l\u2019 or", "2397": "d\u2019 on", "2398": "la el", "2399": "me am", "2400": "be ar", "2401": "ci \u2019n", "2402": "co ar", "2403": "so et", "2404": "to et", "2405": "stram", "2406": "ca er", "2407": "hi om", "2408": "sciol", "2409": "be on", "2410": "ri ar", "2411": "stras", "2412": "ci as", "2413": "m\u2019 an", "2414": "s\u2019 em", "2415": "ti av", "2416": "d\u2019 er", "2417": "d\u2019 et", "2418": "me an", "2419": "si ar", "2420": "dio i", "2421": "tro o", "2422": "l\u2019 ul", "2423": "ch\u2019 o", "2424": "scheg", "2425": "si el", "2426": "ra im", "2427": "li \u2019n", "2428": "sti o", "2429": "co ac", "2430": "dre e", "2431": "ni an", "2432": "me ef", "2433": "glien", "2434": "sciom", "2435": "lo er", "2436": "suo a", "2437": "bre o", "2438": "d\u2019 el", "2439": "di al", "2440": "l\u2019 on", "2441": "l\u2019 au", "2442": "li of", "2443": "stran", "2444": "li am", "2445": "ti \u2019n", "2446": "va id", "2447": "chi e", "2448": "ghien", "2449": "te ol", "2450": "chian", "2451": "to ab", "2452": "lo ac", "2453": "te an", "2454": "ta ac", "2455": "fu el", "2456": "de af", "2457": "le at", "2458": "l\u2019 om", "2459": "ga in", "2460": "la of", "2461": "li au", "2462": "ghiac", "2463": "zo as", "2464": "ti an", "2465": "l\u2019 ab", "2466": "sbe a", "2467": "vo ac", "2468": "sti a", "2469": "lo ar", "2470": "de or", "2471": "li an", "2472": "sto an", "2473": "gne ef", "2474": "tre in", "2475": "stro e", "2476": "gh\u2019 es", "2477": "chi in", "2478": "ch\u2019 er", "2479": "tri of", "2480": "tri as", "2481": "glio o", "2482": "chio u", "2483": "sce al", "2484": "chi al", "2485": "gia ar", "2486": "tro av", "2487": "sto ar", "2488": "zia il", "2489": "sti es", "2490": "ch\u2019 at", "2491": "sco al", "2492": "tro ab", "2493": "sti in", "2494": "ch\u2019 og", "2495": "sti av", "2496": "tra op", "2497": "zia on", "2498": "gne er", "2499": "che om", "2500": "cie in", "2501": "st\u2019 an", "2502": "stra u", "2503": "sto ac", "2504": "tro on", "2505": "gni an", "2506": "stro o", "2507": "ri han", "2508": "tri ap", "2509": "ch\u2019 in", "2510": "sti an", "2511": "cia im", "2512": "st\u2019 es", "2513": "tr\u2019 al", "2514": "che ar", "2515": "sta an", "2516": "ch\u2019 am", "2517": "sto es", "2518": "bri ap", "2519": "st\u2019 in", "2520": "ch\u2019 ar", "2521": "mio in", "2522": "stri o", "2523": "tro al", "2524": "tra an", "2525": "stra e", "2526": "pie or", "2527": "sto on", "2528": "cia on", "2529": "cio et", "2530": "sto \u2019m", "2531": "ria of", "2532": "tro as", "2533": "tra ef", "2534": "tro ap", "2535": "gia in", "2536": "st\u2019 ar", "2537": "bia in", "2538": "ch\u2019 en", "2539": "chi ar", "2540": "l\u2019 han", "2541": "stro u", "2542": "ch\u2019 or", "2543": "lio in", "2544": "stro a", "2545": "gna in", "2546": "chi ac", "2547": "ria in", "2548": "tro an", "2549": "tri es", "2550": "tro in", "2551": "sta ol", "2552": "tro of", "2553": "ghe on", "2554": "sta im", "2555": "gne al", "2556": "dre an", "2557": "gio on", "2558": "d\u2019 han", "2559": "cio as", "2560": "rio an", "2561": "dre al", "2562": "bia an", "2563": "ch\u2019 an", "2564": "schiet", "2565": "cio al", "2566": "sti or", "2567": "tro ar", "2568": "sto at", "2569": "sce an", "2570": "ti han", "2571": "gue an", "2572": "gno in", "2573": "que al", "2574": "lio an", "2575": "qua im", "2576": "m\u2019 han", "2577": "schiat", "2578": "gno am", "2579": "st\u2019 of", "2580": "che ha", "2581": "st\u2019 ul", "2582": "sto in", "2583": "lio as", "2584": "st\u2019 ot", "2585": "gue or", "2586": "sce el", "2587": "che \u2019n", "2588": "st\u2019 ac", "2589": "sta og", "2590": "sti on", "2591": "gne uo", "2592": "sma in", "2593": "ch\u2019 ac", "2594": "che an", "2595": "bra in", "2596": "pio on", "2597": "pre es", "2598": "sti un", "2599": "ch\u2019 ab", "2600": "schian", "2601": "chi on", "2602": "stri a", "2603": "ch\u2019 av", "2604": "c\u2019 han", "2605": "stra a", "2606": "glia o", "2607": "ch\u2019 et", "2608": "scia e", "2609": "dre es", "2610": "tre an", "2611": "zie ec", "2612": "zia or", "2613": "gio uc", "2614": "tro et", "2615": "pre in", "2616": "tr\u2019 om", "2617": "ste in", "2618": "gno al", "2619": "n\u2019 han", "2620": "pi\u00f9 \u2019n", "2621": "sto al", "2622": "tri af", "2623": "pre ac", "2624": "sto of", "2625": "tra av", "2626": "dre as", "2627": "tr\u2019 ar", "2628": "chio a", "2629": "tro \u2019m", "2630": "ch\u2019 ad", "2631": "glio u", "2632": "che in", "2633": "ch\u2019 ap", "2634": "que es", "2635": "gne im", "2636": "ria on", "2637": "sce as", "2638": "vio in", "2639": "tr\u2019 am", "2640": "sto im", "2641": "tre os", "2642": "pr\u2019 ar", "2643": "ch\u2019 al", "2644": "glio e", "2645": "sti al", "2646": "chi an", "2647": "ch\u2019 eb", "2648": "mia \u2019n", "2649": "vea \u2019m", "2650": "sti er", "2651": "ch\u2019 el", "2652": "gne in", "2653": "chio o", "2654": "ste an", "2655": "ch\u2019 ag", "2656": "sta al", "2657": "mio \u2019n", "2658": "co e i", "2659": "pi\u00f9 in", "2660": "sto \u2019n", "2661": "ch\u2019 as", "2662": "lia an", "2663": "sto ap", "2664": "sta in", "2665": "bre et", "2666": "bre in", "2667": "t\u2019 han", "2668": "gue on", "2669": "glia u", "2670": "gne ac", "2671": "go han", "2672": "dia as", "2673": "qua in", "2674": "nio im", "2675": "sti oc", "2676": "dre eb", "2677": "cia ar", "2678": "gia al", "2679": "sti el", "2680": "bre an", "2681": "che \u2019m", "2682": "str\u2019 u", "2683": "tri in", "2684": "li han", "2685": "chi ap", "2686": "ne han", "2687": "te han", "2688": "st\u2019 al", "2689": "tro ac", "2690": "gno ae", "2691": "glia a", "2692": "ch\u2019 es", "2693": "cio ap", "2694": "chi am", "2695": "qua on", "2696": "pre al", "2697": "gno af", "2698": "pre ar", "2699": "gio in", "2700": "stra i", "2701": "qua of", "2702": "sco an", "2703": "pre at", "2704": "stro ac", "2705": "scia an", "2706": "glie al", "2707": "glia es", "2708": "stro an", "2709": "d\u2019 i\u2019 a", "2710": "glia in", "2711": "glia al", "2712": "stro eb", "2713": "sche er", "2714": "trio al", "2715": "stri an", "2716": "glia as", "2717": "chio at", "2718": "stra ef", "2719": "str\u2019 or", "2720": "sche ab", "2721": "stre in", "2722": "ti e \u2019n", "2723": "glio es", "2724": "glio an", "2725": "stri av", "2726": "chia of", "2727": "si e \u2019n", "2728": "glio on", "2729": "stro av", "2730": "stra in", "2731": "stro oc", "2732": "stro es", "2733": "stri af", "2734": "li \u00e8 in", "2735": "re a \u2019n", "2736": "stri ef", "2737": "chio in", "2738": "glio in", "2739": "glio as", "2740": "n\u2019 \u00e8 im", "2741": "stro al", "2742": "dio han", "2743": "str\u2019 ar", "2744": "glie an", "2745": "stro in", "2746": "stra ap", "2747": "stro as", "2748": "stri al", "2749": "glia ac", "2750": "chie et", "2751": "stro im", "2752": "chia an", "2753": "lo e \u2019n", "2754": "chio an", "2755": "glie eb", "2756": "sti a \u2019n", "2757": "t\u2019 ho in", "2758": "ch\u2019 e\u2019 \u2019n", "2759": "ch\u2019 io \u2019n", "2760": "\u00f2 ", "2761": "s ", "2762": "\u00e8 ", "2763": "\u00ef ", "2764": "i ", "2765": "o ", "2766": "\u00f9 ", "2767": "a ", "2768": "e ", "2769": "l\u00e8 ", "2770": "\u00f3n ", "2771": "mo ", "2772": "d\u00f2 ", "2773": "vo ", "2774": "lo ", "2775": "as ", "2776": "me ", "2777": "f\u00f2 ", "2778": "d\u00e9 ", "2779": "il ", "2780": "ei ", "2781": "ve ", "2782": "pa ", "2783": "ma ", "2784": "un ", "2785": "g\u00f2 ", "2786": "ro ", "2787": "on ", "2788": "ar ", "2789": "od ", "2790": "t\u00e9 ", "2791": "d\u00ec ", "2792": "n\u00e9 ", "2793": "de ", "2794": "om ", "2795": "vi ", "2796": "\u00e8l ", "2797": "\u00f2s ", "2798": "ze ", "2799": "n\u00ec ", "2800": "li ", "2801": "t\u00e8 ", "2802": "to ", "2803": "\u00e9n ", "2804": "ti ", "2805": "r\u00e0 ", "2806": "v\u00ec ", "2807": "go ", "2808": "fu ", "2809": "no ", "2810": "s\u00e9 ", "2811": "r\u00ec ", "2812": "la ", "2813": "zi ", "2814": "ca ", "2815": "gi ", "2816": "ae ", "2817": "sa ", "2818": "l\u00ec ", "2819": "ra ", "2820": "m\u00e8 ", "2821": "c\u00e9 ", "2822": "t\u00f2 ", "2823": "ne ", "2824": "oh ", "2825": "re ", "2826": "n\u00e0 ", "2827": "ge ", "2828": "in ", "2829": "b\u00f2 ", "2830": "t\u00e0 ", "2831": "io ", "2832": "n\u00e8 ", "2833": "ia ", "2834": "an ", "2835": "si ", "2836": "\u00e0r ", "2837": "ed ", "2838": "va ", "2839": "ie ", "2840": "ni ", "2841": "ce ", "2842": "da ", "2843": "ut ", "2844": "fi ", "2845": "ta ", "2846": "tu ", "2847": "z\u00f2 ", "2848": "p\u00e8 ", "2849": "ci ", "2850": "b\u00f9 ", "2851": "ga ", "2852": "se ", "2853": "\u00e0m ", "2854": "fo ", "2855": "r\u00f2 ", "2856": "b\u00e8 ", "2857": "mi ", "2858": "do ", "2859": "p\u00f2 ", "2860": "m\u00f2 ", "2861": "le ", "2862": "al ", "2863": "v\u00f2 ", "2864": "t\u00ec ", "2865": "t\u00f9 ", "2866": "ho ", "2867": "pi ", "2868": "\u00f9l ", "2869": "zo ", "2870": "s\u00ec ", "2871": "pe ", "2872": "ri ", "2873": "n\u00f2 ", "2874": "os ", "2875": "ai ", "2876": "na ", "2877": "s\u00e8 ", "2878": "el ", "2879": "bo ", "2880": "us ", "2881": "bi ", "2882": "u\u2019 ", "2883": "g\u00ec ", "2884": "f\u00e0 ", "2885": "ba ", "2886": "ab ", "2887": "i\u2019 ", "2888": "\u00e0s ", "2889": "su ", "2890": "s\u00f9 ", "2891": "ha ", "2892": "or ", "2893": "et ", "2894": "za ", "2895": "ir ", "2896": "co ", "2897": "te ", "2898": "l\u00e0 ", "2899": "a\u2019 ", "2900": "e\u2019 ", "2901": "s\u00f2 ", "2902": "so ", "2903": "f\u00e9 ", "2904": "ad ", "2905": "fa ", "2906": "be ", "2907": "po ", "2908": "fe ", "2909": "d\u00e0 ", "2910": "c\u00f2 ", "2911": "di ", "2912": "l\u00f2 ", "2913": "f\u00e8l ", "2914": "ta\u2019 ", "2915": "m\u00eca ", "2916": "tri ", "2917": "bra ", "2918": "st\u00ec ", "2919": "bol ", "2920": "pre ", "2921": "st\u00f9 ", "2922": "pi\u00e8 ", "2923": "can ", "2924": "cin ", "2925": "\u2019ve ", "2926": "f\u00e0t ", "2927": "tea ", "2928": "son ", "2929": "d\u00eca ", "2930": "nio ", "2931": "mar ", "2932": "st\u00e0 ", "2933": "pir ", "2934": "gia ", "2935": "dai ", "2936": "bir ", "2937": "r\u00ecs ", "2938": "n\u00eca ", "2939": "ten ", "2940": "fon ", "2941": "st\u00f2 ", "2942": "pro ", "2943": "ra\u2019 ", "2944": "dio ", "2945": "dor ", "2946": "fan ", "2947": "men ", "2948": "ian ", "2949": "han ", "2950": "tor ", "2951": "c\u00e0n ", "2952": "dia ", "2953": "a e ", "2954": "gon ", "2955": "v\u00ecd ", "2956": "sui ", "2957": "smi ", "2958": "tal ", "2959": "nol ", "2960": "chi ", "2961": "pal ", "2962": "des ", "2963": "du\u2019 ", "2964": "zan ", "2965": "nea ", "2966": "var ", "2967": "sub ", "2968": "gin ", "2969": "zul ", "2970": "rin ", "2971": "vea ", "2972": "t\u00e0n ", "2973": "cis ", "2974": "mei ", "2975": "ser ", "2976": "pio ", "2977": "dem ", "2978": "pin ", "2979": "ter ", "2980": "sta ", "2981": "pol ", "2982": "lai ", "2983": "mor ", "2984": "gua ", "2985": "gei ", "2986": "tra ", "2987": "par ", "2988": "deh ", "2989": "o e ", "2990": "rio ", "2991": "val ", "2992": "sin ", "2993": "lui ", "2994": "ri\u2019 ", "2995": "e i ", "2996": "tes ", "2997": "gli ", "2998": "lan ", "2999": "cle ", "3000": "rai ", "3001": "ste ", "3002": "dur ", "3003": "mae ", "3004": "sua ", "3005": "gu\u00ec ", "3006": "vio ", "3007": "su\u2019 ", "3008": "nal ", "3009": "voi ", "3010": "via ", "3011": "pur ", "3012": "tre ", "3013": "c\u00f2l ", "3014": "cea ", "3015": "pem ", "3016": "dr\u00e0 ", "3017": "sco ", "3018": "sei ", "3019": "ch\u00e9 ", "3020": "mun ", "3021": "gne ", "3022": "sca ", "3023": "sue ", "3024": "bi\u00f2 ", "3025": "bar ", "3026": "bue ", "3027": "bil ", "3028": "l\u00f2n ", "3029": "san ", "3030": "vas ", "3031": "dir ", "3032": "tr\u00e0 ", "3033": "por ", "3034": "lor ", "3035": "dal ", "3036": "mai ", "3037": "meo ", "3038": "bee ", "3039": "vem ", "3040": "qua ", "3041": "nar ", "3042": "smo ", "3043": "sii ", "3044": "gol ", "3045": "gra ", "3046": "tei ", "3047": "vol ", "3048": "mia ", "3049": "man ", "3050": "ma\u2019 ", "3051": "da\u2019 ", "3052": "te\u2019 ", "3053": "uom ", "3054": "fi\u2019 ", "3055": "cel ", "3056": "bis ", "3057": "feo ", "3058": "lir ", "3059": "nil ", "3060": "lin ", "3061": "vin ", "3062": "gre ", "3063": "ler ", "3064": "pon ", "3065": "cun ", "3066": "fra ", "3067": "gi\u2019 ", "3068": "mul ", "3069": "gni ", "3070": "col ", "3071": "di\u00e8 ", "3072": "nei ", "3073": "ier ", "3074": "lea ", "3075": "a a ", "3076": "ran ", "3077": "car ", "3078": "sol ", "3079": "de\u2019 ", "3080": "tuo ", "3081": "pri ", "3082": "gea ", "3083": "vo\u2019 ", "3084": "sci ", "3085": "dei ", "3086": "pei ", "3087": "no\u2019 ", "3088": "g\u00f3n ", "3089": "leo ", "3090": "fe\u2019 ", "3091": "tio ", "3092": "dra ", "3093": "ahi ", "3094": "nie ", "3095": "ver ", "3096": "gn\u00ec ", "3097": "suo ", "3098": "rer ", "3099": "co\u2019 ", "3100": "gis ", "3101": "f\u00e0s ", "3102": "t\u00e9r ", "3103": "poi ", "3104": "e \u2019 ", "3105": "zar ", "3106": "ban ", "3107": "uo\u2019 ", "3108": "fur ", "3109": "lie ", "3110": "sir ", "3111": "tin ", "3112": "lei ", "3113": "bei ", "3114": "bro ", "3115": "me\u2019 ", "3116": "sal ", "3117": "sio ", "3118": "cum ", "3119": "tai ", "3120": "cio ", "3121": "sai ", "3122": "ril ", "3123": "pr\u00ec ", "3124": "dil ", "3125": "ton ", "3126": "duo ", "3127": "der ", "3128": "di\u2019 ", "3129": "pra ", "3130": "tol ", "3131": "nha ", "3132": "hai ", "3133": "b\u00eca ", "3134": "mas ", "3135": "tus ", "3136": "due ", "3137": "vel ", "3138": "d\u00e8i ", "3139": "ror ", "3140": "cul ", "3141": "mon ", "3142": "lio ", "3143": "til ", "3144": "bus ", "3145": "n\u00ect ", "3146": "nai ", "3147": "mal ", "3148": "zai ", "3149": "ber ", "3150": "st\u00e9 ", "3151": "lon ", "3152": "bri ", "3153": "gi\u00e0 ", "3154": "cai ", "3155": "ve\u2019 ", "3156": "fia ", "3157": "sto ", "3158": "cem ", "3159": "reo ", "3160": "rie ", "3161": "na\u2019 ", "3162": "spe ", "3163": "ria ", "3164": "r\u00f3n ", "3165": "zie ", "3166": "clo ", "3167": "sel ", "3168": "pea ", "3169": "l\u00eco ", "3170": "n\u00f2s ", "3171": "nor ", "3172": "nia ", "3173": "bre ", "3174": "gor ", "3175": "gno ", "3176": "tia ", "3177": "sis ", "3178": "gel ", "3179": "pel ", "3180": "m\u00ecs ", "3181": "ti\u2019 ", "3182": "pia ", "3183": "cei ", "3184": "pie ", "3185": "n\u00e8s ", "3186": "dar ", "3187": "gna ", "3188": "gi\u00f9 ", "3189": "ga\u2019 ", "3190": "coi ", "3191": "fui ", "3192": "gio ", "3193": "nin ", "3194": "pi\u00e9 ", "3195": "con ", "3196": "mer ", "3197": "nel ", "3198": "fei ", "3199": "cui ", "3200": "van ", "3201": "gal ", "3202": "rem ", "3203": "gan ", "3204": "vie ", "3205": "tem ", "3206": "gue ", "3207": "fai ", "3208": "tar ", "3209": "sor ", "3210": "rir ", "3211": "far ", "3212": "zio ", "3213": "fer ", "3214": "ven ", "3215": "cor ", "3216": "mie ", "3217": "r\u00f2l ", "3218": "mio ", "3219": "deo ", "3220": "lu\u2019 ", "3221": "gai ", "3222": "peo ", "3223": "za\u2019 ", "3224": "tan ", "3225": "ean ", "3226": "tel ", "3227": "nem ", "3228": "ron ", "3229": "gro ", "3230": "rar ", "3231": "rei ", "3232": "bor ", "3233": "s\u00f3n ", "3234": "qui ", "3235": "nan ", "3236": "o a ", "3237": "lee ", "3238": "sia ", "3239": "rum ", "3240": "ieu ", "3241": "sma ", "3242": "ram ", "3243": "dro ", "3244": "gir ", "3245": "bio ", "3246": "r\u00ecb ", "3247": "que ", "3248": "cer ", "3249": "vra ", "3250": "a i ", "3251": "tr\u00f2 ", "3252": "bel ", "3253": "ren ", "3254": "del ", "3255": "vam ", "3256": "pi\u00f9 ", "3257": "for ", "3258": "cre ", "3259": "fu\u2019 ", "3260": "b\u00e0l ", "3261": "sti ", "3262": "se\u2019 ", "3263": "c\u00f2b ", "3264": "cro ", "3265": "l\u00e8m ", "3266": "dan ", "3267": "ion ", "3268": "sce ", "3269": "ne\u2019 ", "3270": "dre ", "3271": "min ", "3272": "num ", "3273": "ner ", "3274": "rel ", "3275": "dea ", "3276": "cur ", "3277": "sar ", "3278": "gui ", "3279": "t\u00f3n ", "3280": "cal ", "3281": "sie ", "3282": "ci\u00f2 ", "3283": "spa ", "3284": "cu\u2019 ", "3285": "fil ", "3286": "neo ", "3287": "g\u00f3r ", "3288": "sen ", "3289": "cen ", "3290": "pr\u00e0 ", "3291": "die ", "3292": "ger ", "3293": "lia ", "3294": "sa\u2019 ", "3295": "zon ", "3296": "ges ", "3297": "gu\u00f2 ", "3298": "tua ", "3299": "fin ", "3300": "tir ", "3301": "rea ", "3302": "nis ", "3303": "gar ", "3304": "\u2018te ", "3305": "cia ", "3306": "sc\u00ec ", "3307": "sul ", "3308": "vil ", "3309": "bon ", "3310": "sem ", "3311": "plo ", "3312": "gri ", "3313": "vau ", "3314": "bia ", "3315": "von ", "3316": "tun ", "3317": "ral ", "3318": "sun ", "3319": "cil ", "3320": "din ", "3321": "ben ", "3322": "tis ", "3323": "len ", "3324": "cra ", "3325": "tro ", "3326": "unt ", "3327": "per ", "3328": "don ", "3329": "dri ", "3330": "cie ", "3331": "tue ", "3332": "re\u2019 ", "3333": "lar ", "3334": "va\u2019 ", "3335": "pu\u00f2 ", "3336": "teo ", "3337": "pan ", "3338": "vai ", "3339": "ghi ", "3340": "noi ", "3341": "nir ", "3342": "che ", "3343": "dee ", "3344": "f\u00f3n ", "3345": "non ", "3346": "vei ", "3347": "zia ", "3348": "cri ", "3349": "ghe ", "3350": "mil ", "3351": "dr\u00f2 ", "3352": "gi\u00f2 ", "3353": "rao ", "3354": "suo\u2019 ", "3355": "vi \u00e8 ", "3356": "fier ", "3357": "siam ", "3358": "li o ", "3359": "m\u2019 \u00e8 ", "3360": "la \u00e8 ", "3361": "le i ", "3362": "sa e ", "3363": "tran ", "3364": "buon ", "3365": "quel ", "3366": "nier ", "3367": "prir ", "3368": "gnar ", "3369": "drir ", "3370": "ta \u00e8 ", "3371": "dien ", "3372": "tu i ", "3373": "fuor ", "3374": "ri e ", "3375": "prai ", "3376": "v\u2019 a ", "3377": "bent ", "3378": "di a ", "3379": "st\u00f2r ", "3380": "go \u00e8 ", "3381": "viam ", "3382": "que\u2019 ", "3383": "ta i ", "3384": "va e ", "3385": "t\u2019 \u00e8 ", "3386": "laio ", "3387": "se a ", "3388": "grue ", "3389": "ti a ", "3390": "si a ", "3391": "za \u00e8 ", "3392": "stro ", "3393": "quam ", "3394": "glie ", "3395": "tien ", "3396": "si i ", "3397": "stea ", "3398": "chi\u00f2 ", "3399": "co i ", "3400": "dail ", "3401": "ne o ", "3402": "r\u2019 a ", "3403": "s\u2019 a ", "3404": "vian ", "3405": "trio ", "3406": "vier ", "3407": "gnan ", "3408": "ti \u00e8 ", "3409": "gran ", "3410": "stel ", "3411": "stin ", "3412": "ta a ", "3413": "gior ", "3414": "li i ", "3415": "ne \u00e8 ", "3416": "se \u00e8 ", "3417": "guan ", "3418": "tra\u2019 ", "3419": "de i ", "3420": "fo \u00e8 ", "3421": "za i ", "3422": "re o ", "3423": "la i ", "3424": "l\u00e0 i ", "3425": "ni a ", "3426": "gner ", "3427": "ghio ", "3428": "su i ", "3429": "na o ", "3430": "fien ", "3431": "mian ", "3432": "cean ", "3433": "runt ", "3434": "gi e ", "3435": "va a ", "3436": "guia ", "3437": "ra e ", "3438": "ni o ", "3439": "vuol ", "3440": "so \u00e8 ", "3441": "sa a ", "3442": "ce \u00e8 ", "3443": "drel ", "3444": "trar ", "3445": "pria ", "3446": "pa a ", "3447": "e \u2019n ", "3448": "drai ", "3449": "quod ", "3450": "mi e ", "3451": "ro i ", "3452": "ne a ", "3453": "br\u00f2t ", "3454": "pien ", "3455": "ciai ", "3456": "ra a ", "3457": "ma \u00e8 ", "3458": "ver\u2019 ", "3459": "si \u00e8 ", "3460": "ni e ", "3461": "di e ", "3462": "gier ", "3463": "star ", "3464": "sunt ", "3465": "ce o ", "3466": "zion ", "3467": "c\u2019 \u00e8 ", "3468": "bi i ", "3469": "duol ", "3470": "sian ", "3471": "scon ", "3472": "ghie ", "3473": "piar ", "3474": "ro o ", "3475": "mo a ", "3476": "maio ", "3477": "lo i ", "3478": "fi e ", "3479": "t\u2019 i ", "3480": "suon ", "3481": "ci\u00f2l ", "3482": "sion ", "3483": "zian ", "3484": "ce a ", "3485": "gnia ", "3486": "tuon ", "3487": "po o ", "3488": "te e ", "3489": "d\u2019 i ", "3490": "vi o ", "3491": "pa e ", "3492": "stan ", "3493": "mo i ", "3494": "chia ", "3495": "re a ", "3496": "me \u00e8 ", "3497": "ni \u00e8 ", "3498": "e \u2019l ", "3499": "ched ", "3500": "vria ", "3501": "ge \u00e8 ", "3502": "breo ", "3503": "gnus ", "3504": "stra ", "3505": "dier ", "3506": "gnun ", "3507": "quei ", "3508": "scea ", "3509": "me e ", "3510": "s\u00e9 i ", "3511": "zi \u00e8 ", "3512": "\u00e8 \u2019l ", "3513": "frir ", "3514": "te o ", "3515": "po \u00e8 ", "3516": "lier ", "3517": "v\u2019 \u00e8 ", "3518": "com\u2019 ", "3519": "de e ", "3520": "no i ", "3521": "ci \u00e8 ", "3522": "nian ", "3523": "go a ", "3524": "gnel ", "3525": "chin ", "3526": "to \u00e8 ", "3527": "gli\u00f2 ", "3528": "a in ", "3529": "stri ", "3530": "na \u00e8 ", "3531": "da e ", "3532": "vi e ", "3533": "trei ", "3534": "scel ", "3535": "za e ", "3536": "pi e ", "3537": "nien ", "3538": "brei ", "3539": "ve a ", "3540": "so e ", "3541": "lo e ", "3542": "bo e ", "3543": "co e ", "3544": "biar ", "3545": "pe i ", "3546": "quie ", "3547": "to i ", "3548": "giam ", "3549": "vien ", "3550": "ciam ", "3551": "ra i ", "3552": "le o ", "3553": "di o ", "3554": "dean ", "3555": "ci a ", "3556": "i il ", "3557": "pa \u00e8 ", "3558": "za o ", "3559": "niam ", "3560": "guir ", "3561": "di i ", "3562": "ga o ", "3563": "a \u2019l ", "3564": "do a ", "3565": "se e ", "3566": "ciar ", "3567": "mo e ", "3568": "sfar ", "3569": "to e ", "3570": "co o ", "3571": "o in ", "3572": "co \u00e8 ", "3573": "vo a ", "3574": "be e ", "3575": "prio ", "3576": "sier ", "3577": "ti o ", "3578": "gian ", "3579": "f\u00e9 i ", "3580": "si o ", "3581": "le e ", "3582": "la a ", "3583": "giun ", "3584": "spir ", "3585": "ga e ", "3586": "stui ", "3587": "lo \u00e8 ", "3588": "str\u00f2 ", "3589": "mo \u00e8 ", "3590": "sien ", "3591": "te \u00e8 ", "3592": "o il ", "3593": "glio ", "3594": "po a ", "3595": "mi a ", "3596": "zi a ", "3597": "gnon ", "3598": "spre ", "3599": "te i ", "3600": "co a ", "3601": "re \u00e8 ", "3602": "l\u2019 \u00e8 ", "3603": "le \u00e8 ", "3604": "mi i ", "3605": "chel ", "3606": "dra\u2019 ", "3607": "d\u00ec i ", "3608": "chie ", "3609": "la o ", "3610": "ro a ", "3611": "sti\u00f2 ", "3612": "muor ", "3613": "lo a ", "3614": "bi a ", "3615": "quai ", "3616": "to a ", "3617": "spri ", "3618": "pe e ", "3619": "scia ", "3620": "a al ", "3621": "stie ", "3622": "cria ", "3623": "li a ", "3624": "do o ", "3625": "ti e ", "3626": "rean ", "3627": "go o ", "3628": "da a ", "3629": "gi a ", "3630": "za a ", "3631": "so o ", "3632": "si e ", "3633": "fior ", "3634": "gien ", "3635": "do i ", "3636": "ciol ", "3637": "lian ", "3638": "cion ", "3639": "ve o ", "3640": "ca e ", "3641": "po e ", "3642": "glia ", "3643": "lien ", "3644": "cia\u2019 ", "3645": "sa \u00e8 ", "3646": "ciul ", "3647": "plor ", "3648": "li \u00e8 ", "3649": "de o ", "3650": "sa o ", "3651": "ba e ", "3652": "de a ", "3653": "ciel ", "3654": "ghia ", "3655": "plar ", "3656": "va o ", "3657": "so i ", "3658": "vuoi ", "3659": "sci\u2019 ", "3660": "de \u00e8 ", "3661": "pier ", "3662": "po i ", "3663": "cian ", "3664": "stor ", "3665": "trui ", "3666": "scir ", "3667": "scer ", "3668": "suol ", "3669": "na a ", "3670": "a il ", "3671": "go e ", "3672": "zi e ", "3673": "sie\u2019 ", "3674": "o \u2019n ", "3675": "ca o ", "3676": "vi a ", "3677": "ce i ", "3678": "tria ", "3679": "se i ", "3680": "ga a ", "3681": "pi\u00e9r ", "3682": "d\u2019 \u00e8 ", "3683": "tier ", "3684": "ch e ", "3685": "trae ", "3686": "re i ", "3687": "ve e ", "3688": "gnor ", "3689": "ti i ", "3690": "so a ", "3691": "cuor ", "3692": "ma a ", "3693": "diam ", "3694": "stia ", "3695": "ma e ", "3696": "ziar ", "3697": "\u00e8 \u2019n ", "3698": "ta e ", "3699": "ge e ", "3700": "ce e ", "3701": "n\u2019 \u00e8 ", "3702": "ri a ", "3703": "sci\u00f2 ", "3704": "o al ", "3705": "sche ", "3706": "rien ", "3707": "nail ", "3708": "gnum ", "3709": "no \u00e8 ", "3710": "guai ", "3711": "io e ", "3712": "fe e ", "3713": "ma i ", "3714": "pian ", "3715": "bion ", "3716": "ve i ", "3717": "zo e ", "3718": "quar ", "3719": "ro \u00e8 ", "3720": "stai ", "3721": "vean ", "3722": "gnin ", "3723": "ze e ", "3724": "pri\u2019 ", "3725": "me i ", "3726": "ca a ", "3727": "ra \u00e8 ", "3728": "rian ", "3729": "spro ", "3730": "zo a ", "3731": "cl\u00e8s ", "3732": "va i ", "3733": "pion ", "3734": "ma o ", "3735": "ge a ", "3736": "stil ", "3737": "ri o ", "3738": "ci o ", "3739": "slao ", "3740": "ghi\u00f2 ", "3741": "puoi ", "3742": "ze o ", "3743": "be a ", "3744": "bi e ", "3745": "tiam ", "3746": "bran ", "3747": "brio ", "3748": "do e ", "3749": "prun ", "3750": "naio ", "3751": "ci e ", "3752": "bia\u2019 ", "3753": "me a ", "3754": "bo a ", "3755": "guon ", "3756": "qual ", "3757": "tean ", "3758": "gual ", "3759": "\u00e8 il ", "3760": "suoi ", "3761": "buoi ", "3762": "ta o ", "3763": "scar ", "3764": "dron ", "3765": "l\u00ec \u00e8 ", "3766": "fren ", "3767": "s\u2019 \u00e8 ", "3768": "mie\u2019 ", "3769": "da i ", "3770": "fiar ", "3771": "gion ", "3772": "prie ", "3773": "ca \u00e8 ", "3774": "be i ", "3775": "scun ", "3776": "trai ", "3777": "ro e ", "3778": "die\u2019 ", "3779": "stre ", "3780": "quor ", "3781": "giar ", "3782": "nean ", "3783": "to o ", "3784": "sc\u00eco ", "3785": "ra o ", "3786": "cral ", "3787": "chio ", "3788": "tuoi ", "3789": "le a ", "3790": "fian ", "3791": "stei ", "3792": "vo e ", "3793": "gean ", "3794": "vuo\u2019 ", "3795": "crin ", "3796": "tr\u00e0s ", "3797": "te a ", "3798": "schi ", "3799": "do \u00e8 ", "3800": "ne e ", "3801": "no e ", "3802": "ne i ", "3803": "no a ", "3804": "se o ", "3805": "tram ", "3806": "prei ", "3807": "pia\u2019 ", "3808": "bian ", "3809": "miei ", "3810": "grin ", "3811": "no o ", "3812": "la e ", "3813": "pron ", "3814": "scio ", "3815": "sa i ", "3816": "brar ", "3817": "ghin ", "3818": "li e ", "3819": "re e ", "3820": "o un ", "3821": "i in ", "3822": "na e ", "3823": "li ei ", "3824": "tro \u00e8 ", "3825": "fa \u2019l ", "3826": "se io ", "3827": "re \u2019n ", "3828": "gi un ", "3829": "n\u00f2 in ", "3830": "m\u2019 io ", "3831": "se al ", "3832": "de al ", "3833": "ca io ", "3834": "gna \u00e8 ", "3835": "va ad ", "3836": "ci al ", "3837": "to ad ", "3838": "st\u2019 \u00e8 ", "3839": "va \u2019l ", "3840": "stier ", "3841": "li un ", "3842": "le \u2019l ", "3843": "vi il ", "3844": "sa in ", "3845": "no i\u2019 ", "3846": "te a\u2019 ", "3847": "ti ad ", "3848": "ne al ", "3849": "ra a\u2019 ", "3850": "gno a ", "3851": "ia ed ", "3852": "d\u2019 un ", "3853": "na \u2019n ", "3854": "li or ", "3855": "va il ", "3856": "ro in ", "3857": "ge un ", "3858": "mo al ", "3859": "ci or ", "3860": "so il ", "3861": "gno e ", "3862": "do \u2019l ", "3863": "d\u2019 e\u2019 ", "3864": "ga in ", "3865": "ni or ", "3866": "le io ", "3867": "tri \u00e8 ", "3868": "ghe a ", "3869": "le ir ", "3870": "che a ", "3871": "la \u2019l ", "3872": "qua a ", "3873": "to \u2019l ", "3874": "te or ", "3875": "sta e ", "3876": "ge ad ", "3877": "ne ai ", "3878": "to ir ", "3879": "qua \u00e8 ", "3880": "be ed ", "3881": "co il ", "3882": "da al ", "3883": "ti il ", "3884": "na il ", "3885": "ci \u2019l ", "3886": "pre i ", "3887": "no un ", "3888": "co \u2019l ", "3889": "za in ", "3890": "c\u2019 ha ", "3891": "zi or ", "3892": "ve il ", "3893": "na al ", "3894": "ria e ", "3895": "t\u2019 il ", "3896": "me il ", "3897": "se ir ", "3898": "chian ", "3899": "b\u00f2 il ", "3900": "vi in ", "3901": "ba il ", "3902": "si or ", "3903": "ri in ", "3904": "ce al ", "3905": "me un ", "3906": "le or ", "3907": "ma in ", "3908": "ti ed ", "3909": "pie a ", "3910": "ti \u2019n ", "3911": "ci ha ", "3912": "va in ", "3913": "stran ", "3914": "gna o ", "3915": "lio \u00e8 ", "3916": "ce in ", "3917": "va a\u2019 ", "3918": "smo a ", "3919": "ci in ", "3920": "co in ", "3921": "me ad ", "3922": "da un ", "3923": "ne un ", "3924": "ha \u2019l ", "3925": "di il ", "3926": "sta \u00e8 ", "3927": "dri e ", "3928": "ne a\u2019 ", "3929": "ta ed ", "3930": "ba in ", "3931": "mo ha ", "3932": "be or ", "3933": "glien ", "3934": "si el ", "3935": "se \u2019l ", "3936": "me al ", "3937": "do ad ", "3938": "ce u\u2019 ", "3939": "bo in ", "3940": "te ad ", "3941": "ge or ", "3942": "to io ", "3943": "t\u00ec \u2019l ", "3944": "tra i ", "3945": "ra il ", "3946": "t\u00e0 \u2019l ", "3947": "ma \u2019l ", "3948": "chion ", "3949": "no io ", "3950": "be in ", "3951": "ne io ", "3952": "ce un ", "3953": "va io ", "3954": "ro al ", "3955": "co ad ", "3956": "da \u2019l ", "3957": "mo un ", "3958": "qua o ", "3959": "co ai ", "3960": "g\u2019 io ", "3961": "do il ", "3962": "be un ", "3963": "li in ", "3964": "zo \u2019l ", "3965": "re ir ", "3966": "gli e ", "3967": "che e ", "3968": "sciai ", "3969": "no ed ", "3970": "che \u2019 ", "3971": "tro a ", "3972": "po \u2019l ", "3973": "ro il ", "3974": "ti ai ", "3975": "co io ", "3976": "ve in ", "3977": "le ad ", "3978": "lo or ", "3979": "n\u00e9 \u2019l ", "3980": "do ed ", "3981": "gue a ", "3982": "v\u2019 \u00e8n ", "3983": "na un ", "3984": "dre e ", "3985": "lo ed ", "3986": "se or ", "3987": "bi in ", "3988": "ta al ", "3989": "to ed ", "3990": "ta un ", "3991": "sme e ", "3992": "cia e ", "3993": "t\u2019 ha ", "3994": "zi ad ", "3995": "vi \u2019l ", "3996": "re ad ", "3997": "pre a ", "3998": "pr\u2019 a ", "3999": "tra a ", "4000": "l\u2019 un ", "4001": "za ed ", "4002": "lio a ", "4003": "ro un ", "4004": "ci il ", "4005": "chi e ", "4006": "lo un ", "4007": "stral ", "4008": "chi a ", "4009": "cia a ", "4010": "to i\u2019 ", "4011": "te in ", "4012": "va al ", "4013": "ti ha ", "4014": "r\u00f2 \u2019l ", "4015": "t\u00f2 \u2019l ", "4016": "gio e ", "4017": "si in ", "4018": "se ho ", "4019": "gliea ", "4020": "mi ad ", "4021": "sti e ", "4022": "mo ad ", "4023": "v\u2019 io ", "4024": "re al ", "4025": "zo il ", "4026": "l\u2019 ha ", "4027": "zio e ", "4028": "t\u2019 io ", "4029": "svuol ", "4030": "g\u00f2 \u2019l ", "4031": "pio a ", "4032": "temps ", "4033": "gia o ", "4034": "sa \u2019l ", "4035": "gno i ", "4036": "te ed ", "4037": "ste e ", "4038": "le al ", "4039": "bro e ", "4040": "sa un ", "4041": "che i ", "4042": "zi ai ", "4043": "s\u2019 i\u2019 ", "4044": "da il ", "4045": "gliar ", "4046": "d\u00f2 \u2019l ", "4047": "ste a ", "4048": "ti \u2019l ", "4049": "pe il ", "4050": "que a ", "4051": "bro \u00e8 ", "4052": "te un ", "4053": "t\u00f2 un ", "4054": "ne \u2019l ", "4055": "strai ", "4056": "gia a ", "4057": "la in ", "4058": "zi un ", "4059": "no ad ", "4060": "mi il ", "4061": "s\u00ec \u2019l ", "4062": "do in ", "4063": "v\u2019 ei ", "4064": "da in ", "4065": "ne ed ", "4066": "re i\u2019 ", "4067": "re or ", "4068": "si u\u2019 ", "4069": "ti io ", "4070": "te al ", "4071": "gua e ", "4072": "no a\u2019 ", "4073": "ra ed ", "4074": "sce i ", "4075": "lo ai ", "4076": "sa il ", "4077": "vi un ", "4078": "vra i ", "4079": "mo in ", "4080": "va or ", "4081": "no u\u2019 ", "4082": "la un ", "4083": "la a\u2019 ", "4084": "tro e ", "4085": "chi \u00e8 ", "4086": "ca il ", "4087": "tri e ", "4088": "ne in ", "4089": "su \u2019l ", "4090": "se in ", "4091": "dro o ", "4092": "t\u2019 ho ", "4093": "ni \u2019l ", "4094": "cio a ", "4095": "pri a ", "4096": "ce ha ", "4097": "gi al ", "4098": "po in ", "4099": "be \u2019l ", "4100": "co u\u2019 ", "4101": "d\u2019 ei ", "4102": "gri e ", "4103": "ve \u2019l ", "4104": "mo il ", "4105": "ti un ", "4106": "s\u2019 ei ", "4107": "t\u2019 om ", "4108": "gue e ", "4109": "ve un ", "4110": "stian ", "4111": "mi ed ", "4112": "ge al ", "4113": "gra o ", "4114": "pi in ", "4115": "ti al ", "4116": "gio a ", "4117": "stial ", "4118": "ra al ", "4119": "tri a ", "4120": "sta a ", "4121": "le in ", "4122": "se un ", "4123": "f\u00e9 \u2019l ", "4124": "li al ", "4125": "te \u2019n ", "4126": "zia e ", "4127": "ne or ", "4128": "ri a\u2019 ", "4129": "ta ad ", "4130": "ra or ", "4131": "stiam ", "4132": "be il ", "4133": "vrien ", "4134": "scian ", "4135": "sca i ", "4136": "lia e ", "4137": "zio a ", "4138": "li oh ", "4139": "ra io ", "4140": "so un ", "4141": "gluol ", "4142": "gna a ", "4143": "di ed ", "4144": "po al ", "4145": "te ho ", "4146": "sco i ", "4147": "va \u2019n ", "4148": "glior ", "4149": "no in ", "4150": "di in ", "4151": "zi al ", "4152": "to or ", "4153": "za ha ", "4154": "me \u2019n ", "4155": "so a\u2019 ", "4156": "le un ", "4157": "pa \u2019l ", "4158": "do io ", "4159": "ghiar ", "4160": "gue \u00e8 ", "4161": "va un ", "4162": "tra e ", "4163": "ca in ", "4164": "gia e ", "4165": "dia i ", "4166": "pre e ", "4167": "sco e ", "4168": "di \u2019n ", "4169": "di un ", "4170": "di io ", "4171": "di ad ", "4172": "lo ha ", "4173": "ta \u2019l ", "4174": "tro i ", "4175": "bre a ", "4176": "d\u2019 ir ", "4177": "s\u2019 ha ", "4178": "na ed ", "4179": "se a\u2019 ", "4180": "tr\u2019 \u00e8 ", "4181": "da or ", "4182": "di al ", "4183": "de in ", "4184": "dre a ", "4185": "p\u2019 io ", "4186": "so in ", "4187": "ha in ", "4188": "sa ad ", "4189": "zia a ", "4190": "rio a ", "4191": "re ho ", "4192": "sce e ", "4193": "qui e ", "4194": "po ha ", "4195": "gna e ", "4196": "ge in ", "4197": "si ad ", "4198": "gi il ", "4199": "dio e ", "4200": "bia e ", "4201": "pe \u2019l ", "4202": "na in ", "4203": "za un ", "4204": "lo a\u2019 ", "4205": "re a\u2019 ", "4206": "ro ed ", "4207": "ve ad ", "4208": "sti o ", "4209": "gui i ", "4210": "gna i ", "4211": "tri o ", "4212": "li ha ", "4213": "n\u2019 ei ", "4214": "za \u2019l ", "4215": "t\u00e9 \u2019l ", "4216": "bi il ", "4217": "po ed ", "4218": "mo ed ", "4219": "na ei ", "4220": "v\u2019 ha ", "4221": "te il ", "4222": "sto a ", "4223": "ta ha ", "4224": "do ha ", "4225": "mi al ", "4226": "se i\u2019 ", "4227": "pra e ", "4228": "ma \u2019n ", "4229": "da io ", "4230": "ria \u00e8 ", "4231": "si il ", "4232": "ria \u2019 ", "4233": "li ad ", "4234": "v\u2019 ho ", "4235": "se \u2019n ", "4236": "so \u2019l ", "4237": "ta il ", "4238": "ni in ", "4239": "le ha ", "4240": "ria i ", "4241": "ch\u00e9 a ", "4242": "bo a\u2019 ", "4243": "fu il ", "4244": "za or ", "4245": "te ha ", "4246": "si \u2019l ", "4247": "ti a\u2019 ", "4248": "r\u00ec \u2019l ", "4249": "ro or ", "4250": "ch\u2019 a ", "4251": "mia e ", "4252": "no al ", "4253": "to in ", "4254": "ti ei ", "4255": "v\u2019 el ", "4256": "pa ed ", "4257": "to \u2019n ", "4258": "mi a\u2019 ", "4259": "le i\u2019 ", "4260": "glian ", "4261": "ma un ", "4262": "sto e ", "4263": "me in ", "4264": "qua e ", "4265": "scion ", "4266": "s\u2019 un ", "4267": "lio e ", "4268": "do al ", "4269": "tra \u00e8 ", "4270": "di a\u2019 ", "4271": "t\u2019 el ", "4272": "de \u2019l ", "4273": "bi \u2019l ", "4274": "pa in ", "4275": "so al ", "4276": "la il ", "4277": "d\u2019 i\u2019 ", "4278": "v\u2019 e\u2019 ", "4279": "ste i ", "4280": "d\u2019 io ", "4281": "v\u2019 or ", "4282": "mi \u2019l ", "4283": "ce il ", "4284": "zo al ", "4285": "pe ad ", "4286": "te io ", "4287": "ra ha ", "4288": "se il ", "4289": "ra \u2019n ", "4290": "r\u2019 al ", "4291": "te ai ", "4292": "tre e ", "4293": "l\u00e0 \u2019l ", "4294": "to ha ", "4295": "ga il ", "4296": "lo al ", "4297": "si \u2019n ", "4298": "ri al ", "4299": "va ed ", "4300": "de un ", "4301": "ve al ", "4302": "cia o ", "4303": "no \u2019l ", "4304": "chiar ", "4305": "co a\u2019 ", "4306": "zi \u2019l ", "4307": "so ad ", "4308": "no il ", "4309": "strar ", "4310": "po io ", "4311": "ma a\u2019 ", "4312": "te u\u2019 ", "4313": "ch\u2019 \u00e8 ", "4314": "ro a\u2019 ", "4315": "que e ", "4316": "schio ", "4317": "le il ", "4318": "gui e ", "4319": "n\u2019 ha ", "4320": "ra \u2019l ", "4321": "s\u2019 el ", "4322": "si al ", "4323": "d\u2019 el ", "4324": "t\u2019 i\u2019 ", "4325": "na ad ", "4326": "mi in ", "4327": "se e\u2019 ", "4328": "pio e ", "4329": "na ha ", "4330": "za al ", "4331": "ra un ", "4332": "rio e ", "4333": "to a\u2019 ", "4334": "sciar ", "4335": "ni il ", "4336": "co un ", "4337": "bra a ", "4338": "s\u2019 e\u2019 ", "4339": "za oh ", "4340": "gli a ", "4341": "ia il ", "4342": "zii e ", "4343": "z\u00f2 il ", "4344": "de ad ", "4345": "gni a ", "4346": "dro a ", "4347": "no ha ", "4348": "que \u00e8 ", "4349": "zia \u00e8 ", "4350": "te \u2019l ", "4351": "l\u2019 om ", "4352": "za i\u2019 ", "4353": "g\u00ec \u2019l ", "4354": "sto \u00e8 ", "4355": "go \u2019l ", "4356": "le ab ", "4357": "ro od ", "4358": "to al ", "4359": "glier ", "4360": "ra ad ", "4361": "s\u00e9 il ", "4362": "mo \u2019l ", "4363": "to un ", "4364": "lo il ", "4365": "r\u00f2 il ", "4366": "me \u2019l ", "4367": "ia in ", "4368": "zo in ", "4369": "re ha ", "4370": "de ed ", "4371": "ta io ", "4372": "lo in ", "4373": "sti a ", "4374": "l\u00e0 il ", "4375": "li io ", "4376": "b\u2019 io ", "4377": "se ad ", "4378": "zia o ", "4379": "ro ad ", "4380": "gia \u00e8 ", "4381": "ge ai ", "4382": "sti \u00e8 ", "4383": "tra \u2019 ", "4384": "ne ad ", "4385": "ni al ", "4386": "pa or ", "4387": "gua a ", "4388": "ne ha ", "4389": "l\u2019 ho ", "4390": "ri \u2019l ", "4391": "ch\u00e9 i ", "4392": "gni e ", "4393": "de il ", "4394": "sci a ", "4395": "s\u2019 io ", "4396": "re un ", "4397": "la io ", "4398": "su in ", "4399": "dio a ", "4400": "c\u2019 io ", "4401": "tu \u2019l ", "4402": "bra e ", "4403": "bra o ", "4404": "n\u2019 io ", "4405": "do a\u2019 ", "4406": "me ai ", "4407": "gno \u00e8 ", "4408": "c\u2019 ho ", "4409": "si un ", "4410": "la ed ", "4411": "dia e ", "4412": "zio \u00e8 ", "4413": "di \u2019l ", "4414": "zi il ", "4415": "ti in ", "4416": "cio e ", "4417": "me a\u2019 ", "4418": "di or ", "4419": "ria a ", "4420": "n\u00f2 \u2019l ", "4421": "do or ", "4422": "da i\u2019 ", "4423": "chier ", "4424": "sta o ", "4425": "v\u00f2 \u2019l ", "4426": "ci a\u2019 ", "4427": "ia oh ", "4428": "di ha ", "4429": "po il ", "4430": "stion ", "4431": "ghe e ", "4432": "mi un ", "4433": "bre e ", "4434": "bio e ", "4435": "sia e ", "4436": "to il ", "4437": "fu \u2019l ", "4438": "va ai ", "4439": "be al ", "4440": "ria o ", "4441": "be i\u2019 ", "4442": "go il ", "4443": "co al ", "4444": "chiai ", "4445": "tr\u2019 a ", "4446": "za il ", "4447": "li \u2019l ", "4448": "\u2019v\u2019 \u00e8 ", "4449": "re in ", "4450": "me ed ", "4451": "ma il ", "4452": "lo ad ", "4453": "no ai ", "4454": "ne il ", "4455": "la al ", "4456": "ge il ", "4457": "gi \u2019l ", "4458": "m\u2019 ha ", "4459": "ra in ", "4460": "fo or ", "4461": "dro e ", "4462": "gliel ", "4463": "go al ", "4464": "sce a ", "4465": "ca al ", "4466": "ta in ", "4467": "re il ", "4468": "li il ", "4469": "re ed ", "4470": "vo in ", "4471": "v\u2019 i\u2019 ", "4472": "ro i\u2019 ", "4473": "ghi e ", "4474": "glion ", "4475": "do un ", "4476": "gi\u2019 or ", "4477": "che il ", "4478": "cea il ", "4479": "ch\u2019 un ", "4480": "ti e i ", "4481": "st\u2019 ho ", "4482": "so\u2019 \u2019n ", "4483": "gia un ", "4484": "sto in ", "4485": "tri ad ", "4486": "due \u2019l ", "4487": "ch\u2019 or ", "4488": "tre al ", "4489": "zia in ", "4490": "te han ", "4491": "rio ho ", "4492": "gia \u2019l ", "4493": "gue il ", "4494": "tra \u2019l ", "4495": "sta un ", "4496": "tre il ", "4497": "c\u2019 hai ", "4498": "bio ed ", "4499": "ro hai ", "4500": "sc\u00ec \u2019l ", "4501": "cia ad ", "4502": "bra od ", "4503": "l\u2019 uom ", "4504": "tre in ", "4505": "dia in ", "4506": "gno al ", "4507": "chi al ", "4508": "ghia a ", "4509": "ria al ", "4510": "ne e \u2019 ", "4511": "ch\u2019 ad ", "4512": "na\u2019 il ", "4513": "gna a\u2019 ", "4514": "lio ed ", "4515": "chi il ", "4516": "dri ai ", "4517": "ri e \u2019 ", "4518": "stio e ", "4519": "se\u2019 in ", "4520": "qui \u2019l ", "4521": "pra in ", "4522": "tro i\u2019 ", "4523": "schi a ", "4524": "fra \u2019l ", "4525": "ci e \u2019 ", "4526": "ra han ", "4527": "rio il ", "4528": "rio ha ", "4529": "spra e ", "4530": "gu\u00ec \u2019l ", "4531": "chi in ", "4532": "gna il ", "4533": "tro \u2019l ", "4534": "glio a ", "4535": "nia il ", "4536": "t\u2019 ha\u2019 ", "4537": "glia \u00e8 ", "4538": "glio e ", "4539": "gio in ", "4540": "pi\u00e9 \u2019l ", "4541": "sti in ", "4542": "ch\u2019 a\u2019 ", "4543": "chio \u00e8 ", "4544": "tr\u2019 io ", "4545": "gliuol ", "4546": "stra e ", "4547": "fia il ", "4548": "ni e \u2019 ", "4549": "li ha\u2019 ", "4550": "pre al ", "4551": "que in ", "4552": "ch\u2019 ai ", "4553": "pu\u00f2 \u2019l ", "4554": "tr\u2019 al ", "4555": "gne al ", "4556": "sto ad ", "4557": "vra \u2019l ", "4558": "qua in ", "4559": "gua in ", "4560": "ch\u2019 e\u2019 ", "4561": "tro in ", "4562": "stra \u00e8 ", "4563": "gni in ", "4564": "sia \u2019l ", "4565": "stie e ", "4566": "trio e ", "4567": "bra ad ", "4568": "ghi al ", "4569": "tra al ", "4570": "cia ir ", "4571": "ch\u2019 i\u2019 ", "4572": "que ad ", "4573": "stro \u00e8 ", "4574": "tra i\u2019 ", "4575": "li han ", "4576": "gue in ", "4577": "stro a ", "4578": "va e i ", "4579": "sc\u2019 io ", "4580": "gno ad ", "4581": "ne han ", "4582": "che \u2019l ", "4583": "vea \u2019l ", "4584": "smo al ", "4585": "chi \u2019n ", "4586": "tro ha ", "4587": "dio in ", "4588": "ste il ", "4589": "se uom ", "4590": "que il ", "4591": "tr\u2019 a\u2019 ", "4592": "cio ed ", "4593": "ch\u2019 io ", "4594": "stia e ", "4595": "\u2019ve \u2019l ", "4596": "sce il ", "4597": "ti han ", "4598": "pre in ", "4599": "qua al ", "4600": "cia al ", "4601": "di e \u2019 ", "4602": "tro un ", "4603": "d\u2019 uom ", "4604": "chia e ", "4605": "scia o ", "4606": "gno in ", "4607": "tro ad ", "4608": "zie al ", "4609": "me e \u2019 ", "4610": "gno a\u2019 ", "4611": "l\u2019 hai ", "4612": "gio ad ", "4613": "ch\u2019 el ", "4614": "s\u2019 hai ", "4615": "gi\u00f9 \u2019l ", "4616": "t\u2019 hai ", "4617": "stra a ", "4618": "sta \u2019n ", "4619": "mia al ", "4620": "ch\u2019 al ", "4621": "sti \u2019l ", "4622": "n\u2019 uom ", "4623": "schi o ", "4624": "gno il ", "4625": "pre ha ", "4626": "bia \u2019l ", "4627": "tro ai ", "4628": "tro il ", "4629": "cia in ", "4630": "tri or ", "4631": "gna in ", "4632": "pra ed ", "4633": "ni e i ", "4634": "gl\u2019 io ", "4635": "ch\u00e9 \u2019l ", "4636": "ro e \u2019 ", "4637": "bia in ", "4638": "ghi in ", "4639": "sta al ", "4640": "sto il ", "4641": "sti ha ", "4642": "scia a ", "4643": "ch\u00e9 \u2019n ", "4644": "pi\u00f9 \u2019l ", "4645": "gi\u00e0 \u2019l ", "4646": "gne \u2019l ", "4647": "chio a ", "4648": "pre a\u2019 ", "4649": "po e \u2019 ", "4650": "gia or ", "4651": "ti e \u2019 ", "4652": "m\u2019 han ", "4653": "stro e ", "4654": "gli un ", "4655": "dria e ", "4656": "ba e \u2019 ", "4657": "glia e ", "4658": "pra \u2019l ", "4659": "dro in ", "4660": "tre i\u2019 ", "4661": "stri e ", "4662": "tro ed ", "4663": "ste in ", "4664": "ch\u2019 \u00e8i ", "4665": "sa e \u2019 ", "4666": "sta in ", "4667": "ch\u2019 ei ", "4668": "ne e i ", "4669": "gno ha ", "4670": "chi \u2019l ", "4671": "ghi \u2019l ", "4672": "tra il ", "4673": "qua il ", "4674": "que al ", "4675": "gio al ", "4676": "tri il ", "4677": "gli al ", "4678": "stro o ", "4679": "tri \u2019l ", "4680": "che a\u2019 ", "4681": "c\u2019 ha\u2019 ", "4682": "gna un ", "4683": "lia il ", "4684": "chi ei ", "4685": "que a\u2019 ", "4686": "ci\u00f2 \u2019l ", "4687": "sti il ", "4688": "gliuoi ", "4689": "sto al ", "4690": "gno ed ", "4691": "m\u2019 hai ", "4692": "to hai ", "4693": "ch\u2019 om ", "4694": "che \u2019n ", "4695": "sce in ", "4696": "sche o ", "4697": "glia a ", "4698": "nio al ", "4699": "ria il ", "4700": "sto io ", "4701": "sco il ", "4702": "glie e ", "4703": "tre un ", "4704": "zio al ", "4705": "tro a\u2019 ", "4706": "zia il ", "4707": "che al ", "4708": "pria o ", "4709": "ch\u2019 in ", "4710": "ghiaio ", "4711": "pa e \u2019 ", "4712": "chio e ", "4713": "tro io ", "4714": "sta il ", "4715": "pia in ", "4716": "di\u2019 \u2019l ", "4717": "ch\u00e9 il ", "4718": "que i\u2019 ", "4719": "gia il ", "4720": "schiar ", "4721": "tro al ", "4722": "cia un ", "4723": "glio o ", "4724": "tra in ", "4725": "glia o ", "4726": "gno or ", "4727": "so hai ", "4728": "ghio e ", "4729": "dre al ", "4730": "gi\u00e0 il ", "4731": "cia il ", "4732": "chi ha ", "4733": "scio a ", "4734": "che un ", "4735": "che in ", "4736": "gio il ", "4737": "gna \u2019l ", "4738": "gro un ", "4739": "pria e ", "4740": "stro i ", "4741": "gi\u00f9 il ", "4742": "to e \u2019l ", "4743": "ta e \u2019n ", "4744": "lo \u00e8 in ", "4745": "sci\u00f2 il ", "4746": "de e \u2019l ", "4747": "stro or ", "4748": "stri in ", "4749": "go e \u2019l ", "4750": "chia al ", "4751": "ga e \u2019l ", "4752": "na e \u2019l ", "4753": "la e \u2019l ", "4754": "co e \u2019l ", "4755": "za e \u2019l ", "4756": "mo e \u2019l ", "4757": "glio ai ", "4758": "ci e \u2019l ", "4759": "glia un ", "4760": "glie in ", "4761": "schia e ", "4762": "de e \u2019n ", "4763": "ce e \u2019l ", "4764": "si e \u2019l ", "4765": "stro in ", "4766": "bre e \u2019 ", "4767": "ch\u2019 uom ", "4768": "m\u2019 \u00e8 il ", "4769": "lio e i ", "4770": "tra e \u2019 ", "4771": "chio il ", "4772": "glia il ", "4773": "dre e \u2019 ", "4774": "glia al ", "4775": "so e \u2019l ", "4776": "m\u2019 \u00e8 \u2019l ", "4777": "no e \u2019l ", "4778": "ro e \u2019l ", "4779": "re e \u2019l ", "4780": "po e \u2019l ", "4781": "to \u00e8 \u2019l ", "4782": "ne e \u2019l ", "4783": "glie \u2019l ", "4784": "ta e \u2019l ", "4785": "chio in ", "4786": "gne uom ", "4787": "dia e i ", "4788": "va e \u2019l ", "4789": "mi e \u2019l ", "4790": "stra \u2019l ", "4791": "chio al ", "4792": "ra e \u2019l ", "4793": "te e \u2019l ", "4794": "le e \u2019l ", "4795": "stra il ", "4796": "ma e \u2019l ", "4797": "l\u2019 \u00e8 \u2019l ", "4798": "ti e \u2019l ", "4799": "sa e \u2019l ", "4800": "do e \u2019n ", "4801": "stia ad ", "4802": "to o al ", "4803": "va e \u2019n ", "4804": "glio in ", "4805": "v\u2019 \u00e8 \u2019l ", "4806": "stro il ", "4807": "bo e \u2019l ", "4808": "zo e \u2019l ", "4809": "be e \u2019l ", "4810": "schio e ", "4811": "glio or ", "4812": "che e \u2019 ", "4813": "glia in ", "4814": "me e \u2019l ", "4815": "go \u00e8 in ", "4816": "scia il ", "4817": "me e \u2019n ", "4818": "stro ed ", "4819": "se e \u2019l ", "4820": "chio ha ", "4821": "vo e \u2019l ", "4822": "ca e \u2019l ", "4823": "dio e \u2019l ", "4824": "d\u2019 io \u2019l ", "4825": "tra e \u2019l ", "4826": "sti \u00e8 \u2019l ", "4827": "zie e \u2019l ", "4828": "chi e \u2019l ", "4829": "st\u2019 \u00e8 \u2019l ", "4830": "v\u2019 ha \u2019l ", "4831": "te ha in ", "4832": "tr\u2019 \u00e8 \u2019l ", "4833": "ria \u00e8 \u2019l ", "4834": "tre e \u2019l ", "4835": "to ha \u2019l ", "4836": "so ha \u2019l ", "4837": "pra e \u2019l ", "4838": "c\u2019 ha \u2019l ", "4839": "gio e \u2019l ", "4840": "cia e \u2019l ", "4841": "schi uom ", "4842": "dre e \u2019l ", "4843": "s\u2019 i\u2019 \u2019l ", "4844": "ria e \u2019l ", "4845": "sta e \u2019l ", "4846": "bra e \u2019l ", "4847": "bia e \u2019l ", "4848": "zio e \u2019l ", "4849": "ch\u2019 io \u2019l ", "4850": "stro e \u2019l ", "4851": "glio e \u2019l ", "4852": "ch\u2019 i\u2019 \u2019l ", "4853": "chie e \u2019n ", "4854": "chio o \u2019l ", "4855": "chio e \u2019l ", "4856": "scia e \u2019l "}