{"0": "", "1": "<v>", "2": "</v>", "3": "<t><v>", "4": "\u00ef", "5": "\u00f2", "6": "e", "7": "\u00e8", "8": "o", "9": "i", "10": "s", "11": "u", "12": "\u00e9", "13": "\u00fc", "14": "a", "15": "er", "16": "au", "17": "m\u00e4", "18": "pe", "19": "mu", "20": "al", "21": "ro", "22": "to", "23": "v\u00ef", "24": "of", "25": "l\u00e8", "26": "l\u00e0", "27": "g\u00eb", "28": "m\u00e8", "29": "ul", "30": "f\u00ef", "31": "og", "32": "em", "33": "t\u00f2", "34": "me", "35": "eu", "36": "\u00e8v", "37": "z\u00ef", "38": "n\u00eb", "39": "s\u00e0", "40": "na", "41": "d\u00eb", "42": "af", "43": "il", "44": "c\u00f9", "45": "an", "46": "vo", "47": "go", "48": "so", "49": "g\u00e8", "50": "l\u00ef", "51": "n\u00f2", "52": "la", "53": "ap", "54": "n\u00fc", "55": "en", "56": "c\u00ec", "57": "ad", "58": "gi", "59": "es", "60": "r\u00e8", "61": "ta", "62": "fi", "63": "ce", "64": "t\u00e4", "65": "s\u00f9", "66": "is", "67": "ze", "68": "ur", "69": "or", "70": "ti", "71": "bi", "72": "cu", "73": "b\u00eb", "74": "uc", "75": "ba", "76": "s\u00f2", "77": "av", "78": "v\u00f2", "79": "t\u00e8", "80": "de", "81": "b\u00ef", "82": "pa", "83": "se", "84": "po", "85": "un", "86": "ar", "87": "g\u00f3", "88": "\u00f2s", "89": "ob", "90": "r\u00eb", "91": "ia", "92": "ae", "93": "ge", "94": "s\u00ef", "95": "no", "96": "op", "97": "f\u00f3", "98": "iu", "99": "ne", "100": "zo", "101": "r\u00e0", "102": "m\u00ef", "103": "nu", "104": "zi", "105": "c\u00fc", "106": "l\u00fc", "107": "lo", "108": "ci", "109": "pi", "110": "d\u00e9", "111": "ef", "112": "r\u00f3", "113": "et", "114": "l\u00eb", "115": "ag", "116": "da", "117": "ga", "118": "s\u00fc", "119": "g\u00ef", "120": "vu", "121": "ab", "122": "ca", "123": "d\u00ef", "124": "fo", "125": "s\u00e9", "126": "qu", "127": "io", "128": "oc", "129": "t\u00ef", "130": "el", "131": "re", "132": "n\u00e8", "133": "l\u00ec", "134": "ha", "135": "ve", "136": "ra", "137": "p\u00fc", "138": "vi", "139": "ov", "140": "l\u00f6", "141": "ri", "142": "f\u00eb", "143": "te", "144": "id", "145": "d\u00fc", "146": "as", "147": "ot", "148": "os", "149": "ol", "150": "p\u00ef", "151": "fe", "152": "gu", "153": "eb", "154": "ni", "155": "du", "156": "su", "157": "am", "158": "f\u00e9", "159": "az", "160": "om", "161": "za", "162": "m\u00eb", "163": "p\u00ec", "164": "v\u00eb", "165": "\u00e8n", "166": "t\u00ec", "167": "r\u00ef", "168": "c\u00eb", "169": "fa", "170": "tu", "171": "li", "172": "sa", "173": "t\u00fc", "174": "bu", "175": "ec", "176": "pu", "177": "mo", "178": "m\u00ec", "179": "do", "180": "mi", "181": "si", "182": "di", "183": "ma", "184": "p\u00e8", "185": "ru", "186": "bo", "187": "im", "188": "t\u00eb", "189": "va", "190": "le", "191": "c\u00ef", "192": "at", "193": "ie", "194": "s\u00eb", "195": "p\u00eb", "196": "n\u00ef", "197": "v\u00e8", "198": "on", "199": "fu", "200": "be", "201": "co", "202": "d\u00e8", "203": "lu", "204": "uo", "205": "ac", "206": "l\u00f2", "207": "in", "208": "lot", "209": "nev", "210": "pru", "211": "tuo", "212": "tar", "213": "lul", "214": "smi", "215": "xil", "216": "cin", "217": "sv\u00ef", "218": "geo", "219": "cia", "220": "las", "221": "gel", "222": "dop", "223": "t\u00f2m", "224": "bom", "225": "pir", "226": "cet", "227": "sug", "228": "tor", "229": "var", "230": "pri", "231": "sc\u00ef", "232": "lil", "233": "par", "234": "red", "235": "pis", "236": "gri", "237": "leg", "238": "cli", "239": "\u2018la", "240": "gnu", "241": "que", "242": "fal", "243": "sio", "244": "cro", "245": "sla", "246": "lan", "247": "cun", "248": "vit", "249": "rav", "250": "piz", "251": "fru", "252": "der", "253": "gna", "254": "pog", "255": "fom", "256": "bas", "257": "cef", "258": "suf", "259": "giz", "260": "buc", "261": "nar", "262": "lor", "263": "git", "264": "nir", "265": "cre", "266": "ful", "267": "sic", "268": "chi", "269": "cag", "270": "vez", "271": "bru", "272": "don", "273": "p\u00f2s", "274": "gib", "275": "ren", "276": "o a", "277": "nez", "278": "pl\u00ec", "279": "fog", "280": "dot", "281": "qui", "282": "tim", "283": "dim", "284": "nas", "285": "gis", "286": "gon", "287": "sob", "288": "bre", "289": "giu", "290": "rug", "291": "des", "292": "ian", "293": "duo", "294": "nun", "295": "vid", "296": "raz", "297": "som", "298": "sp\u00ef", "299": "dom", "300": "gol", "301": "gia", "302": "fuo", "303": "fre", "304": "pia", "305": "sca", "306": "feb", "307": "mez", "308": "fer", "309": "mam", "310": "tat", "311": "ben", "312": "pet", "313": "a u", "314": "iar", "315": "ten", "316": "suo", "317": "fos", "318": "ch\u00ef", "319": "gie", "320": "tac", "321": "fie", "322": "buf", "323": "pap", "324": "peg", "325": "ves", "326": "sor", "327": "mos", "328": "van", "329": "das", "330": "pur", "331": "dol", "332": "smu", "333": "gad", "334": "sbi", "335": "fel", "336": "cap", "337": "muc", "338": "ger", "339": "nef", "340": "tet", "341": "gam", "342": "sve", "343": "dat", "344": "pos", "345": "gim", "346": "lap", "347": "put", "348": "ciu", "349": "sot", "350": "sti", "351": "ria", "352": "rim", "353": "lit", "354": "c\u00e9r", "355": "mem", "356": "sus", "357": "nel", "358": "pig", "359": "det", "360": "mie", "361": "luc", "362": "bel", "363": "cie", "364": "got", "365": "fac", "366": "cri", "367": "nes", "368": "pen", "369": "dri", "370": "sto", "371": "gir", "372": "muo", "373": "spi", "374": "bet", "375": "biz", "376": "gal", "377": "ver", "378": "tie", "379": "dit", "380": "fen", "381": "coz", "382": "st\u00ef", "383": "sfo", "384": "fis", "385": "dia", "386": "pon", "387": "dra", "388": "gua", "389": "lin", "390": "meg", "391": "cer", "392": "spe", "393": "pra", "394": "sga", "395": "lon", "396": "rup", "397": "tau", "398": "dic", "399": "lez", "400": "rog", "401": "pun", "402": "sat", "403": "sme", "404": "diz", "405": "cat", "406": "run", "407": "plo", "408": "viz", "409": "tro", "410": "cad", "411": "per", "412": "tis", "413": "luo", "414": "dam", "415": "von", "416": "rid", "417": "nis", "418": "tem", "419": "fig", "420": "pi\u00e9", "421": "ret", "422": "get", "423": "car", "424": "bal", "425": "cul", "426": "ric", "427": "cop", "428": "scu", "429": "vel", "430": "sco", "431": "ton", "432": "mol", "433": "deb", "434": "gar", "435": "bun", "436": "col", "437": "cio", "438": "nul", "439": "puz", "440": "dal", "441": "rap", "442": "bur", "443": "ple", "444": "lop", "445": "ban", "446": "m\u00e9z", "447": "tir", "448": "pla", "449": "ruo", "450": "gor", "451": "dez", "452": "zar", "453": "r\u00e8g", "454": "reb", "455": "vol", "456": "tru", "457": "dor", "458": "gur", "459": "vas", "460": "din", "461": "bie", "462": "sna", "463": "min", "464": "goz", "465": "dru", "466": "rea", "467": "pop", "468": "sec", "469": "qu\u00ef", "470": "ges", "471": "mia", "472": "rof", "473": "zuf", "474": "sam", "475": "fro", "476": "fug", "477": "svi", "478": "far", "479": "pol", "480": "veg", "481": "cos", "482": "vem", "483": "cru", "484": "nag", "485": "cob", "486": "gru", "487": "caf", "488": "che", "489": "fib", "490": "lea", "491": "ber", "492": "lam", "493": "dov", "494": "bab", "495": "tre", "496": "zaf", "497": "cau", "498": "lat", "499": "boz", "500": "rat", "501": "raf", "502": "smo", "503": "flu", "504": "bea", "505": "zon", "506": "bro", "507": "bor", "508": "dio", "509": "pan", "510": "p\u00e0r", "511": "gue", "512": "bis", "513": "ruf", "514": "sfa", "515": "mes", "516": "pot", "517": "spu", "518": "seg", "519": "mac", "520": "cal", "521": "mai", "522": "rol", "523": "pal", "524": "boc", "525": "fab", "526": "dau", "527": "fra", "528": "bev", "529": "soz", "530": "noc", "531": "sag", "532": "fan", "533": "dr\u00e4", "534": "iat", "535": "vec", "536": "vin", "537": "sno", "538": "lic", "539": "vet", "540": "bol", "541": "tuf", "542": "bot", "543": "sel", "544": "sta", "545": "tho", "546": "gno", "547": "fla", "548": "gil", "549": "nob", "550": "dir", "551": "tin", "552": "lis", "553": "lem", "554": "mat", "555": "pro", "556": "con", "557": "fat", "558": "neg", "559": "mic", "560": "rem", "561": "mer", "562": "fet", "563": "cir", "564": "ste", "565": "nat", "566": "sun", "567": "nur", "568": "sba", "569": "top", "570": "sia", "571": "gne", "572": "mur", "573": "nan", "574": "sur", "575": "bil", "576": "cea", "577": "rie", "578": "buo", "579": "pec", "580": "f\u00e0c", "581": "dur", "582": "luz", "583": "pau", "584": "mel", "585": "gea", "586": "tri", "587": "rag", "588": "nuc", "589": "sra", "590": "mil", "591": "man", "592": "bat", "593": "sci", "594": "fol", "595": "nil", "596": "noz", "597": "tea", "598": "vor", "599": "bon", "600": "nuo", "601": "mar", "602": "lec", "603": "sce", "604": "lai", "605": "qua", "606": "lie", "607": "pas", "608": "gan", "609": "bio", "610": "res", "611": "cor", "612": "gem", "613": "but", "614": "can", "615": "bar", "616": "stu", "617": "lip", "618": "son", "619": "a a", "620": "tr\u00ef", "621": "muf", "622": "val", "623": "mug", "624": "ghe", "625": "cl\u00ef", "626": "teg", "627": "tol", "628": "dan", "629": "riz", "630": "len", "631": "del", "632": "vag", "633": "por", "634": "fio", "635": "dos", "636": "sal", "637": "fur", "638": "bac", "639": "lel", "640": "roc", "641": "rut", "642": "gab", "643": "cra", "644": "nem", "645": "nal", "646": "lun", "647": "sez", "648": "ier", "649": "ial", "650": "sep", "651": "guo", "652": "cep", "653": "tun", "654": "ior", "655": "tom", "656": "cur", "657": "lav", "658": "cum", "659": "pub", "660": "tec", "661": "puc", "662": "vuo", "663": "rec", "664": "sin", "665": "cez", "666": "t\u00f2r", "667": "spo", "668": "ler", "669": "clu", "670": "sap", "671": "pre", "672": "fem", "673": "pes", "674": "neb", "675": "bl\u00ef", "676": "ran", "677": "gat", "678": "gre", "679": "sfe", "680": "tut", "681": "gaz", "682": "fia", "683": "ch\u00ec", "684": "han", "685": "lac", "686": "cla", "687": "cot", "688": "sle", "689": "sie", "690": "dec", "691": "br\u00ef", "692": "spa", "693": "nie", "694": "pac", "695": "zan", "696": "svo", "697": "cen", "698": "puo", "699": "suc", "700": "o e", "701": "lom", "702": "moz", "703": "sac", "704": "lir", "705": "clo", "706": "sog", "707": "pul", "708": "nen", "709": "cis", "710": "tag", "711": "cac", "712": "fam", "713": "laz", "714": "pio", "715": "zio", "716": "nom", "717": "bli", "718": "ner", "719": "pic", "720": "goc", "721": "lia", "722": "dil", "723": "sar", "724": "ces", "725": "plu", "726": "dut", "727": "fri", "728": "cr\u00e0", "729": "ruc", "730": "nim", "731": "reg", "732": "sos", "733": "dis", "734": "tra", "735": "mal", "736": "cuo", "737": "guz", "738": "ral", "739": "dug", "740": "tle", "741": "com", "742": "sas", "743": "sab", "744": "tel", "745": "let", "746": "cel", "747": "dus", "748": "fun", "749": "tuc", "750": "bin", "751": "men", "752": "nol", "753": "ven", "754": "fin", "755": "sov", "756": "vom", "757": "cic", "758": "non", "759": "rot", "760": "sde", "761": "sen", "762": "bec", "763": "nin", "764": "poz", "765": "vis", "766": "lur", "767": "ris", "768": "mas", "769": "lus", "770": "fum", "771": "f\u00e9l", "772": "tez", "773": "soc", "774": "ses", "775": "dre", "776": "dar", "777": "tes", "778": "dun", "779": "mot", "780": "rel", "781": "zia", "782": "poc", "783": "dro", "784": "cit", "785": "vat", "786": "nic", "787": "zur", "788": "sil", "789": "pie", "790": "pli", "791": "ron", "792": "cas", "793": "set", "794": "gui", "795": "mun", "796": "zel", "797": "nig", "798": "rir", "799": "fic", "800": "sub", "801": "vul", "802": "pom", "803": "bef", "804": "rab", "805": "v\u00f2l", "806": "til", "807": "gom", "808": "net", "809": "cam", "810": "feg", "811": "mir", "812": "fas", "813": "tam", "814": "gob", "815": "coc", "816": "gag", "817": "nac", "818": "ser", "819": "glo", "820": "dif", "821": "rom", "822": "rob", "823": "lim", "824": "mon", "825": "bia", "826": "gas", "827": "sit", "828": "zac", "829": "cle", "830": "sum", "831": "bul", "832": "c\u00f3l", "833": "rio", "834": "san", "835": "rac", "836": "sma", "837": "rar", "838": "gra", "839": "pel", "840": "gio", "841": "ram", "842": "tur", "843": "sis", "844": "dob", "845": "sud", "846": "nec", "847": "die", "848": "nia", "849": "dr\u00ef", "850": "sop", "851": "lup", "852": "sgo", "853": "guc", "854": "dub", "855": "ros", "856": "rit", "857": "ghi", "858": "sem", "859": "mul", "860": "dul", "861": "gli", "862": "sup", "863": "vie", "864": "loc", "865": "lar", "866": "tal", "867": "ter", "868": "pit", "869": "leb", "870": "niz", "871": "mor", "872": "fon", "873": "fes", "874": "sof", "875": "pil", "876": "lep", "877": "cui", "878": "pat", "879": "deg", "880": "zuc", "881": "den", "882": "rez", "883": "not", "884": "dem", "885": "vir", "886": "gni", "887": "rig", "888": "saf", "889": "for", "890": "les", "891": "mag", "892": "cov", "893": "cem", "894": "fuc", "895": "vac", "896": "paz", "897": "fiu", "898": "nor", "899": "sod", "900": "lut", "901": "lau", "902": "lab", "903": "pin", "904": "maz", "905": "gen", "906": "bri", "907": "hon", "908": "fle", "909": "o u", "910": "dea", "911": "rin", "912": "ras", "913": "toc", "914": "cuc", "915": "met", "916": "roz", "917": "tan", "918": "sol", "919": "doc", "920": "fit", "921": "piu", "922": "vam", "923": "gau", "924": "quo", "925": "tic", "926": "bra", "927": "vil", "928": "tas", "929": "guic", "930": "driz", "931": "scab", "932": "te o", "933": "quar", "934": "stas", "935": "sfac", "936": "po e", "937": "pe i", "938": "stuo", "939": "me a", "940": "treb", "941": "pien", "942": "gien", "943": "clau", "944": "de o", "945": "bo i", "946": "ma o", "947": "stri", "948": "s\u2019 o", "949": "graf", "950": "drit", "951": "ra i", "952": "lo o", "953": "cher", "954": "v\u2019 e", "955": "re o", "956": "ve u", "957": "be o", "958": "a ef", "959": "scic", "960": "clis", "961": "gnen", "962": "viem", "963": "ra a", "964": "scos", "965": "smon", "966": "p\u2019 e", "967": "m\u2019 i", "968": "v\u2019 o", "969": "brac", "970": "dian", "971": "\u2018glo", "972": "svel", "973": "pran", "974": "ciot", "975": "gnas", "976": "gras", "977": "blan", "978": "scol", "979": "te e", "980": "ti o", "981": "sber", "982": "sten", "983": "guit", "984": "ciar", "985": "vo o", "986": "stin", "987": "gual", "988": "scar", "989": "bran", "990": "mi o", "991": "me e", "992": "no o", "993": "go e", "994": "te a", "995": "me o", "996": "de e", "997": "giug", "998": "cian", "999": "spin", "1000": "ge o", "1001": "l\u2019 u", "1002": "sfan", "1003": "to u", "1004": "s\u2019 a", "1005": "stop", "1006": "mi e", "1007": "trul", "1008": "o al", "1009": "guen", "1010": "ge a", "1011": "scre", "1012": "z\u2019 i", "1013": "trec", "1014": "quel", "1015": "giam", "1016": "scop", "1017": "scac", "1018": "smar", "1019": "cioc", "1020": "ca a", "1021": "gres", "1022": "bron", "1023": "ni a", "1024": "ro u", "1025": "ri e", "1026": "te i", "1027": "spez", "1028": "le a", "1029": "fred", "1030": "stil", "1031": "piog", "1032": "ghes", "1033": "piat", "1034": "le i", "1035": "smor", "1036": "giot", "1037": "trat", "1038": "na o", "1039": "trie", "1040": "trot", "1041": "n\u2019 o", "1042": "spit", "1043": "ciuo", "1044": "la o", "1045": "glio", "1046": "gnie", "1047": "scia", "1048": "gron", "1049": "di o", "1050": "ci o", "1051": "sneb", "1052": "scaz", "1053": "cheg", "1054": "broc", "1055": "to a", "1056": "piag", "1057": "pian", "1058": "grot", "1059": "biet", "1060": "truo", "1061": "tran", "1062": "guan", "1063": "zo e", "1064": "plan", "1065": "guef", "1066": "brug", "1067": "dran", "1068": "zo a", "1069": "t\u2019 o", "1070": "zi u", "1071": "gnel", "1072": "puom", "1073": "pi i", "1074": "smoz", "1075": "ne o", "1076": "spar", "1077": "gner", "1078": "ca o", "1079": "bion", "1080": "spre", "1081": "stra", "1082": "fret", "1083": "be i", "1084": "giuo", "1085": "guag", "1086": "no a", "1087": "pres", "1088": "tier", "1089": "ghel", "1090": "ghir", "1091": "gias", "1092": "trag", "1093": "brul", "1094": "ciel", "1095": "ti u", "1096": "spal", "1097": "sfin", "1098": "lo e", "1099": "ples", "1100": "spel", "1101": "tras", "1102": "trar", "1103": "quer", "1104": "ma e", "1105": "gnaz", "1106": "sfor", "1107": "to o", "1108": "se o", "1109": "de i", "1110": "ga e", "1111": "stuc", "1112": "e in", "1113": "do i", "1114": "guel", "1115": "co e", "1116": "va e", "1117": "creb", "1118": "dier", "1119": "co o", "1120": "prin", "1121": "po o", "1122": "gher", "1123": "scoc", "1124": "l\u2019 o", "1125": "gian", "1126": "na e", "1127": "vi o", "1128": "piov", "1129": "stro", "1130": "nian", "1131": "fiac", "1132": "si o", "1133": "ti e", "1134": "trop", "1135": "li a", "1136": "quin", "1137": "s\u2019 u", "1138": "fles", "1139": "sa a", "1140": "la u", "1141": "mo o", "1142": "to i", "1143": "scov", "1144": "piac", "1145": "grop", "1146": "chez", "1147": "se e", "1148": "ra e", "1149": "po u", "1150": "stel", "1151": "scio", "1152": "po a", "1153": "m\u2019 o", "1154": "guiz", "1155": "stio", "1156": "ze o", "1157": "sciu", "1158": "si i", "1159": "flit", "1160": "va i", "1161": "puol", "1162": "ne a", "1163": "d\u2019 o", "1164": "quil", "1165": "gnuo", "1166": "vi e", "1167": "re a", "1168": "ro i", "1169": "scet", "1170": "sbar", "1171": "vien", "1172": "zian", "1173": "brie", "1174": "brut", "1175": "tron", "1176": "ro o", "1177": "pa e", "1178": "pe e", "1179": "glia", "1180": "ce a", "1181": "giac", "1182": "ro a", "1183": "sa o", "1184": "s\u00ec i", "1185": "ni u", "1186": "scri", "1187": "o av", "1188": "a ac", "1189": "sche", "1190": "d\u2019 \u00eb", "1191": "stem", "1192": "le u", "1193": "sa u", "1194": "scim", "1195": "prir", "1196": "ghet", "1197": "t\u2019 e", "1198": "scot", "1199": "chiu", "1200": "scem", "1201": "tiem", "1202": "gnem", "1203": "sman", "1204": "ve i", "1205": "lo u", "1206": "qual", "1207": "plau", "1208": "spon", "1209": "dien", "1210": "scom", "1211": "la a", "1212": "quan", "1213": "do u", "1214": "stiz", "1215": "glie", "1216": "ciap", "1217": "gheg", "1218": "brol", "1219": "ti i", "1220": "stor", "1221": "fior", "1222": "grem", "1223": "slac", "1224": "chie", "1225": "t\u2019 a", "1226": "pi e", "1227": "piom", "1228": "flet", "1229": "guir", "1230": "stre", "1231": "stia", "1232": "o ar", "1233": "puos", "1234": "trap", "1235": "z\u2019 a", "1236": "spes", "1237": "d\u2019 e", "1238": "me u", "1239": "scuo", "1240": "le o", "1241": "sbra", "1242": "fian", "1243": "squa", "1244": "spia", "1245": "ca e", "1246": "glau", "1247": "zi e", "1248": "ta e", "1249": "tram", "1250": "scir", "1251": "guaz", "1252": "sfio", "1253": "piez", "1254": "ghie", "1255": "fiam", "1256": "gran", "1257": "za i", "1258": "bias", "1259": "grap", "1260": "bren", "1261": "schi", "1262": "no e", "1263": "ci a", "1264": "mi u", "1265": "de a", "1266": "ciom", "1267": "sdet", "1268": "go a", "1269": "span", "1270": "troc", "1271": "spen", "1272": "gnor", "1273": "n\u2019 a", "1274": "quen", "1275": "chis", "1276": "be a", "1277": "proc", "1278": "l\u2019 e", "1279": "si e", "1280": "scuf", "1281": "la i", "1282": "sgan", "1283": "si a", "1284": "ziar", "1285": "ci u", "1286": "tien", "1287": "so o", "1288": "ghia", "1289": "greg", "1290": "li \u2019", "1291": "chet", "1292": "scro", "1293": "chil", "1294": "spet", "1295": "tren", "1296": "ma a", "1297": "gnan", "1298": "scel", "1299": "s\u2019 e", "1300": "l\u2019 i", "1301": "sper", "1302": "a es", "1303": "sgri", "1304": "crea", "1305": "cruc", "1306": "do o", "1307": "gros", "1308": "mian", "1309": "stul", "1310": "spic", "1311": "se i", "1312": "so e", "1313": "mo a", "1314": "sgra", "1315": "bris", "1316": "stam", "1317": "dram", "1318": "scer", "1319": "da u", "1320": "cien", "1321": "sfam", "1322": "str\u00e0", "1323": "s\u00ec a", "1324": "sden", "1325": "ciul", "1326": "flig", "1327": "fran", "1328": "li o", "1329": "fron", "1330": "e \u2019n", "1331": "\u00e8 in", "1332": "ce o", "1333": "r\u2019 o", "1334": "ciac", "1335": "za o", "1336": "snel", "1337": "ca u", "1338": "ta a", "1339": "d\u2019 \u00ef", "1340": "grie", "1341": "squi", "1342": "li e", "1343": "lo a", "1344": "r\u00ec u", "1345": "grom", "1346": "d\u2019 a", "1347": "chia", "1348": "stru", "1349": "sbri", "1350": "ghio", "1351": "spec", "1352": "m\u2019 a", "1353": "c\u2019 \u00ef", "1354": "pren", "1355": "to e", "1356": "pris", "1357": "fioc", "1358": "mo e", "1359": "na u", "1360": "gial", "1361": "frat", "1362": "mo u", "1363": "do e", "1364": "c\u2019 e", "1365": "frut", "1366": "smen", "1367": "ze e", "1368": "sven", "1369": "stie", "1370": "a al", "1371": "no u", "1372": "grez", "1373": "no i", "1374": "bi a", "1375": "bo a", "1376": "me i", "1377": "sgor", "1378": "scal", "1379": "va u", "1380": "se a", "1381": "vi a", "1382": "stes", "1383": "quis", "1384": "buon", "1385": "vuol", "1386": "ie a", "1387": "bo e", "1388": "l\u2019 a", "1389": "di e", "1390": "li u", "1391": "sfre", "1392": "guet", "1393": "di i", "1394": "d\u2019 i", "1395": "stec", "1396": "giun", "1397": "scon", "1398": "gnon", "1399": "gram", "1400": "za a", "1401": "ti a", "1402": "scin", "1403": "spir", "1404": "chio", "1405": "da e", "1406": "re i", "1407": "spuo", "1408": "spie", "1409": "guer", "1410": "spaz", "1411": "a in", "1412": "stig", "1413": "ta o", "1414": "prie", "1415": "na a", "1416": "guil", "1417": "te u", "1418": "ra o", "1419": "stan", "1420": "so i", "1421": "fiot", "1422": "ta i", "1423": "so u", "1424": "gi u", "1425": "scan", "1426": "ma u", "1427": "mo i", "1428": "ghez", "1429": "stol", "1430": "spor", "1431": "scam", "1432": "stis", "1433": "scie", "1434": "z\u2019 o", "1435": "l\u2019 \u00f2", "1436": "c\u2019 o", "1437": "re e", "1438": "smal", "1439": "spro", "1440": "pron", "1441": "trac", "1442": "pric", "1443": "d\u2019 u", "1444": "stav", "1445": "ciuf", "1446": "giar", "1447": "cias", "1448": "s\u2019 i", "1449": "clas", "1450": "co u", "1451": "da a", "1452": "ta u", "1453": "biac", "1454": "grep", "1455": "ro e", "1456": "ga o", "1457": "bian", "1458": "\u00e8 im", "1459": "gior", "1460": "ci e", "1461": "sfar", "1462": "t\u2019 u", "1463": "spun", "1464": "de u", "1465": "brez", "1466": "se u", "1467": "drap", "1468": "tret", "1469": "sgom", "1470": "scis", "1471": "n\u2019 u", "1472": "ve a", "1473": "ni o", "1474": "g\u2019 \u00ef", "1475": "ster", "1476": "grat", "1477": "guar", "1478": "si u", "1479": "r\u2019 u", "1480": "crol", "1481": "da o", "1482": "la e", "1483": "stal", "1484": "cion", "1485": "ne u", "1486": "ghil", "1487": "scor", "1488": "pi a", "1489": "quat", "1490": "sfat", "1491": "liev", "1492": "va o", "1493": "co a", "1494": "v\u2019 a", "1495": "sfer", "1496": "ri u", "1497": "do a", "1498": "le e", "1499": "glet", "1500": "scen", "1501": "stet", "1502": "sban", "1503": "n\u2019 e", "1504": "ce u", "1505": "trom", "1506": "zi o", "1507": "ne e", "1508": "ra u", "1509": "re u", "1510": "pruo", "1511": "na i", "1512": "cras", "1513": "spol", "1514": "prez", "1515": "sver", "1516": "pros", "1517": "star", "1518": "so a", "1519": "ni e", "1520": "di a", "1521": "s\u2019 \u00ef", "1522": "m\u2019 e", "1523": "be u", "1524": "tror", "1525": "di u", "1526": "brot", "1527": "a am", "1528": "gnar", "1529": "gi e", "1530": "l\u00ec e", "1531": "dras", "1532": "so en", "1533": "ro um", "1534": "di im", "1535": "no es", "1536": "do el", "1537": "mo in", "1538": "ta ad", "1539": "n\u2019 ac", "1540": "lo \u2019m", "1541": "d\u2019 ol", "1542": "n\u2019 in", "1543": "ta op", "1544": "m\u2019 at", "1545": "no \u2019n", "1546": "spres", "1547": "di ad", "1548": "le es", "1549": "ci av", "1550": "squil", "1551": "di ol", "1552": "ro eb", "1553": "l\u2019 ad", "1554": "ne im", "1555": "va al", "1556": "go es", "1557": "sa ap", "1558": "sco u", "1559": "ste a", "1560": "va at", "1561": "si in", "1562": "te or", "1563": "te os", "1564": "v\u2019 an", "1565": "ro of", "1566": "li as", "1567": "li er", "1568": "do on", "1569": "chi u", "1570": "ta ac", "1571": "te ar", "1572": "l\u2019 ov", "1573": "schet", "1574": "ma of", "1575": "mo at", "1576": "be av", "1577": "ta ab", "1578": "s\u2019 af", "1579": "to of", "1580": "s\u2019 as", "1581": "ne ar", "1582": "be as", "1583": "li ab", "1584": "d\u2019 el", "1585": "to ar", "1586": "te im", "1587": "de an", "1588": "mi ac", "1589": "ch\u2019 a", "1590": "ra am", "1591": "bo on", "1592": "v\u2019 eb", "1593": "d\u2019 ap", "1594": "ne \u2019n", "1595": "z\u2019 ar", "1596": "na in", "1597": "ti im", "1598": "za am", "1599": "ra ot", "1600": "t\u2019 as", "1601": "cia a", "1602": "tro i", "1603": "strel", "1604": "l\u2019 er", "1605": "ro an", "1606": "d\u2019 et", "1607": "ti of", "1608": "l\u2019 au", "1609": "ca on", "1610": "t\u2019 at", "1611": "pi or", "1612": "s\u2019 al", "1613": "to im", "1614": "mo ar", "1615": "fe et", "1616": "li af", "1617": "l\u2019 ab", "1618": "m\u2019 as", "1619": "ni as", "1620": "ia al", "1621": "co ar", "1622": "d\u2019 im", "1623": "tro u", "1624": "s\u2019 op", "1625": "zio e", "1626": "si ol", "1627": "l\u2019 oc", "1628": "zi ag", "1629": "v\u2019 et", "1630": "po on", "1631": "ch\u2019 u", "1632": "scris", "1633": "no ec", "1634": "s\u2019 ab", "1635": "do oc", "1636": "ra ad", "1637": "co av", "1638": "re es", "1639": "so \u2019n", "1640": "qu\u2019 o", "1641": "ra in", "1642": "si er", "1643": "le uc", "1644": "mo ol", "1645": "va im", "1646": "me ar", "1647": "s\u2019 im", "1648": "ri ap", "1649": "do or", "1650": "si ad", "1651": "s\u2019 es", "1652": "schie", "1653": "l\u2019 at", "1654": "ghiot", "1655": "te as", "1656": "cio e", "1657": "pra a", "1658": "za in", "1659": "di of", "1660": "to es", "1661": "tra i", "1662": "mo or", "1663": "ci an", "1664": "scrip", "1665": "ro am", "1666": "ch\u2019 o", "1667": "ha \u2019n", "1668": "co al", "1669": "le on", "1670": "ro au", "1671": "se al", "1672": "li ar", "1673": "po an", "1674": "ti as", "1675": "s\u2019 in", "1676": "sta i", "1677": "pre e", "1678": "t\u2019 an", "1679": "so of", "1680": "stran", "1681": "ni an", "1682": "ne ag", "1683": "na eb", "1684": "do af", "1685": "l\u2019 um", "1686": "fu in", "1687": "ga as", "1688": "gliel", "1689": "tri o", "1690": "la es", "1691": "li im", "1692": "gno u", "1693": "sta a", "1694": "chias", "1695": "re in", "1696": "re et", "1697": "ra et", "1698": "ti an", "1699": "s\u2019 os", "1700": "ghiac", "1701": "z\u2019 al", "1702": "z\u2019 es", "1703": "te en", "1704": "ra as", "1705": "d\u2019 at", "1706": "ma \u2019n", "1707": "chioc", "1708": "l\u2019 of", "1709": "sti o", "1710": "mi al", "1711": "te in", "1712": "l\u2019 ef", "1713": "d\u2019 ot", "1714": "ri an", "1715": "ti et", "1716": "to ad", "1717": "sa on", "1718": "li es", "1719": "lia a", "1720": "ce et", "1721": "ri on", "1722": "ch\u2019 \u00ef", "1723": "to al", "1724": "na ar", "1725": "do al", "1726": "stren", "1727": "ti or", "1728": "ce eu", "1729": "me al", "1730": "s\u00ec in", "1731": "ti \u2019n", "1732": "m\u2019 im", "1733": "lo es", "1734": "t\u2019 em", "1735": "ta an", "1736": "co on", "1737": "so al", "1738": "la au", "1739": "ro oc", "1740": "l\u2019 im", "1741": "sa in", "1742": "li uo", "1743": "che u", "1744": "m\u2019 ad", "1745": "stroc", "1746": "te al", "1747": "ta in", "1748": "de er", "1749": "ve es", "1750": "l\u2019 av", "1751": "ta un", "1752": "to an", "1753": "ra ec", "1754": "s\u2019 ad", "1755": "di ac", "1756": "ro in", "1757": "de ag", "1758": "le of", "1759": "fa az", "1760": "ma or", "1761": "li in", "1762": "sco o", "1763": "me as", "1764": "tro e", "1765": "to ol", "1766": "re at", "1767": "d\u2019 an", "1768": "vi ar", "1769": "ne on", "1770": "ne al", "1771": "ma al", "1772": "ch\u2019 i", "1773": "de ar", "1774": "r\u2019 an", "1775": "co in", "1776": "ga in", "1777": "se an", "1778": "m\u2019 ac", "1779": "sgiun", "1780": "ni in", "1781": "sciut", "1782": "n\u2019 on", "1783": "ro ar", "1784": "ti ad", "1785": "m\u2019 an", "1786": "be ar", "1787": "si an", "1788": "le oc", "1789": "d\u2019 ac", "1790": "pa es", "1791": "la of", "1792": "se at", "1793": "to ac", "1794": "si ac", "1795": "no ad", "1796": "re al", "1797": "re af", "1798": "na es", "1799": "l\u2019 ae", "1800": "re ac", "1801": "mio a", "1802": "s\u2019 el", "1803": "li ad", "1804": "ca er", "1805": "bo av", "1806": "l\u2019 os", "1807": "pi ap", "1808": "si or", "1809": "glian", "1810": "t\u00e0 in", "1811": "ti at", "1812": "d\u2019 al", "1813": "si im", "1814": "m\u2019 ap", "1815": "l\u2019 eb", "1816": "vi of", "1817": "spraz", "1818": "st\u2019 o", "1819": "me ef", "1820": "ve oc", "1821": "ci as", "1822": "vo at", "1823": "ci or", "1824": "d\u2019 eu", "1825": "lo im", "1826": "lo ar", "1827": "de as", "1828": "do er", "1829": "stras", "1830": "di an", "1831": "m\u2019 om", "1832": "r\u2019 al", "1833": "s\u2019 eb", "1834": "ch\u2019 e", "1835": "tr\u2019 e", "1836": "do es", "1837": "che a", "1838": "la al", "1839": "d\u2019 of", "1840": "no au", "1841": "se in", "1842": "mo ec", "1843": "te of", "1844": "stret", "1845": "bre o", "1846": "l\u2019 as", "1847": "scrit", "1848": "zi \u2019m", "1849": "ne af", "1850": "s\u2019 em", "1851": "no er", "1852": "schio", "1853": "c\u2019 im", "1854": "la ap", "1855": "hi om", "1856": "gi ar", "1857": "l\u2019 am", "1858": "s\u2019 am", "1859": "t\u2019 om", "1860": "tra u", "1861": "\u2019v\u2019 e", "1862": "de on", "1863": "za im", "1864": "d\u2019 au", "1865": "ce as", "1866": "sa im", "1867": "fu el", "1868": "li eb", "1869": "lo ac", "1870": "di es", "1871": "to in", "1872": "l\u2019 on", "1873": "n\u2019 al", "1874": "ma an", "1875": "s\u2019 of", "1876": "fo et", "1877": "se ac", "1878": "de in", "1879": "te ol", "1880": "si \u2019m", "1881": "vi in", "1882": "ce ac", "1883": "go in", "1884": "ca in", "1885": "lo an", "1886": "te ab", "1887": "l\u00ec en", "1888": "strug", "1889": "ta el", "1890": "re eb", "1891": "li em", "1892": "m\u2019 ag", "1893": "le ap", "1894": "n\u2019 an", "1895": "la en", "1896": "le \u2019n", "1897": "cea u", "1898": "ni en", "1899": "ta eu", "1900": "mi am", "1901": "po av", "1902": "pre a", "1903": "se as", "1904": "n\u2019 av", "1905": "so ar", "1906": "cro a", "1907": "ba un", "1908": "bo al", "1909": "ma ac", "1910": "ta on", "1911": "to eb", "1912": "ne av", "1913": "v\u2019 al", "1914": "ta of", "1915": "de al", "1916": "me an", "1917": "cia e", "1918": "sa an", "1919": "n\u2019 ar", "1920": "t\u2019 or", "1921": "t\u2019 af", "1922": "me ap", "1923": "re au", "1924": "qua e", "1925": "to ec", "1926": "sto a", "1927": "scias", "1928": "n\u2019 om", "1929": "co at", "1930": "ve an", "1931": "vo ac", "1932": "ti \u2019m", "1933": "te ag", "1934": "ti in", "1935": "de or", "1936": "m\u2019 af", "1937": "so ap", "1938": "co an", "1939": "d\u2019 am", "1940": "re ap", "1941": "le am", "1942": "pie e", "1943": "li un", "1944": "te em", "1945": "gni e", "1946": "r\u2019 es", "1947": "chiet", "1948": "s\u2019 en", "1949": "strat", "1950": "ni ap", "1951": "n\u2019 er", "1952": "li om", "1953": "ti ar", "1954": "de \u2019n", "1955": "lo av", "1956": "vi av", "1957": "tr\u2019 a", "1958": "sta u", "1959": "se op", "1960": "ni av", "1961": "so at", "1962": "ce al", "1963": "se es", "1964": "sciom", "1965": "spiac", "1966": "ra av", "1967": "mo es", "1968": "me ac", "1969": "sbe a", "1970": "di om", "1971": "d\u2019 az", "1972": "ci af", "1973": "na ab", "1974": "li on", "1975": "re ab", "1976": "lo on", "1977": "v\u2019 el", "1978": "li ul", "1979": "ro or", "1980": "s\u2019 ar", "1981": "ze et", "1982": "gliet", "1983": "me in", "1984": "l\u2019 af", "1985": "ra on", "1986": "t\u2019 ag", "1987": "ra el", "1988": "va eb", "1989": "te ap", "1990": "ta as", "1991": "v\u2019 ab", "1992": "va \u2019n", "1993": "l\u2019 ul", "1994": "stroz", "1995": "zo as", "1996": "ra of", "1997": "schem", "1998": "na ap", "1999": "so eb", "2000": "do as", "2001": "ci \u2019n", "2002": "ce ar", "2003": "s\u2019 ag", "2004": "bra a", "2005": "le or", "2006": "zia e", "2007": "l\u2019 \u00e0n", "2008": "ro al", "2009": "zo in", "2010": "ta et", "2011": "di av", "2012": "v\u2019 am", "2013": "squar", "2014": "ne in", "2015": "t\u2019 im", "2016": "te is", "2017": "to uc", "2018": "se ap", "2019": "re ol", "2020": "co eb", "2021": "chi e", "2022": "va an", "2023": "t\u2019 am", "2024": "t\u2019 ac", "2025": "so an", "2026": "ci ad", "2027": "co ad", "2028": "gno a", "2029": "l\u2019 es", "2030": "io al", "2031": "lo af", "2032": "te ac", "2033": "ri ar", "2034": "strin", "2035": "sciol", "2036": "za on", "2037": "ro as", "2038": "si og", "2039": "t\u2019 al", "2040": "dre e", "2041": "re as", "2042": "chiar", "2043": "si \u2019n", "2044": "si as", "2045": "de eu", "2046": "sta e", "2047": "d\u2019 ar", "2048": "zo ar", "2049": "no in", "2050": "do ar", "2051": "ve at", "2052": "za et", "2053": "le as", "2054": "l\u2019 al", "2055": "scial", "2056": "di og", "2057": "li or", "2058": "vi al", "2059": "la av", "2060": "ra an", "2061": "ce on", "2062": "cia o", "2063": "sciam", "2064": "ra eb", "2065": "m\u2019 eb", "2066": "m\u2019 es", "2067": "ne an", "2068": "pi in", "2069": "ca en", "2070": "te on", "2071": "ro ap", "2072": "sciau", "2073": "n\u2019 au", "2074": "scran", "2075": "na ac", "2076": "to ef", "2077": "va id", "2078": "lo in", "2079": "gliuo", "2080": "se un", "2081": "n\u2019 am", "2082": "ma es", "2083": "no at", "2084": "ta ar", "2085": "t\u2019 ap", "2086": "po ar", "2087": "te an", "2088": "no ag", "2089": "lo er", "2090": "ni al", "2091": "ca an", "2092": "cio a", "2093": "le in", "2094": "li ac", "2095": "stram", "2096": "re im", "2097": "gliam", "2098": "li ap", "2099": "l\u2019 em", "2100": "si el", "2101": "ci ap", "2102": "bra u", "2103": "ti am", "2104": "ne es", "2105": "za \u2019n", "2106": "mo af", "2107": "ghien", "2108": "li av", "2109": "d\u2019 in", "2110": "pr\u2019 e", "2111": "ci ar", "2112": "me of", "2113": "no av", "2114": "t\u2019 av", "2115": "no af", "2116": "n\u2019 ap", "2117": "s\u2019 ap", "2118": "ne et", "2119": "v\u2019 es", "2120": "se on", "2121": "tri a", "2122": "s\u2019 et", "2123": "la or", "2124": "stric", "2125": "la el", "2126": "ne \u2019m", "2127": "ste i", "2128": "to av", "2129": "le at", "2130": "di on", "2131": "vi an", "2132": "ta al", "2133": "vi \u2019m", "2134": "tri e", "2135": "na av", "2136": "to ab", "2137": "splen", "2138": "d\u2019 oc", "2139": "l\u2019 un", "2140": "t\u2019 in", "2141": "so in", "2142": "mo eb", "2143": "ce at", "2144": "ce es", "2145": "to af", "2146": "to et", "2147": "d\u2019 er", "2148": "ta am", "2149": "te ad", "2150": "l\u2019 ec", "2151": "ci in", "2152": "do im", "2153": "de am", "2154": "mi an", "2155": "zi at", "2156": "ne as", "2157": "no im", "2158": "ze or", "2159": "ce in", "2160": "ge un", "2161": "sgrie", "2162": "me am", "2163": "ti ac", "2164": "ci at", "2165": "re oc", "2166": "s\u2019 er", "2167": "se af", "2168": "ro on", "2169": "no ar", "2170": "ve al", "2171": "dio i", "2172": "to on", "2173": "schic", "2174": "le ad", "2175": "ma in", "2176": "vi on", "2177": "n\u2019 uo", "2178": "no an", "2179": "l\u2019 ag", "2180": "sto e", "2181": "le av", "2182": "le al", "2183": "na of", "2184": "l\u2019 op", "2185": "d\u2019 eb", "2186": "te er", "2187": "n\u2019 eb", "2188": "ma on", "2189": "mo ac", "2190": "do an", "2191": "za an", "2192": "si of", "2193": "ra uc", "2194": "v\u2019 ar", "2195": "po in", "2196": "ra ap", "2197": "vi en", "2198": "de om", "2199": "lo \u2019n", "2200": "que o", "2201": "la \u2019n", "2202": "mo al", "2203": "do ol", "2204": "so ad", "2205": "to oc", "2206": "t\u2019 el", "2207": "v\u2019 of", "2208": "do am", "2209": "glies", "2210": "ta at", "2211": "no ap", "2212": "co et", "2213": "mi ap", "2214": "d\u2019 or", "2215": "so as", "2216": "l\u2019 uo", "2217": "zi al", "2218": "sa es", "2219": "fu im", "2220": "mi in", "2221": "n\u2019 ag", "2222": "ro at", "2223": "ri ac", "2224": "bi al", "2225": "to at", "2226": "ne ov", "2227": "so et", "2228": "streg", "2229": "na on", "2230": "ti oc", "2231": "di ab", "2232": "zio u", "2233": "d\u2019 os", "2234": "sti a", "2235": "li ag", "2236": "st\u2019 u", "2237": "si ar", "2238": "ra ac", "2239": "sa og", "2240": "chi o", "2241": "ri al", "2242": "di in", "2243": "l\u2019 or", "2244": "glien", "2245": "zo an", "2246": "v\u2019 ap", "2247": "chiap", "2248": "l\u2019 el", "2249": "re am", "2250": "za al", "2251": "l\u2019 in", "2252": "mi \u2019n", "2253": "di af", "2254": "ce af", "2255": "lo of", "2256": "mi ad", "2257": "no ab", "2258": "le an", "2259": "t\u2019 es", "2260": "na \u2019n", "2261": "tra e", "2262": "go al", "2263": "do ap", "2264": "l\u2019 ar", "2265": "vi ac", "2266": "si av", "2267": "chian", "2268": "l\u2019 en", "2269": "strut", "2270": "sta o", "2271": "mo im", "2272": "l\u2019 ot", "2273": "li \u2019m", "2274": "lo il", "2275": "ra al", "2276": "li uc", "2277": "l\u2019 ac", "2278": "d\u2019 ab", "2279": "dea u", "2280": "tu ha", "2281": "m\u2019 ab", "2282": "mo of", "2283": "tro a", "2284": "co ap", "2285": "lo as", "2286": "za er", "2287": "ra im", "2288": "tro o", "2289": "di al", "2290": "li am", "2291": "te \u2019n", "2292": "la in", "2293": "me at", "2294": "m\u2019 ar", "2295": "ro im", "2296": "to ap", "2297": "gia o", "2298": "l\u2019 uc", "2299": "ro es", "2300": "de au", "2301": "l\u2019 an", "2302": "d\u2019 on", "2303": "re ag", "2304": "no et", "2305": "ma ap", "2306": "sa ac", "2307": "l\u2019 et", "2308": "de of", "2309": "t\u2019 ar", "2310": "m\u2019 al", "2311": "d\u2019 en", "2312": "ci al", "2313": "re on", "2314": "gne u", "2315": "no or", "2316": "strac", "2317": "so es", "2318": "ce av", "2319": "be al", "2320": "do eb", "2321": "sciar", "2322": "d\u2019 om", "2323": "scher", "2324": "chi a", "2325": "to or", "2326": "be on", "2327": "ge an", "2328": "no al", "2329": "m\u2019 av", "2330": "so on", "2331": "ti en", "2332": "re ad", "2333": "strar", "2334": "ra es", "2335": "na af", "2336": "no om", "2337": "zio a", "2338": "lo at", "2339": "le ol", "2340": "ni on", "2341": "bre a", "2342": "s\u00ec \u2019m", "2343": "te at", "2344": "ta es", "2345": "gna a", "2346": "st\u2019 a", "2347": "ri in", "2348": "te af", "2349": "do ac", "2350": "di az", "2351": "l\u2019 ai", "2352": "ro ab", "2353": "mo an", "2354": "m\u2019 of", "2355": "gliar", "2356": "lo eb", "2357": "me au", "2358": "do at", "2359": "so ab", "2360": "re an", "2361": "l\u2019 om", "2362": "si am", "2363": "sto o", "2364": "t\u2019 ab", "2365": "ce im", "2366": "sa ol", "2367": "sguar", "2368": "re ar", "2369": "ta im", "2370": "li \u2019n", "2371": "gli u", "2372": "la \u2019m", "2373": "va in", "2374": "co er", "2375": "n\u2019 at", "2376": "ne ac", "2377": "ne em", "2378": "no ac", "2379": "zie o", "2380": "de af", "2381": "li oc", "2382": "ro av", "2383": "si at", "2384": "si en", "2385": "s\u2019 at", "2386": "v\u2019 ac", "2387": "ve ar", "2388": "po al", "2389": "re ot", "2390": "c\u2019 en", "2391": "ge et", "2392": "sci\u00e0n", "2393": "tra a", "2394": "suo a", "2395": "to ov", "2396": "n\u2019 ab", "2397": "scian", "2398": "ce au", "2399": "d\u2019 af", "2400": "gne o", "2401": "s\u2019 an", "2402": "vo an", "2403": "vo as", "2404": "vo au", "2405": "gi an", "2406": "m\u2019 in", "2407": "re en", "2408": "d\u2019 es", "2409": "to ag", "2410": "ni es", "2411": "ge in", "2412": "zia o", "2413": "no am", "2414": "mi er", "2415": "ti al", "2416": "la ol", "2417": "v\u2019 in", "2418": "schiu", "2419": "re om", "2420": "ci am", "2421": "sce a", "2422": "scioc", "2423": "sfran", "2424": "d\u2019 og", "2425": "lo al", "2426": "scheg", "2427": "li al", "2428": "si al", "2429": "no as", "2430": "gia e", "2431": "so am", "2432": "co ac", "2433": "l\u2019 ol", "2434": "do in", "2435": "li at", "2436": "che e", "2437": "to as", "2438": "le ar", "2439": "rio a", "2440": "te es", "2441": "d\u2019 ur", "2442": "ve ap", "2443": "v\u2019 er", "2444": "l\u2019 ap", "2445": "va ar", "2446": "ti av", "2447": "ghian", "2448": "strom", "2449": "re il", "2450": "le \u2019m", "2451": "s\u2019 ac", "2452": "se \u2019n", "2453": "li au", "2454": "te om", "2455": "li an", "2456": "pa in", "2457": "li et", "2458": "mo on", "2459": "te au", "2460": "gne a", "2461": "li of", "2462": "re av", "2463": "s\u00ec \u2019n", "2464": "ne ap", "2465": "schia", "2466": "la on", "2467": "spran", "2468": "ze es", "2469": "ro ac", "2470": "ni am", "2471": "s\u2019 av", "2472": "ch\u2019 ar", "2473": "ch\u2019 ag", "2474": "glio o", "2475": "chi al", "2476": "st\u2019 ul", "2477": "ste in", "2478": "st\u2019 an", "2479": "st\u2019 al", "2480": "vea \u2019m", "2481": "cia im", "2482": "che om", "2483": "qua on", "2484": "sti el", "2485": "stro u", "2486": "ch\u2019 at", "2487": "sta an", "2488": "ch\u2019 av", "2489": "gno al", "2490": "sto on", "2491": "ch\u2019 eb", "2492": "qua of", "2493": "sti un", "2494": "tr\u2019 al", "2495": "sto at", "2496": "che ar", "2497": "chio u", "2498": "sma in", "2499": "gne im", "2500": "dre eb", "2501": "st\u2019 ac", "2502": "gne er", "2503": "ch\u2019 ap", "2504": "pre in", "2505": "te han", "2506": "che ha", "2507": "tro ar", "2508": "tre os", "2509": "ria on", "2510": "qua in", "2511": "tri in", "2512": "n\u2019 han", "2513": "ria in", "2514": "st\u2019 ot", "2515": "sti oc", "2516": "sce an", "2517": "sco al", "2518": "chi ar", "2519": "zia or", "2520": "sto ac", "2521": "ne han", "2522": "cio et", "2523": "bri ap", "2524": "gne in", "2525": "go han", "2526": "gni an", "2527": "gue an", "2528": "li han", "2529": "bre in", "2530": "nio im", "2531": "tro al", "2532": "bia an", "2533": "mio \u2019n", "2534": "sce al", "2535": "gno am", "2536": "ch\u2019 an", "2537": "tro ab", "2538": "ch\u2019 ac", "2539": "stra u", "2540": "glia u", "2541": "tro an", "2542": "zia il", "2543": "sta im", "2544": "tro as", "2545": "co e i", "2546": "tr\u2019 om", "2547": "ch\u2019 am", "2548": "rio an", "2549": "tro on", "2550": "tra ef", "2551": "ria of", "2552": "ste an", "2553": "pr\u2019 ar", "2554": "tro ap", "2555": "que es", "2556": "m\u2019 han", "2557": "sta ol", "2558": "ch\u2019 or", "2559": "gue or", "2560": "schian", "2561": "pi\u00f9 in", "2562": "chi ac", "2563": "tro \u2019m", "2564": "cia on", "2565": "stro e", "2566": "glio e", "2567": "tro av", "2568": "sta al", "2569": "tr\u2019 ar", "2570": "st\u2019 of", "2571": "bia in", "2572": "sti in", "2573": "qua im", "2574": "stri a", "2575": "bra in", "2576": "ch\u2019 og", "2577": "glio u", "2578": "tri of", "2579": "str\u2019 u", "2580": "ch\u2019 as", "2581": "zie ec", "2582": "ch\u2019 en", "2583": "tro et", "2584": "st\u2019 es", "2585": "gne ef", "2586": "sto an", "2587": "ch\u2019 es", "2588": "cia ar", "2589": "pre ar", "2590": "sti al", "2591": "gia in", "2592": "pre at", "2593": "gno af", "2594": "pie or", "2595": "sco an", "2596": "st\u2019 ar", "2597": "sta og", "2598": "tro in", "2599": "sti av", "2600": "schiat", "2601": "tre an", "2602": "ch\u2019 er", "2603": "lio an", "2604": "sce as", "2605": "gia al", "2606": "sto in", "2607": "dia as", "2608": "stro o", "2609": "gna in", "2610": "cio ap", "2611": "dre es", "2612": "sti an", "2613": "ch\u2019 ad", "2614": "schiet", "2615": "sti er", "2616": "sta in", "2617": "scia e", "2618": "che an", "2619": "chio a", "2620": "tri af", "2621": "gio on", "2622": "gue on", "2623": "ch\u2019 ab", "2624": "tri es", "2625": "ghe on", "2626": "pio on", "2627": "pre es", "2628": "ch\u2019 el", "2629": "cio as", "2630": "bre et", "2631": "sti es", "2632": "mia \u2019n", "2633": "chi on", "2634": "che \u2019m", "2635": "dre an", "2636": "tra an", "2637": "st\u2019 in", "2638": "bre an", "2639": "chi an", "2640": "pi\u00f9 \u2019n", "2641": "dre as", "2642": "sto im", "2643": "c\u2019 han", "2644": "gio in", "2645": "sce el", "2646": "dre al", "2647": "sto es", "2648": "sto \u2019n", "2649": "sto ap", "2650": "che \u2019n", "2651": "l\u2019 han", "2652": "tra op", "2653": "gno in", "2654": "que al", "2655": "pre al", "2656": "sto ar", "2657": "lia an", "2658": "gne uo", "2659": "tri ap", "2660": "sto of", "2661": "t\u2019 han", "2662": "ch\u2019 et", "2663": "vio in", "2664": "stra a", "2665": "chi in", "2666": "pre ac", "2667": "gia ar", "2668": "tre in", "2669": "sti or", "2670": "stri o", "2671": "tro ac", "2672": "ti han", "2673": "tri as", "2674": "sto al", "2675": "cio al", "2676": "tra av", "2677": "lio as", "2678": "lio in", "2679": "chio o", "2680": "gno ae", "2681": "gne al", "2682": "d\u2019 han", "2683": "ch\u2019 in", "2684": "sti on", "2685": "sto \u2019m", "2686": "stro a", "2687": "gne ac", "2688": "ch\u2019 al", "2689": "cie in", "2690": "tr\u2019 am", "2691": "zia on", "2692": "glia o", "2693": "stra i", "2694": "stra e", "2695": "che in", "2696": "glia a", "2697": "tro of", "2698": "gh\u2019 es", "2699": "chi ap", "2700": "chi am", "2701": "gio uc", "2702": "mio in", "2703": "ri han", "2704": "dio han", "2705": "chia an", "2706": "chie et", "2707": "stri av", "2708": "stro av", "2709": "chio in", "2710": "stri al", "2711": "d\u2019 i\u2019 a", "2712": "str\u2019 ar", "2713": "glie al", "2714": "stro al", "2715": "glie an", "2716": "sche ab", "2717": "n\u2019 \u00e8 im", "2718": "stro in", "2719": "glia es", "2720": "chia of", "2721": "sche er", "2722": "stri ef", "2723": "glia al", "2724": "stri af", "2725": "glio in", "2726": "stro eb", "2727": "glia in", "2728": "stre in", "2729": "stro im", "2730": "glio as", "2731": "ti e \u2019n", "2732": "glio an", "2733": "li \u00e8 in", "2734": "si e \u2019n", "2735": "glia ac", "2736": "stra ap", "2737": "stro ac", "2738": "stro oc", "2739": "str\u2019 or", "2740": "re a \u2019n", "2741": "glia as", "2742": "stro as", "2743": "stro an", "2744": "stro es", "2745": "glie eb", "2746": "stra ef", "2747": "chio an", "2748": "stra in", "2749": "stri an", "2750": "scia an", "2751": "trio al", "2752": "glio es", "2753": "glio on", "2754": "lo e \u2019n", "2755": "chio at", "2756": "t\u2019 ho in", "2757": "sti a \u2019n", "2758": "ch\u2019 e\u2019 \u2019n", "2759": "ch\u2019 io \u2019n", "2760": "o ", "2761": "i ", "2762": "e ", "2763": "a ", "2764": "s ", "2765": "\u00f9 ", "2766": "\u00e8 ", "2767": "\u00f2 ", "2768": "\u00ef ", "2769": "f\u00e9 ", "2770": "s\u00e9 ", "2771": "da ", "2772": "r\u00f2 ", "2773": "\u00e0s ", "2774": "ne ", "2775": "zi ", "2776": "ut ", "2777": "tu ", "2778": "te ", "2779": "li ", "2780": "ho ", "2781": "ia ", "2782": "s\u00ec ", "2783": "al ", "2784": "si ", "2785": "de ", "2786": "\u00f9l ", "2787": "l\u00f2 ", "2788": "ri ", "2789": "an ", "2790": "ra ", "2791": "\u00e0m ", "2792": "p\u00e8 ", "2793": "et ", "2794": "m\u00e8 ", "2795": "ba ", "2796": "ar ", "2797": "el ", "2798": "fu ", "2799": "i\u2019 ", "2800": "g\u00ec ", "2801": "ha ", "2802": "mo ", "2803": "on ", "2804": "di ", "2805": "z\u00f2 ", "2806": "be ", "2807": "mi ", "2808": "me ", "2809": "n\u00e0 ", "2810": "ae ", "2811": "na ", "2812": "ed ", "2813": "zo ", "2814": "oh ", "2815": "\u00e9n ", "2816": "po ", "2817": "g\u00f2 ", "2818": "pi ", "2819": "ie ", "2820": "b\u00f9 ", "2821": "vi ", "2822": "\u00f3n ", "2823": "le ", "2824": "d\u00f2 ", "2825": "us ", "2826": "do ", "2827": "\u00e0r ", "2828": "re ", "2829": "ca ", "2830": "r\u00ec ", "2831": "t\u00e8 ", "2832": "un ", "2833": "t\u00e9 ", "2834": "f\u00f2 ", "2835": "ze ", "2836": "pe ", "2837": "ma ", "2838": "fi ", "2839": "as ", "2840": "u\u2019 ", "2841": "ge ", "2842": "fo ", "2843": "d\u00ec ", "2844": "m\u00f2 ", "2845": "l\u00e8 ", "2846": "n\u00f2 ", "2847": "la ", "2848": "t\u00f9 ", "2849": "ci ", "2850": "t\u00f2 ", "2851": "in ", "2852": "l\u00e0 ", "2853": "or ", "2854": "d\u00e9 ", "2855": "su ", "2856": "\u00f2s ", "2857": "no ", "2858": "ei ", "2859": "fe ", "2860": "n\u00e9 ", "2861": "a\u2019 ", "2862": "v\u00ec ", "2863": "s\u00f9 ", "2864": "ro ", "2865": "pa ", "2866": "lo ", "2867": "vo ", "2868": "n\u00e8 ", "2869": "v\u00f2 ", "2870": "gi ", "2871": "n\u00ec ", "2872": "c\u00e9 ", "2873": "fa ", "2874": "b\u00f2 ", "2875": "l\u00ec ", "2876": "ta ", "2877": "r\u00e0 ", "2878": "ad ", "2879": "d\u00e0 ", "2880": "go ", "2881": "c\u00f2 ", "2882": "s\u00f2 ", "2883": "\u00e8l ", "2884": "co ", "2885": "ce ", "2886": "bi ", "2887": "e\u2019 ", "2888": "p\u00f2 ", "2889": "sa ", "2890": "t\u00ec ", "2891": "os ", "2892": "ai ", "2893": "s\u00e8 ", "2894": "va ", "2895": "bo ", "2896": "ga ", "2897": "il ", "2898": "ti ", "2899": "ve ", "2900": "ir ", "2901": "se ", "2902": "so ", "2903": "f\u00e0 ", "2904": "t\u00e0 ", "2905": "to ", "2906": "za ", "2907": "od ", "2908": "ni ", "2909": "om ", "2910": "ab ", "2911": "io ", "2912": "b\u00e8 ", "2913": "sin ", "2914": "fin ", "2915": "tar ", "2916": "rai ", "2917": "dr\u00e0 ", "2918": "nal ", "2919": "fil ", "2920": "ion ", "2921": "rei ", "2922": "v\u00ecd ", "2923": "sue ", "2924": "fer ", "2925": "vau ", "2926": "e i ", "2927": "nei ", "2928": "pir ", "2929": "rio ", "2930": "gi\u00f2 ", "2931": "men ", "2932": "dur ", "2933": "lui ", "2934": "can ", "2935": "car ", "2936": "poi ", "2937": "nea ", "2938": "g\u00f3n ", "2939": "gon ", "2940": "pra ", "2941": "vam ", "2942": "ter ", "2943": "dei ", "2944": "sel ", "2945": "ch\u00e9 ", "2946": "nie ", "2947": "ean ", "2948": "sub ", "2949": "n\u00eca ", "2950": "sai ", "2951": "s\u00f3n ", "2952": "pur ", "2953": "cun ", "2954": "voi ", "2955": "uo\u2019 ", "2956": "cre ", "2957": "len ", "2958": "nha ", "2959": "dro ", "2960": "sti ", "2961": "tra ", "2962": "cle ", "2963": "vel ", "2964": "pon ", "2965": "mia ", "2966": "que ", "2967": "rum ", "2968": "che ", "2969": "vem ", "2970": "lia ", "2971": "die ", "2972": "rie ", "2973": "ghe ", "2974": "pu\u00f2 ", "2975": "lan ", "2976": "tio ", "2977": "c\u00f2b ", "2978": "fur ", "2979": "cis ", "2980": "neo ", "2981": "vio ", "2982": "rao ", "2983": "va\u2019 ", "2984": "lee ", "2985": "nil ", "2986": "sol ", "2987": "sto ", "2988": "gna ", "2989": "meo ", "2990": "sar ", "2991": "cei ", "2992": "gel ", "2993": "pr\u00ec ", "2994": "cra ", "2995": "tea ", "2996": "st\u00ec ", "2997": "st\u00f2 ", "2998": "pi\u00e9 ", "2999": "sa\u2019 ", "3000": "zio ", "3001": "zie ", "3002": "nar ", "3003": "gno ", "3004": "mie ", "3005": "reo ", "3006": "coi ", "3007": "rel ", "3008": "tol ", "3009": "sca ", "3010": "mon ", "3011": "cel ", "3012": "pan ", "3013": "ser ", "3014": "o e ", "3015": "gai ", "3016": "cin ", "3017": "san ", "3018": "sma ", "3019": "sco ", "3020": "bis ", "3021": "me\u2019 ", "3022": "cem ", "3023": "za\u2019 ", "3024": "dio ", "3025": "cri ", "3026": "\u2018te ", "3027": "pel ", "3028": "ve\u2019 ", "3029": "mas ", "3030": "zan ", "3031": "lai ", "3032": "gi\u00f9 ", "3033": "noi ", "3034": "pri ", "3035": "feo ", "3036": "col ", "3037": "gui ", "3038": "cie ", "3039": "cur ", "3040": "su\u2019 ", "3041": "tia ", "3042": "a i ", "3043": "bre ", "3044": "lon ", "3045": "dee ", "3046": "smi ", "3047": "lir ", "3048": "pie ", "3049": "tal ", "3050": "f\u00f3n ", "3051": "ahi ", "3052": "m\u00eca ", "3053": "dar ", "3054": "ran ", "3055": "fai ", "3056": "tes ", "3057": "per ", "3058": "tre ", "3059": "dal ", "3060": "cu\u2019 ", "3061": "don ", "3062": "des ", "3063": "lin ", "3064": "tor ", "3065": "ber ", "3066": "n\u00f2s ", "3067": "sal ", "3068": "zai ", "3069": "tel ", "3070": "d\u00eca ", "3071": "cul ", "3072": "chi ", "3073": "fei ", "3074": "lio ", "3075": "dir ", "3076": "no\u2019 ", "3077": "zul ", "3078": "ma\u2019 ", "3079": "ra\u2019 ", "3080": "ti\u2019 ", "3081": "bri ", "3082": "pin ", "3083": "vei ", "3084": "d\u00e8i ", "3085": "gni ", "3086": "se\u2019 ", "3087": "zar ", "3088": "cai ", "3089": "vas ", "3090": "ger ", "3091": "peo ", "3092": "r\u00ecs ", "3093": "pia ", "3094": "bar ", "3095": "fan ", "3096": "cia ", "3097": "tr\u00f2 ", "3098": "tem ", "3099": "dil ", "3100": "clo ", "3101": "sta ", "3102": "mae ", "3103": "man ", "3104": "dri ", "3105": "var ", "3106": "gli ", "3107": "te\u2019 ", "3108": "dra ", "3109": "for ", "3110": "gol ", "3111": "lar ", "3112": "tan ", "3113": "num ", "3114": "sii ", "3115": "ben ", "3116": "da\u2019 ", "3117": "cum ", "3118": "gro ", "3119": "pol ", "3120": "de\u2019 ", "3121": "bra ", "3122": "nem ", "3123": "ghi ", "3124": "a a ", "3125": "ler ", "3126": "fon ", "3127": "re\u2019 ", "3128": "a e ", "3129": "st\u00e0 ", "3130": "c\u00f2l ", "3131": "ci\u00f2 ", "3132": "pio ", "3133": "ram ", "3134": "nan ", "3135": "vo\u2019 ", "3136": "tr\u00e0 ", "3137": "han ", "3138": "sir ", "3139": "tue ", "3140": "fui ", "3141": "bil ", "3142": "dia ", "3143": "ga\u2019 ", "3144": "l\u00e8m ", "3145": "gre ", "3146": "cui ", "3147": "tun ", "3148": "ron ", "3149": "tin ", "3150": "vil ", "3151": "lor ", "3152": "fu\u2019 ", "3153": "rer ", "3154": "lei ", "3155": "nio ", "3156": "vol ", "3157": "bor ", "3158": "tis ", "3159": "\u2019ve ", "3160": "leo ", "3161": "tua ", "3162": "dem ", "3163": "mor ", "3164": "f\u00e0s ", "3165": "vra ", "3166": "vai ", "3167": "r\u00ecb ", "3168": "fra ", "3169": "zia ", "3170": "far ", "3171": "unt ", "3172": "dor ", "3173": "mai ", "3174": "pem ", "3175": "o a ", "3176": "na\u2019 ", "3177": "ton ", "3178": "lea ", "3179": "mei ", "3180": "min ", "3181": "gio ", "3182": "deh ", "3183": "e \u2019 ", "3184": "dan ", "3185": "b\u00e0l ", "3186": "bon ", "3187": "c\u00e0n ", "3188": "nia ", "3189": "pea ", "3190": "cil ", "3191": "nel ", "3192": "cen ", "3193": "gue ", "3194": "mul ", "3195": "vea ", "3196": "sio ", "3197": "pei ", "3198": "ne\u2019 ", "3199": "gea ", "3200": "bro ", "3201": "sun ", "3202": "sui ", "3203": "sor ", "3204": "nai ", "3205": "cor ", "3206": "di\u00e8 ", "3207": "co\u2019 ", "3208": "gal ", "3209": "pre ", "3210": "por ", "3211": "ral ", "3212": "l\u00eco ", "3213": "fia ", "3214": "ria ", "3215": "deo ", "3216": "tai ", "3217": "sie ", "3218": "dea ", "3219": "ges ", "3220": "qui ", "3221": "gor ", "3222": "vie ", "3223": "ta\u2019 ", "3224": "til ", "3225": "bus ", "3226": "del ", "3227": "l\u00f2n ", "3228": "uom ", "3229": "sc\u00ec ", "3230": "zon ", "3231": "dr\u00f2 ", "3232": "pro ", "3233": "gn\u00ec ", "3234": "teo ", "3235": "gu\u00f2 ", "3236": "ven ", "3237": "ian ", "3238": "gei ", "3239": "ren ", "3240": "rar ", "3241": "pal ", "3242": "mer ", "3243": "bee ", "3244": "t\u00e0n ", "3245": "mal ", "3246": "gis ", "3247": "par ", "3248": "sen ", "3249": "sis ", "3250": "due ", "3251": "gra ", "3252": "vin ", "3253": "rir ", "3254": "t\u00f3n ", "3255": "t\u00e9r ", "3256": "gu\u00ec ", "3257": "cer ", "3258": "gar ", "3259": "dai ", "3260": "sia ", "3261": "rea ", "3262": "von ", "3263": "ri\u2019 ", "3264": "gin ", "3265": "f\u00e0t ", "3266": "bir ", "3267": "cro ", "3268": "cal ", "3269": "m\u00ecs ", "3270": "bi\u00f2 ", "3271": "tei ", "3272": "tuo ", "3273": "fi\u2019 ", "3274": "mil ", "3275": "pi\u00f9 ", "3276": "dre ", "3277": "bel ", "3278": "n\u00e8s ", "3279": "gir ", "3280": "spe ", "3281": "pi\u00e8 ", "3282": "sua ", "3283": "gan ", "3284": "tir ", "3285": "sei ", "3286": "gne ", "3287": "mio ", "3288": "mar ", "3289": "sci ", "3290": "plo ", "3291": "gia ", "3292": "suo ", "3293": "rin ", "3294": "ror ", "3295": "hai ", "3296": "van ", "3297": "bio ", "3298": "non ", "3299": "sul ", "3300": "via ", "3301": "bue ", "3302": "nor ", "3303": "st\u00f9 ", "3304": "ieu ", "3305": "gi\u00e0 ", "3306": "du\u2019 ", "3307": "ten ", "3308": "ver ", "3309": "tri ", "3310": "ril ", "3311": "tus ", "3312": "nir ", "3313": "ste ", "3314": "f\u00e8l ", "3315": "duo ", "3316": "cio ", "3317": "r\u00f3n ", "3318": "ban ", "3319": "rem ", "3320": "pr\u00e0 ", "3321": "nol ", "3322": "ier ", "3323": "b\u00eca ", "3324": "gi\u2019 ", "3325": "ner ", "3326": "lu\u2019 ", "3327": "n\u00ect ", "3328": "sce ", "3329": "mun ", "3330": "nis ", "3331": "fe\u2019 ", "3332": "tro ", "3333": "lie ", "3334": "smo ", "3335": "val ", "3336": "gua ", "3337": "bol ", "3338": "bei ", "3339": "cea ", "3340": "di\u2019 ", "3341": "qua ", "3342": "bia ", "3343": "con ", "3344": "st\u00e9 ", "3345": "spa ", "3346": "g\u00f3r ", "3347": "son ", "3348": "r\u00f2l ", "3349": "der ", "3350": "nin ", "3351": "sem ", "3352": "gri ", "3353": "din ", "3354": "pa a ", "3355": "ci e ", "3356": "o in ", "3357": "gnel ", "3358": "zi a ", "3359": "stea ", "3360": "guon ", "3361": "ro i ", "3362": "vier ", "3363": "scea ", "3364": "gner ", "3365": "gi a ", "3366": "ghio ", "3367": "ciar ", "3368": "chio ", "3369": "l\u00ec \u00e8 ", "3370": "zian ", "3371": "ti i ", "3372": "stil ", "3373": "so e ", "3374": "dra\u2019 ", "3375": "da i ", "3376": "ta o ", "3377": "se i ", "3378": "ti e ", "3379": "v\u2019 \u00e8 ", "3380": "viam ", "3381": "ro o ", "3382": "ta i ", "3383": "le o ", "3384": "si e ", "3385": "i il ", "3386": "li e ", "3387": "gran ", "3388": "de e ", "3389": "bo e ", "3390": "ce o ", "3391": "rien ", "3392": "sfar ", "3393": "ne e ", "3394": "po a ", "3395": "io e ", "3396": "stan ", "3397": "be e ", "3398": "mi e ", "3399": "ce e ", "3400": "ca o ", "3401": "ver\u2019 ", "3402": "e \u2019n ", "3403": "chie ", "3404": "ve o ", "3405": "tran ", "3406": "stel ", "3407": "lo e ", "3408": "lien ", "3409": "pria ", "3410": "fren ", "3411": "ghie ", "3412": "re a ", "3413": "giun ", "3414": "bi e ", "3415": "ge \u00e8 ", "3416": "prai ", "3417": "trae ", "3418": "ga o ", "3419": "vi o ", "3420": "ro \u00e8 ", "3421": "za \u00e8 ", "3422": "quar ", "3423": "no o ", "3424": "la i ", "3425": "tiam ", "3426": "bian ", "3427": "chel ", "3428": "no e ", "3429": "prei ", "3430": "d\u00ec i ", "3431": "breo ", "3432": "co o ", "3433": "l\u2019 \u00e8 ", "3434": "stie ", "3435": "bi i ", "3436": "tu i ", "3437": "be i ", "3438": "bran ", "3439": "scon ", "3440": "se \u00e8 ", "3441": "miei ", "3442": "to \u00e8 ", "3443": "do e ", "3444": "de i ", "3445": "si i ", "3446": "do i ", "3447": "te o ", "3448": "po i ", "3449": "dean ", "3450": "guan ", "3451": "se a ", "3452": "prun ", "3453": "ti \u00e8 ", "3454": "fiar ", "3455": "na o ", "3456": "de a ", "3457": "quie ", "3458": "l\u00e0 i ", "3459": "stre ", "3460": "tram ", "3461": "ne o ", "3462": "duol ", "3463": "ciam ", "3464": "quei ", "3465": "c\u2019 \u00e8 ", "3466": "puoi ", "3467": "te \u00e8 ", "3468": "t\u2019 \u00e8 ", "3469": "do a ", "3470": "la \u00e8 ", "3471": "pian ", "3472": "na \u00e8 ", "3473": "so a ", "3474": "lian ", "3475": "co i ", "3476": "sti\u00f2 ", "3477": "o il ", "3478": "ni o ", "3479": "ni a ", "3480": "ma o ", "3481": "ca e ", "3482": "sa e ", "3483": "di a ", "3484": "mo \u00e8 ", "3485": "do \u00e8 ", "3486": "tr\u00e0s ", "3487": "drel ", "3488": "cian ", "3489": "fian ", "3490": "za o ", "3491": "gnon ", "3492": "trei ", "3493": "va e ", "3494": "vien ", "3495": "te i ", "3496": "si o ", "3497": "trui ", "3498": "lo \u00e8 ", "3499": "la e ", "3500": "m\u2019 \u00e8 ", "3501": "mo a ", "3502": "vo e ", "3503": "sc\u00eco ", "3504": "brar ", "3505": "ra e ", "3506": "ghi\u00f2 ", "3507": "suo\u2019 ", "3508": "giam ", "3509": "lier ", "3510": "ca a ", "3511": "me i ", "3512": "tra\u2019 ", "3513": "mi a ", "3514": "trar ", "3515": "pron ", "3516": "sa a ", "3517": "sier ", "3518": "ci\u00f2l ", "3519": "str\u00f2 ", "3520": "ched ", "3521": "prie ", "3522": "ra i ", "3523": "pia\u2019 ", "3524": "br\u00f2t ", "3525": "slao ", "3526": "fier ", "3527": "de \u00e8 ", "3528": "trio ", "3529": "d\u2019 i ", "3530": "ch e ", "3531": "guia ", "3532": "vi a ", "3533": "spre ", "3534": "pi\u00e9r ", "3535": "sien ", "3536": "cean ", "3537": "qual ", "3538": "le a ", "3539": "sie\u2019 ", "3540": "ra \u00e8 ", "3541": "prio ", "3542": "chi\u00f2 ", "3543": "gli\u00f2 ", "3544": "se o ", "3545": "ce i ", "3546": "gion ", "3547": "gier ", "3548": "ta \u00e8 ", "3549": "brei ", "3550": "ziar ", "3551": "s\u2019 a ", "3552": "to a ", "3553": "vi e ", "3554": "grin ", "3555": "niam ", "3556": "gnar ", "3557": "ci o ", "3558": "glia ", "3559": "zo e ", "3560": "nail ", "3561": "sian ", "3562": "quor ", "3563": "biar ", "3564": "ve a ", "3565": "vuoi ", "3566": "zi \u00e8 ", "3567": "tier ", "3568": "po e ", "3569": "cral ", "3570": "ma a ", "3571": "gior ", "3572": "ciai ", "3573": "scer ", "3574": "ni \u00e8 ", "3575": "te e ", "3576": "sa \u00e8 ", "3577": "le i ", "3578": "co e ", "3579": "ge a ", "3580": "gnor ", "3581": "\u00e8 il ", "3582": "a \u2019l ", "3583": "zion ", "3584": "do o ", "3585": "go e ", "3586": "cl\u00e8s ", "3587": "a al ", "3588": "muor ", "3589": "rean ", "3590": "stri ", "3591": "ghia ", "3592": "fi e ", "3593": "grue ", "3594": "fo \u00e8 ", "3595": "no \u00e8 ", "3596": "scel ", "3597": "to e ", "3598": "to o ", "3599": "bia\u2019 ", "3600": "la o ", "3601": "trai ", "3602": "suon ", "3603": "stai ", "3604": "ciel ", "3605": "buon ", "3606": "ti o ", "3607": "gnum ", "3608": "ta e ", "3609": "guai ", "3610": "gnin ", "3611": "pe i ", "3612": "ci \u00e8 ", "3613": "pri\u2019 ", "3614": "ne a ", "3615": "ga e ", "3616": "crin ", "3617": "go a ", "3618": "fien ", "3619": "ciul ", "3620": "le \u00e8 ", "3621": "ma i ", "3622": "suoi ", "3623": "su i ", "3624": "di e ", "3625": "bo a ", "3626": "o un ", "3627": "ba e ", "3628": "va o ", "3629": "zi e ", "3630": "so o ", "3631": "gnun ", "3632": "ghin ", "3633": "gual ", "3634": "o al ", "3635": "sunt ", "3636": "se e ", "3637": "ro a ", "3638": "mian ", "3639": "mi i ", "3640": "sci\u00f2 ", "3641": "ta a ", "3642": "mo i ", "3643": "lo a ", "3644": "i in ", "3645": "bion ", "3646": "lo i ", "3647": "t\u2019 i ", "3648": "nien ", "3649": "glio ", "3650": "co \u00e8 ", "3651": "va i ", "3652": "di o ", "3653": "pier ", "3654": "ri a ", "3655": "com\u2019 ", "3656": "ma e ", "3657": "spri ", "3658": "scun ", "3659": "ce \u00e8 ", "3660": "prir ", "3661": "v\u2019 a ", "3662": "me e ", "3663": "stro ", "3664": "pien ", "3665": "na a ", "3666": "scia ", "3667": "ci a ", "3668": "siam ", "3669": "suol ", "3670": "tien ", "3671": "po \u00e8 ", "3672": "\u00e8 \u2019l ", "3673": "to i ", "3674": "bent ", "3675": "vi \u00e8 ", "3676": "gnan ", "3677": "co a ", "3678": "star ", "3679": "so \u00e8 ", "3680": "sion ", "3681": "stui ", "3682": "ciol ", "3683": "ne i ", "3684": "dien ", "3685": "me a ", "3686": "si \u00e8 ", "3687": "za i ", "3688": "ce a ", "3689": "li o ", "3690": "sche ", "3691": "glie ", "3692": "nier ", "3693": "piar ", "3694": "ti a ", "3695": "drir ", "3696": "pi e ", "3697": "fuor ", "3698": "na e ", "3699": "buoi ", "3700": "schi ", "3701": "da a ", "3702": "no i ", "3703": "spir ", "3704": "va a ", "3705": "diam ", "3706": "e \u2019l ", "3707": "r\u2019 a ", "3708": "sa i ", "3709": "ra o ", "3710": "di i ", "3711": "st\u00f2r ", "3712": "runt ", "3713": "za a ", "3714": "gi e ", "3715": "mo e ", "3716": "si a ", "3717": "drai ", "3718": "chia ", "3719": "a il ", "3720": "no a ", "3721": "be a ", "3722": "zo a ", "3723": "maio ", "3724": "brio ", "3725": "stor ", "3726": "tean ", "3727": "f\u00e9 i ", "3728": "naio ", "3729": "quai ", "3730": "le e ", "3731": "li a ", "3732": "gnus ", "3733": "ze o ", "3734": "frir ", "3735": "stia ", "3736": "vuol ", "3737": "ro e ", "3738": "po o ", "3739": "re o ", "3740": "pe e ", "3741": "quel ", "3742": "giar ", "3743": "ne \u00e8 ", "3744": "tuon ", "3745": "re e ", "3746": "scir ", "3747": "quod ", "3748": "mie\u2019 ", "3749": "bi a ", "3750": "sci\u2019 ", "3751": "li i ", "3752": "ge e ", "3753": "cia\u2019 ", "3754": "spro ", "3755": "d\u2019 \u00e8 ", "3756": "ma \u00e8 ", "3757": "re \u00e8 ", "3758": "so i ", "3759": "vuo\u2019 ", "3760": "plor ", "3761": "pa e ", "3762": "stei ", "3763": "stra ", "3764": "plar ", "3765": "li \u00e8 ", "3766": "cion ", "3767": "o \u2019n ", "3768": "go o ", "3769": "sa o ", "3770": "vean ", "3771": "vo a ", "3772": "ri o ", "3773": "ze e ", "3774": "pa \u00e8 ", "3775": "ve i ", "3776": "die\u2019 ", "3777": "gnia ", "3778": "tuoi ", "3779": "\u00e8 \u2019n ", "3780": "ra a ", "3781": "vria ", "3782": "scar ", "3783": "de o ", "3784": "n\u2019 \u00e8 ", "3785": "dron ", "3786": "s\u2019 \u00e8 ", "3787": "gien ", "3788": "quam ", "3789": "ni e ", "3790": "vian ", "3791": "fior ", "3792": "fe e ", "3793": "go \u00e8 ", "3794": "ve e ", "3795": "laio ", "3796": "rian ", "3797": "me \u00e8 ", "3798": "a in ", "3799": "stin ", "3800": "cria ", "3801": "za e ", "3802": "la a ", "3803": "ca \u00e8 ", "3804": "nian ", "3805": "guir ", "3806": "scio ", "3807": "ga a ", "3808": "dail ", "3809": "pion ", "3810": "da e ", "3811": "dier ", "3812": "re i ", "3813": "ri e ", "3814": "tria ", "3815": "nean ", "3816": "s\u00e9 i ", "3817": "cuor ", "3818": "que\u2019 ", "3819": "gian ", "3820": "gean ", "3821": "chin ", "3822": "te a ", "3823": "v\u2019 ha ", "3824": "pr\u2019 a ", "3825": "va \u2019n ", "3826": "pe \u2019l ", "3827": "gue \u00e8 ", "3828": "la un ", "3829": "strai ", "3830": "se io ", "3831": "ghi e ", "3832": "no ha ", "3833": "te ho ", "3834": "smo a ", "3835": "de il ", "3836": "te al ", "3837": "no al ", "3838": "pre i ", "3839": "ri a\u2019 ", "3840": "dro e ", "3841": "l\u2019 ha ", "3842": "po il ", "3843": "tro e ", "3844": "lo ed ", "3845": "to il ", "3846": "n\u00e9 \u2019l ", "3847": "m\u2019 io ", "3848": "no io ", "3849": "zi ai ", "3850": "ti il ", "3851": "le al ", "3852": "bo in ", "3853": "so a\u2019 ", "3854": "ra a\u2019 ", "3855": "v\u00f2 \u2019l ", "3856": "na in ", "3857": "tri e ", "3858": "d\u2019 ir ", "3859": "n\u00f2 in ", "3860": "ch\u2019 a ", "3861": "mi il ", "3862": "stiam ", "3863": "ha \u2019l ", "3864": "ta ad ", "3865": "d\u2019 i\u2019 ", "3866": "ti ed ", "3867": "mo il ", "3868": "sa il ", "3869": "ra in ", "3870": "ti ai ", "3871": "so \u2019l ", "3872": "gio e ", "3873": "su in ", "3874": "ro or ", "3875": "lo ha ", "3876": "zi \u2019l ", "3877": "be al ", "3878": "ra \u2019n ", "3879": "gni a ", "3880": "mi in ", "3881": "za in ", "3882": "d\u2019 io ", "3883": "zio a ", "3884": "zi un ", "3885": "no ai ", "3886": "be in ", "3887": "bro \u00e8 ", "3888": "se ho ", "3889": "bre e ", "3890": "le ir ", "3891": "ne io ", "3892": "po in ", "3893": "sti \u00e8 ", "3894": "glian ", "3895": "di in ", "3896": "sto e ", "3897": "za oh ", "3898": "ca il ", "3899": "bra a ", "3900": "t\u00e0 \u2019l ", "3901": "te ed ", "3902": "li il ", "3903": "to ad ", "3904": "re il ", "3905": "le il ", "3906": "ra il ", "3907": "te in ", "3908": "r\u2019 al ", "3909": "li ad ", "3910": "ria i ", "3911": "b\u2019 io ", "3912": "ri al ", "3913": "so il ", "3914": "mia e ", "3915": "re \u2019n ", "3916": "ti io ", "3917": "lia e ", "3918": "re in ", "3919": "ge un ", "3920": "do or ", "3921": "s\u2019 io ", "3922": "dio a ", "3923": "co u\u2019 ", "3924": "le in ", "3925": "ro od ", "3926": "n\u00f2 \u2019l ", "3927": "pio a ", "3928": "sti e ", "3929": "dia e ", "3930": "li al ", "3931": "pre e ", "3932": "t\u2019 ho ", "3933": "cio a ", "3934": "za ed ", "3935": "te a\u2019 ", "3936": "se il ", "3937": "de al ", "3938": "di al ", "3939": "ta io ", "3940": "de in ", "3941": "ne un ", "3942": "gra o ", "3943": "ria \u2019 ", "3944": "lio a ", "3945": "stian ", "3946": "za or ", "3947": "ti ha ", "3948": "le ha ", "3949": "vo in ", "3950": "co ad ", "3951": "pe ad ", "3952": "le ad ", "3953": "ra un ", "3954": "tr\u2019 \u00e8 ", "3955": "li \u2019l ", "3956": "me un ", "3957": "be ed ", "3958": "di ad ", "3959": "vra i ", "3960": "v\u2019 or ", "3961": "co il ", "3962": "n\u2019 io ", "3963": "fa \u2019l ", "3964": "tro a ", "3965": "bra e ", "3966": "re ed ", "3967": "pa in ", "3968": "po ed ", "3969": "v\u2019 ei ", "3970": "ti ei ", "3971": "qua \u00e8 ", "3972": "ci ha ", "3973": "le io ", "3974": "ma un ", "3975": "gue e ", "3976": "ra io ", "3977": "qui e ", "3978": "se a\u2019 ", "3979": "sciai ", "3980": "ge ad ", "3981": "t\u2019 el ", "3982": "zio e ", "3983": "na ed ", "3984": "l\u2019 om ", "3985": "ri in ", "3986": "va io ", "3987": "li oh ", "3988": "re ho ", "3989": "li ha ", "3990": "to \u2019l ", "3991": "zo al ", "3992": "t\u2019 io ", "3993": "la in ", "3994": "s\u2019 ha ", "3995": "va a\u2019 ", "3996": "to \u2019n ", "3997": "za ha ", "3998": "re ad ", "3999": "po ha ", "4000": "do ad ", "4001": "che \u2019 ", "4002": "l\u2019 ho ", "4003": "do al ", "4004": "s\u2019 un ", "4005": "dre a ", "4006": "pre a ", "4007": "g\u2019 io ", "4008": "da io ", "4009": "ve in ", "4010": "gi un ", "4011": "ta \u2019l ", "4012": "que a ", "4013": "sca i ", "4014": "do in ", "4015": "que \u00e8 ", "4016": "ne il ", "4017": "ta al ", "4018": "gna o ", "4019": "se \u2019n ", "4020": "gluol ", "4021": "de un ", "4022": "bio e ", "4023": "ta un ", "4024": "li un ", "4025": "tre e ", "4026": "scian ", "4027": "ro i\u2019 ", "4028": "ro ed ", "4029": "te ad ", "4030": "r\u00f2 \u2019l ", "4031": "stier ", "4032": "to ed ", "4033": "dri e ", "4034": "pio e ", "4035": "stial ", "4036": "gi il ", "4037": "t\u00f2 un ", "4038": "le un ", "4039": "ti in ", "4040": "co ai ", "4041": "chi \u00e8 ", "4042": "t\u2019 i\u2019 ", "4043": "ca in ", "4044": "sco i ", "4045": "gni e ", "4046": "ta ed ", "4047": "chi a ", "4048": "si \u2019n ", "4049": "zia a ", "4050": "ne ha ", "4051": "sto \u00e8 ", "4052": "tri a ", "4053": "sme e ", "4054": "gliel ", "4055": "ste a ", "4056": "t\u00f2 \u2019l ", "4057": "bi \u2019l ", "4058": "zia o ", "4059": "de ad ", "4060": "va in ", "4061": "se in ", "4062": "do un ", "4063": "ba in ", "4064": "ta il ", "4065": "d\u2019 un ", "4066": "fu il ", "4067": "n\u2019 ei ", "4068": "di or ", "4069": "tra i ", "4070": "lo un ", "4071": "me \u2019l ", "4072": "dro a ", "4073": "no in ", "4074": "sce e ", "4075": "no \u2019l ", "4076": "ge al ", "4077": "vrien ", "4078": "ta ha ", "4079": "te \u2019n ", "4080": "ge ai ", "4081": "de \u2019l ", "4082": "to al ", "4083": "si or ", "4084": "go il ", "4085": "le i\u2019 ", "4086": "to or ", "4087": "ci \u2019l ", "4088": "pie a ", "4089": "c\u2019 io ", "4090": "so ad ", "4091": "gia \u00e8 ", "4092": "v\u2019 e\u2019 ", "4093": "di ha ", "4094": "zo \u2019l ", "4095": "za il ", "4096": "gui e ", "4097": "zo il ", "4098": "sta \u00e8 ", "4099": "re ir ", "4100": "ma in ", "4101": "v\u2019 el ", "4102": "se e\u2019 ", "4103": "svuol ", "4104": "po io ", "4105": "scion ", "4106": "da al ", "4107": "r\u00f2 il ", "4108": "ne \u2019l ", "4109": "do a\u2019 ", "4110": "va il ", "4111": "va ad ", "4112": "ti \u2019n ", "4113": "ni or ", "4114": "tra a ", "4115": "t\u2019 il ", "4116": "si in ", "4117": "ve un ", "4118": "be il ", "4119": "glior ", "4120": "si al ", "4121": "ce u\u2019 ", "4122": "zi il ", "4123": "rio e ", "4124": "temps ", "4125": "pri a ", "4126": "b\u00f2 il ", "4127": "s\u2019 e\u2019 ", "4128": "ci in ", "4129": "gia e ", "4130": "lo il ", "4131": "do \u2019l ", "4132": "so in ", "4133": "ria a ", "4134": "vi in ", "4135": "te or ", "4136": "te un ", "4137": "lo ad ", "4138": "di un ", "4139": "no u\u2019 ", "4140": "te \u2019l ", "4141": "ra ha ", "4142": "ti ad ", "4143": "li ei ", "4144": "gua a ", "4145": "be or ", "4146": "zi al ", "4147": "sce i ", "4148": "za al ", "4149": "zii e ", "4150": "mi al ", "4151": "ia il ", "4152": "do ed ", "4153": "ma \u2019l ", "4154": "ci al ", "4155": "g\u00ec \u2019l ", "4156": "gli a ", "4157": "vi un ", "4158": "chion ", "4159": "t\u00e9 \u2019l ", "4160": "ne ed ", "4161": "ta in ", "4162": "d\u2019 e\u2019 ", "4163": "sa un ", "4164": "ni in ", "4165": "l\u00e0 il ", "4166": "s\u2019 el ", "4167": "fu \u2019l ", "4168": "ba il ", "4169": "lo ai ", "4170": "bi in ", "4171": "che a ", "4172": "ge in ", "4173": "stion ", "4174": "di \u2019l ", "4175": "re al ", "4176": "ch\u00e9 i ", "4177": "ne ad ", "4178": "ha in ", "4179": "ga in ", "4180": "to a\u2019 ", "4181": "gno i ", "4182": "gui i ", "4183": "te u\u2019 ", "4184": "ce al ", "4185": "gri e ", "4186": "z\u00f2 il ", "4187": "mo ha ", "4188": "na ei ", "4189": "ro il ", "4190": "ria o ", "4191": "le \u2019l ", "4192": "mo ed ", "4193": "le or ", "4194": "mo in ", "4195": "me a\u2019 ", "4196": "na \u2019n ", "4197": "sta a ", "4198": "\u2019v\u2019 \u00e8 ", "4199": "cia o ", "4200": "me in ", "4201": "c\u2019 ha ", "4202": "ghe e ", "4203": "dia i ", "4204": "ti un ", "4205": "tro \u00e8 ", "4206": "glier ", "4207": "l\u00e0 \u2019l ", "4208": "no un ", "4209": "za un ", "4210": "sci a ", "4211": "glien ", "4212": "chiar ", "4213": "lio \u00e8 ", "4214": "ia in ", "4215": "ch\u00e9 a ", "4216": "se i\u2019 ", "4217": "da un ", "4218": "m\u2019 ha ", "4219": "ci or ", "4220": "co \u2019l ", "4221": "gia a ", "4222": "tri \u00e8 ", "4223": "ste e ", "4224": "ti \u2019l ", "4225": "t\u2019 om ", "4226": "mi a\u2019 ", "4227": "la il ", "4228": "ve il ", "4229": "zio \u00e8 ", "4230": "ca al ", "4231": "re i\u2019 ", "4232": "se ir ", "4233": "na al ", "4234": "sa ad ", "4235": "sti a ", "4236": "pi in ", "4237": "dre e ", "4238": "lo a\u2019 ", "4239": "ma il ", "4240": "ge il ", "4241": "que e ", "4242": "ni il ", "4243": "to io ", "4244": "si u\u2019 ", "4245": "ci a\u2019 ", "4246": "ma a\u2019 ", "4247": "p\u2019 io ", "4248": "no ed ", "4249": "stral ", "4250": "le ab ", "4251": "che i ", "4252": "zia \u00e8 ", "4253": "si il ", "4254": "qua e ", "4255": "tr\u2019 a ", "4256": "gi al ", "4257": "va ed ", "4258": "rio a ", "4259": "no a\u2019 ", "4260": "va or ", "4261": "ne a\u2019 ", "4262": "co a\u2019 ", "4263": "c\u2019 ho ", "4264": "so un ", "4265": "chi e ", "4266": "vi \u2019l ", "4267": "gno \u00e8 ", "4268": "s\u00ec \u2019l ", "4269": "na ad ", "4270": "se \u2019l ", "4271": "s\u2019 ei ", "4272": "pra e ", "4273": "di ed ", "4274": "co al ", "4275": "d\u00f2 \u2019l ", "4276": "ve \u2019l ", "4277": "ti al ", "4278": "ra al ", "4279": "s\u2019 i\u2019 ", "4280": "re un ", "4281": "se or ", "4282": "ma \u2019n ", "4283": "ri \u2019l ", "4284": "zia e ", "4285": "me \u2019n ", "4286": "ve ad ", "4287": "tra \u2019 ", "4288": "si el ", "4289": "ra ad ", "4290": "cio e ", "4291": "schio ", "4292": "zo in ", "4293": "cia a ", "4294": "va un ", "4295": "li in ", "4296": "no il ", "4297": "gio a ", "4298": "ni \u2019l ", "4299": "ve al ", "4300": "ne or ", "4301": "si ad ", "4302": "ste i ", "4303": "do ha ", "4304": "dro o ", "4305": "be i\u2019 ", "4306": "strar ", "4307": "v\u2019 io ", "4308": "se un ", "4309": "va ai ", "4310": "chiai ", "4311": "to i\u2019 ", "4312": "go \u2019l ", "4313": "ro ad ", "4314": "ne al ", "4315": "me il ", "4316": "na il ", "4317": "da il ", "4318": "mo al ", "4319": "zi ad ", "4320": "la a\u2019 ", "4321": "lio e ", "4322": "ne ai ", "4323": "gliar ", "4324": "pe il ", "4325": "di a\u2019 ", "4326": "me ed ", "4327": "da or ", "4328": "ga il ", "4329": "to in ", "4330": "be un ", "4331": "di il ", "4332": "g\u00f2 \u2019l ", "4333": "sa \u2019l ", "4334": "r\u00ec \u2019l ", "4335": "me ai ", "4336": "mo ad ", "4337": "za \u2019l ", "4338": "no i\u2019 ", "4339": "mi un ", "4340": "li or ", "4341": "sta e ", "4342": "pa or ", "4343": "re ha ", "4344": "la \u2019l ", "4345": "mo un ", "4346": "lo or ", "4347": "ce ha ", "4348": "se ad ", "4349": "ce in ", "4350": "za i\u2019 ", "4351": "ria e ", "4352": "sa in ", "4353": "vi il ", "4354": "che e ", "4355": "da \u2019l ", "4356": "gue a ", "4357": "bra o ", "4358": "ria \u00e8 ", "4359": "mi \u2019l ", "4360": "ra ed ", "4361": "ca io ", "4362": "ra \u2019l ", "4363": "tro i ", "4364": "mi ad ", "4365": "cia e ", "4366": "stran ", "4367": "to un ", "4368": "su \u2019l ", "4369": "tu \u2019l ", "4370": "f\u00e9 \u2019l ", "4371": "ne in ", "4372": "qua a ", "4373": "pa \u2019l ", "4374": "ghe a ", "4375": "zi or ", "4376": "mo \u2019l ", "4377": "ia ed ", "4378": "d\u2019 ei ", "4379": "co io ", "4380": "no ad ", "4381": "ghiar ", "4382": "gna e ", "4383": "gua e ", "4384": "da in ", "4385": "ch\u2019 \u00e8 ", "4386": "v\u2019 ho ", "4387": "fo or ", "4388": "do io ", "4389": "va \u2019l ", "4390": "la ed ", "4391": "v\u2019 \u00e8n ", "4392": "ia oh ", "4393": "te io ", "4394": "n\u2019 ha ", "4395": "bo a\u2019 ", "4396": "dio e ", "4397": "glion ", "4398": "si \u2019l ", "4399": "ro in ", "4400": "gna \u00e8 ", "4401": "tri o ", "4402": "d\u2019 el ", "4403": "sia e ", "4404": "s\u00e9 il ", "4405": "st\u2019 \u00e8 ", "4406": "te il ", "4407": "gno a ", "4408": "pa ed ", "4409": "va al ", "4410": "de ed ", "4411": "ge or ", "4412": "ra or ", "4413": "ro al ", "4414": "ti a\u2019 ", "4415": "li io ", "4416": "lo in ", "4417": "sto a ", "4418": "sta o ", "4419": "be \u2019l ", "4420": "mi ed ", "4421": "te ai ", "4422": "bre a ", "4423": "gli e ", "4424": "sco e ", "4425": "tra \u00e8 ", "4426": "se al ", "4427": "sce a ", "4428": "to ir ", "4429": "me ad ", "4430": "to ha ", "4431": "ci il ", "4432": "re a\u2019 ", "4433": "co un ", "4434": "la io ", "4435": "gi \u2019l ", "4436": "na un ", "4437": "do il ", "4438": "lo al ", "4439": "ce un ", "4440": "la al ", "4441": "so al ", "4442": "t\u00ec \u2019l ", "4443": "bia e ", "4444": "ce il ", "4445": "t\u2019 ha ", "4446": "l\u2019 un ", "4447": "di io ", "4448": "chian ", "4449": "v\u2019 i\u2019 ", "4450": "gno e ", "4451": "chier ", "4452": "re or ", "4453": "gia o ", "4454": "me al ", "4455": "tra e ", "4456": "sti o ", "4457": "na ha ", "4458": "gna a ", "4459": "sciar ", "4460": "te ha ", "4461": "gna i ", "4462": "go al ", "4463": "gliea ", "4464": "da i\u2019 ", "4465": "di \u2019n ", "4466": "ro a\u2019 ", "4467": "po \u2019l ", "4468": "ro un ", "4469": "bro e ", "4470": "si un ", "4471": "bi il ", "4472": "po al ", "4473": "co in ", "4474": "qua o ", "4475": "ni al ", "4476": "scia o ", "4477": "che a\u2019 ", "4478": "gne al ", "4479": "tro ai ", "4480": "sto ad ", "4481": "di e \u2019 ", "4482": "chi in ", "4483": "trio e ", "4484": "se uom ", "4485": "ch\u2019 io ", "4486": "tr\u2019 io ", "4487": "\u2019ve \u2019l ", "4488": "pi\u00f9 \u2019l ", "4489": "ne e \u2019 ", "4490": "sti in ", "4491": "va e i ", "4492": "gia or ", "4493": "gue il ", "4494": "ni e \u2019 ", "4495": "so\u2019 \u2019n ", "4496": "gi\u00e0 il ", "4497": "rio il ", "4498": "qua in ", "4499": "nio al ", "4500": "glio o ", "4501": "ch\u2019 ei ", "4502": "que ad ", "4503": "tro io ", "4504": "gni in ", "4505": "tre un ", "4506": "sco il ", "4507": "dia in ", "4508": "ne han ", "4509": "sce in ", "4510": "sta \u2019n ", "4511": "po e \u2019 ", "4512": "scia a ", "4513": "vra \u2019l ", "4514": "dria e ", "4515": "chio a ", "4516": "ro e \u2019 ", "4517": "gna in ", "4518": "gliuol ", "4519": "glia o ", "4520": "ro hai ", "4521": "gi\u00f9 il ", "4522": "li ha\u2019 ", "4523": "gna un ", "4524": "gia un ", "4525": "cia ir ", "4526": "tra al ", "4527": "chi al ", "4528": "que a\u2019 ", "4529": "sti ha ", "4530": "sto io ", "4531": "sc\u00ec \u2019l ", "4532": "di\u2019 \u2019l ", "4533": "tro al ", "4534": "chi \u2019n ", "4535": "gia \u2019l ", "4536": "gl\u2019 io ", "4537": "gna a\u2019 ", "4538": "me e \u2019 ", "4539": "gi\u00f9 \u2019l ", "4540": "to hai ", "4541": "stra e ", "4542": "gia il ", "4543": "gio ad ", "4544": "stro e ", "4545": "ch\u2019 a\u2019 ", "4546": "pra in ", "4547": "schiar ", "4548": "che un ", "4549": "ni e i ", "4550": "chio \u00e8 ", "4551": "se\u2019 in ", "4552": "chia e ", "4553": "cia ad ", "4554": "tra in ", "4555": "fra \u2019l ", "4556": "pre a\u2019 ", "4557": "stra a ", "4558": "pre al ", "4559": "ste il ", "4560": "sa e \u2019 ", "4561": "ghi in ", "4562": "gno ad ", "4563": "s\u2019 hai ", "4564": "gna \u2019l ", "4565": "glio a ", "4566": "tro ed ", "4567": "sche o ", "4568": "bra od ", "4569": "chi ha ", "4570": "sce il ", "4571": "gu\u00ec \u2019l ", "4572": "gli un ", "4573": "che \u2019l ", "4574": "sc\u2019 io ", "4575": "ch\u00e9 il ", "4576": "gli al ", "4577": "ch\u2019 om ", "4578": "ch\u2019 \u00e8i ", "4579": "qua al ", "4580": "ti han ", "4581": "ria il ", "4582": "sti \u2019l ", "4583": "scio a ", "4584": "gno il ", "4585": "te han ", "4586": "pria o ", "4587": "l\u2019 hai ", "4588": "cea il ", "4589": "pre ha ", "4590": "ri e \u2019 ", "4591": "gi\u2019 or ", "4592": "ch\u2019 ai ", "4593": "ch\u2019 al ", "4594": "tra \u2019l ", "4595": "chi ei ", "4596": "sta al ", "4597": "smo al ", "4598": "gno al ", "4599": "stro o ", "4600": "sti il ", "4601": "ch\u2019 in ", "4602": "ch\u2019 i\u2019 ", "4603": "tro un ", "4604": "stro a ", "4605": "pa e \u2019 ", "4606": "zie al ", "4607": "ghi al ", "4608": "gna il ", "4609": "pu\u00f2 \u2019l ", "4610": "c\u2019 ha\u2019 ", "4611": "gua in ", "4612": "qui \u2019l ", "4613": "che in ", "4614": "dio in ", "4615": "gno in ", "4616": "li han ", "4617": "gliuoi ", "4618": "gio in ", "4619": "glio e ", "4620": "tri or ", "4621": "rio ha ", "4622": "nia il ", "4623": "m\u2019 han ", "4624": "chio e ", "4625": "lio ed ", "4626": "schi a ", "4627": "pre in ", "4628": "fia il ", "4629": "ch\u00e9 \u2019n ", "4630": "c\u2019 hai ", "4631": "stia e ", "4632": "mia al ", "4633": "bra ad ", "4634": "sto al ", "4635": "sto in ", "4636": "stro i ", "4637": "due \u2019l ", "4638": "gno a\u2019 ", "4639": "tro ad ", "4640": "ghiaio ", "4641": "ch\u00e9 \u2019l ", "4642": "pria e ", "4643": "que i\u2019 ", "4644": "sta il ", "4645": "zio al ", "4646": "qua il ", "4647": "pra \u2019l ", "4648": "che al ", "4649": "tri il ", "4650": "tro in ", "4651": "que al ", "4652": "d\u2019 uom ", "4653": "che \u2019n ", "4654": "cia al ", "4655": "so hai ", "4656": "ch\u2019 e\u2019 ", "4657": "cia il ", "4658": "ch\u2019 un ", "4659": "vea \u2019l ", "4660": "cia in ", "4661": "gio al ", "4662": "ghio e ", "4663": "dre al ", "4664": "tro ha ", "4665": "cio ed ", "4666": "tra il ", "4667": "dro in ", "4668": "sto il ", "4669": "ch\u2019 or ", "4670": "glia \u00e8 ", "4671": "gno ed ", "4672": "l\u2019 uom ", "4673": "stio e ", "4674": "pra ed ", "4675": "st\u2019 ho ", "4676": "schi o ", "4677": "pia in ", "4678": "tre i\u2019 ", "4679": "tre in ", "4680": "spra e ", "4681": "glia a ", "4682": "pi\u00e9 \u2019l ", "4683": "gno ha ", "4684": "tri \u2019l ", "4685": "sta in ", "4686": "na\u2019 il ", "4687": "ba e \u2019 ", "4688": "tro \u2019l ", "4689": "tri ad ", "4690": "tra i\u2019 ", "4691": "ci\u00f2 \u2019l ", "4692": "ch\u2019 ad ", "4693": "gne \u2019l ", "4694": "sta un ", "4695": "ste in ", "4696": "t\u2019 hai ", "4697": "gio il ", "4698": "gno or ", "4699": "stie e ", "4700": "stro \u00e8 ", "4701": "ch\u2019 el ", "4702": "bio ed ", "4703": "cia un ", "4704": "ra han ", "4705": "glie e ", "4706": "tro a\u2019 ", "4707": "lia il ", "4708": "que in ", "4709": "gro un ", "4710": "stra \u00e8 ", "4711": "che il ", "4712": "bia in ", "4713": "m\u2019 hai ", "4714": "tro il ", "4715": "sia \u2019l ", "4716": "tro i\u2019 ", "4717": "glia e ", "4718": "tre il ", "4719": "ci e \u2019 ", "4720": "rio ho ", "4721": "gue in ", "4722": "ne e i ", "4723": "zia il ", "4724": "ria al ", "4725": "gi\u00e0 \u2019l ", "4726": "n\u2019 uom ", "4727": "que il ", "4728": "tre al ", "4729": "tr\u2019 a\u2019 ", "4730": "stri e ", "4731": "bia \u2019l ", "4732": "t\u2019 ha\u2019 ", "4733": "ghia a ", "4734": "chi il ", "4735": "tr\u2019 al ", "4736": "ti e i ", "4737": "zia in ", "4738": "chi \u2019l ", "4739": "ti e \u2019 ", "4740": "ghi \u2019l ", "4741": "dri ai ", "4742": "stia ad ", "4743": "mo e \u2019l ", "4744": "la e \u2019l ", "4745": "me e \u2019l ", "4746": "dre e \u2019 ", "4747": "chio ha ", "4748": "che e \u2019 ", "4749": "stra il ", "4750": "ra e \u2019l ", "4751": "stro il ", "4752": "ca e \u2019l ", "4753": "po e \u2019l ", "4754": "glio or ", "4755": "me e \u2019n ", "4756": "vo e \u2019l ", "4757": "dia e i ", "4758": "ch\u2019 uom ", "4759": "scia il ", "4760": "de e \u2019l ", "4761": "va e \u2019n ", "4762": "chio al ", "4763": "gne uom ", "4764": "so e \u2019l ", "4765": "chio in ", "4766": "ce e \u2019l ", "4767": "mi e \u2019l ", "4768": "glia in ", "4769": "glia un ", "4770": "ta e \u2019n ", "4771": "bre e \u2019 ", "4772": "sa e \u2019l ", "4773": "te e \u2019l ", "4774": "de e \u2019n ", "4775": "si e \u2019l ", "4776": "glia al ", "4777": "glio in ", "4778": "schia e ", "4779": "stri in ", "4780": "to o al ", "4781": "glio ai ", "4782": "go \u00e8 in ", "4783": "ci e \u2019l ", "4784": "re e \u2019l ", "4785": "m\u2019 \u00e8 \u2019l ", "4786": "glia il ", "4787": "za e \u2019l ", "4788": "ne e \u2019l ", "4789": "na e \u2019l ", "4790": "glie in ", "4791": "stra \u2019l ", "4792": "go e \u2019l ", "4793": "chia al ", "4794": "lio e i ", "4795": "ti e \u2019l ", "4796": "ro e \u2019l ", "4797": "ma e \u2019l ", "4798": "zo e \u2019l ", "4799": "no e \u2019l ", "4800": "ga e \u2019l ", "4801": "v\u2019 \u00e8 \u2019l ", "4802": "stro or ", "4803": "stro ed ", "4804": "do e \u2019n ", "4805": "lo \u00e8 in ", "4806": "bo e \u2019l ", "4807": "stro in ", "4808": "tra e \u2019 ", "4809": "l\u2019 \u00e8 \u2019l ", "4810": "to \u00e8 \u2019l ", "4811": "chio il ", "4812": "le e \u2019l ", "4813": "be e \u2019l ", "4814": "m\u2019 \u00e8 il ", "4815": "se e \u2019l ", "4816": "co e \u2019l ", "4817": "sci\u00f2 il ", "4818": "ta e \u2019l ", "4819": "glie \u2019l ", "4820": "schio e ", "4821": "va e \u2019l ", "4822": "to e \u2019l ", "4823": "cia e \u2019l ", "4824": "so ha \u2019l ", "4825": "s\u2019 i\u2019 \u2019l ", "4826": "bra e \u2019l ", "4827": "bia e \u2019l ", "4828": "zie e \u2019l ", "4829": "schi uom ", "4830": "sta e \u2019l ", "4831": "sti \u00e8 \u2019l ", "4832": "d\u2019 io \u2019l ", "4833": "tra e \u2019l ", "4834": "zio e \u2019l ", "4835": "v\u2019 ha \u2019l ", "4836": "dio e \u2019l ", "4837": "pra e \u2019l ", "4838": "st\u2019 \u00e8 \u2019l ", "4839": "te ha in ", "4840": "chi e \u2019l ", "4841": "to ha \u2019l ", "4842": "c\u2019 ha \u2019l ", "4843": "gio e \u2019l ", "4844": "ria \u00e8 \u2019l ", "4845": "dre e \u2019l ", "4846": "tr\u2019 \u00e8 \u2019l ", "4847": "tre e \u2019l ", "4848": "ria e \u2019l ", "4849": "ch\u2019 io \u2019l ", "4850": "scia e \u2019l ", "4851": "ch\u2019 i\u2019 \u2019l ", "4852": "chie e \u2019n ", "4853": "stro e \u2019l ", "4854": "chio o \u2019l ", "4855": "chio e \u2019l ", "4856": "glio e \u2019l "}