{"0": "", "1": "<v>", "2": "</v>", "3": "<t><v>", "4": "</t>", "5": " ", "6": "\u2019", "7": "a", "8": "d", "9": "e", "10": "i", "11": "l", "12": "o", "13": "p", "14": "u", "15": "\u00e8", "16": "\u00e9", "17": "\u00eb", "18": "\u00ec", "19": "\u00ef", "20": "\u00f2", "21": "\u00f9", "22": "\u00fc", "23": "ab", "24": "ac", "25": "ad", "26": "ae", "27": "af", "28": "ag", "29": "ai", "30": "al", "31": "am", "32": "an", "33": "ap", "34": "ar", "35": "as", "36": "at", "37": "au", "38": "av", "39": "az", "40": "a\u2019", "41": "ba", "42": "be", "43": "bi", "44": "bo", "45": "bu", "46": "b\u00e8", "47": "b\u00eb", "48": "b\u00ec", "49": "b\u00ef", "50": "b\u00f2", "51": "b\u00f9", "52": "b\u2019", "53": "ca", "54": "ce", "55": "ci", "56": "co", "57": "cu", "58": "c\u00e8", "59": "c\u00e9", "60": "c\u00eb", "61": "c\u00ec", "62": "c\u00ef", "63": "c\u00f2", "64": "c\u00f9", "65": "c\u00fc", "66": "c\u2019", "67": "da", "68": "de", "69": "di", "70": "do", "71": "du", "72": "d\u00e0", "73": "d\u00e9", "74": "d\u00eb", "75": "d\u00ec", "76": "d\u00ef", "77": "d\u00f2", "78": "d\u00fc", "79": "d\u2019", "80": "eb", "81": "ec", "82": "ed", "83": "ef", "84": "ei", "85": "el", "86": "em", "87": "en", "88": "er", "89": "es", "90": "et", "91": "eu", "92": "ex", "93": "e\u2019", "94": "fa", "95": "fe", "96": "fi", "97": "fo", "98": "fu", "99": "f\u00e0", "100": "f\u00e9", "101": "f\u00eb", "102": "f\u00ef", "103": "f\u00f2", "104": "f\u00f3", "105": "ga", "106": "ge", "107": "gi", "108": "go", "109": "gu", "110": "g\u00e8", "111": "g\u00eb", "112": "g\u00ec", "113": "g\u00ef", "114": "g\u00f2", "115": "g\u00f3", "116": "g\u00fc", "117": "g\u2019", "118": "ha", "119": "hi", "120": "ho", "121": "ia", "122": "id", "123": "ie", "124": "il", "125": "im", "126": "in", "127": "io", "128": "ir", "129": "is", "130": "iu", "131": "i\u2019", "132": "la", "133": "le", "134": "li", "135": "lo", "136": "lu", "137": "l\u00e0", "138": "l\u00e8", "139": "l\u00eb", "140": "l\u00ec", "141": "l\u00ef", "142": "l\u00f2", "143": "l\u00f6", "144": "l\u00fc", "145": "l\u2019", "146": "ma", "147": "me", "148": "mi", "149": "mo", "150": "mu", "151": "m\u00e4", "152": "m\u00e8", "153": "m\u00eb", "154": "m\u00ec", "155": "m\u00ef", "156": "m\u00f2", "157": "m\u2019", "158": "na", "159": "ne", "160": "ni", "161": "no", "162": "nu", "163": "n\u00e0", "164": "n\u00e8", "165": "n\u00e9", "166": "n\u00eb", "167": "n\u00ec", "168": "n\u00ef", "169": "n\u00f2", "170": "n\u00fc", "171": "n\u2019", "172": "ob", "173": "oc", "174": "od", "175": "of", "176": "og", "177": "oh", "178": "ol", "179": "om", "180": "on", "181": "op", "182": "or", "183": "os", "184": "ot", "185": "ov", "186": "pa", "187": "pe", "188": "pi", "189": "po", "190": "pu", "191": "p\u00e8", "192": "p\u00eb", "193": "p\u00ec", "194": "p\u00ef", "195": "p\u00f2", "196": "p\u00fc", "197": "p\u2019", "198": "ra", "199": "re", "200": "ri", "201": "ro", "202": "ru", "203": "r\u00e0", "204": "r\u00e8", "205": "r\u00eb", "206": "r\u00ec", "207": "r\u00ef", "208": "r\u00f2", "209": "r\u00f3", "210": "r\u2019", "211": "sa", "212": "se", "213": "si", "214": "so", "215": "su", "216": "s\u00e0", "217": "s\u00e8", "218": "s\u00e9", "219": "s\u00eb", "220": "s\u00ec", "221": "s\u00ef", "222": "s\u00f2", "223": "s\u00f9", "224": "s\u00fc", "225": "s\u2019", "226": "ta", "227": "te", "228": "ti", "229": "to", "230": "tu", "231": "t\u00e0", "232": "t\u00e4", "233": "t\u00e8", "234": "t\u00e9", "235": "t\u00eb", "236": "t\u00ec", "237": "t\u00ef", "238": "t\u00f2", "239": "t\u00f9", "240": "t\u00fc", "241": "t\u2019", "242": "uc", "243": "ul", "244": "um", "245": "un", "246": "uo", "247": "ur", "248": "us", "249": "u\u2019", "250": "va", "251": "ve", "252": "vi", "253": "vo", "254": "vu", "255": "v\u00e4", "256": "v\u00e8", "257": "v\u00e9", "258": "v\u00eb", "259": "v\u00ec", "260": "v\u00ef", "261": "v\u00f2", "262": "v\u2019", "263": "xi", "264": "za", "265": "ze", "266": "zi", "267": "zo", "268": "z\u00ef", "269": "z\u00f2", "270": "z\u2019", "271": "\u00e0m", "272": "\u00e0n", "273": "\u00e0r", "274": "\u00e0s", "275": "\u00e8e", "276": "\u00e8i", "277": "\u00e8l", "278": "\u00e8n", "279": "\u00e8v", "280": "\u00e9n", "281": "\u00ecs", "282": "\u00f2n", "283": "\u00f2s", "284": "\u00f3n", "285": "\u00f9l", "286": "\u2019l", "287": "\u2019m", "288": "\u2019n", "289": "ahi", "290": "bab", "291": "bac", "292": "bai", "293": "bal", "294": "ban", "295": "bar", "296": "bas", "297": "bat", "298": "bea", "299": "bec", "300": "bee", "301": "bef", "302": "bei", "303": "bel", "304": "ben", "305": "beo", "306": "ber", "307": "bet", "308": "bev", "309": "bia", "310": "bie", "311": "bil", "312": "bin", "313": "bio", "314": "bir", "315": "bis", "316": "biz", "317": "bi\u00f2", "318": "bli", "319": "bl\u00ef", "320": "boc", "321": "bol", "322": "bom", "323": "bon", "324": "bor", "325": "bot", "326": "boz", "327": "bra", "328": "bre", "329": "bri", "330": "bro", "331": "bru", "332": "br\u00ef", "333": "buc", "334": "bue", "335": "buf", "336": "bug", "337": "bui", "338": "bul", "339": "bun", "340": "buo", "341": "bur", "342": "bus", "343": "but", "344": "b\u00e0l", "345": "b\u00e8l", "346": "b\u00eca", "347": "cac", "348": "cad", "349": "caf", "350": "cag", "351": "cai", "352": "cal", "353": "cam", "354": "can", "355": "cap", "356": "car", "357": "cas", "358": "cat", "359": "cau", "360": "cea", "361": "cef", "362": "cei", "363": "cel", "364": "cem", "365": "cen", "366": "ceo", "367": "cep", "368": "cer", "369": "ces", "370": "cet", "371": "cez", "372": "che", "373": "chi", "374": "ch\u00e9", "375": "ch\u00ec", "376": "ch\u00ef", "377": "ch\u2019", "378": "cia", "379": "cic", "380": "cie", "381": "cil", "382": "cin", "383": "cio", "384": "cir", "385": "cis", "386": "cit", "387": "ciu", "388": "ci\u00f2", "389": "cla", "390": "cle", "391": "cli", "392": "clo", "393": "clu", "394": "cl\u00ef", "395": "cob", "396": "coc", "397": "coi", "398": "col", "399": "com", "400": "con", "401": "cop", "402": "cor", "403": "cos", "404": "cot", "405": "cov", "406": "coz", "407": "co\u2019", "408": "cra", "409": "cre", "410": "cri", "411": "cro", "412": "cru", "413": "cr\u00e0", "414": "cuc", "415": "cui", "416": "cul", "417": "cum", "418": "cun", "419": "cuo", "420": "cur", "421": "cut", "422": "cu\u2019", "423": "c\u00e0n", "424": "c\u00e9r", "425": "c\u00f2b", "426": "c\u00f2l", "427": "c\u00f3l", "428": "dai", "429": "dal", "430": "dam", "431": "dan", "432": "dar", "433": "das", "434": "dat", "435": "dau", "436": "da\u2019", "437": "dea", "438": "deb", "439": "dec", "440": "dee", "441": "deg", "442": "deh", "443": "dei", "444": "del", "445": "dem", "446": "den", "447": "deo", "448": "der", "449": "des", "450": "det", "451": "dez", "452": "de\u2019", "453": "dia", "454": "dic", "455": "die", "456": "dif", "457": "dii", "458": "dil", "459": "dim", "460": "din", "461": "dio", "462": "dir", "463": "dis", "464": "dit", "465": "diz", "466": "di\u00e8", "467": "di\u2019", "468": "dob", "469": "doc", "470": "dol", "471": "dom", "472": "don", "473": "dop", "474": "dor", "475": "dos", "476": "dot", "477": "dov", "478": "dra", "479": "dre", "480": "dri", "481": "dro", "482": "dru", "483": "dr\u00e0", "484": "dr\u00e4", "485": "dr\u00ec", "486": "dr\u00ef", "487": "dr\u00f2", "488": "dua", "489": "dub", "490": "due", "491": "dug", "492": "dui", "493": "dul", "494": "dun", "495": "duo", "496": "dur", "497": "dus", "498": "dut", "499": "du\u2019", "500": "d\u00e8i", "501": "d\u00eca", "502": "d\u00ece", "503": "d\u00ect", "504": "ean", "505": "est", "506": "fab", "507": "fac", "508": "fai", "509": "fal", "510": "fam", "511": "fan", "512": "far", "513": "fas", "514": "fat", "515": "fau", "516": "feb", "517": "feg", "518": "fei", "519": "fel", "520": "fem", "521": "fen", "522": "feo", "523": "fer", "524": "fes", "525": "fet", "526": "fe\u2019", "527": "fia", "528": "fib", "529": "fic", "530": "fie", "531": "fig", "532": "fil", "533": "fin", "534": "fio", "535": "fis", "536": "fit", "537": "fiu", "538": "fi\u00f2", "539": "fi\u2019", "540": "fla", "541": "fle", "542": "flu", "543": "fog", "544": "fol", "545": "fom", "546": "fon", "547": "for", "548": "fos", "549": "fra", "550": "fre", "551": "fri", "552": "fro", "553": "fru", "554": "fuc", "555": "fue", "556": "fug", "557": "fui", "558": "ful", "559": "fum", "560": "fun", "561": "fuo", "562": "fur", "563": "fu\u2019", "564": "f\u00e0c", "565": "f\u00e0s", "566": "f\u00e0t", "567": "f\u00e8l", "568": "f\u00e9e", "569": "f\u00e9l", "570": "f\u00f3n", "571": "gab", "572": "gad", "573": "gag", "574": "gai", "575": "gal", "576": "gam", "577": "gan", "578": "gar", "579": "gas", "580": "gat", "581": "gau", "582": "gaz", "583": "ga\u2019", "584": "gea", "585": "gei", "586": "gel", "587": "gem", "588": "gen", "589": "geo", "590": "ger", "591": "ges", "592": "get", "593": "ghe", "594": "ghi", "595": "gh\u2019", "596": "gia", "597": "gib", "598": "gie", "599": "gil", "600": "gim", "601": "gin", "602": "gio", "603": "gir", "604": "gis", "605": "git", "606": "giu", "607": "giz", "608": "gi\u00e0", "609": "gi\u00f2", "610": "gi\u00f9", "611": "gi\u2019", "612": "gli", "613": "glo", "614": "gl\u2019", "615": "gna", "616": "gne", "617": "gni", "618": "gno", "619": "gnu", "620": "gob", "621": "goc", "622": "gol", "623": "gom", "624": "gon", "625": "gor", "626": "got", "627": "goz", "628": "gra", "629": "gre", "630": "gri", "631": "gro", "632": "gru", "633": "gua", "634": "guc", "635": "gue", "636": "gui", "637": "guo", "638": "gur", "639": "guz", "640": "gu\u00ec", "641": "gu\u00f2", "642": "g\u00f3n", "643": "g\u00f3r", "644": "hai", "645": "han", "646": "ha\u2019", "647": "hon", "648": "ian", "649": "iar", "650": "iat", "651": "iep", "652": "ier", "653": "ieu", "654": "ion", "655": "ior", "656": "jau", "657": "joi", "658": "lab", "659": "lac", "660": "lai", "661": "lam", "662": "lan", "663": "lap", "664": "lar", "665": "las", "666": "lat", "667": "lau", "668": "lav", "669": "laz", "670": "la\u2019", "671": "lea", "672": "leb", "673": "lec", "674": "lee", "675": "leg", "676": "lei", "677": "lel", "678": "lem", "679": "len", "680": "leo", "681": "lep", "682": "ler", "683": "les", "684": "let", "685": "lez", "686": "lia", "687": "lic", "688": "lie", "689": "lil", "690": "lim", "691": "lin", "692": "lio", "693": "lip", "694": "lir", "695": "lis", "696": "lit", "697": "loc", "698": "lom", "699": "lon", "700": "lop", "701": "lor", "702": "lot", "703": "luc", "704": "lui", "705": "lul", "706": "lun", "707": "luo", "708": "lup", "709": "lur", "710": "lus", "711": "lut", "712": "luz", "713": "lu\u2019", "714": "l\u00e8m", "715": "l\u00eca", "716": "l\u00eco", "717": "l\u00f2n", "718": "mac", "719": "mae", "720": "mag", "721": "mai", "722": "mal", "723": "mam", "724": "man", "725": "mar", "726": "mas", "727": "mat", "728": "maz", "729": "ma\u2019", "730": "mea", "731": "mee", "732": "meg", "733": "mei", "734": "mel", "735": "mem", "736": "men", "737": "meo", "738": "mer", "739": "mes", "740": "met", "741": "mez", "742": "me\u2019", "743": "mia", "744": "mic", "745": "mie", "746": "mii", "747": "mil", "748": "min", "749": "mio", "750": "mir", "751": "mi\u2019", "752": "mol", "753": "mon", "754": "mor", "755": "mos", "756": "mot", "757": "moz", "758": "muc", "759": "muf", "760": "mug", "761": "mul", "762": "mum", "763": "mun", "764": "muo", "765": "mur", "766": "mus", "767": "m\u00e8c", "768": "m\u00e9z", "769": "m\u00eca", "770": "m\u00ecs", "771": "nac", "772": "nag", "773": "nai", "774": "nal", "775": "nan", "776": "nar", "777": "nas", "778": "nat", "779": "na\u2019", "780": "nea", "781": "neb", "782": "nec", "783": "nef", "784": "neg", "785": "nei", "786": "nel", "787": "nem", "788": "nen", "789": "neo", "790": "ner", "791": "nes", "792": "net", "793": "nev", "794": "nez", "795": "ne\u2019", "796": "nha", "797": "nia", "798": "nic", "799": "nie", "800": "nig", "801": "nii", "802": "nil", "803": "nim", "804": "nin", "805": "nio", "806": "nir", "807": "nis", "808": "niz", "809": "ni\u2019", "810": "nob", "811": "noc", "812": "noi", "813": "nol", "814": "nom", "815": "non", "816": "nor", "817": "not", "818": "noz", "819": "no\u2019", "820": "nuc", "821": "nul", "822": "num", "823": "nun", "824": "nuo", "825": "nur", "826": "n\u00e8s", "827": "n\u00eca", "828": "n\u00ece", "829": "n\u00ect", "830": "n\u00f2i", "831": "n\u00f2s", "832": "pac", "833": "pai", "834": "pal", "835": "pan", "836": "pap", "837": "par", "838": "pas", "839": "pat", "840": "pau", "841": "paz", "842": "pea", "843": "pec", "844": "peg", "845": "pei", "846": "pel", "847": "pem", "848": "pen", "849": "peo", "850": "per", "851": "pes", "852": "pet", "853": "pia", "854": "pic", "855": "pie", "856": "pig", "857": "pii", "858": "pil", "859": "pin", "860": "pio", "861": "pir", "862": "pis", "863": "pit", "864": "piu", "865": "piz", "866": "pi\u00e8", "867": "pi\u00e9", "868": "pi\u00f9", "869": "pla", "870": "ple", "871": "pli", "872": "plo", "873": "plu", "874": "pl\u00ec", "875": "poc", "876": "pog", "877": "poi", "878": "pol", "879": "pom", "880": "pon", "881": "pop", "882": "por", "883": "pos", "884": "pot", "885": "poz", "886": "pra", "887": "pre", "888": "pri", "889": "pro", "890": "pru", "891": "pr\u00e0", "892": "pr\u00ec", "893": "pr\u2019", "894": "pub", "895": "puc", "896": "pul", "897": "pun", "898": "puo", "899": "pur", "900": "put", "901": "puz", "902": "pu\u00f2", "903": "p\u00e0r", "904": "p\u00eca", "905": "p\u00f2s", "906": "qua", "907": "que", "908": "qui", "909": "quo", "910": "qu\u00ef", "911": "qu\u2019", "912": "rab", "913": "rac", "914": "raf", "915": "rag", "916": "rai", "917": "ral", "918": "ram", "919": "ran", "920": "rao", "921": "rap", "922": "rar", "923": "ras", "924": "rat", "925": "rav", "926": "raz", "927": "ra\u2019", "928": "rea", "929": "reb", "930": "rec", "931": "red", "932": "ree", "933": "reg", "934": "rei", "935": "rel", "936": "rem", "937": "ren", "938": "reo", "939": "rer", "940": "res", "941": "ret", "942": "rez", "943": "re\u2019", "944": "ria", "945": "ric", "946": "rid", "947": "rie", "948": "rig", "949": "rii", "950": "ril", "951": "rim", "952": "rin", "953": "rio", "954": "rir", "955": "ris", "956": "rit", "957": "riz", "958": "ri\u2019", "959": "rob", "960": "roc", "961": "rof", "962": "rog", "963": "rol", "964": "rom", "965": "ron", "966": "ror", "967": "ros", "968": "rot", "969": "roz", "970": "rua", "971": "ruc", "972": "ruf", "973": "rug", "974": "rui", "975": "rum", "976": "run", "977": "ruo", "978": "rup", "979": "rut", "980": "r\u00e8g", "981": "r\u00ecb", "982": "r\u00ece", "983": "r\u00ecs", "984": "r\u00f2l", "985": "r\u00f3n", "986": "sab", "987": "sac", "988": "saf", "989": "sag", "990": "sai", "991": "sal", "992": "sam", "993": "san", "994": "sap", "995": "sar", "996": "sas", "997": "sat", "998": "sau", "999": "sa\u2019", "1000": "sba", "1001": "sbe", "1002": "sbi", "1003": "sca", "1004": "sce", "1005": "sci", "1006": "sco", "1007": "scu", "1008": "sc\u00ec", "1009": "sc\u00ef", "1010": "sc\u2019", "1011": "sde", "1012": "sec", "1013": "seg", "1014": "sei", "1015": "sel", "1016": "sem", "1017": "sen", "1018": "seo", "1019": "sep", "1020": "ser", "1021": "ses", "1022": "set", "1023": "sev", "1024": "sez", "1025": "se\u2019", "1026": "sfa", "1027": "sfe", "1028": "sfo", "1029": "sga", "1030": "sgo", "1031": "sia", "1032": "sic", "1033": "sie", "1034": "sii", "1035": "sil", "1036": "sin", "1037": "sio", "1038": "sir", "1039": "sis", "1040": "sit", "1041": "sla", "1042": "sle", "1043": "sma", "1044": "sme", "1045": "smi", "1046": "smo", "1047": "smu", "1048": "sna", "1049": "sno", "1050": "sob", "1051": "soc", "1052": "sod", "1053": "sof", "1054": "sog", "1055": "sol", "1056": "som", "1057": "son", "1058": "sop", "1059": "sor", "1060": "sos", "1061": "sot", "1062": "sov", "1063": "soz", "1064": "so\u2019", "1065": "spa", "1066": "spe", "1067": "spi", "1068": "spo", "1069": "spu", "1070": "sp\u00ef", "1071": "sra", "1072": "sr\u00e4", "1073": "sta", "1074": "ste", "1075": "sti", "1076": "sto", "1077": "stu", "1078": "st\u00e0", "1079": "st\u00e9", "1080": "st\u00ec", "1081": "st\u00ef", "1082": "st\u00f2", "1083": "st\u00f9", "1084": "st\u2019", "1085": "sua", "1086": "sub", "1087": "suc", "1088": "sud", "1089": "sue", "1090": "suf", "1091": "sug", "1092": "sui", "1093": "sul", "1094": "sum", "1095": "sun", "1096": "suo", "1097": "sup", "1098": "sur", "1099": "sus", "1100": "su\u2019", "1101": "sve", "1102": "svi", "1103": "svo", "1104": "sv\u00ef", "1105": "s\u00ece", "1106": "s\u00f3n", "1107": "s\u00f9e", "1108": "tac", "1109": "tad", "1110": "tag", "1111": "tai", "1112": "tal", "1113": "tam", "1114": "tan", "1115": "tar", "1116": "tas", "1117": "tat", "1118": "tau", "1119": "ta\u2019", "1120": "tea", "1121": "tec", "1122": "teg", "1123": "tei", "1124": "tel", "1125": "tem", "1126": "ten", "1127": "teo", "1128": "ter", "1129": "tes", "1130": "tet", "1131": "tez", "1132": "te\u2019", "1133": "tho", "1134": "tia", "1135": "tic", "1136": "tie", "1137": "tii", "1138": "til", "1139": "tim", "1140": "tin", "1141": "tio", "1142": "tir", "1143": "tis", "1144": "ti\u2019", "1145": "tle", "1146": "toc", "1147": "tol", "1148": "tom", "1149": "ton", "1150": "top", "1151": "tor", "1152": "tos", "1153": "tra", "1154": "tre", "1155": "tri", "1156": "tro", "1157": "tru", "1158": "tr\u00e0", "1159": "tr\u00ef", "1160": "tr\u00f2", "1161": "tr\u2019", "1162": "tua", "1163": "tuc", "1164": "tue", "1165": "tuf", "1166": "tui", "1167": "tum", "1168": "tun", "1169": "tuo", "1170": "tur", "1171": "tus", "1172": "tut", "1173": "t\u00e0n", "1174": "t\u00e8s", "1175": "t\u00e9r", "1176": "t\u00f2m", "1177": "t\u00f2n", "1178": "t\u00f2r", "1179": "t\u00f3n", "1180": "unt", "1181": "uom", "1182": "uo\u2019", "1183": "vac", "1184": "vag", "1185": "vai", "1186": "val", "1187": "vam", "1188": "van", "1189": "var", "1190": "vas", "1191": "vat", "1192": "vau", "1193": "va\u2019", "1194": "vea", "1195": "vec", "1196": "veg", "1197": "vei", "1198": "vel", "1199": "vem", "1200": "ven", "1201": "ver", "1202": "ves", "1203": "vet", "1204": "vez", "1205": "ve\u2019", "1206": "via", "1207": "vid", "1208": "vie", "1209": "vii", "1210": "vil", "1211": "vin", "1212": "vio", "1213": "vir", "1214": "vis", "1215": "vit", "1216": "viz", "1217": "voi", "1218": "vol", "1219": "vom", "1220": "von", "1221": "vor", "1222": "vos", "1223": "vo\u2019", "1224": "vra", "1225": "vul", "1226": "vuo", "1227": "v\u00ecd", "1228": "v\u00f2l", "1229": "xil", "1230": "zac", "1231": "zaf", "1232": "zai", "1233": "zan", "1234": "zar", "1235": "za\u2019", "1236": "zel", "1237": "zia", "1238": "zie", "1239": "zii", "1240": "zio", "1241": "zon", "1242": "zuc", "1243": "zuf", "1244": "zul", "1245": "zur", "1246": "z\u00f2n", "1247": "\u00f2th", "1248": "\u2018be", "1249": "\u2018la", "1250": "\u2018ne", "1251": "\u2018te", "1252": "\u2019ve", "1253": "\u2019v\u2019", "1254": "bent", "1255": "biac", "1256": "bian", "1257": "biar", "1258": "bias", "1259": "bia\u2019", "1260": "biet", "1261": "bion", "1262": "blan", "1263": "blia", "1264": "blio", "1265": "brac", "1266": "bran", "1267": "brar", "1268": "bree", "1269": "brei", "1270": "bren", "1271": "breo", "1272": "brez", "1273": "bria", "1274": "brie", "1275": "brio", "1276": "bris", "1277": "broc", "1278": "brol", "1279": "bron", "1280": "brot", "1281": "brug", "1282": "brul", "1283": "brut", "1284": "br\u00f2t", "1285": "buoi", "1286": "buon", "1287": "caio", "1288": "cean", "1289": "ched", "1290": "cheg", "1291": "chel", "1292": "cheo", "1293": "cher", "1294": "chet", "1295": "chez", "1296": "chia", "1297": "chie", "1298": "chil", "1299": "chin", "1300": "chio", "1301": "chis", "1302": "chiu", "1303": "chi\u00f2", "1304": "ciac", "1305": "ciai", "1306": "ciam", "1307": "cian", "1308": "ciap", "1309": "ciar", "1310": "cias", "1311": "cia\u2019", "1312": "ciel", "1313": "cien", "1314": "cioc", "1315": "ciol", "1316": "ciom", "1317": "cion", "1318": "ciot", "1319": "ciuf", "1320": "ciul", "1321": "ciuo", "1322": "ci\u00f2l", "1323": "clas", "1324": "clau", "1325": "clis", "1326": "clug", "1327": "cl\u00e8s", "1328": "com\u2019", "1329": "cral", "1330": "cras", "1331": "crea", "1332": "creb", "1333": "cria", "1334": "cric", "1335": "crin", "1336": "crol", "1337": "cruc", "1338": "cuor", "1339": "c\u00f2th", "1340": "dail", "1341": "dean", "1342": "dhae", "1343": "diam", "1344": "dian", "1345": "dien", "1346": "dier", "1347": "dies", "1348": "die\u2019", "1349": "drai", "1350": "dram", "1351": "dran", "1352": "drap", "1353": "dras", "1354": "dra\u2019", "1355": "drea", "1356": "drel", "1357": "dria", "1358": "drir", "1359": "drit", "1360": "driz", "1361": "dron", "1362": "duol", "1363": "d\u00e8ch", "1364": "egyp", "1365": "fiac", "1366": "fiam", "1367": "fian", "1368": "fiar", "1369": "fien", "1370": "fier", "1371": "fioc", "1372": "fior", "1373": "fiot", "1374": "fles", "1375": "flet", "1376": "flig", "1377": "flit", "1378": "fran", "1379": "frat", "1380": "fred", "1381": "fren", "1382": "fret", "1383": "frir", "1384": "fron", "1385": "frui", "1386": "frut", "1387": "fuor", "1388": "gaio", "1389": "gean", "1390": "gheg", "1391": "ghel", "1392": "gher", "1393": "ghes", "1394": "ghet", "1395": "ghez", "1396": "ghia", "1397": "ghie", "1398": "ghil", "1399": "ghin", "1400": "ghio", "1401": "ghir", "1402": "ghi\u00f2", "1403": "giac", "1404": "giai", "1405": "gial", "1406": "giam", "1407": "gian", "1408": "giar", "1409": "gias", "1410": "gien", "1411": "gier", "1412": "gioi", "1413": "gion", "1414": "gior", "1415": "giot", "1416": "giug", "1417": "giun", "1418": "giuo", "1419": "gi\u00f9e", "1420": "glau", "1421": "glet", "1422": "glia", "1423": "glie", "1424": "glio", "1425": "gli\u00f2", "1426": "gnan", "1427": "gnar", "1428": "gnas", "1429": "gnaz", "1430": "gnel", "1431": "gnem", "1432": "gnen", "1433": "gner", "1434": "gnes", "1435": "gnia", "1436": "gnie", "1437": "gnin", "1438": "gnon", "1439": "gnor", "1440": "gnum", "1441": "gnun", "1442": "gnuo", "1443": "gnus", "1444": "graf", "1445": "gram", "1446": "gran", "1447": "grap", "1448": "gras", "1449": "grat", "1450": "greg", "1451": "grem", "1452": "grep", "1453": "gres", "1454": "grez", "1455": "grie", "1456": "grin", "1457": "grom", "1458": "gron", "1459": "grop", "1460": "gros", "1461": "grot", "1462": "grue", "1463": "guag", "1464": "guai", "1465": "gual", "1466": "guan", "1467": "guar", "1468": "guaz", "1469": "guef", "1470": "guel", "1471": "guen", "1472": "guer", "1473": "guet", "1474": "guia", "1475": "guic", "1476": "guil", "1477": "guio", "1478": "guir", "1479": "guis", "1480": "guit", "1481": "guiz", "1482": "guon", "1483": "laia", "1484": "laio", "1485": "lian", "1486": "lien", "1487": "lier", "1488": "liev", "1489": "luia", "1490": "maia", "1491": "maio", "1492": "mian", "1493": "miei", "1494": "mie\u2019", "1495": "muoi", "1496": "muor", "1497": "nail", "1498": "naio", "1499": "naut", "1500": "nean", "1501": "niam", "1502": "nian", "1503": "nien", "1504": "nier", "1505": "ph\u00e8l", "1506": "piac", "1507": "piag", "1508": "pian", "1509": "piar", "1510": "piat", "1511": "pia\u2019", "1512": "pien", "1513": "pier", "1514": "piez", "1515": "piog", "1516": "piom", "1517": "pion", "1518": "piov", "1519": "pi\u00e9r", "1520": "pi\u00f9e", "1521": "plan", "1522": "plar", "1523": "plau", "1524": "ples", "1525": "plor", "1526": "pluo", "1527": "prai", "1528": "pran", "1529": "prec", "1530": "prei", "1531": "pren", "1532": "pres", "1533": "prez", "1534": "pria", "1535": "pric", "1536": "prie", "1537": "prin", "1538": "prio", "1539": "prir", "1540": "pris", "1541": "pri\u2019", "1542": "proc", "1543": "pron", "1544": "pros", "1545": "prun", "1546": "pruo", "1547": "puoi", "1548": "puol", "1549": "puom", "1550": "puos", "1551": "quae", "1552": "quai", "1553": "qual", "1554": "quam", "1555": "quan", "1556": "quar", "1557": "quat", "1558": "quei", "1559": "quel", "1560": "quen", "1561": "quer", "1562": "que\u2019", "1563": "quia", "1564": "quie", "1565": "quil", "1566": "quin", "1567": "quis", "1568": "quod", "1569": "quor", "1570": "rean", "1571": "rent", "1572": "riai", "1573": "rian", "1574": "rien", "1575": "runt", "1576": "saia", "1577": "sanc", "1578": "sban", "1579": "sbar", "1580": "sber", "1581": "sbra", "1582": "sbri", "1583": "scab", "1584": "scac", "1585": "scal", "1586": "scam", "1587": "scan", "1588": "scar", "1589": "scaz", "1590": "scea", "1591": "scel", "1592": "scem", "1593": "scen", "1594": "scer", "1595": "scet", "1596": "scev", "1597": "sche", "1598": "schi", "1599": "scia", "1600": "scic", "1601": "scie", "1602": "scim", "1603": "scin", "1604": "scio", "1605": "scir", "1606": "scis", "1607": "sciu", "1608": "sci\u00f2", "1609": "sci\u2019", "1610": "scoc", "1611": "scol", "1612": "scom", "1613": "scon", "1614": "scop", "1615": "scor", "1616": "scos", "1617": "scot", "1618": "scov", "1619": "scre", "1620": "scri", "1621": "scro", "1622": "scuf", "1623": "scun", "1624": "scuo", "1625": "sc\u00eco", "1626": "sdeg", "1627": "sden", "1628": "sdet", "1629": "sdru", "1630": "sfac", "1631": "sfam", "1632": "sfan", "1633": "sfar", "1634": "sfat", "1635": "sfer", "1636": "sfin", "1637": "sfio", "1638": "sfor", "1639": "sfre", "1640": "sgan", "1641": "sgom", "1642": "sgor", "1643": "sgra", "1644": "sgri", "1645": "siam", "1646": "sian", "1647": "sien", "1648": "sier", "1649": "sie\u2019", "1650": "sion", "1651": "slac", "1652": "slao", "1653": "smal", "1654": "sman", "1655": "smar", "1656": "smen", "1657": "smon", "1658": "smor", "1659": "smoz", "1660": "sneb", "1661": "snel", "1662": "spal", "1663": "span", "1664": "spar", "1665": "spaz", "1666": "spec", "1667": "spel", "1668": "spen", "1669": "sper", "1670": "spes", "1671": "spet", "1672": "spez", "1673": "spia", "1674": "spic", "1675": "spie", "1676": "spin", "1677": "spir", "1678": "spit", "1679": "spol", "1680": "spon", "1681": "spor", "1682": "spra", "1683": "spre", "1684": "spri", "1685": "spro", "1686": "spun", "1687": "spuo", "1688": "squa", "1689": "squi", "1690": "stai", "1691": "stal", "1692": "stam", "1693": "stan", "1694": "star", "1695": "stas", "1696": "stav", "1697": "stea", "1698": "stec", "1699": "stei", "1700": "stel", "1701": "stem", "1702": "sten", "1703": "steo", "1704": "ster", "1705": "stes", "1706": "stet", "1707": "stia", "1708": "stie", "1709": "stig", "1710": "stil", "1711": "stin", "1712": "stio", "1713": "stis", "1714": "stiz", "1715": "sti\u00f2", "1716": "stol", "1717": "stop", "1718": "stor", "1719": "stra", "1720": "stre", "1721": "stri", "1722": "stro", "1723": "stru", "1724": "str\u00e0", "1725": "str\u00f2", "1726": "str\u2019", "1727": "stuc", "1728": "stui", "1729": "stul", "1730": "stuo", "1731": "st\u00e8r", "1732": "st\u00f2r", "1733": "sunt", "1734": "suoi", "1735": "suol", "1736": "suon", "1737": "suo\u2019", "1738": "svel", "1739": "sven", "1740": "sver", "1741": "svia", "1742": "tean", "1743": "tiam", "1744": "tiem", "1745": "tien", "1746": "tier", "1747": "toio", "1748": "trac", "1749": "trae", "1750": "trag", "1751": "trai", "1752": "tram", "1753": "tran", "1754": "trap", "1755": "trar", "1756": "tras", "1757": "trat", "1758": "tra\u2019", "1759": "trea", "1760": "treb", "1761": "trec", "1762": "tree", "1763": "trei", "1764": "tren", "1765": "tret", "1766": "tria", "1767": "trie", "1768": "trio", "1769": "tris", "1770": "troc", "1771": "trom", "1772": "tron", "1773": "trop", "1774": "tror", "1775": "trot", "1776": "trui", "1777": "trul", "1778": "truo", "1779": "tr\u00e0s", "1780": "tuoi", "1781": "tuon", "1782": "tuo\u2019", "1783": "vaio", "1784": "vean", "1785": "ver\u2019", "1786": "viam", "1787": "vian", "1788": "viem", "1789": "vien", "1790": "vier", "1791": "vria", "1792": "vuoi", "1793": "vuol", "1794": "vuo\u2019", "1795": "zian", "1796": "ziar", "1797": "zion", "1798": "\u2018glo", "1799": "\u2018qui", "1800": "\u2019vun", "1801": "chiai", "1802": "chian", "1803": "chiap", "1804": "chiar", "1805": "chias", "1806": "chier", "1807": "chiet", "1808": "chioc", "1809": "chion", "1810": "ghiac", "1811": "ghiai", "1812": "ghian", "1813": "ghiar", "1814": "ghien", "1815": "ghiot", "1816": "gliai", "1817": "gliam", "1818": "glian", "1819": "gliar", "1820": "gliea", "1821": "gliel", "1822": "glien", "1823": "glier", "1824": "glies", "1825": "gliet", "1826": "glion", "1827": "glior", "1828": "gliuo", "1829": "gluol", "1830": "gnaio", "1831": "praia", "1832": "puesc", "1833": "scheg", "1834": "schem", "1835": "scher", "1836": "schet", "1837": "schia", "1838": "schic", "1839": "schie", "1840": "schio", "1841": "schiu", "1842": "sciai", "1843": "scial", "1844": "sciam", "1845": "scian", "1846": "sciar", "1847": "scias", "1848": "sciau", "1849": "scioc", "1850": "sciol", "1851": "sciom", "1852": "scion", "1853": "sciut", "1854": "sci\u00e0n", "1855": "scran", "1856": "scrip", "1857": "scris", "1858": "scrit", "1859": "scuoi", "1860": "sfran", "1861": "sgher", "1862": "sgiun", "1863": "sgrie", "1864": "sguar", "1865": "spiac", "1866": "splen", "1867": "spran", "1868": "spraz", "1869": "spres", "1870": "squar", "1871": "squil", "1872": "staio", "1873": "stial", "1874": "stiam", "1875": "stian", "1876": "stier", "1877": "stion", "1878": "strac", "1879": "strai", "1880": "stral", "1881": "stram", "1882": "stran", "1883": "strar", "1884": "stras", "1885": "strat", "1886": "streg", "1887": "strel", "1888": "stren", "1889": "stret", "1890": "stric", "1891": "strin", "1892": "stroc", "1893": "strom", "1894": "stroz", "1895": "strug", "1896": "strut", "1897": "svuol", "1898": "temps", "1899": "voill", "1900": "vrien", "1901": "ghiaio", "1902": "gliaio", "1903": "gliuoi", "1904": "gliuol", "1905": "schian", "1906": "schiar", "1907": "schiat", "1908": "schiet", "1909": "strans"}